{
  "version": "1.0",
  "truncation": null,
  "padding": null,
  "added_tokens": [
    {
      "id": 0,
      "content": "[PAD]",
      "single_word": false,
      "lstrip": false,
      "rstrip": false,
      "normalized": false,
      "special": true
    },
    {
      "id": 1,
      "content": "[UNK]",
      "single_word": false,
      "lstrip": false,
      "rstrip": false,
      "normalized": false,
      "special": true
    },
    {
      "id": 2,
      "content": "[CLS]",
      "single_word": false,
      "lstrip": false,
      "rstrip": false,
      "normalized": false,
      "special": true
    },
    {
      "id": 3,
      "content": "[SEP]",
      "single_word": false,
      "lstrip": false,
      "rstrip": false,
      "normalized": false,
      "special": true
    },
    {
      "id": 4,
      "content": "[MASK]",
      "single_word": false,
      "lstrip": false,
      "rstrip": false,
      "normalized": false,
      "special": true
    },
    {
      "id": 5,
      "content": "[BOS]",
      "single_word": false,
      "lstrip": false,
      "rstrip": false,
      "normalized": false,
      "special": true
    },
    {
      "id": 6,
      "content": "[EOS]",
      "single_word": false,
      "lstrip": false,
      "rstrip": false,
      "normalized": false,
      "special": true
    }
  ],
  "normalizer": null,
  "pre_tokenizer": {
    "type": "ByteLevel",
    "add_prefix_space": true,
    "trim_offsets": true,
    "use_regex": true
  },
  "post_processor": null,
  "decoder": {
    "type": "ByteLevel",
    "add_prefix_space": true,
    "trim_offsets": true,
    "use_regex": true
  },
  "model": {
    "type": "BPE",
    "dropout": 0.1,
    "unk_token": "[UNK]",
    "continuing_subword_prefix": null,
    "end_of_word_suffix": null,
    "fuse_unk": false,
    "byte_fallback": false,
    "ignore_merges": false,
    "vocab": {
      "[PAD]": 0,
      "[UNK]": 1,
      "[CLS]": 2,
      "[SEP]": 3,
      "[MASK]": 4,
      "[BOS]": 5,
      "[EOS]": 6,
      "!": 7,
      "\"": 8,
      "#": 9,
      "$": 10,
      "%": 11,
      "&": 12,
      "'": 13,
      "(": 14,
      ")": 15,
      "*": 16,
      "+": 17,
      ",": 18,
      "-": 19,
      ".": 20,
      "/": 21,
      "0": 22,
      "1": 23,
      "2": 24,
      "3": 25,
      "4": 26,
      "5": 27,
      "6": 28,
      "7": 29,
      "8": 30,
      "9": 31,
      ":": 32,
      ";": 33,
      "<": 34,
      "=": 35,
      ">": 36,
      "?": 37,
      "@": 38,
      "A": 39,
      "B": 40,
      "C": 41,
      "D": 42,
      "E": 43,
      "F": 44,
      "G": 45,
      "H": 46,
      "I": 47,
      "J": 48,
      "K": 49,
      "L": 50,
      "M": 51,
      "N": 52,
      "O": 53,
      "P": 54,
      "Q": 55,
      "R": 56,
      "S": 57,
      "T": 58,
      "U": 59,
      "V": 60,
      "W": 61,
      "X": 62,
      "Y": 63,
      "Z": 64,
      "[": 65,
      "\\": 66,
      "]": 67,
      "^": 68,
      "_": 69,
      "`": 70,
      "a": 71,
      "b": 72,
      "c": 73,
      "d": 74,
      "e": 75,
      "f": 76,
      "g": 77,
      "h": 78,
      "i": 79,
      "j": 80,
      "k": 81,
      "l": 82,
      "m": 83,
      "n": 84,
      "o": 85,
      "p": 86,
      "q": 87,
      "r": 88,
      "s": 89,
      "t": 90,
      "u": 91,
      "v": 92,
      "w": 93,
      "x": 94,
      "y": 95,
      "z": 96,
      "{": 97,
      "|": 98,
      "}": 99,
      "~": 100,
      "¡": 101,
      "¢": 102,
      "£": 103,
      "¤": 104,
      "¥": 105,
      "¦": 106,
      "§": 107,
      "¨": 108,
      "©": 109,
      "ª": 110,
      "«": 111,
      "¬": 112,
      "®": 113,
      "¯": 114,
      "°": 115,
      "±": 116,
      "²": 117,
      "³": 118,
      "´": 119,
      "µ": 120,
      "¶": 121,
      "·": 122,
      "¸": 123,
      "¹": 124,
      "º": 125,
      "»": 126,
      "¼": 127,
      "½": 128,
      "¾": 129,
      "¿": 130,
      "À": 131,
      "Á": 132,
      "Â": 133,
      "Ã": 134,
      "Ä": 135,
      "Å": 136,
      "Æ": 137,
      "Ç": 138,
      "È": 139,
      "É": 140,
      "Ê": 141,
      "Ë": 142,
      "Ì": 143,
      "Í": 144,
      "Î": 145,
      "Ï": 146,
      "Ð": 147,
      "Ñ": 148,
      "Ò": 149,
      "Ó": 150,
      "Ô": 151,
      "Õ": 152,
      "Ö": 153,
      "×": 154,
      "Ø": 155,
      "Ù": 156,
      "Ú": 157,
      "Û": 158,
      "Ü": 159,
      "Ý": 160,
      "Þ": 161,
      "ß": 162,
      "à": 163,
      "á": 164,
      "â": 165,
      "ã": 166,
      "ä": 167,
      "å": 168,
      "æ": 169,
      "ç": 170,
      "è": 171,
      "é": 172,
      "ê": 173,
      "ë": 174,
      "ì": 175,
      "í": 176,
      "î": 177,
      "ï": 178,
      "ð": 179,
      "ñ": 180,
      "ò": 181,
      "ó": 182,
      "ô": 183,
      "õ": 184,
      "ö": 185,
      "÷": 186,
      "ø": 187,
      "ù": 188,
      "ú": 189,
      "û": 190,
      "ü": 191,
      "ý": 192,
      "þ": 193,
      "ÿ": 194,
      "Ā": 195,
      "ā": 196,
      "Ă": 197,
      "ă": 198,
      "Ą": 199,
      "ą": 200,
      "Ć": 201,
      "ć": 202,
      "Ĉ": 203,
      "ĉ": 204,
      "Ċ": 205,
      "ċ": 206,
      "Č": 207,
      "č": 208,
      "Ď": 209,
      "ď": 210,
      "Đ": 211,
      "đ": 212,
      "Ē": 213,
      "ē": 214,
      "Ĕ": 215,
      "ĕ": 216,
      "Ė": 217,
      "ė": 218,
      "Ę": 219,
      "ę": 220,
      "Ě": 221,
      "ě": 222,
      "Ĝ": 223,
      "ĝ": 224,
      "Ğ": 225,
      "ğ": 226,
      "Ġ": 227,
      "ġ": 228,
      "Ģ": 229,
      "ģ": 230,
      "Ĥ": 231,
      "ĥ": 232,
      "Ħ": 233,
      "ħ": 234,
      "Ĩ": 235,
      "ĩ": 236,
      "Ī": 237,
      "ī": 238,
      "Ĭ": 239,
      "ĭ": 240,
      "Į": 241,
      "į": 242,
      "İ": 243,
      "ı": 244,
      "Ĳ": 245,
      "ĳ": 246,
      "Ĵ": 247,
      "ĵ": 248,
      "Ķ": 249,
      "ķ": 250,
      "ĸ": 251,
      "Ĺ": 252,
      "ĺ": 253,
      "Ļ": 254,
      "ļ": 255,
      "Ľ": 256,
      "ľ": 257,
      "Ŀ": 258,
      "ŀ": 259,
      "Ł": 260,
      "ł": 261,
      "Ń": 262,
      "in": 263,
      "es": 264,
      "at": 265,
      "Ġa": 266,
      "on": 267,
      "re": 268,
      "en": 269,
      "Ġt": 270,
      "al": 271,
      "er": 272,
      "Ġs": 273,
      "ic": 274,
      "Ġin": 275,
      "ed": 276,
      "it": 277,
      "Ġp": 278,
      "ion": 279,
      "an": 280,
      "ent": 281,
      "he": 282,
      "ro": 283,
      "ar": 284,
      "or": 285,
      "Ġm": 286,
      "Ġc": 287,
      "Ġb": 288,
      "is": 289,
      "ing": 290,
      "Ġf": 291,
      "Ġan": 292,
      "ul": 293,
      "Ġo": 294,
      "Ġre": 295,
      "im": 296,
      "Ġand": 297,
      "Ġd": 298,
      "ol": 299,
      "ation": 300,
      "id": 301,
      "em": 302,
      "ct": 303,
      "ical": 304,
      "ati": 305,
      "el": 306,
      "Ġw": 307,
      "Ġby": 308,
      "per": 309,
      "Ġe": 310,
      "alt": 311,
      "Ġh": 312,
      "om": 313,
      "Ġthe": 314,
      "ur": 315,
      "Ġn": 316,
      "ch": 317,
      "as": 318,
      "ly": 319,
      "ri": 320,
      "ff": 321,
      "ag": 322,
      "Ġto": 323,
      "ents": 324,
      "Ġdi": 325,
      "ov": 326,
      "Ġim": 327,
      "are": 328,
      "ak": 329,
      "Ġimp": 330,
      "rov": 331,
      "ĠT": 332,
      "Ġpati": 333,
      "Ġof": 334,
      "Ġ1": 335,
      "alth": 336,
      "Ġman": 337,
      "Ġl": 338,
      "cri": 339,
      "ĠA": 340,
      "escri": 341,
      "ig": 342,
      "ĠM": 343,
      "os": 344,
      "Ġst": 345,
      "Ġfor": 346,
      "ect": 347,
      "ow": 348,
      "00": 349,
      "Ġcon": 350,
      "ac": 351,
      "ers": 352,
      "Ġas": 353,
      "um": 354,
      "ĠN": 355,
      "Ġex": 356,
      "ain": 357,
      "Ġcom": 358,
      "enc": 359,
      "Ġ5": 360,
      "ies": 361,
      "ear": 362,
      "ment": 363,
      "du": 364,
      "Ġhe": 365,
      "sion": 366,
      "et": 367,
      "reat": 368,
      "ron": 369,
      "ffect": 370,
      "ular": 371,
      "ves": 372,
      "Ġind": 373,
      "ates": 374,
      "eu": 375,
      "duc": 376,
      "Ġreg": 377,
      "Ġpatients": 378,
      "He": 379,
      "Ġsur": 380,
      "ienc": 381,
      "Ġtreat": 382,
      "ĠS": 383,
      "Res": 384,
      "Ġth": 385,
      "ines": 386,
      "ake": 387,
      "Ġhy": 388,
      "Ġtreatment": 389,
      "itor": 390,
      "ĠC": 391,
      "ffects": 392,
      "Ġimprov": 393,
      "Ġreduc": 394,
      "euro": 395,
      "Health": 396,
      "aging": 397,
      "Ġsurg": 398,
      "bed": 399,
      "care": 400,
      "us": 401,
      "escribed": 402,
      "Ġregular": 403,
      "Ġmanaging": 404,
      "rescribed": 405,
      "il": 406,
      "ut": 407,
      "un": 408,
      "ot": 409,
      "ĠP": 410,
      "Ġg": 411,
      "iv": 412,
      "ith": 413,
      "am": 414,
      "Ġwith": 415,
      "ab": 416,
      "st": 417,
      "ad": 418,
      "Ġon": 419,
      "ity": 420,
      "Ġ3": 421,
      "ĠThe": 422,
      "ĠE": 423,
      "oc": 424,
      "op": 425,
      "ud": 426,
      "ĠG": 427,
      "ts": 428,
      "ate": 429,
      "ap": 430,
      "ist": 431,
      "og": 432,
      "Ġ4": 433,
      "and": 434,
      "ated": 435,
      "ub": 436,
      "ef": 437,
      "Ġint": 438,
      "ĠO": 439,
      "Ġare": 440,
      "pt": 441,
      "Ġ6": 442,
      "ug": 443,
      "ib": 444,
      "ran": 445,
      "Ġ(": 446,
      "Ġch": 447,
      "Ġcomp": 448,
      "ign": 449,
      "ase": 450,
      "Ġsh": 451,
      "ations": 452,
      "ions": 453,
      "Ġad": 454,
      "ĠTh": 455,
      "ard": 456,
      "Ġcont": 457,
      "ue": 458,
      "all": 459,
      "Ġstud": 460,
      "hic": 461,
      "ary": 462,
      "age": 463,
      "ual": 464,
      "ĠV": 465,
      "olog": 466,
      "lin": 467,
      "ide": 468,
      "ach": 469,
      "lic": 470,
      "rol": 471,
      "oll": 472,
      "ement": 473,
      "use": 474,
      "Ġinf": 475,
      "Ġsy": 476,
      "Ġass": 477,
      "ob": 478,
      "ise": 479,
      "rans": 480,
      "lu": 481,
      "Ġstudy": 482,
      "Ġsc": 483,
      "oci": 484,
      "ĠAn": 485,
      "dit": 486,
      "ai": 487,
      "Ġout": 488,
      "ating": 489,
      "Ġshow": 490,
      "Ġtim": 491,
      "ĠThis": 492,
      "mun": 493,
      "stem": 494,
      "ten": 495,
      "ology": 496,
      "earch": 497,
      "rain": 498,
      "ame": 499,
      "Ġtrans": 500,
      "Ġ2": 501,
      "ffic": 502,
      "old": 503,
      "year": 504,
      "ults": 505,
      "Ġ15": 506,
      "vol": 507,
      "ulation": 508,
      "erc": 509,
      "Ġro": 510,
      "ared": 511,
      "Ġsystem": 512,
      "tal": 513,
      "ollow": 514,
      "ild": 515,
      "ĠRes": 516,
      "vis": 517,
      "rect": 518,
      "erap": 519,
      "Ġprov": 520,
      "Ġmon": 521,
      "hib": 522,
      "For": 523,
      "Ġhealth": 524,
      "Ġfollow": 525,
      "linical": 526,
      "osp": 527,
      "ption": 528,
      "Ġindic": 529,
      "Ġexper": 530,
      "Ġrem": 531,
      "Ġcontrol": 532,
      "ital": 533,
      "har": 534,
      "ause": 535,
      "Med": 536,
      "Ġassoci": 537,
      "vest": 538,
      "Pub": 539,
      "Ġsm": 540,
      "Ġwa": 541,
      "ination": 542,
      "idual": 543,
      "Ġ100": 544,
      "umor": 545,
      "rug": 546,
      "het": 547,
      "mis": 548,
      "imit": 549,
      "Ġ50": 550,
      "Ġcompared": 551,
      "ividual": 552,
      "acc": 553,
      "Ġcondit": 554,
      "Ġpop": 555,
      "vestig": 556,
      "Ġtherap": 557,
      "Ġprovid": 558,
      "Ġassociated": 559,
      "Ġpers": 560,
      "Ġ40": 561,
      "ĠHealth": 562,
      "Ġindividual": 563,
      "pat": 564,
      "Ġpatient": 565,
      "eli": 566,
      "Ġdirect": 567,
      "Ġstand": 568,
      "Ġlimit": 569,
      "Ġinvol": 570,
      "Ġinhib": 571,
      "Ġtumor": 572,
      "Ġ35": 573,
      "RI": 574,
      "ospital": 575,
      "uid": 576,
      "Ġinvestig": 577,
      "ements": 578,
      "Ġsmall": 579,
      "Ġconditions": 580,
      "Ġinflu": 581,
      "harm": 582,
      "Ġmas": 583,
      "enz": 584,
      "Ġstandard": 585,
      "An": 586,
      "Ġcommun": 587,
      "abet": 588,
      "ronic": 589,
      "Ġeffic": 590,
      "pot": 591,
      "mission": 592,
      "Ġben": 593,
      "Ġpopulation": 594,
      "Ġexperienc": 595,
      "umm": 596,
      "cem": 597,
      "Ġ65": 598,
      "Ġsch": 599,
      "Ġimpl": 600,
      "istent": 601,
      "harmac": 602,
      "eries": 603,
      "Ġoper": 604,
      "Ġpain": 605,
      "Ġhyper": 606,
      "CE": 607,
      "iency": 608,
      "Ġtimes": 609,
      "Ġneuro": 610,
      "ĠNeuro": 611,
      "abetes": 612,
      "Ġbrain": 613,
      "Ġshows": 614,
      "Ġtake": 615,
      "reak": 616,
      "Ġur": 617,
      "Ġhead": 618,
      "ovel": 619,
      "ban": 620,
      "Ġremov": 621,
      "Ġinhibitor": 622,
      "zz": 623,
      "Ġhospital": 624,
      "iness": 625,
      "Ġfollowed": 626,
      "aches": 627,
      "Ġindicate": 628,
      "uidel": 629,
      "Ġcommunity": 630,
      "Ġchronic": 631,
      "tension": 632,
      "Ġreduce": 633,
      "Ġinn": 634,
      "Ġnovel": 635,
      "Ġdiabetes": 636,
      "Ġmonitor": 637,
      "gue": 638,
      "Ġsurgical": 639,
      "Ġroom": 640,
      "uidelines": 641,
      "ercise": 642,
      "aily": 643,
      "Ġhypot": 644,
      "Ġhealthcare": 645,
      "Ġgly": 646,
      "vised": 647,
      "Ġscan": 648,
      "Ġefficiency": 649,
      "%.": 650,
      "ĠResults": 651,
      "Ġfron": 652,
      "Ġ500": 653,
      "Drug": 654,
      "Ġmonitoring": 655,
      "Ġdaily": 656,
      "Ġexercise": 657,
      "Ġintake": 658,
      "ĠEffects": 659,
      "ummary": 660,
      "Ġsalt": 661,
      "Ġimprovement": 662,
      "edul": 663,
      "Ġinhibitors": 664,
      "Ġhypertension": 665,
      "Ġtransmission": 666,
      "escription": 667,
      "ĠMRI": 668,
      "ĠCase": 669,
      "break": 670,
      "Ġremoval": 671,
      "Ġinnov": 672,
      "Ġinvolves": 673,
      "Ġreduces": 674,
      "accination": 675,
      "Ġtherapies": 676,
      "Ġwait": 677,
      "Ġurban": 678,
      "atigue": 679,
      "Ġexperiences": 680,
      "Research": 681,
      "Ġaffects": 682,
      "obe": 683,
      "Ġschedul": 684,
      "Ġoperating": 685,
      "Ġfatigue": 686,
      "Ġimproves": 687,
      "enza": 688,
      "elief": 689,
      "Clinical": 690,
      "Ġproviders": 691,
      "Ġmand": 692,
      "Ġmg": 693,
      "Ġpersistent": 694,
      "Ġmask": 695,
      "osage": 696,
      "Ġdirected": 697,
      "Ġoutbreak": 698,
      "harmacology": 699,
      "cemic": 700,
      "Ġinfluenza": 701,
      "ĠOper": 702,
      "Medical": 703,
      "Ġinnovation": 704,
      "ĠGuidelines": 705,
      "Ġneuropat": 706,
      "ĠSummary": 707,
      "Ġbenign": 708,
      "Ġprescribed": 709,
      "Ġfrontal": 710,
      "Ġregularly": 711,
      "ĠACE": 712,
      "ausea": 713,
      "Description": 714,
      "Ġlobe": 715,
      "Ġsurgeries": 716,
      "Public": 717,
      "ĠName": 718,
      "Ġnausea": 719,
      "Ġglycemic": 720,
      "hetical": 721,
      "Ġadvised": 722,
      "ĠMild": 723,
      "Ġneuropathic": 724,
      "Ġimplements": 725,
      "Ġhypothetical": 726,
      "Ġinvestigates": 727,
      "Ġscheduling": 728,
      "ĠOperations": 729,
      "ĠVaccination": 730,
      "Ġheadaches": 731,
      "Healthcare": 732,
      "zziness": 733,
      "Relief": 734,
      "Ġdizziness": 735,
      "Dosage": 736,
      "Side": 737,
      "Ġmandates": 738,
      "Pharmacology": 739,
      "ĠPrescribed": 740,
      "ĠNeuroRelief": 741,
      "le": 742,
      "âĢ": 743,
      "res": 744,
      "ĠI": 745,
      "ĠB": 746,
      ".;": 747,
      "od": 748,
      "ĠD": 749,
      "Ġis": 750,
      "ere": 751,
      "th": 752,
      "Ġal": 753,
      "ĠR": 754,
      "02": 755,
      "ec": 756,
      "if": 757,
      "ĠF": 758,
      "Ġv": 759,
      "ĠL": 760,
      "ĠH": 761,
      "01": 762,
      "Ġpro": 763,
      "Ġthat": 764,
      "ce": 765,
      "ve": 766,
      "ay": 767,
      "ure": 768,
      "Ġ[": 769,
      "âĢĵ": 770,
      "act": 771,
      "ĠJ": 772,
      "ir": 773,
      "Ġ0": 774,
      "ter": 775,
      "ev": 776,
      "Ġbe": 777,
      "Ġwas": 778,
      "Ġr": 779,
      "ĠW": 780,
      "up": 781,
      "ant": 782,
      "ell": 783,
      "ess": 784,
      "rom": 785,
      "est": 786,
      "ial": 787,
      "Ġres": 788,
      ").": 789,
      "igh": 790,
      "10": 791,
      "Ġ8": 792,
      "Ġat": 793,
      "und": 794,
      "Ġor": 795,
      "ore": 796,
      "ĠIn": 797,
      "Ġ9": 798,
      "ive": 799,
      "Ġ7": 800,
      "iz": 801,
      "Ġit": 802,
      "qu": 803,
      "pl": 804,
      "Ġwere": 805,
      "ort": 806,
      "ĠK": 807,
      "Ġfrom": 808,
      "art": 809,
      "11": 810,
      "Ġ202": 811,
      "ep": 812,
      "ys": 813,
      "Ġwh": 814,
      "ip": 815,
      "ill": 816,
      "ang": 817,
      "ia": 818,
      "ew": 819,
      "ens": 820,
      "ine": 821,
      "orm": 822,
      "ss": 823,
      "Ġus": 824,
      "Ġinc": 825,
      "our": 826,
      "able": 827,
      "),": 828,
      "ific": 829,
      "Ġac": 830,
      "Ġy": 831,
      "ĠU": 832,
      "12": 833,
      "ast": 834,
      "Ġet": 835,
      "Ġcan": 836,
      "Ġthis": 837,
      "Ġpre": 838,
      "Ġsp": 839,
      "io": 840,
      "ra": 841,
      "Ġnot": 842,
      ".,": 843,
      "te": 844,
      "end": 845,
      "ost": 846,
      "ult": 847,
      "ave": 848,
      "13": 849,
      "ĠY": 850,
      "ance": 851,
      "nt": 852,
      "ver": 853,
      "Ġwe": 854,
      "15": 855,
      "pp": 856,
      "14": 857,
      "].": 858,
      "19": 859,
      "'s": 860,
      "eg": 861,
      "Ġ201": 862,
      "Ġco": 863,
      "Ġpl": 864,
      "16": 865,
      "Ġk": 866,
      "17": 867,
      "Ġme": 868,
      "Ġhave": 869,
      "18": 870,
      "ely": 871,
      "ence": 872,
      "ong": 873,
      "ou": 874,
      "..": 875,
      "ross": 876,
      "22": 877,
      "33": 878,
      "ors": 879,
      "tt": 880,
      "Ġab": 881,
      "Ġper": 882,
      "ru": 883,
      "vi": 884,
      "hich": 885,
      "ge": 886,
      "ons": 887,
      "99": 888,
      "Ġ\"": 889,
      "Ġ10": 890,
      "ther": 891,
      "ction": 892,
      "uld": 893,
      "evel": 894,
      "we": 895,
      "25": 896,
      "anc": 897,
      "ugh": 898,
      "Ġcell": 899,
      "ex": 900,
      "ome": 901,
      "ress": 902,
      "75": 903,
      "out": 904,
      "ased": 905,
      "Ġen": 906,
      "ust": 907,
      "eth": 908,
      "20": 909,
      "38": 910,
      "24": 911,
      "ata": 912,
      "ps": 913,
      "Ġwhich": 914,
      "Ġinter": 915,
      "30": 916,
      "of": 917,
      "34": 918,
      "202": 919,
      "Ġgro": 920,
      "Ġmod": 921,
      "Ġhigh": 922,
      "ry": 923,
      "ĠCh": 924,
      "ric": 925,
      "ĠZ": 926,
      "35": 927,
      "ative": 928,
      "oth": 929,
      "28": 930,
      "port": 931,
      "36": 932,
      "26": 933,
      "the": 934,
      "ater": 935,
      "Ġsign": 936,
      "Ġgen": 937,
      "ight": 938,
      "95": 939,
      "Ġall": 940,
      "ĠSt": 941,
      "Ġ=": 942,
      "ese": 943,
      "ood": 944,
      "78": 945,
      "ord": 946,
      "alys": 947,
      "ack": 948,
      "ph": 949,
      "76": 950,
      "ass": 951,
      "Ġapp": 952,
      "ffere": 953,
      "ind": 954,
      "ility": 955,
      "98": 956,
      "74": 957,
      "ork": 958,
      "Ġsu": 959,
      "ath": 960,
      "oi": 961,
      "Ġbet": 962,
      "96": 963,
      "Ġdis": 964,
      "Ġhas": 965,
      "form": 966,
      "Ġcl": 967,
      "94": 968,
      "ond": 969,
      "ory": 970,
      "//": 971,
      "Ġun": 972,
      "âĪ": 973,
      "âĢĻ": 974,
      "ail": 975,
      "com": 976,
      "so": 977,
      "one": 978,
      "Ref": 979,
      "erm": 980,
      "cess": 981,
      "Ġtheir": 982,
      "://": 983,
      "ber": 984,
      "ik": 985,
      "ari": 986,
      "05": 987,
      "ose": 988,
      "ee": 989,
      "ween": 990,
      "ile": 991,
      "ish": 992,
      "Ġi": 993,
      "Cross": 994,
      "CrossRef": 995,
      "Ġev": 996,
      "alysis": 997,
      "cid": 998,
      "Ġph": 999,
      "lud": 1000,
      "ection": 1001,
      "ttps": 1002,
      "Ġob": 1003,
      "av": 1004,
      "ound": 1005,
      "Ġpart": 1006,
      "Ġact": 1007,
      "org": 1008,
      "erv": 1009,
      "ever": 1010,
      "Ġar": 1011,
      "ract": 1012,
      "Ġdiffere": 1013,
      "Ġexp": 1014,
      "ree": 1015,
      "Â±": 1016,
      "45": 1017,
      "ice": 1018,
      "90": 1019,
      "rit": 1020,
      "Ġcons": 1021,
      "Ġund": 1022,
      "red": 1023,
      "27": 1024,
      "ics": 1025,
      "86": 1026,
      "Ġbetween": 1027,
      "Ġmore": 1028,
      "85": 1029,
      "Ġag": 1030,
      "ok": 1031,
      "Fig": 1032,
      "37": 1033,
      "46": 1034,
      "Ġ-": 1035,
      "ne": 1036,
      "yp": 1037,
      "Ġel": 1038,
      "ian": 1039,
      "ould": 1040,
      "Ġyou": 1041,
      "fter": 1042,
      "âĪĴ": 1043,
      "The": 1044,
      "Ġdata": 1045,
      "rib": 1046,
      "ificant": 1047,
      "ace": 1048,
      "Ġusing": 1049,
      "se": 1050,
      "ied": 1051,
      "Ġj": 1052,
      "ĠSc": 1053,
      "ren": 1054,
      "Ġalso": 1055,
      "Ġgroup": 1056,
      "Ġbut": 1057,
      "ous": 1058,
      "ite": 1059,
      "Ġde": 1060,
      "ution": 1061,
      "97": 1062,
      "Ġresp": 1063,
      "eed": 1064,
      "ĠAl": 1065,
      "40": 1066,
      "inal": 1067,
      "Ġam": 1068,
      "Ġrel": 1069,
      "int": 1070,
      "Ġsub": 1071,
      "ĠâĢ": 1072,
      "201": 1073,
      "23": 1074,
      "Ġno": 1075,
      "Ġrec": 1076,
      "ition": 1077,
      "Ġdo": 1078,
      "ression": 1079,
      "ĠX": 1080,
      "hem": 1081,
      "48": 1082,
      "ious": 1083,
      "Ġdet": 1084,
      "uc": 1085,
      "Ġincre": 1086,
      "Ġinclud": 1087,
      "Ġhttps": 1088,
      "ized": 1089,
      "alu": 1090,
      "ures": 1091,
      "Ġthan": 1092,
      "tic": 1093,
      "65": 1094,
      "Ġup": 1095,
      "Ġbeen": 1096,
      "les": 1097,
      "Ġmodel": 1098,
      "Ġle": 1099,
      "uring": 1100,
      "wo": 1101,
      "Ġthey": 1102,
      "Ġwill": 1103,
      "29": 1104,
      "yl": 1105,
      "Ġits": 1106,
      "44": 1107,
      "Ġother": 1108,
      "Ġsignificant": 1109,
      "77": 1110,
      "Ġcells": 1111,
      "ery": 1112,
      "ark": 1113,
      "88": 1114,
      "Ġdec": 1115,
      "tain": 1116,
      "ays": 1117,
      "Ġrep": 1118,
      "NA": 1119,
      "to": 1120,
      "Ġsa": 1121,
      "Ġanalysis": 1122,
      "cer": 1123,
      "doi": 1124,
      "):": 1125,
      "ruct": 1126,
      "Ġse": 1127,
      "ethod": 1128,
      "ational": 1129,
      "oun": 1130,
      "Ġone": 1131,
      "erg": 1132,
      "ature": 1133,
      "Ġover": 1134,
      "acter": 1135,
      "Ġused": 1136,
      "ings": 1137,
      "Ġem": 1138,
      "arg": 1139,
      "Ġthese": 1140,
      "tern": 1141,
      "ism": 1142,
      "66": 1143,
      "rough": 1144,
      "ident": 1145,
      "amp": 1146,
      "Ġpres": 1147,
      "ization": 1148,
      "Ġte": 1149,
      "ants": 1150,
      "70": 1151,
      "icro": 1152,
      "ases": 1153,
      "con": 1154,
      "Ġtime": 1155,
      "Ġbl": 1156,
      "Ġinto": 1157,
      "ected": 1158,
      "ha": 1159,
      "Ġ200": 1160,
      "50": 1161,
      "ally": 1162,
      "Ġmet": 1163,
      "ĠÂ±": 1164,
      "uth": 1165,
      "ĠUn": 1166,
      "Ġacc": 1167,
      "ox": 1168,
      "ti": 1169,
      "Ġpos": 1170,
      "80": 1171,
      "39": 1172,
      "Ġspec": 1173,
      "ability": 1174,
      "Ġpe": 1175,
      "Ġlevel": 1176,
      "ĠCom": 1177,
      "Ġsup": 1178,
      "Ġafter": 1179,
      "Ġhad": 1180,
      "ential": 1181,
      "duct": 1182,
      "Ġmay": 1183,
      "Ġmed": 1184,
      "eng": 1185,
      "nc": 1186,
      "55": 1187,
      "ym": 1188,
      "tein": 1189,
      "Ġwho": 1190,
      "32": 1191,
      "als": 1192,
      "Ġyear": 1193,
      "ict": 1194,
      "Ġthere": 1195,
      "Ġqu": 1196,
      "Ġcor": 1197,
      "evelop": 1198,
      "ivity": 1199,
      "Ġtwo": 1200,
      "Ġdifferent": 1201,
      "Ġ2025": 1202,
      "%)": 1203,
      "sp": 1204,
      "here": 1205,
      "ient": 1206,
      "now": 1207,
      "rig": 1208,
      "Ġlow": 1209,
      "Ġsuch": 1210,
      "view": 1211,
      "Ġpartic": 1212,
      "ities": 1213,
      "ey": 1214,
      "60": 1215,
      "ĠMed": 1216,
      "unction": 1217,
      "Ġwork": 1218,
      "vent": 1219,
      "Ġunder": 1220,
      "Ġfact": 1221,
      "ration": 1222,
      "Ġeffect": 1223,
      "ike": 1224,
      "rap": 1225,
      "Ġform": 1226,
      "ix": 1227,
      "Ġ14": 1228,
      "ĠPro": 1229,
      "Ġhis": 1230,
      "rad": 1231,
      "agn": 1232,
      "Ġpol": 1233,
      "ann": 1234,
      "ld": 1235,
      "Ġour": 1236,
      "21": 1237,
      "__": 1238,
      "sc": 1239,
      "Ġso": 1240,
      "iss": 1241,
      "ĠQ": 1242,
      "isk": 1243,
      "Ġdist": 1244,
      "irst": 1245,
      "ĠIt": 1246,
      "rel": 1247,
      "hy": 1248,
      "cc": 1249,
      "osis": 1250,
      "amm": 1251,
      "In": 1252,
      "47": 1253,
      "chn": 1254,
      "rim": 1255,
      "ht": 1256,
      "Ġabout": 1257,
      "Ġ20": 1258,
      "ĠCon": 1259,
      "ale": 1260,
      "pro": 1261,
      "ium": 1262,
      "ans": 1263,
      "ject": 1264,
      "Ġwhen": 1265,
      "Ġperform": 1266,
      "31": 1267,
      "'t": 1268,
      "over": 1269,
      "ological": 1270,
      "dition": 1271,
      "ĠAd": 1272,
      "ĠWe": 1273,
      "ified": 1274,
      "Ġ12": 1275,
      "its": 1276,
      "Ġresults": 1277,
      "ax": 1278,
      "....": 1279,
      "68": 1280,
      "led": 1281,
      "Ġuse": 1282,
      "ock": 1283,
      "Ġmin": 1284,
      "Ġvari": 1285,
      "Ġdise": 1286,
      "Ġmethod": 1287,
      "Ġthrough": 1288,
      "ural": 1289,
      "duction": 1290,
      "ĠLi": 1291,
      "atic": 1292,
      "ink": 1293,
      "ĠEn": 1294,
      "cept": 1295,
      "Ġbi": 1296,
      "Figure": 1297,
      "Ġpo": 1298,
      "yn": 1299,
      "ivers": 1300,
      "49": 1301,
      "ĠAm": 1302,
      "ning": 1303,
      "nal": 1304,
      "Ġnum": 1305,
      "ll": 1306,
      "ages": 1307,
      "Ġdevelop": 1308,
      "ted": 1309,
      "Ġany": 1310,
      "atory": 1311,
      "ribut": 1312,
      "rop": 1313,
      "Ġchang": 1314,
      "Ġ2024": 1315,
      "ments": 1316,
      "aw": 1317,
      "Ġpot": 1318,
      "Ġsim": 1319,
      "Ġ16": 1320,
      "vers": 1321,
      "Ġduring": 1322,
      "gen": 1323,
      "âĢĿ": 1324,
      "Ġonly": 1325,
      "Ġ25": 1326,
      "Ġnew": 1327,
      "ĠHe": 1328,
      "ĠFor": 1329,
      "aterial": 1330,
      "ie": 1331,
      "Ġstudies": 1332,
      "79": 1333,
      "Ġwould": 1334,
      "Ġed": 1335,
      "Ġ18": 1336,
      "ically": 1337,
      "Ġmost": 1338,
      "Ġboth": 1339,
      "Ġtest": 1340,
      "ize": 1341,
      "ively": 1342,
      "Ġeach": 1343,
      "ough": 1344,
      "Ġbec": 1345,
      "Ġcould": 1346,
      "owever": 1347,
      "urther": 1348,
      "str": 1349,
      "cl": 1350,
      "ting": 1351,
      "oy": 1352,
      "lish": 1353,
      "Ġprocess": 1354,
      "Ġreport": 1355,
      "serv": 1356,
      "ets": 1357,
      "ĠFig": 1358,
      "100": 1359,
      "ogen": 1360,
      "Ġsaid": 1361,
      "ered": 1362,
      "ible": 1363,
      "pos": 1364,
      "Ġcar": 1365,
      "ah": 1366,
      "ness": 1367,
      "Ġsome": 1368,
      "cent": 1369,
      "ined": 1370,
      "oh": 1371,
      "Ġpar": 1372,
      "Ġresearch": 1373,
      "mon": 1374,
      "yt": 1375,
      "ram": 1376,
      "Ġdef": 1377,
      "Ġprotein": 1378,
      "ick": 1379,
      "56": 1380,
      "Ġdes": 1381,
      "Ġ30": 1382,
      "ĠZh": 1383,
      "Ġmeas": 1384,
      "Ġcur": 1385,
      "84": 1386,
      "Ġref": 1387,
      "ĠWh": 1388,
      "Ġval": 1389,
      "ral": 1390,
      "Ġ11": 1391,
      "ww": 1392,
      "eld": 1393,
      "Ġfl": 1394,
      "nce": 1395,
      "Ġthem": 1396,
      "Ġ17": 1397,
      "Ġext": 1398,
      "itive": 1399,
      "Ġcancer": 1400,
      "Ġrespons": 1401,
      "Ġsol": 1402,
      "Ġstat": 1403,
      "ade": 1404,
      "Ġsec": 1405,
      "ĠBi": 1406,
      "Ġtyp": 1407,
      "Ġchar": 1408,
      "93": 1409,
      "Ġfe": 1410,
      "Ġrisk": 1411,
      "ople": 1412,
      "Ġatt": 1413,
      "Ġident": 1414,
      "Ġsel": 1415,
      "lex": 1416,
      "qual": 1417,
      "Ġfirst": 1418,
      "67": 1419,
      "ĠâĢĵ": 1420,
      "Ġpath": 1421,
      "43": 1422,
      ".\"": 1423,
      "Ġknow": 1424,
      "42": 1425,
      "Ġend": 1426,
      "pen": 1427,
      "Ġant": 1428,
      "Ġif": 1429,
      "ublic": 1430,
      "Ġwhere": 1431,
      "Ġwell": 1432,
      "000": 1433,
      "87": 1434,
      "Ġgener": 1435,
      "med": 1436,
      "Ġneed": 1437,
      "Ġprog": 1438,
      "chan": 1439,
      "Ġpotential": 1440,
      "der": 1441,
      "work": 1442,
      "Ġreview": 1443,
      "ins": 1444,
      "Ġwhile": 1445,
      "ampl": 1446,
      "own": 1447,
      "ample": 1448,
      "oid": 1449,
      "Ġfound": 1450,
      "Ġconf": 1451,
      "emb": 1452,
      "her": 1453,
      "Ġmy": 1454,
      "ook": 1455,
      "de": 1456,
      "Ġnon": 1457,
      "Ġmult": 1458,
      "ina": 1459,
      "Ġyears": 1460,
      "Ġ/": 1461,
      "Ġfunction": 1462,
      "89": 1463,
      "Ġdem": 1464,
      "Ġ13": 1465,
      "Ġmicro": 1466,
      "âĢĶ": 1467,
      "reg": 1468,
      "ited": 1469,
      "Ġ+": 1470,
      "ĠEx": 1471,
      "SA": 1472,
      ",\"": 1473,
      "ived": 1474,
      "Ġobserv": 1475,
      "Ġlevels": 1476,
      "ek": 1477,
      "olec": 1478,
      "Ġauth": 1479,
      "sh": 1480,
      "Ġdisease": 1481,
      "PubMed": 1482,
      "Ġpred": 1483,
      "ĠâĢľ": 1484,
      "ĠSp": 1485,
      "Ġlike": 1486,
      "Ġcoll": 1487,
      "Ġ&": 1488,
      "ext": 1489,
      "ty": 1490,
      "ire": 1491,
      "ute": 1492,
      "Ġ<": 1493,
      "ĠÎ": 1494,
      "ĠAr": 1495,
      "inc": 1496,
      "Ġgo": 1497,
      "ification": 1498,
      "Ġav": 1499,
      "ĠâĪĴ": 1500,
      "iversity": 1501,
      "64": 1502,
      "ĠSh": 1503,
      "CC": 1504,
      "uman": 1505,
      "Ġpresent": 1506,
      "Ġcap": 1507,
      "Ġcoun": 1508,
      "Ġlong": 1509,
      "aly": 1510,
      "be": 1511,
      "Th": 1512,
      "bl": 1513,
      "uch": 1514,
      "92": 1515,
      "ĠPh": 1516,
      "Ġnumber": 1517,
      "ĠIm": 1518,
      "min": 1519,
      "alc": 1520,
      "for": 1521,
      "Ġthree": 1522,
      "air": 1523,
      "viron": 1524,
      "Ġfind": 1525,
      "Ġappro": 1526,
      "acy": 1527,
      "Ġstruct": 1528,
      "Ġdep": 1529,
      "Ġthose": 1530,
      "Ġhigher": 1531,
      "73": 1532,
      "right": 1533,
      "Ġ|": 1534,
      "58": 1535,
      "ðĿ": 1536,
      "ateg": 1537,
      "ĠAs": 1538,
      ")(": 1539,
      "orts": 1540,
      "ield": 1541,
      "ert": 1542,
      "Ġpeople": 1543,
      "Ġprev": 1544,
      "Ġclinical": 1545,
      "mm": 1546,
      "Ġassess": 1547,
      "di": 1548,
      "els": 1549,
      "Ġyour": 1550,
      "rent": 1551,
      "Ġinform": 1552,
      "Ġincluding": 1553,
      "ues": 1554,
      "Ġest": 1555,
      "bi": 1556,
      "Ġsupport": 1557,
      "Ġbased": 1558,
      "Ġgl": 1559,
      "Ġrol": 1560,
      "Ġlead": 1561,
      "sy": 1562,
      "wn": 1563,
      "duced": 1564,
      "etic": 1565,
      "gan": 1566,
      "Ġadd": 1567,
      "Ġins": 1568,
      "esis": 1569,
      "stit": 1570,
      "Ġset": 1571,
      "Ġacid": 1572,
      "Ġrequ": 1573,
      "Ġmain": 1574,
      "Ġexpression": 1575,
      "hip": 1576,
      "001": 1577,
      "me": 1578,
      "Ġpost": 1579,
      "by": 1580,
      "ety": 1581,
      "Ġshould": 1582,
      "abol": 1583,
      "man": 1584,
      "54": 1585,
      "az": 1586,
      "Ġher": 1587,
      "ugg": 1588,
      "Ġ19": 1589,
      "ĠSci": 1590,
      "Ġ24": 1591,
      "Ġu": 1592,
      "fl": 1593,
      "Ġloc": 1594,
      "quenc": 1595,
      "72": 1596,
      "Ġsens": 1597,
      "CA": 1598,
      "Ġdid": 1599,
      "way": 1600,
      "Ġcharacter": 1601,
      "idence": 1602,
      "Ġcol": 1603,
      "Ġthen": 1604,
      "ĠHowever": 1605,
      "53": 1606,
      "ardi": 1607,
      "aj": 1608,
      "rial": 1609,
      "Ġoff": 1610,
      "asc": 1611,
      "Ġresult": 1612,
      "69": 1613,
      "nces": 1614,
      "line": 1615,
      "ung": 1616,
      "amples": 1617,
      "71": 1618,
      "ured": 1619,
      "Ġelect": 1620,
      "63": 1621,
      "**": 1622,
      "],": 1623,
      "ailable": 1624,
      "amet": 1625,
      "Ġwithin": 1626,
      "ife": 1627,
      "par": 1628,
      "dro": 1629,
      "ier": 1630,
      "ulated": 1631,
      "mit": 1632,
      "ilar": 1633,
      "ody": 1634,
      "ull": 1635,
      "83": 1636,
      "ional": 1637,
      "Ġparticip": 1638,
      "ering": 1639,
      "Ġvalu": 1640,
      "Ġtem": 1641,
      "Ġimmun": 1642,
      "with": 1643,
      "round": 1644,
      "Ġeffects": 1645,
      "Ġwhat": 1646,
      "200": 1647,
      "Ġgroups": 1648,
      "Ġran": 1649,
      "Ġvis": 1650,
      "reen": 1651,
      "ĠDi": 1652,
      "Ġagain": 1653,
      "yc": 1654,
      "ores": 1655,
      "other": 1656,
      "lo": 1657,
      "03": 1658,
      "Ġtechn": 1659,
      "oph": 1660,
      "eric": 1661,
      "ER": 1662,
      "ĠThese": 1663,
      "Ġcare": 1664,
      "arget": 1665,
      "Ġtr": 1666,
      "Ġne": 1667,
      "Ġ2023": 1668,
      "101": 1669,
      "Ġ2022": 1670,
      "ograp": 1671,
      "Ġ26": 1672,
      "ĠRep": 1673,
      "oss": 1674,
      "co": 1675,
      "resp": 1676,
      "Ġca": 1677,
      "ental": 1678,
      "Ġshe": 1679,
      "resent": 1680,
      "Table": 1681,
      "Ġdue": 1682,
      "Ġevalu": 1683,
      "41": 1684,
      "efore": 1685,
      "Ġmechan": 1686,
      "ward": 1687,
      "Ġfactors": 1688,
      "Ġactiv": 1689,
      "Ġear": 1690,
      "Ġimport": 1691,
      "ret": 1692,
      "Ġactivity": 1693,
      "57": 1694,
      "ience": 1695,
      "ests": 1696,
      "af": 1697,
      "Ġ2021": 1698,
      "ective": 1699,
      "62": 1700,
      "ify": 1701,
      "82": 1702,
      "let": 1703,
      "based": 1704,
      "ĠÃ": 1705,
      "Ġpredict": 1706,
      "Ġdoi": 1707,
      "Ġplay": 1708,
      "ID": 1709,
      "Ġobserved": 1710,
      "Ġamong": 1711,
      "ful": 1712,
      "Ġjust": 1713,
      "Ġincreased": 1714,
      "iew": 1715,
      "Ġopt": 1716,
      "ribution": 1717,
      "pr": 1718,
      "ĠUniversity": 1719,
      "Ġshown": 1720,
      "ool": 1721,
      "urn": 1722,
      "Ġprot": 1723,
      "ĠWang": 1724,
      "Ġgrow": 1725,
      "Ġreported": 1726,
      "orld": 1727,
      "Ġdisc": 1728,
      "ices": 1729,
      "59": 1730,
      "ced": 1731,
      "ormal": 1732,
      "ĠThere": 1733,
      "ournal": 1734,
      "Ġsugg": 1735,
      "face": 1736,
      "Ġaddition": 1737,
      "Ġexpl": 1738,
      "Ġenh": 1739,
      "Ġhow": 1740,
      "ergy": 1741,
      "action": 1742,
      "ote": 1743,
      "52": 1744,
      "Ġap": 1745,
      "iven": 1746,
      "plement": 1747,
      "Ġmat": 1748,
      "AT": 1749,
      "ĠGen": 1750,
      "ently": 1751,
      "ately": 1752,
      "ck": 1753,
      "Ġmaterial": 1754,
      "Ġrate": 1755,
      "Ġtotal": 1756,
      "Ġret": 1757,
      "Ġsyn": 1758,
      "Ġ2020": 1759,
      "Ġsignificantly": 1760,
      "04": 1761,
      "Ġprim": 1762,
      "etwork": 1763,
      "ower": 1764,
      "Ġbecause": 1765,
      "Ġclass": 1766,
      "AR": 1767,
      "OR": 1768,
      "Ġcent": 1769,
      "2024": 1770,
      "Ġsame": 1771,
      "ticle": 1772,
      "Ġever": 1773,
      "ense": 1774,
      "ma": 1775,
      "ording": 1776,
      "ĠInt": 1777,
      "2025": 1778,
      "CT": 1779,
      "Ġx": 1780,
      "ially": 1781,
      "Ġsl": 1782,
      "ĠDe": 1783,
      "ove": 1784,
      "ane": 1785,
      "Ġback": 1786,
      "omen": 1787,
      "Ġrole": 1788,
      "Ġinformation": 1789,
      "lished": 1790,
      "Ġconcent": 1791,
      "Ġconduct": 1792,
      "Ġent": 1793,
      "Ġbeing": 1794,
      "onstr": 1795,
      "Ġocc": 1796,
      "Ġshowed": 1797,
      "Ġfurther": 1798,
      "imal": 1799,
      "Ġdiagn": 1800,
      "ash": 1801,
      "Ġchild": 1802,
      "Ġeven": 1803,
      "Ġdeterm": 1804,
      "____": 1805,
      "II": 1806,
      "aking": 1807,
      "ogn": 1808,
      "Ġapplic": 1809,
      "06": 1810,
      "Ġdesign": 1811,
      "put": 1812,
      "Ġvalues": 1813,
      "Ġproper": 1814,
      "Ġstr": 1815,
      "Ġdel": 1816,
      "ces": 1817,
      "Ġbefore": 1818,
      "OS": 1819,
      "que": 1820,
      "Ġser": 1821,
      "vironment": 1822,
      "ae": 1823,
      "istics": 1824,
      "iation": 1825,
      "ancer": 1826,
      "RNA": 1827,
      "tained": 1828,
      "ites": 1829,
      "ily": 1830,
      "ĠTo": 1831,
      "row": 1832,
      "Ġqual": 1833,
      "ĠFigure": 1834,
      "Ġsamples": 1835,
      "AS": 1836,
      "Ġcrit": 1837,
      "Ġstress": 1838,
      "Ġage": 1839,
      "Ġperc": 1840,
      "ĠAll": 1841,
      "Ġexperim": 1842,
      "fer": 1843,
      "att": 1844,
      "oma": 1845,
      "erst": 1846,
      "ths": 1847,
      "Ġcomb": 1848,
      "Ġcalc": 1849,
      "artic": 1850,
      "app": 1851,
      "Ġget": 1852,
      "Ġ95": 1853,
      "Ġhuman": 1854,
      "--": 1855,
      "Ġwater": 1856,
      "Ġmean": 1857,
      "onal": 1858,
      "08": 1859,
      "ole": 1860,
      "ists": 1861,
      "ĠPl": 1862,
      "Ġdevelopment": 1863,
      "Ġmor": 1864,
      "land": 1865,
      "ms": 1866,
      "Ġrele": 1867,
      "Ġpublic": 1868,
      "Ġgreat": 1869,
      "urg": 1870,
      "riv": 1871,
      "Ġâ": 1872,
      "ats": 1873,
      "ectively": 1874,
      "ĠÂ": 1875,
      "ner": 1876,
      "ste": 1877,
      "opy": 1878,
      "na": 1879,
      "arge": 1880,
      "Ġphys": 1881,
      "irc": 1882,
      "Ġ22": 1883,
      "Ġes": 1884,
      "Ġincrease": 1885,
      "Ġmany": 1886,
      "Ġimpact": 1887,
      "Ġmade": 1888,
      "iod": 1889,
      "Ġcount": 1890,
      "Ġox": 1891,
      "Ġwithout": 1892,
      "omet": 1893,
      "Ġhel": 1894,
      "ĠZhang": 1895,
      "ator": 1896,
      "Ġperformed": 1897,
      "ount": 1898,
      "ince": 1899,
      "Ġlower": 1900,
      "havi": 1901,
      "Ġdecre": 1902,
      "iver": 1903,
      "Ġmetabol": 1904,
      "Ġtiss": 1905,
      "ĠRe": 1906,
      "Ġvers": 1907,
      "ime": 1908,
      "ton": 1909,
      "Ġblood": 1910,
      "Ġweek": 1911,
      "day": 1912,
      "Ġmark": 1913,
      "........": 1914,
      "Ġsecond": 1915,
      "ules": 1916,
      "agement": 1917,
      "any": 1918,
      "rid": 1919,
      "Ġbas": 1920,
      "tr": 1921,
      "ingle": 1922,
      "Ġvalue": 1923,
      "Ġadv": 1924,
      "ains": 1925,
      "ĠMe": 1926,
      "Ġdemonstr": 1927,
      "used": 1928,
      "Ġvar": 1929,
      "51": 1930,
      "no": 1931,
      "SC": 1932,
      "Ġprom": 1933,
      "Ġdown": 1934,
      "Ġchanges": 1935,
      "roph": 1936,
      "Ġep": 1937,
      "Ġfollowing": 1938,
      "ĠRev": 1939,
      "Ġlit": 1940,
      "omic": 1941,
      ".-": 1942,
      "Ġcase": 1943,
      "ior": 1944,
      "Ġagainst": 1945,
      "Ġincluded": 1946,
      "ĠAc": 1947,
      "por": 1948,
      "epend": 1949,
      "Ġfil": 1950,
      "ĠSch": 1951,
      "anced": 1952,
      "Ġposs": 1953,
      "ns": 1954,
      "91": 1955,
      "Ġresponse": 1956,
      "struct": 1957,
      "Ġcompar": 1958,
      "urs": 1959,
      "comes": 1960,
      "Ġcontribut": 1961,
      "Ġgene": 1962,
      "Ġacross": 1963,
      "ason": 1964,
      "mg": 1965,
      "erence": 1966,
      "aling": 1967,
      "cell": 1968,
      "ties": 1969,
      "ision": 1970,
      "ks": 1971,
      "Ġbu": 1972,
      "Ġdrug": 1973,
      "61": 1974,
      "li": 1975,
      "Ġgenes": 1976,
      "Ġspecific": 1977,
      "uss": 1978,
      "val": 1979,
      "Ġsoci": 1980,
      "ouse": 1981,
      "Ġsk": 1982,
      "ides": 1983,
      "Ġ2019": 1984,
      "07": 1985,
      "lusion": 1986,
      "ison": 1987,
      "ĠInd": 1988,
      "chi": 1989,
      "Ġtarget": 1990,
      "Ġprevious": 1991,
      "istance": 1992,
      "ances": 1993,
      "Ġvol": 1994,
      "ĠAnd": 1995,
      "Ġtemper": 1996,
      "Ġ21": 1997,
      "ativ": 1998,
      "âĢĳ": 1999,
      "Ġ28": 2000,
      "Ġsee": 2001,
      "ables": 2002,
      "rong": 2003,
      "Ġvery": 2004,
      "Ġ23": 2005,
      "Ġfre": 2006,
      "hemical": 2007,
      "Ġprof": 2008,
      "ired": 2009,
      "ept": 2010,
      "artment": 2011,
      "Ġsize": 2012,
      "Ġdev": 2013,
      "read": 2014,
      "AP": 2015,
      "Ġer": 2016,
      "Ġcomplex": 2017,
      "Ġdat": 2018,
      "ĠCell": 2019,
      "Ġcurrent": 2020,
      "09": 2021,
      "CR": 2022,
      "Ġinit": 2023,
      "ually": 2024,
      "iol": 2025,
      "ĠTe": 2026,
      "ationship": 2027,
      "atures": 2028,
      "ðĿĳ": 2029,
      "Ġmodels": 2030,
      "ta": 2031,
      "Ġrad": 2032,
      "Ġorgan": 2033,
      "Ġterm": 2034,
      "iple": 2035,
      "Ġsuggest": 2036,
      "Ġgrowth": 2037,
      "roup": 2038,
      "ĠNew": 2039,
      "ling": 2040,
      "ene": 2041,
      "alyz": 2042,
      "Ġfam": 2043,
      "usc": 2044,
      "ĠEl": 2045,
      "vention": 2046,
      "Ġsever": 2047,
      "ich": 2048,
      "oper": 2049,
      "Ġinvolv": 2050,
      "Ġavailable": 2051,
      "Ġtrain": 2052,
      "ĠCO": 2053,
      "ring": 2054,
      "ype": 2055,
      "Ġimportant": 2056,
      "Ġperformance": 2057,
      "Ġ199": 2058,
      "Ġpat": 2059,
      "fore": 2060,
      "Ġhim": 2061,
      "ĠTable": 2062,
      "Ġz": 2063,
      "ĠBut": 2064,
      "ways": 2065,
      "Ġnetwork": 2066,
      "ploy": 2067,
      "Ġevery": 2068,
      "Ġlear": 2069,
      "Ġpr": 2070,
      "Ġrece": 2071,
      "Ġsimilar": 2072,
      "ĠMar": 2073,
      "Ġtra": 2074,
      "Ġfac": 2075,
      "Ġmechanism": 2076,
      "Ġhist": 2077,
      "Ġextract": 2078,
      "respond": 2079,
      "Ġrepresent": 2080,
      "ems": 2081,
      "Ġinj": 2082,
      "Ġcorrel": 2083,
      "Ġreve": 2084,
      "Ġmolec": 2085,
      "Ġless": 2086,
      "Ġmemb": 2087,
      "ds": 2088,
      "ival": 2089,
      "Ġread": 2090,
      "Ġcontent": 2091,
      "Ġfindings": 2092,
      "81": 2093,
      "tion": 2094,
      "Ġdoes": 2095,
      "ii": 2096,
      "eration": 2097,
      "isc": 2098,
      "Ġauthors": 2099,
      "Ġvarious": 2100,
      "ST": 2101,
      "Ġfib": 2102,
      "eft": 2103,
      "Ġallow": 2104,
      "aining": 2105,
      "Ġsample": 2106,
      "Ġapproach": 2107,
      "asing": 2108,
      "St": 2109,
      "otic": 2110,
      "ascular": 2111,
      "ĠCl": 2112,
      "hel": 2113,
      "https": 2114,
      "oft": 2115,
      "ĠClin": 2116,
      "Ġtype": 2117,
      "ĠChina": 2118,
      "ĠAss": 2119,
      "elf": 2120,
      "Ġmethods": 2121,
      "ained": 2122,
      "Ġmake": 2123,
      "Ġut": 2124,
      "Ġcontin": 2125,
      "ensity": 2126,
      "Ġtri": 2127,
      "Ġarticle": 2128,
      "ember": 2129,
      "Ġproduct": 2130,
      "raf": 2131,
      "ury": 2132,
      "Ġpress": 2133,
      "ilit": 2134,
      "Ġquality": 2135,
      ");": 2136,
      "ptom": 2137,
      "Ġdays": 2138,
      "Ġreal": 2139,
      "Ġinfl": 2140,
      "MS": 2141,
      "ware": 2142,
      "Ġpract": 2143,
      "Ġmeasure": 2144,
      "Ġcases": 2145,
      "ibility": 2146,
      "au": 2147,
      "Ġabs": 2148,
      "andom": 2149,
      "Ġlic": 2150,
      "Ġserv": 2151,
      "icine": 2152,
      "ĠAmeric": 2153,
      "ĠCD": 2154,
      "Ġparticipants": 2155,
      "Ġ'": 2156,
      "not": 2157,
      "erstand": 2158,
      "ke": 2159,
      "Ġday": 2160,
      "Ġhand": 2161,
      "och": 2162,
      "Ġlife": 2163,
      "mod": 2164,
      "uture": 2165,
      "ros": 2166,
      "ĠAb": 2167,
      "ĠAg": 2168,
      "Ġrespectively": 2169,
      "Ġ2018": 2170,
      "Ġnow": 2171,
      "Ġparamet": 2172,
      "ention": 2173,
      "Ġfour": 2174,
      "Ġdon": 2175,
      "Ġ2017": 2176,
      "Ġaccess": 2177,
      "Ġsingle": 2178,
      "Ġcall": 2179,
      "eral": 2180,
      "ĠResearch": 2181,
      "Ġway": 2182,
      "ajor": 2183,
      "ao": 2184,
      "iting": 2185,
      "inn": 2186,
      "Ġcult": 2187,
      "oint": 2188,
      "Ġaccur": 2189,
      "%,": 2190,
      "Ġfoc": 2191,
      "ĠAt": 2192,
      "ĠPre": 2193,
      "ĠâĢĶ": 2194,
      "Ġfood": 2195,
      "ency": 2196,
      "ored": 2197,
      "Ġflu": 2198,
      "Ġ27": 2199,
      "ĠPE": 2200,
      "abor": 2201,
      "Ġgood": 2202,
      "alk": 2203,
      "Ġbehavi": 2204,
      "ĠBM": 2205,
      "Ġright": 2206,
      "ource": 2207,
      "Ġhelp": 2208,
      "ars": 2209,
      "Ġmice": 2210,
      "Ġstate": 2211,
      "Ġlo": 2212,
      "Ġdifferences": 2213,
      "Ġconducted": 2214,
      "udy": 2215,
      "Ġchange": 2216,
      "ern": 2217,
      "ĠNo": 2218,
      "Ġmuch": 2219,
      "Ġsurface": 2220,
      "overn": 2221,
      "ĠIs": 2222,
      "ights": 2223,
      "Ġparticular": 2224,
      "Ġ2016": 2225,
      "ably": 2226,
      "Ġanti": 2227,
      "ĠLiu": 2228,
      "erapy": 2229,
      "ĠMol": 2230,
      "Ġneg": 2231,
      "Ġarea": 2232,
      "pe": 2233,
      "Ġenergy": 2234,
      "Ġsym": 2235,
      "ume": 2236,
      "ĠCont": 2237,
      "istic": 2238,
      "Ġperiod": 2239,
      "izing": 2240,
      "Ġspecies": 2241,
      "Ġoutcomes": 2242,
      "Ġdeg": 2243,
      "Ġorig": 2244,
      "Ġobtained": 2245,
      "amin": 2246,
      "Ġ60": 2247,
      "Ġstrateg": 2248,
      "less": 2249,
      "Ġlast": 2250,
      "Ġstill": 2251,
      "Ġrelationship": 2252,
      "Ġcomplet": 2253,
      "ode": 2254,
      "minist": 2255,
      "omy": 2256,
      "Con": 2257,
      "Ġrati": 2258,
      "Ġcompos": 2259,
      "Ġcreat": 2260,
      "SS": 2261,
      "rum": 2262,
      "ĠIf": 2263,
      "bo": 2264,
      "Ġquest": 2265,
      "Ġnormal": 2266,
      "la": 2267,
      "Ġpoint": 2268,
      "Ġexhib": 2269,
      "ressed": 2270,
      "ulations": 2271,
      "Ġstructure": 2272,
      "www": 2273,
      "ĠSy": 2274,
      "Ġ$": 2275,
      "cont": 2276,
      "ĠCI": 2277,
      "verse": 2278,
      "ĠGu": 2279,
      "Ġlik": 2280,
      "Ġaut": 2281,
      "Ġmonths": 2282,
      "Ġnan": 2283,
      "AC": 2284,
      "Ġcommon": 2285,
      "Ġexc": 2286,
      "Ġtherapy": 2287,
      "cript": 2288,
      "more": 2289,
      "aled": 2290,
      "epartment": 2291,
      "Ġlarge": 2292,
      "ror": 2293,
      "aps": 2294,
      "Ġopen": 2295,
      "AM": 2296,
      "ĠChen": 2297,
      "pre": 2298,
      "This": 2299,
      "though": 2300,
      "ney": 2301,
      "Ġestim": 2302,
      "anu": 2303,
      "nd": 2304,
      "ĠPol": 2305,
      "RE": 2306,
      "ĠEng": 2307,
      "Ġaffect": 2308,
      "Ġwomen": 2309,
      "Ġhydro": 2310,
      "âĢ¢": 2311,
      "verage": 2312,
      "ĠBl": 2313,
      "Ġrelated": 2314,
      "Ġpa": 2315,
      "ints": 2316,
      "ĠIntern": 2317,
      "orn": 2318,
      "itis": 2319,
      "ynam": 2320,
      "Ġsuper": 2321,
      "atients": 2322,
      "ĠOr": 2323,
      "ĠOn": 2324,
      "ries": 2325,
      "Ġinflamm": 2326,
      "Ġearly": 2327,
      "ĠChem": 2328,
      "ho": 2329,
      "Ġenvironment": 2330,
      "ession": 2331,
      "Ġstart": 2332,
      "Ġvir": 2333,
      "Ġ2015": 2334,
      "Ġanalyz": 2335,
      "AD": 2336,
      "Ġchildren": 2337,
      "Ġbody": 2338,
      "Ġtemperature": 2339,
      "Ġthink": 2340,
      "1016": 2341,
      "Ġproperties": 2342,
      "Ps": 2343,
      "ources": 2344,
      "eb": 2345,
      "ientific": 2346,
      "ni": 2347,
      "Ġantib": 2348,
      ".[": 2349,
      "son": 2350,
      "sk": 2351,
      "Ġcardi": 2352,
      "Ġlook": 2353,
      "arm": 2354,
      "Ġvia": 2355,
      "ĠÃĹ": 2356,
      "Ġchall": 2357,
      "reng": 2358,
      "ĠTrans": 2359,
      "ependent": 2360,
      "ĠCancer": 2361,
      "ca": 2362,
      "eut": 2363,
      "ino": 2364,
      "atch": 2365,
      "ives": 2366,
      "ank": 2367,
      "Ġbetter": 2368,
      "Ġmajor": 2369,
      "Ġ29": 2370,
      "Ġline": 2371,
      "Ġweight": 2372,
      "ords": 2373,
      "ots": 2374,
      "Ġnec": 2375,
      "vel": 2376,
      "Ġ80": 2377,
      "ĠLe": 2378,
      "ĠUSA": 2379,
      "Ġinterest": 2380,
      "ather": 2381,
      "ĠAfter": 2382,
      "Ġpercent": 2383,
      "Ġenc": 2384,
      "Ġfactor": 2385,
      "ĠCent": 2386,
      "Ġrange": 2387,
      "omes": 2388,
      "Â°": 2389,
      "Ġwant": 2390,
      "CD": 2391,
      "Ġlocal": 2392,
      "off": 2393,
      "ule": 2394,
      "orth": 2395,
      "Ġidentified": 2396,
      "Ġ75": 2397,
      "ensive": 2398,
      "ones": 2399,
      "Ġtissue": 2400,
      "related": 2401,
      "Ġtop": 2402,
      "Ã©": 2403,
      "ounds": 2404,
      "Ġspect": 2405,
      "iated": 2406,
      "arc": 2407,
      "Ġiss": 2408,
      "upplement": 2409,
      "Ġauthor": 2410,
      "ators": 2411,
      "spec": 2412,
      "obal": 2413,
      "Ġworld": 2414,
      "Ġown": 2415,
      "Ĺ¦": 2416,
      "Ġseveral": 2417,
      "lications": 2418,
      "actions": 2419,
      "ĠInter": 2420,
      "Ġunderstand": 2421,
      "imum": 2422,
      "Ġprovide": 2423,
      "Ġly": 2424,
      "ayer": 2425,
      "Ġdom": 2426,
      "ĠRec": 2427,
      "Ġgu": 2428,
      "EM": 2429,
      "ider": 2430,
      "Ġwrit": 2431,
      "Ġpower": 2432,
      "ope": 2433,
      "rac": 2434,
      "ales": 2435,
      "ĠThey": 2436,
      "Ġpositive": 2437,
      "ĠHu": 2438,
      "Ġprimary": 2439,
      "Ġoften": 2440,
      "Ġmov": 2441,
      "Ġkey": 2442,
      "ublished": 2443,
      "Ch": 2444,
      "ĠCo": 2445,
      "ris": 2446,
      "pec": 2447,
      "ections": 2448,
      "2023": 2449,
      "ĠData": 2450,
      "ven": 2451,
      "quently": 2452,
      "Ġmot": 2453,
      "Ġexpos": 2454,
      "Ġ33": 2455,
      "Ġstrong": 2456,
      "osph": 2457,
      "PL": 2458,
      "Ġproduction": 2459,
      "ĠRE": 2460,
      "bon": 2461,
      "NE": 2462,
      "Ġmultiple": 2463,
      "Ġfr": 2464,
      "ects": 2465,
      "Ġmass": 2466,
      "Ġfew": 2467,
      "Ġmight": 2468,
      "Ġaccording": 2469,
      "ols": 2470,
      "Ġthough": 2471,
      "Ġdistribution": 2472,
      "Ġaround": 2473,
      "Ġinteg": 2474,
      "Ġsurv": 2475,
      "Ġ90": 2476,
      "Ġbro": 2477,
      "icity": 2478,
      "Ġ36": 2479,
      "ĠFurther": 2480,
      "Ġ37": 2481,
      "ĠBe": 2482,
      "idation": 2483,
      "Ġ45": 2484,
      "ĠMicro": 2485,
      "2022": 2486,
      "Ġsev": 2487,
      "idered": 2488,
      "ĠStat": 2489,
      "Ġpur": 2490,
      "Ġphot": 2491,
      "Ġlight": 2492,
      "rane": 2493,
      "Ġpattern": 2494,
      "gn": 2495,
      "Ġbre": 2496,
      "Ġquant": 2497,
      "Ġleft": 2498,
      "ĠDNA": 2499,
      "iving": 2500,
      "apt": 2501,
      "aterials": 2502,
      "inter": 2503,
      "oot": 2504,
      "usion": 2505,
      "Ġoffic": 2506,
      "comp": 2507,
      "Ġrest": 2508,
      "ĠMet": 2509,
      "ĠNat": 2510,
      "ditionally": 2511,
      "PI": 2512,
      "Ġequ": 2513,
      "uthor": 2514,
      "'re": 2515,
      "fact": 2516,
      "Ġteam": 2517,
      "Ġmut": 2518,
      "Âµ": 2519,
      "Ġreduced": 2520,
      "den": 2521,
      "Ġimmune": 2522,
      "thesis": 2523,
      "rength": 2524,
      "ĠMan": 2525,
      "Ġsuc": 2526,
      "Ġemploy": 2527,
      "aim": 2528,
      "Ġtraining": 2529,
      "istical": 2530,
      "PE": 2531,
      "PS": 2532,
      "Ġens": 2533,
      "ethyl": 2534,
      "term": 2535,
      "ication": 2536,
      "Ġvs": 2537,
      "NT": 2538,
      "Ġder": 2539,
      "imen": 2540,
      "uration": 2541,
      "ird": 2542,
      "Ġratio": 2543,
      "itud": 2544,
      "Ġloss": 2545,
      "dd": 2546,
      "fe": 2547,
      "uk": 2548,
      "2021": 2549,
      "CI": 2550,
      "tle": 2551,
      "Ġmit": 2552,
      "mons": 2553,
      "We": 2554,
      "Ġresistance": 2555,
      "GF": 2556,
      "rich": 2557,
      "inding": 2558,
      "Ġsocial": 2559,
      "aving": 2560,
      "Ġmix": 2561,
      "Ġcharacteristics": 2562,
      "Ġrandom": 2563,
      "Ġregul": 2564,
      "ique": 2565,
      "Ġlink": 2566,
      "Ġself": 2567,
      "cm": 2568,
      "Ġprobl": 2569,
      "ither": 2570,
      "arri": 2571,
      "cember": 2572,
      "hether": 2573,
      "Ġpressure": 2574,
      "Ġcirc": 2575,
      "akes": 2576,
      "Ġfail": 2577,
      "posed": 2578,
      "aff": 2579,
      "treat": 2580,
      "Ġcyt": 2581,
      "Î²": 2582,
      "Ġparameters": 2583,
      "sych": 2584,
      "Ġevidence": 2585,
      "anuary": 2586,
      "emic": 2587,
      "ĠJournal": 2588,
      "ler": 2589,
      "Ġaverage": 2590,
      "ett": 2591,
      "Ġmanagement": 2592,
      "Ġhere": 2593,
      "play": 2594,
      "Ġold": 2595,
      "PA": 2596,
      "Ġgovern": 2597,
      "Ġscore": 2598,
      "ipid": 2599,
      "Ġ34": 2600,
      "ĠAp": 2601,
      "Ġprec": 2602,
      "Ġconc": 2603,
      "EE": 2604,
      "outh": 2605,
      "Ġlearning": 2606,
      "VI": 2607,
      "uses": 2608,
      "rast": 2609,
      "itro": 2610,
      "Ġimages": 2611,
      "fficient": 2612,
      "Ġconcentration": 2613,
      "Ġ85": 2614,
      "ĠMod": 2615,
      "Ġ2014": 2616,
      "Ġ48": 2617,
      "Î±": 2618,
      "alyses": 2619,
      "Ġversion": 2620,
      "ĠCons": 2621,
      "ray": 2622,
      "Ġbacter": 2623,
      "ĠPhys": 2624,
      "Ġ32": 2625,
      "Ġsay": 2626,
      "Ġsymptom": 2627,
      "Com": 2628,
      "luc": 2629,
      "Ġdifference": 2630,
      "sign": 2631,
      "unct": 2632,
      "Ġconsidered": 2633,
      "ĠMore": 2634,
      "illion": 2635,
      "Ġrun": 2636,
      "Ġmusc": 2637,
      "atively": 2638,
      "gg": 2639,
      "ĠMD": 2640,
      "stant": 2641,
      "oles": 2642,
      "Ġoccur": 2643,
      "plied": 2644,
      "0000": 2645,
      "Ġfem": 2646,
      "ĠWhen": 2647,
      "Ġexam": 2648,
      "Ġanother": 2649,
      "ush": 2650,
      "rior": 2651,
      "CO": 2652,
      "Ġdam": 2653,
      "ised": 2654,
      "Ġindividuals": 2655,
      "ĠYou": 2656,
      "Ġcompon": 2657,
      "Ġphase": 2658,
      "Ġfuture": 2659,
      "Ġcour": 2660,
      "oo": 2661,
      "opt": 2662,
      "Ġfamily": 2663,
      "Ġ>": 2664,
      "Ġsex": 2665,
      "Ġmedical": 2666,
      "Ġgeneral": 2667,
      "Ġproteins": 2668,
      "Ġbenef": 2669,
      "just": 2670,
      "Int": 2671,
      "Ġdatas": 2672,
      "AA": 2673,
      "ostic": 2674,
      "hold": 2675,
      "Ġadminist": 2676,
      "iqu": 2677,
      "ledge": 2678,
      "ĠScience": 2679,
      "Ġopp": 2680,
      "2020": 2681,
      "ĠAct": 2682,
      "Ġ96": 2683,
      "Ġalong": 2684,
      "Ġ38": 2685,
      "Ġpresented": 2686,
      "Ġfield": 2687,
      "ength": 2688,
      "Ġutil": 2689,
      "Ġdetection": 2690,
      "Ġsystems": 2691,
      "tend": 2692,
      "Ġpossible": 2693,
      "ned": 2694,
      "Ġcross": 2695,
      "rep": 2696,
      "Ġbest": 2697,
      "Ġphen": 2698,
      "SD": 2699,
      "light": 2700,
      "Ġ*": 2701,
      "otherapy": 2702,
      "ocr": 2703,
      "Ġnuc": 2704,
      "Ġlikely": 2705,
      "Ġknown": 2706,
      "Ġfinal": 2707,
      "Ġdemonstrated": 2708,
      "oung": 2709,
      "ĠWith": 2710,
      "Ġprovided": 2711,
      "Ġfeatures": 2712,
      "Ġfree": 2713,
      "using": 2714,
      "was": 2715,
      "pression": 2716,
      "ean": 2717,
      "Ġmax": 2718,
      "urop": 2719,
      "Ġill": 2720,
      "ani": 2721,
      "Ġsince": 2722,
      "Ġflow": 2723,
      "Ġlarg": 2724,
      "Ġfund": 2725,
      "Ġpresence": 2726,
      "Ġfunctional": 2727,
      "Ġdeath": 2728,
      "Ġpromot": 2729,
      "Ġ55": 2730,
      "wit": 2731,
      "Ġexample": 2732,
      "ple": 2733,
      "Ġeng": 2734,
      "Ġrevealed": 2735,
      "Ġeffective": 2736,
      "til": 2737,
      "print": 2738,
      "ĠDis": 2739,
      "ĠJanuary": 2740,
      "Ġconsum": 2741,
      "Ġleast": 2742,
      "rade": 2743,
      "ĠSim": 2744,
      "rence": 2745,
      "volution": 2746,
      "ĠIL": 2747,
      "flamm": 2748,
      "Ġrecept": 2749,
      "bs": 2750,
      "ĠNot": 2751,
      "eutic": 2752,
      "Ġrates": 2753,
      "PD": 2754,
      "Ġoriginal": 2755,
      "Ġregard": 2756,
      "sel": 2757,
      "ye": 2758,
      "ĠCor": 2759,
      "ributed": 2760,
      "onn": 2761,
      "ĠTechn": 2762,
      "ĠSo": 2763,
      "rate": 2764,
      "inf": 2765,
      "Ġdiet": 2766,
      "utrit": 2767,
      "Ġ31": 2768,
      "were": 2769,
      "Ġdetail": 2770,
      "eline": 2771,
      "do": 2772,
      "ĠReg": 2773,
      "eria": 2774,
      "ĠAdditionally": 2775,
      "Ġsolution": 2776,
      "rated": 2777,
      "Ġcre": 2778,
      "MA": 2779,
      "ĠApp": 2780,
      "ruc": 2781,
      "ands": 2782,
      "Ġbio": 2783,
      "ont": 2784,
      "Ġclear": 2785,
      "Ġsuccess": 2786,
      "that": 2787,
      "Ġincreasing": 2788,
      "Ġeduc": 2789,
      "Ġinclude": 2790,
      "CS": 2791,
      "Ġwhether": 2792,
      "abil": 2793,
      "Ġ2013": 2794,
      "ĠOne": 2795,
      "comm": 2796,
      "quency": 2797,
      "press": 2798,
      "Ġcat": 2799,
      "Ġlater": 2800,
      "Ġang": 2801,
      "Ġprogram": 2802,
      "ĠMc": 2803,
      "ĠOb": 2804,
      "Ġche": 2805,
      "ography": 2806,
      "raft": 2807,
      "Cl": 2808,
      "Ġ76": 2809,
      "Ġmen": 2810,
      "Ġsoft": 2811,
      "vant": 2812,
      "Ġconfir": 2813,
      "Ġbel": 2814,
      "ĠNational": 2815,
      "TT": 2816,
      "Cs": 2817,
      "gor": 2818,
      "upplementary": 2819,
      "Ġfat": 2820,
      "ĠQu": 2821,
      "Ġidentify": 2822,
      "trans": 2823,
      "Ġinvolved": 2824,
      "Ġplant": 2825,
      "Ġsubject": 2826,
      "Ġsep": 2827,
      "olic": 2828,
      ",,": 2829,
      "Ġtypes": 2830,
      "ĠInternational": 2831,
      "ĠMedicine": 2832,
      "rations": 2833,
      "AL": 2834,
      "Ġability": 2835,
      "Ġide": 2836,
      "Ġhome": 2837,
      "âĹ¦": 2838,
      "Ġdepend": 2839,
      "Ġ70": 2840,
      "Ġcer": 2841,
      "Ġfin": 2842,
      "Ġplace": 2843,
      "formation": 2844,
      "Ġ44": 2845,
      "ours": 2846,
      "Ġterms": 2847,
      "Ġsom": 2848,
      "________": 2849,
      "ng": 2850,
      "xim": 2851,
      "Ġbo": 2852,
      "istry": 2853,
      "Ġgoing": 2854,
      "Ġconn": 2855,
      "met": 2856,
      "Ġstep": 2857,
      "Ġshort": 2858,
      "IR": 2859,
      "Ġess": 2860,
      "Ġoverall": 2861,
      "Ġla": 2862,
      ".)": 2863,
      "Ġgiven": 2864,
      "ĠRNA": 2865,
      "Ġdiagnosis": 2866,
      "BS": 2867,
      "Ġparticularly": 2868,
      "tality": 2869,
      "ape": 2870,
      "Ġview": 2871,
      "Ġgame": 2872,
      "Ġstatus": 2873,
      "Ġcorrespond": 2874,
      "eph": 2875,
      "su": 2876,
      "Ġsurgery": 2877,
      "gu": 2878,
      "ians": 2879,
      "which": 2880,
      "ried": 2881,
      "Ġair": 2882,
      "rem": 2883,
      "Ġ86": 2884,
      "CL": 2885,
      "Ġleg": 2886,
      "ĠPM": 2887,
      "Ġ88": 2888,
      "Ġchalleng": 2889,
      "ĠMethod": 2890,
      "Ġnear": 2891,
      "Ġorder": 2892,
      "As": 2893,
      "hi": 2894,
      "ended": 2895,
      "ci": 2896,
      "ĠMedical": 2897,
      "Ġstrength": 2898,
      "Ġpass": 2899,
      "ĠFood": 2900,
      "kg": 2901,
      "Ġresulting": 2902,
      "Ġblock": 2903,
      "ancy": 2904,
      "aged": 2905,
      "enn": 2906,
      "tens": 2907,
      "Ġmust": 2908,
      "ott": 2909,
      "Ġinst": 2910,
      "alf": 2911,
      "AN": 2912,
      "enzym": 2913,
      "Ġproced": 2914,
      "Ġ46": 2915,
      "Ġabove": 2916,
      "ĠCar": 2917,
      "ided": 2918,
      "Ġcomput": 2919,
      "Ġdisord": 2920,
      "Ġfive": 2921,
      "itation": 2922,
      "Ġ78": 2923,
      "analysis": 2924,
      "from": 2925,
      "Ġphysical": 2926,
      "Ġimprove": 2927,
      "ĠDepartment": 2928,
      "Ġestab": 2929,
      "itu": 2930,
      "Ġeth": 2931,
      "ĠEurop": 2932,
      "Ġcoh": 2933,
      "aken": 2934,
      "like": 2935,
      "itivity": 2936,
      "asis": 2937,
      "Ġcy": 2938,
      "ÃŃ": 2939,
      "ĠPer": 2940,
      "gorith": 2941,
      "aa": 2942,
      "Ġindex": 2943,
      "Ġmeasured": 2944,
      "ĠSe": 2945,
      "Ġstrain": 2946,
      "wh": 2947,
      "roduction": 2948,
      "Ġnext": 2949,
      "Ġliter": 2950,
      "Ġaim": 2951,
      "Ġ2012": 2952,
      "Ġred": 2953,
      "ether": 2954,
      "ĠYang": 2955,
      "Ġareas": 2956,
      "iology": 2957,
      "Ġregion": 2958,
      "ument": 2959,
      "ano": 2960,
      "Ġbehavior": 2961,
      "ĠUS": 2962,
      "Ġinfection": 2963,
      "Ġprob": 2964,
      "ining": 2965,
      "Ġindicated": 2966,
      "Ġsurvival": 2967,
      "eting": 2968,
      "duce": 2969,
      "Ġnegative": 2970,
      "dust": 2971,
      "Ġmal": 2972,
      "ames": 2973,
      "Ġcontinu": 2974,
      "ij": 2975,
      "Ġscreen": 2976,
      "set": 2977,
      "Ġfract": 2978,
      "Ġdiseases": 2979,
      "ĠInstit": 2980,
      "Ġlaw": 2981,
      "Ġnat": 2982,
      "ĠComp": 2983,
      "Ġhold": 2984,
      "102": 2985,
      "group": 2986,
      "Ġliver": 2987,
      "prov": 2988,
      "Ã¡": 2989,
      "ĠPD": 2990,
      "Ġcyc": 2991,
      "2019": 2992,
      "Ġside": 2993,
      "ceed": 2994,
      "Ġsequenc": 2995,
      "ica": 2996,
      "raph": 2997,
      "ocy": 2998,
      "orption": 2999,
      "Ġmolecular": 3000,
      "Ġtrial": 3001,
      "Ġtreated": 3002,
      "ĠCan": 3003,
      "ographic": 3004,
      "Ġvariables": 3005,
      "Ġ39": 3006,
      "Ġmechanisms": 3007,
      "iat": 3008,
      "come": 3009,
      "ras": 3010,
      "ME": 3011,
      "Ġimage": 3012,
      "Ġ94": 3013,
      "Ġ84": 3014,
      "ĠII": 3015,
      "operative": 3016,
      "otal": 3017,
      "))": 3018,
      "Ġreduction": 3019,
      "Ġaccuracy": 3020,
      "err": 3021,
      "Al": 3022,
      "ĠTherefore": 3023,
      "iles": 3024,
      "Ġeas": 3025,
      "Ġelectro": 3026,
      "Ġanalyses": 3027,
      "Ġgreater": 3028,
      "induced": 3029,
      "Ġstim": 3030,
      "Ġoptim": 3031,
      "xid": 3032,
      "Ġsus": 3033,
      "Ġmac": 3034,
      "active": 3035,
      "Ġgovernment": 3036,
      "pecially": 3037,
      "Ġheart": 3038,
      "Ġclos": 3039,
      "Ġproject": 3040,
      "Ġquestion": 3041,
      "ellular": 3042,
      "pite": 3043,
      "Ġop": 3044,
      "ĠReview": 3045,
      "Ġfull": 3046,
      "ulin": 3047,
      "oring": 3048,
      "Ġlung": 3049,
      "ĠDes": 3050,
      "Ġrecord": 3051,
      "Ġov": 3052,
      "mL": 3053,
      "ĠSu": 3054,
      "Ġrecent": 3055,
      "Ġschool": 3056,
      "ask": 3057,
      "GG": 3058,
      "Ġ77": 3059,
      "po": 3060,
      "cre": 3061,
      "Ġproducts": 3062,
      "ĠAmerican": 3063,
      "Ġsymptoms": 3064,
      "Ġult": 3065,
      "Ġecon": 3066,
      "AB": 3067,
      "Ġeither": 3068,
      "ini": 3069,
      "Ġanalyzed": 3070,
      "Ġlimited": 3071,
      "Ġprior": 3072,
      "ĠInf": 3073,
      "Ġcr": 3074,
      "Ġobject": 3075,
      "Ġ56": 3076,
      "orb": 3077,
      "Ġpathway": 3078,
      "NF": 3079,
      "OI": 3080,
      "Ġinfluence": 3081,
      "PR": 3082,
      "Ġvisual": 3083,
      "arr": 3084,
      "ĠUnited": 3085,
      "Ġmid": 3086,
      "las": 3087,
      "Ġnecess": 3088,
      "ream": 3089,
      "eep": 3090,
      "ffer": 3091,
      "Ġ42": 3092,
      "Ġapprov": 3093,
      "Ġdescribed": 3094,
      "Ġir": 3095,
      "Ġcritical": 3096,
      "ender": 3097,
      "Ġaddress": 3098,
      "ories": 3099,
      "Ġonline": 3100,
      "urrent": 3101,
      "Ġassessment": 3102,
      "ĠFl": 3103,
      "Ġorg": 3104,
      "eved": 3105,
      "vey": 3106,
      "ĠPL": 3107,
      "Ġsite": 3108,
      "ange": 3109,
      "cence": 3110,
      "ĠFurthermore": 3111,
      "isease": 3112,
      "ĠAnalysis": 3113,
      "Ġmaterials": 3114,
      "Ġessential": 3115,
      "Ġmaking": 3116,
      "most": 3117,
      "ND": 3118,
      "Ġlack": 3119,
      "Ġcalculated": 3120,
      "ĠCol": 3121,
      "Ġsaf": 3122,
      "Ġcorrelation": 3123,
      "Ġinitial": 3124,
      "1038": 3125,
      "ĠWhile": 3126,
      "Ġposition": 3127,
      "ĠSub": 3128,
      "atin": 3129,
      "yro": 3130,
      "Ġleading": 3131,
      "Ġtoward": 3132,
      "................": 3133,
      "Ġprevent": 3134,
      "ked": 3135,
      "Ġpoints": 3136,
      "ĠBiol": 3137,
      "specific": 3138,
      "âĢĲ": 3139,
      "Ġhistory": 3140,
      "ĠEm": 3141,
      "Ġdynam": 3142,
      "Ġappear": 3143,
      "iveness": 3144,
      "ture": 3145,
      "ĠAcc": 3146,
      "etal": 3147,
      "Ġhard": 3148,
      "Ġlist": 3149,
      "ana": 3150,
      "Ġ43": 3151,
      "'ve": 3152,
      "reh": 3153,
      "ĠImmun": 3154,
      "lying": 3155,
      "bial": 3156,
      "Ġcateg": 3157,
      "Ġweeks": 3158,
      "sis": 3159,
      "MP": 3160,
      "uscript": 3161,
      "Ġ**": 3162,
      "Ġcertain": 3163,
      "rist": 3164,
      "ĠCR": 3165,
      "Sc": 3166,
      "CH": 3167,
      "Ġcut": 3168,
      "ruction": 3169,
      "hee": 3170,
      "Ġ2011": 3171,
      "ttp": 3172,
      "Ġ]": 3173,
      "Ġmi": 3174,
      "dom": 3175,
      "function": 3176,
      "EW": 3177,
      "Ġpublished": 3178,
      "fferent": 3179,
      "Ġformation": 3180,
      "ĠHigh": 3181,
      "Ġplac": 3182,
      "Ġactivation": 3183,
      "utri": 3184,
      ".âĢĿ": 3185,
      "Ġcost": 3186,
      "ĠSurg": 3187,
      "overy": 3188,
      "Ġtoo": 3189,
      "Ġimaging": 3190,
      "time": 3191,
      "sions": 3192,
      "astro": 3193,
      "ama": 3194,
      "Ġreally": 3195,
      "ecting": 3196,
      "side": 3197,
      "Ġturn": 3198,
      "eter": 3199,
      "astic": 3200,
      "mitted": 3201,
      "mph": 3202,
      "ĠSD": 3203,
      "Ġadded": 3204,
      "Ġmuscle": 3205,
      "ĠAv": 3206,
      "Ġdetermined": 3207,
      "Ġcontrast": 3208,
      "inary": 3209,
      "ley": 3210,
      "ulate": 3211,
      "Ġkid": 3212,
      "plac": 3213,
      "uble": 3214,
      "Ġreceived": 3215,
      "Ġregions": 3216,
      "Ġcapac": 3217,
      "ĠGl": 3218,
      "Ġgran": 3219,
      "Ġstage": 3220,
      "ĠSystem": 3221,
      "rome": 3222,
      "Ġenzym": 3223,
      "ocyt": 3224,
      "ged": 3225,
      "Ġconsistent": 3226,
      "Ġpolym": 3227,
      "Ġpaper": 3228,
      "erences": 3229,
      "Pro": 3230,
      "Ġconcer": 3231,
      "ped": 3232,
      "ociated": 3233,
      "osc": 3234,
      "Ġpreprint": 3235,
      "Ġ54": 3236,
      "utions": 3237,
      "iate": 3238,
      "Ġseen": 3239,
      "rs": 3240,
      "Ġdri": 3241,
      "ES": 3242,
      "Ġinjury": 3243,
      "Ġ58": 3244,
      "ÃĹ": 3245,
      "Ġgenetic": 3246,
      "ĠSm": 3247,
      "tee": 3248,
      "Ġcruc": 3249,
      "Ġdeveloped": 3250,
      "Ġbiom": 3251,
      "Ġemerg": 3252,
      "Ġbuild": 3253,
      "Ġ47": 3254,
      "Ġload": 3255,
      "ĠColl": 3256,
      "Ġ66": 3257,
      "erate": 3258,
      "ĠHospital": 3259,
      "ĠThat": 3260,
      "ih": 3261,
      "thers": 3262,
      "Ġ2010": 3263,
      "utes": 3264,
      "Ġrob": 3265,
      "Ġachi": 3266,
      "Ġput": 3267,
      "ovascular": 3268,
      "Ġkn": 3269,
      "Ġann": 3270,
      "Ġpeak": 3271,
      "Ġexposure": 3272,
      "ĠCT": 3273,
      "Ġplas": 3274,
      "aro": 3275,
      "Ġdamage": 3276,
      "PP": 3277,
      "ector": 3278,
      "opyright": 3279,
      "Ġprol": 3280,
      "Ġactive": 3281,
      "Ġsepar": 3282,
      "ĠAD": 3283,
      "Ġpreval": 3284,
      "vision": 3285,
      "Ġrequired": 3286,
      "iences": 3287,
      "Ġreli": 3288,
      "Ġreach": 3289,
      "Ġ87": 3290,
      "Ġable": 3291,
      "Ġmortality": 3292,
      "Ġapplication": 3293,
      "inct": 3294,
      "ĠPage": 3295,
      "ada": 3296,
      "CM": 3297,
      "raw": 3298,
      "Ġchem": 3299,
      "Ġespecially": 3300,
      "ĠDecember": 3301,
      "Ġbone": 3302,
      "Ġeff": 3303,
      "Ġdys": 3304,
      "Ġsource": 3305,
      "isting": 3306,
      "Ġsix": 3307,
      "ĠShe": 3308,
      "rix": 3309,
      "...": 3310,
      "âĢľ": 3311,
      "ygen": 3312,
      "VID": 3313,
      "imate": 3314,
      "Ġsays": 3315,
      "igen": 3316,
      "Ġcause": 3317,
      "atient": 3318,
      "Ġsignaling": 3319,
      "know": 3320,
      "IS": 3321,
      "lation": 3322,
      "Ġ198": 3323,
      "Ġcomm": 3324,
      "ĠJoh": 3325,
      "da": 3326,
      "ĠPar": 3327,
      "It": 3328,
      "Ġbreast": 3329,
      "gin": 3330,
      "itative": 3331,
      "Ġcollected": 3332,
      "Ġ64": 3333,
      "Ġpast": 3334,
      "2018": 3335,
      "Ġglobal": 3336,
      "Ġtry": 3337,
      "ĠST": 3338,
      "ĠBy": 3339,
      "Ġpul": 3340,
      "ĠAdv": 3341,
      "Ġvolume": 3342,
      "iological": 3343,
      "Ġexperience": 3344,
      "Ġuntil": 3345,
      "Ġcalled": 3346,
      "ges": 3347,
      "Ġapplied": 3348,
      "go": 3349,
      "ula": 3350,
      "ze": 3351,
      "Ġyoung": 3352,
      "Ġrefl": 3353,
      "aneous": 3354,
      "Ġlog": 3355,
      "'m": 3356,
      "Ġlicense": 3357,
      "AG": 3358,
      "olar": 3359,
      "vas": 3360,
      "Ġnm": 3361,
      "fficult": 3362,
      "Ġ#": 3363,
      "ĠMa": 3364,
      "ĠSec": 3365,
      "ront": 3366,
      "ochond": 3367,
      "ĠBo": 3368,
      "ulating": 3369,
      "ĠSoci": 3370,
      "ilt": 3371,
      "Ġalgorith": 3372,
      "Ġmeans": 3373,
      "emia": 3374,
      "ĠMin": 3375,
      "Ġassociation": 3376,
      "Ġrecogn": 3377,
      "ising": 3378,
      "ĠHy": 3379,
      "Ġsevere": 3380,
      "ĠWu": 3381,
      "Ġscores": 3382,
      "fi": 3383,
      "ĠKim": 3384,
      "Ġra": 3385,
      "erve": 3386,
      "Ġdisplay": 3387,
      "LD": 3388,
      "izes": 3389,
      "unctions": 3390,
      "Ġpolic": 3391,
      "Ġerror": 3392,
      "taining": 3393,
      "Ġwar": 3394,
      "spective": 3395,
      "atives": 3396,
      "ĠOur": 3397,
      "Ġcrucial": 3398,
      "aren": 3399,
      "ele": 3400,
      "king": 3401,
      "urity": 3402,
      "Ġindicating": 3403,
      "MD": 3404,
      "Ġreaction": 3405,
      "ON": 3406,
      "Ġmagn": 3407,
      "Ġselected": 3408,
      "imals": 3409,
      "ĠClinical": 3410,
      "Â´": 3411,
      "eived": 3412,
      "evelopment": 3413,
      "ĠFOR": 3414,
      "arily": 3415,
      "Ġfar": 3416,
      "Ġcompounds": 3417,
      "Ġdig": 3418,
      "ermal": 3419,
      "Ġdecreased": 3420,
      "ancing": 3421,
      "Ġcarbon": 3422,
      "ĠUs": 3423,
      "Ġknowledge": 3424,
      "Ġ(%)": 3425,
      "ÂŃ": 3426,
      "ili": 3427,
      "high": 3428,
      "quent": 3429,
      "To": 3430,
      "riend": 3431,
      "Ar": 3432,
      "Ab": 3433,
      "Ġisol": 3434,
      "Ġtherapeutic": 3435,
      "ED": 3436,
      "ryst": 3437,
      "Ġbig": 3438,
      "IV": 3439,
      "Wh": 3440,
      "Ġcho": 3441,
      "415": 3442,
      "Ġ97": 3443,
      "era": 3444,
      "Ġrequire": 3445,
      "iang": 3446,
      "Ġec": 3447,
      "Ġapplications": 3448,
      "valu": 3449,
      "Ġart": 3450,
      "lear": 3451,
      "IN": 3452,
      "Ġplat": 3453,
      "Ġresponses": 3454,
      "Ġstrategies": 3455,
      "Ġimproved": 3456,
      "ls": 3457,
      "Ġrap": 3458,
      "Ġsat": 3459,
      "rump": 3460,
      "inflamm": 3461,
      "Ġbeli": 3462,
      "Ġhowever": 3463,
      "Ġexperimental": 3464,
      "gr": 3465,
      "ĠChar": 3466,
      "dle": 3467,
      "plant": 3468,
      "Ġmillion": 3469,
      "Ġlength": 3470,
      "Ġsystematic": 3471,
      "Ġtests": 3472,
      "Ġsafety": 3473,
      "stitution": 3474,
      "ĠCre": 3475,
      "quence": 3476,
      "radition": 3477,
      "Ġevaluation": 3478,
      "Ġdeliv": 3479,
      "Ġpoly": 3480,
      "iques": 3481,
      "olution": 3482,
      "Ġ49": 3483,
      "ypes": 3484,
      "significant": 3485,
      "Ġrecomm": 3486,
      "Ġyield": 3487,
      "Ġproposed": 3488,
      "back": 3489,
      "Ġintervention": 3490,
      "Ġadditional": 3491,
      "odes": 3492,
      "ĠFran": 3493,
      "Ġinteraction": 3494,
      "hetic": 3495,
      "ĠLu": 3496,
      "Ġhighest": 3497,
      "lucose": 3498,
      "Ġ57": 3499,
      "Ġdeep": 3500,
      "Ac": 3501,
      "ĠGe": 3502,
      "Ġnever": 3503,
      "Ġadjust": 3504,
      "ventions": 3505,
      "IC": 3506,
      "elect": 3507,
      "Ġpathways": 3508,
      "Ġnatural": 3509,
      "Ġcondition": 3510,
      "uster": 3511,
      "Ġhom": 3512,
      "ressive": 3513,
      "Ġincreases": 3514,
      "Ġhighly": 3515,
      "Ġlittle": 3516,
      "ĠPEER": 3517,
      "ards": 3518,
      "Ġ79": 3519,
      "net": 3520,
      "Ġphosph": 3521,
      "iot": 3522,
      "OD": 3523,
      "Ġimplement": 3524,
      "ioxid": 3525,
      "Ġcomparison": 3526,
      "Ġpolit": 3527,
      "ĠStudy": 3528,
      "Ġbinding": 3529,
      "Ġtesting": 3530,
      "PC": 3531,
      "bet": 3532,
      "Ġliterature": 3533,
      "hao": 3534,
      "ĠAf": 3535,
      "Ġcountries": 3536,
      "Ġmedium": 3537,
      "ocol": 3538,
      "VA": 3539,
      "Di": 3540,
      "Ġconcentrations": 3541,
      "ĠNov": 3542,
      "clusion": 3543,
      "Ġtub": 3544,
      "ognitive": 3545,
      "Ġrelative": 3546,
      "ĠBar": 3547,
      "ĠGerm": 3548,
      "Ġbecome": 3549,
      "ĠmL": 3550,
      "ething": 3551,
      "Ġ53": 3552,
      "inant": 3553,
      "Ġsoftware": 3554,
      "ĠCommun": 3555,
      "Ġprocesses": 3556,
      "rr": 3557,
      "ĠREVI": 3558,
      "Ġhaving": 3559,
      "MR": 3560,
      "ference": 3561,
      "FF": 3562,
      "Ġ68": 3563,
      "hes": 3564,
      "load": 3565,
      "Ġneur": 3566,
      "SE": 3567,
      "elling": 3568,
      "Ġrelease": 3569,
      "Ġoil": 3570,
      "ĠLee": 3571,
      "ogenic": 3572,
      "Ad": 3573,
      "Ġles": 3574,
      "Ex": 3575,
      "Ġacqu": 3576,
      "ging": 3577,
      "Ġvalid": 3578,
      "Ġcompreh": 3579,
      "ogenesis": 3580,
      "Ġagg": 3581,
      "Ġ52": 3582,
      "ĠTrump": 3583,
      "arch": 3584,
      "%),": 3585,
      "Ġdensity": 3586,
      "cy": 3587,
      "Ġmembrane": 3588,
      "oids": 3589,
      "Ġdirectly": 3590,
      "Ġ83": 3591,
      "Ġden": 3592,
      "Ġreason": 3593,
      "Ġcohort": 3594,
      "Ġasp": 3595,
      "vious": 3596,
      "Ġdecl": 3597,
      "Ġpatterns": 3598,
      "sa": 3599,
      "Ġremains": 3600,
      "Ġconsider": 3601,
      "reed": 3602,
      "2017": 3603,
      "BC": 3604,
      "Ġmeta": 3605,
      "Ġtren": 3606,
      "Ġexpressed": 3607,
      "berg": 3608,
      "Ġfrequency": 3609,
      "bers": 3610,
      "aboratory": 3611,
      "Ġfo": 3612,
      "Ġdecrease": 3613,
      "Ġ93": 3614,
      "xi": 3615,
      "ero": 3616,
      "resents": 3617,
      "ulf": 3618,
      "ailability": 3619,
      "Ġattack": 3620,
      "ready": 3621,
      "ĠMay": 3622,
      "Ġ89": 3623,
      "BM": 3624,
      "ĠÎ¼": 3625,
      "Ġ101": 3626,
      "Ġfeel": 3627,
      "si": 3628,
      "ogene": 3629,
      "Ġstudents": 3630,
      "log": 3631,
      "Ġskin": 3632,
      "IL": 3633,
      "ĠOnc": 3634,
      "itions": 3635,
      "ĠBr": 3636,
      "Ġstability": 3637,
      "hood": 3638,
      "Ġste": 3639,
      "Ġâī": 3640,
      "luded": 3641,
      "Ġenhance": 3642,
      "Ġwid": 3643,
      "Ġve": 3644,
      "Ġseries": 3645,
      "ologies": 3646,
      "ply": 3647,
      "Ġelev": 3648,
      "iff": 3649,
      "Ġcountry": 3650,
      "Ġsw": 3651,
      "Ġcriteria": 3652,
      "Ġinteractions": 3653,
      "Ġexperiments": 3654,
      "Ġseg": 3655,
      "ifically": 3656,
      "Ġli": 3657,
      "NN": 3658,
      "estinal": 3659,
      "025": 3660,
      "riate": 3661,
      "Ġtransfer": 3662,
      "Ġhighlight": 3663,
      "Ġdifficult": 3664,
      "ĠREVIEW": 3665,
      "ĠOR": 3666,
      "Ġfeed": 3667,
      "Ġunderstanding": 3668,
      "Ġthird": 3669,
      "Ġdecision": 3670,
      "Ġmetabolic": 3671,
      "opath": 3672,
      "Ġreceptor": 3673,
      "Co": 3674,
      "inoma": 3675,
      "ilk": 3676,
      "ĠStates": 3677,
      "raz": 3678,
      "Ġmedia": 3679,
      "thing": 3680,
      "Ġlipid": 3681,
      "ĠBio": 3682,
      "Ġ00": 3683,
      "Ġindust": 3684,
      "oro": 3685,
      "Ġpp": 3686,
      "thes": 3687,
      "Ġcover": 3688,
      "Ġpractice": 3689,
      "Ġthings": 3690,
      "Ġpreviously": 3691,
      "Ġfacilit": 3692,
      "osa": 3693,
      "osed": 3694,
      "Ġpack": 3695,
      "Ġhem": 3696,
      "Ġevents": 3697,
      "Ġland": 3698,
      "Ġlines": 3699,
      "Ġ74": 3700,
      "Ġcontact": 3701,
      "Ġneeded": 3702,
      "ĠAnt": 3703,
      "struction": 3704,
      "Ġbelow": 3705,
      "ĠCH": 3706,
      "Ġeducation": 3707,
      "Ġbus": 3708,
      "ortun": 3709,
      "Ġevent": 3710,
      "Ġlab": 3711,
      "Ġlayer": 3712,
      "ussion": 3713,
      "leep": 3714,
      "IT": 3715,
      "Ġdiss": 3716,
      "Ġcapacity": 3717,
      "Ġprep": 3718,
      "ege": 3719,
      "Ġfeature": 3720,
      "Ġsomething": 3721,
      "Ġmembers": 3722,
      "Ġcome": 3723,
      "ĠSur": 3724,
      "isms": 3725,
      "kin": 3726,
      "Ġactivities": 3727,
      "ĠWhat": 3728,
      "Ġ98": 3729,
      "Ġdose": 3730,
      "Ġ59": 3731,
      "Ġ72": 3732,
      "ĠWorld": 3733,
      "105": 3734,
      "olecular": 3735,
      "Ġtold": 3736,
      "Ã³": 3737,
      "Ġrefer": 3738,
      "udies": 3739,
      "ĠInstitute": 3740,
      "Ġplants": 3741,
      "RT": 3742,
      "Ġax": 3743,
      "2015": 3744,
      "Ġtranscri": 3745,
      "cons": 3746,
      "Ġinfluenc": 3747,
      "oz": 3748,
      "Ġfailure": 3749,
      "Ġmem": 3750,
      "ĠPark": 3751,
      "istically": 3752,
      "ved": 3753,
      "imes": 3754,
      "ĠPa": 3755,
      "ĠPr": 3756,
      "drome": 3757,
      "Ġchallenges": 3758,
      "ĠRad": 3759,
      "ĠRef": 3760,
      "ires": 3761,
      "ids": 3762,
      "han": 3763,
      "formed": 3764,
      "coh": 3765,
      "Ġalready": 3766,
      "open": 3767,
      "Ġkeep": 3768,
      "Ġlot": 3769,
      "Ġ82": 3770,
      "ĠÏ": 3771,
      "Ġsignal": 3772,
      "Ġlymph": 3773,
      "ĠMon": 3774,
      "Ġ67": 3775,
      "ociation": 3776,
      "ĠYu": 3777,
      "Un": 3778,
      "Ġcombination": 3779,
      "Ġchrom": 3780,
      "Ġperson": 3781,
      "va": 3782,
      "Ġpay": 3783,
      "Ġframe": 3784,
      "Ġsubse": 3785,
      "Ġadministration": 3786,
      "opic": 3787,
      "Ġassessed": 3788,
      "Ġcombined": 3789,
      "Ġmeasures": 3790,
      "Ġsearch": 3791,
      "ĠXu": 3792,
      "eh": 3793,
      "sm": 3794,
      "Ġstructures": 3795,
      "Ġcomponents": 3796,
      "Ġtth": 3797,
      "ĠâĢĺ": 3798,
      "Ġcorresponding": 3799,
      "ota": 3800,
      "Ġmulti": 3801,
      "rosis": 3802,
      "Ġworking": 3803,
      "Ġsupplement": 3804,
      "Ġmanuscript": 3805,
      "ĠAL": 3806,
      "ĠCardi": 3807,
      "BP": 3808,
      "Ġ.": 3809,
      "Ġacute": 3810,
      "Ġdetermine": 3811,
      "plet": 3812,
      "Ġcorrect": 3813,
      "alm": 3814,
      "Ġchemical": 3815,
      "Ġindicates": 3816,
      "Ġ41": 3817,
      "orr": 3818,
      "ĠMoreover": 3819,
      "avor": 3820,
      "perim": 3821,
      "Ġothers": 3822,
      "fac": 3823,
      "Ġ2009": 3824,
      "024": 3825,
      "Ġver": 3826,
      "Ġ99": 3827,
      "ĠAlthough": 3828,
      "ificance": 3829,
      "Ġexhibited": 3830,
      "Ġprovides": 3831,
      "ĠFirst": 3832,
      "Ġlin": 3833,
      "RP": 3834,
      "Ġcamp": 3835,
      "Ġbur": 3836,
      "ober": 3837,
      "ĠAT": 3838,
      "ara": 3839,
      "aring": 3840,
      "No": 3841,
      "Ġaff": 3842,
      "umin": 3843,
      "ĠRed": 3844,
      "ĠðĿĳ": 3845,
      "Ġalways": 3846,
      "Ġregulation": 3847,
      "Ġ92": 3848,
      "une": 3849,
      "Ġheter": 3850,
      "Ġamount": 3851,
      "Ġsites": 3852,
      "atter": 3853,
      "mentation": 3854,
      "Ġinflammatory": 3855,
      "Ġhealthy": 3856,
      "Ph": 3857,
      "Ġproblem": 3858,
      "Ġclaim": 3859,
      "sw": 3860,
      "rec": 3861,
      "apan": 3862,
      "ercial": 3863,
      "ria": 3864,
      "ĠSpec": 3865,
      "'ll": 3866,
      "Ġbiological": 3867,
      "Ġsitu": 3868,
      "ximately": 3869,
      "ĠâĪ": 3870,
      "raction": 3871,
      "ĠNe": 3872,
      "Ġtw": 3873,
      "ĠPe": 3874,
      "OL": 3875,
      "rict": 3876,
      "ams": 3877,
      "Ġfocus": 3878,
      "Ġintro": 3879,
      "Ġdataset": 3880,
      "Ġaction": 3881,
      "Ġadapt": 3882,
      "nn": 3883,
      "col": 3884,
      "Ġmetabolism": 3885,
      "ĠPatients": 3886,
      "Ġtaken": 3887,
      "Ġgot": 3888,
      "ĠSun": 3889,
      "mi": 3890,
      "idem": 3891,
      "Ġ2008": 3892,
      "Ġserum": 3893,
      "illed": 3894,
      "otype": 3895,
      "CG": 3896,
      "rew": 3897,
      "Ġprop": 3898,
      "ĠDo": 3899,
      "uck": 3900,
      "Ġsoil": 3901,
      "ĠBro": 3902,
      "ĠEffect": 3903,
      "Ġing": 3904,
      "Ġoxid": 3905,
      ",âĢĿ": 3906,
      "Ġevaluated": 3907,
      "lication": 3908,
      "Ġscale": 3909,
      "Ġge": 3910,
      "Ġenvironmental": 3911,
      "Ġheat": 3912,
      "Ġinflammation": 3913,
      "Ġplan": 3914,
      "Ġregression": 3915,
      "Ġpoor": 3916,
      "ĠMult": 3917,
      "ĠCenter": 3918,
      "Ġrapid": 3919,
      "Ġpan": 3920,
      "Ġbreak": 3921,
      "Ġthus": 3922,
      "Ġresid": 3923,
      "odies": 3924,
      "terior": 3925,
      "Ġprevalence": 3926,
      "Ġselection": 3927,
      "articip": 3928,
      "Ġapprop": 3929,
      "Ġbroad": 3930,
      "Rec": 3931,
      "Ġpsych": 3932,
      "Ġrepresents": 3933,
      "Ġmach": 3934,
      "2016": 3935,
      "ĠpH": 3936,
      "helial": 3937,
      "itude": 3938,
      "ĠCA": 3939,
      "Ġshowing": 3940,
      "ĠMA": 3941,
      "ĠSa": 3942,
      "ĠEnd": 3943,
      "Data": 3944,
      "Ġfix": 3945,
      "Ġsil": 3946,
      "Ġlet": 3947,
      "Ġ63": 3948,
      "SP": 3949,
      "ba": 3950,
      "002": 3951,
      "1111": 3952,
      "Ġgive": 3953,
      "isted": 3954,
      "RA": 3955,
      "Ġservices": 3956,
      "ift": 3957,
      "Ġdoc": 3958,
      "brid": 3959,
      "ĠOpen": 3960,
      "oler": 3961,
      "utrition": 3962,
      "Ġtool": 3963,
      "Ġcourse": 3964,
      "Ġcaused": 3965,
      "omics": 3966,
      "Ġtax": 3967,
      "atal": 3968,
      "Ġreducing": 3969,
      "raditional": 3970,
      "fo": 3971,
      "angu": 3972,
      "Ġsensitivity": 3973,
      "pers": 3974,
      "Ġpersonal": 3975,
      "gl": 3976,
      "Ġtechnology": 3977,
      "ĠEp": 3978,
      "Ġcomplete": 3979,
      "ground": 3980,
      "pd": 3981,
      "Ġcheck": 3982,
      "ĠCOVID": 3983,
      "osts": 3984,
      "----": 3985,
      "Ġgr": 3986,
      "Ġissues": 3987,
      "ches": 3988,
      "Ġvide": 3989,
      "Ġdetected": 3990,
      "Ġpregn": 3991,
      "ensors": 3992,
      "journal": 3993,
      "Ġaccept": 3994,
      "Ġspecial": 3995,
      "Ġadults": 3996,
      "Ġprogression": 3997,
      "under": 3998,
      "110": 3999,
      "oto": 4000,
      "Ġmale": 4001,
      "ivo": 4002,
      "Ġter": 4003,
      "rt": 4004,
      "ĠOver": 4005,
      "Ġtrials": 4006,
      "Ġvent": 4007,
      "Ġemployed": 4008,
      "aster": 4009,
      "Ġnational": 4010,
      "Ġhalf": 4011,
      "ĠCC": 4012,
      "Ġmaximum": 4013,
      "Ġneeds": 4014,
      "Ġrather": 4015,
      "abase": 4016,
      "Ġstatistical": 4017,
      "PM": 4018,
      "Ġalign": 4019,
      "Ġensure": 4020,
      "ĠDem": 4021,
      "ham": 4022,
      "Ġmel": 4023,
      "control": 4024,
      "Ġtog": 4025,
      "Ġhours": 4026,
      "occ": 4027,
      "ĠCommons": 4028,
      "Ġdrugs": 4029,
      "dis": 4030,
      "ĠGroup": 4031,
      "ully": 4032,
      "Ġsal": 4033,
      "uly": 4034,
      "ĠÂµ": 4035,
      "ĠScientific": 4036,
      "Ġindependent": 4037,
      "normal": 4038,
      "type": 4039,
      "ĠCare": 4040,
      "value": 4041,
      "Ġreturn": 4042,
      "Ġjob": 4043,
      "inese": 4044,
      "Ġseason": 4045,
      "inally": 4046,
      "arb": 4047,
      "Ġspace": 4048,
      "ĠVal": 4049,
      "Ġinvestigation": 4050,
      "Ġwhole": 4051,
      "Ġtechniques": 4052,
      "esity": 4053,
      "ĠGo": 4054,
      "ĠMater": 4055,
      "Ġtogether": 4056,
      "Ġacids": 4057,
      "lor": 4058,
      "Ġhap": 4059,
      "Ġmatrix": 4060,
      "Ġsynthesis": 4061,
      "Ġthick": 4062,
      "Rx": 4063,
      "Ġ62": 4064,
      "ella": 4065,
      "Ġproport": 4066,
      "ruit": 4067,
      "Ġcontaining": 4068,
      "see": 4069,
      "Ġfunctions": 4070,
      "Ġoutcome": 4071,
      "NC": 4072,
      "ĠMy": 4073,
      "3390": 4074,
      "Ġentire": 4075,
      "mittee": 4076,
      "ĠONE": 4077,
      "Ġwhy": 4078,
      "Ġtissues": 4079,
      "orph": 4080,
      "Ġdistinct": 4081,
      "ĠEd": 4082,
      ")-": 4083,
      "Ġbaseline": 4084,
      "orpor": 4085,
      "ching": 4086,
      "ĠControl": 4087,
      "char": 4088,
      "Ġsumm": 4089,
      "organ": 4090,
      "ĠZhao": 4091,
      "patients": 4092,
      "ĠDet": 4093,
      "ura": 4094,
      "umb": 4095,
      "Ġbal": 4096,
      "associated": 4097,
      "Ġee": 4098,
      "Ġattention": 4099,
      "Ġrepe": 4100,
      "stead": 4101,
      "ustain": 4102,
      "Ġexpected": 4103,
      "riting": 4104,
      "ioxidant": 4105,
      "Ġoxygen": 4106,
      "ĠCal": 4107,
      "ping": 4108,
      "ĠOct": 4109,
      "hydro": 4110,
      "ills": 4111,
      "ending": 4112,
      "ancial": 4113,
      "ients": 4114,
      "Ġdefined": 4115,
      "Ġfemale": 4116,
      "des": 4117,
      "Ġneut": 4118,
      "104": 4119,
      "ger": 4120,
      "ato": 4121,
      "ĠFe": 4122,
      "Ġcoup": 4123,
      "ĠHuang": 4124,
      "sub": 4125,
      "ĠCreative": 4126,
      "ĠEuropean": 4127,
      "Ġanal": 4128,
      "Ġmonth": 4129,
      "Ġreference": 4130,
      "Ġhepat": 4131,
      "iratory": 4132,
      "Ġupon": 4133,
      "Ġprogn": 4134,
      "ocal": 4135,
      "Ġcontext": 4136,
      "2014": 4137,
      "oses": 4138,
      "estern": 4139,
      "Ġstrategy": 4140,
      "rif": 4141,
      "Ġincub": 4142,
      "Ġcellular": 4143,
      "atial": 4144,
      "Ġdisorders": 4145,
      "Ġevaluate": 4146,
      "Ġdone": 4147,
      "Ġyet": 4148,
      "Ġtox": 4149,
      "Ġefficacy": 4150,
      "Ġq": 4151,
      "umber": 4152,
      "Ġwriting": 4153,
      "Ġgra": 4154,
      "Ġrespond": 4155,
      "ocytes": 4156,
      "ternal": 4157,
      "Ġfore": 4158,
      "Ġcle": 4159,
      "arent": 4160,
      "Ġ69": 4161,
      "ira": 4162,
      "Ġculture": 4163,
      "ows": 4164,
      "nh": 4165,
      "Ġcal": 4166,
      "Ġcomprehensive": 4167,
      "Ġstructural": 4168,
      "ening": 4169,
      "Ġdescri": 4170,
      "rees": 4171,
      "125": 4172,
      "paration": 4173,
      "005": 4174,
      "Ġediting": 4175,
      "ĠMethods": 4176,
      "ĠVol": 4177,
      "ĠMo": 4178,
      "DM": 4179,
      "Ġmorph": 4180,
      "Rxiv": 4181,
      "ĠFront": 4182,
      "Ġinterventions": 4183,
      "ifi": 4184,
      "Ġfer": 4185,
      "det": 4186,
      "Ġstates": 4187,
      "ĠHow": 4188,
      "106": 4189,
      "Ġconsumption": 4190,
      "103": 4191,
      "ĠJapan": 4192,
      "Ġfit": 4193,
      "ĠSouth": 4194,
      "Ġfig": 4195,
      "ineering": 4196,
      "Ġcycle": 4197,
      "Ġpriv": 4198,
      "olecules": 4199,
      "andid": 4200,
      "enter": 4201,
      "ecut": 4202,
      "Ġenhanced": 4203,
      "test": 4204,
      "LC": 4205,
      "Ġradi": 4206,
      "Ġcomposition": 4207,
      "my": 4208,
      "Ġlarger": 4209,
      "Supplementary": 4210,
      "can": 4211,
      "Ġves": 4212,
      "amine": 4213,
      "ĠLin": 4214,
      "Ġglucose": 4215,
      "ĠBMC": 4216,
      "reatment": 4217,
      "overed": 4218,
      "Vs": 4219,
      "NO": 4220,
      "Ġbr": 4221,
      "Ġmitochond": 4222,
      "imension": 4223,
      "ediat": 4224,
      "ĠAust": 4225,
      "ui": 4226,
      "Ġled": 4227,
      "Ġsuccessful": 4228,
      "ĠNa": 4229,
      "oster": 4230,
      "ka": 4231,
      "ĠFrom": 4232,
      "Ġlonger": 4233,
      "Ġdiff": 4234,
      "Ġmis": 4235,
      "ster": 4236,
      "Ġemb": 4237,
      "orescence": 4238,
      "ĠRepublic": 4239,
      "âĢ¦": 4240,
      "ynthesis": 4241,
      "Ġdesigned": 4242,
      "Ġimportance": 4243,
      "Ġequal": 4244,
      "Ġforce": 4245,
      "Ġenough": 4246,
      "Ġmiss": 4247,
      "NS": 4248,
      "0001": 4249,
      "articles": 4250,
      "ivation": 4251,
      "ico": 4252,
      "oman": 4253,
      "article": 4254,
      "OC": 4255,
      "PT": 4256,
      "Ġaltern": 4257,
      "Ġcort": 4258,
      "Ġincidence": 4259,
      "Ġillust": 4260,
      "BD": 4261,
      "Ġbond": 4262,
      "ducing": 4263,
      "âī": 4264,
      "ĠDisease": 4265,
      "Ġkind": 4266,
      "\":": 4267,
      "Ġcardiac": 4268,
      "ĠDec": 4269,
      "redict": 4270,
      "hing": 4271,
      "Ġappropriate": 4272,
      "Ġbook": 4273,
      "Ġrig": 4274,
      "De": 4275,
      "cal": 4276,
      "onic": 4277,
      "ĠÎ²": 4278,
      "pth": 4279,
      "Ġnecessary": 4280,
      "ications": 4281,
      "radation": 4282,
      "ameter": 4283,
      "mark": 4284,
      "Ġ73": 4285,
      "Ġcollection": 4286,
      "Ġlay": 4287,
      "MT": 4288,
      "enses": 4289,
      "Ġarter": 4290,
      "edu": 4291,
      "racellular": 4292,
      "def": 4293,
      "Ġprocessing": 4294,
      "Ġseed": 4295,
      "Ġsuggests": 4296,
      "Ġrelevant": 4297,
      "003": 4298,
      "Ġexperiment": 4299,
      "Ġcentral": 4300,
      "ĠSal": 4301,
      "Ġpopulations": 4302,
      "Ġdiv": 4303,
      "ĠChinese": 4304,
      "yroid": 4305,
      "Ġaway": 4306,
      "Ġunderg": 4307,
      "ĠSciences": 4308,
      "IP": 4309,
      "Ġprediction": 4310,
      "Ġanimal": 4311,
      "roke": 4312,
      "Ġfriend": 4313,
      "Ġspeed": 4314,
      "Ġviol": 4315,
      "Ġhost": 4316,
      "Ġcarc": 4317,
      "Ġwhite": 4318,
      "gi": 4319,
      "omer": 4320,
      "EG": 4321,
      "Ġtransport": 4322,
      "305": 4323,
      "Ġonce": 4324,
      "120": 4325,
      "Ġmetast": 4326,
      "ĠSup": 4327,
      "Ġmedian": 4328,
      "Ġgenerated": 4329,
      "opro": 4330,
      "ament": 4331,
      "Ġ--": 4332,
      "Ġcompet": 4333,
      "ĠElect": 4334,
      "Ġaccount": 4335,
      "147": 4336,
      "ips": 4337,
      "ml": 4338,
      "mal": 4339,
      "Ġtion": 4340,
      "Ġcognitive": 4341,
      "Ġoste": 4342,
      "aut": 4343,
      "Ġparen": 4344,
      "Ġintra": 4345,
      "ĠRel": 4346,
      "Ġnucle": 4347,
      "Ġcontrolled": 4348,
      "ĠNon": 4349,
      "ĠYork": 4350,
      "effect": 4351,
      "Ġplasma": 4352,
      "ĠMS": 4353,
      "Ġbeh": 4354,
      "bor": 4355,
      "Ġalmost": 4356,
      "NP": 4357,
      "004": 4358,
      "down": 4359,
      "ades": 4360,
      "Ġdidn": 4361,
      "ĠSign": 4362,
      "point": 4363,
      "rant": 4364,
      "Ã¼": 4365,
      "Ġvacc": 4366,
      "Ġresources": 4367,
      "ĠAccording": 4368,
      "Ġscreening": 4369,
      "ibr": 4370,
      "Ġsecondary": 4371,
      "wise": 4372,
      "Ġtested": 4373,
      "orage": 4374,
      "ĠðĿ": 4375,
      "Ġstop": 4376,
      "Pl": 4377,
      "eve": 4378,
      "Ġgreen": 4379,
      "ureus": 4380,
      "aves": 4381,
      "Ġadvanced": 4382,
      "Ġpotentially": 4383,
      "well": 4384,
      "hics": 4385,
      "150": 4386,
      "ĠSome": 4387,
      "ĠZhou": 4388,
      "ister": 4389,
      "Ġkin": 4390,
      "inflammatory": 4391,
      "Ġduration": 4392,
      "ĠPlant": 4393,
      "ĠÎ±": 4394,
      "ĠAnn": 4395,
      "Ġpept": 4396,
      "Ġwall": 4397,
      "anning": 4398,
      "129": 4399,
      "Ġconfirmed": 4400,
      "Ġmeasurements": 4401,
      "Ġgas": 4402,
      "115": 4403,
      "Ġdeb": 4404,
      "Ġsurvey": 4405,
      "ĠDel": 4406,
      "Ġprolif": 4407,
      "agen": 4408,
      "efficient": 4409,
      "ĠPres": 4410,
      "Ġï": 4411,
      "Ġintensity": 4412,
      "Ġhum": 4413,
      "olym": 4414,
      "Ġconsid": 4415,
      "Ġwhereas": 4416,
      "Ġsection": 4417,
      "Ġderived": 4418,
      "RS": 4419,
      "ifest": 4420,
      "ochemical": 4421,
      "ĠPublic": 4422,
      "reshold": 4423,
      "ĠCompar": 4424,
      "pts": 4425,
      "Ġfall": 4426,
      "Ġbir": 4427,
      "monary": 4428,
      "Ġ2007": 4429,
      "Ġmechanical": 4430,
      "Ġ51": 4431,
      "Ġavoid": 4432,
      "Ġbacteria": 4433,
      "Ġsupported": 4434,
      "Ġdiscuss": 4435,
      "113": 4436,
      "Ġeffectively": 4437,
      "Ġinterview": 4438,
      "yle": 4439,
      "Ġ01": 4440,
      "Ġtit": 4441,
      "Ġport": 4442,
      "Ġtreatments": 4443,
      "treatment": 4444,
      "Ġcolor": 4445,
      "Am": 4446,
      "nai": 4447,
      "Ġbusiness": 4448,
      "Ġextraction": 4449,
      "Ġface": 4450,
      "treated": 4451,
      "ĠModel": 4452,
      "Ġion": 4453,
      "Ġsecret": 4454,
      "istant": 4455,
      "Ġconsent": 4456,
      "state": 4457,
      "Ġrelatively": 4458,
      "bal": 4459,
      "Ġolder": 4460,
      "Ġreports": 4461,
      "Re": 4462,
      "ĠDOI": 4463,
      "OT": 4464,
      "ĠmM": 4465,
      "luding": 4466,
      "pret": 4467,
      "ĠAM": 4468,
      "ĠState": 4469,
      "ĠUK": 4470,
      "cor": 4471,
      "Ġcompany": 4472,
      "utrients": 4473,
      "iao": 4474,
      "Ġalthough": 4475,
      "Ġod": 4476,
      "odium": 4477,
      "Ġsequence": 4478,
      "Ġregarding": 4479,
      "pa": 4480,
      "lt": 4481,
      "self": 4482,
      "Ġbase": 4483,
      "rics": 4484,
      "Ġblack": 4485,
      "Ġclose": 4486,
      "ĠAfric": 4487,
      "Ġapproaches": 4488,
      "IF": 4489,
      "unding": 4490,
      "lim": 4491,
      "ita": 4492,
      "iro": 4493,
      "Ġclassification": 4494,
      "ĠEar": 4495,
      "CP": 4496,
      "ki": 4497,
      "ĠHar": 4498,
      "Ġdiagnostic": 4499,
      "immun": 4500,
      "stract": 4501,
      "Ġstatistically": 4502,
      "etics": 4503,
      "scopy": 4504,
      "ĠAtt": 4505,
      "OH": 4506,
      "Ġcity": 4507,
      "Ġmakes": 4508,
      "weight": 4509,
      "Ġmicrobi": 4510,
      "Ġalgorithm": 4511,
      "Ġlinear": 4512,
      "regulated": 4513,
      "Ġprofession": 4514,
      "ĠHuman": 4515,
      "nes": 4516,
      "ĠTH": 4517,
      "optosis": 4518,
      "anol": 4519,
      "ito": 4520,
      "oral": 4521,
      "Ġtumors": 4522,
      "omas": 4523,
      "ualization": 4524,
      "LE": 4525,
      "Ġservice": 4526,
      "Ġprepared": 4527,
      "omal": 4528,
      "CF": 4529,
      "Ġapproximately": 4530,
      "ereb": 4531,
      "ĠMart": 4532,
      "ĠNi": 4533,
      "version": 4534,
      "Ġrelationships": 4535,
      "aign": 4536,
      "Ġinduced": 4537,
      "ĠPath": 4538,
      "Ġchann": 4539,
      "ĠRuss": 4540,
      "tensive": 4541,
      "inated": 4542,
      "ched": 4543,
      "Ġcopyright": 4544,
      "Ġversus": 4545,
      "wide": 4546,
      "lier": 4547,
      "Ġupd": 4548,
      "Ġhouse": 4549,
      "Ġsuggesting": 4550,
      "quid": 4551,
      "304": 4552,
      "SM": 4553,
      "aria": 4554,
      "Ġach": 4555,
      "Ġissue": 4556,
      "Ġcarried": 4557,
      "Ġproblems": 4558,
      "Ġslight": 4559,
      "109": 4560,
      "neg": 4561,
      "Ġguidelines": 4562,
      "between": 4563,
      "Ġpolice": 4564,
      "SH": 4565,
      "ĠNorth": 4566,
      "126": 4567,
      "Ġsignificance": 4568,
      "ĠMaterials": 4569,
      "ĠNature": 4570,
      "ĠThus": 4571,
      "Ġlimitations": 4572,
      "Ġimm": 4573,
      "Ġdevice": 4574,
      "Ġtext": 4575,
      "Ġassay": 4576,
      "ault": 4577,
      "zer": 4578,
      "level": 4579,
      "otox": 4580,
      "Ġmig": 4581,
      "ellig": 4582,
      "ĠPharmac": 4583,
      "anguage": 4584,
      "dependent": 4585,
      "Ġthereby": 4586,
      "RNAs": 4587,
      "Ġkidney": 4588,
      "mail": 4589,
      "Ġintegr": 4590,
      "low": 4591,
      "ding": 4592,
      "Ġhttp": 4593,
      "Ġproduced": 4594,
      "Ġproviding": 4595,
      "Ġenrich": 4596,
      "108": 4597,
      "rd": 4598,
      "erous": 4599,
      "Ġcannot": 4600,
      "lig": 4601,
      "omp": 4602,
      "Ġdelivery": 4603,
      "IG": 4604,
      "idity": 4605,
      "Ġground": 4606,
      "Ġnature": 4607,
      "ventional": 4608,
      "Ġcop": 4609,
      "Ġsett": 4610,
      "ril": 4611,
      "Ġtook": 4612,
      "Ġsent": 4613,
      "Ġofficial": 4614,
      "ĠSimilar": 4615,
      "ufact": 4616,
      "ĠReports": 4617,
      "Ġsyndrome": 4618,
      "Ġanimals": 4619,
      "ĠAuthor": 4620,
      "Ġtalk": 4621,
      "Ġcomplications": 4622,
      "ĠUsing": 4623,
      "ya": 4624,
      "Ġmental": 4625,
      "Ġgraph": 4626,
      "107": 4627,
      "Ġeditor": 4628,
      "Ġvitro": 4629,
      "ĠPat": 4630,
      "Ġaccum": 4631,
      "ĠPA": 4632,
      "rest": 4633,
      "words": 4634,
      "yes": 4635,
      "Ġaffected": 4636,
      "Ġinvestigated": 4637,
      "Ġmeasurement": 4638,
      "Ġconstruct": 4639,
      "Ġprinc": 4640,
      "Ġfilm": 4641,
      "ĠMal": 4642,
      "oding": 4643,
      "Ġeconomic": 4644,
      "Ġachieved": 4645,
      "ille": 4646,
      "Ġ%": 4647,
      "hyd": 4648,
      "Ġvirus": 4649,
      "Ġinput": 4650,
      "Ġvalidation": 4651,
      "Ġquestions": 4652,
      "study": 4653,
      "Ġinsights": 4654,
      "500": 4655,
      "Ġstem": 4656,
      "ded": 4657,
      "ĠBiom": 4658,
      "ĠME": 4659,
      "ieve": 4660,
      "data": 4661,
      "tu": 4662,
      "Ġunique": 4663,
      "ucle": 4664,
      "flu": 4665,
      "116": 4666,
      "ĠTr": 4667,
      "fil": 4668,
      "inu": 4669,
      "Ġpeer": 4670,
      "Ġestimated": 4671,
      "128": 4672,
      "ju": 4673,
      "ĠOut": 4674,
      "ova": 4675,
      "itable": 4676,
      "Ġestablished": 4677,
      "oon": 4678,
      "Ġclin": 4679,
      "Ġcurve": 4680,
      "uff": 4681,
      "eus": 4682,
      "Ġpromis": 4683,
      "Im": 4684,
      "Ġtend": 4685,
      "ĠDisc": 4686,
      "ĠNovember": 4687,
      "mic": 4688,
      "Ġsqu": 4689,
      "health": 4690,
      "Ġri": 4691,
      "PLOS": 4692,
      "elet": 4693,
      "aired": 4694,
      "ĠAcad": 4695,
      "ĠMicrobi": 4696,
      "1371": 4697,
      "osomes": 4698,
      "Ġhyp": 4699,
      "Ġsleep": 4700,
      "Ġ2000": 4701,
      "Ġsources": 4702,
      "Ġincorpor": 4703,
      "unn": 4704,
      "Ġpen": 4705,
      "Ġhappen": 4706,
      "ĠDr": 4707,
      "ĠCa": 4708,
      "ivari": 4709,
      "BI": 4710,
      "Ġgenome": 4711,
      "last": 4712,
      "ien": 4713,
      "ricult": 4714,
      "rought": 4715,
      "Ġbacterial": 4716,
      "ĠPart": 4717,
      "Ġconflic": 4718,
      "chem": 4719,
      "Ġvary": 4720,
      "Ġdegree": 4721,
      "ĠMor": 4722,
      "Ġprocedure": 4723,
      "ished": 4724,
      "lam": 4725,
      "ads": 4726,
      "Ġincludes": 4727,
      "Ġopportun": 4728,
      "Ġadvant": 4729,
      "Ġtranscription": 4730,
      "Ġcame": 4731,
      "Ġmoney": 4732,
      "ellow": 4733,
      "Ġwind": 4734,
      "mann": 4735,
      "Ġfollows": 4736,
      "oly": 4737,
      "Ġbias": 4738,
      "access": 4739,
      "Ġbenefits": 4740,
      "Ã¶": 4741,
      "Ġda": 4742,
      "effic": 4743,
      "Ġplatform": 4744,
      ".:": 4745,
      "Ġcluster": 4746,
      "incre": 4747,
      "Ġnanop": 4748,
      "ĠLa": 4749,
      "Ġprotocol": 4750,
      "bio": 4751,
      "Ġthing": 4752,
      "ĠMac": 4753,
      "Ġmolecules": 4754,
      "Ġcardiovascular": 4755,
      "iter": 4756,
      "Ġpercentage": 4757,
      "ĠRob": 4758,
      "Ġthought": 4759,
      "Ġframework": 4760,
      "ĠPost": 4761,
      "Ġalter": 4762,
      "Me": 4763,
      "free": 4764,
      "oking": 4765,
      "Ġoral": 4766,
      "130": 4767,
      "Ġfed": 4768,
      "Ġmacroph": 4769,
      "ĠAssociation": 4770,
      "gel": 4771,
      "Ġsolid": 4772,
      "Ġnetworks": 4773,
      "tended": 4774,
      "759": 4775,
      "sur": 4776,
      "Ġfluid": 4777,
      "pi": 4778,
      "ĠSer": 4779,
      "Ġdr": 4780,
      "Ġcontinuous": 4781,
      "Ġple": 4782,
      "ĠDevelopment": 4783,
      "Ġtraditional": 4784,
      "Ġrecorded": 4785,
      "Ġinternal": 4786,
      "ĠCoun": 4787,
      "Ġdevices": 4788,
      "Ġdraft": 4789,
      "Ġcontribute": 4790,
      "argets": 4791,
      "where": 4792,
      "TA": 4793,
      "Ġpric": 4794,
      "Ġbit": 4795,
      "amed": 4796,
      "Ġvan": 4797,
      "ateral": 4798,
      "eful": 4799,
      "Ġname": 4800,
      "dec": 4801,
      "135": 4802,
      "ĠWill": 4803,
      "Ġoptimal": 4804,
      "Ġdivers": 4805,
      "ils": 4806,
      "Ġcreate": 4807,
      "yr": 4808,
      "Â·": 4809,
      "Ġsure": 4810,
      "ĠChrist": 4811,
      "Ġimproving": 4812,
      "LA": 4813,
      "Ġelevated": 4814,
      "Ġapproved": 4815,
      "US": 4816,
      "Ġvivo": 4817,
      "Ġcauses": 4818,
      "ocyte": 4819,
      "Ġstory": 4820,
      "Ġss": 4821,
      "Ġmarket": 4822,
      "Ġmatter": 4823,
      "book": 4824,
      "ĠPC": 4825,
      "aries": 4826,
      "ported": 4827,
      "ĠDuring": 4828,
      "enge": 4829,
      "300": 4830,
      "osy": 4831,
      "Ġbarri": 4832,
      "Ġmob": 4833,
      "Ġmetal": 4834,
      "ump": 4835,
      "Ġscen": 4836,
      "Ġblue": 4837,
      "All": 4838,
      "Ġdefin": 4839,
      "Ġoutput": 4840,
      "phen": 4841,
      "Ġtowards": 4842,
      "elt": 4843,
      "Ġlate": 4844,
      "Ġpolymer": 4845,
      "ĠPR": 4846,
      "ĠCS": 4847,
      "155": 4848,
      "Ġcolon": 4849,
      "ĠSchool": 4850,
      "ifying": 4851,
      "equ": 4852,
      "Ġdietary": 4853,
      "Ġfinancial": 4854,
      "pact": 4855,
      "ĠAccess": 4856,
      "xiety": 4857,
      "Ġfully": 4858,
      "national": 4859,
      "Ġoxidative": 4860,
      "Ġcampaign": 4861,
      "pha": 4862,
      "Ġbiomark": 4863,
      "114": 4864,
      "ĠBased": 4865,
      "ulus": 4866,
      "Ġ2006": 4867,
      "Ġalone": 4868,
      "ĠSw": 4869,
      "Ġactually": 4870,
      "ĠComput": 4871,
      "Ġfast": 4872,
      "Ġusually": 4873,
      "Ġsubjects": 4874,
      "ga": 4875,
      "ĠAug": 4876,
      "Ġvideo": 4877,
      "arian": 4878,
      "ea": 4879,
      "Ġhorm": 4880,
      "Ġtrig": 4881,
      "Ġot": 4882,
      "Ġliving": 4883,
      "Author": 4884,
      "Ġasked": 4885,
      "asure": 4886,
      "oS": 4887,
      "Ġmouse": 4888,
      "Ġremain": 4889,
      "Ġbar": 4890,
      "ĠAmong": 4891,
      "osome": 4892,
      "Ġpolitical": 4893,
      "ĠOctober": 4894,
      "Ġarch": 4895,
      "Ġpolicy": 4896,
      "Ġfish": 4897,
      "rief": 4898,
      "ĠStatement": 4899,
      "ĠGermany": 4900,
      "process": 4901,
      "Ġrenal": 4902,
      "ĠRo": 4903,
      "esting": 4904,
      "nat": 4905,
      "Ġrobust": 4906,
      "eck": 4907,
      "Ġcandid": 4908,
      "formance": 4909,
      "Ġcryst": 4910,
      "Ġdistance": 4911,
      "145": 4912,
      "Ġdomain": 4913,
      "cohol": 4914,
      "pect": 4915,
      "position": 4916,
      "118": 4917,
      "Ġtrack": 4918,
      "ters": 4919,
      "icrobial": 4920,
      "Ġmixed": 4921,
      "Ġten": 4922,
      "ilities": 4923,
      "imer": 4924,
      "Ġthreshold": 4925,
      "Ġstable": 4926,
      "Ġdoesn": 4927,
      "ĠTechnology": 4928,
      "cu": 4929,
      "Ġta": 4930,
      "osing": 4931,
      "rupt": 4932,
      "020": 4933,
      "Ġmainly": 4934,
      "chiat": 4935,
      "resh": 4936,
      "review": 4937,
      "Ġminutes": 4938,
      "Ġrare": 4939,
      "Sh": 4940,
      "ĠOrgan": 4941,
      "Ġinhibition": 4942,
      "FA": 4943,
      "Ġtechnique": 4944,
      "ortic": 4945,
      "Ġfatty": 4946,
      "icians": 4947,
      "isf": 4948,
      "gram": 4949,
      "ĠInc": 4950,
      "ĠNan": 4951,
      "ops": 4952,
      "Ġlive": 4953,
      "Ġ196": 4954,
      "Ġartic": 4955,
      "ĠChang": 4956,
      "fr": 4957,
      "otes": 4958,
      "Ġmom": 4959,
      "Ġpharmac": 4960,
      "Ġtherefore": 4961,
      "Ġabund": 4962,
      "Ġinvas": 4963,
      "Ġlinked": 4964,
      "inate": 4965,
      "lar": 4966,
      "Ġprimarily": 4967,
      "ida": 4968,
      "ĠZhu": 4969,
      "Ġlig": 4970,
      "Ġdefic": 4971,
      "ĠThen": 4972,
      "Ġsubstant": 4973,
      "asons": 4974,
      "ĠAR": 4975,
      "ĠNA": 4976,
      "Ġmar": 4977,
      "ĠDrug": 4978,
      "nature": 4979,
      "onse": 4980,
      "ochem": 4981,
      "Ġnoted": 4982,
      "oplas": 4983,
      "Ġtt": 4984,
      "Ġvariable": 4985,
      "163": 4986,
      "UC": 4987,
      "ori": 4988,
      "Ġgut": 4989,
      "dist": 4990,
      "apping": 4991,
      "ĠSept": 4992,
      "Ġtaking": 4993,
      "uel": 4994,
      "ĠmiR": 4995,
      "ĠBas": 4996,
      "TH": 4997,
      "Ġtrue": 4998,
      "111": 4999,
      "Ġallows": 5000,
      "ampling": 5001,
      "Ġoffer": 5002,
      "Ġpair": 5003,
      "ĠKore": 5004,
      "ecom": 5005,
      "Ġplot": 5006,
      "Ġsn": 5007,
      "Ġstages": 5008,
      "roc": 5009,
      "Ġefficient": 5010,
      "Ġsignals": 5011,
      "Ġdriv": 5012,
      "aker": 5013,
      "Ġpoll": 5014,
      "Ġobtain": 5015,
      "'d": 5016,
      "isition": 5017,
      "Ġrecovery": 5018,
      "cepted": 5019,
      "ophag": 5020,
      "ĠMean": 5021,
      "Ġmanufact": 5022,
      "Ġdatabase": 5023,
      "ĠWriting": 5024,
      "Ġquick": 5025,
      "Ġcenter": 5026,
      "136": 5027,
      "ĠPan": 5028,
      "Ġalle": 5029,
      "Ġcontrols": 5030,
      "Ġcomponent": 5031,
      "Ġdatasets": 5032,
      "140": 5033,
      "Ġrecommend": 5034,
      "duces": 5035,
      "Ġmachine": 5036,
      "755": 5037,
      "jected": 5038,
      "006": 5039,
      "Ġretro": 5040,
      "TC": 5041,
      "________________": 5042,
      "Ġhar": 5043,
      "There": 5044,
      "ĠOther": 5045,
      "ĠLong": 5046,
      "vert": 5047,
      "ounts": 5048,
      "pan": 5049,
      "Ġwin": 5050,
      "Ġeffectiveness": 5051,
      "ĠAI": 5052,
      "ĠAmerica": 5053,
      "Department": 5054,
      "Ġformer": 5055,
      "mediated": 5056,
      "Materials": 5057,
      "112": 5058,
      "rical": 5059,
      "placement": 5060,
      "Sensors": 5061,
      "Ġestablish": 5062,
      "ĠSan": 5063,
      "Ġmarkers": 5064,
      "Ġinfections": 5065,
      "ysis": 5066,
      "Ġbound": 5067,
      "otypes": 5068,
      "ograph": 5069,
      "articipants": 5070,
      "tem": 5071,
      "124": 5072,
      "ĠIndia": 5073,
      "oe": 5074,
      "Ġimmed": 5075,
      "Ġtools": 5076,
      "order": 5077,
      "2013": 5078,
      "risk": 5079,
      "aph": 5080,
      "Ġevolution": 5081,
      "Ġattem": 5082,
      "Ġnumbers": 5083,
      "ĠJohn": 5084,
      "Ġresearchers": 5085,
      "DNA": 5086,
      "Ġemph": 5087,
      "Ġamino": 5088,
      "dent": 5089,
      "iotic": 5090,
      "Ġantioxidant": 5091,
      "asts": 5092,
      "uge": 5093,
      "Ġsuggested": 5094,
      "Ġlicence": 5095,
      "isation": 5096,
      "%).": 5097,
      "Ġcit": 5098,
      "Ġthreat": 5099,
      "Ġleads": 5100,
      "Ġsequencing": 5101,
      "Ġstatement": 5102,
      "usal": 5103,
      "HO": 5104,
      "inger": 5105,
      "ball": 5106,
      "Ġaa": 5107,
      "Ġteach": 5108,
      "Ġ2005": 5109,
      "VD": 5110,
      "path": 5111,
      "Ġspatial": 5112,
      "MM": 5113,
      "146": 5114,
      "Ġutilized": 5115,
      "175": 5116,
      "itamin": 5117,
      "iform": 5118,
      "HA": 5119,
      "regulation": 5120,
      "Ġcosts": 5121,
      "ski": 5122,
      "HR": 5123,
      "Ġagents": 5124,
      "Ġseem": 5125,
      "186": 5126,
      "Ġpi": 5127,
      "Ġdoing": 5128,
      "patient": 5129,
      "pet": 5130,
      "Ġtoday": 5131,
      "cn": 5132,
      "Ġinsulin": 5133,
      "known": 5134,
      "Ġdeveloping": 5135,
      "ĠSen": 5136,
      "this": 5137,
      "ĠIII": 5138,
      "Ġstaff": 5139,
      "OP": 5140,
      "Ġmemory": 5141,
      "Ġdeclare": 5142,
      "teh": 5143,
      "Ġthermal": 5144,
      "117": 5145,
      "Ġrepro": 5146,
      "alyst": 5147,
      "Ġdegradation": 5148,
      "Ġneural": 5149,
      "Ġcust": 5150,
      "oms": 5151,
      "nthetic": 5152,
      "Ġ61": 5153,
      "poral": 5154,
      "stand": 5155,
      "ĠHere": 5156,
      "ĠBen": 5157,
      "ĠCur": 5158,
      "ĠTwo": 5159,
      "119": 5160,
      "ĠâĢ¢": 5161,
      "Ġnews": 5162,
      "Ġproliferation": 5163,
      "ises": 5164,
      "Ġdocument": 5165,
      "DL": 5166,
      "ritis": 5167,
      "ĠMP": 5168,
      "ĠOf": 5169,
      "Ġdetails": 5170,
      "ĠStruct": 5171,
      "Ġstarted": 5172,
      "Ġads": 5173,
      "Ġprocedures": 5174,
      "PCR": 5175,
      "ĠResp": 5176,
      "Ġinvestigate": 5177,
      "Ġmes": 5178,
      "ĠMr": 5179,
      "Ġbelieve": 5180,
      "ollowing": 5181,
      "756": 5182,
      "Ġexhibit": 5183,
      "Ġsensor": 5184,
      "ĠPsych": 5185,
      "Ġsimple": 5186,
      "selves": 5187,
      "BA": 5188,
      "Ġshare": 5189,
      "Ġdiversity": 5190,
      "Ġ((": 5191,
      "illing": 5192,
      "165": 5193,
      "irus": 5194,
      "250": 5195,
      "Ġexternal": 5196,
      "derived": 5197,
      "Ġdiverse": 5198,
      "hab": 5199,
      "head": 5200,
      "ĠSS": 5201,
      "Ġconserv": 5202,
      "ĠTreatment": 5203,
      "Ġmovement": 5204,
      "Ġstorage": 5205,
      "EN": 5206,
      "Ġcredit": 5207,
      "Ġfoot": 5208,
      "ĠFinally": 5209,
      "Ġbegin": 5210,
      "romb": 5211,
      "Ġampl": 5212,
      "Ġpresident": 5213,
      "ĠID": 5214,
      "Ġago": 5215,
      "Ġconst": 5216,
      "Ġsequences": 5217,
      "stitutional": 5218,
      "ĠSi": 5219,
      "ditions": 5220,
      "Ġ102": 5221,
      "138": 5222,
      "Ġparty": 5223,
      "class": 5224,
      "abetic": 5225,
      "Ġdigital": 5226,
      "ĠSil": 5227,
      "ĠHis": 5228,
      "mat": 5229,
      "Ġsecurity": 5230,
      "abilities": 5231,
      "Ġsen": 5232,
      "umn": 5233,
      "Ġstudied": 5234,
      "Ġvascular": 5235,
      "oration": 5236,
      "Ġwild": 5237,
      "Ġcompl": 5238,
      "Ġappe": 5239,
      "iet": 5240,
      "Ġwon": 5241,
      "osition": 5242,
      "Ġrot": 5243,
      "ĠRT": 5244,
      "certain": 5245,
      "ION": 5246,
      "imensional": 5247,
      "field": 5248,
      "Se": 5249,
      "Ġrequires": 5250,
      "rill": 5251,
      "ford": 5252,
      "Ġnight": 5253,
      "123": 5254,
      "rh": 5255,
      "Ġvi": 5256,
      "Ġdry": 5257,
      "Ġenhancing": 5258,
      "che": 5259,
      "Ġlip": 5260,
      "activity": 5261,
      "oxy": 5262,
      "Ġdetailed": 5263,
      "Ġelectron": 5264,
      "Ġadverse": 5265,
      "obacter": 5266,
      "Ġinvest": 5267,
      "Ġrats": 5268,
      "rates": 5269,
      "uma": 5270,
      "Ġthroughout": 5271,
      "Ġmitochondrial": 5272,
      "Ġvariation": 5273,
      "pose": 5274,
      "134": 5275,
      "went": 5276,
      "Ġconstant": 5277,
      "Ġplayers": 5278,
      "inity": 5279,
      "Ġachieve": 5280,
      "Ġcreated": 5281,
      "ometric": 5282,
      "Ġfocused": 5283,
      "Ġapoptosis": 5284,
      "Ġconfirm": 5285,
      "GA": 5286,
      "Ġelements": 5287,
      "Ġdouble": 5288,
      "ĠItal": 5289,
      "ĠHR": 5290,
      "Ġflex": 5291,
      "Ġspe": 5292,
      "eding": 5293,
      "Ġ120": 5294,
      "133": 5295,
      "Ġid": 5296,
      "ĠSociety": 5297,
      "pone": 5298,
      "ĠAcid": 5299,
      "ounced": 5300,
      "ĠJune": 5301,
      "Ġinterpret": 5302,
      "Ġvehic": 5303,
      "Ġtypically": 5304,
      "ington": 5305,
      "Ġobesity": 5306,
      "ributions": 5307,
      "DA": 5308,
      "Ġexamined": 5309,
      "NPs": 5310,
      "cos": 5311,
      "itrogen": 5312,
      "Ġparts": 5313,
      "Ġlocation": 5314,
      "mo": 5315,
      "essment": 5316,
      "ĠOncol": 5317,
      "eart": 5318,
      "144": 5319,
      "Ġdest": 5320,
      "itting": 5321,
      "Ġsubst": 5322,
      "LR": 5323,
      "ĠAvailable": 5324,
      "comb": 5325,
      "Ġdynamic": 5326,
      "Ġcert": 5327,
      "Ġwent": 5328,
      "illary": 5329,
      "Ġpromote": 5330,
      "ĠOpt": 5331,
      "Ġcytok": 5332,
      "ĠSupplementary": 5333,
      "Ġemot": 5334,
      "Ġ300": 5335,
      "Ġfunding": 5336,
      "uments": 5337,
      "Ġminim": 5338,
      "fold": 5339,
      "Ġtask": 5340,
      "Ġusers": 5341,
      "Ġdepression": 5342,
      "Ġautom": 5343,
      "ĠMR": 5344,
      "Ġundergo": 5345,
      "avy": 5346,
      "awa": 5347,
      "Ġcharacterized": 5348,
      "ners": 5349,
      "ĠJuly": 5350,
      "irm": 5351,
      "Ġproportion": 5352,
      "Ġoutside": 5353,
      "Ġps": 5354,
      "cells": 5355,
      "imicrobial": 5356,
      "Ġconcept": 5357,
      "ĠSol": 5358,
      "BY": 5359,
      "ĠGr": 5360,
      "tered": 5361,
      "Ġunit": 5362,
      "Ġsem": 5363,
      "Ġmeet": 5364,
      "Ġmind": 5365,
      "Fe": 5366,
      "Ġband": 5367,
      "ĠCu": 5368,
      "abs": 5369,
      "sychiat": 5370,
      "Ġtthhee": 5371,
      "ĠAustral": 5372,
      "Ġdetect": 5373,
      "get": 5374,
      "Ġreleased": 5375,
      "Ġabsence": 5376,
      "ĠProtein": 5377,
      "168": 5378,
      "Ġdysfunction": 5379,
      "omb": 5380,
      "Ġ,": 5381,
      "Ġmajority": 5382,
      "Ġneurons": 5383,
      "Ġpreparation": 5384,
      "Ġholder": 5385,
      "Ġtransition": 5386,
      "Ġthickness": 5387,
      "Ġgames": 5388,
      "Ġpractices": 5389,
      "cr": 5390,
      "otechn": 5391,
      "ĠPress": 5392,
      "change": 5393,
      "ĠDu": 5394,
      "through": 5395,
      "127": 5396,
      "ĠCharacter": 5397,
      "Ġcarcinoma": 5398,
      "1007": 5399,
      "dem": 5400,
      "160": 5401,
      "Ġfavor": 5402,
      "ĠJiang": 5403,
      "iring": 5404,
      "scientific": 5405,
      "Ġaggreg": 5406,
      "ublish": 5407,
      "appro": 5408,
      "while": 5409,
      "bit": 5410,
      "ĠEach": 5411,
      "Ġpow": 5412,
      "References": 5413,
      "Ġlesions": 5414,
      "148": 5415,
      "Ġstri": 5416,
      "ĠPrim": 5417,
      "122": 5418,
      "Ġinstance": 5419,
      "sec": 5420,
      "Ġinternational": 5421,
      "ĠIS": 5422,
      "OX": 5423,
      "olerance": 5424,
      "but": 5425,
      "Ġprofile": 5426,
      "Ġtargets": 5427,
      "ĠWest": 5428,
      "ancreat": 5429,
      "Ġproduce": 5430,
      "Ġ2004": 5431,
      "Ġdu": 5432,
      "iu": 5433,
      "Ġwalk": 5434,
      "uted": 5435,
      "Ġansw": 5436,
      "urk": 5437,
      "cat": 5438,
      "137": 5439,
      "ĠmRNA": 5440,
      "Ġgeneration": 5441,
      "hal": 5442,
      "Ġmiddle": 5443,
      "Ġassum": 5444,
      "Ġenzyme": 5445,
      "Ġcomes": 5446,
      "section": 5447,
      "ĠSE": 5448,
      "eywords": 5449,
      "agon": 5450,
      "ĠSuper": 5451,
      "hn": 5452,
      "Ã§": 5453,
      "TS": 5454,
      "Ġmention": 5455,
      "Ġmeth": 5456,
      "Ġrecently": 5457,
      "ophys": 5458,
      "ĠEduc": 5459,
      "ĠChild": 5460,
      "Ġsubsequent": 5461,
      "Ġposted": 5462,
      "osen": 5463,
      "Ġepit": 5464,
      "Cont": 5465,
      "Ġcore": 5466,
      "ĠMarch": 5467,
      "ecause": 5468,
      "Ġprogress": 5469,
      "Ġwidely": 5470,
      "Ġdespite": 5471,
      "Ġlanguage": 5472,
      "ague": 5473,
      "protein": 5474,
      "scale": 5475,
      "Ġmoderate": 5476,
      "Ġbasis": 5477,
      "Ġseverity": 5478,
      "Ġplays": 5479,
      "Ġfiber": 5480,
      "156": 5481,
      "Ġearlier": 5482,
      "Ġmess": 5483,
      "ĠCity": 5484,
      "bu": 5485,
      "ĠMost": 5486,
      "ĠInvestig": 5487,
      "Ġgradu": 5488,
      "Ġmilit": 5489,
      "mid": 5490,
      "Ġmove": 5491,
      "attle": 5492,
      "2012": 5493,
      "pm": 5494,
      "Ġcode": 5495,
      "Ġpredicted": 5496,
      "ĠSeptember": 5497,
      "umar": 5498,
      "180": 5499,
      "Ġallowed": 5500,
      "yg": 5501,
      "Ġsi": 5502,
      "Ġinterests": 5503,
      "ĠBrit": 5504,
      "010": 5505,
      "ocation": 5506,
      "Ġcurrently": 5507,
      "ĠSP": 5508,
      "205": 5509,
      "ĠAF": 5510,
      "sch": 5511,
      "Ġexisting": 5512,
      "SCs": 5513,
      "ĠEv": 5514,
      "oor": 5515,
      "Net": 5516,
      "Ġvisit": 5517,
      "ĠServ": 5518,
      "urrence": 5519,
      "015": 5520,
      "reet": 5521,
      "166": 5522,
      "utritional": 5523,
      "Ġjoint": 5524,
      "185": 5525,
      "Ġrecon": 5526,
      "Ġidea": 5527,
      "hu": 5528,
      "imens": 5529,
      "stream": 5530,
      "Ġexplore": 5531,
      "Ġindustry": 5532,
      "ĠYes": 5533,
      "Ġalternative": 5534,
      "Ġclimate": 5535,
      "ĠMic": 5536,
      "estion": 5537,
      "ĠMat": 5538,
      "erex": 5539,
      "Ġexpect": 5540,
      "Ġtrend": 5541,
      "euk": 5542,
      "Ġidentification": 5543,
      "Ġupper": 5544,
      "Ġslow": 5545,
      "Ġtargeted": 5546,
      "Ġreferred": 5547,
      "IM": 5548,
      "ĠWhite": 5549,
      "Ġmutations": 5550,
      "Ġprobably": 5551,
      "ĠEur": 5552,
      "bre": 5553,
      "158": 5554,
      "Ġbalance": 5555,
      ".);": 5556,
      "onia": 5557,
      "such": 5558,
      "part": 5559,
      "Ġgenerally": 5560,
      "icial": 5561,
      "ĠML": 5562,
      "Ġitself": 5563,
      "023": 5564,
      "ipp": 5565,
      "Ġavailability": 5566,
      "Ġconfidence": 5567,
      "positive": 5568,
      "Ġadult": 5569,
      "970": 5570,
      "Ġsmaller": 5571,
      "za": 5572,
      "range": 5573,
      "Ġstay": 5574,
      "008": 5575,
      "195": 5576,
      "Ġinstruct": 5577,
      "ĠVis": 5578,
      "erson": 5579,
      "Ġdistributed": 5580,
      "308": 5581,
      "Ġroot": 5582,
      "Ġmaintain": 5583,
      "td": 5584,
      "Ġbox": 5585,
      "BB": 5586,
      "ifications": 5587,
      "Ġattributed": 5588,
      "hh": 5589,
      "erative": 5590,
      "Ġmethyl": 5591,
      "ipher": 5592,
      "Ġgrad": 5593,
      "ĠPresident": 5594,
      "ude": 5595,
      "Ġplaced": 5596,
      "ser": 5597,
      "167": 5598,
      "176": 5599,
      "Ġcam": 5600,
      "sup": 5601,
      "Ġtargeting": 5602,
      "007": 5603,
      "ĠAS": 5604,
      "Ġrespiratory": 5605,
      "Ġparticles": 5606,
      "Ġpregnancy": 5607,
      "reement": 5608,
      "ĠAppl": 5609,
      "ipl": 5610,
      "ception": 5611,
      "Ġtell": 5612,
      "Ġsubstr": 5613,
      "ĠBu": 5614,
      "Ġstaining": 5615,
      "Ġleaves": 5616,
      "Ġwide": 5617,
      "Ġexcess": 5618,
      "FC": 5619,
      "Ġinstead": 5620,
      "ĠAA": 5621,
      "hts": 5622,
      "022": 5623,
      "196": 5624,
      "174": 5625,
      "Ġmotor": 5626,
      "rin": 5627,
      "170": 5628,
      "imb": 5629,
      "ĠLow": 5630,
      "Ġabsorption": 5631,
      "Ġgender": 5632,
      "neum": 5633,
      "Ġsystemic": 5634,
      "Ġaccurate": 5635,
      "ĠCE": 5636,
      "îĦ": 5637,
      "Ġconse": 5638,
      "nu": 5639,
      "arter": 5640,
      "conf": 5641,
      "Ġextracted": 5642,
      "ĠMolecular": 5643,
      "\".": 5644,
      "Is": 5645,
      "Ġdynamics": 5646,
      "ĠGreen": 5647,
      "Ġmilk": 5648,
      "Ġpromising": 5649,
      "Ġrandomized": 5650,
      "Ġexact": 5651,
      "ĠFac": 5652,
      "ĠTotal": 5653,
      "157": 5654,
      "ogl": 5655,
      "Ġsolutions": 5656,
      "Ġburden": 5657,
      "terol": 5658,
      "perimental": 5659,
      "Ġedit": 5660,
      "ĠSince": 5661,
      "188": 5662,
      "ĠRam": 5663,
      "ĠSing": 5664,
      "Ġfight": 5665,
      "ky": 5666,
      "ĠDist": 5667,
      "ĠDespite": 5668,
      "ensus": 5669,
      "ĠÂ©": 5670,
      "ĠDef": 5671,
      "ĠFish": 5672,
      "Ġbehind": 5673,
      "Ġcharg": 5674,
      "Ġjo": 5675,
      "iding": 5676,
      "ĠEth": 5677,
      "Ġnurs": 5678,
      "non": 5679,
      "wa": 5680,
      "ĠFound": 5681,
      "ĠArab": 5682,
      "Ġserious": 5683,
      "naire": 5684,
      "Bi": 5685,
      "Ġwear": 5686,
      "143": 5687,
      "Ġdeviation": 5688,
      "Ġperf": 5689,
      "Ġresulted": 5690,
      "Ġopin": 5691,
      "Cor": 5692,
      "GS": 5693,
      "785": 5694,
      "Ġ150": 5695,
      "018": 5696,
      "vari": 5697,
      "umab": 5698,
      "ĠIsra": 5699,
      "adi": 5700,
      "132": 5701,
      "Ġfrag": 5702,
      "ologic": 5703,
      "ĠMark": 5704,
      "Ġstrains": 5705,
      "ima": 5706,
      "rot": 5707,
      "016": 5708,
      "Ġdepth": 5709,
      "Ġcomposite": 5710,
      "ble": 5711,
      "iller": 5712,
      "fort": 5713,
      "Ġforward": 5714,
      "ĠCommittee": 5715,
      "exp": 5716,
      "ĠCells": 5717,
      "ĠPMID": 5718,
      "rete": 5719,
      "Received": 5720,
      "ĠCollege": 5721,
      "mer": 5722,
      "orter": 5723,
      "Ġsustain": 5724,
      "ĠAP": 5725,
      "Ġmode": 5726,
      "unt": 5727,
      "Ġitems": 5728,
      "177": 5729,
      "206": 5730,
      "ĠBMI": 5731,
      "ado": 5732,
      "765": 5733,
      "Ġgetting": 5734,
      "Ġooff": 5735,
      "Ġ~": 5736,
      "164": 5737,
      "220": 5738,
      "ĠWar": 5739,
      "system": 5740,
      "286": 5741,
      "Ġrequest": 5742,
      "HC": 5743,
      "Ġns": 5744,
      "ĠGlobal": 5745,
      "750": 5746,
      "Ġarticles": 5747,
      "Ġsession": 5748,
      "ĠWT": 5749,
      "Ġlocated": 5750,
      "154": 5751,
      "PV": 5752,
      "fa": 5753,
      "Ġacet": 5754,
      "ĠNote": 5755,
      "itt": 5756,
      "ĠMechan": 5757,
      "opulation": 5758,
      "021": 5759,
      "ĠSoc": 5760,
      "758": 5761,
      "atics": 5762,
      "ometry": 5763,
      "ĠNow": 5764,
      "Ġroles": 5765,
      "Ġcontinue": 5766,
      "139": 5767,
      "Ġbasic": 5768,
      "ativecom": 5769,
      "Ġseems": 5770,
      "aser": 5771,
      "ĠAut": 5772,
      "ĠFact": 5773,
      "1101": 5774,
      "ĠSant": 5775,
      "Ġworkers": 5776,
      "ĠRA": 5777,
      "Ġcoord": 5778,
      "Ġdate": 5779,
      "ece": 5780,
      "Ġdro": 5781,
      "rowth": 5782,
      "ĠFu": 5783,
      "Ġchallenge": 5784,
      "Ġrepair": 5785,
      "Ġbey": 5786,
      "Ġnote": 5787,
      "178": 5788,
      "iop": 5789,
      "ĠIV": 5790,
      "ĠFeb": 5791,
      "Ġdeal": 5792,
      "ĠEnviron": 5793,
      "sens": 5794,
      "198": 5795,
      "RD": 5796,
      "ocard": 5797,
      "ĠPal": 5798,
      "ĠDM": 5799,
      "Ġconclusion": 5800,
      "environment": 5801,
      "Ġeye": 5802,
      "Ġpublication": 5803,
      "HD": 5804,
      "ogeneity": 5805,
      "have": 5806,
      "ĠMM": 5807,
      "Ġcrim": 5808,
      "Ġbuilding": 5809,
      "Ġcurves": 5810,
      "Ġcommonly": 5811,
      "Ġ71": 5812,
      "Ġaware": 5813,
      "surg": 5814,
      "ĠArticle": 5815,
      "ema": 5816,
      "ĠIC": 5817,
      "Ġaud": 5818,
      "ami": 5819,
      "ipal": 5820,
      "ĠHIV": 5821,
      "erb": 5822,
      "Ġproperty": 5823,
      "945": 5824,
      "alytic": 5825,
      "EEE": 5826,
      "igned": 5827,
      "Ġmodified": 5828,
      "oke": 5829,
      "Ġlove": 5830,
      "iber": 5831,
      "Âµm": 5832,
      "Ġ2003": 5833,
      "Ġnuclear": 5834,
      "elligence": 5835,
      "del": 5836,
      "ĠED": 5837,
      "ĠHF": 5838,
      "Ġformed": 5839,
      "ĠPI": 5840,
      "different": 5841,
      "creativecom": 5842,
      "Ġstroke": 5843,
      "rote": 5844,
      "ancers": 5845,
      "rea": 5846,
      "edic": 5847,
      "HS": 5848,
      "Ġeight": 5849,
      "ĠDev": 5850,
      "Ġseven": 5851,
      "ĠHan": 5852,
      "deg": 5853,
      "Ġchain": 5854,
      "013": 5855,
      "ĠEst": 5856,
      "ĠHa": 5857,
      "Ġliquid": 5858,
      "herence": 5859,
      "Ġassemb": 5860,
      "Ġexceed": 5861,
      "ĠSecond": 5862,
      "Ġnor": 5863,
      "Ġsettings": 5864,
      "Ca": 5865,
      "Ġbeyond": 5866,
      "lands": 5867,
      "ivariate": 5868,
      "Ġacquisition": 5869,
      "ĠInformation": 5870,
      "Ġemis": 5871,
      "eler": 5872,
      "ught": 5873,
      "Ġorganic": 5874,
      "ĠCF": 5875,
      "Ġnanoparticles": 5876,
      "Ġforms": 5877,
      "ĠCanada": 5878,
      "OM": 5879,
      "ĠHouse": 5880,
      "Ġpick": 5881,
      "Ġisn": 5882,
      "Ġalcohol": 5883,
      "955": 5884,
      "2010": 5885,
      "Ġsodium": 5886,
      "142": 5887,
      "ĠâĢĭ": 5888,
      "Ġinvolving": 5889,
      "gy": 5890,
      "Ġisolated": 5891,
      "Ġvariants": 5892,
      "ĠSM": 5893,
      "................................": 5894,
      "ĠStatistical": 5895,
      "Ġapproval": 5896,
      "ĠNF": 5897,
      "nec": 5898,
      "766": 5899,
      "iral": 5900,
      "187": 5901,
      "Gen": 5902,
      "ester": 5903,
      "astric": 5904,
      "Ġprograms": 5905,
      "onary": 5906,
      "Ġlooking": 5907,
      "Ġbirth": 5908,
      "GT": 5909,
      "Ġwatch": 5910,
      "Ġimpair": 5911,
      "190": 5912,
      "Ġcontained": 5913,
      "225": 5914,
      "ademic": 5915,
      "Ġsetting": 5916,
      "Ġpanel": 5917,
      "orse": 5918,
      "Ġic": 5919,
      "etry": 5920,
      "2011": 5921,
      "ario": 5922,
      "Ġfire": 5923,
      "ĠDav": 5924,
      "41598": 5925,
      "ogram": 5926,
      "water": 5927,
      "KD": 5928,
      "December": 5929,
      "Ġdelay": 5930,
      "ĠRen": 5931,
      "950": 5932,
      "including": 5933,
      "ĠQual": 5934,
      "Ġconver": 5935,
      "creativecommons": 5936,
      "Ġâī¥": 5937,
      "dy": 5938,
      "ĠBoth": 5939,
      "014": 5940,
      "opathy": 5941,
      "Ġmap": 5942,
      "Ġprevention": 5943,
      "Ġresponsible": 5944,
      "Ġparents": 5945,
      "reports": 5946,
      "ramm": 5947,
      "Ġabnormal": 5948,
      "Ġbegan": 5949,
      "RR": 5950,
      "Ġantibody": 5951,
      "ker": 5952,
      "ecutive": 5953,
      "ĠPS": 5954,
      "lev": 5955,
      "Ġapplicable": 5956,
      "ĠStudies": 5957,
      "Ġgrowing": 5958,
      "ĠTB": 5959,
      "Ġspecifically": 5960,
      "âĨ": 5961,
      "cil": 5962,
      "enh": 5963,
      "365": 5964,
      "Ġmedi": 5965,
      "ĠAugust": 5966,
      "Based": 5967,
      "306": 5968,
      "ft": 5969,
      "xy": 5970,
      "ĠEvalu": 5971,
      "012": 5972,
      "ĠObama": 5973,
      "perature": 5974,
      "Ġgoal": 5975,
      "Ġvaluable": 5976,
      "Ġdirection": 5977,
      "()": 5978,
      "claim": 5979,
      "345": 5980,
      "itect": 5981,
      "Ġmitig": 5982,
      "149": 5983,
      "019": 5984,
      "Ġmalign": 5985,
      "men": 5986,
      "400": 5987,
      "Ġdil": 5988,
      "chang": 5989,
      "Ġfront": 5990,
      "757": 5991,
      "inson": 5992,
      "780": 5993,
      "ĠGeneral": 5994,
      "GB": 5995,
      "245": 5996,
      "Ġfinding": 5997,
      "\",": 5998,
      "265": 5999,
      "ony": 6000,
      "Ġthemselves": 6001,
      "Ass": 6002,
      "Ġanxiety": 6003,
      "ilies": 6004,
      "ulty": 6005,
      "Ġsense": 6006,
      "Ġaimed": 6007,
      "uity": 6008,
      "clusions": 6009,
      "786": 6010,
      "ĠDifferent": 6011,
      "Ġiron": 6012,
      "Ġtom": 6013,
      "131": 6014,
      "quality": 6015,
      "Â®": 6016,
      "Ġsupporting": 6017,
      "oli": 6018,
      "Ġguid": 6019,
      "ophil": 6020,
      "Ġadop": 6021,
      "ĠROS": 6022,
      "Ġble": 6023,
      "Ġparameter": 6024,
      "Ġ:": 6025,
      "Ġtrying": 6026,
      "121": 6027,
      "infor": 6028,
      "745": 6029,
      "Ġprote": 6030,
      "Ġhab": 6031,
      "Ġremoved": 6032,
      "Ġinterval": 6033,
      "Ġmm": 6034,
      "Ġuseful": 6035,
      "ĠOS": 6036,
      "Ġresolution": 6037,
      "Ġspectrum": 6038,
      "Ġslightly": 6039,
      "ĠPet": 6040,
      "Ġspread": 6041,
      "thritis": 6042,
      "184": 6043,
      "255": 6044,
      "ethods": 6045,
      "pin": 6046,
      "Ġwww": 6047,
      "Ġdifferentiation": 6048,
      "ĠChe": 6049,
      "Ġfun": 6050,
      "194": 6051,
      "Ġelim": 6052,
      "ĠOl": 6053,
      "ying": 6054,
      "onomic": 6055,
      "urt": 6056,
      "ivated": 6057,
      "169": 6058,
      "350": 6059,
      "eling": 6060,
      "Ġexpand": 6061,
      "Ġaccumulation": 6062,
      "Ġwords": 6063,
      "256": 6064,
      "355": 6065,
      "Ġmethodology": 6066,
      "Ġcorrelated": 6067,
      "oprotein": 6068,
      "Ġsuperior": 6069,
      "FS": 6070,
      "ĠSimilarly": 6071,
      "Ġaged": 6072,
      "Ġcontains": 6073,
      "GE": 6074,
      "ĠEurope": 6075,
      "Ġbring": 6076,
      "Ġ2002": 6077,
      "hed": 6078,
      "152": 6079,
      "Ġunderlying": 6080,
      "very": 6081,
      "ĠWash": 6082,
      "Ġinformed": 6083,
      "ĠDemocr": 6084,
      "Ġuser": 6085,
      "ĠEt": 6086,
      "Ġoccurs": 6087,
      "new": 6088,
      "Ġhapp": 6089,
      "ĠTan": 6090,
      "159": 6091,
      "phth": 6092,
      "amb": 6093,
      "ager": 6094,
      "thro": 6095,
      "Ġinclusion": 6096,
      "Ġpulmonary": 6097,
      "Ġpig": 6098,
      "ez": 6099,
      "olesterol": 6100,
      "car": 6101,
      "226": 6102,
      "335": 6103,
      "017": 6104,
      "Ġna": 6105,
      "ĠFunction": 6106,
      "uthors": 6107,
      "iction": 6108,
      "285": 6109,
      "heme": 6110,
      "258": 6111,
      "Ġmixture": 6112,
      "Ġcov": 6113,
      "Ġbecame": 6114,
      "ĠIg": 6115,
      "Ġcereb": 6116,
      "bes": 6117,
      "Î¼": 6118,
      "Ġradiation": 6119,
      "Ġaspects": 6120,
      "ĠKing": 6121,
      "Ag": 6122,
      "Ġeasy": 6123,
      "kal": 6124,
      "ears": 6125,
      "ivil": 6126,
      "Ġcontributed": 6127,
      "?\"": 6128,
      "Ġcapt": 6129,
      "ometimes": 6130,
      "Ġsusp": 6131,
      "ios": 6132,
      "agram": 6133,
      "Ġcoefficient": 6134,
      "240": 6135,
      "965": 6136,
      "Ġdog": 6137,
      "uli": 6138,
      "ĠVan": 6139,
      "754": 6140,
      "LS": 6141,
      "edd": 6142,
      "Ġregulatory": 6143,
      "Ġenter": 6144,
      "208": 6145,
      "Ã£": 6146,
      "Ġenviron": 6147,
      "ipheral": 6148,
      "inol": 6149,
      "acet": 6150,
      "Ġrights": 6151,
      "anks": 6152,
      "Ġinteract": 6153,
      "788": 6154,
      "ees": 6155,
      "oret": 6156,
      "Â©": 6157,
      "faces": 6158,
      "Ġrisks": 6159,
      "ĠPot": 6160,
      "ken": 6161,
      "isions": 6162,
      "Ġbad": 6163,
      "utr": 6164,
      "isons": 6165,
      "clinical": 6166,
      "ĠAC": 6167,
      "Ġrunning": 6168,
      "lights": 6169,
      "Ġsexual": 6170,
      "906": 6171,
      "ĠHeart": 6172,
      "958": 6173,
      "768": 6174,
      "ĠMDPI": 6175,
      "Ġdisorder": 6176,
      "Ġefforts": 6177,
      "199": 6178,
      "956": 6179,
      "respondence": 6180,
      "Ġvul": 6181,
      "astroint": 6182,
      "aste": 6183,
      "Âµg": 6184,
      "Ġfresh": 6185,
      "948": 6186,
      "Ġcompan": 6187,
      "Ã±": 6188,
      "ĠWestern": 6189,
      "ificial": 6190,
      "Ġgranted": 6191,
      "009": 6192,
      "ĠDiagn": 6193,
      "eneration": 6194,
      "âī¥": 6195,
      "Ġshape": 6196,
      "Ġcommunication": 6197,
      "Ġsimulation": 6198,
      "Ġconventional": 6199,
      "Ġcommercial": 6200,
      "Ġminimum": 6201,
      "LI": 6202,
      "264": 6203,
      "Ġequip": 6204,
      "oxide": 6205,
      "Ġlaboratory": 6206,
      "ynamic": 6207,
      "oming": 6208,
      "ĠApril": 6209,
      "Ġnearly": 6210,
      "Ġoverl": 6211,
      "eving": 6212,
      "ffered": 6213,
      "tions": 6214,
      "Ġord": 6215,
      "Ġ***": 6216,
      "ĠSA": 6217,
      "urree": 6218,
      "Ġwound": 6219,
      "Ġpostoperative": 6220,
      "iotics": 6221,
      "Ġjud": 6222,
      "307": 6223,
      "ĠJust": 6224,
      "204": 6225,
      "Ġvariations": 6226,
      "ĠSha": 6227,
      "385": 6228,
      "Ġweak": 6229,
      "Ġrepeated": 6230,
      "alse": 6231,
      "Ġsurve": 6232,
      "Ġincubated": 6233,
      "Ġ1000": 6234,
      "ĠIran": 6235,
      "Ġpermission": 6236,
      "748": 6237,
      "ena": 6238,
      "Ġath": 6239,
      "ancreatic": 6240,
      "asp": 6241,
      "946": 6242,
      "ving": 6243,
      "TR": 6244,
      "Ġcontract": 6245,
      "197": 6246,
      "Ġoi": 6247,
      "336": 6248,
      "jection": 6249,
      "ĠBer": 6250,
      "unch": 6251,
      "Ġlayers": 6252,
      "ĠPers": 6253,
      "ogenous": 6254,
      "Ġangle": 6255,
      "ibly": 6256,
      "Ġfixed": 6257,
      "GC": 6258,
      "oud": 6259,
      "Ġdiameter": 6260,
      "Ġexcluded": 6261,
      "Ġinstr": 6262,
      "Ġment": 6263,
      "346": 6264,
      "Ġchoice": 6265,
      "ĠProv": 6266,
      "ĠRisk": 6267,
      "293": 6268,
      "Funding": 6269,
      "bb": 6270,
      "http": 6271,
      "max": 6272,
      "rectal": 6273,
      "Keywords": 6274,
      "ĠUp": 6275,
      "266": 6276,
      "Ġphysiological": 6277,
      "body": 6278,
      "Ġfrequently": 6279,
      "Ġlost": 6280,
      "Ġdemonstrate": 6281,
      "Ġrac": 6282,
      "Ġsteps": 6283,
      "oping": 6284,
      "Ġtail": 6285,
      "334": 6286,
      "Ġreached": 6287,
      "153": 6288,
      "Ġanything": 6289,
      "ĠEnergy": 6290,
      "789": 6291,
      "ĠBlack": 6292,
      "Ġplate": 6293,
      "173": 6294,
      "ĠSens": 6295,
      "Ġindi": 6296,
      "ĠCap": 6297,
      "Ġexposed": 6298,
      "Ġinjection": 6299,
      "Ġreporting": 6300,
      "ĠTheir": 6301,
      "Ġways": 6302,
      "ĠGuo": 6303,
      "ĠPP": 6304,
      "Ġintroduced": 6305,
      "ola": 6306,
      "Ġuses": 6307,
      "available": 6308,
      "360": 6309,
      "hesis": 6310,
      "amily": 6311,
      "940": 6312,
      "ĠTra": 6313,
      "Ġunits": 6314,
      "ditional": 6315,
      "Ġgir": 6316,
      "prot": 6317,
      "Ġadoles": 6318,
      "Ġexpress": 6319,
      "ancement": 6320,
      "abric": 6321,
      "Ġcategor": 6322,
      "Ġagent": 6323,
      "Ġoffers": 6324,
      "Ġrecords": 6325,
      "ĠMur": 6326,
      "perties": 6327,
      "aki": 6328,
      "uh": 6329,
      "uls": 6330,
      "228": 6331,
      "ductive": 6332,
      "ko": 6333,
      "Ġ{": 6334,
      "iseases": 6335,
      "Ġmedicine": 6336,
      "Ġinside": 6337,
      "ĠCirc": 6338,
      "Ġcontributions": 6339,
      "Î³": 6340,
      "Ġsampling": 6341,
      "Ġ105": 6342,
      "Ġcharge": 6343,
      "ottom": 6344,
      "366": 6345,
      "add": 6346,
      "Ġwanted": 6347,
      "Dis": 6348,
      "izations": 6349,
      "356": 6350,
      "ares": 6351,
      "Ġantic": 6352,
      "uan": 6353,
      "Ġball": 6354,
      "Ġexperienced": 6355,
      "Ġhybrid": 6356,
      "Ġprogramm": 6357,
      "ĠProt": 6358,
      "Ġdemand": 6359,
      "groups": 6360,
      "Ġadjusted": 6361,
      "ux": 6362,
      "oods": 6363,
      "162": 6364,
      "179": 6365,
      "Ġcompletely": 6366,
      "Ġenab": 6367,
      "Ġoptimization": 6368,
      "ediatric": 6369,
      "189": 6370,
      "954": 6371,
      "usters": 6372,
      "Ġbenefit": 6373,
      "Ġnerve": 6374,
      "Ġneigh": 6375,
      "cap": 6376,
      "Ġantibodies": 6377,
      "Te": 6378,
      "Ġmuc": 6379,
      "atur": 6380,
      "ĠKar": 6381,
      "Ġpurch": 6382,
      "mented": 6383,
      "026": 6384,
      "ĠCurrent": 6385,
      "764": 6386,
      "itch": 6387,
      "Ġwrote": 6388,
      "Ġmoment": 6389,
      "Ġcertified": 6390,
      "ĠFoundation": 6391,
      "ny": 6392,
      "Ġmo": 6393,
      "760": 6394,
      "Ġts": 6395,
      "Ġagreed": 6396,
      "340": 6397,
      "ĠLife": 6398,
      "Ġheight": 6399,
      "Ġcalcium": 6400,
      "224": 6401,
      "Ġclean": 6402,
      "everal": 6403,
      "Ġcontain": 6404,
      "ĠAnother": 6405,
      "raining": 6406,
      "330": 6407,
      "Ġquite": 6408,
      "Ġpromoting": 6409,
      "osomal": 6410,
      "ogle": 6411,
      "Ġprognosis": 6412,
      "280": 6413,
      "cast": 6414,
      "atically": 6415,
      "acterial": 6416,
      "BL": 6417,
      "VE": 6418,
      "Ġexamination": 6419,
      "Ġfa": 6420,
      "hou": 6421,
      "ersc": 6422,
      "Ġvict": 6423,
      "338": 6424,
      "746": 6425,
      "imately": 6426,
      "Ġtransl": 6427,
      "Ġsimply": 6428,
      "indic": 6429,
      "Ġprint": 6430,
      "Ġcompound": 6431,
      "iig": 6432,
      "ĠSmith": 6433,
      "966": 6434,
      "dh": 6435,
      "Ġdna": 6436,
      "place": 6437,
      "Ġinvolvement": 6438,
      "ulatory": 6439,
      "Ġviral": 6440,
      "Ġtro": 6441,
      "908": 6442,
      "Ġhumans": 6443,
      "py": 6444,
      "Ġwhose": 6445,
      "ona": 6446,
      "itors": 6447,
      "ĠRem": 6448,
      "260": 6449,
      "Ġdivided": 6450,
      "Ġsin": 6451,
      "028": 6452,
      "ĠClass": 6453,
      "Ġce": 6454,
      "268": 6455,
      "cers": 6456,
      "784": 6457,
      "Ġworks": 6458,
      "omm": 6459,
      "367": 6460,
      "Ġsatisf": 6461,
      "Ġfigure": 6462,
      "ala": 6463,
      "Ġreactions": 6464,
      "ĠWashington": 6465,
      "cancer": 6466,
      "ĠHo": 6467,
      "Ġattempt": 6468,
      "pective": 6469,
      "246": 6470,
      "Ġmus": 6471,
      "Ġpolar": 6472,
      "Ġhydrogen": 6473,
      "ĠCentral": 6474,
      "386": 6475,
      "TP": 6476,
      "ĠHist": 6477,
      "222": 6478,
      "358": 6479,
      "944": 6480,
      "Ġbackground": 6481,
      "Ġrg": 6482,
      "Ġcarry": 6483,
      "obic": 6484,
      "ĠHz": 6485,
      "nic": 6486,
      "Ġprotection": 6487,
      "ĠCong": 6488,
      "Ġallowing": 6489,
      "Ġserve": 6490,
      "uit": 6491,
      "Ġimplant": 6492,
      "itus": 6493,
      "183": 6494,
      "Ġintestinal": 6495,
      "ĠMetabol": 6496,
      "Ġround": 6497,
      "Ġmilitary": 6498,
      "ĠExt": 6499,
      "904": 6500,
      "reme": 6501,
      "Ġremaining": 6502,
      "Ġlowest": 6503,
      "Abstract": 6504,
      "ymptom": 6505,
      "ĠPaul": 6506,
      "995": 6507,
      "Fs": 6508,
      "Ġexist": 6509,
      "ĠWork": 6510,
      "ĠExp": 6511,
      "Ġtract": 6512,
      "Ġ81": 6513,
      "Ġfluorescence": 6514,
      "Ġwritten": 6515,
      "tenance": 6516,
      "Ġemphas": 6517,
      "740": 6518,
      "eget": 6519,
      "aternal": 6520,
      "Ġextrem": 6521,
      "ledg": 6522,
      "Ġpredictive": 6523,
      "Ġvariety": 6524,
      "wan": 6525,
      "ĠTime": 6526,
      "ĠSte": 6527,
      "Ġenzymes": 6528,
      "Ġleaders": 6529,
      "ARS": 6530,
      "asks": 6531,
      "Ġreceptors": 6532,
      "Ġchemotherapy": 6533,
      "rey": 6534,
      "ectomy": 6535,
      "ĠFer": 6536,
      "Ġtemperatures": 6537,
      "orectal": 6538,
      "ĠTC": 6539,
      "Ġsigns": 6540,
      "Ġmetabolites": 6541,
      "Ã£o": 6542,
      "Ġremained": 6543,
      "348": 6544,
      "Ġmacrophages": 6545,
      "orp": 6546,
      "ĠComparison": 6547,
      "ĠGene": 6548,
      "Ġneutral": 6549,
      "ĠTi": 6550,
      "Ġ2001": 6551,
      "research": 6552,
      "itory": 6553,
      "Ġgain": 6554,
      "243": 6555,
      "Ġoptical": 6556,
      "Ġsituation": 6557,
      "ophagy": 6558,
      "Ġartery": 6559,
      "Ġthyroid": 6560,
      "172": 6561,
      "Ġspectra": 6562,
      "Ġvot": 6563,
      "207": 6564,
      "Ġscience": 6565,
      "192": 6566,
      "Ġplayer": 6567,
      "ĠSyn": 6568,
      "Ġtable": 6569,
      "ĠDa": 6570,
      "182": 6571,
      "ĠPCR": 6572,
      "248": 6573,
      "encies": 6574,
      "Ġreceive": 6575,
      "288": 6576,
      "scientificreports": 6577,
      "Ġlegal": 6578,
      "rat": 6579,
      "ulates": 6580,
      "ĠCrit": 6581,
      "270": 6582,
      "cellent": 6583,
      "stein": 6584,
      "micro": 6585,
      "Ãŀ": 6586,
      "Ġ400": 6587,
      "Ġtransplant": 6588,
      "sim": 6589,
      "Ġaer": 6590,
      "Ġpresents": 6591,
      "Ġsomeone": 6592,
      "Ġdiagnosed": 6593,
      "ĠLic": 6594,
      "ĠNotably": 6595,
      "Ġsound": 6596,
      "ioonn": 6597,
      "model": 6598,
      "ultaneous": 6599,
      "ĠGod": 6600,
      "mut": 6601,
      "Ġaxis": 6602,
      "Ġetc": 6603,
      "337": 6604,
      "ĠFed": 6605,
      "370": 6606,
      "Ġelement": 6607,
      "Ġwebs": 6608,
      "193": 6609,
      "380": 6610,
      "767": 6611,
      "450": 6612,
      "Ġsafe": 6613,
      "ĠNetwork": 6614,
      "Ġoccurred": 6615,
      "ĠAh": 6616,
      "ĠPublished": 6617,
      "licenses": 6618,
      "Ġlact": 6619,
      "ĠIntroduction": 6620,
      "ingu": 6621,
      "Ġleaf": 6622,
      "after": 6623,
      "384": 6624,
      "ports": 6625,
      "Ġsaw": 6626,
      "fully": 6627,
      "Ġfibro": 6628,
      "ĠBel": 6629,
      "cement": 6630,
      "ibration": 6631,
      "cho": 6632,
      "744": 6633,
      "However": 6634,
      "999": 6635,
      "Ġarm": 6636,
      "ened": 6637,
      "ĠHer": 6638,
      "omers": 6639,
      "303": 6640,
      "Ġdiffer": 6641,
      "stat": 6642,
      "Ġconsidering": 6643,
      "Ġcounter": 6644,
      "ief": 6645,
      "787": 6646,
      "eech": 6647,
      "ska": 6648,
      "Ġwoman": 6649,
      "344": 6650,
      "iling": 6651,
      "ricular": 6652,
      "368": 6653,
      "ago": 6654,
      "ĠCM": 6655,
      "244": 6656,
      "968": 6657,
      "eletal": 6658,
      "illance": 6659,
      "Ġposit": 6660,
      "heat": 6661,
      "iforn": 6662,
      "elli": 6663,
      "388": 6664,
      "Ġinsp": 6665,
      "has": 6666,
      "clus": 6667,
      "ĠReport": 6668,
      "Ġconcerns": 6669,
      "iny": 6670,
      "UR": 6671,
      "ibrary": 6672,
      "Ġideas": 6673,
      "nan": 6674,
      "Ġprivate": 6675,
      "ĠImmunol": 6676,
      "Ġunderwent": 6677,
      "At": 6678,
      "witter": 6679,
      "ĠAlso": 6680,
      "1002": 6681,
      "985": 6682,
      "Ġbuffer": 6683,
      "eta": 6684,
      "Ġpromotes": 6685,
      "Ġdraw": 6686,
      "309": 6687,
      "igma": 6688,
      "ĠNor": 6689,
      "iment": 6690,
      "Ġvariability": 6691,
      "Ġhot": 6692,
      "ptake": 6693,
      "Ġforces": 6694,
      "ĠJA": 6695,
      "354": 6696,
      "ĠBlood": 6697,
      "oul": 6698,
      "Ġelectronic": 6699,
      "Ġsuppress": 6700,
      "versely": 6701,
      "iately": 6702,
      "Ġsubstantial": 6703,
      "LL": 6704,
      "Ġcourt": 6705,
      "ĠBraz": 6706,
      "yan": 6707,
      "flow": 6708,
      "ĠCam": 6709,
      "Ġfibers": 6710,
      "Ġnothing": 6711,
      "Ġcomparing": 6712,
      "Ġmicrobiota": 6713,
      "ĠHD": 6714,
      "Ġmeat": 6715,
      "Ġobjective": 6716,
      "Ġtheory": 6717,
      "Ġsug": 6718,
      "sol": 6719,
      "203": 6720,
      "284": 6721,
      "ĠEr": 6722,
      "Ġven": 6723,
      "Ġfarm": 6724,
      "Ġstar": 6725,
      "Ġmarked": 6726,
      "Ġmember": 6727,
      "Ġhor": 6728,
      "Ġassociations": 6729,
      "Ġni": 6730,
      "Ġcoming": 6731,
      "alled": 6732,
      "957": 6733,
      "ooth": 6734,
      "thop": 6735,
      "Ġnoise": 6736,
      "Ġclaims": 6737,
      "Ġsurround": 6738,
      "ĠPract": 6739,
      "Ġii": 6740,
      "364": 6741,
      "ĠProject": 6742,
      "osynthesis": 6743,
      "349": 6744,
      "977": 6745,
      "Ġinstructions": 6746,
      "reported": 6747,
      "lined": 6748,
      "Ġagreement": 6749,
      "Ġ91": 6750,
      "Ġha": 6751,
      "witzer": 6752,
      "ref": 6753,
      "Ġcoverage": 6754,
      "itz": 6755,
      "othelial": 6756,
      "eled": 6757,
      "Ġrecognition": 6758,
      "Mod": 6759,
      "NI": 6760,
      "xt": 6761,
      "Ġsaying": 6762,
      "Ġreliability": 6763,
      "Ġpy": 6764,
      "ĠKey": 6765,
      "En": 6766,
      "Ġwor": 6767,
      "hyth": 6768,
      "Ġperpet": 6769,
      "ache": 6770,
      "phthalm": 6771,
      "227": 6772,
      "fre": 6773,
      "Ġderiv": 6774,
      "ĠMi": 6775,
      "ĠLaboratory": 6776,
      "Ġgn": 6777,
      "947": 6778,
      "209": 6779,
      "GFR": 6780,
      "emale": 6781,
      "Ġrock": 6782,
      "Ġbran": 6783,
      "Ġnorm": 6784,
      "Ġprofiles": 6785,
      "Ġoption": 6786,
      "333": 6787,
      "teg": 6788,
      "III": 6789,
      "atti": 6790,
      "964": 6791,
      "Ġdark": 6792,
      "ancet": 6793,
      "Ġactual": 6794,
      "ĠAge": 6795,
      "907": 6796,
      "Ġinfluenced": 6797,
      "ondon": 6798,
      "idal": 6799,
      "Ġclosely": 6800,
      "Ġcycl": 6801,
      "significantly": 6802,
      "347": 6803,
      "Ġappears": 6804,
      "ruary": 6805,
      "Results": 6806,
      "ĠGao": 6807,
      "Ġshared": 6808,
      "Ġguide": 6809,
      "Ġrout": 6810,
      "998": 6811,
      "br": 6812,
      "Ġsets": 6813,
      "Ġcolumn": 6814,
      "Ġbiomarkers": 6815,
      "Ġenhances": 6816,
      "254": 6817,
      "ĠManagement": 6818,
      "Molecules": 6819,
      "Ġtakes": 6820,
      "ectivity": 6821,
      "ĠSaf": 6822,
      "ĠDE": 6823,
      "emy": 6824,
      "Ġstarting": 6825,
      "Ġcompanies": 6826,
      "ĠConcept": 6827,
      "Ġrise": 6828,
      "247": 6829,
      "ĠâĨ": 6830,
      "Ġvarying": 6831,
      "Ġcoli": 6832,
      "Ġcollabor": 6833,
      "licated": 6834,
      "FP": 6835,
      "ĠMus": 6836,
      "Ġmother": 6837,
      "Ġsynthes": 6838,
      "DS": 6839,
      "Ġjournal": 6840,
      "Ġmigration": 6841,
      "Ġsuitable": 6842,
      "ĠGa": 6843,
      "229": 6844,
      "Ġcold": 6845,
      "quences": 6846,
      "arding": 6847,
      "witzerland": 6848,
      "charge": 6849,
      "estic": 6850,
      "indings": 6851,
      "ube": 6852,
      "Ġfamilies": 6853,
      "flic": 6854,
      "plast": 6855,
      "Ġextra": 6856,
      "Ġaann": 6857,
      "ĠÂ·": 6858,
      "960": 6859,
      "ĠScale": 6860,
      "986": 6861,
      "perm": 6862,
      "Ġquantitative": 6863,
      "Ġsizes": 6864,
      "osh": 6865,
      "Ġlif": 6866,
      "Ġheld": 6867,
      "141": 6868,
      "1000": 6869,
      "Ġimplementation": 6870,
      "itn": 6871,
      "Ġmicrobial": 6872,
      "ĠMT": 6873,
      "ifornia": 6874,
      "Ġmild": 6875,
      "imm": 6876,
      "Ġexcept": 6877,
      "973": 6878,
      "Ġmic": 6879,
      "Ġ111": 6880,
      "Ġreasons": 6881,
      "996": 6882,
      "Ġclassified": 6883,
      "Ġmaps": 6884,
      "Ġtolerance": 6885,
      "Ġ103": 6886,
      "Ã¤": 6887,
      "959": 6888,
      "These": 6889,
      "cknow": 6890,
      "Ġworth": 6891,
      "855": 6892,
      "Ġoptions": 6893,
      "zhe": 6894,
      "Ġaden": 6895,
      "377": 6896,
      "ĠIEEE": 6897,
      "387": 6898,
      "Ġspl": 6899,
      "illus": 6900,
      "Ġoffice": 6901,
      "ĠAfrica": 6902,
      "357": 6903,
      "Ġranging": 6904,
      "gov": 6905,
      "ocking": 6906,
      "Ġminor": 6907,
      "ĠRet": 6908,
      "anned": 6909,
      "ĠPhysiol": 6910,
      "Ġfile": 6911,
      "Ġstabil": 6912,
      "ĠIdent": 6913,
      "ĠVir": 6914,
      "749": 6915,
      "Ġvel": 6916,
      "Ġincome": 6917,
      "oglob": 6918,
      "ordance": 6919,
      "Ġshift": 6920,
      "Ġglut": 6921,
      "Ġâī¤": 6922,
      "their": 6923,
      "Ġgold": 6924,
      "ĠEven": 6925,
      "Ġcommunities": 6926,
      "Intern": 6927,
      "Ġol": 6928,
      "ĠMit": 6929,
      "ĠMass": 6930,
      "ĠBre": 6931,
      "Ġcapture": 6932,
      "orac": 6933,
      "axis": 6934,
      "Ġtechnologies": 6935,
      "Ġtrends": 6936,
      "ĠWilli": 6937,
      "Ġmelan": 6938,
      "287": 6939,
      "Ġsubs": 6940,
      "967": 6941,
      "Ġfol": 6942,
      "050": 6943,
      "Ġcrack": 6944,
      "otyp": 6945,
      "andemic": 6946,
      "NR": 6947,
      "band": 6948,
      "uries": 6949,
      "rium": 6950,
      "Ġdiscussed": 6951,
      "Ġretrospective": 6952,
      "ĠUse": 6953,
      "Ġestimate": 6954,
      "277": 6955,
      "Ġster": 6956,
      "Ġalb": 6957,
      "Ġnn": 6958,
      "Ġdecline": 6959,
      "Ġmissing": 6960,
      "¿½": 6961,
      "bing": 6962,
      "Ġreson": 6963,
      "Hz": 6964,
      "UT": 6965,
      "747": 6966,
      "909": 6967,
      "Ġvaccine": 6968,
      "Ġpool": 6969,
      "769": 6970,
      "343": 6971,
      "979": 6972,
      "Ġplaying": 6973,
      "Ġhit": 6974,
      "ĠQuant": 6975,
      "conditions": 6976,
      "cknowledg": 6977,
      "2009": 6978,
      "ectors": 6979,
      "Ġpopular": 6980,
      "ĠIts": 6981,
      "Ġcompeting": 6982,
      "ĠSurgery": 6983,
      "ĠSong": 6984,
      "Ġrecommended": 6985,
      "amination": 6986,
      "apter": 6987,
      "ĠIndian": 6988,
      "Ġeverything": 6989,
      "inform": 6990,
      "Ġrepresented": 6991,
      "223": 6992,
      "linear": 6993,
      "LP": 6994,
      "Ġgap": 6995,
      "ĠBoard": 6996,
      "Ġaging": 6997,
      "olved": 6998,
      "Ġgel": 6999,
      "455": 7000,
      "heum": 7001,
      "253": 7002,
      "prof": 7003,
      "eo": 7004,
      "pir": 7005,
      "ĠAk": 7006,
      "Ġflav": 7007,
      "Ġregist": 7008,
      "target": 7009,
      "Ġabsol": 7010,
      "box": 7011,
      "gal": 7012,
      "Ġmagnetic": 7013,
      "ench": 7014,
      "\":\"": 7015,
      "ermo": 7016,
      "Ġbillion": 7017,
      "1186": 7018,
      "eption": 7019,
      "âĪĹ": 7020,
      "ĠâĹ¦": 7021,
      "Ġamb": 7022,
      "orig": 7023,
      "being": 7024,
      "Ġtoxicity": 7025,
      "funder": 7026,
      "sectional": 7027,
      "ĠMoh": 7028,
      "ĠNeurosc": 7029,
      "753": 7030,
      "Ġmeaning": 7031,
      "ĠLC": 7032,
      "Ġclearly": 7033,
      "Ġgrade": 7034,
      "Ġones": 7035,
      "ĠKorea": 7036,
      "ĠPT": 7037,
      "Ġ104": 7038,
      "359": 7039,
      "783": 7040,
      "Ġuncertain": 7041,
      "Ġpron": 7042,
      "ĠHol": 7043,
      "Ġplanning": 7044,
      "903": 7045,
      "ician": 7046,
      "Ġextent": 7047,
      "ĠES": 7048,
      "Ġcategories": 7049,
      "ameters": 7050,
      "ĠArch": 7051,
      "Ġplayed": 7052,
      "249": 7053,
      "Ġfraction": 7054,
      "rog": 7055,
      "âĢĿ,": 7056,
      "earing": 7057,
      "ĠSand": 7058,
      "Ġfilms": 7059,
      "ermat": 7060,
      "Ġcompleted": 7061,
      "ĠProcess": 7062,
      "ĠWater": 7063,
      "ĠZheng": 7064,
      "mean": 7065,
      "ĠCB": 7066,
      "988": 7067,
      "Ġdim": 7068,
      "pdf": 7069,
      "Ġactivated": 7070,
      "Ġvo": 7071,
      "arrow": 7072,
      "ĠCat": 7073,
      "Ġpeptide": 7074,
      "Bas": 7075,
      "îĦĥ": 7076,
      "ranes": 7077,
      "ĠStand": 7078,
      "Ġfine": 7079,
      "Ġoo": 7080,
      "Ġimplications": 7081,
      "tty": 7082,
      "zen": 7083,
      "astroenter": 7084,
      "sev": 7085,
      "ycl": 7086,
      "ĠPolym": 7087,
      "ĠNS": 7088,
      "ĠBur": 7089,
      "ostics": 7090,
      "ĠAu": 7091,
      "scopic": 7092,
      "Ġmutation": 7093,
      "Ġonset": 7094,
      "ĠImage": 7095,
      "ominant": 7096,
      "ĠSel": 7097,
      "Ġpackage": 7098,
      "Ġrace": 7099,
      "339": 7100,
      "Ġembry": 7101,
      "Ġreceiving": 7102,
      "Ġprobability": 7103,
      "257": 7104,
      "rick": 7105,
      "Ġrespect": 7106,
      "Ġradical": 7107,
      "hr": 7108,
      "lind": 7109,
      "267": 7110,
      "Ġsummary": 7111,
      "389": 7112,
      "763": 7113,
      "865": 7114,
      "gly": 7115,
      "Ġdead": 7116,
      "Ġexplained": 7117,
      "DH": 7118,
      "Ġmarg": 7119,
      "ĠPredict": 7120,
      "Ġuniform": 7121,
      "Ġskills": 7122,
      "ĠPLoS": 7123,
      "ĠEngineering": 7124,
      "373": 7125,
      "Ġfemales": 7126,
      "Ġenvironments": 7127,
      "Ġstandards": 7128,
      "Ġdeform": 7129,
      "jug": 7130,
      "Ġ250": 7131,
      "Ġhighlights": 7132,
      "ĠType": 7133,
      "Ġadip": 7134,
      "ĠUnder": 7135,
      "Ġtn": 7136,
      "Ġundersc": 7137,
      "ĠEvaluation": 7138,
      "ĠER": 7139,
      "Ġmaintaining": 7140,
      "ails": 7141,
      "tumor": 7142,
      "issue": 7143,
      "949": 7144,
      "ĠBrain": 7145,
      "ycin": 7146,
      "ĠFebruary": 7147,
      "ĠGC": 7148,
      "Ġcompris": 7149,
      "Ġspot": 7150,
      "Ġpage": 7151,
      "Ġextracellular": 7152,
      "Ġpublications": 7153,
      "ĠVari": 7154,
      "972": 7155,
      "logical": 7156,
      "ĠStud": 7157,
      "Ġscientific": 7158,
      "ceedings": 7159,
      "tage": 7160,
      "Ġsufficient": 7161,
      "Ġformal": 7162,
      "Ġeasily": 7163,
      "ĠHam": 7164,
      "Ġgave": 7165,
      "apse": 7166,
      "Ġmentioned": 7167,
      "ĠGh": 7168,
      "hael": 7169,
      "Ns": 7170,
      "Ġcontribution": 7171,
      "Ġintegrated": 7172,
      "MB": 7173,
      "ĠHepat": 7174,
      "Ġfederal": 7175,
      "EC": 7176,
      "Ġstimulation": 7177,
      "/).": 7178,
      "ĠShi": 7179,
      "ifies": 7180,
      "406": 7181,
      "Ġarchitect": 7182,
      "expression": 7183,
      "Ġcontinued": 7184,
      "DR": 7185,
      "illa": 7186,
      "027": 7187,
      "ĠIns": 7188,
      "URE": 7189,
      "866": 7190,
      "oxic": 7191,
      "Ġsolely": 7192,
      "Ġfusion": 7193,
      "ĠLear": 7194,
      "Ġraw": 7195,
      "ocardial": 7196,
      "269": 7197,
      "Ġresponsibility": 7198,
      "ĠBrazil": 7199,
      "Ġcompare": 7200,
      "369": 7201,
      "Ġlearn": 7202,
      "Ġfibrosis": 7203,
      "Ġvirt": 7204,
      "Ġbind": 7205,
      "ĠSl": 7206,
      "Ġmales": 7207,
      "Ġtree": 7208,
      "259": 7209,
      "Ġabundance": 7210,
      "ogens": 7211,
      "ĠCheng": 7212,
      "rus": 7213,
      "ogy": 7214,
      "990": 7215,
      "vo": 7216,
      "âĦ": 7217,
      "Pre": 7218,
      "ĠYan": 7219,
      "eur": 7220,
      "anti": 7221,
      "arcinoma": 7222,
      "Ġpict": 7223,
      "Ġprice": 7224,
      "week": 7225,
      "weet": 7226,
      "than": 7227,
      "984": 7228,
      "Ġaffecting": 7229,
      "lan": 7230,
      "ervical": 7231,
      "Ġchannel": 7232,
      "ĠSocial": 7233,
      "Ġpneum": 7234,
      "ensed": 7235,
      "Ġpractical": 7236,
      "Ġnitrogen": 7237,
      "ĠFuture": 7238,
      "363": 7239,
      "980": 7240,
      "Ġtransform": 7241,
      "urance": 7242,
      "Ġions": 7243,
      "ricultural": 7244,
      "Ġom": 7245,
      "ĠBay": 7246,
      "hai": 7247,
      "Gs": 7248,
      "adian": 7249,
      "ĠTechnol": 7250,
      "DP": 7251,
      "cut": 7252,
      "856": 7253,
      "ĠDiabetes": 7254,
      "Ġegg": 7255,
      "161": 7256,
      "ĠWil": 7257,
      "Ġidentifying": 7258,
      "akers": 7259,
      "379": 7260,
      "ĠGi": 7261,
      "ĠJan": 7262,
      "pert": 7263,
      "ĠEqu": 7264,
      "Ġsmart": 7265,
      "239": 7266,
      "ocity": 7267,
      "Ġencour": 7268,
      "Ġperspective": 7269,
      "Ġdoses": 7270,
      "353": 7271,
      "Ġchanged": 7272,
      "ĠEnglish": 7273,
      "astrointestinal": 7274,
      "ĠAng": 7275,
      "Ġleave": 7276,
      "Ġfoods": 7277,
      "Ġelectric": 7278,
      "Ġmorphology": 7279,
      "ET": 7280,
      "::": 7281,
      "ĠTher": 7282,
      "752": 7283,
      "electric": 7284,
      "mol": 7285,
      "263": 7286,
      "ergic": 7287,
      "Ġestimates": 7288,
      "Ġdifferential": 7289,
      "Ġprecision": 7290,
      "tra": 7291,
      "011": 7292,
      "Ġsuscept": 7293,
      "ĠTest": 7294,
      "ĠOx": 7295,
      "ennt": 7296,
      "ĠDon": 7297,
      "Ġcapital": 7298,
      "Ġdrink": 7299,
      "lia": 7300,
      "029": 7301,
      "Ġantimicrobial": 7302,
      "Ġmotion": 7303,
      "Ġeyes": 7304,
      "antly": 7305,
      "Ġonto": 7306,
      "Ġdiabetic": 7307,
      "ĠCalifornia": 7308,
      "avi": 7309,
      "ĠAB": 7310,
      "Ġsummar": 7311,
      "HL": 7312,
      "Ġarg": 7313,
      "273": 7314,
      "279": 7315,
      "289": 7316,
      "itudinal": 7317,
      "etary": 7318,
      "Publish": 7319,
      "ĠGoogle": 7320,
      "onin": 7321,
      "ĠMel": 7322,
      "sequently": 7323,
      "Ġexpan": 7324,
      "ĠEnvironment": 7325,
      "Ġboard": 7326,
      "Ġimmediately": 7327,
      "ĠTem": 7328,
      "ĠLtd": 7329,
      "Ġswit": 7330,
      "ĠDirect": 7331,
      "sen": 7332,
      "ĠSk": 7333,
      "Ġwaste": 7334,
      "Ġspecimens": 7335,
      "nO": 7336,
      "414": 7337,
      "352": 7338,
      "Ġoccup": 7339,
      "aka": 7340,
      "151": 7341,
      "ĠPhil": 7342,
      "Ġsed": 7343,
      "IA": 7344,
      "izer": 7345,
      "272": 7346,
      "may": 7347,
      "ias": 7348,
      "ading": 7349,
      "408": 7350,
      "953": 7351,
      "âĢł": 7352,
      "ĠUnivers": 7353,
      "cler": 7354,
      "Ġcharacterization": 7355,
      "izon": 7356,
      "Ġoverex": 7357,
      "ĠNO": 7358,
      "loro": 7359,
      "diagn": 7360,
      "ĠJohns": 7361,
      "ĠPeople": 7362,
      "ilateral": 7363,
      "762": 7364,
      "ĠBiology": 7365,
      "ĠNutr": 7366,
      "Ġgun": 7367,
      "heter": 7368,
      "332": 7369,
      "858": 7370,
      "465": 7371,
      "383": 7372,
      "Ġknee": 7373,
      "Ġquickly": 7374,
      "Ġcuration": 7375,
      "onald": 7376,
      "Cell": 7377,
      "dimensional": 7378,
      "structure": 7379,
      "ococc": 7380,
      "ĠEpidem": 7381,
      "Ġpurpose": 7382,
      "Ġadvantage": 7383,
      "Ġmedication": 7384,
      "ĠImpact": 7385,
      "Ġintegration": 7386,
      "cents": 7387,
      "ulture": 7388,
      "994": 7389,
      "Ġsoon": 7390,
      "Ġfung": 7391,
      "969": 7392,
      "743": 7393,
      "943": 7394,
      "going": 7395,
      "improv": 7396,
      "Ġexcellent": 7397,
      "Ġdemographic": 7398,
      "232": 7399,
      "987": 7400,
      "ĠItaly": 7401,
      "oa": 7402,
      "riction": 7403,
      "Ġreflect": 7404,
      "282": 7405,
      "Ġfracture": 7406,
      "ĠPBS": 7407,
      "Ġeveryone": 7408,
      "Ġconstit": 7409,
      "allel": 7410,
      "Comp": 7411,
      "Ġmarker": 7412,
      "***": 7413,
      "252": 7414,
      "ĠCP": 7415,
      "ĠRich": 7416,
      "Ġlaser": 7417,
      "Ġadequ": 7418,
      "Ġvitamin": 7419,
      "ĠHem": 7420,
      "Ġcoronary": 7421,
      "first": 7422,
      "Ġos": 7423,
      "Ġaw": 7424,
      "Ġensuring": 7425,
      "Ġlateral": 7426,
      "Ġvehicle": 7427,
      "Ġnutritional": 7428,
      "plete": 7429,
      "Ġresource": 7430,
      "wards": 7431,
      "ĠMany": 7432,
      "phys": 7433,
      "life": 7434,
      "also": 7435,
      "Ġplans": 7436,
      "NOVA": 7437,
      "Ġfriends": 7438,
      "Ġprefer": 7439,
      "Ġpreserv": 7440,
      "agg": 7441,
      "Ġroad": 7442,
      "Ġvector": 7443,
      "Ġbecomes": 7444,
      "Ġbed": 7445,
      "Ġhormone": 7446,
      "Ġappeared": 7447,
      "utrient": 7448,
      "itial": 7449,
      "782": 7450,
      "rifug": 7451,
      "night": 7452,
      "ĠLondon": 7453,
      "850": 7454,
      "Bl": 7455,
      "Ġsensors": 7456,
      "Ġorient": 7457,
      "Ġperipheral": 7458,
      "Ġenrichment": 7459,
      "ĠEducation": 7460,
      "anda": 7461,
      "171": 7462,
      "direct": 7463,
      "Ġtravel": 7464,
      "Ġinterpretation": 7465,
      "Ġtasks": 7466,
      "Ġmodule": 7467,
      "Ġinterface": 7468,
      "ĠBrown": 7469,
      "ĠSH": 7470,
      "ĠProf": 7471,
      "Ġtraits": 7472,
      "ora": 7473,
      "ĠUV": 7474,
      "Ġcancers": 7475,
      "urch": 7476,
      "ĠPhot": 7477,
      "Ġexplain": 7478,
      "Ġfold": 7479,
      "Ġnodes": 7480,
      "Ġnom": 7481,
      "Ġunivers": 7482,
      "Ġsulf": 7483,
      "Ġepis": 7484,
      "Ġglass": 7485,
      "242": 7486,
      "Ġwave": 7487,
      "mediate": 7488,
      "uu": 7489,
      "Ġcro": 7490,
      "ĠRod": 7491,
      "Ġcomputer": 7492,
      "Ġalgorithms": 7493,
      "atif": 7494,
      "ĠTang": 7495,
      "181": 7496,
      "Ġprofessional": 7497,
      "Ġprospective": 7498,
      "Ġtraffic": 7499,
      "Ġantibiotic": 7500,
      "elihood": 7501,
      "Ġrs": 7502,
      "values": 7503,
      "Ġveget": 7504,
      "997": 7505,
      "Our": 7506,
      "ilot": 7507,
      "Ġcharacteristic": 7508,
      "ava": 7509,
      "olymers": 7510,
      "ĠSee": 7511,
      "ega": 7512,
      "Ġreviewed": 7513,
      "cher": 7514,
      "stage": 7515,
      "Ġtens": 7516,
      "Ġorigin": 7517,
      "952": 7518,
      "ilitation": 7519,
      "Ġlargest": 7520,
      "Ġbul": 7521,
      "ĠHE": 7522,
      "ocols": 7523,
      "Ġadhes": 7524,
      "these": 7525,
      "Ġmodern": 7526,
      "relation": 7527,
      "ald": 7528,
      "Ġsections": 7529,
      "Ġpush": 7530,
      "Ġhope": 7531,
      "ĠCr": 7532,
      "ĠFre": 7533,
      "ĠWell": 7534,
      "ĠDavid": 7535,
      "cis": 7536,
      "rained": 7537,
      "372": 7538,
      "Ġoc": 7539,
      "iiggu": 7540,
      "yo": 7541,
      "ĠLab": 7542,
      "404": 7543,
      "Ġactions": 7544,
      "Ġtransf": 7545,
      "pass": 7546,
      "2008": 7547,
      "ĠEast": 7548,
      "ĠConse": 7549,
      "Ġtypical": 7550,
      "Ġphenomen": 7551,
      "Ġofficials": 7552,
      "zheimer": 7553,
      "Ġinterc": 7554,
      "Ġhimself": 7555,
      "Ġbarrier": 7556,
      "Ġcandidate": 7557,
      "ĠAustralia": 7558,
      "Ġshoot": 7559,
      "Ġzone": 7560,
      "Ġobvious": 7561,
      "haps": 7562,
      "negative": 7563,
      "Ġemergency": 7564,
      "coll": 7565,
      "Ġ125": 7566,
      "studies": 7567,
      "spect": 7568,
      "Ġseparate": 7569,
      "mult": 7570,
      "vals": 7571,
      "Ġgenerate": 7572,
      "Ġfacilitate": 7573,
      "ĠFace": 7574,
      "Ġspent": 7575,
      "iples": 7576,
      "ĠTor": 7577,
      "Ġsensitive": 7578,
      "Ġischem": 7579,
      "iltration": 7580,
      "Ġnode": 7581,
      "ĠCour": 7582,
      "Ġrich": 7583,
      "Ġsubstrate": 7584,
      "ectious": 7585,
      "Ġrelig": 7586,
      "icted": 7587,
      "Ġminimal": 7588,
      "Pa": 7589,
      "Us": 7590,
      "ĠFour": 7591,
      "706": 7592,
      "Ġvac": 7593,
      "Ġauto": 7594,
      "tc": 7595,
      "joy": 7596,
      "arn": 7597,
      "ĠMid": 7598,
      "Ġviolence": 7599,
      "GL": 7600,
      "Ġmeeting": 7601,
      "Ġparticipant": 7602,
      "393": 7603,
      "erman": 7604,
      "Ġkinase": 7605,
      "Ġrr": 7606,
      "Ġnumerous": 7607,
      "Ġdisplayed": 7608,
      "Ġinduce": 7609,
      "283": 7610,
      "Ġsurpr": 7611,
      "ĠPatient": 7612,
      "942": 7613,
      "App": 7614,
      "Ġorganization": 7615,
      "RIS": 7616,
      "Ġdiscrim": 7617,
      "aching": 7618,
      "Ġimpacts": 7619,
      "itudes": 7620,
      "osystem": 7621,
      "Ġsharing": 7622,
      "Ġstrongly": 7623,
      "362": 7624,
      "Ġexplored": 7625,
      "Ġdomains": 7626,
      "Ġtur": 7627,
      "ĠVer": 7628,
      "ricted": 7629,
      "ĠGold": 7630,
      "382": 7631,
      "860": 7632,
      "488": 7633,
      "nov": 7634,
      "Ġconfig": 7635,
      "Ġthank": 7636,
      "Ġword": 7637,
      "ĠTri": 7638,
      "rang": 7639,
      "Ġdriving": 7640,
      "ocial": 7641,
      "ĠImprov": 7642,
      "observ": 7643,
      "Ġoperation": 7644,
      "ĠHC": 7645,
      "ĠOverall": 7646,
      "ĠDig": 7647,
      "Ġweb": 7648,
      "seq": 7649,
      "Ġrecurrence": 7650,
      "Ġmur": 7651,
      "Ġsupply": 7652,
      "ander": 7653,
      "Ġphone": 7654,
      "lab": 7655,
      "Ġsmoking": 7656,
      "ĠLA": 7657,
      "Ġ106": 7658,
      "Rev": 7659,
      "show": 7660,
      "ailed": 7661,
      "udi": 7662,
      "Ġelse": 7663,
      "ĠActa": 7664,
      "Ġsteel": 7665,
      "Ġvariance": 7666,
      "Ġcool": 7667,
      "--------": 7668,
      "ĠProgram": 7669,
      "ela": 7670,
      "Ġfruit": 7671,
      "dominal": 7672,
      "Ġti": 7673,
      "963": 7674,
      "ality": 7675,
      "ylogen": 7676,
      "ĠStr": 7677,
      "ĠDesign": 7678,
      "clear": 7679,
      "Ġbuilt": 7680,
      "Ġbehaviors": 7681,
      "342": 7682,
      "MO": 7683,
      "Bio": 7684,
      "tenu": 7685,
      "ences": 7686,
      "Ġfilter": 7687,
      "742": 7688,
      "Ġchance": 7689,
      "valence": 7690,
      "Ġdoct": 7691,
      "ĠFollowing": 7692,
      "Ġheavy": 7693,
      "Ġinteresting": 7694,
      "two": 7695,
      "yst": 7696,
      "Ġcoating": 7697,
      "ridge": 7698,
      "idi": 7699,
      "Ġacknow": 7700,
      "ĠÂ¼": 7701,
      "QR": 7702,
      "otics": 7703,
      "nl": 7704,
      "ĠBa": 7705,
      "868": 7706,
      "Ġcry": 7707,
      "eutical": 7708,
      "Ġsort": 7709,
      "Ġrequirements": 7710,
      "262": 7711,
      "ĠLicense": 7712,
      "mmol": 7713,
      "inations": 7714,
      "ĠMax": 7715,
      "âĪĨ": 7716,
      "][": 7717,
      "Ġuptake": 7718,
      "esthes": 7719,
      "ĠGiven": 7720,
      "anth": 7721,
      "ĠIsrael": 7722,
      "making": 7723,
      "ĠBecause": 7724,
      "Ġshock": 7725,
      "rasound": 7726,
      "immune": 7727,
      "Ġadsorption": 7728,
      "Ġrough": 7729,
      "Ġrelation": 7730,
      "Ġknock": 7731,
      "On": 7732,
      "oT": 7733,
      "Ġmill": 7734,
      "ĠLett": 7735,
      "231": 7736,
      "Ġil": 7737,
      "Ġprecise": 7738,
      "FT": 7739,
      "Nutrients": 7740,
      "etric": 7741,
      "eff": 7742,
      "ĠBiotechn": 7743,
      "ĠSpring": 7744,
      "Ġratios": 7745,
      "Ġstored": 7746,
      "Ġpsychological": 7747,
      "456": 7748,
      "ĠAccepted": 7749,
      "Ġextended": 7750,
      "Ġnation": 7751,
      "fs": 7752,
      "lik": 7753,
      "oni": 7754,
      "Ġmetastasis": 7755,
      "iti": 7756,
      "Ġcopy": 7757,
      "Ġeffort": 7758,
      "arios": 7759,
      "Ġlys": 7760,
      "Ġadding": 7761,
      "Ġengine": 7762,
      "ĠOffic": 7763,
      "ĠLo": 7764,
      "466": 7765,
      "Ġfelt": 7766,
      "Ġobservation": 7767,
      "Ġbehaviour": 7768,
      "Ġhyd": 7769,
      "ĠANOVA": 7770,
      "ĠAssessment": 7771,
      "Ġplus": 7772,
      "Ġdepending": 7773,
      "Ġinv": 7774,
      "dt": 7775,
      "Ġwasn": 7776,
      "292": 7777,
      "Ġquestionnaire": 7778,
      "iigguurree": 7779,
      "854": 7780,
      "Ġpeaks": 7781,
      "Ġheterogeneity": 7782,
      "Ġ@": 7783,
      "Ġ110": 7784,
      "If": 7785,
      "ishing": 7786,
      "GR": 7787,
      "ĠDA": 7788,
      "Ġcycles": 7789,
      "Ġperpetuity": 7790,
      "ĠConceptualization": 7791,
      "ĠNatural": 7792,
      "Ġintelligence": 7793,
      "potential": 7794,
      "Ġconsult": 7795,
      "ducts": 7796,
      "Cu": 7797,
      "Ġotherwise": 7798,
      "Ġmodeling": 7799,
      "Ġsold": 7800,
      "cha": 7801,
      "ĠPo": 7802,
      "ptive": 7803,
      "antic": 7804,
      "ancies": 7805,
      "Ġcausing": 7806,
      "Ġsecretion": 7807,
      "Ġexpansion": 7808,
      "Ġexpert": 7809,
      "Ġwarm": 7810,
      "rian": 7811,
      "Ġtechnical": 7812,
      "ĠFisher": 7813,
      "PH": 7814,
      "acchar": 7815,
      "Ġpretty": 7816,
      "orders": 7817,
      "oretical": 7818,
      "Ġhous": 7819,
      "results": 7820,
      "uo": 7821,
      "Ġfair": 7822,
      "Ġfert": 7823,
      "ulose": 7824,
      "ĠFlu": 7825,
      "Ġinitially": 7826,
      "468": 7827,
      "777": 7828,
      "Ġindepend": 7829,
      "scope": 7830,
      "erical": 7831,
      "ivalent": 7832,
      "Sup": 7833,
      "770": 7834,
      "Ġanalyze": 7835,
      "ĠAlex": 7836,
      "Ġvital": 7837,
      "055": 7838,
      "Ġtemporal": 7839,
      "Ġopportunity": 7840,
      "burg": 7841,
      "room": 7842,
      "993": 7843,
      "Ġassessing": 7844,
      "ĠNews": 7845,
      "Hy": 7846,
      "ï»": 7847,
      "Ġanat": 7848,
      "ĠThree": 7849,
      "ĠFA": 7850,
      "480": 7851,
      "Ġfeedback": 7852,
      "Ġextensive": 7853,
      "Ġreliable": 7854,
      "Ġsometimes": 7855,
      "191": 7856,
      "ĠBet": 7857,
      "ĠMicrobiol": 7858,
      "Ġillness": 7859,
      "Ġleuk": 7860,
      "Ġcontributing": 7861,
      "Ġfalse": 7862,
      "ĠDC": 7863,
      "ĠOh": 7864,
      "962": 7865,
      "gh": 7866,
      "ÎĶ": 7867,
      "Ġlat": 7868,
      "Publisher": 7869,
      "Ġ128": 7870,
      "nr": 7871,
      "Ġdecreases": 7872,
      "460": 7873,
      "Sp": 7874,
      "ĠRoy": 7875,
      "Ġwebsite": 7876,
      "DD": 7877,
      "Ġepithelial": 7878,
      "EV": 7879,
      "Ġson": 7880,
      "adder": 7881,
      "Ġdefense": 7882,
      ",*": 7883,
      "Ġms": 7884,
      "poses": 7885,
      "Ġcomplexity": 7886,
      "erapeutic": 7887,
      "708": 7888,
      "Ġprognostic": 7889,
      "ĠBY": 7890,
      "989": 7891,
      "coma": 7892,
      "overnment": 7893,
      "ĠDiscussion": 7894,
      "ĠRole": 7895,
      "Att": 7896,
      "ĠDay": 7897,
      "ĠTom": 7898,
      "Ġdecided": 7899,
      "Ġpolicies": 7900,
      "ĠSC": 7901,
      "onged": 7902,
      "Non": 7903,
      "Ġthromb": 7904,
      "Ġintended": 7905,
      "Ġgenomic": 7906,
      "Ġmaintained": 7907,
      "ione": 7908,
      "Ġshif": 7909,
      "Ġmaternal": 7910,
      "Ã³n": 7911,
      "Ġreproduction": 7912,
      "ĠClinton": 7913,
      "ĠPort": 7914,
      "Ġformat": 7915,
      "responding": 7916,
      "EGs": 7917,
      "Ġshot": 7918,
      "Ġnine": 7919,
      "((": 7920,
      "ĠTarget": 7921,
      "Ġcarri": 7922,
      "Ġcivil": 7923,
      "Ġmostly": 7924,
      "Ġparticipate": 7925,
      "Ġsubsequently": 7926,
      "phosph": 7927,
      "Ġclusters": 7928,
      "Ġbud": 7929,
      "ĠBritish": 7930,
      "luence": 7931,
      "806": 7932,
      "Ġmaintenance": 7933,
      "oped": 7934,
      "ructure": 7935,
      "Ġstatistics": 7936,
      "Ġattribut": 7937,
      "864": 7938,
      "Qu": 7939,
      "Ġreveals": 7940,
      "ĠInhib": 7941,
      "iph": 7942,
      "Ã°": 7943,
      "Ġantibiotics": 7944,
      "Ġhon": 7945,
      "ĠCamp": 7946,
      "asal": 7947,
      "Ġindicators": 7948,
      "407": 7949,
      "Ġnit": 7950,
      "porting": 7951,
      "857": 7952,
      "Ġcomparisons": 7953,
      "ĠNutrition": 7954,
      "Ġreplic": 7955,
      "Ġparticle": 7956,
      "Ġvulner": 7957,
      "Ġexamine": 7958,
      "Ġimag": 7959,
      "ĠTV": 7960,
      "Ġanterior": 7961,
      "Ġrat": 7962,
      "Ġpref": 7963,
      "ĠHyper": 7964,
      "Ġspac": 7965,
      "Ġhands": 7966,
      "disease": 7967,
      "ymal": 7968,
      "ĠPsychiat": 7969,
      "Acknowledg": 7970,
      "El": 7971,
      "ĠMI": 7972,
      "ette": 7973,
      "ĠWei": 7974,
      "Ġreading": 7975,
      "Ġhistor": 7976,
      "Ġcytokines": 7977,
      "ixed": 7978,
      "types": 7979,
      "ĠIR": 7980,
      "ship": 7981,
      "WT": 7982,
      "ĠBC": 7983,
      "urer": 7984,
      "Ġerrors": 7985,
      "ously": 7986,
      "ĠImaging": 7987,
      "Ġlives": 7988,
      "grade": 7989,
      "zo": 7990,
      "Ġadministered": 7991,
      "Ġconstruction": 7992,
      "Ġincident": 7993,
      "Ġdrive": 7994,
      "osk": 7995,
      "compared": 7996,
      "Ġchallenging": 7997,
      "cel": 7998,
      "Ġdual": 7999,
      "ĠTurk": 8000,
      "Ġedge": 8001,
      "ady": 8002,
      "600": 8003,
      "Ġtherm": 8004,
      "Ġtube": 8005,
      "Ġthin": 8006,
      "others": 8007,
      "Ġclasses": 8008,
      "ĠFrance": 8009,
      "post": 8010,
      "Îº": 8011,
      "eman": 8012,
      "Ġdiagram": 8013,
      "Ġattach": 8014,
      "imensions": 8015,
      "Ġmobile": 8016,
      "author": 8017,
      "444": 8018,
      "ĠKe": 8019,
      "soft": 8020,
      "Ġpancreatic": 8021,
      "Ġiniti": 8022,
      "Reg": 8023,
      "etin": 8024,
      "ĠLancet": 8025,
      "Ġspeech": 8026,
      "Le": 8027,
      "983": 8028,
      "hern": 8029,
      "Ġvaccination": 8030,
      "disc": 8031,
      "Ġeating": 8032,
      "Ġll": 8033,
      "iva": 8034,
      "Ġinfected": 8035,
      "ĠExperimental": 8036,
      "cs": 8037,
      "Ġdependent": 8038,
      "ĠAir": 8039,
      "888": 8040,
      "rench": 8041,
      "ĠFaculty": 8042,
      "Ġinstit": 8043,
      "Ġresidual": 8044,
      "atile": 8045,
      "Ġstudent": 8046,
      "ognition": 8047,
      "DI": 8048,
      "hs": 8049,
      "Ġ(âĪĴ": 8050,
      "identified": 8051,
      "704": 8052,
      "Ġconnected": 8053,
      "Rep": 8054,
      "Ġwrong": 8055,
      "ĠChemical": 8056,
      "Ġstatements": 8057,
      "world": 8058,
      "Ġannual": 8059,
      "Ġregulating": 8060,
      "ĠQuality": 8061,
      "Ġconflicts": 8062,
      "Pe": 8063,
      "NG": 8064,
      "opes": 8065,
      "istan": 8066,
      "Ġprotect": 8067,
      "Ġbow": 8068,
      "Ġgastric": 8069,
      "rav": 8070,
      "Ġsuccessfully": 8071,
      "binding": 8072,
      "idase": 8073,
      "into": 8074,
      "Ġsimultaneous": 8075,
      "ĠChemistry": 8076,
      "Ġhighlighted": 8077,
      "Es": 8078,
      "Ġcreating": 8079,
      "Ġ1999": 8080,
      "458": 8081,
      "Ġtrade": 8082,
      "Ġea": 8083,
      "Ġdistingu": 8084,
      "Ġcircum": 8085,
      "];": 8086,
      "equal": 8087,
      "ĠKh": 8088,
      ")/": 8089,
      "Ġpartial": 8090,
      "Ġaccordance": 8091,
      "Ġcholesterol": 8092,
      "Ġreveal": 8093,
      "Ġfabric": 8094,
      "Ġrules": 8095,
      "ministration": 8096,
      "Ġdiscussion": 8097,
      "Ġreact": 8098,
      "Ġtranscript": 8099,
      "Ġcomment": 8100,
      "ĠJohnson": 8101,
      "ĠIncre": 8102,
      "Ġsensory": 8103,
      "Ġloading": 8104,
      "Val": 8105,
      "Ġbottom": 8106,
      "Ġmanner": 8107,
      "Ġchosen": 8108,
      "ĠSingh": 8109,
      "808": 8110,
      "Ġteams": 8111,
      "mes": 8112,
      "BR": 8113,
      "aceae": 8114,
      "Ġprotective": 8115,
      "ĠBMJ": 8116,
      "Ġplots": 8117,
      "there": 8118,
      "Ġperiods": 8119,
      "Ġcomputational": 8120,
      "Ġcomparable": 8121,
      "Trans": 8122,
      "Ġpositively": 8123,
      "etr": 8124,
      "Ġdecisions": 8125,
      "\",\"": 8126,
      "oscler": 8127,
      "392": 8128,
      "Ġspinal": 8129,
      "ervous": 8130,
      "ïº": 8131,
      "ĠAK": 8132,
      "Ġreinfor": 8133,
      "ĠCAR": 8134,
      "yll": 8135,
      "ĠEmerg": 8136,
      "ĠAttribution": 8137,
      "982": 8138,
      "464": 8139,
      "rogen": 8140,
      "ulum": 8141,
      "Ġsmooth": 8142,
      "ĠRu": 8143,
      "ilation": 8144,
      "Ġpermitted": 8145,
      "Ġchannels": 8146,
      "ellitus": 8147,
      "992": 8148,
      "Ġmatch": 8149,
      "Ġconsensus": 8150,
      "mits": 8151,
      "Ġtel": 8152,
      "amic": 8153,
      "Ġreplac": 8154,
      "Ġanyone": 8155,
      "fig": 8156,
      "eps": 8157,
      "Ġenrol": 8158,
      "Ġbeneficial": 8159,
      "brevi": 8160,
      "original": 8161,
      "jo": 8162,
      "found": 8163,
      "theless": 8164,
      "Ġhypothesis": 8165,
      "University": 8166,
      "ĠOrganization": 8167,
      "ĠEthics": 8168,
      "dL": 8169,
      "rele": 8170,
      "457": 8171,
      "Ġpandemic": 8172,
      "Ġbeginning": 8173,
      "ĠMach": 8174,
      "ĠLast": 8175,
      "atest": 8176,
      "Ġast": 8177,
      "iration": 8178,
      "ĠTumor": 8179,
      "Ġgoals": 8180,
      "454": 8181,
      "ĠConference": 8182,
      "Ġcareer": 8183,
      "Ġresidents": 8184,
      "Ãº": 8185,
      "Ġgrain": 8186,
      "Ġcortex": 8187,
      "Ġhousehold": 8188,
      "Ġperceived": 8189,
      "Ġtrained": 8190,
      "gest": 8191
    },
    "merges": [
      [
        "i",
        "n"
      ],
      [
        "e",
        "s"
      ],
      [
        "a",
        "t"
      ],
      [
        "Ġ",
        "a"
      ],
      [
        "o",
        "n"
      ],
      [
        "r",
        "e"
      ],
      [
        "e",
        "n"
      ],
      [
        "Ġ",
        "t"
      ],
      [
        "a",
        "l"
      ],
      [
        "e",
        "r"
      ],
      [
        "Ġ",
        "s"
      ],
      [
        "i",
        "c"
      ],
      [
        "Ġ",
        "in"
      ],
      [
        "e",
        "d"
      ],
      [
        "i",
        "t"
      ],
      [
        "Ġ",
        "p"
      ],
      [
        "i",
        "on"
      ],
      [
        "a",
        "n"
      ],
      [
        "en",
        "t"
      ],
      [
        "h",
        "e"
      ],
      [
        "r",
        "o"
      ],
      [
        "a",
        "r"
      ],
      [
        "o",
        "r"
      ],
      [
        "Ġ",
        "m"
      ],
      [
        "Ġ",
        "c"
      ],
      [
        "Ġ",
        "b"
      ],
      [
        "i",
        "s"
      ],
      [
        "in",
        "g"
      ],
      [
        "Ġ",
        "f"
      ],
      [
        "Ġa",
        "n"
      ],
      [
        "u",
        "l"
      ],
      [
        "Ġ",
        "o"
      ],
      [
        "Ġ",
        "re"
      ],
      [
        "i",
        "m"
      ],
      [
        "Ġan",
        "d"
      ],
      [
        "Ġ",
        "d"
      ],
      [
        "o",
        "l"
      ],
      [
        "at",
        "ion"
      ],
      [
        "i",
        "d"
      ],
      [
        "e",
        "m"
      ],
      [
        "c",
        "t"
      ],
      [
        "ic",
        "al"
      ],
      [
        "at",
        "i"
      ],
      [
        "e",
        "l"
      ],
      [
        "Ġ",
        "w"
      ],
      [
        "Ġb",
        "y"
      ],
      [
        "p",
        "er"
      ],
      [
        "Ġ",
        "e"
      ],
      [
        "al",
        "t"
      ],
      [
        "Ġ",
        "h"
      ],
      [
        "o",
        "m"
      ],
      [
        "Ġt",
        "he"
      ],
      [
        "u",
        "r"
      ],
      [
        "Ġ",
        "n"
      ],
      [
        "c",
        "h"
      ],
      [
        "a",
        "s"
      ],
      [
        "l",
        "y"
      ],
      [
        "r",
        "i"
      ],
      [
        "f",
        "f"
      ],
      [
        "a",
        "g"
      ],
      [
        "Ġt",
        "o"
      ],
      [
        "ent",
        "s"
      ],
      [
        "Ġd",
        "i"
      ],
      [
        "o",
        "v"
      ],
      [
        "Ġ",
        "im"
      ],
      [
        "a",
        "re"
      ],
      [
        "a",
        "k"
      ],
      [
        "Ġim",
        "p"
      ],
      [
        "ro",
        "v"
      ],
      [
        "Ġ",
        "T"
      ],
      [
        "Ġp",
        "ati"
      ],
      [
        "Ġo",
        "f"
      ],
      [
        "Ġ",
        "1"
      ],
      [
        "alt",
        "h"
      ],
      [
        "Ġm",
        "an"
      ],
      [
        "Ġ",
        "l"
      ],
      [
        "c",
        "ri"
      ],
      [
        "Ġ",
        "A"
      ],
      [
        "es",
        "cri"
      ],
      [
        "i",
        "g"
      ],
      [
        "Ġ",
        "M"
      ],
      [
        "o",
        "s"
      ],
      [
        "Ġs",
        "t"
      ],
      [
        "Ġf",
        "or"
      ],
      [
        "e",
        "ct"
      ],
      [
        "o",
        "w"
      ],
      [
        "0",
        "0"
      ],
      [
        "Ġc",
        "on"
      ],
      [
        "a",
        "c"
      ],
      [
        "er",
        "s"
      ],
      [
        "Ġa",
        "s"
      ],
      [
        "u",
        "m"
      ],
      [
        "Ġ",
        "N"
      ],
      [
        "Ġe",
        "x"
      ],
      [
        "a",
        "in"
      ],
      [
        "Ġc",
        "om"
      ],
      [
        "en",
        "c"
      ],
      [
        "Ġ",
        "5"
      ],
      [
        "i",
        "es"
      ],
      [
        "e",
        "ar"
      ],
      [
        "m",
        "ent"
      ],
      [
        "d",
        "u"
      ],
      [
        "Ġ",
        "he"
      ],
      [
        "s",
        "ion"
      ],
      [
        "e",
        "t"
      ],
      [
        "re",
        "at"
      ],
      [
        "r",
        "on"
      ],
      [
        "ff",
        "ect"
      ],
      [
        "ul",
        "ar"
      ],
      [
        "v",
        "es"
      ],
      [
        "Ġin",
        "d"
      ],
      [
        "at",
        "es"
      ],
      [
        "e",
        "u"
      ],
      [
        "du",
        "c"
      ],
      [
        "Ġre",
        "g"
      ],
      [
        "Ġpati",
        "ents"
      ],
      [
        "H",
        "e"
      ],
      [
        "Ġs",
        "ur"
      ],
      [
        "i",
        "enc"
      ],
      [
        "Ġt",
        "reat"
      ],
      [
        "Ġ",
        "S"
      ],
      [
        "R",
        "es"
      ],
      [
        "Ġt",
        "h"
      ],
      [
        "in",
        "es"
      ],
      [
        "ak",
        "e"
      ],
      [
        "Ġh",
        "y"
      ],
      [
        "Ġtreat",
        "ment"
      ],
      [
        "it",
        "or"
      ],
      [
        "Ġ",
        "C"
      ],
      [
        "ffect",
        "s"
      ],
      [
        "Ġimp",
        "rov"
      ],
      [
        "Ġre",
        "duc"
      ],
      [
        "eu",
        "ro"
      ],
      [
        "He",
        "alth"
      ],
      [
        "ag",
        "ing"
      ],
      [
        "Ġsur",
        "g"
      ],
      [
        "b",
        "ed"
      ],
      [
        "c",
        "are"
      ],
      [
        "u",
        "s"
      ],
      [
        "escri",
        "bed"
      ],
      [
        "Ġreg",
        "ular"
      ],
      [
        "Ġman",
        "aging"
      ],
      [
        "r",
        "escribed"
      ],
      [
        "i",
        "l"
      ],
      [
        "u",
        "t"
      ],
      [
        "u",
        "n"
      ],
      [
        "o",
        "t"
      ],
      [
        "Ġ",
        "P"
      ],
      [
        "Ġ",
        "g"
      ],
      [
        "i",
        "v"
      ],
      [
        "it",
        "h"
      ],
      [
        "a",
        "m"
      ],
      [
        "Ġw",
        "ith"
      ],
      [
        "a",
        "b"
      ],
      [
        "s",
        "t"
      ],
      [
        "a",
        "d"
      ],
      [
        "Ġ",
        "on"
      ],
      [
        "it",
        "y"
      ],
      [
        "Ġ",
        "3"
      ],
      [
        "ĠT",
        "he"
      ],
      [
        "Ġ",
        "E"
      ],
      [
        "o",
        "c"
      ],
      [
        "o",
        "p"
      ],
      [
        "u",
        "d"
      ],
      [
        "Ġ",
        "G"
      ],
      [
        "t",
        "s"
      ],
      [
        "at",
        "e"
      ],
      [
        "a",
        "p"
      ],
      [
        "is",
        "t"
      ],
      [
        "o",
        "g"
      ],
      [
        "Ġ",
        "4"
      ],
      [
        "an",
        "d"
      ],
      [
        "at",
        "ed"
      ],
      [
        "u",
        "b"
      ],
      [
        "e",
        "f"
      ],
      [
        "Ġin",
        "t"
      ],
      [
        "Ġ",
        "O"
      ],
      [
        "Ġa",
        "re"
      ],
      [
        "p",
        "t"
      ],
      [
        "Ġ",
        "6"
      ],
      [
        "u",
        "g"
      ],
      [
        "i",
        "b"
      ],
      [
        "r",
        "an"
      ],
      [
        "Ġ",
        "("
      ],
      [
        "Ġc",
        "h"
      ],
      [
        "Ġcom",
        "p"
      ],
      [
        "ig",
        "n"
      ],
      [
        "as",
        "e"
      ],
      [
        "Ġs",
        "h"
      ],
      [
        "ation",
        "s"
      ],
      [
        "ion",
        "s"
      ],
      [
        "Ġa",
        "d"
      ],
      [
        "ĠT",
        "h"
      ],
      [
        "ar",
        "d"
      ],
      [
        "Ġcon",
        "t"
      ],
      [
        "u",
        "e"
      ],
      [
        "al",
        "l"
      ],
      [
        "Ġst",
        "ud"
      ],
      [
        "h",
        "ic"
      ],
      [
        "ar",
        "y"
      ],
      [
        "ag",
        "e"
      ],
      [
        "u",
        "al"
      ],
      [
        "Ġ",
        "V"
      ],
      [
        "ol",
        "og"
      ],
      [
        "l",
        "in"
      ],
      [
        "id",
        "e"
      ],
      [
        "a",
        "ch"
      ],
      [
        "l",
        "ic"
      ],
      [
        "ro",
        "l"
      ],
      [
        "ol",
        "l"
      ],
      [
        "em",
        "ent"
      ],
      [
        "us",
        "e"
      ],
      [
        "Ġin",
        "f"
      ],
      [
        "Ġs",
        "y"
      ],
      [
        "Ġas",
        "s"
      ],
      [
        "o",
        "b"
      ],
      [
        "is",
        "e"
      ],
      [
        "ran",
        "s"
      ],
      [
        "l",
        "u"
      ],
      [
        "Ġstud",
        "y"
      ],
      [
        "Ġs",
        "c"
      ],
      [
        "oc",
        "i"
      ],
      [
        "ĠA",
        "n"
      ],
      [
        "d",
        "it"
      ],
      [
        "a",
        "i"
      ],
      [
        "Ġo",
        "ut"
      ],
      [
        "at",
        "ing"
      ],
      [
        "Ġsh",
        "ow"
      ],
      [
        "Ġt",
        "im"
      ],
      [
        "ĠTh",
        "is"
      ],
      [
        "m",
        "un"
      ],
      [
        "st",
        "em"
      ],
      [
        "t",
        "en"
      ],
      [
        "olog",
        "y"
      ],
      [
        "ear",
        "ch"
      ],
      [
        "r",
        "ain"
      ],
      [
        "am",
        "e"
      ],
      [
        "Ġt",
        "rans"
      ],
      [
        "Ġ",
        "2"
      ],
      [
        "ff",
        "ic"
      ],
      [
        "ol",
        "d"
      ],
      [
        "y",
        "ear"
      ],
      [
        "ul",
        "ts"
      ],
      [
        "Ġ1",
        "5"
      ],
      [
        "v",
        "ol"
      ],
      [
        "ul",
        "ation"
      ],
      [
        "er",
        "c"
      ],
      [
        "Ġ",
        "ro"
      ],
      [
        "are",
        "d"
      ],
      [
        "Ġsy",
        "stem"
      ],
      [
        "t",
        "al"
      ],
      [
        "oll",
        "ow"
      ],
      [
        "il",
        "d"
      ],
      [
        "Ġ",
        "Res"
      ],
      [
        "v",
        "is"
      ],
      [
        "re",
        "ct"
      ],
      [
        "er",
        "ap"
      ],
      [
        "Ġp",
        "rov"
      ],
      [
        "Ġm",
        "on"
      ],
      [
        "h",
        "ib"
      ],
      [
        "F",
        "or"
      ],
      [
        "Ġhe",
        "alth"
      ],
      [
        "Ġf",
        "ollow"
      ],
      [
        "lin",
        "ical"
      ],
      [
        "os",
        "p"
      ],
      [
        "pt",
        "ion"
      ],
      [
        "Ġind",
        "ic"
      ],
      [
        "Ġex",
        "per"
      ],
      [
        "Ġre",
        "m"
      ],
      [
        "Ġcont",
        "rol"
      ],
      [
        "it",
        "al"
      ],
      [
        "h",
        "ar"
      ],
      [
        "a",
        "use"
      ],
      [
        "M",
        "ed"
      ],
      [
        "Ġass",
        "oci"
      ],
      [
        "ves",
        "t"
      ],
      [
        "P",
        "ub"
      ],
      [
        "Ġs",
        "m"
      ],
      [
        "Ġw",
        "a"
      ],
      [
        "in",
        "ation"
      ],
      [
        "id",
        "ual"
      ],
      [
        "Ġ1",
        "00"
      ],
      [
        "um",
        "or"
      ],
      [
        "r",
        "ug"
      ],
      [
        "he",
        "t"
      ],
      [
        "m",
        "is"
      ],
      [
        "im",
        "it"
      ],
      [
        "Ġ5",
        "0"
      ],
      [
        "Ġcomp",
        "ared"
      ],
      [
        "iv",
        "idual"
      ],
      [
        "ac",
        "c"
      ],
      [
        "Ġcon",
        "dit"
      ],
      [
        "Ġp",
        "op"
      ],
      [
        "vest",
        "ig"
      ],
      [
        "Ġth",
        "erap"
      ],
      [
        "Ġprov",
        "id"
      ],
      [
        "Ġassoci",
        "ated"
      ],
      [
        "Ġp",
        "ers"
      ],
      [
        "Ġ4",
        "0"
      ],
      [
        "Ġ",
        "Health"
      ],
      [
        "Ġind",
        "ividual"
      ],
      [
        "p",
        "at"
      ],
      [
        "Ġpati",
        "ent"
      ],
      [
        "el",
        "i"
      ],
      [
        "Ġdi",
        "rect"
      ],
      [
        "Ġst",
        "and"
      ],
      [
        "Ġl",
        "imit"
      ],
      [
        "Ġin",
        "vol"
      ],
      [
        "Ġin",
        "hib"
      ],
      [
        "Ġt",
        "umor"
      ],
      [
        "Ġ3",
        "5"
      ],
      [
        "R",
        "I"
      ],
      [
        "osp",
        "ital"
      ],
      [
        "u",
        "id"
      ],
      [
        "Ġin",
        "vestig"
      ],
      [
        "em",
        "ents"
      ],
      [
        "Ġsm",
        "all"
      ],
      [
        "Ġcondit",
        "ions"
      ],
      [
        "Ġinf",
        "lu"
      ],
      [
        "har",
        "m"
      ],
      [
        "Ġm",
        "as"
      ],
      [
        "en",
        "z"
      ],
      [
        "Ġstand",
        "ard"
      ],
      [
        "A",
        "n"
      ],
      [
        "Ġcom",
        "mun"
      ],
      [
        "ab",
        "et"
      ],
      [
        "ron",
        "ic"
      ],
      [
        "Ġe",
        "ffic"
      ],
      [
        "p",
        "ot"
      ],
      [
        "mis",
        "sion"
      ],
      [
        "Ġb",
        "en"
      ],
      [
        "Ġpop",
        "ulation"
      ],
      [
        "Ġexper",
        "ienc"
      ],
      [
        "um",
        "m"
      ],
      [
        "c",
        "em"
      ],
      [
        "Ġ6",
        "5"
      ],
      [
        "Ġs",
        "ch"
      ],
      [
        "Ġimp",
        "l"
      ],
      [
        "ist",
        "ent"
      ],
      [
        "harm",
        "ac"
      ],
      [
        "er",
        "ies"
      ],
      [
        "Ġo",
        "per"
      ],
      [
        "Ġp",
        "ain"
      ],
      [
        "Ġhy",
        "per"
      ],
      [
        "C",
        "E"
      ],
      [
        "ienc",
        "y"
      ],
      [
        "Ġtim",
        "es"
      ],
      [
        "Ġn",
        "euro"
      ],
      [
        "ĠN",
        "euro"
      ],
      [
        "abet",
        "es"
      ],
      [
        "Ġb",
        "rain"
      ],
      [
        "Ġshow",
        "s"
      ],
      [
        "Ġt",
        "ake"
      ],
      [
        "re",
        "ak"
      ],
      [
        "Ġ",
        "ur"
      ],
      [
        "Ġhe",
        "ad"
      ],
      [
        "ov",
        "el"
      ],
      [
        "b",
        "an"
      ],
      [
        "Ġrem",
        "ov"
      ],
      [
        "Ġinhib",
        "itor"
      ],
      [
        "z",
        "z"
      ],
      [
        "Ġh",
        "ospital"
      ],
      [
        "ines",
        "s"
      ],
      [
        "Ġfollow",
        "ed"
      ],
      [
        "ach",
        "es"
      ],
      [
        "Ġindic",
        "ate"
      ],
      [
        "uid",
        "el"
      ],
      [
        "Ġcommun",
        "ity"
      ],
      [
        "Ġch",
        "ronic"
      ],
      [
        "ten",
        "sion"
      ],
      [
        "Ġreduc",
        "e"
      ],
      [
        "Ġin",
        "n"
      ],
      [
        "Ġn",
        "ovel"
      ],
      [
        "Ġdi",
        "abetes"
      ],
      [
        "Ġmon",
        "itor"
      ],
      [
        "g",
        "ue"
      ],
      [
        "Ġsurg",
        "ical"
      ],
      [
        "Ġro",
        "om"
      ],
      [
        "uidel",
        "ines"
      ],
      [
        "erc",
        "ise"
      ],
      [
        "ai",
        "ly"
      ],
      [
        "Ġhy",
        "pot"
      ],
      [
        "Ġhealth",
        "care"
      ],
      [
        "Ġg",
        "ly"
      ],
      [
        "vis",
        "ed"
      ],
      [
        "Ġsc",
        "an"
      ],
      [
        "Ġeffic",
        "iency"
      ],
      [
        "%",
        "."
      ],
      [
        "ĠRes",
        "ults"
      ],
      [
        "Ġf",
        "ron"
      ],
      [
        "Ġ5",
        "00"
      ],
      [
        "D",
        "rug"
      ],
      [
        "Ġmonitor",
        "ing"
      ],
      [
        "Ġd",
        "aily"
      ],
      [
        "Ġex",
        "ercise"
      ],
      [
        "Ġint",
        "ake"
      ],
      [
        "ĠE",
        "ffects"
      ],
      [
        "umm",
        "ary"
      ],
      [
        "Ġs",
        "alt"
      ],
      [
        "Ġimprov",
        "ement"
      ],
      [
        "ed",
        "ul"
      ],
      [
        "Ġinhibitor",
        "s"
      ],
      [
        "Ġhyper",
        "tension"
      ],
      [
        "Ġtrans",
        "mission"
      ],
      [
        "escri",
        "ption"
      ],
      [
        "ĠM",
        "RI"
      ],
      [
        "ĠC",
        "ase"
      ],
      [
        "b",
        "reak"
      ],
      [
        "Ġremov",
        "al"
      ],
      [
        "Ġinn",
        "ov"
      ],
      [
        "Ġinvol",
        "ves"
      ],
      [
        "Ġreduc",
        "es"
      ],
      [
        "acc",
        "ination"
      ],
      [
        "Ġtherap",
        "ies"
      ],
      [
        "Ġwa",
        "it"
      ],
      [
        "Ġur",
        "ban"
      ],
      [
        "ati",
        "gue"
      ],
      [
        "Ġexperienc",
        "es"
      ],
      [
        "Res",
        "earch"
      ],
      [
        "Ġa",
        "ffects"
      ],
      [
        "ob",
        "e"
      ],
      [
        "Ġsch",
        "edul"
      ],
      [
        "Ġoper",
        "ating"
      ],
      [
        "Ġf",
        "atigue"
      ],
      [
        "Ġimprov",
        "es"
      ],
      [
        "enz",
        "a"
      ],
      [
        "eli",
        "ef"
      ],
      [
        "C",
        "linical"
      ],
      [
        "Ġprovid",
        "ers"
      ],
      [
        "Ġman",
        "d"
      ],
      [
        "Ġm",
        "g"
      ],
      [
        "Ġpers",
        "istent"
      ],
      [
        "Ġmas",
        "k"
      ],
      [
        "os",
        "age"
      ],
      [
        "Ġdirect",
        "ed"
      ],
      [
        "Ġout",
        "break"
      ],
      [
        "harmac",
        "ology"
      ],
      [
        "cem",
        "ic"
      ],
      [
        "Ġinflu",
        "enza"
      ],
      [
        "ĠO",
        "per"
      ],
      [
        "Med",
        "ical"
      ],
      [
        "Ġinnov",
        "ation"
      ],
      [
        "ĠG",
        "uidelines"
      ],
      [
        "Ġneuro",
        "pat"
      ],
      [
        "ĠS",
        "ummary"
      ],
      [
        "Ġben",
        "ign"
      ],
      [
        "Ġp",
        "rescribed"
      ],
      [
        "Ġfron",
        "tal"
      ],
      [
        "Ġregular",
        "ly"
      ],
      [
        "ĠA",
        "CE"
      ],
      [
        "ause",
        "a"
      ],
      [
        "D",
        "escription"
      ],
      [
        "Ġl",
        "obe"
      ],
      [
        "Ġsurg",
        "eries"
      ],
      [
        "Pub",
        "lic"
      ],
      [
        "ĠN",
        "ame"
      ],
      [
        "Ġn",
        "ausea"
      ],
      [
        "Ġgly",
        "cemic"
      ],
      [
        "het",
        "ical"
      ],
      [
        "Ġad",
        "vised"
      ],
      [
        "ĠM",
        "ild"
      ],
      [
        "Ġneuropat",
        "hic"
      ],
      [
        "Ġimpl",
        "ements"
      ],
      [
        "Ġhypot",
        "hetical"
      ],
      [
        "Ġinvestig",
        "ates"
      ],
      [
        "Ġschedul",
        "ing"
      ],
      [
        "ĠOper",
        "ations"
      ],
      [
        "ĠV",
        "accination"
      ],
      [
        "Ġhead",
        "aches"
      ],
      [
        "Health",
        "care"
      ],
      [
        "zz",
        "iness"
      ],
      [
        "R",
        "elief"
      ],
      [
        "Ġdi",
        "zziness"
      ],
      [
        "D",
        "osage"
      ],
      [
        "S",
        "ide"
      ],
      [
        "Ġmand",
        "ates"
      ],
      [
        "P",
        "harmacology"
      ],
      [
        "ĠP",
        "rescribed"
      ],
      [
        "ĠNeuro",
        "Relief"
      ],
      [
        "l",
        "e"
      ],
      [
        "â",
        "Ģ"
      ],
      [
        "r",
        "es"
      ],
      [
        "Ġ",
        "I"
      ],
      [
        "Ġ",
        "B"
      ],
      [
        ".",
        ";"
      ],
      [
        "o",
        "d"
      ],
      [
        "Ġ",
        "D"
      ],
      [
        "Ġ",
        "is"
      ],
      [
        "e",
        "re"
      ],
      [
        "t",
        "h"
      ],
      [
        "Ġa",
        "l"
      ],
      [
        "Ġ",
        "R"
      ],
      [
        "0",
        "2"
      ],
      [
        "e",
        "c"
      ],
      [
        "i",
        "f"
      ],
      [
        "Ġ",
        "F"
      ],
      [
        "Ġ",
        "v"
      ],
      [
        "Ġ",
        "L"
      ],
      [
        "Ġ",
        "H"
      ],
      [
        "0",
        "1"
      ],
      [
        "Ġp",
        "ro"
      ],
      [
        "Ġth",
        "at"
      ],
      [
        "c",
        "e"
      ],
      [
        "v",
        "e"
      ],
      [
        "a",
        "y"
      ],
      [
        "u",
        "re"
      ],
      [
        "Ġ",
        "["
      ],
      [
        "âĢ",
        "ĵ"
      ],
      [
        "a",
        "ct"
      ],
      [
        "Ġ",
        "J"
      ],
      [
        "i",
        "r"
      ],
      [
        "Ġ",
        "0"
      ],
      [
        "t",
        "er"
      ],
      [
        "e",
        "v"
      ],
      [
        "Ġb",
        "e"
      ],
      [
        "Ġw",
        "as"
      ],
      [
        "Ġ",
        "r"
      ],
      [
        "Ġ",
        "W"
      ],
      [
        "u",
        "p"
      ],
      [
        "an",
        "t"
      ],
      [
        "el",
        "l"
      ],
      [
        "es",
        "s"
      ],
      [
        "ro",
        "m"
      ],
      [
        "es",
        "t"
      ],
      [
        "i",
        "al"
      ],
      [
        "Ġ",
        "res"
      ],
      [
        ")",
        "."
      ],
      [
        "ig",
        "h"
      ],
      [
        "1",
        "0"
      ],
      [
        "Ġ",
        "8"
      ],
      [
        "Ġ",
        "at"
      ],
      [
        "un",
        "d"
      ],
      [
        "Ġ",
        "or"
      ],
      [
        "o",
        "re"
      ],
      [
        "ĠI",
        "n"
      ],
      [
        "Ġ",
        "9"
      ],
      [
        "iv",
        "e"
      ],
      [
        "Ġ",
        "7"
      ],
      [
        "i",
        "z"
      ],
      [
        "Ġ",
        "it"
      ],
      [
        "q",
        "u"
      ],
      [
        "p",
        "l"
      ],
      [
        "Ġw",
        "ere"
      ],
      [
        "or",
        "t"
      ],
      [
        "Ġ",
        "K"
      ],
      [
        "Ġf",
        "rom"
      ],
      [
        "ar",
        "t"
      ],
      [
        "1",
        "1"
      ],
      [
        "Ġ2",
        "02"
      ],
      [
        "e",
        "p"
      ],
      [
        "y",
        "s"
      ],
      [
        "Ġw",
        "h"
      ],
      [
        "i",
        "p"
      ],
      [
        "il",
        "l"
      ],
      [
        "an",
        "g"
      ],
      [
        "i",
        "a"
      ],
      [
        "e",
        "w"
      ],
      [
        "en",
        "s"
      ],
      [
        "in",
        "e"
      ],
      [
        "or",
        "m"
      ],
      [
        "s",
        "s"
      ],
      [
        "Ġ",
        "us"
      ],
      [
        "Ġin",
        "c"
      ],
      [
        "o",
        "ur"
      ],
      [
        "ab",
        "le"
      ],
      [
        ")",
        ","
      ],
      [
        "if",
        "ic"
      ],
      [
        "Ġa",
        "c"
      ],
      [
        "Ġ",
        "y"
      ],
      [
        "Ġ",
        "U"
      ],
      [
        "1",
        "2"
      ],
      [
        "as",
        "t"
      ],
      [
        "Ġe",
        "t"
      ],
      [
        "Ġc",
        "an"
      ],
      [
        "Ġth",
        "is"
      ],
      [
        "Ġp",
        "re"
      ],
      [
        "Ġs",
        "p"
      ],
      [
        "i",
        "o"
      ],
      [
        "r",
        "a"
      ],
      [
        "Ġn",
        "ot"
      ],
      [
        ".",
        ","
      ],
      [
        "t",
        "e"
      ],
      [
        "en",
        "d"
      ],
      [
        "os",
        "t"
      ],
      [
        "ul",
        "t"
      ],
      [
        "a",
        "ve"
      ],
      [
        "1",
        "3"
      ],
      [
        "Ġ",
        "Y"
      ],
      [
        "an",
        "ce"
      ],
      [
        "n",
        "t"
      ],
      [
        "v",
        "er"
      ],
      [
        "Ġw",
        "e"
      ],
      [
        "1",
        "5"
      ],
      [
        "p",
        "p"
[...]
