{
  "version": "1.0",
  "truncation": null,
  "padding": null,
  "added_tokens": [
    {
      "id": 0,
      "content": "[PAD]",
      "single_word": false,
      "lstrip": false,
      "rstrip": false,
      "normalized": false,
      "special": true
    },
    {
      "id": 1,
      "content": "[UNK]",
      "single_word": false,
      "lstrip": false,
      "rstrip": false,
      "normalized": false,
      "special": true
    },
    {
      "id": 2,
      "content": "[CLS]",
      "single_word": false,
      "lstrip": false,
      "rstrip": false,
      "normalized": false,
      "special": true
    },
    {
      "id": 3,
      "content": "[SEP]",
      "single_word": false,
      "lstrip": false,
      "rstrip": false,
      "normalized": false,
      "special": true
    },
    {
      "id": 4,
      "content": "[MASK]",
      "single_word": false,
      "lstrip": false,
      "rstrip": false,
      "normalized": false,
      "special": true
    },
    {
      "id": 5,
      "content": "[BOS]",
      "single_word": false,
      "lstrip": false,
      "rstrip": false,
      "normalized": false,
      "special": true
    },
    {
      "id": 6,
      "content": "[EOS]",
      "single_word": false,
      "lstrip": false,
      "rstrip": false,
      "normalized": false,
      "special": true
    }
  ],
  "normalizer": null,
  "pre_tokenizer": {
    "type": "ByteLevel",
    "add_prefix_space": true,
    "trim_offsets": true,
    "use_regex": true
  },
  "post_processor": null,
  "decoder": null,
  "model": {
    "type": "BPE",
    "dropout": null,
    "unk_token": null,
    "continuing_subword_prefix": null,
    "end_of_word_suffix": null,
    "fuse_unk": false,
    "byte_fallback": false,
    "ignore_merges": false,
    "vocab": {
      "[PAD]": 0,
      "[UNK]": 1,
      "[CLS]": 2,
      "[SEP]": 3,
      "[MASK]": 4,
      "[BOS]": 5,
      "[EOS]": 6,
      "!": 7,
      "\"": 8,
      "#": 9,
      "$": 10,
      "%": 11,
      "&": 12,
      "'": 13,
      "(": 14,
      ")": 15,
      "*": 16,
      "+": 17,
      ",": 18,
      "-": 19,
      ".": 20,
      "/": 21,
      "0": 22,
      "1": 23,
      "2": 24,
      "3": 25,
      "4": 26,
      "5": 27,
      "6": 28,
      "7": 29,
      "8": 30,
      "9": 31,
      ":": 32,
      ";": 33,
      "<": 34,
      "=": 35,
      ">": 36,
      "?": 37,
      "@": 38,
      "A": 39,
      "B": 40,
      "C": 41,
      "D": 42,
      "E": 43,
      "F": 44,
      "G": 45,
      "H": 46,
      "I": 47,
      "J": 48,
      "K": 49,
      "L": 50,
      "M": 51,
      "N": 52,
      "O": 53,
      "P": 54,
      "Q": 55,
      "R": 56,
      "S": 57,
      "T": 58,
      "U": 59,
      "V": 60,
      "W": 61,
      "X": 62,
      "Y": 63,
      "Z": 64,
      "[": 65,
      "\\": 66,
      "]": 67,
      "^": 68,
      "_": 69,
      "`": 70,
      "a": 71,
      "b": 72,
      "c": 73,
      "d": 74,
      "e": 75,
      "f": 76,
      "g": 77,
      "h": 78,
      "i": 79,
      "j": 80,
      "k": 81,
      "l": 82,
      "m": 83,
      "n": 84,
      "o": 85,
      "p": 86,
      "q": 87,
      "r": 88,
      "s": 89,
      "t": 90,
      "u": 91,
      "v": 92,
      "w": 93,
      "x": 94,
      "y": 95,
      "z": 96,
      "{": 97,
      "|": 98,
      "}": 99,
      "~": 100,
      "¡": 101,
      "¢": 102,
      "£": 103,
      "¤": 104,
      "¥": 105,
      "¦": 106,
      "§": 107,
      "¨": 108,
      "©": 109,
      "ª": 110,
      "«": 111,
      "¬": 112,
      "®": 113,
      "¯": 114,
      "°": 115,
      "±": 116,
      "²": 117,
      "³": 118,
      "´": 119,
      "µ": 120,
      "¶": 121,
      "·": 122,
      "¸": 123,
      "¹": 124,
      "º": 125,
      "»": 126,
      "¼": 127,
      "½": 128,
      "¾": 129,
      "¿": 130,
      "Â": 131,
      "Ã": 132,
      "Ä": 133,
      "Å": 134,
      "Æ": 135,
      "Ç": 136,
      "È": 137,
      "É": 138,
      "Ê": 139,
      "Ë": 140,
      "Ì": 141,
      "Í": 142,
      "Î": 143,
      "Ï": 144,
      "Ð": 145,
      "Ñ": 146,
      "Ó": 147,
      "Õ": 148,
      "Ö": 149,
      "×": 150,
      "Ø": 151,
      "Ù": 152,
      "Ú": 153,
      "Û": 154,
      "à": 155,
      "á": 156,
      "â": 157,
      "ã": 158,
      "ä": 159,
      "å": 160,
      "æ": 161,
      "ç": 162,
      "è": 163,
      "é": 164,
      "ê": 165,
      "ë": 166,
      "ì": 167,
      "í": 168,
      "î": 169,
      "ï": 170,
      "ð": 171,
      "ā": 172,
      "ă": 173,
      "Ą": 174,
      "Ć": 175,
      "Ċ": 176,
      "Ĕ": 177,
      "Ġ": 178,
      "ġ": 179,
      "Ģ": 180,
      "ģ": 181,
      "Ĥ": 182,
      "ĥ": 183,
      "Ħ": 184,
      "ħ": 185,
      "Ĩ": 186,
      "ĩ": 187,
      "Ī": 188,
      "ī": 189,
      "Ĭ": 190,
      "ĭ": 191,
      "Į": 192,
      "į": 193,
      "İ": 194,
      "ı": 195,
      "Ĳ": 196,
      "ĳ": 197,
      "Ĵ": 198,
      "ĵ": 199,
      "Ķ": 200,
      "ķ": 201,
      "ĸ": 202,
      "Ĺ": 203,
      "ĺ": 204,
      "Ļ": 205,
      "ļ": 206,
      "Ľ": 207,
      "ľ": 208,
      "Ŀ": 209,
      "ŀ": 210,
      "Ł": 211,
      "ł": 212,
      "Ń": 213,
      "Ġt": 214,
      "Ġa": 215,
      "he": 216,
      "in": 217,
      "re": 218,
      "Ġthe": 219,
      "on": 220,
      "er": 221,
      "Ġs": 222,
      "at": 223,
      "Ġw": 224,
      "Ġo": 225,
      "en": 226,
      "Ġc": 227,
      "it": 228,
      "is": 229,
      "or": 230,
      "an": 231,
      "Ġb": 232,
      "es": 233,
      "Ġp": 234,
      "Ġf": 235,
      "ed": 236,
      "ing": 237,
      "al": 238,
      "Ġan": 239,
      "ou": 240,
      "ar": 241,
      "Ġto": 242,
      "Ġof": 243,
      "Ġin": 244,
      "Ġm": 245,
      "Ġd": 246,
      "ic": 247,
      "Ġand": 248,
      "Ġh": 249,
      "as": 250,
      "Ġth": 251,
      "âĢ": 252,
      "le": 253,
      "om": 254,
      "ion": 255,
      "ent": 256,
      "Ġn": 257,
      "Ġl": 258,
      "ll": 259,
      "Ġre": 260,
      "st": 261,
      "ve": 262,
      "ro": 263,
      "ly": 264,
      "Ġe": 265,
      "id": 266,
      "Ġbe": 267,
      "Ġg": 268,
      "ac": 269,
      "ut": 270,
      "ot": 271,
      "Ġis": 272,
      "ĠT": 273,
      "se": 274,
      "ĠI": 275,
      "Ġon": 276,
      "Ġthat": 277,
      "ig": 278,
      "ay": 279,
      "im": 280,
      "ad": 281,
      "Ġfor": 282,
      "ow": 283,
      "am": 284,
      "et": 285,
      "ĠS": 286,
      "ct": 287,
      "ver": 288,
      "ur": 289,
      "âĢĻ": 290,
      "ĠA": 291,
      "Ġu": 292,
      "ld": 293,
      "Ġst": 294,
      "ĠC": 295,
      "Ġhe": 296,
      "ter": 297,
      "Ġit": 298,
      "ation": 299,
      "Ġy": 300,
      "ith": 301,
      "ir": 302,
      "Ġwh": 303,
      "ce": 304,
      "ol": 305,
      "Ġwith": 306,
      "Ġas": 307,
      "ĠM": 308,
      "il": 309,
      "Ġwe": 310,
      "ch": 311,
      "nd": 312,
      "ĠB": 313,
      "ill": 314,
      "Ġcon": 315,
      "Ġr": 316,
      "ers": 317,
      "us": 318,
      "ag": 319,
      "ul": 320,
      "Ġde": 321,
      "Ġwas": 322,
      "ke": 323,
      "if": 324,
      "ĠP": 325,
      "Ġyou": 326,
      "ate": 327,
      "her": 328,
      "ĠâĢ": 329,
      "Ġat": 330,
      "Ġpro": 331,
      "Ġare": 332,
      "um": 333,
      "op": 334,
      "Ġse": 335,
      "Ġha": 336,
      "ore": 337,
      "Ġfr": 338,
      "ain": 339,
      "Ġcom": 340,
      "ĠR": 341,
      "ist": 342,
      "ĠThe": 343,
      "est": 344,
      "pp": 345,
      "and": 346,
      "Ġ(": 347,
      "ĠW": 348,
      "ment": 349,
      "ĠH": 350,
      "ri": 351,
      "od": 352,
      "igh": 353,
      "os": 354,
      "Ġne": 355,
      "ĠD": 356,
      "th": 357,
      "Ġor": 358,
      "Ġv": 359,
      "Ġex": 360,
      "res": 361,
      "un": 362,
      "Ġ1": 363,
      "Ġ2": 364,
      "ess": 365,
      "Ġsu": 366,
      "ĠF": 367,
      "em": 368,
      "Ġby": 369,
      "Ġnot": 370,
      "ity": 371,
      "ab": 372,
      "Ġfrom": 373,
      "oc": 374,
      "ould": 375,
      "âĢĿ": 376,
      "ant": 377,
      "ort": 378,
      "Ġhave": 379,
      "ive": 380,
      "art": 381,
      "Ġal": 382,
      "ĠN": 383,
      "ĠG": 384,
      "el": 385,
      "Ġsh": 386,
      "end": 387,
      "pe": 388,
      "'s": 389,
      "Ġle": 390,
      "nt": 391,
      "qu": 392,
      "ies": 393,
      "Ġthis": 394,
      "Ġch": 395,
      "ight": 396,
      "The": 397,
      "Ġab": 398,
      "ĠL": 399,
      "all": 400,
      "ust": 401,
      "ally": 402,
      "ost": 403,
      "Ġsa": 404,
      "red": 405,
      "ap": 406,
      "out": 407,
      "iv": 408,
      "ome": 409,
      "Ġtr": 410,
      "ack": 411,
      "ie": 412,
      "ĠE": 413,
      "Ġpl": 414,
      "gh": 415,
      "ĠâĢľ": 416,
      "ast": 417,
      "ard": 418,
      "Ġj": 419,
      "Ġhas": 420,
      "Ġcan": 421,
      "ĠJ": 422,
      "Ġgo": 423,
      "ud": 424,
      "our": 425,
      "Ġhis": 426,
      "rou": 427,
      "ear": 428,
      "ĠO": 429,
      "ial": 430,
      "ich": 431,
      "ge": 432,
      "Ġdo": 433,
      "00": 434,
      "ak": 435,
      "Ġthey": 436,
      "Ġwor": 437,
      "Ġk": 438,
      "Ġint": 439,
      "Ġwhe": 440,
      "ide": 441,
      "Ġsaid": 442,
      "Ġbut": 443,
      "Ġall": 444,
      "ect": 445,
      "Ġwill": 446,
      "pt": 447,
      "ans": 448,
      "ther": 449,
      "age": 450,
      "ous": 451,
      "ure": 452,
      "ok": 453,
      "ĠU": 454,
      "ine": 455,
      "Ġwho": 456,
      "pl": 457,
      "Ġ\"": 458,
      "Ġout": 459,
      "ions": 460,
      "ong": 461,
      "ated": 462,
      "Ġad": 463,
      "ice": 464,
      "ff": 465,
      "act": 466,
      "one": 467,
      "ame": 468,
      "Ġtheir": 469,
      "ib": 470,
      "Ġmore": 471,
      "per": 472,
      "ike": 473,
      "Ġme": 474,
      "ia": 475,
      "og": 476,
      "Ġup": 477,
      "Ġus": 478,
      "Ġwhich": 479,
      "ra": 480,
      "ary": 481,
      "##": 482,
      "!!": 483,
      "cl": 484,
      "ĠIn": 485,
      "ub": 486,
      "cc": 487,
      "Ġabout": 488,
      "Ġcont": 489,
      "Ġim": 490,
      "Ġso": 491,
      "Ġcl": 492,
      "Ġone": 493,
      "ue": 494,
      "ep": 495,
      "iz": 496,
      "Ġwere": 497,
      "are": 498,
      "Ġcomp": 499,
      "Ġar": 500,
      "Ġhad": 501,
      "ime": 502,
      "ind": 503,
      "so": 504,
      "ace": 505,
      "Ġwould": 506,
      "Ġag": 507,
      "ake": 508,
      "ign": 509,
      "Ġun": 510,
      "au": 511,
      "ip": 512,
      "ĠK": 513,
      "Ġen": 514,
      "Ġoff": 515,
      "very": 516,
      "ĠTh": 517,
      "Ġ20": 518,
      "Ġbeen": 519,
      "ere": 520,
      "Ġte": 521,
      "Ġper": 522,
      "ass": 523,
      "ical": 524,
      "ose": 525,
      "Ġsp": 526,
      "ord": 527,
      "ven": 528,
      "Ġres": 529,
      "ber": 530,
      "Ġdis": 531,
      "ĠSt": 532,
      "Ġman": 533,
      "Ġlike": 534,
      "Ġyear": 535,
      "ew": 536,
      "orm": 537,
      "ations": 538,
      "ays": 539,
      "Ġother": 540,
      "ite": 541,
      "Ġsome": 542,
      "ook": 543,
      "ence": 544,
      "able": 545,
      "int": 546,
      "Ġpe": 547,
      "ress": 548,
      "ire": 549,
      "ach": 550,
      "ile": 551,
      "ry": 552,
      "Ġalso": 553,
      "Ġpart": 554,
      "ult": 555,
      "av": 556,
      "Ġover": 557,
      "ance": 558,
      "ase": 559,
      "Ġthere": 560,
      "ru": 561,
      "Ġapp": 562,
      "ks": 563,
      "own": 564,
      "ough": 565,
      "reat": 566,
      "ree": 567,
      "ople": 568,
      "Ġher": 569,
      "ens": 570,
      "ond": 571,
      "Ġsc": 572,
      "Ġbec": 573,
      "fter": 574,
      "Ġthan": 575,
      "mer": 576,
      "Ġnew": 577,
      "Ġthem": 578,
      "ount": 579,
      "Ġwhen": 580,
      "vel": 581,
      "Ġinto": 582,
      "port": 583,
      "Ġits": 584,
      "ĠIt": 585,
      "Ġpr": 586,
      "ail": 587,
      "Ġ201": 588,
      "Ġwhat": 589,
      "ction": 590,
      "ors": 591,
      "Ġqu": 592,
      "Ġkn": 593,
      "Ġrec": 594,
      "ition": 595,
      "Ġany": 596,
      "Ġjust": 597,
      "Ġyour": 598,
      "ang": 599,
      "Ġtw": 600,
      "Ġpeople": 601,
      "du": 602,
      "ory": 603,
      "Ġtime": 604,
      "Ġif": 605,
      "ents": 606,
      "ĠCh": 607,
      "ĠY": 608,
      "ound": 609,
      ".âĢĿ": 610,
      "Ġ3": 611,
      "ings": 612,
      "ian": 613,
      "Ġmy": 614,
      "ob": 615,
      "lic": 616,
      "Ġpre": 617,
      "irst": 618,
      "te": 619,
      "Ġget": 620,
      "ĠV": 621,
      "ove": 622,
      "ates": 623,
      "Ġno": 624,
      "Ġro": 625,
      "ick": 626,
      "wn": 627,
      "Ġwork": 628,
      "ause": 629,
      "Ġshe": 630,
      "Ġour": 631,
      "ell": 632,
      "ater": 633,
      "ior": 634,
      "erv": 635,
      "Ġbl": 636,
      "Ġinf": 637,
      "Ġ-": 638,
      "ade": 639,
      "Ġco": 640,
      "nder": 641,
      "Ġafter": 642,
      "Ġpol": 643,
      "ink": 644,
      "Ġatt": 645,
      "Ġbet": 646,
      "ild": 647,
      "Ġhow": 648,
      "ft": 649,
      "ne": 650,
      "Ġcomm": 651,
      "aw": 652,
      "ious": 653,
      "ons": 654,
      "Ġcould": 655,
      "Ġpo": 656,
      "vers": 657,
      "Ġtwo": 658,
      "amp": 659,
      "hing": 660,
      "ident": 661,
      "Ġacc": 662,
      ",âĢĿ": 663,
      "ark": 664,
      "Ġfirst": 665,
      "rough": 666,
      "rit": 667,
      "Ġplay": 668,
      "hat": 669,
      "we": 670,
      "hed": 671,
      "Ġact": 672,
      "Ġhim": 673,
      "ov": 674,
      "Ġspe": 675,
      "iss": 676,
      "Ġonly": 677,
      "ood": 678,
      "clud": 679,
      "Ġsy": 680,
      "ck": 681,
      "###": 682,
      ").": 683,
      "Ġinter": 684,
      "ict": 685,
      "anc": 686,
      "'t": 687,
      "ĠHe": 688,
      "Ġmost": 689,
      "!!!!": 690,
      "ning": 691,
      "round": 692,
      "Ġback": 693,
      "Ġfe": 694,
      "Ġinc": 695,
      "iff": 696,
      "ish": 697,
      "ular": 698,
      "Ġunder": 699,
      "âĢľ": 700,
      "Ġ19": 701,
      ".\"": 702,
      "Ġdes": 703,
      "sel": 704,
      "Ġmay": 705,
      "Ġ4": 706,
      "ual": 707,
      "Ġinv": 708,
      "Ġbr": 709,
      "Ġcons": 710,
      "Ġagain": 711,
      "Ġam": 712,
      "Ġind": 713,
      "oss": 714,
      "ise": 715,
      "ull": 716,
      "Ġdid": 717,
      "pect": 718,
      "Ġinclud": 719,
      "Ġsupp": 720,
      "oy": 721,
      "Ġthese": 722,
      "Ġsec": 723,
      "Ġthrough": 724,
      "inal": 725,
      "Ġsur": 726,
      "Ġwant": 727,
      "Ġeven": 728,
      "old": 729,
      "Ġneed": 730,
      "Ġbecause": 731,
      "Ġ5": 732,
      "man": 733,
      "ting": 734,
      "Ġfl": 735,
      "Ġadd": 736,
      "Ġ$": 737,
      "Ġyears": 738,
      "Ġnow": 739,
      "fore": 740,
      "In": 741,
      "day": 742,
      "ublic": 743,
      "Ġknow": 744,
      "ĠâĢĵ": 745,
      "ec": 746,
      "Ġsee": 747,
      "Ġreg": 748,
      "Ġright": 749,
      "ath": 750,
      "Ġem": 751,
      "ock": 752,
      "enc": 753,
      "Ġshould": 754,
      "ĠâĢĶ": 755,
      "vern": 756,
      "ject": 757,
      "Ġwhere": 758,
      "uch": 759,
      ",\"": 760,
      "Ġevery": 761,
      "ating": 762,
      "Ġdiff": 763,
      "oll": 764,
      "ational": 765,
      "Ġev": 766,
      "urn": 767,
      "ont": 768,
      "ased": 769,
      "Ġph": 770,
      "row": 771,
      "Ġmake": 772,
      "Ġrel": 773,
      "Ġend": 774,
      "ĠWe": 775,
      "xt": 776,
      "Ġass": 777,
      "rib": 778,
      "ied": 779,
      "..": 780,
      "Ġdef": 781,
      "ific": 782,
      "ower": 783,
      "ump": 784,
      "Ġrem": 785,
      "ren": 786,
      "Ġthen": 787,
      "Ġpres": 788,
      "ily": 789,
      "arg": 790,
      "put": 791,
      "uring": 792,
      "ics": 793,
      "lect": 794,
      "Ġway": 795,
      "Ġdec": 796,
      "ative": 797,
      "Ġcall": 798,
      "oth": 799,
      "ss": 800,
      "Ġbeing": 801,
      "ities": 802,
      "ĠUn": 803,
      "Ġdon": 804,
      "hen": 805,
      "ert": 806,
      "ĠThis": 807,
      "Ġmany": 808,
      "Ġbu": 809,
      "ĠBut": 810,
      "ĠAnd": 811,
      "Ġsub": 812,
      "ments": 813,
      "Ġimp": 814,
      "Ġmed": 815,
      "Ġthink": 816,
      "iew": 817,
      "ible": 818,
      "olog": 819,
      "Ġlook": 820,
      "other": 821,
      "pon": 822,
      "ph": 823,
      "ited": 824,
      "ĠTr": 825,
      "),": 826,
      "Ġac": 827,
      "Ġmon": 828,
      "Ġsm": 829,
      "ween": 830,
      "aking": 831,
      "Ġsuch": 832,
      "Ġdoes": 833,
      "ys": 834,
      "ues": 835,
      "Ġuse": 836,
      "ures": 837,
      "Ġsay": 838,
      "ax": 839,
      "ward": 840,
      "Ġlast": 841,
      "ange": 842,
      "Ġthose": 843,
      "Ġlong": 844,
      "ts": 845,
      "Ġgen": 846,
      "ason": 847,
      "les": 848,
      "Ġbetween": 849,
      "Ġown": 850,
      "und": 851,
      "ced": 852,
      "Ġshow": 853,
      "cess": 854,
      "Ġdown": 855,
      "Ġmuch": 856,
      "stem": 857,
      "âĢĶ": 858,
      "omet": 859,
      "Ġ[": 860,
      "tle": 861,
      "Ġgovern": 862,
      "Ġstate": 863,
      "Ġbel": 864,
      "ms": 865,
      "ters": 866,
      "Ġwell": 867,
      "Ġob": 868,
      "Ġvery": 869,
      "eral": 870,
      "Ġbefore": 871,
      "the": 872,
      "form": 873,
      "Ġcount": 874,
      "Ġcol": 875,
      "Ġent": 876,
      "gr": 877,
      "meric": 878,
      "ually": 879,
      "ponse": 880,
      "ty": 881,
      "Ġreport": 882,
      "hes": 883,
      "Ġtrans": 884,
      "tern": 885,
      "ble": 886,
      "up": 887,
      "oun": 888,
      "ĠRes": 889,
      "ife": 890,
      "its": 891,
      "ful": 892,
      "Ġcar": 893,
      "Ġ6": 894,
      "Ġmin": 895,
      "Ġprov": 896,
      "ists": 897,
      "Ġhel": 898,
      "Ġ200": 899,
      "ince": 900,
      "Ġpost": 901,
      "Ġstart": 902,
      "ĠNew": 903,
      "Ġmade": 904,
      "ism": 905,
      "Ġke": 906,
      "ility": 907,
      "Ġstr": 908,
      "Ġagainst": 909,
      "Ġeff": 910,
      "Ġstud": 911,
      "Ġear": 912,
      "gan": 913,
      "li": 914,
      "com": 915,
      "land": 916,
      "Ġcr": 917,
      "Ġlead": 918,
      "Ġworld": 919,
      "Ġhelp": 920,
      "erson": 921,
      "roup": 922,
      "Ġsystem": 923,
      "Ġop": 924,
      "velop": 925,
      "Ġext": 926,
      "ins": 927,
      "Ġgoing": 928,
      "Ġgood": 929,
      "Ġpoint": 930,
      "Ġdiffere": 931,
      "Ġins": 932,
      "ĠAmeric": 933,
      "Ġinst": 934,
      "ĠRe": 935,
      "ng": 936,
      "Ġgr": 937,
      "ever": 938,
      "Ġwee": 939,
      "Ġhigh": 940,
      "Ġsim": 941,
      "air": 942,
      "ix": 943,
      "It": 944,
      "ten": 945,
      "Ġstill": 946,
      "Ġwhile": 947,
      "Ġmus": 948,
      "Ġconf": 949,
      "imes": 950,
      "als": 951,
      "ork": 952,
      "Ġgu": 953,
      "Ġprodu": 954,
      "Ġused": 955,
      "Ġsign": 956,
      "Ġpass": 957,
      "Ġteam": 958,
      "alk": 959,
      "Ġset": 960,
      "Ġser": 961,
      "Ġnum": 962,
      "Ġthough": 963,
      "Ġcour": 964,
      "Ġgovernment": 965,
      "ollow": 966,
      "ient": 967,
      "Th": 968,
      "read": 969,
      "Ġ8": 970,
      "Ġthree": 971,
      "ces": 972,
      "Ġgame": 973,
      "Ġlaw": 974,
      "ool": 975,
      "ank": 976,
      "Ġhand": 977,
      "Ġref": 978,
      "ern": 979,
      "Ġoffic": 980,
      "self": 981,
      "Ġtake": 982,
      "Ġsame": 983,
      "Ġret": 984,
      "illion": 985,
      "Ġexp": 986,
      "Ġaround": 987,
      "Ġdisc": 988,
      "Ġed": 989,
      "ah": 990,
      "cept": 991,
      "ef": 992,
      "way": 993,
      "ved": 994,
      "Ġter": 995,
      "ution": 996,
      "Ġ7": 997,
      "ave": 998,
      "io": 999,
      "gg": 1000,
      "Ġsays": 1001,
      "ric": 1002,
      "Ġspec": 1003,
      "cent": 1004,
      "az": 1005,
      "arch": 1006,
      "Ġgroup": 1007,
      "oot": 1008,
      "oh": 1009,
      "any": 1010,
      "uss": 1011,
      "cle": 1012,
      "Ġmem": 1013,
      "Ġrun": 1014,
      "Ġpat": 1015,
      "Ġdevelop": 1016,
      "000": 1017,
      "Ġsomet": 1018,
      "ives": 1019,
      "ars": 1020,
      "hip": 1021,
      "ner": 1022,
      "Ġfound": 1023,
      "ving": 1024,
      "pr": 1025,
      "Ġfact": 1026,
      "Ġgreat": 1027,
      "oci": 1028,
      "ted": 1029,
      "Ġduring": 1030,
      "ically": 1031,
      "Ġsupport": 1032,
      "ale": 1033,
      "We": 1034,
      "ĠAr": 1035,
      "ĠResponse": 1036,
      "Ġreal": 1037,
      "ĠInput": 1038,
      "med": 1039,
      "Ġmet": 1040,
      "Ġreally": 1041,
      "Ġmod": 1042,
      "Ġmonth": 1043,
      "Ġ###": 1044,
      "Ġdet": 1045,
      "Ġaut": 1046,
      "ames": 1047,
      "ral": 1048,
      "ĠCom": 1049,
      "Ġcor": 1050,
      "atch": 1051,
      "Ġfam": 1052,
      "Ġcur": 1053,
      "ĠFr": 1054,
      "irect": 1055,
      "Ġday": 1056,
      "ying": 1057,
      "!!!!!!!!": 1058,
      "ital": 1059,
      "Ġsl": 1060,
      "ense": 1061,
      "Ġwom": 1062,
      "Ġpublic": 1063,
      "ather": 1064,
      "aj": 1065,
      "Ġchild": 1066,
      "Ġfind": 1067,
      "Ġhead": 1068,
      "min": 1069,
      "led": 1070,
      "ĠAl": 1071,
      "Ġlater": 1072,
      "Ġcap": 1073,
      "Ġcontin": 1074,
      "Ġboth": 1075,
      "ized": 1076,
      "der": 1077,
      "ĠThey": 1078,
      "Ġcre": 1079,
      "ody": 1080,
      "alth": 1081,
      "Ġexper": 1082,
      "ouse": 1083,
      "Ġfollow": 1084,
      "Ġhere": 1085,
      "Ġplan": 1086,
      "ages": 1087,
      "Ġhapp": 1088,
      "Ġlit": 1089,
      "ines": 1090,
      "ĠYou": 1091,
      "ĠTrump": 1092,
      "Ġleg": 1093,
      "Ġiss": 1094,
      "ves": 1095,
      "Ġdi": 1096,
      "ĠAs": 1097,
      "Ġcent": 1098,
      "ered": 1099,
      "Ġ10": 1100,
      "get": 1101,
      "ared": 1102,
      "Ġdifferent": 1103,
      "con": 1104,
      "Ġche": 1105,
      "rent": 1106,
      "ute": 1107,
      "Ġprot": 1108,
      "Ġread": 1109,
      "arge": 1110,
      "ĠIs": 1111,
      "Ġdist": 1112,
      "ness": 1113,
      "ĠLe": 1114,
      "Ġwar": 1115,
      "ision": 1116,
      "ording": 1117,
      "ience": 1118,
      "Ġloc": 1119,
      "Ġtold": 1120,
      "tic": 1121,
      "ĠWh": 1122,
      "akes": 1123,
      "ross": 1124,
      "ants": 1125,
      "Ġfew": 1126,
      "Ġopen": 1127,
      "ets": 1128,
      "ton": 1129,
      "Ġrequ": 1130,
      "Ġeach": 1131,
      "Ġrep": 1132,
      "Ġperson": 1133,
      "erior": 1134,
      "Ġexpl": 1135,
      "ĠCl": 1136,
      "ices": 1137,
      "chool": 1138,
      "ially": 1139,
      "Ġcle": 1140,
      "Ġposs": 1141,
      "Ġpolit": 1142,
      "ex": 1143,
      "Ġserv": 1144,
      "Ġincre": 1145,
      "ĠSh": 1146,
      "Ġsince": 1147,
      "ention": 1148,
      "Ġtri": 1149,
      "atic": 1150,
      "osed": 1151,
      "Ġbig": 1152,
      "oid": 1153,
      "ret": 1154,
      "Ġsecond": 1155,
      "Ġopp": 1156,
      "Ġbelie": 1157,
      "Ġadv": 1158,
      "Ġlife": 1159,
      "ĠDe": 1160,
      "Ġanother": 1161,
      "Ġtoo": 1162,
      "yp": 1163,
      "Ġgl": 1164,
      "ox": 1165,
      "Ġ9": 1166,
      "Ġweek": 1167,
      "ĠIf": 1168,
      "ize": 1169,
      "Ġinvest": 1170,
      "orn": 1171,
      "ik": 1172,
      "Ġallow": 1173,
      "bers": 1174,
      "Ġfar": 1175,
      "ash": 1176,
      "Ġpower": 1177,
      "Ġput": 1178,
      "Ġdep": 1179,
      "lex": 1180,
      "Ġsomething": 1181,
      "Ġlot": 1182,
      "Ġthings": 1183,
      "thing": 1184,
      "Ġnever": 1185,
      "Ġcontro": 1186,
      "Ġdem": 1187,
      "Ġform": 1188,
      "Ġfin": 1189,
      "what": 1190,
      "iness": 1191,
      "Ġcommun": 1192,
      "erest": 1193,
      "ĠAn": 1194,
      "Ġmight": 1195,
      "Ġresult": 1196,
      ".[": 1197,
      "Ġdirect": 1198,
      "Ġleft": 1199,
      "ired": 1200,
      "Ġdr": 1201,
      "ately": 1202,
      "Ġsmall": 1203,
      "Ġimport": 1204,
      "Ġbus": 1205,
      "Ġappro": 1206,
      "Ġcamp": 1207,
      "ata": 1208,
      "rap": 1209,
      "Ġinform": 1210,
      "ajor": 1211,
      "20": 1212,
      "nce": 1213,
      "ĠSe": 1214,
      "gy": 1215,
      "Ġfun": 1216,
      "Ġask": 1217,
      "Ġtest": 1218,
      "uc": 1219,
      "Ġseem": 1220,
      "Ġprocess": 1221,
      "ivers": 1222,
      "ruct": 1223,
      "Ġbest": 1224,
      "Ġless": 1225,
      "Ġlevel": 1226,
      "chn": 1227,
      "Ġve": 1228,
      "Ġnext": 1229,
      "Ġfil": 1230,
      "Ġrele": 1231,
      "Ġhum": 1232,
      "Ġpri": 1233,
      "Ġproble": 1234,
      "ield": 1235,
      "Ġgot": 1236,
      "Ġincluding": 1237,
      "Ġmark": 1238,
      "son": 1239,
      "Ġnumber": 1240,
      "ug": 1241,
      "ier": 1242,
      "Ġcome": 1243,
      "Ġpos": 1244,
      "Ġwithout": 1245,
      "Ġquest": 1246,
      "less": 1247,
      "ained": 1248,
      "Ġhome": 1249,
      "Ġvot": 1250,
      "Ġbeh": 1251,
      "Fig": 1252,
      "ĠUS": 1253,
      "Ġval": 1254,
      "ari": 1255,
      "ases": 1256,
      "ple": 1257,
      "Ġcare": 1258,
      "ãģ": 1259,
      "Ġav": 1260,
      "ane": 1261,
      "Ġfour": 1262,
      "This": 1263,
      "ĠFor": 1264,
      "ains": 1265,
      "uro": 1266,
      "Ġel": 1267,
      "gram": 1268,
      "Ġhard": 1269,
      "ĠThat": 1270,
      "ger": 1271,
      "Ġprev": 1272,
      "erve": 1273,
      "Ġfeel": 1274,
      "Ġmain": 1275,
      "Ġpartic": 1276,
      "oint": 1277,
      "Ġmen": 1278,
      "Ġmove": 1279,
      "str": 1280,
      "Ġ'": 1281,
      "aim": 1282,
      "Ġtop": 1283,
      "ways": 1284,
      "Ġlet": 1285,
      "Ġplace": 1286,
      "Ġeffect": 1287,
      "Ġpolice": 1288,
      "ode": 1289,
      "Ġpercent": 1290,
      "ocr": 1291,
      "ama": 1292,
      "Ġchar": 1293,
      "Ġstand": 1294,
      "ends": 1295,
      "ĠâĢĺ": 1296,
      "ology": 1297,
      "ĠPro": 1298,
      "ety": 1299,
      "Ġcalled": 1300,
      "ency": 1301,
      "Ġturn": 1302,
      "to": 1303,
      "Ġmajor": 1304,
      "ĠThere": 1305,
      "Ġlittle": 1306,
      "Ġinterest": 1307,
      "ature": 1308,
      "sc": 1309,
      "app": 1310,
      "Ġide": 1311,
      "Ġpop": 1312,
      "ĠRep": 1313,
      "Ġbetter": 1314,
      "me": 1315,
      "ably": 1316,
      "Ġmil": 1317,
      "ration": 1318,
      "ished": 1319,
      "tery": 1320,
      "Ġschool": 1321,
      "Ġfull": 1322,
      "ina": 1323,
      "Ġbro": 1324,
      "Ġusing": 1325,
      "Ġsuper": 1326,
      "Ġbre": 1327,
      "ised": 1328,
      "line": 1329,
      "Ġcase": 1330,
      "aining": 1331,
      "ider": 1332,
      "view": 1333,
      "Ġsit": 1334,
      "be": 1335,
      "Ġrecent": 1336,
      "Ġmov": 1337,
      "Ġvis": 1338,
      "Ġnear": 1339,
      "ead": 1340,
      "Ġbuild": 1341,
      "ned": 1342,
      "Ġattack": 1343,
      "Ġcountry": 1344,
      "Ġhist": 1345,
      "Ġocc": 1346,
      "oney": 1347,
      "ined": 1348,
      "Ġsk": 1349,
      "ract": 1350,
      "But": 1351,
      "Ġpar": 1352,
      "ats": 1353,
      "Ġmillion": 1354,
      "ling": 1355,
      "br": 1356,
      "ator": 1357,
      "Ġkeep": 1358,
      "Ġwomen": 1359,
      "Ġann": 1360,
      "Ġsol": 1361,
      "Ġprom": 1362,
      "urs": 1363,
      "hor": 1364,
      "ĠBl": 1365,
      "10": 1366,
      "Ġrece": 1367,
      "conom": 1368,
      "Ġwrit": 1369,
      "used": 1370,
      "Ġresp": 1371,
      "ird": 1372,
      "Ġprogram": 1373,
      "tt": 1374,
      "iving": 1375,
      "Ġrese": 1376,
      "Ġview": 1377,
      "ending": 1378,
      "Ġorgan": 1379,
      "Ġintern": 1380,
      "Ġinformation": 1381,
      "ided": 1382,
      "Ġ0": 1383,
      "ĠInd": 1384,
      "Ġdidn": 1385,
      "Ġele": 1386,
      "Ġfore": 1387,
      "ertain": 1388,
      "Ġimportant": 1389,
      "Ġchange": 1390,
      "Ġtax": 1391,
      "ĠQ": 1392,
      "ym": 1393,
      "ural": 1394,
      "Ġtechn": 1395,
      "Ġ.": 1396,
      "Ġnews": 1397,
      "ee": 1398,
      "Ġcurrent": 1399,
      "Ġeas": 1400,
      "ohn": 1401,
      "ides": 1402,
      "co": 1403,
      "Ġmust": 1404,
      "Ġpay": 1405,
      "ption": 1406,
      "Ġbook": 1407,
      "Ġseason": 1408,
      "Ġlarge": 1409,
      "ready": 1410,
      "Ġcompany": 1411,
      "Ġmat": 1412,
      "Ġes": 1413,
      "mit": 1414,
      "ĠCan": 1415,
      "Ġside": 1416,
      "Ġwin": 1417,
      "Ġca": 1418,
      "Ġproject": 1419,
      "Ġchang": 1420,
      "Ġunt": 1421,
      "Ġmid": 1422,
      "ĠSo": 1423,
      "Ġhealth": 1424,
      "stand": 1425,
      "iven": 1426,
      "ĠSc": 1427,
      "por": 1428,
      "ission": 1429,
      "Ġchildren": 1430,
      "ĠShe": 1431,
      "ney": 1432,
      "ium": 1433,
      "Ġ18": 1434,
      "He": 1435,
      "ĠMay": 1436,
      "Ġdesign": 1437,
      "Ġprof": 1438,
      "Ġalways": 1439,
      "ĠZ": 1440,
      "Ġaff": 1441,
      "Ġinvol": 1442,
      "Ġalready": 1443,
      "leg": 1444,
      "Ġwhy": 1445,
      "reen": 1446,
      "Ġexpect": 1447,
      "'re": 1448,
      "uck": 1449,
      "Ġbusiness": 1450,
      "Ġdri": 1451,
      "Ġdata": 1452,
      "Ġclass": 1453,
      "Ġaway": 1454,
      "ocial": 1455,
      "Ġpresident": 1456,
      "Ġtalk": 1457,
      "Ġair": 1458,
      "ĠOb": 1459,
      "Ġthing": 1460,
      "ron": 1461,
      "Ġkind": 1462,
      "Ġfree": 1463,
      "ĠPh": 1464,
      "here": 1465,
      "Ġclaim": 1466,
      "Ġdays": 1467,
      "ĠHow": 1468,
      "Ġconc": 1469,
      "Ġlist": 1470,
      "side": 1471,
      "Ġclear": 1472,
      "Ġoften": 1473,
      "Ġleast": 1474,
      "Ġeconom": 1475,
      "Ġgrow": 1476,
      "aign": 1477,
      "ians": 1478,
      "Ġofficial": 1479,
      "ĠAmerican": 1480,
      "Ġra": 1481,
      "ister": 1482,
      "iol": 1483,
      "Ġfamily": 1484,
      "ality": 1485,
      "Ġperform": 1486,
      "Ġdesc": 1487,
      "...": 1488,
      "Ġcharac": 1489,
      "orth": 1490,
      "Ġcity": 1491,
      "ploy": 1492,
      "Ġdoesn": 1493,
      "Ġold": 1494,
      "Ġkill": 1495,
      "Ġline": 1496,
      "ified": 1497,
      "sh": 1498,
      "Ġoper": 1499,
      "Ġable": 1500,
      "ured": 1501,
      "Ġpast": 1502,
      "Ġ--": 1503,
      "ample": 1504,
      "artment": 1505,
      "ization": 1506,
      "ĠUnited": 1507,
      "Ġorig": 1508,
      "ury": 1509,
      "Ġ12": 1510,
      "Ġhappen": 1511,
      "Ġcost": 1512,
      "ament": 1513,
      "Ġmoney": 1514,
      "Ġcame": 1515,
      "Ġbo": 1516,
      "urity": 1517,
      "Ġest": 1518,
      "ards": 1519,
      "Ġstory": 1520,
      "iqu": 1521,
      "Ġtreat": 1522,
      "wit": 1523,
      "Ġnerve": 1524,
      "Ġelect": 1525,
      "Ġenough": 1526,
      "Ġjob": 1527,
      "alf": 1528,
      "ĠAd": 1529,
      "ps": 1530,
      "Ġfac": 1531,
      "ering": 1532,
      "Ġhop": 1533,
      "aff": 1534,
      "augh": 1535,
      "Ġtell": 1536,
      "Ġris": 1537,
      "ĠBe": 1538,
      "ĠJohn": 1539,
      "Ġcomple": 1540,
      "Ġedit": 1541,
      "ccess": 1542,
      "Ġ15": 1543,
      "Ġpolic": 1544,
      "Ġfri": 1545,
      "eng": 1546,
      "acy": 1547,
      "As": 1548,
      "Ġgener": 1549,
      "Ġmean": 1550,
      "ries": 1551,
      "ones": 1552,
      "Ġmaking": 1553,
      "Ġpot": 1554,
      "Ġinclude": 1555,
      "ĠGo": 1556,
      "ended": 1557,
      "Ġcampaign": 1558,
      "Ġdev": 1559,
      "arent": 1560,
      "Ġuntil": 1561,
      "Ġwithin": 1562,
      "ued": 1563,
      "most": 1564,
      "for": 1565,
      "els": 1566,
      "ither": 1567,
      "rist": 1568,
      "Ġlim": 1569,
      "ley": 1570,
      "ots": 1571,
      "Ġsever": 1572,
      "Ġpress": 1573,
      "bs": 1574,
      "Ġaccording": 1575,
      "terior": 1576,
      "ĠSp": 1577,
      "--": 1578,
      "oph": 1579,
      "une": 1580,
      "raft": 1581,
      "nect": 1582,
      "outh": 1583,
      "ivid": 1584,
      "Ġbas": 1585,
      "Ġant": 1586,
      "Ġtook": 1587,
      "ware": 1588,
      "Ġbecome": 1589,
      "uff": 1590,
      "gin": 1591,
      "Ġorder": 1592,
      "by": 1593,
      "arc": 1594,
      "Ġdeal": 1595,
      "Ġpolitical": 1596,
      "uture": 1597,
      "ived": 1598,
      "ional": 1599,
      "Ġrest": 1600,
      "Ġalong": 1601,
      "ential": 1602,
      "Ġconst": 1603,
      "Ġfund": 1604,
      "pec": 1605,
      "oad": 1606,
      "Ġvide": 1607,
      "Ġever": 1608,
      "Ġrecord": 1609,
      "aken": 1610,
      "aring": 1611,
      "Ġpossible": 1612,
      "Ġactiv": 1613,
      "inc": 1614,
      "iversity": 1615,
      "ott": 1616,
      "Ġformer": 1617,
      "Ġcommon": 1618,
      "Ġcell": 1619,
      "ember": 1620,
      "Ġworking": 1621,
      "idence": 1622,
      "Ġhuman": 1623,
      "Ġcontrol": 1624,
      "Ġseveral": 1625,
      "year": 1626,
      "lf": 1627,
      "mon": 1628,
      "ulation": 1629,
      "Ġname": 1630,
      "Ġmonths": 1631,
      "Ġnon": 1632,
      "resident": 1633,
      "ients": 1634,
      "Ġcrit": 1635,
      "Ġactually": 1636,
      "Ġgive": 1637,
      "Ġdoing": 1638,
      "ĠRepublic": 1639,
      "Ġcond": 1640,
      "Ġearly": 1641,
      "Ġhaving": 1642,
      "itive": 1643,
      "let": 1644,
      "ream": 1645,
      "âĢ¦": 1646,
      "Ġlikely": 1647,
      "If": 1648,
      "ands": 1649,
      "Ġappear": 1650,
      "Ġpur": 1651,
      "Ġident": 1652,
      "work": 1653,
      "ison": 1654,
      "ĠDem": 1655,
      "Ġlear": 1656,
      "Ġcourse": 1657,
      "Ġcertain": 1658,
      "vert": 1659,
      "Ġviol": 1660,
      "face": 1661,
      "Ġseen": 1662,
      "Ġwhether": 1663,
      "use": 1664,
      "aps": 1665,
      "Ġword": 1666,
      "Ġreturn": 1667,
      "Ġben": 1668,
      "Ġsing": 1669,
      "Ġdeb": 1670,
      "ories": 1671,
      "ilar": 1672,
      "Ġprotect": 1673,
      "ĠOr": 1674,
      "iting": 1675,
      "!!!!!!!!!!!!!!!!": 1676,
      "ination": 1677,
      "Ġgames": 1678,
      "Ġhour": 1679,
      "St": 1680,
      "ror": 1681,
      "ĠAt": 1682,
      "Ġshort": 1683,
      "gress": 1684,
      "Ġmedia": 1685,
      "Ġfight": 1686,
      "Ġnight": 1687,
      "ising": 1688,
      "Ġprop": 1689,
      "Ġfive": 1690,
      "Ġyoung": 1691,
      "Ġexample": 1692,
      "Ġsocial": 1693,
      "ann": 1694,
      "Ġ199": 1695,
      "Ġtimes": 1696,
      "agn": 1697,
      "Ġinvestig": 1698,
      "Ġfail": 1699,
      "Ġacross": 1700,
      "Ġbit": 1701,
      "Ġwr": 1702,
      "itions": 1703,
      "ubl": 1704,
      "Ġeng": 1705,
      "Ġla": 1706,
      "itary": 1707,
      "empt": 1708,
      "Ġwon": 1709,
      "50": 1710,
      "Ġdone": 1711,
      "Ġrad": 1712,
      "Ġwent": 1713,
      "ĠPl": 1714,
      "Ġlow": 1715,
      "Ġanal": 1716,
      "ush": 1717,
      "ĠYork": 1718,
      "Ġlocal": 1719,
      "Ġstop": 1720,
      "Ġsure": 1721,
      "ggest": 1722,
      "Ġpain": 1723,
      "And": 1724,
      "reet": 1725,
      "ĠAll": 1726,
      "There": 1727,
      "Ġbody": 1728,
      "of": 1729,
      "Ġevent": 1730,
      "Ġknown": 1731,
      "Ġmeet": 1732,
      "ances": 1733,
      "verage": 1734,
      "Ġvers": 1735,
      "eb": 1736,
      "Ġtoday": 1737,
      "Ġunderstand": 1738,
      "Ġaddition": 1739,
      "Ġothers": 1740,
      "iously": 1741,
      "Ġequ": 1742,
      "Ġonce": 1743,
      "ober": 1744,
      "Ġbat": 1745,
      "ĠObama": 1746,
      "Ġthought": 1747,
      "Ġmeans": 1748,
      "Ġsuggest": 1749,
      "mber": 1750,
      "Ġ=": 1751,
      "cer": 1752,
      "osp": 1753,
      "ators": 1754,
      "RE": 1755,
      "Ġstrong": 1756,
      "ividual": 1757,
      "ĠSy": 1758,
      "11": 1759,
      "ĠWhen": 1760,
      "Wh": 1761,
      "Ġauthor": 1762,
      "ĠCon": 1763,
      "Ġassoci": 1764,
      "Ġquestion": 1765,
      "rom": 1766,
      "Ġclose": 1767,
      "aged": 1768,
      "Ġhold": 1769,
      "Ġmor": 1770,
      "Ġfuture": 1771,
      "Ġsuccess": 1772,
      "Ġproblem": 1773,
      "Ġmembers": 1774,
      "Ġplayers": 1775,
      "roid": 1776,
      "ster": 1777,
      "Ġamong": 1778,
      "Ġparticular": 1779,
      "Ġarg": 1780,
      "Ġcho": 1781,
      "Ġsour": 1782,
      "ĠEuro": 1783,
      "af": 1784,
      "Ġi": 1785,
      "ĠOn": 1786,
      "wh": 1787,
      "urther": 1788,
      "Ġcommunity": 1789,
      "ensive": 1790,
      "ran": 1791,
      "ĠRuss": 1792,
      "Ġgiven": 1793,
      "iron": 1794,
      "Ġreported": 1795,
      "Ġsex": 1796,
      "ĠPresident": 1797,
      "Ġcourt": 1798,
      "rop": 1799,
      "ĠMr": 1800,
      "back": 1801,
      "ched": 1802,
      "Ġyet": 1803,
      "ĠCol": 1804,
      "ument": 1805,
      "Ġbased": 1806,
      "Ġtyp": 1807,
      "erman": 1808,
      "ĠAm": 1809,
      "Ġcut": 1810,
      "ĠMc": 1811,
      "Ġwater": 1812,
      "Ġpresent": 1813,
      "ev": 1814,
      "arm": 1815,
      "Ġsaf": 1816,
      "Ġavail": 1817,
      "Ġasked": 1818,
      "Ġmarket": 1819,
      "Ġartic": 1820,
      "Ġ2015": 1821,
      "Ġredu": 1822,
      "Ġhowever": 1823,
      "Ġpriv": 1824,
      "Ġ11": 1825,
      "not": 1826,
      "Ġproduct": 1827,
      "ief": 1828,
      "Ġmar": 1829,
      "Ġspace": 1830,
      "Ġindividual": 1831,
      "Ġproper": 1832,
      "ortun": 1833,
      "Ġmakes": 1834,
      "Ġarea": 1835,
      "ĠStates": 1836,
      "ague": 1837,
      "imate": 1838,
      "Ġ,": 1839,
      "ĠSen": 1840,
      "ourn": 1841,
      "Ġdeath": 1842,
      "ball": 1843,
      "pro": 1844,
      "dle": 1845,
      "rew": 1846,
      "Ġanterior": 1847,
      "ĠNo": 1848,
      "gether": 1849,
      "Ġsym": 1850,
      "Ġtogether": 1851,
      "Ġcompl": 1852,
      "rug": 1853,
      "ĠCanad": 1854,
      "enn": 1855,
      "ored": 1856,
      "ĠBr": 1857,
      "ung": 1858,
      "ĠDemocr": 1859,
      "ederal": 1860,
      "Ġposition": 1861,
      "Ġposterior": 1862,
      "Ġstarted": 1863,
      "par": 1864,
      "ald": 1865,
      "ype": 1866,
      "book": 1867,
      "Ġreason": 1868,
      "Ġhig": 1869,
      "Ġbelieve": 1870,
      "ability": 1871,
      "Ġhistory": 1872,
      "Ġ&": 1873,
      "Ġconnect": 1874,
      "Ġz": 1875,
      "AT": 1876,
      "Ġcolle": 1877,
      "Ġvideo": 1878,
      "though": 1879,
      "Ġalmost": 1880,
      "ĠOne": 1881,
      "sy": 1882,
      "hers": 1883,
      "Ġseries": 1884,
      "Ġartery": 1885,
      "Ġissue": 1886,
      "Ġ#": 1887,
      "Ġmuscle": 1888,
      "iver": 1889,
      "rael": 1890,
      "utes": 1891,
      "ĠPol": 1892,
      "raph": 1893,
      "19": 1894,
      "inton": 1895,
      "Ġcreat": 1896,
      "Ġfoot": 1897,
      "erence": 1898,
      "ili": 1899,
      "Ġlove": 1900,
      "Ġep": 1901,
      "ER": 1902,
      "arr": 1903,
      "Ġdeep": 1904,
      "Ġprob": 1905,
      "rest": 1906,
      "Ġopt": 1907,
      "Ġtrad": 1908,
      "Ġsw": 1909,
      "resent": 1910,
      "Ġland": 1911,
      "ĠTe": 1912,
      "Ġaccess": 1913,
      "aster": 1914,
      "omm": 1915,
      "Ġadded": 1916,
      "Ġhalf": 1917,
      "Ġfre": 1918,
      "Ġfollowing": 1919,
      "Ġcomes": 1920,
      "cles": 1921,
      "Ġ]": 1922,
      "selves": 1923,
      "Ġimpro": 1924,
      "Ġ2016": 1925,
      "Ġtrying": 1926,
      "uly": 1927,
      "An": 1928,
      "Ġimm": 1929,
      "Ġindust": 1930,
      "Ġbi": 1931,
      "Ġtra": 1932,
      "Ġgetting": 1933,
      "Ġavailable": 1934,
      "Ġfeat": 1935,
      "asc": 1936,
      "Ġmass": 1937,
      "Ġlight": 1938,
      "Ġbehind": 1939,
      "Ġcharacter": 1940,
      "Ġsus": 1941,
      "raw": 1942,
      "minist": 1943,
      "ĠEurope": 1944,
      "Ġannoun": 1945,
      "Ġart": 1946,
      "Ġcomplete": 1947,
      "Ġtaken": 1948,
      "Ġnet": 1949,
      "30": 1950,
      "ole": 1951,
      "Ã©": 1952,
      "Ġey": 1953,
      "Ġnational": 1954,
      "ĠMar": 1955,
      "Ġparty": 1956,
      "ĠFl": 1957,
      "ĠX": 1958,
      "Ġsignific": 1959,
      "You": 1960,
      "Ġ:": 1961,
      "aces": 1962,
      "ĠUniversity": 1963,
      "Ġtre": 1964,
      "orld": 1965,
      "ĠWhat": 1966,
      "Ġsent": 1967,
      "'ve": 1968,
      "Ġer": 1969,
      "Ġface": 1970,
      "12": 1971,
      "Ġrul": 1972,
      "Ġdiscuss": 1973,
      "Ġidea": 1974,
      "Ġsimilar": 1975,
      "Ġfoc": 1976,
      "Ġjo": 1977,
      "pped": 1978,
      "Ġ30": 1979,
      "Ġblood": 1980,
      "Ġcommit": 1981,
      "ĠHouse": 1982,
      "oms": 1983,
      "Ġmeas": 1984,
      "Ġaccount": 1985,
      "uation": 1986,
      "Ġtem": 1987,
      "ĠNational": 1988,
      "For": 1989,
      "Ġago": 1990,
      "Ġdescrib": 1991,
      "ĠCent": 1992,
      "Ġinfl": 1993,
      "Ġentire": 1994,
      "ails": 1995,
      "Ġver": 1996,
      "Ġmind": 1997,
      ".,": 1998,
      "ĠState": 1999,
      "Ġbad": 2000,
      "go": 2001,
      "Ġmiss": 2002,
      "Ġ16": 2003,
      "Ġspecific": 2004,
      "ote": 2005,
      "Ġemploy": 2006,
      "Ġexperience": 2007,
      "Ġbill": 2008,
      "15": 2009,
      "osis": 2010,
      "my": 2011,
      "ene": 2012,
      "ashing": 2013,
      "Ġrepl": 2014,
      "ĠMin": 2015,
      "Ġdel": 2016,
      "Ġmult": 2017,
      "ĠPr": 2018,
      "Ġpract": 2019,
      "Ġisn": 2020,
      "umb": 2021,
      "Ġstudy": 2022,
      "Ġeither": 2023,
      "Ġcomb": 2024,
      "ify": 2025,
      "Ġhit": 2026,
      "Ġsaying": 2027,
      "Ġwall": 2028,
      "Ġanything": 2029,
      "//": 2030,
      "ww": 2031,
      "Ġmess": 2032,
      "Ġspecial": 2033,
      "den": 2034,
      "unch": 2035,
      "ĠIsrael": 2036,
      "Ġvict": 2037,
      "oto": 2038,
      "Ġfav": 2039,
      "ĠDon": 2040,
      "ĠDep": 2041,
      "Ġdam": 2042,
      "ana": 2043,
      "Ġsix": 2044,
      "Ġcop": 2045,
      "ĠEx": 2046,
      "Ġwanted": 2047,
      "uses": 2048,
      "ĠChrist": 2049,
      "Ġdevelopment": 2050,
      "Ġconcern": 2051,
      "Ġtry": 2052,
      "Ġrather": 2053,
      "ender": 2054,
      "Ġphys": 2055,
      "Ġsingle": 2056,
      "duct": 2057,
      "Ġfront": 2058,
      "What": 2059,
      "Ġmom": 2060,
      "Ġconsider": 2061,
      "Ġtot": 2062,
      "arter": 2063,
      "icult": 2064,
      "Ġblack": 2065,
      "ler": 2066,
      "yn": 2067,
      "Ġcompet": 2068,
      "Ġsecurity": 2069,
      "ai": 2070,
      "Ġabove": 2071,
      "Ġattempt": 2072,
      "Ġsum": 2073,
      "Ġtoward": 2074,
      "Ġmilitary": 2075,
      "Ġsomeone": 2076,
      "rown": 2077,
      "Ġcou": 2078,
      "Ġrisk": 2079,
      "like": 2080,
      "Ġ|": 2081,
      "Ġlab": 2082,
      "Ġsal": 2083,
      "ĠEng": 2084,
      "Ġdue": 2085,
      "isc": 2086,
      "Ġlower": 2087,
      "ences": 2088,
      "reme": 2089,
      "Ġcoun": 2090,
      "ape": 2091,
      "Ġpatients": 2092,
      "ĠBar": 2093,
      "Ġrelations": 2094,
      "Ġissues": 2095,
      "Ġpubl": 2096,
      "ĠTo": 2097,
      "aid": 2098,
      "Ġfood": 2099,
      "On": 2100,
      "Ġprovide": 2101,
      "ged": 2102,
      "aper": 2103,
      "ĠCo": 2104,
      "Ġthird": 2105,
      "Ġquick": 2106,
      "ached": 2107,
      "ively": 2108,
      "ivil": 2109,
      "oma": 2110,
      "sw": 2111,
      "ĠClinton": 2112,
      "asing": 2113,
      "ĠAf": 2114,
      "Ġstates": 2115,
      "ĠSec": 2116,
      "aut": 2117,
      "witter": 2118,
      "Ġfall": 2119,
      "uge": 2120,
      "Ġtarg": 2121,
      "Ġfurther": 2122,
      "Ġgeneral": 2123,
      "Ġresearch": 2124,
      "ently": 2125,
      "ergy": 2126,
      "Ġfunction": 2127,
      "'m": 2128,
      "orts": 2129,
      "ĠNorth": 2130,
      "irl": 2131,
      "Ġbegin": 2132,
      "ĠBrit": 2133,
      "ĠGerman": 2134,
      "Ġbring": 2135,
      "Ġbenef": 2136,
      "__": 2137,
      "yr": 2138,
      "Ġcust": 2139,
      "Ġlooking": 2140,
      "Ġcult": 2141,
      "Ġthreat": 2142,
      "Ġdise": 2143,
      "Ġ2014": 2144,
      "ĠComm": 2145,
      "Ġhy": 2146,
      "Ġcompan": 2147,
      "ĠMan": 2148,
      "Ġdiv": 2149,
      "Ġpolicy": 2150,
      "Ġdrug": 2151,
      "Ġsignificant": 2152,
      "âĢĵ": 2153,
      "rote": 2154,
      "Ġinj": 2155,
      "Ġlo": 2156,
      "Ġage": 2157,
      "ĠWar": 2158,
      "Ġstruct": 2159,
      "Ġtaking": 2160,
      "Ġexist": 2161,
      "ift": 2162,
      "Ġfinal": 2163,
      "ony": 2164,
      "Ġamount": 2165,
      "Ġinit": 2166,
      "ON": 2167,
      "Ġrole": 2168,
      "Ġelse": 2169,
      "AN": 2170,
      "irm": 2171,
      "ully": 2172,
      "ams": 2173,
      "ault": 2174,
      "oe": 2175,
      "ĠIm": 2176,
      "Ġchall": 2177,
      "Ġoutside": 2178,
      "Ġpoints": 2179,
      "IS": 2180,
      "14": 2181,
      "sec": 2182,
      "atory": 2183,
      "Ġabs": 2184,
      "Ġhours": 2185,
      "lier": 2186,
      "That": 2187,
      "iday": 2188,
      "Ġstep": 2189,
      "Ġdecision": 2190,
      "Ġwa": 2191,
      "Ġseems": 2192,
      "olution": 2193,
      "Ġprobably": 2194,
      "nes": 2195,
      "Ġmot": 2196,
      "ĠAmerica": 2197,
      "Ġself": 2198,
      "Ġple": 2199,
      "ĠWith": 2200,
      "aging": 2201,
      ".)": 2202,
      "aced": 2203,
      "ply": 2204,
      "ery": 2205,
      "Ġheart": 2206,
      "Ġneg": 2207,
      "Ġeverything": 2208,
      "ĠThese": 2209,
      "ĠEd": 2210,
      "viron": 2211,
      "ĠCity": 2212,
      "Ġsound": 2213,
      "Ġprim": 2214,
      "Ġ14": 2215,
      "Ġkid": 2216,
      "Ġcontinue": 2217,
      "amed": 2218,
      "Ġlive": 2219,
      "Ġsurface": 2220,
      "ule": 2221,
      "play": 2222,
      "ormal": 2223,
      "Ġrights": 2224,
      "Ġban": 2225,
      "Ġfield": 2226,
      "Ġground": 2227,
      "Ġnothing": 2228,
      "Ġcir": 2229,
      "16": 2230,
      "ibility": 2231,
      "IN": 2232,
      "ĠAss": 2233,
      "Ġlarg": 2234,
      "Ġdecl": 2235,
      "Ġcases": 2236,
      "ribut": 2237,
      "Ġpret": 2238,
      "Ġtreatment": 2239,
      "Ad": 2240,
      "ression": 2241,
      "Ġleaders": 2242,
      "Ġpotential": 2243,
      "Ġenc": 2244,
      "ograph": 2245,
      "Ġwhole": 2246,
      "Ġmatter": 2247,
      "bl": 2248,
      "ĠGr": 2249,
      "Ġwrote": 2250,
      "eal": 2251,
      "Ġadminist": 2252,
      "off": 2253,
      "Ġcreate": 2254,
      "Ġgroups": 2255,
      "ows": 2256,
      "Ġconv": 2257,
      "Ġ13": 2258,
      "pecially": 2259,
      "gen": 2260,
      "lim": 2261,
      "Ġsite": 2262,
      "Ġwhite": 2263,
      "over": 2264,
      "Ġcand": 2265,
      "elt": 2266,
      "ĠJan": 2267,
      "Ġdifficult": 2268,
      "Ġbegan": 2269,
      "Ġcoming": 2270,
      "Ġpred": 2271,
      "Ġbreak": 2272,
      "Ġrespons": 2273,
      "ival": 2274,
      "ĠJust": 2275,
      "AR": 2276,
      "omes": 2277,
      "dom": 2278,
      "Ġstat": 2279,
      "So": 2280,
      "Ġap": 2281,
      "Ġur": 2282,
      "Ġdoc": 2283,
      "Ġ17": 2284,
      "Ġfilm": 2285,
      "Ġcompanies": 2286,
      "ashington": 2287,
      "Ġwatch": 2288,
      "Ġgun": 2289,
      "medi": 2290,
      "Ġofficials": 2291,
      "erm": 2292,
      "Ġinn": 2293,
      "ades": 2294,
      "Ġitself": 2295,
      "Ġdom": 2296,
      "Ġlib": 2297,
      "ĠAust": 2298,
      "Ġdest": 2299,
      "Ġfederal": 2300,
      "ogn": 2301,
      "ĠWorld": 2302,
      "Ġcountries": 2303,
      "Ġfem": 2304,
      "ĠHowever": 2305,
      "lling": 2306,
      "Ġenergy": 2307,
      "Ġevidence": 2308,
      "Ġkey": 2309,
      "ãĤ": 2310,
      "Ġbecame": 2311,
      "Ġvalue": 2312,
      "order": 2313,
      "ĠCar": 2314,
      "Ġsuperior": 2315,
      "Ġsense": 2316,
      "cy": 2317,
      "Ġred": 2318,
      "Ġstatement": 2319,
      "Ġcomput": 2320,
      "ried": 2321,
      "Ġagree": 2322,
      "Ġforward": 2323,
      "Ġfig": 2324,
      "Ġdou": 2325,
      "When": 2326,
      "att": 2327,
      "Ġnecess": 2328,
      "bit": 2329,
      "iod": 2330,
      "Ġreve": 2331,
      "Ġbelow": 2332,
      "yle": 2333,
      "Ġrunning": 2334,
      "Ġpick": 2335,
      "Ġvar": 2336,
      "Ġstudents": 2337,
      "itor": 2338,
      "Ġneeds": 2339,
      "head": 2340,
      "Ġhimself": 2341,
      "Ġtrue": 2342,
      "Ġthemselves": 2343,
      "na": 2344,
      "Ġsens": 2345,
      "Ġassociated": 2346,
      "Ġbase": 2347,
      "imal": 2348,
      "ĠCal": 2349,
      "Ġrepresent": 2350,
      "Ġhouse": 2351,
      "angu": 2352,
      "ateg": 2353,
      "vironment": 2354,
      "lish": 2355,
      "Ġstri": 2356,
      "cing": 2357,
      "Ġchanges": 2358,
      "ĠGu": 2359,
      "pite": 2360,
      "istic": 2361,
      "Ġneeded": 2362,
      "ique": 2363,
      "Ġcause": 2364,
      "Ġlat": 2365,
      "Ġplayer": 2366,
      "Ġcy": 2367,
      "Ġweeks": 2368,
      "ches": 2369,
      "Ġwasn": 2370,
      "Ġreleased": 2371,
      "ĠSu": 2372,
      "Ġprofess": 2373,
      "Ġregion": 2374,
      "ournal": 2375,
      "now": 2376,
      "ĠPart": 2377,
      "Ġproblems": 2378,
      "ĠWashington": 2379,
      "Ġaction": 2380,
      "Ġexam": 2381,
      "clus": 2382,
      "Ġlateral": 2383,
      "aul": 2384,
      "reg": 2385,
      "ilt": 2386,
      "'ll": 2387,
      "Ġ/": 2388,
      "Ġwoman": 2389,
      "oon": 2390,
      "Ġcode": 2391,
      "ccording": 2392,
      "how": 2393,
      "Ġshows": 2394,
      "Ġ2012": 2395,
      "ĠÂ": 2396,
      "obal": 2397,
      "17": 2398,
      "Ġblock": 2399,
      "lt": 2400,
      "ĠAfter": 2401,
      "Ġcharg": 2402,
      "Ġinvolved": 2403,
      "epend": 2404,
      "Ġmeth": 2405,
      "icro": 2406,
      "ples": 2407,
      "atur": 2408,
      "Ġoffice": 2409,
      "yroid": 2410,
      "Ġ25": 2411,
      "Ġport": 2412,
      "Ġobject": 2413,
      "Ġ2013": 2414,
      "Ġsimply": 2415,
      "iet": 2416,
      "Ġ100": 2417,
      "lam": 2418,
      "osing": 2419,
      "Ġmusic": 2420,
      "Ġfire": 2421,
      "ĠInst": 2422,
      "Ġindic": 2423,
      "Ġaddress": 2424,
      "Ġinstead": 2425,
      "rodu": 2426,
      "Ġrate": 2427,
      "18": 2428,
      "Ġsuff": 2429,
      "ĠMus": 2430,
      "Ġservice": 2431,
      "ask": 2432,
      "ĠSte": 2433,
      "Ġcheck": 2434,
      "ĠDepartment": 2435,
      "ring": 2436,
      "Ġlegal": 2437,
      "Ġparent": 2438,
      "Ġheld": 2439,
      "ĠDav": 2440,
      "apt": 2441,
      "Ġbillion": 2442,
      "Ġjud": 2443,
      "Ġbuilding": 2444,
      "Ch": 2445,
      "Ġcapt": 2446,
      "BC": 2447,
      "fer": 2448,
      "lement": 2449,
      "iding": 2450,
      "ĠHis": 2451,
      "ĠApp": 2452,
      "amer": 2453,
      "Ġvari": 2454,
      "Ġsaw": 2455,
      "Ġworks": 2456,
      "ips": 2457,
      "Ġfriends": 2458,
      "Ġdig": 2459,
      "ruction": 2460,
      "Ġmuscles": 2461,
      "Ġcal": 2462,
      "13": 2463,
      "Ġcomment": 2464,
      "where": 2465,
      "Ġjoint": 2466,
      "AS": 2467,
      "Ġminutes": 2468,
      "Ġhigher": 2469,
      "Ġcandid": 2470,
      "Ġfinanc": 2471,
      "How": 2472,
      "Ġpie": 2473,
      "Ġperiod": 2474,
      "Ġdisease": 2475,
      "Ġshare": 2476,
      "Ġanti": 2477,
      "ris": 2478,
      "Ġplaying": 2479,
      "ming": 2480,
      "illary": 2481,
      "Ġespecially": 2482,
      "che": 2483,
      "Ġexec": 2484,
      "Ġaffect": 2485,
      "Ġcred": 2486,
      "urch": 2487,
      "action": 2488,
      "Ġinferior": 2489,
      "Ġtarget": 2490,
      "Ġgoal": 2491,
      "Ġ50": 2492,
      "time": 2493,
      "Ġhands": 2494,
      "ĠGe": 2495,
      "Ġlaws": 2496,
      "pril": 2497,
      "Ġcustom": 2498,
      "ights": 2499,
      "://": 2500,
      "Ġroom": 2501,
      "Ġpack": 2502,
      "Ġversion": 2503,
      "Ġtype": 2504,
      "Ġsoon": 2505,
      "anch": 2506,
      "Ġsoft": 2507,
      "Ġeveryone": 2508,
      "ological": 2509,
      "Ġquite": 2510,
      "Ġresults": 2511,
      "Ġrecently": 2512,
      "overed": 2513,
      "key": 2514,
      "oor": 2515,
      "Ġfib": 2516,
      "ĠWest": 2517,
      "Ġmater": 2518,
      "Ġinterview": 2519,
      "Ġlonger": 2520,
      "Ġhope": 2521,
      "Ġindustry": 2522,
      "fect": 2523,
      "asons": 2524,
      "Ġrelease": 2525,
      "erous": 2526,
      "ĠOct": 2527,
      "Ġprice": 2528,
      "Ġtown": 2529,
      "ĠJune": 2530,
      "Ġaccept": 2531,
      "Ġpretty": 2532,
      "acebook": 2533,
      "Ġlevels": 2534,
      "Ġways": 2535,
      "ĠIntern": 2536,
      "ude": 2537,
      "Ġusually": 2538,
      "Ġrespect": 2539,
      "Ġeduc": 2540,
      "hel": 2541,
      "ĠAb": 2542,
      "ĠNews": 2543,
      "Ġexc": 2544,
      "ĠChina": 2545,
      "ĠSyri": 2546,
      "uel": 2547,
      "Ġincrease": 2548,
      "ĠSouth": 2549,
      "Ġlate": 2550,
      "Ġlost": 2551,
      "rect": 2552,
      "Ġresponse": 2553,
      "ele": 2554,
      "yl": 2555,
      "set": 2556,
      "Ġforce": 2557,
      "Al": 2558,
      "ript": 2559,
      "idered": 2560,
      "Ġarrest": 2561,
      "Ġorigin": 2562,
      "Ġtotal": 2563,
      "Ġ24": 2564,
      "Ġcard": 2565,
      "Ġaverage": 2566,
      "Ġimmedi": 2567,
      "Ġrelationship": 2568,
      "Ġfeatures": 2569,
      "eed": 2570,
      "Ġvol": 2571,
      "Ġalleg": 2572,
      "Ġbar": 2573,
      "iple": 2574,
      "ilities": 2575,
      "izing": 2576,
      "ext": 2577,
      "ourt": 2578,
      "val": 2579,
      "Ġwalk": 2580,
      "ĠApril": 2581,
      "Ġclin": 2582,
      "isl": 2583,
      "ogle": 2584,
      "Ġsold": 2585,
      "ĠMarch": 2586,
      "Ġdead": 2587,
      "Ġapplic": 2588,
      "Ġdiagn": 2589,
      "Ġfavor": 2590,
      "Ġansw": 2591,
      "Ġwrong": 2592,
      "eg": 2593,
      "Ġemer": 2594,
      "Ġcoll": 2595,
      "Ġsepar": 2596,
      "Ġled": 2597,
      "Ġrequire": 2598,
      "II": 2599,
      "ĠSept": 2600,
      "aph": 2601,
      "Ġrelig": 2602,
      "Ġsoci": 2603,
      "ĠGen": 2604,
      "Ġmoment": 2605,
      "Ġcivil": 2606,
      "Ġconsidered": 2607,
      "ĠWhite": 2608,
      "Ġden": 2609,
      "Ġwebs": 2610,
      "Ġelection": 2611,
      "Ġmiddle": 2612,
      "Ġpath": 2613,
      "Ġoccur": 2614,
      "Ġforeign": 2615,
      "Ġill": 2616,
      "ĠNot": 2617,
      "Ġsurpr": 2618,
      "Ġlangu": 2619,
      "Ġvir": 2620,
      "Ġwords": 2621,
      "ises": 2622,
      "Ġrecomm": 2623,
      "ĠMed": 2624,
      "lying": 2625,
      "Ġnu": 2626,
      "ĠMond": 2627,
      "Ġtrack": 2628,
      "Ġtechnology": 2629,
      "aur": 2630,
      "omb": 2631,
      "Ġonline": 2632,
      "atives": 2633,
      "Ġrev": 2634,
      "Ġsubject": 2635,
      "ma": 2636,
      "Ġtend": 2637,
      "ĠAct": 2638,
      "Ġball": 2639,
      "Ġanyone": 2640,
      "cul": 2641,
      "Ġshoot": 2642,
      "ysis": 2643,
      "Ġobs": 2644,
      "Ġ2017": 2645,
      "Ġearlier": 2646,
      "osition": 2647,
      "Ġeasy": 2648,
      "ĠTwitter": 2649,
      "Ġplayed": 2650,
      "ĠGod": 2651,
      "Ġopportun": 2652,
      "Ġapproach": 2653,
      "Ġ2011": 2654,
      "Ġstay": 2655,
      "Ġcover": 2656,
      "Ġpopular": 2657,
      "ĠStreet": 2658,
      "lled": 2659,
      "unk": 2660,
      "Ġinternational": 2661,
      "Ġleave": 2662,
      "**": 2663,
      "ining": 2664,
      "Ġtal": 2665,
      "Ġvote": 2666,
      "Ġord": 2667,
      "Ġcreated": 2668,
      "Ġquestions": 2669,
      "ĠCong": 2670,
      "Ġexact": 2671,
      "Ġenvironment": 2672,
      "oke": 2673,
      "ius": 2674,
      "Ġcannot": 2675,
      "ications": 2676,
      "pper": 2677,
      "ners": 2678,
      "Ġexpected": 2679,
      "Ġarticle": 2680,
      "Ġwind": 2681,
      "uth": 2682,
      "ÂŃ": 2683,
      "Ġlay": 2684,
      "Ġ198": 2685,
      "Ġincreased": 2686,
      "Ġcollect": 2687,
      "Ġshot": 2688,
      "Ġreports": 2689,
      "ager": 2690,
      "apan": 2691,
      "ĠPe": 2692,
      "uary": 2693,
      "Ġinside": 2694,
      "ĠFriday": 2695,
      "Ġconsum": 2696,
      "Ġbehav": 2697,
      "Ġprivate": 2698,
      "Ġwide": 2699,
      "ĠMich": 2700,
      "Ġgirl": 2701,
      "Ġstru": 2702,
      "Ġeconomic": 2703,
      "eth": 2704,
      "Ġrepe": 2705,
      "They": 2706,
      "ĠEn": 2707,
      "Ġreceived": 2708,
      "Ġinflu": 2709,
      "ests": 2710,
      "ĠDr": 2711,
      "Ġability": 2712,
      "Ġcontent": 2713,
      "body": 2714,
      "tee": 2715,
      "Ġcontract": 2716,
      "Ġreveal": 2717,
      "ires": 2718,
      "ĠAug": 2719,
      "Ġspeak": 2720,
      "Ġoriginal": 2721,
      "Ġareas": 2722,
      "haps": 2723,
      "ĠJuly": 2724,
      "Ġtum": 2725,
      "Ġsqu": 2726,
      "ĠMy": 2727,
      "25": 2728,
      "Ġtit": 2729,
      "Ġcav": 2730,
      "Ġbur": 2731,
      "ĠSm": 2732,
      "ĠRepublican": 2733,
      "ees": 2734,
      "Ġtradition": 2735,
      "hood": 2736,
      "ino": 2737,
      "ĠMonday": 2738,
      "ellig": 2739,
      "Ġstaff": 2740,
      "ĠHar": 2741,
      "Ġsource": 2742,
      "ites": 2743,
      "Ġrange": 2744,
      "Ġupd": 2745,
      "Ġsubst": 2746,
      "Ġpatient": 2747,
      "aving": 2748,
      "ray": 2749,
      "Ġloss": 2750,
      "ressed": 2751,
      "ges": 2752,
      "eter": 2753,
      "cil": 2754,
      "Ġgrowth": 2755,
      "atural": 2756,
      "itution": 2757,
      "ĠOff": 2758,
      "rem": 2759,
      "Ġregard": 2760,
      "bor": 2761,
      "Ġcells": 2762,
      "uments": 2763,
      "Ġkilled": 2764,
      "Ġsen": 2765,
      "Ġhost": 2766,
      "ĠWill": 2767,
      "Ġplans": 2768,
      "Ġtakes": 2769,
      "ops": 2770,
      "Ġpersonal": 2771,
      "Ġmovement": 2772,
      "Ġfocus": 2773,
      "uit": 2774,
      "rel": 2775,
      "\".": 2776,
      "Ġcross": 2777,
      "Ġpoll": 2778,
      "Ġservices": 2779,
      "At": 2780,
      "Ġbone": 2781,
      "ĠCongress": 2782,
      "Ġphone": 2783,
      "Ġterm": 2784,
      "Ġturned": 2785,
      "Ġ)": 2786,
      "Ġmother": 2787,
      "Ġpage": 2788,
      "ension": 2789,
      "ech": 2790,
      "ĠCanada": 2791,
      "Ġthous": 2792,
      "Ġnearly": 2793,
      "idents": 2794,
      "Ġevents": 2795,
      "Ġfriend": 2796,
      "Ġdecided": 2797,
      "based": 2798,
      "ani": 2799,
      "Ġlog": 2800,
      "Ġestab": 2801,
      "99": 2802,
      "Ġcapital": 2803,
      "arily": 2804,
      "ĠFacebook": 2805,
      "Ġbroad": 2806,
      "Ġreview": 2807,
      "agement": 2808,
      "Ġliving": 2809,
      "Ġroad": 2810,
      "Ġannounced": 2811,
      "Ġlack": 2812,
      "Ġsystems": 2813,
      "ĠWhile": 2814,
      "fully": 2815,
      "Ġstore": 2816,
      "Ġscient": 2817,
      "Ġpers": 2818,
      "Ġdirector": 2819,
      "pat": 2820,
      "ĠFeb": 2821,
      "erves": 2822,
      "Ġtravel": 2823,
      "Ġmethod": 2824,
      "Ġsimple": 2825,
      "Ġterms": 2826,
      "imately": 2827,
      "Ġrecogn": 2828,
      "Ġadministration": 2829,
      "âĢĤ": 2830,
      "joy": 2831,
      "Ġfinancial": 2832,
      "Ġvo": 2833,
      "OR": 2834,
      "ĠSome": 2835,
      "oved": 2836,
      "rought": 2837,
      "ĠPar": 2838,
      "uesday": 2839,
      "icle": 2840,
      "Ġcurrently": 2841,
      "!!!!!!!!!!!!!!!!!!!!!!!!!!!!!!!!": 2842,
      "ĠCount": 2843,
      "Ġmodel": 2844,
      "Ġrespond": 2845,
      "sequ": 2846,
      "Ġarri": 2847,
      "EN": 2848,
      "ging": 2849,
      "ĠEm": 2850,
      "Ġsituation": 2851,
      "ought": 2852,
      "Ġprevent": 2853,
      "ening": 2854,
      "Ġboy": 2855,
      "Ġnation": 2856,
      "ĠSund": 2857,
      "Ġsecret": 2858,
      "Ġgave": 2859,
      "Ġvarious": 2860,
      "itiz": 2861,
      "ĠJapan": 2862,
      "okes": 2863,
      "Ġdemon": 2864,
      "Ġparticip": 2865,
      "Ġvictim": 2866,
      "Ġbuy": 2867,
      "To": 2868,
      "Ġpublished": 2869,
      "Ġste": 2870,
      "ĠPost": 2871,
      "Ġprogress": 2872,
      "Ġworked": 2873,
      "force": 2874,
      "Ġaud": 2875,
      "ĠAustral": 2876,
      "ification": 2877,
      "ese": 2878,
      "clear": 2879,
      "ĠCourt": 2880,
      "Ġpal": 2881,
      "Ġfear": 2882,
      "Ġcouple": 2883,
      "\",": 2884,
      "ground": 2885,
      "ĠLib": 2886,
      "Ġusers": 2887,
      "Ġavoid": 2888,
      "ĠGoogle": 2889,
      "ĠAfric": 2890,
      "Ġmaterial": 2891,
      "Ġreach": 2892,
      "Ġet": 2893,
      "Ġwhose": 2894,
      "oud": 2895,
      "ope": 2896,
      "Ġreb": 2897,
      "Ġtrade": 2898,
      "Ġimpact": 2899,
      "Ġpressure": 2900,
      "60": 2901,
      "bo": 2902,
      "hold": 2903,
      "verse": 2904,
      "Ġlegisl": 2905,
      "Ġround": 2906,
      "bed": 2907,
      "ĠPer": 2908,
      "Ġdefin": 2909,
      "vent": 2910,
      "Ġbank": 2911,
      "ĠTuesday": 2912,
      "oses": 2913,
      "Tr": 2914,
      "Ġpull": 2915,
      "cast": 2916,
      "ĠCor": 2917,
      "Ġchance": 2918,
      "Ġknew": 2919,
      "Ġ40": 2920,
      "vertise": 2921,
      "Ġworth": 2922,
      "ĠBro": 2923,
      "ĠEar": 2924,
      "teb": 2925,
      "Ġhappened": 2926,
      "yond": 2927,
      "Ġphot": 2928,
      "Ġhyp": 2929,
      "Ġaspect": 2930,
      "ills": 2931,
      "astic": 2932,
      "Ġglobal": 2933,
      "Ġimprove": 2934,
      "Ph": 2935,
      "ĠPal": 2936,
      "ursday": 2937,
      "Ġtraining": 2938,
      "Ġperformance": 2939,
      "ĠCont": 2940,
      "ĠNow": 2941,
      "Ġmis": 2942,
      "ceed": 2943,
      "hern": 2944,
      "iction": 2945,
      "Ġmedical": 2946,
      "40": 2947,
      "Ġoffer": 2948,
      "Ġwants": 2949,
      "ĠJanuary": 2950,
      "ula": 2951,
      "ĠOctober": 2952,
      "Ġtou": 2953,
      "Ġpoor": 2954,
      "ĠUK": 2955,
      "Ġincluded": 2956,
      "Ġboard": 2957,
      "Ġfans": 2958,
      "ze": 2959,
      "Ġpen": 2960,
      "chie": 2961,
      "Ġgoes": 2962,
      "Ġtext": 2963,
      "Ġquickly": 2964,
      "One": 2965,
      "Ġmur": 2966,
      "aries": 2967,
      "Ġvia": 2968,
      "Ġclub": 2969,
      "ĠSeptember": 2970,
      "Ġfelt": 2971,
      "ĠAmericans": 2972,
      "ST": 2973,
      "Ġtool": 2974,
      "Ġrob": 2975,
      "omas": 2976,
      "Ġexecut": 2977,
      "Ġintrodu": 2978,
      "Ġworkers": 2979,
      "Ġlives": 2980,
      "ael": 2981,
      "icial": 2982,
      "ĠIslam": 2983,
      "Ġmeeting": 2984,
      "ĠSunday": 2985,
      "Ġut": 2986,
      "ĠBy": 2987,
      "Ġnetwork": 2988,
      "Ġarch": 2989,
      "Ġ2010": 2990,
      "Ġviolence": 2991,
      "down": 2992,
      "reed": 2993,
      "Ġmention": 2994,
      "Ġtried": 2995,
      "rict": 2996,
      "sp": 2997,
      "Ġparts": 2998,
      "iam": 2999,
      "Ġsize": 3000,
      "Ġmedial": 3001,
      "Ġpurp": 3002,
      "load": 3003,
      "Ġperfect": 3004,
      "Ġhuge": 3005,
      "ĠAg": 3006,
      "ham": 3007,
      "anks": 3008,
      "ĠSch": 3009,
      "ĠThursday": 3010,
      "Ġcirc": 3011,
      "aint": 3012,
      "ĠWed": 3013,
      "Ġ197": 3014,
      "Ġund": 3015,
      "Ġteams": 3016,
      "Ġult": 3017,
      "alled": 3018,
      "Ġallowed": 3019,
      "Ġdamage": 3020,
      "?âĢĿ": 3021,
      "Ġbox": 3022,
      "unt": 3023,
      "hib": 3024,
      "ĠDo": 3025,
      "ĠGl": 3026,
      "Ġterror": 3027,
      "ospital": 3028,
      "ctor": 3029,
      "orters": 3030,
      "Ġrace": 3031,
      "aud": 3032,
      "ened": 3033,
      "Ġmal": 3034,
      "Ġens": 3035,
      "Ġspent": 3036,
      "ovember": 3037,
      "aily": 3038,
      "Ġdang": 3039,
      "ctions": 3040,
      "oper": 3041,
      "Ġcancer": 3042,
      "Ġenjoy": 3043,
      "Ġofficers": 3044,
      "Ġ@": 3045,
      "ĠPaul": 3046,
      "Ġcomplex": 3047,
      "Ġrules": 3048,
      "Ġdescribed": 3049,
      "nesday": 3050,
      "Ġnormal": 3051,
      "ĠTimes": 3052,
      "Ġnumbers": 3053,
      "sych": 3054,
      "Ġforces": 3055,
      "Ġheard": 3056,
      "Ġpict": 3057,
      "Ġlink": 3058,
      "ecause": 3059,
      "aches": 3060,
      "Ġextreme": 3061,
      "hem": 3062,
      "ĠBritish": 3063,
      "aught": 3064,
      "Ġproduction": 3065,
      "ha": 3066,
      "Ġcontact": 3067,
      "org": 3068,
      "inary": 3069,
      "ume": 3070,
      "avy": 3071,
      "Ġhon": 3072,
      "cember": 3073,
      "ishing": 3074,
      "Ġindepend": 3075,
      "Ġbrought": 3076,
      "Ġlig": 3077,
      "Ġdemonstr": 3078,
      "king": 3079,
      "Ġess": 3080,
      "Ġdro": 3081,
      "Ġemail": 3082,
      "ĠRussia": 3083,
      "Ġlanguage": 3084,
      "ĠMe": 3085,
      "aves": 3086,
      "tr": 3087,
      "ĠRed": 3088,
      "Ġfair": 3089,
      "Ġparticularly": 3090,
      "ental": 3091,
      "iminal": 3092,
      "Ġexperi": 3093,
      "ĠSenate": 3094,
      "Ġincreasing": 3095,
      "ĠHer": 3096,
      "ky": 3097,
      "Ġweap": 3098,
      "Ġattention": 3099,
      "wo": 3100,
      "Ġfell": 3101,
      "vere": 3102,
      "imum": 3103,
      "ado": 3104,
      "Ġhor": 3105,
      "fort": 3106,
      "idge": 3107,
      "ĠQu": 3108,
      "ĠEl": 3109,
      "Ġimage": 3110,
      "ruary": 3111,
      "Ġnecessary": 3112,
      "Ġwebsite": 3113,
      "ĠWednesday": 3114,
      "Ġson": 3115,
      "estern": 3116,
      "Ġhot": 3117,
      "Ġleading": 3118,
      "ĠAugust": 3119,
      "Ġbrain": 3120,
      "Ġengine": 3121,
      "ĠCalif": 3122,
      "Ġparents": 3123,
      "Ġincludes": 3124,
      "Ġrequired": 3125,
      "Ġdirectly": 3126,
      "Ġtalking": 3127,
      "come": 3128,
      "ibly": 3129,
      "Ġinvestigation": 3130,
      "pir": 3131,
      "ida": 3132,
      "ux": 3133,
      "undred": 3134,
      "Ġvisit": 3135,
      "Ġwritten": 3136,
      "Ġjournal": 3137,
      "Ġupon": 3138,
      "Ġcontr": 3139,
      "fl": 3140,
      "Ġconcept": 3141,
      "âĢĿ.": 3142,
      "Ġmorning": 3143,
      "Ġfather": 3144,
      "Ġgreater": 3145,
      "Ġmajority": 3146,
      "Ġneigh": 3147,
      "Ġprior": 3148,
      "de": 3149,
      "Ġsurv": 3150,
      "ĠEuropean": 3151,
      "Ġsurve": 3152,
      "Ġserious": 3153,
      "Ġ{": 3154,
      "Ġpaper": 3155,
      "ago": 3156,
      "While": 3157,
      "ipp": 3158,
      "ãĥ": 3159,
      "Ġcoach": 3160,
      "Ġconditions": 3161,
      "200": 3162,
      "field": 3163,
      "ondon": 3164,
      "Ġmember": 3165,
      "anced": 3166,
      "Ġprevious": 3167,
      "Ġprep": 3168,
      "Ġgets": 3169,
      "Ġbuilt": 3170,
      "Ġcareer": 3171,
      "Ġmarg": 3172,
      "Ġexcept": 3173,
      "ternal": 3174,
      "Ġmodern": 3175,
      "Ġmaint": 3176,
      "Ġlearn": 3177,
      "Ġtele": 3178,
      "ĠDecember": 3179,
      "Ġregul": 3180,
      "Ġveh": 3181,
      "isions": 3182,
      "Ġ23": 3183,
      "elligence": 3184,
      "AL": 3185,
      "Ġbud": 3186,
      "Ġleader": 3187,
      "22": 3188,
      "Ġ21": 3189,
      "bur": 3190,
      "Ġmatch": 3191,
      "Ġhear": 3192,
      "Ġdeter": 3193,
      "Sh": 3194,
      "Ġadditional": 3195,
      "que": 3196,
      "Ġlatest": 3197,
      "After": 3198,
      "Ġdoub": 3199,
      "'d": 3200,
      "Ġregular": 3201,
      "gest": 3202,
      "raq": 3203,
      "ornia": 3204,
      "Ġassist": 3205,
      "etic": 3206,
      "Ġsometimes": 3207,
      "anches": 3208,
      "Ġeconomy": 3209,
      "Ġconduct": 3210,
      "Ġchief": 3211,
      "ection": 3212,
      "Ġobv": 3213,
      "With": 3214,
      "omp": 3215,
      "Ġrac": 3216,
      "Ġ22": 3217,
      "Ġcompletely": 3218,
      "Ġsort": 3219,
      "Ġdemand": 3220,
      "ĠTV": 3221,
      "ĠNovember": 3222,
      "Ġscreen": 3223,
      "Ġrelative": 3224,
      "oles": 3225,
      "Ġ<": 3226,
      "Ġmax": 3227,
      "Ġplant": 3228,
      "Ġcarry": 3229,
      "Ġcontinues": 3230,
      "Ġachie": 3231,
      "ication": 3232,
      "aturday": 3233,
      "iers": 3234,
      "uf": 3235,
      "oral": 3236,
      "Ġslow": 3237,
      "Ġimmediately": 3238,
      "AC": 3239,
      "Ġenter": 3240,
      "Ġpopulation": 3241,
      "eared": 3242,
      "Ġang": 3243,
      "Ġprison": 3244,
      "Ġcritic": 3245,
      "Ġshowed": 3246,
      "ĠFebruary": 3247,
      "HE": 3248,
      "Ġremain": 3249,
      "egr": 3250,
      "Ġil": 3251,
      "icated": 3252,
      "inks": 3253,
      "rec": 3254,
      "Ġren": 3255,
      "Ġclaims": 3256,
      "ĠCenter": 3257,
      "Ġpasses": 3258,
      "AM": 3259,
      "Ġwond": 3260,
      "Ġimag": 3261,
      "Ġmultiple": 3262,
      "Ġremains": 3263,
      "ledge": 3264,
      "Ġcitiz": 3265,
      "Ġlooks": 3266,
      "Ġphysical": 3267,
      "ĠParty": 3268,
      "Ġoil": 3269,
      "ĠIraq": 3270,
      "Ġdoll": 3271,
      "Ġnatural": 3272,
      "ĠSan": 3273,
      "enced": 3274,
      "nces": 3275,
      "uing": 3276,
      "ĠIndia": 3277,
      "35": 3278,
      "Ġobt": 3279,
      "ĠCounty": 3280,
      "oo": 3281,
      "Ġfast": 3282,
      "olic": 3283,
      "Ġextra": 3284,
      "Ġcorpor": 3285,
      "oming": 3286,
      "ĠAI": 3287,
      "aine": 3288,
      "Ġattacks": 3289,
      "Ġtur": 3290,
      "ille": 3291,
      "ĠPark": 3292,
      "ĠKore": 3293,
      "Ġquarter": 3294,
      "Ġsafety": 3295,
      "Ġsuspect": 3296,
      "Ġtro": 3297,
      "Ġstar": 3298,
      "ivity": 3299,
      "ĠDavid": 3300,
      "ĠMuslim": 3301,
      "Ġcat": 3302,
      "Ġtable": 3303,
      "illed": 3304,
      "Ġsn": 3305,
      "ĠAng": 3306,
      "Ġexactly": 3307,
      "alt": 3308,
      "Ġresearc": 3309,
      "entially": 3310,
      "using": 3311,
      "ession": 3312,
      "Ġcommand": 3313,
      "Ġ2009": 3314,
      "Ġsong": 3315,
      "Ġinteresting": 3316,
      "rome": 3317,
      "Ġsle": 3318,
      "akers": 3319,
      "ĠKe": 3320,
      "Ġcenter": 3321,
      "Ġstandard": 3322,
      "Ġseven": 3323,
      "Ġsympt": 3324,
      "Ġgas": 3325,
      "ped": 3326,
      "Ġepis": 3327,
      "Ġactivity": 3328,
      "Ġprimary": 3329,
      "oring": 3330,
      "rupt": 3331,
      "Ġinternal": 3332,
      "Ġsociety": 3333,
      "Ġrat": 3334,
      "Ġfrequ": 3335,
      "oul": 3336,
      "Ġbeyond": 3337,
      "Ġones": 3338,
      "Ġproducts": 3339,
      "ĠLondon": 3340,
      "Ġrefer": 3341,
      "Ġeight": 3342,
      "ĠInt": 3343,
      "Ġmag": 3344,
      "light": 3345,
      "itis": 3346,
      "ston": 3347,
      "ategy": 3348,
      "Ġanswer": 3349,
      "Ġgiving": 3350,
      "Ġeffects": 3351,
      "aker": 3352,
      "Ġreceive": 3353,
      "iation": 3354,
      "ĠRich": 3355,
      "Ġdetails": 3356,
      "ĠCalifornia": 3357,
      "Ġthinking": 3358,
      "24": 3359,
      "Ġfit": 3360,
      "ĠKing": 3361,
      "ĠRussian": 3362,
      "mar": 3363,
      "Ġtub": 3364,
      "inct": 3365,
      "Ġprovided": 3366,
      "vertisement": 3367,
      "IT": 3368,
      "Ġstories": 3369,
      "Ġcontinued": 3370,
      "chan": 3371,
      "):": 3372,
      "No": 3373,
      "uct": 3374,
      "Ġfat": 3375,
      "Ġhundred": 3376,
      "odes": 3377,
      "raz": 3378,
      "Ġeffort": 3379,
      "ĠDonald": 3380,
      "Ar": 3381,
      "ĠMark": 3382,
      "Ġincome": 3383,
      "Ġ2008": 3384,
      "Ġalthough": 3385,
      "Ġreality": 3386,
      "Ġchanged": 3387,
      "erc": 3388,
      "Ġaren": 3389,
      "Ġstrugg": 3390,
      "Ġdraw": 3391,
      "Ġmessage": 3392,
      "uk": 3393,
      "Ġcentral": 3394,
      "Ġskin": 3395,
      "ĠÐ": 3396,
      "Ġsearch": 3397,
      "Ġdespite": 3398,
      "Ġimplement": 3399,
      "ixed": 3400,
      "Ġcaused": 3401,
      "Ġbeginning": 3402,
      "bet": 3403,
      "Ġ...": 3404,
      "Ġpaid": 3405,
      "istan": 3406,
      "aryn": 3407,
      "Ø§": 3408,
      "Ġtiss": 3409,
      "Ġanim": 3410,
      "igr": 3411,
      "Ġlimited": 3412,
      "pre": 3413,
      "Ġbranch": 3414,
      "Ġstarting": 3415,
      "agon": 3416,
      "ĠEast": 3417,
      "Ġreading": 3418,
      "Ġopportunity": 3419,
      "Ġdied": 3420,
      "utions": 3421,
      "Ġrout": 3422,
      "elv": 3423,
      "Ġadj": 3424,
      "Ġneck": 3425,
      "ources": 3426,
      "Ġmach": 3427,
      "Ġstage": 3428,
      "ĠFirst": 3429,
      "Ġarm": 3430,
      "Ġlooked": 3431,
      "Ġsafe": 3432,
      "She": 3433,
      "ĠSaturday": 3434,
      "Ġupper": 3435,
      "ables": 3436,
      "Ġcollege": 3437,
      "Ġchalleng": 3438,
      "term": 3439,
      "Ġeducation": 3440,
      "ĠSw": 3441,
      "Ġindividuals": 3442,
      "enge": 3443,
      "Ġcalls": 3444,
      "Ġfinally": 3445,
      "Ġhistor": 3446,
      "Ġconvers": 3447,
      "Ġprec": 3448,
      "LE": 3449,
      "Ġquality": 3450,
      "Ġthyroid": 3451,
      "Ġunf": 3452,
      "Ġconsist": 3453,
      "Ġrelated": 3454,
      "Ġallows": 3455,
      "mb": 3456,
      "ĠPat": 3457,
      "Ġspokes": 3458,
      "Ġpurch": 3459,
      "ĠDemocratic": 3460,
      "Ġpractice": 3461,
      "itation": 3462,
      "ĠMore": 3463,
      "ek": 3464,
      "Ġpsych": 3465,
      "Ġeth": 3466,
      "ĠBlack": 3467,
      "Ġjobs": 3468,
      "ĠRepublicans": 3469,
      "Ġuser": 3470,
      "Ġthousands": 3471,
      "craft": 3472,
      "Ġpan": 3473,
      "Ġguy": 3474,
      "Ġsexual": 3475,
      "Ġabdom": 3476,
      "Ġdog": 3477,
      "Ġcomputer": 3478,
      "Ġcontribut": 3479,
      "Ġofficer": 3480,
      "inese": 3481,
      "Ġopening": 3482,
      "Ġwriting": 3483,
      "ously": 3484,
      "Ġminor": 3485,
      "Ġpit": 3486,
      "airs": 3487,
      "Ġeyes": 3488,
      "Ġaw": 3489,
      "Ġproperty": 3490,
      "Ġcompared": 3491,
      "ban": 3492,
      "abor": 3493,
      "venue": 3494,
      "Ġanalysis": 3495,
      "Ġnamed": 3496,
      "Ġ27": 3497,
      "Ġsusp": 3498,
      "Ġverteb": 3499,
      "Ġkids": 3500,
      "Ġcriminal": 3501,
      "mitted": 3502,
      "Ġcounter": 3503,
      "rol": 3504,
      "Ġsupply": 3505,
      "Ġpassed": 3506,
      "ĠCoun": 3507,
      "Ġselect": 3508,
      "Ġschools": 3509,
      "Ġdevice": 3510,
      "ford": 3511,
      "ĠIran": 3512,
      "IC": 3513,
      "Ġstuff": 3514,
      "Ġhem": 3515,
      "Ġshown": 3516,
      "Ġpositive": 3517,
      "Ġfirm": 3518,
      "Ġchoice": 3519,
      "Ġâ": 3520,
      "cial": 3521,
      "rim": 3522,
      "icit": 3523,
      "Ġhous": 3524,
      "ĠRom": 3525,
      "ĠDes": 3526,
      "Ġspread": 3527,
      "Ġstrategy": 3528,
      "Ġtowards": 3529,
      "Ġborder": 3530,
      "Ġrates": 3531,
      "usion": 3532,
      "ju": 3533,
      "Ġplat": 3534,
      "Ġspeed": 3535,
      "ĠSand": 3536,
      "Ġbranches": 3537,
      "Ġ60": 3538,
      "ĠPolice": 3539,
      "ĠDis": 3540,
      "ocked": 3541,
      "Ġsummer": 3542,
      "Ġcavity": 3543,
      "Ġremember": 3544,
      "Ġpiece": 3545,
      "Ġdeveloped": 3546,
      "aly": 3547,
      "Ġhom": 3548,
      "atever": 3549,
      "Ġtherap": 3550,
      "omy": 3551,
      "add": 3552,
      "Ġmoved": 3553,
      "ae": 3554,
      "Ġscience": 3555,
      "Ġready": 3556,
      "Ġorganization": 3557,
      "Ġcertainly": 3558,
      "Ġdisapp": 3559,
      "Ġcorrect": 3560,
      "Ġmeasure": 3561,
      "Ġthroughout": 3562,
      "hl": 3563,
      "Ġaim": 3564,
      "Ġhur": 3565,
      "Ġgrowing": 3566,
      "Ġdocument": 3567,
      "Ġlym": 3568,
      "Ġreasons": 3569,
      "ĠMor": 3570,
      "ews": 3571,
      "Ġdeg": 3572,
      "osure": 3573,
      "ĠEven": 3574,
      "Ġstudent": 3575,
      "Ġrequest": 3576,
      "Ġfootball": 3577,
      "Ġculture": 3578,
      "Ġ+": 3579,
      "ĠThen": 3580,
      "Ġspeech": 3581,
      "Ġemb": 3582,
      "Ġmob": 3583,
      "Ġcouldn": 3584,
      "Ġdetermin": 3585,
      "Ġimpl": 3586,
      "FL": 3587,
      "Ġlif": 3588,
      "Ġ(@": 3589,
      "Ġhtt": 3590,
      "ĠRober": 3591,
      "Ġuses": 3592,
      "Ġclean": 3593,
      "Ġmoving": 3594,
      "ico": 3595,
      "Ġhospital": 3596,
      "ilies": 3597,
      "ĠDay": 3598,
      "Sc": 3599,
      "wise": 3600,
      "irth": 3601,
      "Ġmill": 3602,
      "Ġitem": 3603,
      "rial": 3604,
      "Ġclimate": 3605,
      "wards": 3606,
      "Ġlic": 3607,
      "Ġpresence": 3608,
      "ĠMinister": 3609,
      "ĠSuper": 3610,
      "Ġsell": 3611,
      "ĠFin": 3612,
      "Ġdetail": 3613,
      "Ġthor": 3614,
      "ĠTur": 3615,
      "ĠNet": 3616,
      "Ġwouldn": 3617,
      "Ġhar": 3618,
      "urance": 3619,
      "Ġbehavior": 3620,
      "Ġsynd": 3621,
      "encies": 3622,
      "rowd": 3623,
      "OP": 3624,
      "ĠSim": 3625,
      "Ġtrial": 3626,
      "Ġbiggest": 3627,
      "Ġsac": 3628,
      "icient": 3629,
      "iders": 3630,
      "Ġrap": 3631,
      "Ġrare": 3632,
      "Ġcosts": 3633,
      "Ġlaunch": 3634,
      "Ġoption": 3635,
      "Ġfoss": 3636,
      "Ġguys": 3637,
      "Ġbal": 3638,
      "ĠCons": 3639,
      "aughter": 3640,
      "zz": 3641,
      "Ġletter": 3642,
      "Ġmeaning": 3643,
      "Ġwrite": 3644,
      "Ġvoice": 3645,
      "itute": 3646,
      "Ġpark": 3647,
      "ĠTex": 3648,
      "Ġdeli": 3649,
      "Ġlarger": 3650,
      "Ġsoftware": 3651,
      "ram": 3652,
      "Ġcamer": 3653,
      "antly": 3654,
      "Ġtrust": 3655,
      "Ġdoor": 3656,
      "Ġfeed": 3657,
      "Ġhelped": 3658,
      "Ġconference": 3659,
      "eration": 3660,
      "Ġdefense": 3661,
      "Ġcris": 3662,
      "ĠGovern": 3663,
      "ĠEnglish": 3664,
      "Ġcharge": 3665,
      "iate": 3666,
      "ny": 3667,
      "Ġstudies": 3668,
      "Ġbudget": 3669,
      "more": 3670,
      "Ġir": 3671,
      "Ġfile": 3672,
      "arian": 3673,
      "Ġreform": 3674,
      "ros": 3675,
      "Ġscene": 3676,
      "lands": 3677,
      "Ġcharacters": 3678,
      "hest": 3679,
      "Ġpowerful": 3680,
      "Ġvoters": 3681,
      "eff": 3682,
      "Ġperhaps": 3683,
      "rench": 3684,
      "Ġdesigned": 3685,
      "Ġbattle": 3686,
      "orge": 3687,
      "Ġmut": 3688,
      "ĠMart": 3689,
      "ĠBen": 3690,
      "ĠJack": 3691,
      "Ġvein": 3692,
      "Ġnature": 3693,
      "roy": 3694,
      "Ġalone": 3695,
      "Ġprem": 3696,
      "ateral": 3697,
      "----": 3698,
      "Ġobserv": 3699,
      "Ġstra": 3700,
      "ighter": 3701,
      "ĠChar": 3702,
      "Ġconserv": 3703,
      "Ġreligious": 3704,
      "Ġsymptoms": 3705,
      "Ġves": 3706,
      "Ġcool": 3707,
      "enty": 3708,
      "olute": 3709,
      "ĠJames": 3710,
      "Ġeventually": 3711,
      "Ġtypes": 3712,
      "hetic": 3713,
      "ĠIS": 3714,
      "reng": 3715,
      "Ġfollowed": 3716,
      "Ġhappy": 3717,
      "Ġmovie": 3718,
      "ronic": 3719,
      "ĠGermany": 3720,
      "Ġx": 3721,
      "ĠMichael": 3722,
      "Ġilleg": 3723,
      "All": 3724,
      "icks": 3725,
      ");": 3726,
      "ingu": 3727,
      "Ġlines": 3728,
      "Ġsurround": 3729,
      "Ġpromot": 3730,
      "Ġgone": 3731,
      "Ġforced": 3732,
      "Ġappears": 3733,
      "Ġten": 3734,
      "Ġpus": 3735,
      "Ġrestr": 3736,
      "Ġassess": 3737,
      "Ġswe": 3738,
      "ĠTor": 3739,
      "Ġfactors": 3740,
      "Ġprojects": 3741,
      "Ġoptions": 3742,
      "Ġencour": 3743,
      "right": 3744,
      "Ġcele": 3745,
      "rief": 3746,
      "Ġnerves": 3747,
      "cell": 3748,
      "ĠNe": 3749,
      "Ġdrive": 3750,
      "Ġactions": 3751,
      "Ġopin": 3752,
      "Ġgives": 3753,
      "iment": 3754,
      "Ġpattern": 3755,
      "omen": 3756,
      "osh": 3757,
      "Ġ28": 3758,
      "Ġprinc": 3759,
      "Ġfully": 3760,
      "ES": 3761,
      "irmed": 3762,
      "Ġproced": 3763,
      "Ġconflic": 3764,
      "Ġmaybe": 3765,
      "Ġeasily": 3766,
      "Ġestim": 3767,
      "Ġwife": 3768,
      "Ġnoted": 3769,
      "Ġcomments": 3770,
      "Ġbooks": 3771,
      "ĠDemocrats": 3772,
      "ĠÂ£": 3773,
      "ores": 3774,
      "Ġcondition": 3775,
      "Ġblog": 3776,
      "Ġadvant": 3777,
      "Ġflex": 3778,
      "Ġfailed": 3779,
      "Ġlargest": 3780,
      "Ġdate": 3781,
      "omatic": 3782,
      "Ġunique": 3783,
      "www": 3784,
      "Ġpredict": 3785,
      "Ġband": 3786,
      "icago": 3787,
      "Ġhighly": 3788,
      "?\"": 3789,
      "Ġtraditional": 3790,
      "Ġaware": 3791,
      "Ġdifference": 3792,
      "Ġsources": 3793,
      "oes": 3794,
      "Ġmist": 3795,
      "23": 3796,
      "Ġoverall": 3797,
      "Now": 3798,
      "Ġvalues": 3799,
      "Ġspending": 3800,
      "ribution": 3801,
      "coin": 3802,
      "Ġcandidate": 3803,
      "BI": 3804,
      "orks": 3805,
      "ĠMon": 3806,
      "ĠGreen": 3807,
      "ĠChinese": 3808,
      "aven": 3809,
      "Ġign": 3810,
      "ĠAir": 3811,
      "ĠBat": 3812,
      "Ġspir": 3813,
      "ĠLeague": 3814,
      "lease": 3815,
      "adem": 3816,
      "odies": 3817,
      "Ġvac": 3818,
      "Ġaltern": 3819,
      "Ġplatform": 3820,
      "28": 3821,
      "Ġspl": 3822,
      "ĠâĢ¦": 3823,
      "ource": 3824,
      "Ġpresidential": 3825,
      "OS": 3826,
      "orney": 3827,
      "Ġdire": 3828,
      "illa": 3829,
      "Ġefforts": 3830,
      "Ġpun": 3831,
      "Ġmeant": 3832,
      "ength": 3833,
      "Ġgenerally": 3834,
      "Ġbenefits": 3835,
      "ĠBill": 3836,
      "Ġminister": 3837,
      "men": 3838,
      "Ġcrime": 3839,
      "gery": 3840,
      "Ġgrad": 3841,
      "Ġfighting": 3842,
      "Ġsil": 3843,
      "Ġfloor": 3844,
      "Advertisement": 3845,
      "Ġyes": 3846,
      "Ġesc": 3847,
      "owers": 3848,
      "Ġbott": 3849,
      "Ġpelv": 3850,
      "Ġder": 3851,
      "Ġintegr": 3852,
      "Ġproduce": 3853,
      "My": 3854,
      "Ġsat": 3855,
      "Ġjump": 3856,
      "Ġpolitics": 3857,
      "According": 3858,
      "lin": 3859,
      "Ġdebate": 3860,
      "part": 3861,
      "Ġfamilies": 3862,
      "ĠAssoci": 3863,
      "Ġstatus": 3864,
      "Ġcitizens": 3865,
      "Im": 3866,
      "vision": 3867,
      "ĠFrom": 3868,
      "Ġclearly": 3869,
      "Ġraised": 3870,
      "OT": 3871,
      "Ġ*": 3872,
      "inated": 3873,
      "ĠAlex": 3874,
      "Ġspot": 3875,
      "45": 3876,
      "itude": 3877,
      "Ġfeature": 3878,
      "while": 3879,
      "Ġfigure": 3880,
      "wood": 3881,
      "ares": 3882,
      "Ġahead": 3883,
      "Ġhero": 3884,
      "Ġcrowd": 3885,
      "90": 3886,
      "Ġrevealed": 3887,
      "Ġvessel": 3888,
      "Ġgast": 3889,
      "inger": 3890,
      "Ġhack": 3891,
      "Ġsmart": 3892,
      "Ġdark": 3893,
      "Ġrock": 3894,
      "ancy": 3895,
      "ĠFranc": 3896,
      "Ġreplace": 3897,
      "orida": 3898,
      "ags": 3899,
      "Ġgold": 3900,
      "Ġnuclear": 3901,
      "ett": 3902,
      "OM": 3903,
      "Ġbeat": 3904,
      "ĠHere": 3905,
      "ocks": 3906,
      "Ġsigned": 3907,
      "Re": 3908,
      "Ġtour": 3909,
      "Ġcart": 3910,
      "Ġtruth": 3911,
      "Ġtempor": 3912,
      "ini": 3913,
      "ici": 3914,
      "amm": 3915,
      "Ġmanagement": 3916,
      "Ġhyper": 3917,
      "ping": 3918,
      "Ġ26": 3919,
      "aks": 3920,
      "Ġintelligence": 3921,
      "Ġfreed": 3922,
      "Don": 3923,
      "ĠSer": 3924,
      "Ġanaly": 3925,
      "ĠBo": 3926,
      "Ġtouch": 3927,
      "Ġstreng": 3928,
      "Ġenem": 3929,
      "Ġprovides": 3930,
      "ĠSyria": 3931,
      "21": 3932,
      "Ġ2007": 3933,
      "yan": 3934,
      "Ġcru": 3935,
      "berg": 3936,
      "Ġtwe": 3937,
      "yright": 3938,
      "Ġstraight": 3939,
      "80": 3940,
      "ero": 3941,
      "see": 3942,
      "Ġcauses": 3943,
      "ĠMcC": 3944,
      "Is": 3945,
      "Ġmechan": 3946,
      "Be": 3947,
      "ĠRob": 3948,
      "Ġfeet": 3949,
      "Ġpreviously": 3950,
      "Ġchallenge": 3951,
      "Ġligament": 3952,
      "ĠSam": 3953,
      "ĠHigh": 3954,
      "Ġknows": 3955,
      "Ġvill": 3956,
      "ĠEarth": 3957,
      "band": 3958,
      "onents": 3959,
      "igration": 3960,
      "iles": 3961,
      "Ġshut": 3962,
      "Ġadult": 3963,
      "ĠStar": 3964,
      "ĠCouncil": 3965,
      "Pro": 3966,
      "Ġcast": 3967,
      "istry": 3968,
      "ampions": 3969,
      "Ġfasc": 3970,
      "teries": 3971,
      "Ġnote": 3972,
      "Ġseemed": 3973,
      "Ġideas": 3974,
      "itness": 3975,
      "Ġdisplay": 3976,
      "Ġcentury": 3977,
      "Ġorganiz": 3978,
      "ĠPlay": 3979,
      "26": 3980,
      "Ġdraft": 3981,
      "Ġeffective": 3982,
      "Ġbeg": 3983,
      "Ġrise": 3984,
      "Ġalleged": 3985,
      "Ġcrisis": 3986,
      "Ġapparent": 3987,
      "Ġexpand": 3988,
      "Ġtypically": 3989,
      "Ġtitle": 3990,
      "Ġresearchers": 3991,
      "pri": 3992,
      "Ġkept": 3993,
      "Ġreached": 3994,
      "ĠHillary": 3995,
      "itely": 3996,
      "Ġdecades": 3997,
      "Ġacqu": 3998,
      "ufact": 3999,
      "arp": 4000,
      "otic": 4001,
      "ĠMex": 4002,
      "Ġyourself": 4003,
      "Ġstructure": 4004,
      "Ġpurpose": 4005,
      "za": 4006,
      "Ġthrow": 4007,
      "change": 4008,
      "Ġrule": 4009,
      "Ġarrested": 4010,
      "gn": 4011,
      "Ġappeared": 4012,
      "____": 4013,
      "ĠBre": 4014,
      "Ġtesting": 4015,
      "Ġcredit": 4016,
      "Ġax": 4017,
      "Ġnom": 4018,
      "ĠCap": 4019,
      "Ġplaces": 4020,
      "ports": 4021,
      "Ġdrugs": 4022,
      "ios": 4023,
      "onent": 4024,
      "orter": 4025,
      "Ġbeaut": 4026,
      "Ġwild": 4027,
      "Ġjoin": 4028,
      "ste": 4029,
      "ache": 4030,
      "Ġstructures": 4031,
      "ĠTexas": 4032,
      "erry": 4033,
      "ĠMicro": 4034,
      "ocal": 4035,
      "ÙĦ": 4036,
      "Ġconfirmed": 4037,
      "ĠSmith": 4038,
      "Ġfine": 4039,
      "ids": 4040,
      "Ġweight": 4041,
      "Ġagency": 4042,
      "27": 4043,
      "ipe": 4044,
      "IA": 4045,
      "room": 4046,
      "Ġenforce": 4047,
      "Ġagreement": 4048,
      "ĠAccording": 4049,
      "ki": 4050,
      "ĠII": 4051,
      "Ġeval": 4052,
      "Ġfavorite": 4053,
      "Ġsenior": 4054,
      "ken": 4055,
      "oly": 4056,
      "ara": 4057,
      "asion": 4058,
      "ĠRo": 4059,
      "ED": 4060,
      "box": 4061,
      "cont": 4062,
      "ĠCle": 4063,
      "iring": 4064,
      "ĠMost": 4065,
      "Ġscen": 4066,
      "Ġwat": 4067,
      "Ġonto": 4068,
      "Ġpeace": 4069,
      "Ġsche": 4070,
      "Ġbecomes": 4071,
      "Ġunderstanding": 4072,
      "ĠJustice": 4073,
      "SA": 4074,
      "Ġpoly": 4075,
      "ĠIndian": 4076,
      "iny": 4077,
      "Ġsend": 4078,
      "Ġbrother": 4079,
      "Ġbasic": 4080,
      "Ġproposed": 4081,
      "Ġlymph": 4082,
      "ĠFrance": 4083,
      "orrow": 4084,
      "ĠMid": 4085,
      "Ġresist": 4086,
      "ĠUnion": 4087,
      "juana": 4088,
      "udd": 4089,
      "ĠCommission": 4090,
      ".âĢĻ": 4091,
      "Ġlob": 4092,
      "ada": 4093,
      "Ġsection": 4094,
      "ĠEvery": 4095,
      "soft": 4096,
      "Ġmyself": 4097,
      "Ġtransl": 4098,
      "ĠFlorida": 4099,
      "Ġtissue": 4100,
      "word": 4101,
      "Ġgoals": 4102,
      "Ġknowledge": 4103,
      "Ġowners": 4104,
      "Ġdemocr": 4105,
      "ĠQue": 4106,
      "mission": 4107,
      "wide": 4108,
      "arijuana": 4109,
      "AD": 4110,
      "Ġmale": 4111,
      "acing": 4112,
      "Ġdrink": 4113,
      "iled": 4114,
      "Ġweb": 4115,
      "ĠScott": 4116,
      "Ġeye": 4117,
      "ean": 4118,
      "inn": 4119,
      "Ġmount": 4120,
      "ifying": 4121,
      "Ġsave": 4122,
      "Ġadop": 4123,
      "Ġchem": 4124,
      "gency": 4125,
      "miss": 4126,
      "Ġshowing": 4127,
      "oday": 4128,
      "Ġslight": 4129,
      "Ġcere": 4130,
      "Ġstre": 4131,
      "ĠMat": 4132,
      "Ġhaven": 4133,
      "riage": 4134,
      "29": 4135,
      "Ġbelieved": 4136,
      "rav": 4137,
      "ĠVir": 4138,
      "rs": 4139,
      "urrent": 4140,
      "Ġcry": 4141,
      "Some": 4142,
      "ya": 4143,
      "ĠTom": 4144,
      "igned": 4145,
      "Ġbihl": 4146,
      "Ġsyndrome": 4147,
      "Ġnice": 4148,
      "Ġattract": 4149,
      "ĠApple": 4150,
      "ser": 4151,
      "Ġmand": 4152,
      "Ġwhatever": 4153,
      "Ġtemper": 4154,
      "iance": 4155,
      "ĠSl": 4156,
      "ĠServ": 4157,
      "ĠMo": 4158,
      "ription": 4159,
      "Ġsales": 4160,
      "Ġbirth": 4161,
      "roll": 4162,
      "aming": 4163,
      "istics": 4164,
      "Ġopposition": 4165,
      "Ġinjury": 4166,
      "Ġtherapy": 4167,
      "ij": 4168,
      "Ð¾": 4169,
      "Ġpet": 4170,
      "osal": 4171,
      "ĠChristian": 4172,
      "ĠGeneral": 4173,
      "alse": 4174,
      "Ġended": 4175,
      "Ġsuccessful": 4176,
      "ĠCanadian": 4177,
      "Ġtick": 4178,
      "Ġmission": 4179,
      "Ġcalling": 4180,
      "Ġruns": 4181,
      "TC": 4182,
      "Ġ}": 4183,
      "Ġtests": 4184,
      "ĠAustralia": 4185,
      "Ġcateg": 4186,
      "Ġdream": 4187,
      "Ġcustomers": 4188,
      "bon": 4189,
      "icy": 4190,
      "lection": 4191,
      "Ġstyle": 4192,
      "iling": 4193,
      "Ġresources": 4194,
      "ounds": 4195,
      "Ġsupposed": 4196,
      "Ġadding": 4197,
      "Ġcities": 4198,
      "Ġsurgery": 4199,
      "Ġliter": 4200,
      "Ġweekend": 4201,
      "PS": 4202,
      "Ġcord": 4203,
      "Ġfunding": 4204,
      "Ġreduce": 4205,
      "Ġbenefit": 4206,
      "Ġcharges": 4207,
      "Ġstreet": 4208,
      "umber": 4209,
      "Ġdevices": 4210,
      "Un": 4211,
      "yer": 4212,
      "aked": 4213,
      "Ġmostly": 4214,
      "secut": 4215,
      "Ġjudge": 4216,
      "ilos": 4217,
      "Ġleague": 4218,
      "ĠChicago": 4219,
      "Ġfailure": 4220,
      "Ġdirection": 4221,
      "Ġproduced": 4222,
      "Ġpolicies": 4223,
      "Ġwait": 4224,
      "iant": 4225,
      "icians": 4226,
      "estic": 4227,
      "ĠFrench": 4228,
      "Ġbackground": 4229,
      "Ġestabl": 4230,
      "70": 4231,
      "kn": 4232,
      "rary": 4233,
      "Ġbrief": 4234,
      "Ġclinical": 4235,
      "Ġleaving": 4236,
      "Ġdepartment": 4237,
      "Ġdigital": 4238,
      "mark": 4239,
      "point": 4240,
      "Ġtherefore": 4241,
      "Ġchoose": 4242,
      "EO": 4243,
      "cher": 4244,
      "Ġsevere": 4245,
      "Ġven": 4246,
      "ĠEU": 4247,
      "Ġcontext": 4248,
      "Ġadvoc": 4249,
      "Ġnegot": 4250,
      "Ġinnerv": 4251,
      "Ġexecutive": 4252,
      "Ġextremely": 4253,
      "Ġhappens": 4254,
      "Ġclaimed": 4255,
      "aith": 4256,
      "ville": 4257,
      "Ġprograms": 4258,
      "Ġabsolute": 4259,
      "Ġmurder": 4260,
      "no": 4261,
      "ties": 4262,
      "umn": 4263,
      "uries": 4264,
      "Ġactual": 4265,
      "ĠLaw": 4266,
      "Ġassault": 4267,
      "Ġlearned": 4268,
      "Ġinitial": 4269,
      "ustr": 4270,
      "Ġlocation": 4271,
      "vest": 4272,
      "ĠMod": 4273,
      "Ġauthorities": 4274,
      "resh": 4275,
      "Ġspend": 4276,
      "Ġsolution": 4277,
      "Ġnegative": 4278,
      "Ġfemale": 4279,
      "ĠRec": 4280,
      "Ġresidents": 4281,
      "ĠVal": 4282,
      "Ġlimit": 4283,
      "Ġshooting": 4284,
      "Here": 4285,
      "Ġbul": 4286,
      "Ġasse": 4287,
      "Ġactive": 4288,
      "Ġmassive": 4289,
      "ented": 4290,
      "ĠOf": 4291,
      "Ġoffered": 4292,
      "Ġexplained": 4293,
      "Ġdocuments": 4294,
      "ĠAngel": 4295,
      "orial": 4296,
      "Ġfan": 4297,
      "olar": 4298,
      "Ġcontain": 4299,
      "500": 4300,
      "dd": 4301,
      "Ġmanager": 4302,
      "Ġemployees": 4303,
      "Ġappl": 4304,
      "Ġ196": 4305,
      "Ġsites": 4306,
      "Ġperformed": 4307,
      "Ġvirt": 4308,
      "ingly": 4309,
      "Ġreact": 4310,
      "Ġtraff": 4311,
      "Ġparties": 4312,
      "Ġlaun": 4313,
      "ales": 4314,
      "Ġclos": 4315,
      "angl": 4316,
      "Ġ80": 4317,
      "Ġresponsible": 4318,
      "Ġ>": 4319,
      "ona": 4320,
      "Ġcards": 4321,
      "ĠOther": 4322,
      "ĠTrans": 4323,
      "Ġcreating": 4324,
      "Ġtrou": 4325,
      "Ġasking": 4326,
      "Ġdangerous": 4327,
      "Ġindependent": 4328,
      "ĠFrancis": 4329,
      "rig": 4330,
      "Ġvent": 4331,
      "bol": 4332,
      "Ġpush": 4333,
      "âĢ¢": 4334,
      "Ġcrew": 4335,
      "Ġdollars": 4336,
      ".'": 4337,
      "pen": 4338,
      "Ġseeing": 4339,
      "Ġreflect": 4340,
      "Ġmoral": 4341,
      "ĠSecret": 4342,
      "Ġseparate": 4343,
      "Ġmargin": 4344,
      "Ġtheory": 4345,
      "Ġplaced": 4346,
      "Ġmanufact": 4347,
      "ĠOffice": 4348,
      "ĠSun": 4349,
      "Ġconcerns": 4350,
      "Ġlose": 4351,
      "ĠDef": 4352,
      "orders": 4353,
      "mittee": 4354,
      "which": 4355,
      "Ġinfluence": 4356,
      "Ġensure": 4357,
      "Ġstrateg": 4358,
      "Ġlearning": 4359,
      "][": 4360,
      "iated": 4361,
      "las": 4362,
      "vant": 4363,
      "ady": 4364,
      "Ġring": 4365,
      "Ġship": 4366,
      "Ġincident": 4367,
      "Ġopened": 4368,
      "Ġrestaur": 4369,
      "Ġstation": 4370,
      "ĠHam": 4371,
      "Ġemot": 4372,
      "Ġimages": 4373,
      "Ġuns": 4374,
      "Ġunlike": 4375,
      "Ġillegal": 4376,
      "Ġbow": 4377,
      "sey": 4378,
      "ĠBecause": 4379,
      "Ġteac": 4380,
      "Ġsmaller": 4381,
      "ĠInternational": 4382,
      "het": 4383,
      "Ġwhom": 4384,
      "Ġexternal": 4385,
      "Ġchurch": 4386,
      "Ġidentity": 4387,
      "Ġlegislation": 4388,
      "ĠComp": 4389,
      "Ġrecords": 4390,
      "isher": 4391,
      "Ġgreen": 4392,
      "ĠSchool": 4393,
      "ĠWind": 4394,
      "ĠWell": 4395,
      "Ġflow": 4396,
      "going": 4397,
      "Ġdiagnosis": 4398,
      "Ġlik": 4399,
      "Ġuseful": 4400,
      "Ġinterested": 4401,
      "Ġcritical": 4402,
      "bing": 4403,
      "ĠGeorge": 4404,
      "ĠBel": 4405,
      "Ġworse": 4406,
      "Ġclosed": 4407,
      "Ġabdominal": 4408,
      "ĠWhy": 4409,
      "ĠPalest": 4410,
      "DA": 4411,
      "Not": 4412,
      "Ġforms": 4413,
      "Ġhearing": 4414,
      "Ġteach": 4415,
      "Ġcoverage": 4416,
      "Ġinstall": 4417,
      "Ġwonder": 4418,
      "Ġsleep": 4419,
      "Ġadvantage": 4420,
      "ront": 4421,
      "icide": 4422,
      "unction": 4423,
      "Ġbottom": 4424,
      "Ġpros": 4425,
      "Ġrect": 4426,
      "ĠUp": 4427,
      "Ġbasis": 4428,
      "100": 4429,
      "vention": 4430,
      "ĠMany": 4431,
      "aped": 4432,
      "Ġcolor": 4433,
      "Ġoperations": 4434,
      "Ġweapons": 4435,
      "iced": 4436,
      "rian": 4437,
      "earch": 4438,
      "ĠJohnson": 4439,
      "Ġapplication": 4440,
      "==": 4441,
      "Ġlength": 4442,
      "Ġnovel": 4443,
      "ĠArab": 4444,
      "Ġlabor": 4445,
      "coh": 4446,
      "ĠChurch": 4447,
      "Cl": 4448,
      "erg": 4449,
      "amb": 4450,
      "Ġweak": 4451,
      "Ġshop": 4452,
      "ĠLet": 4453,
      "Ġspect": 4454,
      "ĠReg": 4455,
      "Ġ29": 4456,
      "Ġqual": 4457,
      "Ġdebt": 4458,
      "ĠRichard": 4459,
      "âĢĿ,": 4460,
      "Ġfeeling": 4461,
      "Ġrecommend": 4462,
      "Ġcelebr": 4463,
      "33": 4464,
      "NA": 4465,
      "Ġformed": 4466,
      "aby": 4467,
      "Ġoffers": 4468,
      "ĠHealth": 4469,
      "Ġmiles": 4470,
      "ING": 4471,
      "ĠDel": 4472,
      "Ġdefend": 4473,
      "ĠPeople": 4474,
      "Ġvictims": 4475,
      "Ġetc": 4476,
      "Mr": 4477,
      "Su": 4478,
      "equ": 4479,
      "ĠGold": 4480,
      "tered": 4481,
      "Ġinsurance": 4482,
      "Ġpassing": 4483,
      "Ġexpress": 4484,
      "Ġraise": 4485,
      "Ġneighbor": 4486,
      "ĠFound": 4487,
      "ĠOk": 4488,
      "Ġunc": 4489,
      "Ġepisode": 4490,
      "ii": 4491,
      "well": 4492,
      "These": 4493,
      "ribute": 4494,
      "Ġseconds": 4495,
      "Ġcircum": 4496,
      "Ġrelatively": 4497,
      "ĠÃ": 4498,
      "Ġmort": 4499,
      "ota": 4500,
      "Ġnine": 4501,
      "Ġamb": 4502,
      "Ġposted": 4503,
      "Ġoccup": 4504,
      "However": 4505,
      "Ġrepeated": 4506,
      "itable": 4507,
      "ĠLa": 4508,
      "Ġdestroy": 4509,
      "ĠInternet": 4510,
      "ĠPort": 4511,
      "Ġgrand": 4512,
      "US": 4513,
      "ĠAP": 4514,
      "ĠBay": 4515,
      "Ġserved": 4516,
      "clusion": 4517,
      "Ġtumors": 4518,
      "By": 4519,
      "ugg": 4520,
      "Ġbed": 4521,
      "Ġmarijuana": 4522,
      "Ġtransfer": 4523,
      "Ġdetect": 4524,
      "32": 4525,
      "Le": 4526,
      "RI": 4527,
      "ih": 4528,
      "Ġcaught": 4529,
      "Ġmicro": 4530,
      "Ġheat": 4531,
      "liament": 4532,
      "ĠEngland": 4533,
      "Ġfreedom": 4534,
      "nel": 4535,
      "uous": 4536,
      "Ġdrop": 4537,
      "icles": 4538,
      "Ġagreed": 4539,
      "Ġcontrovers": 4540,
      "Ġhighest": 4541,
      "Ġpul": 4542,
      "ĠChe": 4543,
      "coming": 4544,
      "Ġmentioned": 4545,
      "Ġheavy": 4546,
      "Ġincred": 4547,
      "Ġbrand": 4548,
      "Ġissued": 4549,
      "Ġviews": 4550,
      "Ġachieve": 4551,
      "Ġsale": 4552,
      "ĠGet": 4553,
      "ĠLou": 4554,
      "Ġphilos": 4555,
      "ĠJer": 4556,
      "Ġfinding": 4557,
      "Ġappropri": 4558,
      "overy": 4559,
      "Ġdie": 4560,
      "Ġhomes": 4561,
      "FC": 4562,
      "ference": 4563,
      "atically": 4564,
      "Ġbomb": 4565,
      "Ġnames": 4566,
      "olf": 4567,
      "icted": 4568,
      "ĠKorea": 4569,
      "ĠGreat": 4570,
      "Ġallowing": 4571,
      "ĠAut": 4572,
      "istor": 4573,
      "Ġrot": 4574,
      "itt": 4575,
      "Ġded": 4576,
      "ĠAdd": 4577,
      "Ġfibers": 4578,
      "Ġreject": 4579,
      "Ġassum": 4580,
      "ĠCommittee": 4581,
      "Ġpicture": 4582,
      "but": 4583,
      "Ġvessels": 4584,
      "inate": 4585,
      "ĠStud": 4586,
      "Ġcolon": 4587,
      "Ġsupported": 4588,
      "Ġentirely": 4589,
      "Ġmotor": 4590,
      "ĠGovernment": 4591,
      "Ġdaily": 4592,
      "ĠBank": 4593,
      "RA": 4594,
      "Ġconcent": 4595,
      "Ex": 4596,
      "Ðµ": 4597,
      "erate": 4598,
      "ĠMet": 4599,
      "Ġrank": 4600,
      "uild": 4601,
      "vis": 4602,
      "Ġhair": 4603,
      "Ġbelief": 4604,
      "Ġmeasures": 4605,
      "Ġmillions": 4606,
      "zen": 4607,
      "Ġran": 4608,
      "ĠChris": 4609,
      "ĠAfrican": 4610,
      "kr": 4611,
      "ĠMac": 4612,
      "ears": 4613,
      "Ġprices": 4614,
      "ography": 4615,
      "ï¼": 4616,
      "ĠAnt": 4617,
      "Ġplanning": 4618,
      "Ġreturned": 4619,
      "Ġhundreds": 4620,
      "Ġneuro": 4621,
      "Ġtruly": 4622,
      "Ġsupporters": 4623,
      "Ġcommittee": 4624,
      "cious": 4625,
      "pping": 4626,
      "Ġarmy": 4627,
      "Ġdriving": 4628,
      "Ġconcerned": 4629,
      "Ġleadership": 4630,
      "Ð°": 4631,
      "amen": 4632,
      "ĠBrown": 4633,
      "ulate": 4634,
      "Ġdefe": 4635,
      "RED": 4636,
      "Ġsides": 4637,
      "acity": 4638,
      "Ġplane": 4639,
      "Ġwaiting": 4640,
      "ĠIslamic": 4641,
      "ĠMicrosoft": 4642,
      "ka": 4643,
      "Ġhus": 4644,
      "Ġwilling": 4645,
      "Ġremoved": 4646,
      "Ġelectric": 4647,
      "SP": 4648,
      "Ġpil": 4649,
      "ĠNFL": 4650,
      "ĠOh": 4651,
      "Ġunit": 4652,
      "Ġsetting": 4653,
      "Ġinvestment": 4654,
      "htt": 4655,
      "Ġsun": 4656,
      "Ġ35": 4657,
      "Ġprotest": 4658,
      "Ġeasier": 4659,
      "Ġradio": 4660,
      "Ġenforcement": 4661,
      "with": 4662,
      "Ġnor": 4663,
      "ĠMars": 4664,
      "uman": 4665,
      "osc": 4666,
      "Ġbecoming": 4667,
      "scrib": 4668,
      "Ġmer": 4669,
      "Ġthus": 4670,
      "ĠMad": 4671,
      "ĠBob": 4672,
      "Ġshared": 4673,
      "Ġaccur": 4674,
      "Ġserve": 4675,
      "Ġmarriage": 4676,
      "!!!!!!!!!!!!!!!!!!!!!!!!!!!!!!!!!!!!!!!!!!!!!!!!!!!!!!!!!!!!!!!!": 4677,
      "ias": 4678,
      "ĠPC": 4679,
      "Ġspinal": 4680,
      "Ġends": 4681,
      "Ġautom": 4682,
      "Ġtelling": 4683,
      "Ġrecommended": 4684,
      "Ġbodies": 4685,
      "Ġfold": 4686,
      "Ġdiscussion": 4687,
      "ET": 4688,
      "do": 4689,
      "Ġpurs": 4690,
      "anted": 4691,
      "phone": 4692,
      "Ġ2006": 4693,
      "Ġcharged": 4694,
      "rog": 4695,
      "Ġnotice": 4696,
      "Ġpartners": 4697,
      "Ġpelvic": 4698,
      "Ġfle": 4699,
      "Ġconsequ": 4700,
      "ĠPress": 4701,
      "resp": 4702,
      "ĠOur": 4703,
      "arynge": 4704,
      "onto": 4705,
      "Ġsigns": 4706,
      "Ġfarm": 4707,
      "Ġfossa": 4708,
      "known": 4709,
      "rum": 4710,
      "van": 4711,
      "Ġwitness": 4712,
      "Ġstated": 4713,
      "Ġstress": 4714,
      "ortunately": 4715,
      "Ġcollection": 4716,
      "Ġscientists": 4717,
      "andon": 4718,
      "Ġchair": 4719,
      "enses": 4720,
      "Ġproviding": 4721,
      "Ġsuggested": 4722,
      "Ġannounce": 4723,
      "Ġprint": 4724,
      "Ġattend": 4725,
      "board": 4726,
      "ĠGame": 4727,
      "eline": 4728,
      "Ġplanned": 4729,
      "ĠIsraeli": 4730,
      "Ġprofessional": 4731,
      "Ġmental": 4732,
      "riend": 4733,
      "Ġopinion": 4734,
      "ID": 4735,
      "hy": 4736,
      "ipped": 4737,
      "Ġsyn": 4738,
      "ception": 4739,
      "Ġplease": 4740,
      "Ġdoubt": 4741,
      "ĠSanders": 4742,
      "Ġplanet": 4743,
      "Ġinvolve": 4744,
      "Ġfalse": 4745,
      "Ġbeer": 4746,
      "Ġrough": 4747,
      "Ġcommer": 4748,
      "osa": 4749,
      "Ġplays": 4750,
      "ĠOver": 4751,
      "Ġamaz": 4752,
      "ĠVirgin": 4753,
      "Ġtrain": 4754,
      "Ġoffensive": 4755,
      "Ġflu": 4756,
      "Ġphoto": 4757,
      "Ġrequires": 4758,
      "Ġsolar": 4759,
      "works": 4760,
      "Ġmanaged": 4761,
      "Ġidentified": 4762,
      "43": 4763,
      "Ġtim": 4764,
      "Ġkick": 4765,
      "anging": 4766,
      "igan": 4767,
      "ossible": 4768,
      "Ġflight": 4769,
      "Ġmonitor": 4770,
      "Ġinstance": 4771,
      "Ġinternet": 4772,
      "ĠWall": 4773,
      "can": 4774,
      "iable": 4775,
      "Ġfuel": 4776,
      "Ġgender": 4777,
      "ading": 4778,
      "Ġsequ": 4779,
      "Ġprefer": 4780,
      "ĠRobert": 4781,
      "ĠPalestin": 4782,
      "Ġframe": 4783,
      "Ġattach": 4784,
      "Ġveins": 4785,
      "Ġtools": 4786,
      "Ġdaughter": 4787,
      "Ġchann": 4788,
      "Ġmachine": 4789,
      "Ġarms": 4790,
      "erences": 4791,
      "oyal": 4792,
      "ĠPhil": 4793,
      "Ġtreated": 4794,
      "Ġobvious": 4795,
      "Ġanimals": 4796,
      "Ġcommission": 4797,
      "Ġdistrict": 4798,
      "cohol": 4799,
      "iat": 4800,
      "Ġwel": 4801,
      "ube": 4802,
      "ĠKen": 4803,
      "Ġdecre": 4804,
      "Ġjoined": 4805,
      "andom": 4806,
      "Ġcarried": 4807,
      "Ġmagn": 4808,
      "ĠCS": 4809,
      "ĠBush": 4810,
      "ulf": 4811,
      "Ġannual": 4812,
      "Ġolder": 4813,
      "Ġactivities": 4814,
      "Ġcomfort": 4815,
      "Ġjustice": 4816,
      "ermine": 4817,
      "Ġmobile": 4818,
      "ras": 4819,
      "Ġfaith": 4820,
      "ario": 4821,
      "Ġexisting": 4822,
      "Trump": 4823,
      "Ġintroduced": 4824,
      "la": 4825,
      "Ġstream": 4826,
      "Ġspoke": 4827,
      "EC": 4828,
      "lig": 4829,
      "uke": 4830,
      "Ġdat": 4831,
      "Ġrib": 4832,
      "Ġ31": 4833,
      "Ġmemory": 4834,
      "Ġ90": 4835,
      "prof": 4836,
      "iac": 4837,
      "ĠCup": 4838,
      "illing": 4839,
      "izes": 4840,
      "Ġdetermine": 4841,
      "Ġinterests": 4842,
      "Ġped": 4843,
      "ĠCN": 4844,
      "ĠLike": 4845,
      "....": 4846,
      "Ġcars": 4847,
      "Ġitems": 4848,
      "bum": 4849,
      "rey": 4850,
      "itect": 4851,
      "Ġnotes": 4852,
      "Ġtract": 4853,
      "Ġblue": 4854,
      "Ġspecies": 4855,
      "Ġdeveloping": 4856,
      "Ġwinning": 4857,
      "PA": 4858,
      "ules": 4859,
      "Ġconsult": 4860,
      "Ġgirls": 4861,
      "Ġnorm": 4862,
      "Ġcompar": 4863,
      "iliar": 4864,
      "Ġestablished": 4865,
      "aling": 4866,
      "iller": 4867,
      "Ġappeal": 4868,
      "Ġsuggests": 4869,
      "ĠInstitute": 4870,
      "Ġcamera": 4871,
      "Ġspirit": 4872,
      "38": 4873,
      "Bl": 4874,
      "gar": 4875,
      "ipl": 4876,
      "ooth": 4877,
      "Ġswit": 4878,
      "Ġdys": 4879,
      "âĢĺ": 4880,
      "ander": 4881,
      "Ġaccused": 4882,
      "azon": 4883,
      "ait": 4884,
      "acter": 4885,
      "ĠMil": 4886,
      "Ġunits": 4887,
      "ĠAlthough": 4888,
      "Ġfourth": 4889,
      "\\\"": 4890,
      "ĠCr": 4891,
      "Ġcold": 4892,
      "Ġsolid": 4893,
      "Ġargument": 4894,
      "ĠMartin": 4895,
      "PU": 4896,
      "ĠWestern": 4897,
      "orthern": 4898,
      "Ġapprox": 4899,
      "Ġprotection": 4900,
      "ĠBritain": 4901,
      "Ġdownload": 4902,
      "Ġexpression": 4903,
      "Ġcopyright": 4904,
      "inter": 4905,
      "iful": 4906,
      "ĠGree": 4907,
      "Ġearth": 4908,
      "Ġaudience": 4909,
      "Ġdefinitely": 4910,
      "Ġconflict": 4911,
      "ĠSince": 4912,
      "ĠHall": 4913,
      "Ġarteries": 4914,
      "Ġpartner": 4915,
      "Ġsin": 4916,
      "Ġputting": 4917,
      "Ġelements": 4918,
      "Ġconstruction": 4919,
      "Ġfundament": 4920,
      "Ġhusband": 4921,
      "Ġwatching": 4922,
      "GB": 4923,
      "icular": 4924,
      "ĠAre": 4925,
      "ĠDist": 4926,
      "aryngeal": 4927,
      "Ġaggress": 4928,
      "Ġgeneration": 4929,
      "Ġvictory": 4930,
      "Ġlaunched": 4931,
      "kin": 4932,
      "arant": 4933,
      "asy": 4934,
      "ĠAtt": 4935,
      "ĠCEO": 4936,
      "ĠJones": 4937,
      "Ġsett": 4938,
      "Ġdiscovered": 4939,
      "ĠSyrian": 4940,
      "outhern": 4941,
      "Ġcoal": 4942,
      "pective": 4943,
      "Ġidentify": 4944,
      "Ġmissing": 4945,
      "wing": 4946,
      "Ġborn": 4947,
      "Ġexerc": 4948,
      "Ġroot": 4949,
      "Ġfactor": 4950,
      "Ġappearance": 4951,
      "Ġcompetition": 4952,
      "Ġtumor": 4953,
      "uate": 4954,
      "Ġcatch": 4955,
      "Ġbreat": 4956,
      "Ġeat": 4957,
      "Ġprote": 4958,
      "ĠJes": 4959,
      "Ġappoint": 4960,
      "Ġexplain": 4961,
      "Ġsoldiers": 4962,
      "Ġhousing": 4963,
      "48": 4964,
      "uters": 4965,
      "Ġ70": 4966,
      "ĠToronto": 4967,
      "37": 4968,
      "LL": 4969,
      "Ġgay": 4970,
      "Ġhasn": 4971,
      "Ġscale": 4972,
      "Ġdouble": 4973,
      "Ġdegree": 4974,
      "Americ": 4975,
      "ĠMary": 4976,
      "iform": 4977,
      "bert": 4978,
      "Ġlocated": 4979,
      "Ġdepend": 4980,
      "Ġprofessor": 4981,
      "Ġvehicle": 4982,
      "rate": 4983,
      "ato": 4984,
      "Ġcash": 4985,
      "Ġload": 4986,
      "ĠSur": 4987,
      "Ġholding": 4988,
      "Ġcommitted": 4989,
      "ĠCommun": 4990,
      "lant": 4991,
      "ĠÙ": 4992,
      "ĠTHE": 4993,
      "Ġworst": 4994,
      "Ġlayer": 4995,
      "Ġstrength": 4996,
      "iter": 4997,
      "ĠSup": 4998,
      "Ġrich": 4999,
      "ĠYour": 5000,
      "Ġflat": 5001,
      "Ġvisual": 5002,
      "ĠPhot": 5003,
      "Ġcorporate": 5004,
      "Ġconversation": 5005,
      "ien": 5006,
      "season": 5007,
      "ĠMont": 5008,
      "BS": 5009,
      "Ġdoct": 5010,
      "Ġregions": 5011,
      "gypt": 5012,
      "apped": 5013,
      "Ġcandidates": 5014,
      "pathetic": 5015,
      "OU": 5016,
      "pan": 5017,
      "ura": 5018,
      "Ġconclud": 5019,
      "Ġrid": 5020,
      "Ġcanal": 5021,
      "Ġdecade": 5022,
      "awn": 5023,
      "ns": 5024,
      "ulated": 5025,
      "Ġtells": 5026,
      "Ġvariety": 5027,
      "Ġslightly": 5028,
      "More": 5029,
      "rast": 5030,
      "ĠAC": 5031,
      "Ġsust": 5032,
      "Ġfiles": 5033,
      "Ġtaxes": 5034,
      "ĠSecurity": 5035,
      "iser": 5036,
      "roph": 5037,
      "irt": 5038,
      "ruption": 5039,
      "Ġacadem": 5040,
      "Ġcorner": 5041,
      "Ġtrip": 5042,
      "Ġdriver": 5043,
      "Ġrapid": 5044,
      "Ġfresh": 5045,
      "Ġwealth": 5046,
      "ĠFore": 5047,
      "ĠUN": 5048,
      "Ġgraph": 5049,
      "Ġbelieves": 5050,
      "Ġnewsp": 5051,
      "Ġreduced": 5052,
      "Ġtrend": 5053,
      "BA": 5054,
      "xy": 5055,
      "Ġexclus": 5056,
      "Ġsud": 5057,
      "Ġstopped": 5058,
      "Ġsounds": 5059,
      "Ġtraffic": 5060,
      "lege": 5061,
      "oman": 5062,
      "Ġvs": 5063,
      "Ġapplications": 5064,
      "ils": 5065,
      "Ġmere": 5066,
      "Ġtransform": 5067,
      "Ġoperating": 5068,
      "ĠAIRED": 5069,
      "cin": 5070,
      "gment": 5071,
      "ica": 5072,
      "Ġabuse": 5073,
      "ĠJose": 5074,
      "ĠUs": 5075,
      "Ġ2018": 5076,
      "Ġowner": 5077,
      "ĠAny": 5078,
      "ructure": 5079,
      "Ġregarding": 5080,
      "ficial": 5081,
      "rees": 5082,
      "Ġgain": 5083,
      "ĠBern": 5084,
      "ĠWil": 5085,
      "Ġvul": 5086,
      "ĠFBI": 5087,
      "Ġturns": 5088,
      "Ġdeliver": 5089,
      "atin": 5090,
      "Ġfix": 5091,
      "uty": 5092,
      "ĠBer": 5093,
      "ĠPak": 5094,
      "Ġseek": 5095,
      "Ġcolumn": 5096,
      "Ġhappening": 5097,
      "related": 5098,
      "47": 5099,
      "Of": 5100,
      "state": 5101,
      "ocol": 5102,
      "Ġestablish": 5103,
      "Ġtelevision": 5104,
      "Ġhttp": 5105,
      "Ġbalance": 5106,
      "Our": 5107,
      "Pl": 5108,
      "ĠMer": 5109,
      "cknow": 5110,
      "Ġhelps": 5111,
      "Ġaircraft": 5112,
      "Ġaward": 5113,
      "isation": 5114,
      "Ġnas": 5115,
      "Ġnorth": 5116,
      "aded": 5117,
      "ĠLab": 5118,
      "itutional": 5119,
      "Con": 5120,
      "bre": 5121,
      "Ġfant": 5122,
      "ĠTwo": 5123,
      "Ġarrived": 5124,
      "ĠAfrica": 5125,
      "Ġtough": 5126,
      "Ġcommunities": 5127,
      "Ġsteps": 5128,
      "Ġcore": 5129,
      "ĠSil": 5130,
      "ĠDet": 5131,
      "ĠLos": 5132,
      "Ġremind": 5133,
      "Ġtransport": 5134,
      "azine": 5135,
      "Ġultimately": 5136,
      "Ġstreets": 5137,
      "met": 5138,
      "Ġplex": 5139,
      "Ġstandards": 5140,
      "Ġlargely": 5141,
      "Ġmaintain": 5142,
      "ĠGOP": 5143,
      "Ġterrit": 5144,
      "Ġsurvey": 5145,
      "ĠPri": 5146,
      "ĠFox": 5147,
      "hens": 5148,
      "Ġaffected": 5149,
      "Ġsudden": 5150,
      "bour": 5151,
      "cular": 5152,
      "Ġce": 5153,
      "Ġharm": 5154,
      "ĠArmy": 5155,
      "Ġconnection": 5156,
      "ĠAssociation": 5157,
      "Ġsan": 5158,
      "Ġminimum": 5159,
      "Ġmembr": 5160,
      "gers": 5161,
      "hab": 5162,
      "night": 5163,
      "under": 5164,
      "ĠØ": 5165,
      "Ġtask": 5166,
      "Ġfist": 5167,
      "Ġrevenue": 5168,
      "ayer": 5169,
      "ghan": 5170,
      "Ġcontains": 5171,
      "Ġbusinesses": 5172,
      "Ġbanks": 5173,
      "Ġwidely": 5174,
      "Ã¡": 5175,
      "Ġbound": 5176,
      "ĠNor": 5177,
      "Ġknee": 5178,
      "Ġfindings": 5179,
      "Ġspokesman": 5180,
      "36": 5181,
      "stream": 5182,
      "ĠMike": 5183,
      "ĠMiss": 5184,
      "Ġshall": 5185,
      "Ġtrig": 5186,
      "ĠEgypt": 5187,
      "place": 5188,
      "Ġotherwise": 5189,
      "Ġsuppl": 5190,
      "Ġimagine": 5191,
      "ĠLouis": 5192,
      "Ġtast": 5193,
      "real": 5194,
      "ĠInc": 5195,
      "Ġseeking": 5196,
      "Ġpercentage": 5197,
      "Ġkilling": 5198,
      "Ġoperation": 5199,
      "Ġdomestic": 5200,
      "Ġtalks": 5201,
      "Ġthorac": 5202,
      "Ġalternative": 5203,
      "ampionship": 5204,
      "ĠMexico": 5205,
      "Ġtack": 5206,
      "Ġlies": 5207,
      "Ġtransition": 5208,
      "Ġrefuge": 5209,
      "cks": 5210,
      "ĠMag": 5211,
      "agues": 5212,
      "ĠDC": 5213,
      "Ġdevelopers": 5214,
      "Ġmilit": 5215,
      "Ġfigures": 5216,
      "!âĢĿ": 5217,
      "Ġcovered": 5218,
      "isters": 5219,
      "ĠAM": 5220,
      "Ġshape": 5221,
      "Ġinteract": 5222,
      "Ġimpossible": 5223,
      "Ġguess": 5224,
      "Ġemergency": 5225,
      "ĠWindows": 5226,
      "long": 5227,
      "Ġmes": 5228,
      "Ġexchange": 5229,
      "Ġafford": 5230,
      "ĠSecretary": 5231,
      "ĠFoundation": 5232,
      "gu": 5233,
      "Ġtun": 5234,
      "Ġles": 5235,
      "ĠKh": 5236,
      "Ġapply": 5237,
      "onom": 5238,
      "Ġpair": 5239,
      "aints": 5240,
      "ĠJud": 5241,
      "that": 5242,
      "Ġvast": 5243,
      "ĠAndroid": 5244,
      "iverse": 5245,
      "ĠCarol": 5246,
      "39": 5247,
      "Ġacknow": 5248,
      "Ġanc": 5249,
      "ĠCath": 5250,
      "ĠMur": 5251,
      "ĠJoe": 5252,
      "Ġclick": 5253,
      "Ġfeels": 5254,
      "ĠInstead": 5255,
      "New": 5256,
      "ĠTheir": 5257,
      "Ġalbum": 5258,
      "Ġque": 5259,
      "Ġdecide": 5260,
      "Ġguard": 5261,
      "Ġpossibility": 5262,
      "ĠJapanese": 5263,
      "Ġdu": 5264,
      "ĠPlease": 5265,
      "Ġinfection": 5266,
      "ucky": 5267,
      "Ġrevolution": 5268,
      "Ġconservative": 5269,
      "top": 5270,
      "Ġgland": 5271,
      "estinal": 5272,
      "Ġunless": 5273,
      "aza": 5274,
      "Ġbigger": 5275,
      "Ġpackage": 5276,
      "Ð¸": 5277,
      "Ġtorn": 5278,
      "adium": 5279,
      "Ġsem": 5280,
      "Ġunivers": 5281,
      "Ġhumans": 5282,
      "ĠJackson": 5283,
      "ĠSupreme": 5284,
      "].": 5285,
      "house": 5286,
      "cean": 5287,
      "olved": 5288,
      "ĠBit": 5289,
      "ĠBig": 5290,
      "ĠJim": 5291,
      "Ġflag": 5292,
      "Ġfamiliar": 5293,
      "lah": 5294,
      "mp": 5295,
      "ictions": 5296,
      "useum": 5297,
      "Ġconvention": 5298,
      "Ġdropped": 5299,
      "Ġphilosoph": 5300,
      "OL": 5301,
      "tes": 5302,
      "Ġsch": 5303,
      "Ġstick": 5304,
      "ĠMal": 5305,
      "ching": 5306,
      "acks": 5307,
      "ooking": 5308,
      "Ġattached": 5309,
      "Ġempt": 5310,
      "ocking": 5311,
      "Ġcapacity": 5312,
      "Ġstanding": 5313,
      "Ġbattery": 5314,
      "Ġdelay": 5315,
      "aren": 5316,
      "Ġinfect": 5317,
      "Ġregist": 5318,
      "Ġdefensive": 5319,
      "Ġpaint": 5320,
      "AP": 5321,
      "win": 5322,
      "Ġske": 5323,
      "orage": 5324,
      "auc": 5325,
      "Ġaccident": 5326,
      "ĠLee": 5327,
      "Ġchanging": 5328,
      "Ġhealthy": 5329,
      "Ġphotos": 5330,
      "idden": 5331,
      "anda": 5332,
      "Ġuniversity": 5333,
      "run": 5334,
      "ãĢ": 5335,
      "ĠCamp": 5336,
      "Ġclot": 5337,
      "Ġunion": 5338,
      "Ġskills": 5339,
      "icate": 5340,
      "ĠJon": 5341,
      "aneous": 5342,
      "Ġaccounts": 5343,
      "Ġorganizations": 5344,
      "Ġwish": 5345,
      "ĠPublic": 5346,
      "Ġworry": 5347,
      "Ġroll": 5348,
      "Ġdram": 5349,
      "range": 5350,
      "Ġrandom": 5351,
      "Ġleaves": 5352,
      "apter": 5353,
      "Ġinfants": 5354,
      "Ġkeeping": 5355,
      "Ġfocused": 5356,
      "Ġincreasingly": 5357,
      "isf": 5358,
      "ader": 5359,
      "riz": 5360,
      "essions": 5361,
      "Ġsuicide": 5362,
      "ĠLin": 5363,
      "ĠThose": 5364,
      "Ġleads": 5365,
      "ĠFrank": 5366,
      "44": 5367,
      "normal": 5368,
      "Ġfif": 5369,
      "eds": 5370,
      "Ġsitting": 5371,
      "eper": 5372,
      "Ġmix": 5373,
      "Ġdin": 5374,
      "Ġagents": 5375,
      "Ġprime": 5376,
      "anged": 5377,
      "eah": 5378,
      "Ġcuts": 5379,
      "Ġupdate": 5380,
      "Get": 5381,
      "Ġnut": 5382,
      "ĠTim": 5383,
      "Ġforamen": 5384,
      "agus": 5385,
      "outs": 5386,
      "ava": 5387,
      "grade": 5388,
      "Ġnumerous": 5389,
      "Ġadvance": 5390,
      "ĠUSA": 5391,
      "Ġhonest": 5392,
      "Ġstret": 5393,
      "uls": 5394,
      "ĠHoll": 5395,
      "rip": 5396,
      "Ġalcohol": 5397,
      "ĠChief": 5398,
      "Ġdecisions": 5399,
      "55": 5400,
      "ighters": 5401,
      "Ġfiled": 5402,
      "Ġzone": 5403,
      "Ġstrike": 5404,
      "Ġhurt": 5405,
      "ĠVirginia": 5406,
      "ĠBow": 5407,
      "ĠHill": 5408,
      "awa": 5409,
      "anche": 5410,
      "Ġinstruct": 5411,
      "Ġprocesses": 5412,
      "Ġcontrast": 5413,
      "Ġtroops": 5414,
      "Ġestimated": 5415,
      "Ġappropriate": 5416,
      "ey": 5417,
      "Ġtight": 5418,
      "inent": 5419,
      "arrow": 5420,
      "ĠOnce": 5421,
      "Ġapparently": 5422,
      "!\"": 5423,
      "Ġfol": 5424,
      "isted": 5425,
      "ĠJew": 5426,
      "ĠOpen": 5427,
      "Ġtwice": 5428,
      "Ġstarts": 5429,
      "Ġexperts": 5430,
      "Ġdivision": 5431,
      "iciency": 5432,
      "ĠGi": 5433,
      "Ġfollows": 5434,
      "Ġesoph": 5435,
      "Ġvulner": 5436,
      "ĠRyan": 5437,
      "estival": 5438,
      "ĠWik": 5439,
      "ĠUnder": 5440,
      "ogen": 5441,
      "Ġremaining": 5442,
      "Ġfamous": 5443,
      "Ġexpert": 5444,
      "Ġresponsibility": 5445,
      "adow": 5446,
      "Ġsubsequ": 5447,
      "Ġhyd": 5448,
      "Des": 5449,
      "ÑĤ": 5450,
      "ipal": 5451,
      "Ġsched": 5452,
      "Ġelections": 5453,
      "Ġchallenges": 5454,
      "Ġbones": 5455,
      "ĠAc": 5456,
      "ensions": 5457,
      "ĠLeg": 5458,
      "Ġtriang": 5459,
      "Why": 5460,
      "Ġproperties": 5461,
      "Ġbringing": 5462,
      "Ġexamples": 5463,
      "ĠAngeles": 5464,
      "Ġcommercial": 5465,
      "mas": 5466,
      "Ġgar": 5467,
      "uration": 5468,
      "ĠStep": 5469,
      "Ġscr": 5470,
      "Ġdiet": 5471,
      "Ġsitu": 5472,
      "Ġelement": 5473,
      "Ġauthority": 5474,
      "Ġenvironmental": 5475,
      "Last": 5476,
      "Ġfired": 5477,
      "Ġnone": 5478,
      "Ġremove": 5479,
      "Ġauth": 5480,
      "Ġpossibly": 5481,
      "Ġwindow": 5482,
      "writ": 5483,
      "ĠMatt": 5484,
      "ĠDuring": 5485,
      "apers": 5486,
      "Ġherself": 5487,
      "ĠYang": 5488,
      "Ġconfirm": 5489,
      "Ġdistribution": 5490,
      "Ġpaying": 5491,
      "Ġsubstant": 5492,
      "Just": 5493,
      "ĠFire": 5494,
      "Ġ2005": 5495,
      "ĠProf": 5496,
      "ĠConst": 5497,
      "ĠAfghan": 5498,
      "lahoma": 5499,
      "49": 5500,
      "kes": 5501,
      "olit": 5502,
      "ĠDirect": 5503,
      "Ġabort": 5504,
      "Ġspeaking": 5505,
      "rible": 5506,
      "Ġpotentially": 5507,
      "ĠAmazon": 5508,
      "Ġvehicles": 5509,
      "Ġmap": 5510,
      "Ġgro": 5511,
      "uled": 5512,
      "ĠUkr": 5513,
      "Ġagent": 5514,
      "Ġpointed": 5515,
      "Ġdetermined": 5516,
      "iot": 5517,
      "Ġdim": 5518,
      "lets": 5519,
      "ĠSal": 5520,
      "Ġstars": 5521,
      "Ġwearing": 5522,
      "osen": 5523,
      "obody": 5524,
      "ologies": 5525,
      "Ġerror": 5526,
      "Ġspecifically": 5527,
      "ĠPrime": 5528,
      "Ġpieces": 5529,
      "Ġaort": 5530,
      "Ġodd": 5531,
      "ĠBur": 5532,
      "endment": 5533,
      "Ġpositions": 5534,
      "Ġcommonly": 5535,
      "def": 5536,
      "hi": 5537,
      "Ġton": 5538,
      "Ġsouth": 5539,
      "alls": 5540,
      "Ġthanks": 5541,
      "Ġsettle": 5542,
      "ĠCollege": 5543,
      "Ġreferred": 5544,
      "Ġamazing": 5545,
      "Ġdatab": 5546,
      "fe": 5547,
      "attle": 5548,
      "icon": 5549,
      "Ġ2000": 5550,
      "Ġinstit": 5551,
      "Ġapproximately": 5552,
      "atures": 5553,
      "Ġrecon": 5554,
      "oving": 5555,
      "Ġ45": 5556,
      "ĠWeb": 5557,
      "Ġinsp": 5558,
      "Ġadvanced": 5559,
      "Ġinjuries": 5560,
      "Ġexperienced": 5561,
      "Ġprocedure": 5562,
      "net": 5563,
      "sen": 5564,
      "ĠIr": 5565,
      "ĠPet": 5566,
      "ords": 5567,
      "Ġacid": 5568,
      "Ġearn": 5569,
      "Ġhelping": 5570,
      "ĠAlso": 5571,
      "Ġelim": 5572,
      "Ġcloser": 5573,
      "31": 5574,
      "De": 5575,
      "ĠAN": 5576,
      "Ġplus": 5577,
      "Ġrefused": 5578,
      "Ġexperiences": 5579,
      "Ġpurchase": 5580,
      "Ġabsolutely": 5581,
      "Ġtact": 5582,
      "Ġpowers": 5583,
      "Ġrein": 5584,
      "Ġrain": 5585,
      "ĠGood": 5586,
      "Ġweren": 5587,
      "Ġvotes": 5588,
      "Ġelev": 5589,
      "ASA": 5590,
      "Ġmethods": 5591,
      "mail": 5592,
      "Ġble": 5593,
      "Ġvision": 5594,
      "Ġreporting": 5595,
      "Ġarchitect": 5596,
      "rastructure": 5597,
      "Ab": 5598,
      "rant": 5599,
      "Ġhits": 5600,
      "ĠPre": 5601,
      "eless": 5602,
      "Ġjail": 5603,
      "Ġemp": 5604,
      "Ġremained": 5605,
      "Ġequal": 5606,
      "Ġera": 5607,
      "boy": 5608,
      "Ġphen": 5609,
      "Ġscore": 5610,
      "Ġgovernments": 5611,
      "Ġfunds": 5612,
      "Ġboys": 5613,
      "burg": 5614,
      "Ã¼": 5615,
      "Ġwithd": 5616,
      "Ġaden": 5617,
      "ĠThomas": 5618,
      "Ġsubs": 5619,
      "Ġwriter": 5620,
      "Ġimmigration": 5621,
      "Ġrestaurant": 5622,
      "bec": 5623,
      "ora": 5624,
      "ĠCapt": 5625,
      "ĠPeter": 5626,
      "roud": 5627,
      "Ġopposed": 5628,
      "Ġpulled": 5629,
      "Ġtweet": 5630,
      "ĠOklahoma": 5631,
      "Ġsick": 5632,
      "Ġprove": 5633,
      "rous": 5634,
      "Ġserver": 5635,
      "Ġimmun": 5636,
      "ĠGuard": 5637,
      "stein": 5638,
      "itz": 5639,
      "ĠST": 5640,
      "Ġstim": 5641,
      "ĠPM": 5642,
      "Ġapps": 5643,
      "athy": 5644,
      "ups": 5645,
      "Ġthoughts": 5646,
      "Ġscientific": 5647,
      "Ġvertebra": 5648,
      "Ind": 5649,
      "Ġtrail": 5650,
      "Ġmeat": 5651,
      "Ġfellow": 5652,
      "Ġobtained": 5653,
      "ÙĨ": 5654,
      "eria": 5655,
      "ĠRock": 5656,
      "allas": 5657,
      "Ġbelong": 5658,
      "Ġbroken": 5659,
      "Ġid": 5660,
      "Ġcas": 5661,
      "Ġhun": 5662,
      "ĠEv": 5663,
      "Ġgreatest": 5664,
      "Ġadjust": 5665,
      "ding": 5666,
      "Ġreaction": 5667,
      "Ġge": 5668,
      "ĠIts": 5669,
      "Ġexpensive": 5670,
      "Ġbroke": 5671,
      "ĠDistrict": 5672,
      "gical": 5673,
      "kins": 5674,
      "Ġmuc": 5675,
      "Ġagencies": 5676,
      "Ġliberal": 5677,
      "Ġobjects": 5678,
      "och": 5679,
      "ĠTre": 5680,
      "Ġ32": 5681,
      "Ġattorney": 5682,
      "ĠResearch": 5683,
      "ributed": 5684,
      "Ġapart": 5685,
      "itors": 5686,
      "arks": 5687,
      "Ġtom": 5688,
      "Ġnarr": 5689,
      "ĠPut": 5690,
      "Ġproceed": 5691,
      "Ġseasons": 5692,
      "Ġoral": 5693,
      "Ġmodels": 5694,
      "Ġbuildings": 5695,
      "iques": 5696,
      "Ġbegins": 5697,
      "%.": 5698,
      "75": 5699,
      "idel": 5700,
      "ĠRoad": 5701,
      "abilities": 5702,
      "Ġsignificantly": 5703,
      "Ġsurprise": 5704,
      "Ġvertebral": 5705,
      "Ġcereb": 5706,
      "41": 5707,
      "Do": 5708,
      "hered": 5709,
      "ĠTime": 5710,
      "ĠCam": 5711,
      "rence": 5712,
      "standing": 5713,
      "Ġsurprising": 5714,
      "Ġthoracic": 5715,
      "EM": 5716,
      "Since": 5717,
      "olt": 5718,
      "Ġdeploy": 5719,
      "DC": 5720,
      "Ġpages": 5721,
      "imm": 5722,
      "ownt": 5723,
      "ervical": 5724,
      "Ġminute": 5725,
      "Ġdipl": 5726,
      "pet": 5727,
      "rd": 5728,
      "upp": 5729,
      "Ġstock": 5730,
      "ĠGal": 5731,
      "ĠLast": 5732,
      "Ġdiscl": 5733,
      "ĠArt": 5734,
      "Ġpoliticians": 5735,
      "Ġcombination": 5736,
      "Ġcalcul": 5737,
      "Ġordered": 5738,
      "Am": 5739,
      "rag": 5740,
      "isms": 5741,
      "Ġhol": 5742,
      "Ġath": 5743,
      "lick": 5744,
      "osphere": 5745,
      "Ġpresented": 5746,
      "Ġcombined": 5747,
      ",âĢĻ": 5748,
      "34": 5749,
      "gl": 5750,
      "Ġsup": 5751,
      "Ġquiet": 5752,
      "Ġreference": 5753,
      "Ġturning": 5754,
      "ĠConserv": 5755,
      "Ġgastro": 5756,
      "Ġlived": 5757,
      "road": 5758,
      "ansion": 5759,
      "anges": 5760,
      "rency": 5761,
      "Ġedge": 5762,
      "Ġcombat": 5763,
      "Ġexcited": 5764,
      "Ġconducted": 5765,
      "oria": 5766,
      "Ġunable": 5767,
      "ipment": 5768,
      "Ġinvolves": 5769,
      "Ġfundamental": 5770,
      "From": 5771,
      "born": 5772,
      "Ġiron": 5773,
      "lyn": 5774,
      "phas": 5775,
      "Ġguarant": 5776,
      "ĠImage": 5777,
      "Photo": 5778,
      "Even": 5779,
      "Read": 5780,
      "onym": 5781,
      "Ġbaby": 5782,
      "omin": 5783,
      "urd": 5784,
      "ĠGroup": 5785,
      "Ġchain": 5786,
      "Ġcloud": 5787,
      "Ġgenetic": 5788,
      "igrants": 5789,
      "Ġbeautiful": 5790,
      "Ġauthors": 5791,
      "ĠSpe": 5792,
      "ĠMP": 5793,
      "Ġdismiss": 5794,
      "ĠSpace": 5795,
      "Ġplexus": 5796,
      "Ġmouth": 5797,
      "Ġongoing": 5798,
      "Ġoutput": 5799,
      "Ġoffering": 5800,
      "Ġobst": 5801,
      "Ġruling": 5802,
      "Ġexistence": 5803,
      "TA": 5804,
      "anish": 5805,
      "Ġhate": 5806,
      "uster": 5807,
      "Ġsport": 5808,
      "Ġmainly": 5809,
      "Ġtypical": 5810,
      "Ġmotiv": 5811,
      "Ġinnov": 5812,
      "ĠSteve": 5813,
      "Ġsurrounding": 5814,
      "aled": 5815,
      "omal": 5816,
      "ller": 5817,
      "ĠHaw": 5818,
      "</": 5819,
      "Med": 5820,
      "rick": 5821,
      "tion": 5822,
      "illance": 5823,
      "Ġrub": 5824,
      "Ġalt": 5825,
      "ressive": 5826,
      "Ġsurf": 5827,
      "Ġwalking": 5828,
      "Image": 5829,
      "Ġmembrane": 5830,
      "noon": 5831,
      "uzz": 5832,
      "Ĥ¬": 5833,
      "orr": 5834,
      "acent": 5835,
      "oted": 5836,
      "terday": 5837,
      "Ġplate": 5838,
      "Ġplants": 5839,
      "Ġadvice": 5840,
      "Ġproposal": 5841,
      "Ġbike": 5842,
      "Ġselling": 5843,
      "ĠDec": 5844,
      "apse": 5845,
      "ibular": 5846,
      "Ġperman": 5847,
      "Ġexpressed": 5848,
      "Ġdiscrim": 5849,
      "ga": 5850,
      "ĠSpec": 5851,
      "ĠRem": 5852,
      "Ġdisp": 5853,
      "ĠItal": 5854,
      "Ġincor": 5855,
      "Ġcrimes": 5856,
      "Ġexperiment": 5857,
      "Ġfaces": 5858,
      "ynam": 5859,
      "ĠMiddle": 5860,
      "Ġbrow": 5861,
      "Ġlie": 5862,
      "Ġheav": 5863,
      "ĠJournal": 5864,
      "ĠJeff": 5865,
      "ours": 5866,
      "oves": 5867,
      "Ġincreases": 5868,
      "ded": 5869,
      "gender": 5870,
      "Ġsports": 5871,
      "Ġveter": 5872,
      "Ġvoting": 5873,
      "apping": 5874,
      "ION": 5875,
      "ko": 5876,
      "lor": 5877,
      "Ġsoul": 5878,
      "Ġment": 5879,
      "ĠSub": 5880,
      "Ġprosecut": 5881,
      "Ġregime": 5882,
      "Ġsupporting": 5883,
      "ĠArch": 5884,
      "Ġmode": 5885,
      "Ġvideos": 5886,
      "Ġessential": 5887,
      "log": 5888,
      "icine": 5889,
      "Ġforget": 5890,
      "ĠFederal": 5891,
      "Ġintended": 5892,
      "Ġsuperficial": 5893,
      "Ġlisten": 5894,
      "Ġcultural": 5895,
      "Ġclinic": 5896,
      "Ġobviously": 5897,
      "Ġenemy": 5898,
      "ni": 5899,
      "ĠJosh": 5900,
      "erved": 5901,
      "Ġresulting": 5902,
      "Ġmatters": 5903,
      "iveness": 5904,
      "ĠScience": 5905,
      "ĠTeam": 5906,
      "lo": 5907,
      "Ã³": 5908,
      "Ġsad": 5909,
      "Ġsought": 5910,
      "Ġanimal": 5911,
      "Ġgap": 5912,
      "Ġapprec": 5913,
      "elly": 5914,
      "Ġinfrastructure": 5915,
      "Ġprotests": 5916,
      "Ġbasically": 5917,
      "Ġcopy": 5918,
      "Ġprospect": 5919,
      "rot": 5920,
      "Ġfinished": 5921,
      "Ġoccurs": 5922,
      "evin": 5923,
      "Ġprimarily": 5924,
      "Ġoccurred": 5925,
      "ĠFrancisco": 5926,
      "date": 5927,
      "gs": 5928,
      "Ġthin": 5929,
      "Ġlung": 5930,
      "Ġretail": 5931,
      "Ġglass": 5932,
      "Ġvoted": 5933,
      "Ġdenied": 5934,
      "Ġprepared": 5935,
      "ashed": 5936,
      "ĠSing": 5937,
      "Ġplenty": 5938,
      "ĠInter": 5939,
      "Ġclim": 5940,
      "Ġrepair": 5941,
      "Ġexplo": 5942,
      "Ġhardware": 5943,
      "Ġviolent": 5944,
      "Ġargued": 5945,
      "Ġnegoti": 5946,
      "NC": 5947,
      "ĠYes": 5948,
      "Ġacts": 5949,
      "Ġfascia": 5950,
      "ĠService": 5951,
      "His": 5952,
      "icul": 5953,
      "ompl": 5954,
      "ĠBook": 5955,
      "abin": 5956,
      "ostic": 5957,
      "Ġinvolving": 5958,
      "Ġattempts": 5959,
      "Ġquarterback": 5960,
      "Let": 5961,
      "Ġing": 5962,
      "ishes": 5963,
      "Ġforg": 5964,
      "Ġhell": 5965,
      "Ġwear": 5966,
      "Ġvan": 5967,
      "Ġintr": 5968,
      "oking": 5969,
      "Ġteen": 5970,
      "Ġlegit": 5971,
      "Ġwrites": 5972,
      "Ġhopes": 5973,
      "ĠAtlant": 5974,
      "ĠCarolina": 5975,
      "IV": 5976,
      "pm": 5977,
      "enter": 5978,
      "Ġyouth": 5979,
      "osite": 5980,
      "ocy": 5981,
      "Ġshift": 5982,
      "oston": 5983,
      "Ġimportance": 5984,
      "Ġboost": 5985,
      "ascular": 5986,
      "Ġtuber": 5987,
      "respond": 5988,
      "makers": 5989,
      "Ġ%": 5990,
      "ĠBudd": 5991,
      "ĠDen": 5992,
      "rawn": 5993,
      "Ġcarcin": 5994,
      "Ġiniti": 5995,
      "Ġratio": 5996,
      "Ġresistance": 5997,
      "56": 5998,
      "Ġmaster": 5999,
      "vey": 6000,
      "ĠMem": 6001,
      "class": 6002,
      "Ġcomponents": 6003,
      "obe": 6004,
      "Ġdefault": 6005,
      "Ġconfident": 6006,
      "Ġelected": 6007,
      "ĠAssad": 6008,
      "Ġroute": 6009,
      "hand": 6010,
      "Ġburn": 6011,
      "Ġfract": 6012,
      "Ġneither": 6013,
      "ĠWho": 6014,
      "Ġapproved": 6015,
      "Ġbreast": 6016,
      "Ġsymbol": 6017,
      "ĠImages": 6018,
      "Ġtrouble": 6019,
      "Ġneighborhood": 6020,
      "Rep": 6021,
      "ht": 6022,
      "Ġbought": 6023,
      "Ġgra": 6024,
      "Ġgrew": 6025,
      "ĠToday": 6026,
      "amber": 6027,
      "Ġhandle": 6028,
      "Ġindustrial": 6029,
      "ĠâĢ¢": 6030,
      "ĠOut": 6031,
      "Ġoptim": 6032,
      "Another": 6033,
      "ĠSecond": 6034,
      "Ġweapon": 6035,
      "gent": 6036,
      "inating": 6037,
      "ĠSpr": 6038,
      "Ġweather": 6039,
      "ĠBack": 6040,
      "Ġabnormal": 6041,
      "Ġindeed": 6042,
      "Ġrape": 6043,
      "Ġconstruct": 6044,
      "Ġsubstance": 6045,
      "razy": 6046,
      "46": 6047,
      "First": 6048,
      "Other": 6049,
      "Post": 6050,
      "person": 6051,
      "ita": 6052,
      "esc": 6053,
      "dule": 6054,
      "Ġcoast": 6055,
      "Ġcapable": 6056,
      "Ġopponent": 6057,
      "anglion": 6058,
      "rizona": 6059,
      "itch": 6060,
      "Ġfaster": 6061,
      "Ġlosing": 6062,
      "ĠSign": 6063,
      "ĠEach": 6064,
      "Ġadmitted": 6065,
      "Ġdiss": 6066,
      "Ġscript": 6067,
      "Ġafternoon": 6068,
      "Ġdrain": 6069,
      "Ġtree": 6070,
      "adder": 6071,
      "ulations": 6072,
      "Ġpregn": 6073,
      "Ġstands": 6074,
      "ĠCentral": 6075,
      "Ġcouncil": 6076,
      "Ġempty": 6077,
      "ĠJewish": 6078,
      "Well": 6079,
      "ÙĬ": 6080,
      "Ġfixed": 6081,
      "Ġgod": 6082,
      "ĠBBC": 6083,
      "Ġaccompl": 6084,
      "Ġflood": 6085,
      "monary": 6086,
      "ĠPlan": 6087,
      "Ġcolleagues": 6088,
      "Ġresponded": 6089,
      "Ġinstitutions": 6090,
      "CC": 6091,
      "ĠSum": 6092,
      "ĠBoth": 6093,
      "ĠPan": 6094,
      "Ġdefined": 6095,
      "Ġdifferences": 6096,
      "ĠComics": 6097,
      "Ġmarkets": 6098,
      "ĠProt": 6099,
      "irds": 6100,
      "Ġkinds": 6101,
      "Ġconsidering": 6102,
      "ĠParis": 6103,
      "Ġchemical": 6104,
      "ĠPakistan": 6105,
      "86": 6106,
      "EL": 6107,
      "ĠDaily": 6108,
      "redit": 6109,
      "acking": 6110,
      "Ġevening": 6111,
      "Ġeffectively": 6112,
      "Ġnearby": 6113,
      "ĠMichigan": 6114,
      "ĠWilliam": 6115,
      "Ġcircumst": 6116,
      "aments": 6117,
      "atell": 6118,
      "Ġplot": 6119,
      "ĠJo": 6120,
      "Ġexplos": 6121,
      "Ġradical": 6122,
      "Ġwalls": 6123,
      "Ġtemperature": 6124,
      "],": 6125,
      "ez": 6126,
      "lines": 6127,
      "yers": 6128,
      "Ġstorage": 6129,
      "ansas": 6130,
      "Ġcoord": 6131,
      "issions": 6132,
      "Ġreaders": 6133,
      "ĠShow": 6134,
      "Ġrecorded": 6135,
      "Ġequipment": 6136,
      "ĠTechn": 6137,
      "Ġpractices": 6138,
      "Ġdeclared": 6139,
      "Ġguns": 6140,
      "care": 6141,
      "esters": 6142,
      "ĠSocial": 6143,
      "Ġauto": 6144,
      "ipping": 6145,
      "Super": 6146,
      "ĠJesus": 6147,
      "Ġice": 6148,
      "Ġpub": 6149,
      "Ġgather": 6150,
      "Ġshif": 6151,
      "Ġsole": 6152,
      "ounded": 6153,
      "Ġourselves": 6154,
      "Ġsecure": 6155,
      "Ġprompt": 6156,
      "Ġversions": 6157,
      "Ġperspective": 6158,
      "Ġhall": 6159,
      "ilty": 6160,
      "Ġemails": 6161,
      "ĠForce": 6162,
      "Ġunlikely": 6163,
      "Over": 6164,
      "pret": 6165,
      "Ġgrab": 6166,
      "Ġcausing": 6167,
      "Ġmulti": 6168,
      "Although": 6169,
      "Ġlinked": 6170,
      "Ð¾Ð": 6171,
      "Every": 6172,
      "OW": 6173,
      "called": 6174,
      "Ġwid": 6175,
      "Ġthick": 6176,
      "ĠSant": 6177,
      "oked": 6178,
      "Ġsmooth": 6179,
      "Ġconfidence": 6180,
      "Ġpublicly": 6181,
      "Ġdepart": 6182,
      "Ġfinish": 6183,
      "ĠDisney": 6184,
      "ĠSar": 6185,
      "Ġsea": 6186,
      "andal": 6187,
      "ĠVR": 6188,
      "formation": 6189,
      "Ġseriously": 6190,
      "Ġlawyer": 6191,
      "ashion": 6192,
      "Ġmoves": 6193,
      "ĠPhoto": 6194,
      "Ġapplied": 6195,
      ",'": 6196,
      "iams": 6197,
      "sm": 6198,
      "xual": 6199,
      "ima": 6200,
      "Ġasc": 6201,
      "rie": 6202,
      "ffee": 6203,
      "ĠProject": 6204,
      "Ġtalked": 6205,
      "Ġfacing": 6206,
      "Ġreligion": 6207,
      "Ġsurprised": 6208,
      "ĠMuslims": 6209,
      "Ġdemocracy": 6210,
      "Ġexercise": 6211,
      "95": 6212,
      "Ġthread": 6213,
      "ĠMass": 6214,
      "Ġquant": 6215,
      "Ġextent": 6216,
      "Ġcentre": 6217,
      "Ġdistance": 6218,
      "Ġactivists": 6219,
      "Ġmessages": 6220,
      "Ġportion": 6221,
      "Ġoriginally": 6222,
      "ĠSqu": 6223,
      "resents": 6224,
      "ĠFig": 6225,
      "Ġdiscussed": 6226,
      "Ġaccepted": 6227,
      "Ġupdates": 6228,
      "Go": 6229,
      "Ġpure": 6230,
      "Ġduct": 6231,
      "amin": 6232,
      "Ġstorm": 6233,
      "Ġatm": 6234,
      "Ġsurgical": 6235,
      "Ġeverybody": 6236,
      "Ġrefere": 6237,
      "Ġreporters": 6238,
      "ĠBarack": 6239,
      "Ġsplit": 6240,
      "Up": 6241,
      "Ġwood": 6242,
      "Ġcraft": 6243,
      "Ġrecru": 6244,
      "Ġ2004": 6245,
      "azi": 6246,
      "Ġexplore": 6247,
      "ĠDead": 6248,
      "Ġargue": 6249,
      "Ġdeclined": 6250,
      "Ġtendon": 6251,
      "Ġadults": 6252,
      "col": 6253,
      "ket": 6254,
      "ls": 6255,
      "life": 6256,
      "wer": 6257,
      "Ġaid": 6258,
      "Ġproud": 6259,
      "Ġthr": 6260,
      "Ġnarrow": 6261,
      "Ġec": 6262,
      "Ġsector": 6263,
      "ĠNASA": 6264,
      "Ġinsert": 6265,
      "ociety": 6266,
      "Ġnasal": 6267,
      "Ġscheduled": 6268,
      "Ġprohib": 6269,
      "ĠRod": 6270,
      "Ġadvert": 6271,
      "type": 6272,
      "Ġexplains": 6273,
      "Ġtechnical": 6274,
      "Ġholds": 6275,
      "ĠiPh": 6276,
      "Ġsurveillance": 6277,
      "pass": 6278,
      "inf": 6279,
      "Ġlin": 6280,
      "Ġheight": 6281,
      "Ġ500": 6282,
      "Ġcarbon": 6283,
      "Ġsets": 6284,
      "Ġcaption": 6285,
      "mia": 6286,
      "ÑĢ": 6287,
      "Ġ;": 6288,
      "ĠRel": 6289,
      "ĠRub": 6290,
      "Ġorbit": 6291,
      "Ġresolution": 6292,
      "ĠVer": 6293,
      "azz": 6294,
      "Ġvalid": 6295,
      "Ġattempted": 6296,
      "free": 6297,
      "Ġfly": 6298,
      "Ġfish": 6299,
      "edy": 6300,
      "alle": 6301,
      "ĠSov": 6302,
      "Then": 6303,
      "Ġarmed": 6304,
      "ĠAndrew": 6305,
      "ĠScot": 6306,
      "Ġconnected": 6307,
      "Ġinjured": 6308,
      "Ġinitially": 6309,
      "Ġnecessarily": 6310,
      "Ġpicked": 6311,
      "rm": 6312,
      "Ġbare": 6313,
      "Ġmanage": 6314,
      "Ġrealize": 6315,
      "Ġcorrespond": 6316,
      "Ġexamination": 6317,
      "ĠRomney": 6318,
      "ĠCO": 6319,
      "ĠRad": 6320,
      "ivered": 6321,
      "Ġlots": 6322,
      "Ġsuffered": 6323,
      "Ġfrequently": 6324,
      "Many": 6325,
      "RS": 6326,
      "Ġbot": 6327,
      "Ġloved": 6328,
      "Ġul": 6329,
      "Ġneut": 6330,
      "Ġsuit": 6331,
      "Ġabandon": 6332,
      "Ġ36": 6333,
      "Ġdesire": 6334,
      "Ġdiab": 6335,
      "Ġvolume": 6336,
      "Ġrenew": 6337,
      "Ġdisappoint": 6338,
      "CH": 6339,
      "cut": 6340,
      "ĠPenn": 6341,
      "ourney": 6342,
      "Ġintention": 6343,
      "Ġlabel": 6344,
      "ĠAustralian": 6345,
      "Ġschedule": 6346,
      "Ġnewspaper": 6347,
      "Ġdatabase": 6348,
      "Ġfill": 6349,
      "ilit": 6350,
      "erent": 6351,
      "Ġtech": 6352,
      "Ġaccomp": 6353,
      "Ġphase": 6354,
      "Ġassert": 6355,
      "Ġcran": 6356,
      "Ġclassic": 6357,
      "reland": 6358,
      "esome": 6359,
      "Ġisol": 6360,
      "Ġwaste": 6361,
      "Ġexcess": 6362,
      "Ġsav": 6363,
      "Ġwarned": 6364,
      "Ġengage": 6365,
      "ĠDavis": 6366,
      "Ġconsequences": 6367,
      "host": 6368,
      "Ġsam": 6369,
      "esy": 6370,
      "otid": 6371,
      "this": 6372,
      "ĠFree": 6373,
      "ologist": 6374,
      "Ġlocations": 6375,
      "ĠAgain": 6376,
      "Ġvacc": 6377,
      "scribe": 6378,
      "ĠLinux": 6379,
      "Most": 6380,
      "Pe": 6381,
      "cal": 6382,
      "Ñģ": 6383,
      "asure": 6384,
      "ĠCivil": 6385,
      "Ġresc": 6386,
      "Ġheads": 6387,
      "Ġmovements": 6388,
      "Ġrequirements": 6389,
      "Like": 6390,
      "bi": 6391,
      "mic": 6392,
      "you": 6393,
      "Ġmole": 6394,
      "Ġthinks": 6395,
      "Ġnav": 6396,
      "sts": 6397,
      "ocket": 6398,
      "Ġstatements": 6399,
      "Ġantib": 6400,
      "Ġsecretary": 6401,
      "Ġpanel": 6402,
      "Ġsatisf": 6403,
      "war": 6404,
      "Ġnodes": 6405,
      "ĠSher": 6406,
      "Ġexcell": 6407,
      "Ġsomewhat": 6408,
      "Ġprominent": 6409,
      "ĠColor": 6410,
      "Ġstores": 6411,
      "Ġfairly": 6412,
      "42": 6413,
      "Per": 6414,
      "Se": 6415,
      "bow": 6416,
      "icious": 6417,
      "Ġgon": 6418,
      "ĠAp": 6419,
      "Ġmyster": 6420,
      "Ġbrings": 6421,
      "Ġguide": 6422,
      "Ġmissed": 6423,
      "ĠâĤ¬": 6424,
      "ĠItalian": 6425,
      "Oh": 6426,
      "west": 6427,
      "Ġtort": 6428,
      "Ġtourn": 6429,
      "ati": 6430,
      "Ġfilled": 6431,
      "stood": 6432,
      "olve": 6433,
      "rive": 6434,
      "Ġoverl": 6435,
      "Ġconscious": 6436,
      "ĠRev": 6437,
      "Ġexplan": 6438,
      "Ġcontrolled": 6439,
      "Ġtechniques": 6440,
      "Ġimmediate": 6441,
      "ENT": 6442,
      "Ġadjacent": 6443,
      "DS": 6444,
      "During": 6445,
      "reens": 6446,
      "arn": 6447,
      "asp": 6448,
      "Ġthigh": 6449,
      "Ġlaugh": 6450,
      "ĠIll": 6451,
      "Ġcontest": 6452,
      "Ġspin": 6453,
      "Ġresident": 6454,
      "velopment": 6455,
      "Ġserving": 6456,
      "ĠMaybe": 6457,
      "Ġprotected": 6458,
      "Ġyounger": 6459,
      "ĠChristmas": 6460,
      "Ġcollabor": 6461,
      "Ġpictures": 6462,
      "ician": 6463,
      "Ġsuc": 6464,
      "Ġchronic": 6465,
      "Ġtrunk": 6466,
      "Ġspring": 6467,
      "Ġfewer": 6468,
      "Ġcompleted": 6469,
      "Ġsensory": 6470,
      "Ġcarrying": 6471,
      "Ġobserved": 6472,
      "ĠBoard": 6473,
      "cation": 6474,
      "oom": 6475,
      "Ġcervical": 6476,
      "ĠArizona": 6477,
      "chain": 6478,
      "usal": 6479,
      "ĠSpanish": 6480,
      "ĠMedia": 6481,
      "Ġpushing": 6482,
      "Ġroughly": 6483,
      "59": 6484,
      "EU": 6485,
      "oration": 6486,
      "ano": 6487,
      "Ġbull": 6488,
      "rier": 6489,
      "ĠNov": 6490,
      "ĠLord": 6491,
      "ĠJul": 6492,
      "Ġshouldn": 6493,
      "Ġguilty": 6494,
      "Ġprivacy": 6495,
      "Ġbehavi": 6496,
      "Ġwatched": 6497,
      "Ġteachers": 6498,
      "Ġtornado": 6499,
      "AA": 6500,
      "mod": 6501,
      "rad": 6502,
      "icing": 6503,
      "Ġnative": 6504,
      "Ġlock": 6505,
      "irty": 6506,
      "Ġperine": 6507,
      "ĠYet": 6508,
      "Ġemphas": 6509,
      "ĠBitcoin": 6510,
      "Ġstood": 6511,
      "ĠBoston": 6512,
      "ĠRon": 6513,
      "ĠFe": 6514,
      "Ġenh": 6515,
      "Ġextension": 6516,
      "Ġrepresents": 6517,
      "ĠBatman": 6518,
      "ĠOhio": 6519,
      "American": 6520,
      "IM": 6521,
      "Ġaf": 6522,
      "Ġliqu": 6523,
      "tering": 6524,
      "Ġyell": 6525,
      "ĠBoy": 6526,
      "Ġram": 6527,
      "Ġdeck": 6528,
      "Ġprox": 6529,
      "Ġsharp": 6530,
      "Ġthank": 6531,
      "Ġembr": 6532,
      "Ġemissions": 6533,
      "erty": 6534,
      "Ġ1990": 6535,
      "Ġclosely": 6536,
      "Ġjournalists": 6537,
      "Ġstruggle": 6538,
      "Ġgrown": 6539,
      "ĠRiver": 6540,
      "unte": 6541,
      "Ġbrach": 6542,
      "05": 6543,
      "Ġtiny": 6544,
      "orry": 6545,
      "irms": 6546,
      "Ġspons": 6547,
      "Ġconsists": 6548,
      "Ġentered": 6549,
      "ĠAnother": 6550,
      "ĠOnly": 6551,
      "Ġreportedly": 6552,
      "ĠPhotos": 6553,
      "HL": 6554,
      "some": 6555,
      "uated": 6556,
      "Ġdownt": 6557,
      "Ġhorm": 6558,
      "acle": 6559,
      "Ġfort": 6560,
      "ĠBet": 6561,
      "ĠFollow": 6562,
      "Ġmanner": 6563,
      "Ġadds": 6564,
      "Ġacute": 6565,
      "Ġreceiving": 6566,
      "Ġimproved": 6567,
      "Ġconsumers": 6568,
      "Ġdetailed": 6569,
      "OC": 6570,
      "ker": 6571,
      "atine": 6572,
      "enger": 6573,
      "Ġcoc": 6574,
      "Ġfighters": 6575,
      "ĠID": 6576,
      "ĠBoe": 6577,
      "ĠWhe": 6578,
      "ĠHome": 6579,
      "Ġsharing": 6580,
      "Ġdoctor": 6581,
      "Ġbright": 6582,
      "Ġ2001": 6583,
      "Ġinstr": 6584,
      "Ġrisks": 6585,
      "Ġmarried": 6586,
      "Ġmaterials": 6587,
      "Ġprotein": 6588,
      "Ġcircumstances": 6589,
      "Ġsucceed": 6590,
      "Sp": 6591,
      "Ġtox": 6592,
      "Ġreward": 6593,
      "Ġships": 6594,
      "ampion": 6595,
      "ĠIsland": 6596,
      "Ġtargeted": 6597,
      "Ġnucle": 6598,
      "Ġsquare": 6599,
      "atal": 6600,
      "Ġinput": 6601,
      "Ġdors": 6602,
      "Ġisland": 6603,
      "ĠTra": 6604,
      "ĠSociety": 6605,
      "Ġride": 6606,
      "Ġseat": 6607,
      "Ġ38": 6608,
      "hips": 6609,
      "Ġcreation": 6610,
      "Ġdescribe": 6611,
      "Ġindicate": 6612,
      "Ġallegations": 6613,
      "Ġorders": 6614,
      "FA": 6615,
      "cons": 6616,
      "water": 6617,
      "Ġtib": 6618,
      "Ġrum": 6619,
      "ĠPistor": 6620,
      "ĠWood": 6621,
      "Ġ2003": 6622,
      "Ġwarm": 6623,
      "Ġdepending": 6624,
      "Ġfunctions": 6625,
      "Ġdelivered": 6626,
      "Ġyesterday": 6627,
      "Ã¤": 6628,
      "Ġili": 6629,
      "ĠIreland": 6630,
      "illy": 6631,
      "essor": 6632,
      "ĠOsc": 6633,
      "Ġagend": 6634,
      "Ġcooper": 6635,
      "Ġvisible": 6636,
      "Donald": 6637,
      "Ġtrib": 6638,
      "lymp": 6639,
      "Ġdeput": 6640,
      "Ġfraud": 6641,
      "ĠDallas": 6642,
      "ĠGM": 6643,
      "Ġsimpl": 6644,
      "month": 6645,
      "Ġprecise": 6646,
      "Ġpushed": 6647,
      "ĠCatholic": 6648,
      "mond": 6649,
      "Ã¶": 6650,
      "ĠAle": 6651,
      "ĠRights": 6652,
      "ĠLake": 6653,
      "Ġbutton": 6654,
      "Ġevolution": 6655,
      "Ġdepth": 6656,
      "ucks": 6657,
      "Ġlawsuit": 6658,
      "Ġmurd": 6659,
      "iples": 6660,
      "zy": 6661,
      "Ð½": 6662,
      "cluding": 6663,
      "Ġwarning": 6664,
      "ĠSystem": 6665,
      "ĠAfghanistan": 6666,
      "ĠPistorius": 6667,
      "IG": 6668,
      "div": 6669,
      "law": 6670,
      "ua": 6671,
      "empor": 6672,
      "Ġunderlying": 6673,
      "Ġlimb": 6674,
      "Ġreplaced": 6675,
      "ĠContin": 6676,
      "audi": 6677,
      "Ġvillage": 6678,
      "ĠCow": 6679,
      "istory": 6680,
      "encing": 6681,
      "thew": 6682,
      "Ġstrange": 6683,
      "ĠRead": 6684,
      "Ġdistal": 6685,
      "Ġmarked": 6686,
      "Ġopportunities": 6687,
      "Ġmaximum": 6688,
      "Ġcontroversial": 6689,
      "ĠJoseph": 6690,
      "Ne": 6691,
      "PR": 6692,
      "Two": 6693,
      "mm": 6694,
      "name": 6695,
      "atus": 6696,
      "ouston": 6697,
      "ĠRa": 6698,
      "Ġkit": 6699,
      "Ġusual": 6700,
      "ĠStand": 6701,
      "Ġregional": 6702,
      "Ġdefinition": 6703,
      "Ġcriticism": 6704,
      "ĠLabour": 6705,
      "list": 6706,
      "rich": 6707,
      "whel": 6708,
      "orse": 6709,
      "anes": 6710,
      "eding": 6711,
      "Ġinqu": 6712,
      "level": 6713,
      "urning": 6714,
      "kel": 6715,
      "ĠFed": 6716,
      "ometimes": 6717,
      "Ġloan": 6718,
      "Ġindicated": 6719,
      "Ġpurposes": 6720,
      "Ġmortg": 6721,
      "ĠPalestinian": 6722,
      "ĠCNN": 6723,
      "bel": 6724,
      "hus": 6725,
      "Ġcrazy": 6726,
      "etes": 6727,
      "ancing": 6728,
      "ifications": 6729,
      "Ġtransgender": 6730,
      "Ġterr": 6731,
      "Ġpromise": 6732,
      "Ġinspired": 6733,
      "Ġcook": 6734,
      "Ġbag": 6735,
      "Ġflying": 6736,
      "astern": 6737,
      "omach": 6738,
      "celer": 6739,
      "ĠMax": 6740,
      "intestinal": 6741,
      "Ġextrem": 6742,
      "Ġprotesters": 6743,
      "ĠSeattle": 6744,
      "Ġeditor": 6745,
      "Ġtotally": 6746,
      "Ġlibrary": 6747,
      "ĠGeorg": 6748,
      "Ġsuspected": 6749,
      "Ġconsistent": 6750,
      "Ġcartil": 6751,
      "54": 6752,
      "fortunately": 6753,
      "just": 6754,
      "rid": 6755,
      "Ġbra": 6756,
      "Ġmine": 6757,
      "ĠPac": 6758,
      "Ġchart": 6759,
      "ogue": 6760,
      "Ġcontribute": 6761,
      "Ġdisput": 6762,
      "iana": 6763,
      "Ġmarketing": 6764,
      "Ġtalent": 6765,
      "--------": 6766,
      "Ġancient": 6767,
      "See": 6768,
      "foot": 6769,
      "Ġboss": 6770,
      "asks": 6771,
      "Ġliver": 6772,
      "Ġeating": 6773,
      "Ġegg": 6774,
      "iger": 6775,
      "Ġstab": 6776,
      "Ġrally": 6777,
      "ĠWater": 6778,
      "claim": 6779,
      "Ġclient": 6780,
      "ensity": 6781,
      "Ġindex": 6782,
      "Ġenters": 6783,
      "Ġcompetitive": 6784,
      "Ġterrorist": 6785,
      "Ġphenomen": 6786,
      "gor": 6787,
      "ena": 6788,
      "Ġdynam": 6789,
      "ĠMs": 6790,
      "ĠGary": 6791,
      "Ġtrick": 6792,
      "oken": 6793,
      "Ġadm": 6794,
      "ĠThanks": 6795,
      "Ġexpansion": 6796,
      "efully": 6797,
      "Ġopposite": 6798,
      "Ġtechnique": 6799,
      "Ġsuffering": 6800,
      "Ġillness": 6801,
      "aniel": 6802,
      "Ġfluid": 6803,
      "Ġsupplies": 6804,
      "Tube": 6805,
      "from": 6806,
      "Ġbid": 6807,
      "omed": 6808,
      "opic": 6809,
      "Ġsees": 6810,
      "Ġchose": 6811,
      "ĠLife": 6812,
      "rett": 6813,
      "Ġrelevant": 6814,
      "Ġparliament": 6815,
      "ĠWilliams": 6816,
      "Ġbroadcast": 6817,
      "Ġmagazine": 6818,
      "Ġassets": 6819,
      "Ġacknowled": 6820,
      "ĠiPhone": 6821,
      "arters": 6822,
      "Ġdry": 6823,
      "Ġnations": 6824,
      "ĠTer": 6825,
      "Ġ48": 6826,
      "Ġfinds": 6827,
      "Ġraising": 6828,
      "Ġcharacterized": 6829,
      "Ġstruck": 6830,
      "OD": 6831,
      "Qu": 6832,
      "Res": 6833,
      "fire": 6834,
      "mates": 6835,
      "Ġwake": 6836,
      "geon": 6837,
      "oung": 6838,
      "ĠSee": 6839,
      "Ġmainstream": 6840,
      "Ġoccasion": 6841,
      "ĠBlue": 6842,
      "Ġreduction": 6843,
      "ĠDirector": 6844,
      "CE": 6845,
      "zer": 6846,
      "Ġcert": 6847,
      "Ġfinger": 6848,
      "Ġdial": 6849,
      "isting": 6850,
      "Ġking": 6851,
      "Ġdisorders": 6852,
      "ĠStr": 6853,
      "Ġscan": 6854,
      "Ġflo": 6855,
      "Ġtransp": 6856,
      "aze": 6857,
      "Ġtopic": 6858,
      "teryg": 6859,
      "Ġrobot": 6860,
      "Ġessentially": 6861,
      "Ġmistake": 6862,
      "Ġannouncement": 6863,
      "Ġsubsid": 6864,
      "lete": 6865,
      "Ġlinks": 6866,
      "ether": 6867,
      "ceived": 6868,
      "ĠHen": 6869,
      "ria": 6870,
      "Ġshock": 6871,
      "ĠJews": 6872,
      "ordan": 6873,
      "ensor": 6874,
      "Ġextensive": 6875,
      "Ġhighlight": 6876,
      "print": 6877,
      "Ġchest": 6878,
      "ĠClass": 6879,
      "Ġcampus": 6880,
      "Ġfaced": 6881,
      "Ġnetworks": 6882,
      "Ġtargets": 6883,
      "Ġ1980": 6884,
      "Ġrecognize": 6885,
      "Ġhttps": 6886,
      "()": 6887,
      "Cont": 6888,
      "iast": 6889,
      "Ġsession": 6890,
      "Ġbacter": 6891,
      "Ġmir": 6892,
      "Ġconver": 6893,
      "uma": 6894,
      "ĠWatch": 6895,
      "Ġblow": 6896,
      "Ġfacts": 6897,
      "Ġdistinct": 6898,
      "Ġclasses": 6899,
      "Ġcounsel": 6900,
      "Ġlatter": 6901,
      "Ġpunish": 6902,
      "Ġattachment": 6903,
      "Ġcranial": 6904,
      "Can": 6905,
      "itone": 6906,
      "ĠEll": 6907,
      "Ġallies": 6908,
      "Ġteeth": 6909,
      "Ġarticles": 6910,
      "Ġcycle": 6911,
      "Ġhistorical": 6912,
      "Ġtemporal": 6913,
      "Ġrepeatedly": 6914,
      "Follow": 6915,
      "Int": 6916,
      "ORE": 6917,
      "Ġgang": 6918,
      "owered": 6919,
      "Ġstomach": 6920,
      "ĠGar": 6921,
      "Ġcomprom": 6922,
      "Ġbuying": 6923,
      "Ġharder": 6924,
      "Ġamounts": 6925,
      "ĠMoore": 6926,
      "Ġmerely": 6927,
      "57": 6928,
      "ĠSports": 6929,
      "unning": 6930,
      "ĠLong": 6931,
      "Ġgovernor": 6932,
      "iami": 6933,
      "arynx": 6934,
      "Ġfeedback": 6935,
      "Ġbowel": 6936,
      "ĠJersey": 6937,
      "ĠGiants": 6938,
      "ses": 6939,
      "Ġpra": 6940,
      "rogen": 6941,
      "ĠCru": 6942,
      "Ġyards": 6943,
      "ĠMiller": 6944,
      "usiness": 6945,
      "Ġvice": 6946,
      "ĠFour": 6947,
      "Ġalongside": 6948,
      "Ġnormally": 6949,
      "58": 6950,
      "LA": 6951,
      "Me": 6952,
      "Ġtall": 6953,
      "Ġborrow": 6954,
      "Ġrent": 6955,
      "ĠIN": 6956,
      "istent": 6957,
      "abled": 6958,
      "Ġscored": 6959,
      "Ġcorruption": 6960,
      "Ġcomplaint": 6961,
      "Ġartist": 6962,
      "ĠBrook": 6963,
      "mbly": 6964,
      "Ġallegedly": 6965,
      "Ġmanufacture": 6966,
      "66": 6967,
      "AF": 6968,
      "Com": 6969,
      "DP": 6970,
      "Ġbond": 6971,
      "ĠTit": 6972,
      "ador": 6973,
      "ĠCub": 6974,
      "iber": 6975,
      "Ġdesk": 6976,
      "Ġtransc": 6977,
      "Ġdepression": 6978,
      "Ġfavour": 6979,
      "Ear": 6980,
      "ĠAT": 6981,
      "Ġshots": 6982,
      "oster": 6983,
      "ulture": 6984,
      "itional": 6985,
      "Ġblind": 6986,
      "Ġinterpret": 6987,
      "pected": 6988,
      "Ġinvestors": 6989,
      "Ġcategory": 6990,
      "rated": 6991,
      "olen": 6992,
      "agers": 6993,
      "Ġproof": 6994,
      "Ġoblig": 6995,
      "Ġparam": 6996,
      "Ġ1999": 6997,
      "Ġassociation": 6998,
      "ERS": 6999,
      "****": 7000,
      "ĠSwed": 7001,
      "Ġpatterns": 7002,
      "Ġdedicated": 7003,
      "Ġswitch": 7004,
      "Ob": 7005,
      "Pol": 7006,
      "greg": 7007,
      "Ġtaught": 7008,
      "ouch": 7009,
      "Ġru": 7010,
      "ĠOlymp": 7011,
      "Ġdisorder": 7012,
      "Ġexposed": 7013,
      "Ġcondem": 7014,
      "aphrag": 7015,
      "Ġhotel": 7016,
      "anchester": 7017,
      "ÃŃ": 7018,
      "Ġfashion": 7019,
      "oug": 7020,
      "ira": 7021,
      "acked": 7022,
      "Ġupcoming": 7023,
      "Ġblame": 7024,
      "Ġgene": 7025,
      "Ġadvent": 7026,
      "Ġdealing": 7027,
      "Ġstrongly": 7028,
      "Ġfeatured": 7029,
      "Ø§ÙĦ": 7030,
      "ĠAttorney": 7031,
      "Ġanx": 7032,
      "adel": 7033,
      "ĠMa": 7034,
      "cho": 7035,
      "ĠPower": 7036,
      "Ġjourney": 7037,
      "Ġcomponent": 7038,
      "ĠAnn": 7039,
      "Ġcreative": 7040,
      "Ġthreats": 7041,
      "Ġparticipants": 7042,
      "Ġperfectly": 7043,
      "Ġreplacement": 7044,
      "Ġfifth": 7045,
      "Ġwithdraw": 7046,
      "cost": 7047,
      "game": 7048,
      "rehens": 7049,
      "Ġsister": 7050,
      "itud": 7051,
      "roit": 7052,
      "ĠMot": 7053,
      "Ġunus": 7054,
      "ĠItaly": 7055,
      "Ġremote": 7056,
      "inson": 7057,
      "Ġlisted": 7058,
      "Ġreturns": 7059,
      "Ġequival": 7060,
      "Ġrelationships": 7061,
      "Ġregulations": 7062,
      "Ġliterally": 7063,
      "Ġdestroyed": 7064,
      "Ġgastrointestinal": 7065,
      "88": 7066,
      "PD": 7067,
      "Ġchances": 7068,
      "Ġcompartment": 7069,
      "ĠVan": 7070,
      "Ġending": 7071,
      "Ġnewslet": 7072,
      "Ġdrivers": 7073,
      "Ġrising": 7074,
      "Ġproperly": 7075,
      "Ġerr": 7076,
      "ĠGrand": 7077,
      "Ġdomin": 7078,
      "ĠCharl": 7079,
      "ĠSoviet": 7080,
      "Ġexcellent": 7081,
      "aphragm": 7082,
      "IP": 7083,
      "Ġbear": 7084,
      "ologic": 7085,
      "Ġextend": 7086,
      "Ġdeaths": 7087,
      "Ġvolunte": 7088,
      "Ġchannel": 7089,
      "iences": 7090,
      "edia": 7091,
      "Ġreput": 7092,
      "Ġgiant": 7093,
      "Ġsaved": 7094,
      "Ġunp": 7095,
      "Ġ46": 7096,
      "Ġformation": 7097,
      "Ġcommunication": 7098,
      "Ġfacial": 7099,
      "Ġstronger": 7100,
      "Ġcomplications": 7101,
      "Ġmotion": 7102,
      "Ġanswers": 7103,
      "Ġdogs": 7104,
      "Ġpulmonary": 7105,
      "Ġwelcome": 7106,
      "Ġaggressive": 7107,
      "Ġheavily": 7108,
      "TV": 7109,
      "yd": 7110,
      "Ġties": 7111,
      "ĠTO": 7112,
      "lder": 7113,
      "ĠRand": 7114,
      "ĠWal": 7115,
      "ĠGaza": 7116,
      "ellect": 7117,
      "Ġpled": 7118,
      "ogl": 7119,
      "Ġunknown": 7120,
      "avor": 7121,
      "Ġacting": 7122,
      "Ġowned": 7123,
      "Ġretire": 7124,
      "Ġsupports": 7125,
      "Ġexperim": 7126,
      "ĠYouTube": 7127,
      "ĠExp": 7128,
      "Ġdefeat": 7129,
      "uable": 7130,
      "style": 7131,
      "acc": 7132,
      "urt": 7133,
      "ĠAli": 7134,
      "ĠMount": 7135,
      "ĠBrian": 7136,
      "Ġrail": 7137,
      "ĠElect": 7138,
      "Ġanyway": 7139,
      "Ġefficient": 7140,
      "nergy": 7141,
      "Ġmetal": 7142,
      "Ġhoping": 7143,
      "Ġbatt": 7144,
      "woman": 7145,
      "Ġoxy": 7146,
      "Ġmel": 7147,
      "ifest": 7148,
      "earing": 7149,
      "who": 7150,
      "ĠRoman": 7151,
      "Ġcrucial": 7152,
      "Ġsustain": 7153,
      "amous": 7154,
      "ĠMel": 7155,
      "Ġintent": 7156,
      "ĠKevin": 7157,
      "Ġrecovery": 7158,
      "athan": 7159,
      "Ġ2002": 7160,
      "Ġexposure": 7161,
      "Ġdriven": 7162,
      "Ġencourage": 7163,
      "Ġsituations": 7164,
      "Ġiliac": 7165,
      "cers": 7166,
      "chen": 7167,
      "Ġwire": 7168,
      "ala": 7169,
      "ĠWars": 7170,
      "Ġanywhere": 7171,
      "Ġcovers": 7172,
      "Ġcrash": 7173,
      "Ġprofit": 7174,
      "Ġconstit": 7175,
      "Ġdebut": 7176,
      "Ġwalked": 7177,
      "Ġdegrees": 7178,
      "Ġprocedures": 7179,
      "Ġcomfortable": 7180,
      "01": 7181,
      "Mus": 7182,
      "Ùħ": 7183,
      "aser": 7184,
      "Ġnobody": 7185,
      "ĠGames": 7186,
      "ĠIns": 7187,
      "Ġsomebody": 7188,
      "Ġ300": 7189,
      "Ġunderstood": 7190,
      "Ġextract": 7191,
      "Ġcheap": 7192,
      "Ġmovies": 7193,
      "Ġorganized": 7194,
      "Ġconstant": 7195,
      "Ġengaged": 7196,
      "ĠTurkey": 7197,
      "ĠDefense": 7198,
      "Ġdoctors": 7199,
      "En": 7200,
      "MS": 7201,
      "Ġwest": 7202,
      "Ġmo": 7203,
      "ican": 7204,
      "ĠDiv": 7205,
      "ĠDown": 7206,
      "unic": 7207,
      "Ġroots": 7208,
      "Ġpassion": 7209,
      "GBT": 7210,
      "Ġrefugees": 7211,
      "IR": 7212,
      "bital": 7213,
      "ja": 7214,
      "Ġantic": 7215,
      "Ġhole": 7216,
      "sters": 7217,
      "Ġaside": 7218,
      "Ġconclusion": 7219,
      "ĠRet": 7220,
      "ĠHo": 7221,
      "ĠDan": 7222,
      "Ġuniverse": 7223,
      "Ġoverwhel": 7224,
      "ĠVict": 7225,
      "Ġstrict": 7226,
      "Ġdistingu": 7227,
      "Ġadministr": 7228,
      "Ġcycl": 7229,
      "ependent": 7230,
      "Ġaspects": 7231,
      "ĠPutin": 7232,
      "Ġpermanent": 7233,
      "ĠOscar": 7234,
      "Ġdress": 7235,
      "Ġheaven": 7236,
      "ulum": 7237,
      "ĠHol": 7238,
      "ĠHouston": 7239,
      "ĠForm": 7240,
      "apes": 7241,
      "Ġadapt": 7242,
      "Ġremark": 7243,
      "ikes": 7244,
      "Ġoccas": 7245,
      "Ġlicens": 7246,
      "Ġsuddenly": 7247,
      "ĠHolly": 7248,
      "ayers": 7249,
      "umer": 7250,
      "Ġarray": 7251,
      "Ġcoffee": 7252,
      "Ġpool": 7253,
      "Ġ49": 7254,
      "Ġgenes": 7255,
      "Ġillustr": 7256,
      "Ġassistant": 7257,
      "idelines": 7258,
      "Ġdiabetes": 7259,
      "Or": 7260,
      "vin": 7261,
      "leans": 7262,
      "Ġforth": 7263,
      "oli": 7264,
      "Ġweird": 7265,
      "Ġneur": 7266,
      "ĠEdu": 7267,
      "Ġplug": 7268,
      "active": 7269,
      "Ġ37": 7270,
      "ildren": 7271,
      "Ġphr": 7272,
      "Ġextended": 7273,
      "ĠAdam": 7274,
      "block": 7275,
      "________": 7276,
      "Ġchairman": 7277,
      "Ġagenda": 7278,
      "Yes": 7279,
      "kay": 7280,
      "nic": 7281,
      "ĠâĢĻ": 7282,
      "asia": 7283,
      "Ġnod": 7284,
      "Ġgall": 7285,
      "ĠTop": 7286,
      "owa": 7287,
      "ĠDie": 7288,
      "Ġclar": 7289,
      "Ġ33": 7290,
      "Ġinstalled": 7291,
      "Ġcourts": 7292,
      "Ġopponents": 7293,
      "Ġdeeply": 7294,
      "Ġdivided": 7295,
      "Ġcaptured": 7296,
      "Ġcontributed": 7297,
      "Ġminority": 7298,
      "iest": 7299,
      "rete": 7300,
      "Ġnerv": 7301,
      "ĠMu": 7302,
      "ĠWork": 7303,
      "ĠNBA": 7304,
      "ĠKar": 7305,
      "Ġevil": 7306,
      "Ġterrible": 7307,
      "Ġfounder": 7308,
      "Ġsecondary": 7309,
      "Ġkeeps": 7310,
      "Any": 7311,
      "inguinal": 7312,
      "Ġenemies": 7313,
      "53": 7314,
      "App": 7315,
      "isp": 7316,
      "ĠAff": 7317,
      "Ġdozen": 7318,
      "Ġknowing": 7319,
      "axy": 7320,
      "Ġdiscover": 7321,
      "ĠAsia": 7322,
      "ĠClub": 7323,
      "Ġapproval": 7324,
      "Ġbreaking": 7325,
      "ographic": 7326,
      "Ġtong": 7327,
      "Ġcup": 7328,
      "igen": 7329,
      "Ġcann": 7330,
      "âĢĶâĢĶ": 7331,
      "ĠBrad": 7332,
      "Ġbills": 7333,
      "Ġfalling": 7334,
      "Ġdrinking": 7335,
      "02": 7336,
      "AG": 7337,
      "MP": 7338,
      "Ġfuck": 7339,
      "Ġham": 7340,
      "igare": 7341,
      "ĠManchester": 7342,
      "ĠBas": 7343,
      "Ġvary": 7344,
      "ocation": 7345,
      "Ġanymore": 7346,
      "there": 7347,
      "Ġrealized": 7348,
      "Ġthousand": 7349,
      "Ġrarely": 7350,
      "ĠISIS": 7351,
      "Ġatmosphere": 7352,
      "aire": 7353,
      "ta": 7354,
      "ittle": 7355,
      "Ġstuck": 7356,
      "Ġcongress": 7357,
      "Ġje": 7358,
      "Ġworried": 7359,
      "Ġoffense": 7360,
      "Ġshel": 7361,
      "Ġfees": 7362,
      "ĠOrleans": 7363,
      "Ġsentence": 7364,
      "Ġruled": 7365,
      "Ġselected": 7366,
      "Ġparking": 7367,
      "Despite": 7368,
      "Ġtriangle": 7369,
      "51": 7370,
      "nar": 7371,
      "yles": 7372,
      "Ġwage": 7373,
      "Ġhat": 7374,
      "Ġhip": 7375,
      "omer": 7376,
      "cel": 7377,
      "ĠJordan": 7378,
      "Ġsomewhere": 7379,
      "Ġcounty": 7380,
      "Ġinspir": 7381,
      "Ġdirected": 7382,
      "ĠColumb": 7383,
      "Ġzero": 7384,
      "Ġdescribes": 7385,
      "Ġurban": 7386,
      "Ġpolls": 7387,
      "incter": 7388,
      "Ġnomine": 7389,
      "Ġphilosophy": 7390,
      "itarian": 7391,
      "isan": 7392,
      "ĠBull": 7393,
      "Ġexhib": 7394,
      "Ġintervention": 7395,
      "Ġsolutions": 7396,
      "Ġrespir": 7397,
      "Ġexception": 7398,
      "ĠValley": 7399,
      "Ġincredible": 7400,
      "Ġcomparison": 7401,
      "Ġfolks": 7402,
      "ĠColorado": 7403,
      "chers": 7404,
      "twitter": 7405,
      "Ġsnow": 7406,
      "Ġwestern": 7407,
      "Ġcro": 7408,
      "owed": 7409,
      "ĠCamer": 7410,
      "ĠMiami": 7411,
      "opy": 7412,
      "ĠFre": 7413,
      "Ġsky": 7414,
      "Ġskull": 7415,
      "ĠForeign": 7416,
      "Ġterritory": 7417,
      "gorith": 7418,
      "77": 7419,
      "NE": 7420,
      "lers": 7421,
      "nam": 7422,
      "Ġbunch": 7423,
      "ĠCredit": 7424,
      "employ": 7425,
      "Ġcontinuous": 7426,
      "Ġlegs": 7427,
      "Ġinformed": 7428,
      "Ġinnoc": 7429,
      "Ġtowns": 7430,
      "Ġupdated": 7431,
      "Ġsongs": 7432,
      "ĠMatthew": 7433,
      "Ġaccurate": 7434,
      "Ġ//": 7435,
      "Ġoutcome": 7436,
      "Ġdistur": 7437,
      "Ġputs": 7438,
      "Ġtested": 7439,
      "Ġradi": 7440,
      "Ġdanger": 7441,
      "Ġengineering": 7442,
      "ĠGreek": 7443,
      "Ġfistula": 7444,
      "TS": 7445,
      "adr": 7446,
      "ĠCast": 7447,
      "ĠBraz": 7448,
      "Ġfranch": 7449,
      "Ġcomic": 7450,
      "Ġimper": 7451,
      "Ġprovince": 7452,
      "everal": 7453,
      "Ġpersonally": 7454,
      "Ġfilms": 7455,
      "Ġlimits": 7456,
      "Ġcritics": 7457,
      "Ġrespectively": 7458,
      "Ġregardless": 7459,
      "Ġslowly": 7460,
      "Ġlicense": 7461,
      "https": 7462,
      "Ġmonitoring": 7463,
      "Ġacademic": 7464,
      "Ġabortion": 7465,
      "=\"": 7466,
      "rine": 7467,
      "inum": 7468,
      "Ġsending": 7469,
      "Ġpump": 7470,
      "alo": 7471,
      "ĠCIA": 7472,
      "Ġrival": 7473,
      "ĠDark": 7474,
      "Ġnoticed": 7475,
      "enders": 7476,
      "Ġenthus": 7477,
      "Ġpassword": 7478,
      "Ġwinter": 7479,
      "Ġinflamm": 7480,
      "offs": 7481,
      "Ġscheme": 7482,
      "profit": 7483,
      "Ġconcluded": 7484,
      "boys": 7485,
      "Ġgonna": 7486,
      "Sec": 7487,
      "Ġvert": 7488,
      "era": 7489,
      "Ġpteryg": 7490,
      "etal": 7491,
      "Ġdeeper": 7492,
      "thal": 7493,
      "ĠLew": 7494,
      "Ġju": 7495,
      "ĠOld": 7496,
      "ibilities": 7497,
      "ĠThank": 7498,
      "Ġrecip": 7499,
      "Ġsigning": 7500,
      "Ġcoron": 7501,
      "Ġincredibly": 7502,
      "Ġelectricity": 7503,
      "Ġoxygen": 7504,
      ",[": 7505,
      "ixt": 7506,
      "ester": 7507,
      "Ġlect": 7508,
      "ĠStan": 7509,
      "ĠWeiss": 7510,
      "Ġdrag": 7511,
      "Ġpayments": 7512,
      "Ġabsor": 7513,
      "Ġhousehold": 7514,
      "Ġjoints": 7515,
      "Ġutil": 7516,
      "May": 7517,
      "bal": 7518,
      "han": 7519,
      "ked": 7520,
      "zens": 7521,
      "Ġtip": 7522,
      "Ġfing": 7523,
      "Ġnorthern": 7524,
      "ads": 7525,
      "ette": 7526,
      "Ġyield": 7527,
      "ums": 7528,
      "ĠLove": 7529,
      "ĠOS": 7530,
      "anger": 7531,
      "Ġentering": 7532,
      "Ġposts": 7533,
      "Ġconcert": 7534,
      "Ġconnections": 7535,
      "Ġabsence": 7536,
      "Ġcomputers": 7537,
      "Ġdiagnosed": 7538,
      "Ġcivilians": 7539,
      "ĠControl": 7540,
      "Ġhonor": 7541,
      "Ġescape": 7542,
      "orrh": 7543,
      "lif": 7544,
      "lock": 7545,
      "Ġwins": 7546,
      "Ġdrawn": 7547,
      "Ġeast": 7548,
      "Ġhabit": 7549,
      "ĠFighter": 7550,
      "elf": 7551,
      "Ġplastic": 7552,
      "Ġcontaining": 7553,
      "Ġdisag": 7554,
      "Ġtheme": 7555,
      "Ġrequests": 7556,
      "Ġgotten": 7557,
      "Ġattacked": 7558,
      "Ġcomplicated": 7559,
      "Ġcommitment": 7560,
      "Ġpilot": 7561,
      "300": 7562,
      "Ass": 7563,
      "post": 7564,
      "page": 7565,
      "Ġori": 7566,
      "ĠPS": 7567,
      "Ġchick": 7568,
      "ĠLatin": 7569,
      "ĠInf": 7570,
      "Ġsomehow": 7571,
      "Ġdecent": 7572,
      "phy": 7573,
      "Ġglute": 7574,
      "Ġfacility": 7575,
      "regon": 7576,
      "Ġepisodes": 7577,
      "ĠCharles": 7578,
      "Ġsweet": 7579,
      "ĠQuebec": 7580,
      "Ġnarrative": 7581,
      "Ġdowntown": 7582,
      "ba": 7583,
      "ugh": 7584,
      "ĠAvenue": 7585,
      "Ġure": 7586,
      "ĠBru": 7587,
      "ĠFC": 7588,
      "ĠESP": 7589,
      "ipher": 7590,
      "Ġroles": 7591,
      "Ġearned": 7592,
      "Ġtrials": 7593,
      "Ġreducing": 7594,
      "Ġreasonable": 7595,
      "!!!!!!!!!!!!!!!!!!!!!!!!!!!!!!!!!!!!!!!!!!!!!!!!!!!!!!!!!!!!!!!!!!!!!!!!!!!!!!!!!!!!!!!!!!!!!!!!!!!!!!!!!!!!!!!!!!!!!!!!!!!!!!!!": 7596,
      "ĠUkraine": 7597,
      "ĠIrish": 7598,
      "Ġexplanation": 7599,
      "aron": 7600,
      "Ġmit": 7601,
      "roc": 7602,
      "Ġrig": 7603,
      "Ġfrustr": 7604,
      "ĠWild": 7605,
      "Ġchosen": 7606,
      "ĠLuc": 7607,
      "Ġintense": 7608,
      "ĠThough": 7609,
      "Ġ34": 7610,
      "ĠVol": 7611,
      "Ġlawyers": 7612,
      "Ġdeveloper": 7613,
      "Ġdemands": 7614,
      "Ġchoices": 7615,
      "iscons": 7616,
      "Ġcalc": 7617,
      "ĠKorean": 7618,
      "ĠScotland": 7619,
      "Ġtied": 7620,
      "Ġhidden": 7621,
      "utch": 7622,
      "ulin": 7623,
      "oplas": 7624,
      "Ġseiz": 7625,
      "ĠNumber": 7626,
      "Ġunw": 7627,
      "ĠThus": 7628,
      "ĠViet": 7629,
      "phal": 7630,
      "Ġartists": 7631,
      "Ġdestruction": 7632,
      "Ġprinciples": 7633,
      "Ġheroes": 7634,
      "Ġvulnerable": 7635,
      "ĠHollywood": 7636,
      "Because": 7637,
      "ml": 7638,
      "uan": 7639,
      "lla": 7640,
      "ola": 7641,
      "ĠWhere": 7642,
      "ĠFoot": 7643,
      "ema": 7644,
      "arden": 7645,
      "Ġuncom": 7646,
      "veland": 7647,
      "Ġfunny": 7648,
      "Ġfemoral": 7649,
      "Ġsufficient": 7650,
      "ĠAbout": 7651,
      "Ġcardiac": 7652,
      "Ġterminal": 7653,
      "Ġemotional": 7654,
      "Ġpaintings": 7655,
      "isconsin": 7656,
      "Once": 7657,
      "VER": 7658,
      "aun": 7659,
      "fast": 7660,
      "Ġastr": 7661,
      "inations": 7662,
      "Ġocean": 7663,
      "Ġstem": 7664,
      "abs": 7665,
      "Ġspell": 7666,
      "Ġregister": 7667,
      "Ġcurrency": 7668,
      "Ġmoments": 7669,
      "Ġdomain": 7670,
      "Ġparticipate": 7671,
      "holders": 7672,
      "Ġhypot": 7673,
      "Ġdemonstrated": 7674,
      "Ġroutine": 7675,
      "Ġinvolvement": 7676,
      "bar": 7677,
      "Ġpod": 7678,
      "Ġglands": 7679,
      "acr": 7680,
      "ĠTal": 7681,
      "ĠTay": 7682,
      "occer": 7683,
      "Ġalive": 7684,
      "ideo": 7685,
      "Ġagric": 7686,
      "ĠStill": 7687,
      "Ġdiscipl": 7688,
      "Ġskill": 7689,
      "Ġpromote": 7690,
      "Ġarguments": 7691,
      "Ġchallenging": 7692,
      "http": 7693,
      "64": 7694,
      "67": 7695,
      "AB": 7696,
      "aired": 7697,
      "hal": 7698,
      "uine": 7699,
      "hent": 7700,
      "iti": 7701,
      "orne": 7702,
      "ĠSaudi": 7703,
      "Ġrational": 7704,
      "Ġexists": 7705,
      "ĠFam": 7706,
      "ĠFort": 7707,
      "ĠLGBT": 7708,
      "ptic": 7709,
      "inding": 7710,
      "ensus": 7711,
      "ĠYear": 7712,
      "Ġrow": 7713,
      "Ġbluff": 7714,
      "Ġacceler": 7715,
      "ĠReal": 7716,
      "Ġformal": 7717,
      "ĠSpain": 7718,
      "Ġcutting": 7719,
      "Ġdiseases": 7720,
      "Ġcyber": 7721,
      "Ġscenes": 7722,
      "Ġtickets": 7723,
      "Police": 7724,
      "dy": 7725,
      "Ġbicy": 7726,
      "Ġfestival": 7727,
      "agan": 7728,
      "ĠWomen": 7729,
      "ĠFar": 7730,
      "eland": 7731,
      "ograp": 7732,
      "izz": 7733,
      "ĠThree": 7734,
      "angers": 7735,
      "ĠReuters": 7736,
      "Ġconfront": 7737,
      "Ġtechnologies": 7738,
      "Ġcontrols": 7739,
      "enny": 7740,
      "Ġprogressive": 7741,
      "Ġrenal": 7742,
      "Ġinnervated": 7743,
      "52": 7744,
      "PP": 7745,
      "Ø±": 7746,
      "Ġicon": 7747,
      "onia": 7748,
      "Ġbon": 7749,
      "ĠSS": 7750,
      "Ġselection": 7751,
      "ĠJr": 7752,
      "ureau": 7753,
      "weight": 7754,
      "Ġdefect": 7755,
      "Ġsignal": 7756,
      "Ġdiaphragm": 7757,
      "ãģĦ": 7758,
      "Ġpromised": 7759,
      "Ġclassified": 7760,
      "Ġsympathetic": 7761,
      "Ġimmigrants": 7762,
      "Ġresponses": 7763,
      "Ġadopted": 7764,
      "ĠDetroit": 7765,
      "Ġwing": 7766,
      "Ġbes": 7767,
      "Ġinner": 7768,
      "aginal": 7769,
      "agram": 7770,
      "ĠWalk": 7771,
      "ĠOF": 7772,
      "inking": 7773,
      "pha": 7774,
      "Ġprocessing": 7775,
      "Ġletters": 7776,
      "Ġmidline": 7777,
      "Ġconstantly": 7778,
      "ĠAmendment": 7779,
      "Ġevaluation": 7780,
      "Ġequivalent": 7781,
      "IL": 7782,
      "UR": 7783,
      "uits": 7784,
      "when": 7785,
      "ĠIT": 7786,
      "ĠRog": 7787,
      "ĠFisher": 7788,
      "Ġads": 7789,
      "Ġcomprehens": 7790,
      "Ġroof": 7791,
      "Ġentry": 7792,
      "comm": 7793,
      "Ġfields": 7794,
      "Ġconsumer": 7795,
      "Ġhouses": 7796,
      "====": 7797,
      "ĠAuthor": 7798,
      "Ġaorta": 7799,
      "Ġtongue": 7800,
      "ĠESPN": 7801,
      "ĠTurn": 7802,
      "ĠCome": 7803,
      "ĠRight": 7804,
      "ĠFord": 7805,
      "ĠOs": 7806,
      "Ġhadn": 7807,
      "Ġnewly": 7808,
      "Ġentit": 7809,
      "ĠAlice": 7810,
      "Ġcommunications": 7811,
      "Ġveget": 7812,
      "Ġcarefully": 7813,
      "Ġprofile": 7814,
      "ĠOrgan": 7815,
      "Ġemployee": 7816,
      "Ġcollected": 7817,
      "hemat": 7818,
      "Ġticket": 7819,
      "Ġrejected": 7820,
      "Ġregistered": 7821,
      "ĠGeorgia": 7822,
      "Ġduty": 7823,
      "ĠTH": 7824,
      "sex": 7825,
      "Ġ($": 7826,
      "ĠDNA": 7827,
      "Ġcompens": 7828,
      "velt": 7829,
      "Ġactor": 7830,
      "Ġimpressive": 7831,
      "Ġgrant": 7832,
      "Ġcontinuing": 7833,
      "Ġ150": 7834,
      "ĠConf": 7835,
      "Ġrepresented": 7836,
      "Ġawesome": 7837,
      "ĠDespite": 7838,
      "ĠTurk": 7839,
      "',": 7840,
      "Ġsand": 7841,
      "Ġcable": 7842,
      "Ġthy": 7843,
      "Ġloyal": 7844,
      "ĠSn": 7845,
      "Ġdeals": 7846,
      "ifies": 7847,
      "elson": 7848,
      "Ġshadow": 7849,
      "Ġintellect": 7850,
      "ĠKelly": 7851,
      "osexual": 7852,
      "Ġdefence": 7853,
      "Ġmedicine": 7854,
      "Ġproved": 7855,
      "Ġvisited": 7856,
      "Ġexciting": 7857,
      "Ġsurvival": 7858,
      "Ġvirtual": 7859,
      "onic": 7860,
      "Ġmice": 7861,
      "otal": 7862,
      "Ġstern": 7863,
      "Ġconstr": 7864,
      "ĠHuman": 7865,
      "ĠNote": 7866,
      "ĠEric": 7867,
      "Ġkil": 7868,
      "Ġmanifest": 7869,
      "Ġworldwide": 7870,
      "Ġlaterally": 7871,
      "Ġwinner": 7872,
      "Ġclaiming": 7873,
      "Ġfacilities": 7874,
      "ĠCooper": 7875,
      "ĠEnter": 7876,
      "ĠAgency": 7877,
      "Ġmountain": 7878,
      "Ġtackle": 7879,
      "Ġdiscrimination": 7880,
      "sis": 7881,
      "Ġlip": 7882,
      "igation": 7883,
      "Ġstead": 7884,
      "ĠMen": 7885,
      "ĠRay": 7886,
      "ĠWay": 7887,
      "ĠHarr": 7888,
      "Ġalgorith": 7889,
      "ĠLight": 7890,
      "ogether": 7891,
      "osevelt": 7892,
      "Ġconspir": 7893,
      "Ġexplicit": 7894,
      "ĠSupp": 7895,
      "Ġnegotiations": 7896,
      "People": 7897,
      "ye": 7898,
      "Ġpanc": 7899,
      "icer": 7900,
      "asters": 7901,
      "Ġloud": 7902,
      "etime": 7903,
      "Ġstolen": 7904,
      "ushed": 7905,
      "ĠRam": 7906,
      "ĠLabor": 7907,
      "raid": 7908,
      "Ġlawmakers": 7909,
      "Ġdivers": 7910,
      "Ġoriginates": 7911,
      "Ġteacher": 7912,
      "Ġlikes": 7913,
      "onymous": 7914,
      "herent": 7915,
      "inous": 7916,
      "Ġsight": 7917,
      "ĠAv": 7918,
      "Ġfrag": 7919,
      "antic": 7920,
      "ĠEconom": 7921,
      "Ġarc": 7922,
      "ĠKick": 7923,
      "obile": 7924,
      "Ġdesper": 7925,
      "oids": 7926,
      "Ġideal": 7927,
      "ĠPolit": 7928,
      "Ġprofession": 7929,
      "Ġsubjects": 7930,
      "Ġ1970": 7931,
      "Ġterrorism": 7932,
      "Ġregularly": 7933,
      "ĠCleveland": 7934,
      "uilding": 7935,
      "ĠSpecial": 7936,
      "HS": 7937,
      "Man": 7938,
      "lights": 7939,
      "athered": 7940,
      "Ġcort": 7941,
      "Ġinject": 7942,
      "ĠTony": 7943,
      "ila": 7944,
      "ĠDun": 7945,
      "alling": 7946,
      "ĠEnergy": 7947,
      "Ġwheel": 7948,
      "Ġadmit": 7949,
      "Ġperpet": 7950,
      "ĠAnderson": 7951,
      "Ġtransverse": 7952,
      "Ġwarming": 7953,
      "Ġdecline": 7954,
      "Ġsensitive": 7955,
      "Ġteaching": 7956,
      "panic": 7957,
      "Ġexclusive": 7958,
      "04": 7959,
      "Rel": 7960,
      "pread": 7961,
      "sing": 7962,
      "Ġgal": 7963,
      "ĠSk": 7964,
      "usted": 7965,
      "Ġimaging": 7966,
      "Ġdisaster": 7967,
      "Ġ400": 7968,
      "Ġgoods": 7969,
      "Ġconfig": 7970,
      "Ġ75": 7971,
      "Ġpersonnel": 7972,
      "Ġprogramming": 7973,
      "arcin": 7974,
      "ĠDemocrat": 7975,
      "Ġcontributions": 7976,
      "Ġestimates": 7977,
      "ãĢģ": 7978,
      "Today": 7979,
      "Ġpic": 7980,
      "ington": 7981,
      "idency": 7982,
      "owing": 7983,
      "ĠCD": 7984,
      "ĠDam": 7985,
      "Ġchampion": 7986,
      "pert": 7987,
      "Ġresign": 7988,
      "Ġmanip": 7989,
      "Ġoverse": 7990,
      "Ġgranted": 7991,
      "idespread": 7992,
      "Ġversus": 7993,
      "Ġimplementation": 7994,
      "Ġrespiratory": 7995,
      "Dr": 7996,
      "Ġcited": 7997,
      "Ġbom": 7998,
      "ĠIowa": 7999,
      "igg": 8000,
      "ĠNev": 8001,
      "ĠNBC": 8002,
      "ĠInvest": 8003,
      "Ġenable": 8004,
      "phia": 8005,
      "ĠDeb": 8006,
      "Ġrecognition": 8007,
      "PG": 8008,
      "friend": 8009,
      "erus": 8010,
      "Ġwal": 8011,
      "Ġwave": 8012,
      "Ġbath": 8013,
      "Ġseats": 8014,
      "ĠWat": 8015,
      "ĠJac": 8016,
      "eping": 8017,
      "ĠKn": 8018,
      "intend": 8019,
      "Ġrelief": 8020,
      "Ġopens": 8021,
      "Ġdescription": 8022,
      "Ġlaid": 8023,
      "Ġanteriorly": 8024,
      "amsung": 8025,
      "aturally": 8026,
      "Ġcustomer": 8027,
      "Ġwebsites": 8028,
      "Ġtoxic": 8029,
      "Ġreputation": 8030,
      "76": 8031,
      "BM": 8032,
      "Ġinguinal": 8033,
      "rep": 8034,
      "Ġpip": 8035,
      "Ġeuro": 8036,
      "ĠWin": 8037,
      "Ġvest": 8038,
      "ĠFund": 8039,
      "ĠOregon": 8040,
      "Ġunex": 8041,
      "aug": 8042,
      "Ġinterface": 8043,
      "Ġassume": 8044,
      "Ġmedian": 8045,
      "Ġgenuine": 8046,
      "Ġbench": 8047,
      "Ġelsewhere": 8048,
      "John": 8049,
      "Off": 8050,
      "jud": 8051,
      "Ġtape": 8052,
      "Ġfighter": 8053,
      "Ġbell": 8054,
      "acon": 8055,
      "ĠSaf": 8056,
      "apy": 8057,
      "Ġpref": 8058,
      "Ġincent": 8059,
      "Ġvaluable": 8060,
      "Ġparalle": 8061,
      "ĠBefore": 8062,
      "Ġgenerate": 8063,
      "Ġbasket": 8064,
      "Ġoptimal": 8065,
      "Ġthreatened": 8066,
      "Ġcollapse": 8067,
      "Ġcovering": 8068,
      "Ġconsumption": 8069,
      "Ġclubs": 8070,
      "burgh": 8071,
      "Ġracist": 8072,
      "Ġpitch": 8073,
      "Ġstrategies": 8074,
      "Ġsubstantial": 8075,
      "ĠCowboys": 8076,
      "iety": 8077,
      "itals": 8078,
      "Ġbail": 8079,
      "ione": 8080,
      "Ġstake": 8081,
      "Ġconven": 8082,
      "ĠRose": 8083,
      "essed": 8084,
      "ĠOper": 8085,
      "Ġmedium": 8086,
      "Ġelite": 8087,
      "Ġmatches": 8088,
      "ynch": 8089,
      "Ġtaste": 8090,
      "Ġesophagus": 8091,
      "ĠStephen": 8092,
      "Ġsurfaces": 8093,
      "Ġtournament": 8094,
      "ĠÎ": 8095,
      "Ġsample": 8096,
      "Ġlumb": 8097,
      "ĠSouthern": 8098,
      "Ġrif": 8099,
      "ogan": 8100,
      "Ġmyth": 8101,
      "Ġattended": 8102,
      "Ġshoulder": 8103,
      "ĠWeek": 8104,
      "Ġbusy": 8105,
      "Ġbrown": 8106,
      "ĠPolicy": 8107,
      "Ġvirus": 8108,
      "Ġwidespread": 8109,
      "Ġcabin": 8110,
      "Ġna": 8111,
      "Ġalert": 8112,
      "Inf": 8113,
      "Ġextends": 8114,
      "Ġproducing": 8115,
      "Who": 8116,
      "Ġgrounds": 8117,
      "Also": 8118,
      "Ġgastric": 8119,
      "Ġconcentration": 8120,
      "Ġmortgage": 8121,
      "Mean": 8122,
      "Ġinhib": 8123,
      "Ġgrav": 8124,
      "Ġgaming": 8125,
      "ĠIM": 8126,
      "ĠSol": 8127,
      "iry": 8128,
      "ĠWisconsin": 8129,
      "ĠYoung": 8130,
      "teen": 8131,
      "Ġbridge": 8132,
      "Ġcarotid": 8133,
      "Ġgrade": 8134,
      "Ġreturning": 8135,
      "Ġdepends": 8136,
      "Ġformat": 8137,
      "Ġemerged": 8138,
      "Ġsteel": 8139,
      "Ġangle": 8140,
      "Ġcorporations": 8141,
      "Ġsuspended": 8142,
      "adelphia": 8143,
      "dit": 8144,
      "lvan": 8145,
      "rance": 8146,
      "sub": 8147,
      "Ġtag": 8148,
      "Ġtasks": 8149,
      "oric": 8150,
      "Ġmixed": 8151,
      "eters": 8152,
      "rium": 8153,
      "Ġmayor": 8154,
      "prise": 8155,
      "ĠAdminist": 8156,
      "Ġshortly": 8157,
      "Ġcharacteristics": 8158,
      "Ġbeliefs": 8159,
      "Ġrapidly": 8160,
      "Ġnervous": 8161,
      "inally": 8162,
      "Ġdict": 8163,
      "ĠBu": 8164,
      "ĠRoss": 8165,
      "ĠNight": 8166,
      "Ġshit": 8167,
      "ĠKent": 8168,
      "ĠStadium": 8169,
      "ĠChampionship": 8170,
      "Ġfee": 8171,
      "Ġmilk": 8172,
      "Ġbrew": 8173,
      "bridge": 8174,
      "Ġgenerated": 8175,
      "Ġdevast": 8176,
      "Ġunusual": 8177,
      "nell": 8178,
      "Ġinev": 8179,
      "Ġhide": 8180,
      "ĠMuseum": 8181,
      "ĠHel": 8182,
      "Ġuniform": 8183,
      "Ġspaces": 8184,
      "Ġposter": 8185,
      "Ġhelpful": 8186,
      "arsh": 8187,
      "Ġsolve": 8188,
      "Ġwriters": 8189,
      "Ġcompete": 8190,
      "aska": 8191,
      "Ġtracks": 8192,
      "Ġsurvive": 8193,
      "ĠMarket": 8194,
      "Ġassessment": 8195,
      "Ġappointed": 8196,
      "Ġincorpor": 8197,
      "imp": 8198,
      "Ġstro": 8199,
      "ĠBest": 8200,
      "Ġexceed": 8201,
      "Ġdoors": 8202,
      "Ġminim": 8203,
      "Ġofficially": 8204,
      "Ġmening": 8205,
      "Ġaimed": 8206,
      "Ġcameras": 8207,
      "Ġadvertising": 8208,
      "Ġdeputy": 8209,
      "85": 8210,
      "89": 8211,
      "Co": 8212,
      "Ġgear": 8213,
      "otype": 8214,
      "sea": 8215,
      "ĠSC": 8216,
      "ĠBry": 8217,
      "mann": 8218,
      "ologists": 8219,
      "Ġsuccessfully": 8220,
      "Ġenjoyed": 8221,
      "Ġtube": 8222,
      "Ġdinner": 8223,
      "Ġsubsequent": 8224,
      "spec": 8225,
      "then": 8226,
      "itivity": 8227,
      "otten": 8228,
      "Ġsteal": 8229,
      "ĠHot": 8230,
      "ĠHun": 8231,
      "ĠGall": 8232,
      "ĠJava": 8233,
      "duction": 8234,
      "Ġphones": 8235,
      "Ġstudio": 8236,
      "Ġfoundation": 8237,
      "Ġmetast": 8238,
      "Ġfinance": 8239,
      "Ġforecast": 8240,
      "ĠPlus": 8241,
      "Ġbaseball": 8242,
      "Ġdollar": 8243,
      "Ġhistoric": 8244,
      "Ġsinus": 8245,
      "ĠBowl": 8246,
      "HA": 8247,
      "een": 8248,
      "spe": 8249,
      "wan": 8250,
      "yg": 8251,
      "Ġsouthern": 8252,
      "starter": 8253,
      "ĠSus": 8254,
      "verty": 8255,
      "ĠPrem": 8256,
      "emia": 8257,
      "orted": 8258,
      "ĠEp": 8259,
      "acht": 8260,
      "Ġinterf": 8261,
      "Ġpassage": 8262,
      "Ġmetab": 8263,
      "ĠAsh": 8264,
      "Ġperforming": 8265,
      "Ġcriteria": 8266,
      "Ġharass": 8267,
      "Ġadvocates": 8268,
      "Ġholiday": 8269,
      "eFig": 8270,
      "iro": 8271,
      "Ġfirms": 8272,
      "âĢĳ": 8273,
      "stone": 8274,
      "idal": 8275,
      "acare": 8276,
      "section": 8277,
      "ĠAh": 8278,
      "olars": 8279,
      "ĠDi": 8280,
      "Ġchat": 8281,
      "Ġtrained": 8282,
      "Ġkiss": 8283,
      "ributes": 8284,
      "Ġstring": 8285,
      "Ġpublication": 8286,
      "Ġadvis": 8287,
      "2014": 8288,
      "Ġforearm": 8289,
      "Ġtaxp": 8290,
      "Ġairport": 8291,
      "Ġemployment": 8292,
      "ĠParliament": 8293,
      "Ġprinciple": 8294,
      "Hz": 8295,
      "News": 8296,
      "stead": 8297,
      "ĠTour": 8298,
      "ĠHell": 8299,
      "osse": 8300,
      "ĠDaniel": 8301,
      "Ġeverywhere": 8302,
      "Ġdistributed": 8303,
      "ĠSea": 8304,
      "Ġstretch": 8305,
      "Ġcarcinoma": 8306,
      "Meanwhile": 8307,
      "DO": 8308,
      "bell": 8309,
      "vy": 8310,
      "Ġreven": 8311,
      "ĠCard": 8312,
      "irk": 8313,
      "Ġproven": 8314,
      "Ġsugar": 8315,
      "ĠNation": 8316,
      "Ġbrut": 8317,
      "Ġmenu": 8318,
      "Ġbitcoin": 8319,
      "Ġdivor": 8320,
      "Ġjournalist": 8321,
      "Ġrestrictions": 8322,
      "Ġscenario": 8323,
      "Ġcrypt": 8324,
      "ĠWilson": 8325,
      "Ġfranchise": 8326,
      "PM": 8327,
      "elect": 8328,
      "found": 8329,
      "ĠØ§ÙĦ": 8330,
      "Ġtail": 8331,
      "atto": 8332,
      "Ġbars": 8333,
      "Ġhang": 8334,
      "Ġtwenty": 8335,
      "Ġpoverty": 8336,
      ".\"[": 8337,
      "Ġreporter": 8338,
      "Ġpossession": 8339,
      "Ġlistening": 8340,
      "ATE": 8341,
      "ĠCentre": 8342,
      "Ġloose": 8343,
      "Ġangry": 8344,
      "96": 8345,
      "LC": 8346,
      "including": 8347,
      "itar": 8348,
      "alty": 8349,
      "Ġanat": 8350,
      "ashes": 8351,
      "Ġgam": 8352,
      "irlf": 8353,
      "ocarcin": 8354,
      "ĠNations": 8355,
      "ĠNever": 8356,
      "Ġtruck": 8357,
      "Ġdozens": 8358,
      "ageal": 8359,
      "oval": 8360,
      "ounced": 8361,
      "Ġretired": 8362,
      "Ġresulted": 8363,
      "Ġinvestigate": 8364,
      "Ġbreaks": 8365,
      "Ġrecognized": 8366,
      "Ġhemorrh": 8367,
      "Ġtemporary": 8368,
      "ĠRoosevelt": 8369,
      "Ġautomatically": 8370,
      "Ġfought": 8371,
      "Ġgift": 8372,
      "ĠBa": 8373,
      "Ġarrange": 8374,
      "Ġovers": 8375,
      "Ġwhereas": 8376,
      "Ġentertain": 8377,
      "Ġcrack": 8378,
      "Ġlesser": 8379,
      "anna": 8380,
      "ĠSenator": 8381,
      "Ġvisitors": 8382,
      "Ġmachines": 8383,
      "Script": 8384,
      "Ġexpanded": 8385,
      "Ġfarmers": 8386,
      "Ġreconst": 8387,
      "Ġdorsal": 8388,
      "RC": 8389,
      "function": 8390,
      "gun": 8391,
      "oil": 8392,
      "vard": 8393,
      "Ġtank": 8394,
      "aning": 8395,
      "amacare": 8396,
      "Ġstable": 8397,
      "ĠCy": 8398,
      "terol": 8399,
      "olves": 8400,
      "Ġrating": 8401,
      "orect": 8402,
      "ĠNY": 8403,
      "Ġchapter": 8404,
      "Ġoutl": 8405,
      "Ġovert": 8406,
      "Ġscandal": 8407,
      "Ġfeelings": 8408,
      "Ġpayment": 8409,
      "yroidism": 8410,
      "III": 8411,
      "Ġfrequency": 8412,
      "Ġcategories": 8413,
      "ĠHenry": 8414,
      "Mar": 8415,
      "aus": 8416,
      "iel": 8417,
      "making": 8418,
      "yes": 8419,
      "ystem": 8420,
      "Ġfault": 8421,
      "Ġwelf": 8422,
      "opp": 8423,
      "0000": 8424,
      "ĠVill": 8425,
      "away": 8426,
      "Ġpresc": 8427,
      "Ġserum": 8428,
      "iki": 8429,
      "Ġapproached": 8430,
      "Ġcareful": 8431,
      "Ġprofits": 8432,
      "Ġlowest": 8433,
      "Ġposteriorly": 8434,
      "reedom": 8435,
      "Ġlobby": 8436,
      "Ġdemocratic": 8437,
      "Ġstrategic": 8438,
      "Ġcoalition": 8439,
      "Ġconventional": 8440,
      "Ġanticip": 8441,
      "ĠTaylor": 8442,
      "Ġboot": 8443,
      "Ġpin": 8444,
      "adi": 8445,
      "ĠRE": 8446,
      "Ġshares": 8447,
      "Ġ44": 8448,
      "Ġflash": 8449,
      "Ġtransf": 8450,
      "Ġ65": 8451,
      "comes": 8452,
      "Ġreader": 8453,
      "Ġfacilit": 8454,
      "Ġradiation": 8455,
      "Ġequally": 8456,
      "ilipp": 8457,
      "nesota": 8458,
      "Ġrepresentative": 8459,
      "Ġcontracts": 8460,
      "Ġhoriz": 8461,
      "ĠKingdom": 8462,
      "Ġflexor": 8463,
      "Ġuncertain": 8464,
      "ĠPhiladelphia": 8465,
      "ĠEducation": 8466,
      "ĠCameron": 8467,
      "ĠBrazil": 8468,
      "bn": 8469,
      "cr": 8470,
      "door": 8471,
      "rical": 8472,
      "rets": 8473,
      "idd": 8474,
      "ĠPay": 8475,
      "ĠEr": 8476,
      "Ġpermission": 8477,
      "Ġscores": 8478,
      "Ġpron": 8479,
      "Ġdiscount": 8480,
      "ĠBeach": 8481,
      "Ġinvestigating": 8482,
      "Ġminds": 8483,
      "Ġhitting": 8484,
      "Ġcapture": 8485,
      "inois": 8486,
      "Ġlosses": 8487,
      "trans": 8488,
      "Ġsanctions": 8489,
      "Ġtomorrow": 8490,
      "Writ": 8491,
      "aft": 8492,
      "Ġfake": 8493,
      "Ġli": 8494,
      "ĠCross": 8495,
      "irts": 8496,
      "ĠMajor": 8497,
      "ĠNavy": 8498,
      "Ġenorm": 8499,
      "Ġsci": 8500,
      "Ġmeetings": 8501,
      "ĠMinistry": 8502,
      "Ġfatal": 8503,
      "ĠNetwork": 8504,
      "Ġpremium": 8505,
      "Ġadenocarcin": 8506,
      "Ġbarely": 8507,
      "78": 8508,
      "inator": 8509,
      "isk": 8510,
      "arry": 8511,
      "Ġmail": 8512,
      "otes": 8513,
      "ĠSE": 8514,
      "Ġstages": 8515,
      "ĠFurther": 8516,
      "ĠLand": 8517,
      "Ġclients": 8518,
      "Ġ39": 8519,
      "Ġtries": 8520,
      "Ġencoun": 8521,
      "Ġcartilage": 8522,
      "moid": 8523,
      "po": 8524,
      "itage": 8525,
      "esh": 8526,
      "Ġtoler": 8527,
      "Ġhired": 8528,
      "âĢĻ.": 8529,
      "ĠAS": 8530,
      "ĠMic": 8531,
      "ĠHistory": 8532,
      "Ġnotion": 8533,
      "actions": 8534,
      "Ġages": 8535,
      "Ġ2020": 8536,
      "Ġspr": 8537,
      "Ġinvasion": 8538,
      "Ġdiscovery": 8539,
      "Ġedition": 8540,
      "Ġtermin": 8541,
      "Ġparas": 8542,
      "Ġhumanity": 8543,
      "Ġapartment": 8544,
      "Ġpsychological": 8545,
      "Ġframework": 8546,
      "Both": 8547,
      "Gen": 8548,
      "Sub": 8549,
      "she": 8550,
      "Ġaver": 8551,
      "Ġwed": 8552,
      "isa": 8553,
      "oris": 8554,
      "ĠTown": 8555,
      "aphor": 8556,
      "Ġouts": 8557,
      "sole": 8558,
      "ĠKl": 8559,
      "Ġdefine": 8560,
      "Ġfactory": 8561,
      "shaped": 8562,
      "Ġestate": 8563,
      "Ġfailing": 8564,
      "Ġordinary": 8565,
      "Ġreaching": 8566,
      "ĠBrother": 8567,
      "Ġpriority": 8568,
      "Ġassistance": 8569,
      "ĠConstitution": 8570,
      "ĠLewis": 8571,
      "Ġwelfare": 8572,
      "Right": 8573,
      "aver": 8574,
      "Ġthrown": 8575,
      "ĠBal": 8576,
      "ĠBusiness": 8577,
      "ĠDid": 8578,
      "eman": 8579,
      "Ġoutr": 8580,
      "aware": 8581,
      "Ġbegun": 8582,
      "ĠServices": 8583,
      "Ġliked": 8584,
      "ĠConservative": 8585,
      "ĠSquare": 8586,
      "Ġproximal": 8587,
      "ĠFootball": 8588,
      "low": 8589,
      "ĠâĢĿ": 8590,
      "aka": 8591,
      "Ġunclear": 8592,
      "portion": 8593,
      "ĠDevelopment": 8594,
      "Ġoperate": 8595,
      "Ġcreates": 8596,
      "Ġepic": 8597,
      "Ġjoining": 8598,
      "Ġventric": 8599,
      "Ġbreath": 8600,
      "ship": 8601,
      "viously": 8602,
      "uts": 8603,
      "ĠPR": 8604,
      "Ġunemploy": 8605,
      "Ġrecording": 8606,
      "upid": 8607,
      "Ġdistract": 8608,
      "scape": 8609,
      "iscal": 8610,
      "Ġprepare": 8611,
      "Ġobtain": 8612,
      "Ġsacr": 8613,
      "Ġbeauty": 8614,
      "ĠCompany": 8615,
      "ĠBernie": 8616,
      "Ġlegitimate": 8617,
      "Ġliquid": 8618,
      "65": 8619,
      "Her": 8620,
      "Ġgained": 8621,
      "Ġstone": 8622,
      "ilation": 8623,
      "abis": 8624,
      "abama": 8625,
      "Ġcontained": 8626,
      "inder": 8627,
      "Ġanybody": 8628,
      "Ġflags": 8629,
      "ãģ®": 8630,
      "Ġviewed": 8631,
      "Ġaffili": 8632,
      "anny": 8633,
      "Ġfootage": 8634,
      "Ġfriendly": 8635,
      "Ġligaments": 8636,
      "Ġdramatic": 8637,
      "ĠPacific": 8638,
      "Ġfingers": 8639,
      "Mc": 8640,
      "Spe": 8641,
      "bro": 8642,
      "Ġtons": 8643,
      "Ġpounds": 8644,
      "ĠSamsung": 8645,
      "ĠBible": 8646,
      "emen": 8647,
      "Ġplain": 8648,
      "ĠJason": 8649,
      "amps": 8650,
      "Ġelectronic": 8651,
      "sylvan": 8652,
      "Ġlights": 8653,
      "Ġattempting": 8654,
      "Ġsuffer": 8655,
      "Ġneighbour": 8656,
      "Ġprisoners": 8657,
      "Ġmutations": 8658,
      "Ġconsciousness": 8659,
      "Where": 8660,
      "power": 8661,
      "Ġgathered": 8662,
      "ĠTest": 8663,
      "Ġstations": 8664,
      "ĠPret": 8665,
      "ĠEastern": 8666,
      "Ġgrid": 8667,
      "Ġservers": 8668,
      "Ġserves": 8669,
      "Ġ1997": 8670,
      "Ġmarks": 8671,
      "Ġmeasured": 8672,
      "ĠIraqi": 8673,
      "Ġacquired": 8674,
      "Ġmanufacturing": 8675,
      "heast": 8676,
      "Ġsatell": 8677,
      "arms": 8678,
      "Ġmarch": 8679,
      "ĠAccess": 8680,
      "riers": 8681,
      "Ġenl": 8682,
      "Ġhanded": 8683,
      "Ġauthent": 8684,
      "Ġpersonality": 8685,
      "Ġpropag": 8686,
      "Ġprivile": 8687,
      "Ġcomplaints": 8688,
      "arrass": 8689,
      "ĠTele": 8690,
      "Ġblockchain": 8691,
      "Ġlanguages": 8692,
      "ĠMedic": 8693,
      "ĠPerhaps": 8694,
      "Ġimprovement": 8695,
      "senal": 8696,
      "ĠDiego": 8697,
      "08": 8698,
      "400": 8699,
      "dem": 8700,
      "dog": 8701,
      "fall": 8702,
      "oj": 8703,
      "rank": 8704,
      "Ġcul": 8705,
      "Ġluck": 8706,
      "ĠCare": 8707,
      "Ġdeem": 8708,
      "Ġdeleg": 8709,
      "ĠHD": 8710,
      "Ġvocal": 8711,
      "Ġleaked": 8712,
      "angel": 8713,
      "wered": 8714,
      "Ġguidelines": 8715,
      "ernel": 8716,
      "ocrine": 8717,
      "cover": 8718,
      "engers": 8719,
      "Ġurine": 8720,
      "Ġsquad": 8721,
      "Ġroads": 8722,
      "Ġarchitecture": 8723,
      "Ġtorture": 8724,
      "ĠCruz": 8725,
      "Ġnominee": 8726,
      "Ġgluteal": 8727,
      "sylvania": 8728,
      "Gl": 8729,
      "mary": 8730,
      "Ġmunic": 8731,
      "aying": 8732,
      "ĠAR": 8733,
      "pload": 8734,
      "ĠInformation": 8735,
      "Ġroster": 8736,
      "ĠAlbert": 8737,
      "Ġlegend": 8738,
      "ĠDeath": 8739,
      "Ġdesigns": 8740,
      "Ġsuggesting": 8741,
      "enez": 8742,
      "Ġbanned": 8743,
      "Ġcollective": 8744,
      "Ġpenet": 8745,
      "Ġvirtually": 8746,
      "Ġweakness": 8747,
      "Br": 8748,
      "esis": 8749,
      "Ġpir": 8750,
      "alysis": 8751,
      "ĠTw": 8752,
      "ĠSky": 8753,
      "ĠHit": 8754,
      "Ġvital": 8755,
      "Ġalter": 8756,
      "raig": 8757,
      "interest": 8758,
      "omething": 8759,
      "Ġproviders": 8760,
      "Ġelig": 8761,
      "Ġforever": 8762,
      "Ġaffairs": 8763,
      "ĠCoast": 8764,
      "Ġethics": 8765,
      "Ġawareness": 8766,
      "Ġlymphoma": 8767,
      "ĠModel": 8768,
      "Ġchannels": 8769,
      "Ġafraid": 8770,
      "Ġcomprehensive": 8771,
      "ML": 8772,
      "QL": 8773,
      "fit": 8774,
      "Ġnose": 8775,
      "Ġlands": 8776,
      "ĠTed": 8777,
      "Ġsegment": 8778,
      "ĠFil": 8779,
      "ĠGov": 8780,
      "plasia": 8781,
      "ĠStory": 8782,
      "Ġgrass": 8783,
      "Ġapolog": 8784,
      "09": 8785,
      "front": 8786,
      "ÙĪ": 8787,
      "Ġtap": 8788,
      "ĠHas": 8789,
      "ĠNext": 8790,
      "Ġchampionship": 8791,
      "Ġjoy": 8792,
      "raham": 8793,
      "Ġsph": 8794,
      "Ġrose": 8795,
      "Ġblocks": 8796,
      "lique": 8797,
      "ãģĹ": 8798,
      "ĠProgram": 8799,
      "ĠiOS": 8800,
      "Ġtrem": 8801,
      "Ġloans": 8802,
      "Ġstrikes": 8803,
      "Ġlayers": 8804,
      "Ġindependence": 8805,
      "Ġstimul": 8806,
      "ĠRuby": 8807,
      "Ġov": 8808,
      "Ġhint": 8809,
      "asse": 8810,
      "ĠMir": 8811,
      "oding": 8812,
      "ĠNick": 8813,
      "quarters": 8814,
      "Ġarise": 8815,
      "Ġworker": 8816,
      "Ġsynt": 8817,
      "Ġcarries": 8818,
      "Ġcenters": 8819,
      "iversary": 8820,
      "ĠObamacare": 8821,
      "Ġpractical": 8822,
      "Ġjudges": 8823,
      "Ġtitles": 8824,
      "Ġtranslation": 8825,
      "Ġbrowser": 8826,
      "zed": 8827,
      "Ġborders": 8828,
      "stic": 8829,
      "ĠTake": 8830,
      "Ġforcing": 8831,
      "ĠSir": 8832,
      "ĠColl": 8833,
      "ĠMos": 8834,
      "Ġexch": 8835,
      "aching": 8836,
      "ĠChair": 8837,
      "ĠView": 8838,
      "Ġ42": 8839,
      "theless": 8840,
      "Ġconstitutional": 8841,
      "mony": 8842,
      "Anterior": 8843,
      "Ġdiscussions": 8844,
      "Ġconvin": 8845,
      "ĠAustin": 8846,
      "Ġdemonstrate": 8847,
      "Ġachieved": 8848,
      "Ġestablishment": 8849,
      "ĠGuardian": 8850,
      "ĠIllinois": 8851,
      "irlfriend": 8852,
      "Øª": 8853,
      "Ġthrew": 8854,
      "Ġnin": 8855,
      "ĠMS": 8856,
      "ĠMoh": 8857,
      "ĠRoyal": 8858,
      "ĠHT": 8859,
      "ĠFair": 8860,
      "Ġscap": 8861,
      "Ġnoise": 8862,
      "Ġincidents": 8863,
      "Ġtransit": 8864,
      "Those": 8865,
      "ĠWhich": 8866,
      "Ġbehalf": 8867,
      "Ġhardly": 8868,
      "Ġlanding": 8869,
      "ĠXbox": 8870,
      "Ġultimate": 8871,
      "Ġmalign": 8872,
      "Ġdrawing": 8873,
      "Before": 8874,
      "Ġclothes": 8875,
      "Ġhormone": 8876,
      ">>": 8877,
      "Note": 8878,
      "ca": 8879,
      "rison": 8880,
      "Ġans": 8881,
      "Ġanger": 8882,
      "step": 8883,
      "Ġstored": 8884,
      "ĠCir": 8885,
      "Ġrural": 8886,
      "Ġneoplas": 8887,
      "Ġalien": 8888,
      "ĠOcc": 8889,
      "closure": 8890,
      "Ġinfant": 8891,
      "Ġbacked": 8892,
      "Ġfounded": 8893,
      "exp": 8894,
      "ĠIndependent": 8895,
      "Ġimproving": 8896,
      "Ġphotograph": 8897,
      "Ġdelivery": 8898,
      "Ġignore": 8899,
      "Ġownership": 8900,
      "Ġfantasy": 8901,
      "Ġintellectual": 8902,
      "79": 8903,
      "NS": 8904,
      "des": 8905,
      "Ġbub": 8906,
      "Ġmoon": 8907,
      "Ġdub": 8908,
      "ĠSuch": 8909,
      "Ġasks": 8910,
      "ĠBell": 8911,
      "Ġathe": 8912,
      "ĠDig": 8913,
      "ĠNC": 8914,
      "Ġupset": 8915,
      "ĠKat": 8916,
      "Ġblast": 8917,
      "Ġblank": 8918,
      "Ġinvited": 8919,
      "Ġflaw": 8920,
      "Ġpresum": 8921,
      "hesis": 8922,
      "Ġradial": 8923,
      "Ġloop": 8924,
      "ĠLiberal": 8925,
      "ĠAcadem": 8926,
      "Ġsettlement": 8927,
      "Ġveteran": 8928,
      "ĠBuddh": 8929,
      "TE": 8930,
      "uating": 8931,
      "Ġlocked": 8932,
      "ĠCop": 8933,
      "ĠCBS": 8934,
      "Ġclosing": 8935,
      "ĠKim": 8936,
      "Ġpermit": 8937,
      "Ġdispl": 8938,
      "Ġinvent": 8939,
      "ĠArm": 8940,
      "ĠReport": 8941,
      "afi": 8942,
      "ĠPrice": 8943,
      "ĠWithout": 8944,
      "Ġseparated": 8945,
      "Ġreferring": 8946,
      "iatric": 8947,
      "Ġsavings": 8948,
      "Ġbehaviour": 8949,
      "emporary": 8950,
      "03": 8951,
      "Each": 8952,
      "PC": 8953,
      "Ġtie": 8954,
      "Ġhook": 8955,
      "ĠMake": 8956,
      "opl": 8957,
      "oden": 8958,
      "ockey": 8959,
      "ĠLind": 8960,
      "Ġtrave": 8961,
      "Ġsoil": 8962,
      "Ġcoaches": 8963,
      "weet": 8964,
      "Inter": 8965,
      "Ġ64": 8966,
      "Ġmining": 8967,
      "Ġcaps": 8968,
      "lessly": 8969,
      "Ġpenis": 8970,
      "Ġopinions": 8971,
      "Ġcontroversy": 8972,
      "Ġvertebrae": 8973,
      "iculous": 8974,
      "da": 8975,
      "lad": 8976,
      "new": 8977,
      "pire": 8978,
      "¿½": 8979,
      "rection": 8980,
      "Ġokay": 8981,
      "enz": 8982,
      "Ġho": 8983,
      "article": 8984,
      "ĠNorthern": 8985,
      "rapped": 8986,
      "Ġdisrupt": 8987,
      "hatt": 8988,
      "ĠAnth": 8989,
      "2015": 8990,
      "Ġpromises": 8991,
      "Ġeastern": 8992,
      "Ġprotecting": 8993,
      "ropri": 8994,
      "ĠMinnesota": 8995,
      "Add": 8996,
      "Ġarrive": 8997,
      "Ġracial": 8998,
      "Ġracism": 8999,
      "Ġimplemented": 9000,
      "ĠJudge": 9001,
      "Ġreferend": 9002,
      "costal": 9003,
      "Ed": 9004,
      "SS": 9005,
      "world": 9006,
      "ï¿½": 9007,
      "iner": 9008,
      "uten": 9009,
      "ĠWW": 9010,
      "ĠHy": 9011,
      "ĠEs": 9012,
      "Ġspark": 9013,
      "ultural": 9014,
      "Ġ43": 9015,
      "ontin": 9016,
      "Ġremem": 9017,
      "ounce": 9018,
      "ĠAlabama": 9019,
      "Ġchecks": 9020,
      "Ġmathemat": 9021,
      "ĠMayor": 9022,
      "Ġexpectations": 9023,
      "ĠConference": 9024,
      "ĠSteel": 9025,
      "Ġlesions": 9026,
      "Ġscholars": 9027,
      "enezuel": 9028,
      "06": 9029,
      "Rec": 9030,
      "ĠMit": 9031,
      "Ġdelic": 9032,
      "ĠJun": 9033,
      "Ġouter": 9034,
      "ulty": 9035,
      "obby": 9036,
      "Ġpreced": 9037,
      "ishop": 9038,
      "Ġsmile": 9039,
      "ympathetic": 9040,
      "Ġestimate": 9041,
      "ĠCarl": 9042,
      "Ġinferiorly": 9043,
      "ĠGlobal": 9044,
      "Ġcommander": 9045,
      "Ġmagic": 9046,
      "Ġthrowing": 9047,
      "Ġtroub": 9048,
      "Ġdisagree": 9049,
      "ĠKickstarter": 9050,
      "Ġconvinced": 9051,
      ".-": 9052,
      "Back": 9053,
      "Pre": 9054,
      "iology": 9055,
      "Ġmigr": 9056,
      "Ġlying": 9057,
      "ĠMaine": 9058,
      "ĠFood": 9059,
      "ĠLu": 9060,
      "ĠOl": 9061,
      "ĠOtt": 9062,
      "Ġcontribution": 9063,
      "Ġattitude": 9064,
      "ĠUnfortunately": 9065,
      "lix": 9066,
      "Ġconvicted": 9067,
      "Ġreforms": 9068,
      "Ġspectrum": 9069,
      "DR": 9070,
      "Under": 9071,
      "ao": 9072,
      "yth": 9073,
      "Ġtone": 9074,
      "Ġcogn": 9075,
      "Ġdump": 9076,
      "Ġrely": 9077,
      "urator": 9078,
      "ĠMarc": 9079,
      "ifer": 9080,
      "ĠEvent": 9081,
      "asty": 9082,
      "Ġjur": 9083,
      "Ġbutt": 9084,
      "Ġ55": 9085,
      "Ġregulation": 9086,
      "Ġpharm": 9087,
      "Ġoblique": 9088,
      "Ġcourses": 9089,
      "Ġhandful": 9090,
      "Ġmodule": 9091,
      "Ġheaded": 9092,
      "ãģ¦": 9093,
      "aneously": 9094,
      "Ġsalt": 9095,
      "Ġdifficulty": 9096,
      "Ġstatistics": 9097,
      "ĠMusic": 9098,
      "Ġfears": 9099,
      "Ġstruggling": 9100,
      "Ġinitiative": 9101,
      "Ġanxiety": 9102,
      "68": 9103,
      "case": 9104,
      "zing": 9105,
      "Ġwars": 9106,
      "oured": 9107,
      "eties": 9108,
      "ĠBureau": 9109,
      "ppo": 9110,
      "icking": 9111,
      "Ġdesert": 9112,
      "Ġheading": 9113,
      "ĠEngine": 9114,
      "Ġpolyps": 9115,
      "Ġinfections": 9116,
      "Ġingred": 9117,
      "Ġphrase": 9118,
      "Ke": 9119,
      "bits": 9120,
      "core": 9121,
      "citation": 9122,
      "Ġtips": 9123,
      "Ġtherm": 9124,
      "atre": 9125,
      "Ġfro": 9126,
      "Ġfool": 9127,
      "ĠCook": 9128,
      "Ġcomedy": 9129,
      "Ġappend": 9130,
      "Ġscreens": 9131,
      "ĠComput": 9132,
      "Ġchildhood": 9133,
      "Ġseemingly": 9134,
      "Ġcampaigns": 9135,
      "Ġinvestigators": 9136,
      "Ġconsideration": 9137,
      "Ġfemin": 9138,
      "ĠLibya": 9139,
      "Ġfrequent": 9140,
      "ocolate": 9141,
      "Getty": 9142,
      "ĠCaption": 9143,
      "Ġguarantee": 9144,
      "dri": 9145,
      "pool": 9146,
      "Ġcock": 9147,
      "Ġfed": 9148,
      "Ġdrew": 9149,
      "Ġrear": 9150,
      "uther": 9151,
      "otyp": 9152,
      "amina": 9153,
      "empl": 9154,
      "Ġshr": 9155,
      "Ġshield": 9156,
      "ivals": 9157,
      "Ġrecipe": 9158,
      "Ġshell": 9159,
      "neum": 9160,
      "Ġ47": 9161,
      "Ġsubsc": 9162,
      "tenance": 9163,
      "Ġrefers": 9164,
      "Ġvisiting": 9165,
      "Ġreceiver": 9166,
      "ĠMean": 9167,
      "Ġsilver": 9168,
      "Ġliterature": 9169,
      "ĠPalestinians": 9170,
      "Ġtrigger": 9171,
      "Ġinnocent": 9172,
      "orectal": 9173,
      ")?": 9174,
      "Dav": 9175,
      "inction": 9176,
      "Ġsoph": 9177,
      "Ġwww": 9178,
      "aria": 9179,
      "Ġhung": 9180,
      "Ġbeings": 9181,
      "Ġgains": 9182,
      "ĠSat": 9183,
      "ĠSometimes": 9184,
      "Ġshout": 9185,
      "ourse": 9186,
      "ective": 9187,
      "ĠUFC": 9188,
      "Ġperitone": 9189,
      "elling": 9190,
      "Ġcolors": 9191,
      "Ġ1992": 9192,
      "Ġmissions": 9193,
      "ĠMedical": 9194,
      "ĠIntelligence": 9195,
      "ĠPennsylvania": 9196,
      "Ġphenomenon": 9197,
      "Ġlumbar": 9198,
      "FO": 9199,
      "LS": 9200,
      "dr": 9201,
      "uce": 9202,
      "worth": 9203,
      "Ġtor": 9204,
      "Ġtears": 9205,
      "rolled": 9206,
      "ĠIce": 9207,
      "Ġraw": 9208,
      "ĠLo": 9209,
      "Ġadequ": 9210,
      "iano": 9211,
      "Ġprepar": 9212,
      "ĠVeg": 9213,
      "Ġ1960": 9214,
      "Ġcounts": 9215,
      "Ġstudied": 9216,
      "Ġdrone": 9217,
      "ĠPhilipp": 9218,
      "Ġtrees": 9219,
      "Ġcustody": 9220,
      "Ġlegislative": 9221,
      "ãĥ¼": 9222,
      "About": 9223,
      "Posterior": 9224,
      "Ġaccompan": 9225,
      "Ġunexpected": 9226,
      "fund": 9227,
      "gel": 9228,
      "mus": 9229,
      "rics": 9230,
      "uction": 9231,
      "Ġwaves": 9232,
      "Ġpap": 9233,
      "Ġpapers": 9234,
      "Ġreverse": 9235,
      "ĠMaster": 9236,
      "Ġcompe": 9237,
      "ĠLinc": 9238,
      "ĠJam": 9239,
      "Ġdose": 9240,
      "izza": 9241,
      "itionally": 9242,
      "olds": 9243,
      "Ġrelax": 9244,
      "Ġassign": 9245,
      "otherapy": 9246,
      "Ġpropos": 9247,
      "backs": 9248,
      "secution": 9249,
      "Ġpackages": 9250,
      "Ġdiagnostic": 9251,
      "Ġwonderful": 9252,
      "Ġshopping": 9253,
      "Ġdecreased": 9254,
[...]
