{
  "version": "1.0",
  "truncation": null,
  "padding": null,
  "added_tokens": [
    {
      "id": 0,
      "content": "[PAD]",
      "single_word": false,
      "lstrip": false,
      "rstrip": false,
      "normalized": false,
      "special": true
    },
    {
      "id": 1,
      "content": "[UNK]",
      "single_word": false,
      "lstrip": false,
      "rstrip": false,
      "normalized": false,
      "special": true
    },
    {
      "id": 2,
      "content": "[CLS]",
      "single_word": false,
      "lstrip": false,
      "rstrip": false,
      "normalized": false,
      "special": true
    },
    {
      "id": 3,
      "content": "[SEP]",
      "single_word": false,
      "lstrip": false,
      "rstrip": false,
      "normalized": false,
      "special": true
    },
    {
      "id": 4,
      "content": "[MASK]",
      "single_word": false,
      "lstrip": false,
      "rstrip": false,
      "normalized": false,
      "special": true
    },
    {
      "id": 5,
      "content": "[BOS]",
      "single_word": false,
      "lstrip": false,
      "rstrip": false,
      "normalized": false,
      "special": true
    },
    {
      "id": 6,
      "content": "[EOS]",
      "single_word": false,
      "lstrip": false,
      "rstrip": false,
      "normalized": false,
      "special": true
    }
  ],
  "normalizer": null,
  "pre_tokenizer": {
    "type": "ByteLevel",
    "add_prefix_space": true,
    "trim_offsets": true,
    "use_regex": true
  },
  "post_processor": null,
  "decoder": {
    "type": "ByteLevel",
    "add_prefix_space": true,
    "trim_offsets": true,
    "use_regex": true
  },
  "model": {
    "type": "BPE",
    "dropout": 0.1,
    "unk_token": "[UNK]",
    "continuing_subword_prefix": null,
    "end_of_word_suffix": null,
    "fuse_unk": false,
    "byte_fallback": false,
    "ignore_merges": false,
    "vocab": {
      "[PAD]": 0,
      "[UNK]": 1,
      "[CLS]": 2,
      "[SEP]": 3,
      "[MASK]": 4,
      "[BOS]": 5,
      "[EOS]": 6,
      "!": 7,
      "\"": 8,
      "#": 9,
      "$": 10,
      "%": 11,
      "&": 12,
      "'": 13,
      "(": 14,
      ")": 15,
      "*": 16,
      "+": 17,
      ",": 18,
      "-": 19,
      ".": 20,
      "/": 21,
      "0": 22,
      "1": 23,
      "2": 24,
      "3": 25,
      "4": 26,
      "5": 27,
      "6": 28,
      "7": 29,
      "8": 30,
      "9": 31,
      ":": 32,
      ";": 33,
      "<": 34,
      "=": 35,
      ">": 36,
      "?": 37,
      "@": 38,
      "A": 39,
      "B": 40,
      "C": 41,
      "D": 42,
      "E": 43,
      "F": 44,
      "G": 45,
      "H": 46,
      "I": 47,
      "J": 48,
      "K": 49,
      "L": 50,
      "M": 51,
      "N": 52,
      "O": 53,
      "P": 54,
      "Q": 55,
      "R": 56,
      "S": 57,
      "T": 58,
      "U": 59,
      "V": 60,
      "W": 61,
      "X": 62,
      "Y": 63,
      "Z": 64,
      "[": 65,
      "\\": 66,
      "]": 67,
      "^": 68,
      "_": 69,
      "`": 70,
      "a": 71,
      "b": 72,
      "c": 73,
      "d": 74,
      "e": 75,
      "f": 76,
      "g": 77,
      "h": 78,
      "i": 79,
      "j": 80,
      "k": 81,
      "l": 82,
      "m": 83,
      "n": 84,
      "o": 85,
      "p": 86,
      "q": 87,
      "r": 88,
      "s": 89,
      "t": 90,
      "u": 91,
      "v": 92,
      "w": 93,
      "x": 94,
      "y": 95,
      "z": 96,
      "{": 97,
      "|": 98,
      "}": 99,
      "~": 100,
      "¡": 101,
      "¢": 102,
      "£": 103,
      "¤": 104,
      "¥": 105,
      "¦": 106,
      "§": 107,
      "¨": 108,
      "©": 109,
      "ª": 110,
      "«": 111,
      "¬": 112,
      "®": 113,
      "¯": 114,
      "°": 115,
      "±": 116,
      "²": 117,
      "³": 118,
      "´": 119,
      "µ": 120,
      "¶": 121,
      "·": 122,
      "¸": 123,
      "¹": 124,
      "º": 125,
      "»": 126,
      "¼": 127,
      "½": 128,
      "¾": 129,
      "¿": 130,
      "À": 131,
      "Á": 132,
      "Â": 133,
      "Ã": 134,
      "Ä": 135,
      "Å": 136,
      "Æ": 137,
      "Ç": 138,
      "È": 139,
      "É": 140,
      "Ê": 141,
      "Ë": 142,
      "Ì": 143,
      "Í": 144,
      "Î": 145,
      "Ï": 146,
      "Ð": 147,
      "Ñ": 148,
      "Ò": 149,
      "Ó": 150,
      "Ô": 151,
      "Õ": 152,
      "Ö": 153,
      "×": 154,
      "Ø": 155,
      "Ù": 156,
      "Ú": 157,
      "Û": 158,
      "Ü": 159,
      "Ý": 160,
      "Þ": 161,
      "ß": 162,
      "à": 163,
      "á": 164,
      "â": 165,
      "ã": 166,
      "ä": 167,
      "å": 168,
      "æ": 169,
      "ç": 170,
      "è": 171,
      "é": 172,
      "ê": 173,
      "ë": 174,
      "ì": 175,
      "í": 176,
      "î": 177,
      "ï": 178,
      "ð": 179,
      "ñ": 180,
      "ò": 181,
      "ó": 182,
      "ô": 183,
      "õ": 184,
      "ö": 185,
      "÷": 186,
      "ø": 187,
      "ù": 188,
      "ú": 189,
      "û": 190,
      "ü": 191,
      "ý": 192,
      "þ": 193,
      "ÿ": 194,
      "Ā": 195,
      "ā": 196,
      "Ă": 197,
      "ă": 198,
      "Ą": 199,
      "ą": 200,
      "Ć": 201,
      "ć": 202,
      "Ĉ": 203,
      "ĉ": 204,
      "Ċ": 205,
      "ċ": 206,
      "Č": 207,
      "č": 208,
      "Ď": 209,
      "ď": 210,
      "Đ": 211,
      "đ": 212,
      "Ē": 213,
      "ē": 214,
      "Ĕ": 215,
      "ĕ": 216,
      "Ė": 217,
      "ė": 218,
      "Ę": 219,
      "ę": 220,
      "Ě": 221,
      "ě": 222,
      "Ĝ": 223,
      "ĝ": 224,
      "Ğ": 225,
      "ğ": 226,
      "Ġ": 227,
      "ġ": 228,
      "Ģ": 229,
      "ģ": 230,
      "Ĥ": 231,
      "ĥ": 232,
      "Ħ": 233,
      "ħ": 234,
      "Ĩ": 235,
      "ĩ": 236,
      "Ī": 237,
      "ī": 238,
      "Ĭ": 239,
      "ĭ": 240,
      "Į": 241,
      "į": 242,
      "İ": 243,
      "ı": 244,
      "Ĳ": 245,
      "ĳ": 246,
      "Ĵ": 247,
      "ĵ": 248,
      "Ķ": 249,
      "ķ": 250,
      "ĸ": 251,
      "Ĺ": 252,
      "ĺ": 253,
      "Ļ": 254,
      "ļ": 255,
      "Ľ": 256,
      "ľ": 257,
      "Ŀ": 258,
      "ŀ": 259,
      "Ł": 260,
      "ł": 261,
      "Ń": 262,
      "Ġt": 263,
      "Ġa": 264,
      "he": 265,
      "in": 266,
      "re": 267,
      "Ġthe": 268,
      "on": 269,
      "er": 270,
      "Ġs": 271,
      "Ġw": 272,
      "at": 273,
      "Ġo": 274,
      "en": 275,
      "Ġc": 276,
      "it": 277,
      "is": 278,
      "an": 279,
      "or": 280,
      "Ġb": 281,
      "ed": 282,
      "es": 283,
      "Ġf": 284,
      "ing": 285,
      "Ġp": 286,
      "ou": 287,
      "Ġan": 288,
      "al": 289,
      "Ġto": 290,
      "ar": 291,
      "Ġm": 292,
      "Ġin": 293,
      "Ġof": 294,
      "Ġd": 295,
      "Ġh": 296,
      "as": 297,
      "Ġand": 298,
      "ic": 299,
      "Ġth": 300,
      "le": 301,
      "ion": 302,
      "om": 303,
      "ll": 304,
      "ent": 305,
      "ĠT": 306,
      "Ġn": 307,
      "Ġl": 308,
      "Ġre": 309,
      "st": 310,
      "ve": 311,
      "ly": 312,
      "Ġe": 313,
      "Ġbe": 314,
      "ro": 315,
      "Ġg": 316,
      "ĠI": 317,
      "id": 318,
      "ut": 319,
      "ĠS": 320,
      "ac": 321,
      "ot": 322,
      "ĠA": 323,
      "Ġthat": 324,
      "Ġon": 325,
      "ay": 326,
      "Ġis": 327,
      "im": 328,
      "et": 329,
      "am": 330,
      "ad": 331,
      "ow": 332,
      "se": 333,
      "ig": 334,
      "Ġfor": 335,
      "ĠC": 336,
      "ver": 337,
      "'s": 338,
      "ur": 339,
      "ld": 340,
      "ct": 341,
      "Ġu": 342,
      "Ġst": 343,
      "Ġy": 344,
      "ĠM": 345,
      "Ġit": 346,
      "Ġhe": 347,
      "Ġ\"": 348,
      "ir": 349,
      "ation": 350,
      "ith": 351,
      "Ġwh": 352,
      "ĠB": 353,
      "ce": 354,
      "ĠThe": 355,
      "ter": 356,
      "Ġwe": 357,
      "ol": 358,
      "il": 359,
      "Ġwith": 360,
      "Ġas": 361,
      "ĠP": 362,
      "ch": 363,
      "ill": 364,
      "ĠW": 365,
      "nd": 366,
      "Ġwas": 367,
      "ers": 368,
      "Ġyou": 369,
      "ĠH": 370,
      "ke": 371,
      "Ġcon": 372,
      "Ġde": 373,
      "Ġr": 374,
      "her": 375,
      "ĠD": 376,
      "if": 377,
      "ate": 378,
      "Ġat": 379,
      "ag": 380,
      "ĠR": 381,
      "Ġha": 382,
      "ĠF": 383,
      "Ġse": 384,
      "Ġpro": 385,
      "ore": 386,
      "Ġ1": 387,
      "ul": 388,
      "pp": 389,
      "ment": 390,
      "Ġare": 391,
      "ri": 392,
      "est": 393,
      "ist": 394,
      "Ġcom": 395,
      "us": 396,
      "Ġ2": 397,
      "and": 398,
      "op": 399,
      "ain": 400,
      "ĠN": 401,
      "rom": 402,
      "igh": 403,
      "Ġ(": 404,
      "ort": 405,
      "Ġne": 406,
      "od": 407,
      "um": 408,
      "Ġex": 409,
      "ĠG": 410,
      "un": 411,
      "res": 412,
      "ab": 413,
      "Ġnot": 414,
      "Ġv": 415,
      "ĠL": 416,
      "Ġhave": 417,
      "ess": 418,
      "ity": 419,
      "Ġor": 420,
      "ould": 421,
      "Ġby": 422,
      "em": 423,
      "th": 424,
      "os": 425,
      "ant": 426,
      "Ġfrom": 427,
      "ive": 428,
      "Ġal": 429,
      "ĠE": 430,
      "el": 431,
      "Ġsu": 432,
      "art": 433,
      "oc": 434,
      "Ġsh": 435,
      "Ġthis": 436,
      "nt": 437,
      "ĠO": 438,
      "qu": 439,
      "ight": 440,
      "ust": 441,
      "pe": 442,
      "Ġle": 443,
      "ies": 444,
      "ĠJ": 445,
      "Ġsa": 446,
      "end": 447,
      "Ġch": 448,
      "Ġab": 449,
      "out": 450,
      "ie": 451,
      "all": 452,
      "Ġ-": 453,
      "red": 454,
      "ack": 455,
      "Ġhas": 456,
      "00": 457,
      "ally": 458,
      "Ġpl": 459,
      "Ġgo": 460,
      "Ġhis": 461,
      "ard": 462,
      "ome": 463,
      "iv": 464,
      "gh": 465,
      "ap": 466,
      "ear": 467,
      "ost": 468,
      "Ġtr": 469,
      "our": 470,
      "ast": 471,
      "Ġj": 472,
      "ĠU": 473,
      "'t": 474,
      "ak": 475,
      "ud": 476,
      "Ġdo": 477,
      "Ġthey": 478,
      "Ġwor": 479,
      "Ġbut": 480,
      "Ġsaid": 481,
      "rou": 482,
      "ge": 483,
      "Ġcan": 484,
      "Ġwhe": 485,
      "Ġwill": 486,
      "Ġk": 487,
      "ich": 488,
      "Ġall": 489,
      "ok": 490,
      "Ġwho": 491,
      "ide": 492,
      "Ġint": 493,
      "ther": 494,
      "ans": 495,
      ".\"": 496,
      "Ġtheir": 497,
      "ial": 498,
      "Ġout": 499,
      "ame": 500,
      "ĠTh": 501,
      "ff": 502,
      "ĠIn": 503,
      "ong": 504,
      "ect": 505,
      "ice": 506,
      "pl": 507,
      "ure": 508,
      "pt": 509,
      "Ġmore": 510,
      "one": 511,
      "ions": 512,
      "act": 513,
      "Ġme": 514,
      "age": 515,
      "ike": 516,
      "ous": 517,
      "Ġup": 518,
      "Ġad": 519,
      "ine": 520,
      "ĠK": 521,
      "Ġabout": 522,
      "ated": 523,
      "ra": 524,
      "Ġwere": 525,
      "Ġone": 526,
      ",\"": 527,
      "ber": 528,
      "Ġso": 529,
      "ĠSt": 530,
      "Ġus": 531,
      "ime": 532,
      "ep": 533,
      "og": 534,
      "Ġhad": 535,
      "Ġ20": 536,
      "are": 537,
      "ia": 538,
      "cc": 539,
      "Ġwould": 540,
      "Ġwhich": 541,
      "ub": 542,
      "Ġcl": 543,
      "Ġim": 544,
      "ind": 545,
      "ake": 546,
      "Ġcont": 547,
      "Ġag": 548,
      "very": 549,
      "ue": 550,
      "iz": 551,
      "Ġte": 552,
      "Ġoff": 553,
      "Ġcomp": 554,
      "Ġbeen": 555,
      "Ġun": 556,
      "Ġen": 557,
      "so": 558,
      "ign": 559,
      "per": 560,
      "au": 561,
      "Ġyear": 562,
      "ary": 563,
      "ip": 564,
      "ace": 565,
      "Ġlike": 566,
      "ew": 567,
      "ere": 568,
      "ven": 569,
      "Ġpe": 570,
      "Ġinc": 571,
      "Ġman": 572,
      "ĠIt": 573,
      "ays": 574,
      "ose": 575,
      "ook": 576,
      "ry": 577,
      "Ġres": 578,
      "Ġper": 579,
      "ite": 580,
      "able": 581,
      "Ġsp": 582,
      "Ġother": 583,
      "mer": 584,
      "ord": 585,
      "ass": 586,
      "ĠY": 587,
      "ire": 588,
      "Ġ201": 589,
      "Ġsome": 590,
      "ence": 591,
      "ople": 592,
      "ib": 593,
      "ile": 594,
      "ations": 595,
      "ical": 596,
      "Ġover": 597,
      "ks": 598,
      "Ġthere": 599,
      "Ġdis": 600,
      "ĠCh": 601,
      "ress": 602,
      "Ġalso": 603,
      "Ġar": 604,
      "Ġbec": 605,
      "ult": 606,
      "Ġthan": 607,
      "Ġnew": 608,
      "own": 609,
      "Ġthem": 610,
      "ough": 611,
      "int": 612,
      "ance": 613,
      "ru": 614,
      "Ġapp": 615,
      "ount": 616,
      "Ġpart": 617,
      "port": 618,
      "Ġwhen": 619,
      "Ġpeople": 620,
      "Ġwhat": 621,
      "ĠV": 622,
      "ree": 623,
      "Ġsc": 624,
      "Ġyour": 625,
      "orm": 626,
      "fter": 627,
      "ail": 628,
      "ond": 629,
      "Ġqu": 630,
      "Ġ3": 631,
      "av": 632,
      "Ġits": 633,
      "ase": 634,
      "Ġany": 635,
      "Ġjust": 636,
      "ach": 637,
      "Ġkn": 638,
      "Ġtime": 639,
      "ĠHe": 640,
      "Ġher": 641,
      "Ġrec": 642,
      "lic": 643,
      "ens": 644,
      "Ġmy": 645,
      "reat": 646,
      "Ġget": 647,
      "ian": 648,
      "Ġif": 649,
      "Ġwork": 650,
      "Ġinto": 651,
      "Ġtw": 652,
      "ound": 653,
      "irst": 654,
      "Ġno": 655,
      "vel": 656,
      "du": 657,
      "ction": 658,
      "ory": 659,
      "ings": 660,
      "ident": 661,
      "ition": 662,
      "ors": 663,
      "Ġour": 664,
      "ick": 665,
      "Ġpre": 666,
      "ob": 667,
      "ove": 668,
      "ause": 669,
      "wn": 670,
      "Ġplay": 671,
      "ang": 672,
      "ade": 673,
      "ink": 674,
      "ates": 675,
      "ish": 676,
      "itt": 677,
      "ark": 678,
      "Ġro": 679,
      "Ġ19": 680,
      "Ġpol": 681,
      "Ġshe": 682,
      "vers": 683,
      "Ġco": 684,
      "Ġafter": 685,
      "amp": 686,
      "Ġcould": 687,
      "Ġfirst": 688,
      "Ġhow": 689,
      "ious": 690,
      "ne": 691,
      "Ġacc": 692,
      "nder": 693,
      "Ġhim": 694,
      "aw": 695,
      "ons": 696,
      "ild": 697,
      "Ġpo": 698,
      "Ġatt": 699,
      "Ġfe": 700,
      "Ġonly": 701,
      "ĠBut": 702,
      "ict": 703,
      "hed": 704,
      "ĠWe": 705,
      "Ġpr": 706,
      "Ġtwo": 707,
      "hing": 708,
      "Ġcomm": 709,
      "form": 710,
      "Ġspe": 711,
      "Ġact": 712,
      "ov": 713,
      "Ġser": 714,
      "ĠWh": 715,
      "we": 716,
      "Ġbl": 717,
      "Ġbet": 718,
      "ft": 719,
      "Ġdec": 720,
      "ĠThis": 721,
      "ning": 722,
      "Ġback": 723,
      "Ġ4": 724,
      "Ġmost": 725,
      "ces": 726,
      "ĠAnd": 727,
      "te": 728,
      "ood": 729,
      "oy": 730,
      "ck": 731,
      "Ġam": 732,
      "Ġ'": 733,
      "Ġdid": 734,
      "iff": 735,
      "rough": 736,
      "ater": 737,
      "round": 738,
      "Ġagain": 739,
      "ual": 740,
      "Ġunder": 741,
      "ise": 742,
      "Ġwant": 743,
      "Ġdes": 744,
      "day": 745,
      "rit": 746,
      "Ġcons": 747,
      "Ġbecause": 748,
      "sel": 749,
      "Ġyears": 750,
      "Ġnow": 751,
      "lud": 752,
      "ents": 753,
      "ublic": 754,
      "tern": 755,
      "man": 756,
      "Ġ[": 757,
      "ull": 758,
      "ĠUn": 759,
      "Ġeven": 760,
      "Ġneed": 761,
      "Ġinv": 762,
      "iss": 763,
      "ec": 764,
      "ĠAs": 765,
      "Ġknow": 766,
      "Ġ5": 767,
      "ced": 768,
      "Ġsee": 769,
      "ments": 770,
      "Ġind": 771,
      "Ġadd": 772,
      "Ġ$": 773,
      "Ġsec": 774,
      "old": 775,
      "fore": 776,
      "'re": 777,
      "Ġevery": 778,
      "uch": 779,
      "ĠTr": 780,
      "Ġsupp": 781,
      "Ġmake": 782,
      "Ġem": 783,
      "pect": 784,
      "Ġthese": 785,
      "urn": 786,
      "Ġwhere": 787,
      "ational": 788,
      "vern": 789,
      "oll": 790,
      "ject": 791,
      "ock": 792,
      "ump": 793,
      "Ġdon": 794,
      "Ġlook": 795,
      "Ġbu": 796,
      "Ġev": 797,
      "ating": 798,
      "oss": 799,
      "Ġright": 800,
      "Ġway": 801,
      "xt": 802,
      "Ġrem": 803,
      "Ġmay": 804,
      "Ġbeing": 805,
      "Ġmany": 806,
      "iew": 807,
      "Ġdiff": 808,
      "Ġthen": 809,
      "Ġrel": 810,
      "ily": 811,
      "lect": 812,
      "ng": 813,
      "row": 814,
      "Ġcall": 815,
      "meric": 816,
      "Ġinclud": 817,
      "ied": 818,
      "ason": 819,
      "les": 820,
      "Ġthink": 821,
      "ased": 822,
      "Ġdef": 823,
      "ited": 824,
      "aking": 825,
      "Ġreg": 826,
      "Ġthrough": 827,
      "Ġimp": 828,
      "Ġpres": 829,
      "Ġsy": 830,
      "ath": 831,
      "Ġsay": 832,
      "Ġshould": 833,
      "rib": 834,
      "Ġfl": 835,
      "uring": 836,
      "Ġthose": 837,
      "Ġ200": 838,
      "ont": 839,
      ").": 840,
      "Ġlast": 841,
      "Ġstate": 842,
      "ower": 843,
      "Ġvery": 844,
      "ities": 845,
      "other": 846,
      "Ġmuch": 847,
      "ific": 848,
      "ĠNew": 849,
      "hen": 850,
      "Ġshow": 851,
      "ative": 852,
      "Ġbr": 853,
      "ĠRe": 854,
      "Ġph": 855,
      "ĠAmeric": 856,
      "oth": 857,
      "Ġcount": 858,
      "ty": 859,
      "ell": 860,
      "arly": 861,
      "ved": 862,
      "..": 863,
      "Ġwell": 864,
      "Ġown": 865,
      "Ġdoes": 866,
      "arg": 867,
      "als": 868,
      "Ġdown": 869,
      "Ġass": 870,
      "und": 871,
      "Ġbel": 872,
      "ting": 873,
      "The": 874,
      "ics": 875,
      "Ġend": 876,
      "Ġuse": 877,
      "ters": 878,
      "Ġgovern": 879,
      "Ġlong": 880,
      "ange": 881,
      "ince": 882,
      "omet": 883,
      "Ġbefore": 884,
      "Ġmon": 885,
      "gr": 886,
      "ward": 887,
      "ible": 888,
      "Ġreport": 889,
      "Ġke": 890,
      "ues": 891,
      "Ġstart": 892,
      "Ġfin": 893,
      "Ġmade": 894,
      "up": 895,
      "ts": 896,
      "ble": 897,
      "ife": 898,
      "Ġsuch": 899,
      "Ġteam": 900,
      "Ġ6": 901,
      "ism": 902,
      "oun": 903,
      "olog": 904,
      "ĠAl": 905,
      "ren": 906,
      "),": 907,
      "ener": 908,
      "erson": 909,
      "Ġsm": 910,
      "Ġworld": 911,
      "Ġstud": 912,
      "ists": 913,
      "ility": 914,
      "Ġhel": 915,
      "Ġac": 916,
      "ful": 917,
      "ix": 918,
      "Ġgoing": 919,
      "ually": 920,
      "ĠYou": 921,
      "tain": 922,
      "Ġsur": 923,
      "Ġgood": 924,
      "--": 925,
      "ek": 926,
      "Ġsub": 927,
      "Ġagainst": 928,
      "Ġeff": 929,
      "ork": 930,
      "its": 931,
      "Ġent": 932,
      "ĠIf": 933,
      "Ġgu": 934,
      "illion": 935,
      "Ġset": 936,
      "gan": 937,
      "Ġgame": 938,
      "Ġpoint": 939,
      "ys": 940,
      "Ġstill": 941,
      "ars": 942,
      "stem": 943,
      "Ġlead": 944,
      "ween": 945,
      "roup": 946,
      "Ġhelp": 947,
      "Ġwhile": 948,
      "ier": 949,
      "000": 950,
      "ving": 951,
      "Ġmin": 952,
      "alk": 953,
      "Ġsays": 954,
      "cy": 955,
      "ms": 956,
      "Ġgr": 957,
      "imes": 958,
      "Ġinter": 959,
      "Ġob": 960,
      "Ġprodu": 961,
      "ank": 962,
      "cess": 963,
      "Ġinst": 964,
      "Ġsim": 965,
      "Ġtake": 966,
      "ax": 967,
      "Ġstr": 968,
      "Ġed": 969,
      "Ġconf": 970,
      "self": 971,
      "Ġcol": 972,
      "Ġbetween": 973,
      "Ġdisc": 974,
      "ĠFor": 975,
      "Ġthough": 976,
      "Ġcr": 977,
      "Ġprov": 978,
      "ures": 979,
      "Ġsame": 980,
      "Ġdiffere": 981,
      "ĠAr": 982,
      "io": 983,
      "ool": 984,
      "'ve": 985,
      "Ġoffic": 986,
      "land": 987,
      "Ġlaw": 988,
      "ution": 989,
      "âĢ": 990,
      "ĠAn": 991,
      "Ġgovernment": 992,
      "hes": 993,
      "ollow": 994,
      "arch": 995,
      "ever": 996,
      "Ġop": 997,
      "Ġsign": 998,
      "Ġhigh": 999,
      "Ġnum": 1000,
      "uss": 1001,
      "ĠThey": 1002,
      "ah": 1003,
      "way": 1004,
      "hip": 1005,
      "air": 1006,
      "Ġter": 1007,
      "led": 1008,
      "ros": 1009,
      "ĠDe": 1010,
      "ĠIs": 1011,
      "read": 1012,
      "gg": 1013,
      "any": 1014,
      "ner": 1015,
      "Ġsomet": 1016,
      "Ġtrans": 1017,
      "ĠCom": 1018,
      "cent": 1019,
      "Ġref": 1020,
      "ĠSh": 1021,
      "ĠLe": 1022,
      "ames": 1023,
      "Ġ10": 1024,
      "Ġ7": 1025,
      "velop": 1026,
      "ĠTrump": 1027,
      "Ġins": 1028,
      "Ġmem": 1029,
      "Ġfound": 1030,
      "Ġthree": 1031,
      "Ġrun": 1032,
      "atch": 1033,
      "Ġmed": 1034,
      "Ġreal": 1035,
      "Ġaround": 1036,
      "ave": 1037,
      ".[": 1038,
      "ives": 1039,
      "ather": 1040,
      "ouse": 1041,
      "cept": 1042,
      "Ġhere": 1043,
      "Ġused": 1044,
      "Ġsystem": 1045,
      "Ġsupport": 1046,
      "Ġexp": 1047,
      "ves": 1048,
      "Ġgroup": 1049,
      "cer": 1050,
      "ĠCl": 1051,
      "Ġreally": 1052,
      "ĠSe": 1053,
      "oot": 1054,
      "Ġcour": 1055,
      "ĠThat": 1056,
      "Ġmod": 1057,
      "Ġpublic": 1058,
      "ci": 1059,
      "con": 1060,
      "ale": 1061,
      "az": 1062,
      "ets": 1063,
      "ying": 1064,
      "ĠThere": 1065,
      "ense": 1066,
      "Ġhand": 1067,
      "Ġ.": 1068,
      "Ġspec": 1069,
      "Ġext": 1070,
      "Ġsl": 1071,
      "Ġfam": 1072,
      "Ġret": 1073,
      "Ġgreat": 1074,
      "Ġrep": 1075,
      "ins": 1076,
      "Ġcur": 1077,
      "alth": 1078,
      "Ġfr": 1079,
      "Ġcar": 1080,
      "Ġcap": 1081,
      "Ġfact": 1082,
      "irect": 1083,
      "Ġboth": 1084,
      "Ġhapp": 1085,
      "Ġwom": 1086,
      "ton": 1087,
      "Ġ8": 1088,
      "Ġexper": 1089,
      "'m": 1090,
      "ular": 1091,
      "ph": 1092,
      "Ġday": 1093,
      "ices": 1094,
      "Ġfind": 1095,
      "Ġread": 1096,
      "ines": 1097,
      "Ġdet": 1098,
      "uth": 1099,
      "oh": 1100,
      "Ġduring": 1101,
      "ered": 1102,
      "pr": 1103,
      "ivers": 1104,
      "ision": 1105,
      "Ġcre": 1106,
      "Ġ9": 1107,
      "Ġbig": 1108,
      "Ġdevelop": 1109,
      "Ġtold": 1110,
      "Ġmonth": 1111,
      "ĠOn": 1112,
      "min": 1113,
      "Ġsince": 1114,
      "Ġperson": 1115,
      "akes": 1116,
      "ĠSo": 1117,
      "ically": 1118,
      "Ġiss": 1119,
      "ared": 1120,
      "Ġfollow": 1121,
      "Ġwar": 1122,
      "orth": 1123,
      "Ġcent": 1124,
      "ĠAd": 1125,
      "Ġleg": 1126,
      "Ġweek": 1127,
      "Ġpolit": 1128,
      "Ġfew": 1129,
      "ording": 1130,
      "aj": 1131,
      "med": 1132,
      "ages": 1133,
      "Ġexpl": 1134,
      "att": 1135,
      "Ġbelie": 1136,
      "Ġlot": 1137,
      "ĠFr": 1138,
      "ene": 1139,
      "anc": 1140,
      "iet": 1141,
      "Ġprot": 1142,
      "Ġrequ": 1143,
      "ric": 1144,
      "Ġtoo": 1145,
      "Ġgener": 1146,
      "Ġopp": 1147,
      "get": 1148,
      "Ġcontin": 1149,
      "chool": 1150,
      "ĠAt": 1151,
      "bers": 1152,
      "ized": 1153,
      "ention": 1154,
      "Ġcle": 1155,
      "der": 1156,
      "ĠPro": 1157,
      "Ġresp": 1158,
      "rent": 1159,
      "ash": 1160,
      "ĠHow": 1161,
      "Ġinf": 1162,
      "Ġput": 1163,
      "Ġfil": 1164,
      "Ġsomething": 1165,
      "Ġanother": 1166,
      "ness": 1167,
      "Ġcor": 1168,
      "Ġdifferent": 1169,
      "Ġloc": 1170,
      "ata": 1171,
      "Ġsoc": 1172,
      "Ġinvest": 1173,
      "uc": 1174,
      "ute": 1175,
      "Ġpower": 1176,
      "Ġvot": 1177,
      "Ġcommun": 1178,
      "Ġart": 1179,
      "ned": 1180,
      "ience": 1181,
      "Ġfar": 1182,
      "Ġcamp": 1183,
      "ĠRep": 1184,
      "Ġplan": 1185,
      "Ġ0": 1186,
      "ĠUS": 1187,
      "ross": 1188,
      "Ġlife": 1189,
      "Ġask": 1190,
      "Ġhead": 1191,
      "Ġrele": 1192,
      "Ġposs": 1193,
      "arge": 1194,
      "erest": 1195,
      "Ġthings": 1196,
      "thing": 1197,
      "Ġmet": 1198,
      "view": 1199,
      "Ġchild": 1200,
      "ex": 1201,
      "Ġpass": 1202,
      "Ġche": 1203,
      "ants": 1204,
      "'ll": 1205,
      "ik": 1206,
      "Ġbo": 1207,
      "ody": 1208,
      "arl": 1209,
      "Ġmight": 1210,
      "iness": 1211,
      "Ġquest": 1212,
      "ret": 1213,
      "Ġdep": 1214,
      "Ġnever": 1215,
      "Ġeach": 1216,
      "Ġdem": 1217,
      "Ġadv": 1218,
      "ient": 1219,
      "the": 1220,
      "Ġnext": 1221,
      "Ġbus": 1222,
      "ield": 1223,
      "Ġmark": 1224,
      "Ġgot": 1225,
      "Ġcome": 1226,
      "ize": 1227,
      "Ġsecond": 1228,
      "ĠBl": 1229,
      "Ġopen": 1230,
      "Ġallow": 1231,
      "ee": 1232,
      "âĢ¦": 1233,
      "Ġfeel": 1234,
      "Ġbest": 1235,
      "ittle": 1236,
      "gram": 1237,
      "Ġseem": 1238,
      "Ġpercent": 1239,
      "rat": 1240,
      "Ġpri": 1241,
      "ital": 1242,
      "orn": 1243,
      "Ġpost": 1244,
      "Ġdist": 1245,
      "ten": 1246,
      "Ġhome": 1247,
      "Ġdirect": 1248,
      "ired": 1249,
      "ple": 1250,
      "ug": 1251,
      "Ġcontro": 1252,
      "son": 1253,
      "Ġincre": 1254,
      "Ġwr": 1255,
      "Ġhum": 1256,
      "osed": 1257,
      "conom": 1258,
      "Ġhard": 1259,
      "Ġinform": 1260,
      "erv": 1261,
      "Ġmillion": 1262,
      "Ġresult": 1263,
      "ately": 1264,
      "Ġimport": 1265,
      "Ġincluding": 1266,
      "Ġcare": 1267,
      "ĠInd": 1268,
      "aim": 1269,
      "chn": 1270,
      "ling": 1271,
      "Ġplace": 1272,
      "less": 1273,
      "Ġwithout": 1274,
      "Ġcomple": 1275,
      "Ġcountry": 1276,
      "Ġav": 1277,
      "ĠShe": 1278,
      "Ġide": 1279,
      "ĠZ": 1280,
      "Ġproble": 1281,
      "ama": 1282,
      "Ġtop": 1283,
      "Ġnumber": 1284,
      "Ġbuild": 1285,
      "gy": 1286,
      "Ġstand": 1287,
      "ished": 1288,
      "Ġfour": 1289,
      "oney": 1290,
      "Ġgl": 1291,
      "Ġpartic": 1292,
      "ably": 1293,
      "ral": 1294,
      "riend": 1295,
      "Ġrecent": 1296,
      "ration": 1297,
      "ĠWhen": 1298,
      "Ġinterest": 1299,
      "Ġbetter": 1300,
      "Ġel": 1301,
      "Ġmov": 1302,
      "Ġtri": 1303,
      "Ġappro": 1304,
      "ways": 1305,
      "ract": 1306,
      "Ġless": 1307,
      "Ġturn": 1308,
      "Ġlittle": 1309,
      "Ġbeh": 1310,
      "Ġbro": 1311,
      "Ġcalled": 1312,
      "20": 1313,
      "Ġlet": 1314,
      "Ġmil": 1315,
      "ised": 1316,
      "Ġseason": 1317,
      "ĠPh": 1318,
      "Ġpop": 1319,
      "Ġcase": 1320,
      "We": 1321,
      "Ġattack": 1322,
      "line": 1323,
      "ency": 1324,
      "Ġrest": 1325,
      "Ġann": 1326,
      "Ġdr": 1327,
      "Ġleft": 1328,
      "ĠQ": 1329,
      "Ġmove": 1330,
      "ina": 1331,
      "ĠBe": 1332,
      "Ġkeep": 1333,
      "Ġprogram": 1334,
      "ajor": 1335,
      "ering": 1336,
      "leg": 1337,
      "Ġdidn": 1338,
      "inal": 1339,
      "Ġmain": 1340,
      "Ġserv": 1341,
      "cl": 1342,
      "uro": 1343,
      "Ġfull": 1344,
      "Ġprev": 1345,
      "ted": 1346,
      "ĠAmerican": 1347,
      "app": 1348,
      "Ġeconom": 1349,
      "ĠWhat": 1350,
      "Ġpay": 1351,
      "ature": 1352,
      "Ġeffect": 1353,
      "Ġfun": 1354,
      "Ġtest": 1355,
      "Ġnews": 1356,
      "rem": 1357,
      "Ġusing": 1358,
      "Ġschool": 1359,
      "Ġpos": 1360,
      "iving": 1361,
      "Ġpolice": 1362,
      "Ġform": 1363,
      "ĠOb": 1364,
      "Ġsmall": 1365,
      "Ġchar": 1366,
      "ploy": 1367,
      "ĠUnited": 1368,
      "co": 1369,
      "Ġwin": 1370,
      "ains": 1371,
      "ready": 1372,
      "Ġdata": 1373,
      "ined": 1374,
      "ĠGo": 1375,
      "Ġlevel": 1376,
      "Ġval": 1377,
      "uck": 1378,
      "be": 1379,
      "Ġlist": 1380,
      "Ġprocess": 1381,
      "ology": 1382,
      "Ġhist": 1383,
      "ided": 1384,
      "Ġpresident": 1385,
      "ians": 1386,
      "Ġeas": 1387,
      "Ġprom": 1388,
      "ode": 1389,
      "Ġwomen": 1390,
      "Ġcompany": 1391,
      "Ġchange": 1392,
      "ird": 1393,
      "nce": 1394,
      "iver": 1395,
      "used": 1396,
      "ger": 1397,
      "ĠCan": 1398,
      "Ġdri": 1399,
      "Ġcurrent": 1400,
      "ĠChr": 1401,
      "Ġrece": 1402,
      "ohn": 1403,
      "Ġalready": 1404,
      "rap": 1405,
      "Ġunt": 1406,
      "Ġclaim": 1407,
      "to": 1408,
      "Ġbre": 1409,
      "iversity": 1410,
      "Ġwhy": 1411,
      "ruct": 1412,
      "Ġtechn": 1413,
      "Ġmoney": 1414,
      "Ġlater": 1415,
      "Ġjob": 1416,
      "Ġofficial": 1417,
      "Ġproject": 1418,
      "Ġ--": 1419,
      "Ġbusiness": 1420,
      "aign": 1421,
      "Ġty": 1422,
      "stand": 1423,
      "Ġmat": 1424,
      "ĠAll": 1425,
      "Ġ18": 1426,
      "Ġbook": 1427,
      "Ġinformation": 1428,
      "Ġorgan": 1429,
      "Ġexpect": 1430,
      "Ġdesign": 1431,
      "Ġalways": 1432,
      "ases": 1433,
      "Ġmajor": 1434,
      "Ġtalk": 1435,
      "ĠSp": 1436,
      "reen": 1437,
      "ĠPres": 1438,
      "Ġthing": 1439,
      "Ġprof": 1440,
      "Ġable": 1441,
      "Ġstory": 1442,
      "Ġedit": 1443,
      "ards": 1444,
      "Ġsol": 1445,
      "aff": 1446,
      "Ġrese": 1447,
      "Ġhealth": 1448,
      "ertain": 1449,
      "Ġpast": 1450,
      "Ġvis": 1451,
      "ĠMar": 1452,
      "urity": 1453,
      "ĠMr": 1454,
      "Ġ12": 1455,
      "Ġclass": 1456,
      "acy": 1457,
      "iven": 1458,
      "lection": 1459,
      "Ġchang": 1460,
      "Ġoper": 1461,
      "It": 1462,
      "outh": 1463,
      "Ġaway": 1464,
      "urs": 1465,
      "__": 1466,
      "ior": 1467,
      "Ġcity": 1468,
      "ural": 1469,
      "Ġfree": 1470,
      "ĠOne": 1471,
      "Ġsk": 1472,
      "ĠJohn": 1473,
      "Ġmust": 1474,
      "ured": 1475,
      "ead": 1476,
      "uthor": 1477,
      "Ġimportant": 1478,
      "ury": 1479,
      "Ġest": 1480,
      "Ġkill": 1481,
      "Ġhappen": 1482,
      "ission": 1483,
      "here": 1484,
      "Ġleast": 1485,
      "ĠSc": 1486,
      "Ġgrow": 1487,
      "ending": 1488,
      "ĠTo": 1489,
      "Ġpat": 1490,
      "ption": 1491,
      "Ġdoesn": 1492,
      "ron": 1493,
      "ĠPl": 1494,
      "Ġold": 1495,
      "ney": 1496,
      "ope": 1497,
      "ained": 1498,
      "10": 1499,
      "ĠCon": 1500,
      "Ġcampaign": 1501,
      "Ġvar": 1502,
      "ides": 1503,
      "Ġ15": 1504,
      "Ġcost": 1505,
      "ample": 1506,
      "Ġaff": 1507,
      "Ġenough": 1508,
      "Ġcame": 1509,
      "Ġtell": 1510,
      "Ġdays": 1511,
      "com": 1512,
      "Ġmen": 1513,
      "ott": 1514,
      "Ġview": 1515,
      "ĠRepublic": 1516,
      "Ġlarge": 1517,
      "ider": 1518,
      "ccess": 1519,
      "Ġconst": 1520,
      "ĠTw": 1521,
      "side": 1522,
      "Ġmaking": 1523,
      "ĠComm": 1524,
      "Ġstre": 1525,
      "Ġpolic": 1526,
      "'d": 1527,
      "Ġelect": 1528,
      "Ġkind": 1529,
      "els": 1530,
      "Ġfamily": 1531,
      "ĠOr": 1532,
      "Ġfriend": 1533,
      "eral": 1534,
      "ush": 1535,
      "Ġmar": 1536,
      "Ġrecord": 1537,
      "Ġtax": 1538,
      "ĠMc": 1539,
      "ional": 1540,
      "Ġsit": 1541,
      "Ġuntil": 1542,
      "ern": 1543,
      "ising": 1544,
      "Ġpolitical": 1545,
      "ality": 1546,
      "pped": 1547,
      "Ġair": 1548,
      "Ġdeal": 1549,
      "ified": 1550,
      "ries": 1551,
      "ley": 1552,
      "ox": 1553,
      "ĠDem": 1554,
      "augh": 1555,
      "alf": 1556,
      "Ġvide": 1557,
      "ror": 1558,
      "ived": 1559,
      "ued": 1560,
      "ĠMay": 1561,
      "ocrat": 1562,
      "ĠPresident": 1563,
      "ĠNo": 1564,
      "arent": 1565,
      "Ġintern": 1566,
      "Ġtook": 1567,
      "Ġ,": 1568,
      "ister": 1569,
      "aps": 1570,
      "Ġworking": 1571,
      "Ġhuman": 1572,
      "Ġdeb": 1573,
      "Ġfore": 1574,
      "oad": 1575,
      "ator": 1576,
      "ĠEuro": 1577,
      "aining": 1578,
      "Ġfund": 1579,
      "ands": 1580,
      "Ġbecome": 1581,
      "Ġdel": 1582,
      "iol": 1583,
      "Ġes": 1584,
      "Ġve": 1585,
      "Ġmean": 1586,
      "Ġactually": 1587,
      "Ġoften": 1588,
      "ware": 1589,
      "Ġformer": 1590,
      "crib": 1591,
      "bs": 1592,
      "Ġline": 1593,
      "by": 1594,
      "work": 1595,
      "ember": 1596,
      "ĠSy": 1597,
      "Ġaccording": 1598,
      "Ġ11": 1599,
      "ony": 1600,
      "ĠRuss": 1601,
      "Ġever": 1602,
      "Ġgive": 1603,
      "year": 1604,
      "ĠWith": 1605,
      "Ġwon": 1606,
      "most": 1607,
      "oint": 1608,
      "Ġword": 1609,
      "Ġbas": 1610,
      "ization": 1611,
      "aring": 1612,
      "gin": 1613,
      "Ġdev": 1614,
      "Ġ199": 1615,
      "Ġorder": 1616,
      "ane": 1617,
      "Ġgames": 1618,
      "Ġfac": 1619,
      "ĠBr": 1620,
      "iber": 1621,
      "Ġtimes": 1622,
      "Ġsever": 1623,
      "uture": 1624,
      "ither": 1625,
      "ĠCol": 1626,
      "eng": 1627,
      "Ġcharac": 1628,
      "Ġname": 1629,
      "ĠAm": 1630,
      "let": 1631,
      "ched": 1632,
      "Ġperform": 1633,
      "raft": 1634,
      "Ġsing": 1635,
      "...": 1636,
      "Ġmarket": 1637,
      "ann": 1638,
      "Ġbit": 1639,
      "wh": 1640,
      "Ġappear": 1641,
      "Ġdoing": 1642,
      "aken": 1643,
      "Ġearly": 1644,
      "Ġlear": 1645,
      "icle": 1646,
      "Ġseen": 1647,
      "ison": 1648,
      "iqu": 1649,
      "idd": 1650,
      "Ġnight": 1651,
      "ĠAfter": 1652,
      "Ġla": 1653,
      "ĠYork": 1654,
      "Ġwhether": 1655,
      "----": 1656,
      "ĠIm": 1657,
      "**": 1658,
      "Ġhaving": 1659,
      "Ġmedia": 1660,
      "Ġra": 1661,
      "Ġchildren": 1662,
      "Ġevent": 1663,
      "Ġcrit": 1664,
      "Ġmeet": 1665,
      "Ġreturn": 1666,
      "Ġsocial": 1667,
      "Ġprop": 1668,
      "idence": 1669,
      "Ġfive": 1670,
      "Ġplayers": 1671,
      "Ġtoday": 1672,
      "ĠEurope": 1673,
      "Ġquestion": 1674,
      "Ġseveral": 1675,
      "ĠObama": 1676,
      "Ġpress": 1677,
      "Ġcontrol": 1678,
      "Ġpot": 1679,
      "ĠStates": 1680,
      "iously": 1681,
      "Ġmilit": 1682,
      "Ġwent": 1683,
      "Ġyoung": 1684,
      "Ġeng": 1685,
      "artment": 1686,
      "Ġocc": 1687,
      "Ġequ": 1688,
      "\".": 1689,
      "iam": 1690,
      "Ġmembers": 1691,
      "ĠTe": 1692,
      "Ġcertain": 1693,
      "Ġwater": 1694,
      "ories": 1695,
      "Ġlikely": 1696,
      "une": 1697,
      "mber": 1698,
      "rop": 1699,
      "for": 1700,
      "ium": 1701,
      "Ġsw": 1702,
      "enn": 1703,
      "Ġsuccess": 1704,
      "Ġinvol": 1705,
      "Ġsex": 1706,
      "Ġsure": 1707,
      "Ġarg": 1708,
      "Ġant": 1709,
      "vert": 1710,
      "Ġshort": 1711,
      "ats": 1712,
      "Th": 1713,
      "50": 1714,
      "Ġside": 1715,
      "ended": 1716,
      "Ġexample": 1717,
      "Ġwithin": 1718,
      "Ġmonths": 1719,
      "Ġalong": 1720,
      "Ġdone": 1721,
      "empt": 1722,
      "ots": 1723,
      "ially": 1724,
      "Ġ]": 1725,
      "ĠState": 1726,
      "ubl": 1727,
      "Ġhour": 1728,
      "Ġvers": 1729,
      "Ġconcer": 1730,
      "ential": 1731,
      "Ġinvestig": 1732,
      "Ġamong": 1733,
      "Ġfuture": 1734,
      "Ġfight": 1735,
      "ball": 1736,
      "ĠNot": 1737,
      "ĠEx": 1738,
      "lf": 1739,
      "Ġcourse": 1740,
      "br": 1741,
      "Ġauthor": 1742,
      "Ġpriv": 1743,
      "Ġ=": 1744,
      "Ġonce": 1745,
      "Ġunderstand": 1746,
      "ulation": 1747,
      "Ġactiv": 1748,
      "ague": 1749,
      "ones": 1750,
      "ĠCo": 1751,
      "ggest": 1752,
      "Ġviol": 1753,
      "Ġpossible": 1754,
      "itive": 1755,
      "Ġprotect": 1756,
      "ortun": 1757,
      "Ġknown": 1758,
      "Ġpur": 1759,
      "uff": 1760,
      "Ġthought": 1761,
      "oci": 1762,
      "iting": 1763,
      "imate": 1764,
      "Ġcho": 1765,
      "19": 1766,
      "ĠPol": 1767,
      "Ġmeans": 1768,
      "ER": 1769,
      "ster": 1770,
      "nect": 1771,
      "ailable": 1772,
      "Ġproblem": 1773,
      "ĠHowever": 1774,
      "Ġwrit": 1775,
      "rew": 1776,
      "ĠHouse": 1777,
      "sh": 1778,
      "Ġacross": 1779,
      "ald": 1780,
      "ivid": 1781,
      "Ġnon": 1782,
      "Ġyet": 1783,
      "Ġasked": 1784,
      "ĠChrist": 1785,
      "Ġsuggest": 1786,
      "Ġlocal": 1787,
      "Ġfail": 1788,
      "gress": 1789,
      "Ġproduct": 1790,
      "ĠSen": 1791,
      "Ġorig": 1792,
      "Ġhold": 1793,
      "verage": 1794,
      "Ġreason": 1795,
      "Ġ/": 1796,
      "Ġmakes": 1797,
      "ederal": 1798,
      "Ġmus": 1799,
      "aged": 1800,
      "ĠUniversity": 1801,
      "Ġcommunity": 1802,
      "ourn": 1803,
      "por": 1804,
      "arm": 1805,
      "Ġ30": 1806,
      "Ġ2016": 1807,
      "ĠWhile": 1808,
      "inc": 1809,
      "ler": 1810,
      "Ġreported": 1811,
      "Ġothers": 1812,
      "Ġgiven": 1813,
      "ĠMin": 1814,
      "Ġbelieve": 1815,
      "ĠDemocrat": 1816,
      "itions": 1817,
      "Ġannoun": 1818,
      "ensive": 1819,
      "ĠFl": 1820,
      "orld": 1821,
      "Ġvideo": 1822,
      "IN": 1823,
      "Ġprob": 1824,
      "Ġstrong": 1825,
      "not": 1826,
      "Ġgetting": 1827,
      "Ġcut": 1828,
      ".,": 1829,
      "ances": 1830,
      "Ġident": 1831,
      "iron": 1832,
      "Ġlight": 1833,
      "Ġlim": 1834,
      "ober": 1835,
      "ĠPr": 1836,
      "ored": 1837,
      "urther": 1838,
      "iety": 1839,
      "Ġsent": 1840,
      "back": 1841,
      "Ġcond": 1842,
      "ĠX": 1843,
      "ĠDon": 1844,
      "Ġca": 1845,
      "Ġnational": 1846,
      "Ġi": 1847,
      "Ġnet": 1848,
      "Ġemploy": 1849,
      "Ġsour": 1850,
      "Ġcreat": 1851,
      "ashing": 1852,
      "Ġindust": 1853,
      "ĠCent": 1854,
      "use": 1855,
      "Ġhig": 1856,
      "Ġdeath": 1857,
      "Ġbased": 1858,
      "Ġsaf": 1859,
      "Ġstarted": 1860,
      "Ġclose": 1861,
      "orts": 1862,
      "Ġ16": 1863,
      "rest": 1864,
      "book": 1865,
      "lement": 1866,
      "11": 1867,
      "Ġhistory": 1868,
      "Ġ2015": 1869,
      "ĠSec": 1870,
      "Ġparty": 1871,
      "aster": 1872,
      "Ġ&": 1873,
      "ĠAmerica": 1874,
      "Ġlow": 1875,
      "Ġmom": 1876,
      "Ġavailable": 1877,
      "Ġaccount": 1878,
      "Ġseries": 1879,
      "selves": 1880,
      "my": 1881,
      "Ġ|": 1882,
      "Ġcomes": 1883,
      "Ġtrying": 1884,
      "Ġfollowing": 1885,
      "Ġissue": 1886,
      "Ġidea": 1887,
      "reed": 1888,
      "Ġlove": 1889,
      "Ġaccess": 1890,
      "ination": 1891,
      "Ġtoget": 1892,
      "Ġtogether": 1893,
      "Ġago": 1894,
      "Ġalmost": 1895,
      "ief": 1896,
      "ĠGer": 1897,
      "Ġfoc": 1898,
      "Ġpar": 1899,
      "ĠNe": 1900,
      "hers": 1901,
      "uly": 1902,
      "ilar": 1903,
      "Ġpract": 1904,
      "ability": 1905,
      "resent": 1906,
      "rael": 1907,
      "Ġisn": 1908,
      "Ġclear": 1909,
      "utes": 1910,
      "Ġ13": 1911,
      "itional": 1912,
      "Ġrul": 1913,
      "Ġtrad": 1914,
      "inton": 1915,
      "though": 1916,
      "ĠNorth": 1917,
      "Ġanal": 1918,
      "ograp": 1919,
      "?\"": 1920,
      "ged": 1921,
      "Ġfilm": 1922,
      "Ġris": 1923,
      "ument": 1924,
      "minist": 1925,
      "Ġ14": 1926,
      "erence": 1927,
      "ails": 1928,
      "Ġadded": 1929,
      "ien": 1930,
      "Ġsix": 1931,
      "Ġfav": 1932,
      "Ġimpro": 1933,
      "Ġexperience": 1934,
      "ĠGr": 1935,
      "Ġhalf": 1936,
      "ĠCanad": 1937,
      "ĠEng": 1938,
      "ef": 1939,
      "Ġlive": 1940,
      "ividual": 1941,
      "unch": 1942,
      "Ġanything": 1943,
      "nes": 1944,
      "Ġmiss": 1945,
      "Ġ2014": 1946,
      "Ġarea": 1947,
      "Ġpresent": 1948,
      "Ġlooking": 1949,
      "Ġcomplete": 1950,
      "ĠWar": 1951,
      "ustom": 1952,
      "ĠBro": 1953,
      "Ġsaying": 1954,
      "Ġbill": 1955,
      "ream": 1956,
      "rict": 1957,
      "rug": 1958,
      "Ġsecurity": 1959,
      "af": 1960,
      "Ġbad": 1961,
      "Ġvict": 1962,
      "ows": 1963,
      "cially": 1964,
      "ĠBrit": 1965,
      "Ġnear": 1966,
      "itter": 1967,
      "of": 1968,
      "Ġcourt": 1969,
      "uge": 1970,
      "Ġbene": 1971,
      "Ġphot": 1972,
      "Ġ17": 1973,
      "Ġmor": 1974,
      "Ġtaken": 1975,
      "Ġcompet": 1976,
      "arr": 1977,
      "ĠClinton": 1978,
      "rodu": 1979,
      "ators": 1980,
      "ĠMan": 1981,
      "raw": 1982,
      "eb": 1983,
      "Ġmilitary": 1984,
      "Ġentire": 1985,
      "aid": 1986,
      "ĠNational": 1987,
      "Ġbehind": 1988,
      "ĠAb": 1989,
      "ai": 1990,
      "ĠIsrael": 1991,
      "AT": 1992,
      "Ġaut": 1993,
      "ĠAf": 1994,
      "ĠDep": 1995,
      "Ġpubl": 1996,
      "wards": 1997,
      "ĠNow": 1998,
      "ĠJust": 1999,
      "ĠCal": 2000,
      "ĠSu": 2001,
      "Ġtry": 2002,
      "Ġer": 2003,
      "Ġthreat": 2004,
      "sy": 2005,
      "Ġmind": 2006,
      "Ġrather": 2007,
      "aper": 2008,
      "Ġface": 2009,
      "Ġdiscuss": 2010,
      "Ġindividual": 2011,
      "Ġpolicy": 2012,
      "Ġmult": 2013,
      "Ġproper": 2014,
      "Ġsingle": 2015,
      "ĠBy": 2016,
      "osp": 2017,
      "irc": 2018,
      "Ġfall": 2019,
      "Ġwanted": 2020,
      "play": 2021,
      "ĠInst": 2022,
      "Ġsum": 2023,
      "ĠHis": 2024,
      "Ġtot": 2025,
      "Ġquick": 2026,
      "Ġcompan": 2027,
      "Ġstudy": 2028,
      "ĠRes": 2029,
      "lling": 2030,
      "Ġz": 2031,
      "ĠThese": 2032,
      "30": 2033,
      "ĠWorld": 2034,
      "\",": 2035,
      "Ġmess": 2036,
      "Ġattempt": 2037,
      "atic": 2038,
      "Ġsomeone": 2039,
      "ĠDav": 2040,
      "ĠEd": 2041,
      "Ġbring": 2042,
      "ert": 2043,
      "Ġspecial": 2044,
      "Ġcult": 2045,
      "ĠÂ": 2046,
      "off": 2047,
      "ĠSome": 2048,
      "ids": 2049,
      "12": 2050,
      "ĠApp": 2051,
      "Ġredu": 2052,
      "ales": 2053,
      "ĠAust": 2054,
      "ĠGe": 2055,
      "ĠCity": 2056,
      "Ġpret": 2057,
      "Ġcomb": 2058,
      "Ġfood": 2059,
      "Ġland": 2060,
      "ĠBar": 2061,
      "Ġblack": 2062,
      "Ġkey": 2063,
      "Ġplayer": 2064,
      "Ġfront": 2065,
      "Ġtaking": 2066,
      "ashington": 2067,
      "olution": 2068,
      "elt": 2069,
      "par": 2070,
      "ĠPart": 2071,
      "ply": 2072,
      "ĠMy": 2073,
      "arter": 2074,
      "Ġfoot": 2075,
      "amed": 2076,
      "Ġbody": 2077,
      "Ġresearch": 2078,
      "ify": 2079,
      "rote": 2080,
      "Ġnothing": 2081,
      "icult": 2082,
      "viron": 2083,
      "ĠMe": 2084,
      "Ġprobably": 2085,
      "Ġspace": 2086,
      "Ġelse": 2087,
      "ches": 2088,
      "Ġexist": 2089,
      "Ġhowever": 2090,
      "ming": 2091,
      "Ġcou": 2092,
      "Ġsimilar": 2093,
      "Ġdescrib": 2094,
      "Ġconnect": 2095,
      "ĠJan": 2096,
      "ĠWashington": 2097,
      "Ġmass": 2098,
      "Ġcoming": 2099,
      "Ġjo": 2100,
      "Ġ2013": 2101,
      "ĠDo": 2102,
      "reme": 2103,
      "Ġconv": 2104,
      "lish": 2105,
      "ĠGu": 2106,
      "Ġrights": 2107,
      "Ġsignific": 2108,
      "Ġimm": 2109,
      "Ġdecision": 2110,
      "cing": 2111,
      "hy": 2112,
      "Ġbenef": 2113,
      "Ġeither": 2114,
      "aces": 2115,
      "Ġhouse": 2116,
      "Ġfurther": 2117,
      "Ġcoun": 2118,
      "Ġsus": 2119,
      "Ġpoints": 2120,
      "Ġtarg": 2121,
      ".)": 2122,
      "Ġear": 2123,
      "ully": 2124,
      "ĠSouth": 2125,
      "ana": 2126,
      "Ġmeas": 2127,
      "Ġfire": 2128,
      "Ġwa": 2129,
      "asing": 2130,
      "Ġfeat": 2131,
      "Ġban": 2132,
      "Ġrepl": 2133,
      "Ġenc": 2134,
      "Ġchall": 2135,
      "Ġ2012": 2136,
      "Ġservice": 2137,
      "Ġthird": 2138,
      "ively": 2139,
      "Ġcompanies": 2140,
      "Ġwrote": 2141,
      "Ġfig": 2142,
      "Ġstates": 2143,
      "Ġbegin": 2144,
      "Ġcreate": 2145,
      "ĠMed": 2146,
      "Ġissues": 2147,
      "ently": 2148,
      "sw": 2149,
      "Ġinfl": 2150,
      "Ġstudents": 2151,
      "Ġrelations": 2152,
      "Ġfield": 2153,
      "sc": 2154,
      "over": 2155,
      "Ġcompl": 2156,
      "ape": 2157,
      "irl": 2158,
      "ĠIntern": 2159,
      "Ġcand": 2160,
      "ĠAcc": 2161,
      "Ġ:": 2162,
      "Ġfederal": 2163,
      "ĠIr": 2164,
      "ĠGerman": 2165,
      "now": 2166,
      "ung": 2167,
      "Ġseems": 2168,
      "Ġsound": 2169,
      "pping": 2170,
      "Ġpick": 2171,
      "ried": 2172,
      "pecially": 2173,
      "Ġstri": 2174,
      "ON": 2175,
      "Ġwhole": 2176,
      "ĠChina": 2177,
      "Ġleaders": 2178,
      "itted": 2179,
      "Ġroom": 2180,
      "Ġsuper": 2181,
      "mb": 2182,
      "Ġexec": 2183,
      "aul": 2184,
      "uation": 2185,
      "ault": 2186,
      "pite": 2187,
      "Ġdue": 2188,
      "Ġstep": 2189,
      "Ġdoc": 2190,
      "ibility": 2191,
      "Ġofficials": 2192,
      "itch": 2193,
      "iday": 2194,
      "Ġbegan": 2195,
      "Ġstop": 2196,
      "ivil": 2197,
      "Ġwatch": 2198,
      "yn": 2199,
      "Ġrole": 2200,
      "15": 2201,
      "Ġeverything": 2202,
      "Ġtre": 2203,
      "Ġtra": 2204,
      "ilt": 2205,
      "ĠDr": 2206,
      "oon": 2207,
      "Ġcharacter": 2208,
      "Ġstatement": 2209,
      "Ġreleased": 2210,
      "Ġprovide": 2211,
      "Ġoffice": 2212,
      "go": 2213,
      "Ġdam": 2214,
      "Ġ198": 2215,
      "ĠAss": 2216,
      "Ġoutside": 2217,
      "Ġhimself": 2218,
      "Ġey": 2219,
      "Ġlab": 2220,
      "obal": 2221,
      "Ġmatter": 2222,
      "Ġfinal": 2223,
      "Ġstat": 2224,
      "Ġposition": 2225,
      "ades": 2226,
      "Ġ25": 2227,
      "Ġcustom": 2228,
      "Ġself": 2229,
      "Ġbecame": 2230,
      "Ġdevelopment": 2231,
      "Ġopt": 2232,
      "Ġtreat": 2233,
      "Ġener": 2234,
      "Ġitself": 2235,
      "Ġinit": 2236,
      "iod": 2237,
      "like": 2238,
      "attle": 2239,
      "Ġdou": 2240,
      "head": 2241,
      "vironment": 2242,
      "Ġcountries": 2243,
      "Ġrepresent": 2244,
      "Ġthemselves": 2245,
      "Ġneg": 2246,
      "Ġlarg": 2247,
      "arlier": 2248,
      "IS": 2249,
      "ery": 2250,
      "ring": 2251,
      "Ġhours": 2252,
      "ender": 2253,
      "Ġamount": 2254,
      "aced": 2255,
      "Ġhit": 2256,
      "Ġcontinue": 2257,
      "Ġgeneral": 2258,
      "Ġhope": 2259,
      "Ġaddress": 2260,
      "sec": 2261,
      "Ġspecific": 2262,
      "ĠNews": 2263,
      "Ġbreak": 2264,
      "Ġ100": 2265,
      "Ġaction": 2266,
      "Ġadminist": 2267,
      "ĠWill": 2268,
      "ogn": 2269,
      "Ġ2017": 2270,
      "Ġdifficult": 2271,
      "pro": 2272,
      "Ġgun": 2273,
      "Ġinterview": 2274,
      "Ġsignificant": 2275,
      "Ġground": 2276,
      "Ġabove": 2277,
      "amer": 2278,
      "Ġevidence": 2279,
      "lim": 2280,
      "ĠEn": 2281,
      "Ġprofess": 2282,
      "Ġgroups": 2283,
      "Ġcommon": 2284,
      "Ġsimply": 2285,
      "ili": 2286,
      "lam": 2287,
      "Ġrespons": 2288,
      "Ġmusic": 2289,
      "Ġdrug": 2290,
      "Ġwasn": 2291,
      "Ġrad": 2292,
      "Ġagree": 2293,
      "ĠMus": 2294,
      "Ġtrue": 2295,
      "ĠCar": 2296,
      "Ġrunning": 2297,
      "umb": 2298,
      "Ġappe": 2299,
      "Ġneeds": 2300,
      "Ġtyp": 2301,
      "iddle": 2302,
      "Ġeveryone": 2303,
      "oid": 2304,
      "ĠWest": 2305,
      "Ġshows": 2306,
      "Ġball": 2307,
      "Ġneeded": 2308,
      "Ġdom": 2309,
      "Ġbuilding": 2310,
      "Ġlat": 2311,
      "ĠPe": 2312,
      "ĠSte": 2313,
      "ĠPer": 2314,
      "ogle": 2315,
      "ĠFace": 2316,
      "Ġwoman": 2317,
      "BC": 2318,
      "Ġinj": 2319,
      "eks": 2320,
      "Ġred": 2321,
      "Ġgen": 2322,
      "Ã©": 2323,
      "Ġdest": 2324,
      "ĠWhite": 2325,
      "reg": 2326,
      "ribut": 2327,
      "ĠCong": 2328,
      "Ġindustry": 2329,
      "Ġinclude": 2330,
      "ĠTwitter": 2331,
      "Ġdeep": 2332,
      "Ġbillion": 2333,
      "Ġversion": 2334,
      "Ġlegal": 2335,
      "Ġ50": 2336,
      "Ġtem": 2337,
      "Ġrelease": 2338,
      "Ġexc": 2339,
      "Ġsense": 2340,
      "ask": 2341,
      "Ġbelow": 2342,
      "ĠKe": 2343,
      "ournal": 2344,
      "Ġsaw": 2345,
      "Ġwhite": 2346,
      "ĠOct": 2347,
      "Ġpretty": 2348,
      "angu": 2349,
      "Ġquite": 2350,
      "Ġcandid": 2351,
      "Ġplayed": 2352,
      "Ġalleg": 2353,
      "Ġfriends": 2354,
      "istic": 2355,
      "Ġmag": 2356,
      "Ġenergy": 2357,
      "right": 2358,
      "Ġmot": 2359,
      "ival": 2360,
      "Ġphys": 2361,
      "lev": 2362,
      "Ġlate": 2363,
      "Ġhom": 2364,
      "ift": 2365,
      "epend": 2366,
      "Ġabs": 2367,
      "osing": 2368,
      "atur": 2369,
      "Ġap": 2370,
      "Ġlost": 2371,
      "ĠMich": 2372,
      "Ġplaying": 2373,
      "oring": 2374,
      "ser": 2375,
      "fully": 2376,
      "AR": 2377,
      "Ġcharg": 2378,
      "Ġespecially": 2379,
      "Ġanim": 2380,
      "Ġvote": 2381,
      "Ġtrack": 2382,
      "Ġelection": 2383,
      "Ġjud": 2384,
      "ĠAug": 2385,
      "Ġeconomic": 2386,
      "Ġrecently": 2387,
      "Ġperiod": 2388,
      "Ġ24": 2389,
      "Ġinstead": 2390,
      "isc": 2391,
      "body": 2392,
      "AN": 2393,
      "where": 2394,
      "ĠFacebook": 2395,
      "Ġhost": 2396,
      "Ġcop": 2397,
      "ĠHar": 2398,
      "Ġopportun": 2399,
      "ĠMarch": 2400,
      "Ġsuff": 2401,
      "ĠGoogle": 2402,
      "ĠSm": 2403,
      "Ġdeter": 2404,
      "ij": 2405,
      "ager": 2406,
      "Ġaccept": 2407,
      "Ġweeks": 2408,
      "Ġforward": 2409,
      "ĠSept": 2410,
      "medi": 2411,
      "ĠRepublican": 2412,
      "Ġrelig": 2413,
      "bo": 2414,
      "Ġlonger": 2415,
      "16": 2416,
      "Ġsoon": 2417,
      "Ġdecl": 2418,
      "Ġbar": 2419,
      "irt": 2420,
      "Ġchanges": 2421,
      "ental": 2422,
      "ĠDepartment": 2423,
      "ote": 2424,
      "14": 2425,
      "Ġlo": 2426,
      "Ġsite": 2427,
      "Ġeduc": 2428,
      "Ġple": 2429,
      "Ġpain": 2430,
      "Ġhigher": 2431,
      "Ġmoment": 2432,
      "Ġep": 2433,
      "ancial": 2434,
      "OR": 2435,
      "ĠEl": 2436,
      "ners": 2437,
      "Ġpie": 2438,
      "ĠAccording": 2439,
      "irm": 2440,
      "Ġshoot": 2441,
      "itting": 2442,
      "den": 2443,
      "Ġconsum": 2444,
      "ĠAct": 2445,
      "Ġonline": 2446,
      "Ġled": 2447,
      "yle": 2448,
      "ached": 2449,
      "ĠMore": 2450,
      "Ġcirc": 2451,
      "ique": 2452,
      "Ġobject": 2453,
      "me": 2454,
      "alt": 2455,
      "ights": 2456,
      "Ġwrong": 2457,
      "ĠOff": 2458,
      "cil": 2459,
      "Ġpred": 2460,
      "lege": 2461,
      "Ġwebs": 2462,
      "Ġconsider": 2463,
      "ĠHere": 2464,
      "Ġcred": 2465,
      "fer": 2466,
      "oke": 2467,
      "Ġ2011": 2468,
      "Ġfocus": 2469,
      "Ġrisk": 2470,
      "ĠJune": 2471,
      "Ġreview": 2472,
      "ularly": 2473,
      "Ġparent": 2474,
      "overed": 2475,
      "Ġtit": 2476,
      "Ġstru": 2477,
      "Ġcontract": 2478,
      ".'": 2479,
      "Ġheld": 2480,
      "Ġworks": 2481,
      "Ġshare": 2482,
      "iding": 2483,
      "Ġreve": 2484,
      "ĠEm": 2485,
      "Ġpotential": 2486,
      "Ġwords": 2487,
      "Ġrev": 2488,
      "Ġservices": 2489,
      "Ġwalk": 2490,
      "ĠApr": 2491,
      "ĠCongress": 2492,
      "Ġlaws": 2493,
      "ĠSyri": 2494,
      "ole": 2495,
      "ĠHill": 2496,
      "arc": 2497,
      "time": 2498,
      "Ġ)": 2499,
      "Ġaud": 2500,
      "ĠRed": 2501,
      "Ġdi": 2502,
      "oe": 2503,
      "Ġstay": 2504,
      "Ġvalue": 2505,
      "ĠGod": 2506,
      "Ġcheck": 2507,
      "cial": 2508,
      "Ġblock": 2509,
      "hel": 2510,
      "Ġage": 2511,
      "Ġce": 2512,
      "Ġarticle": 2513,
      "ees": 2514,
      "Ġfavor": 2515,
      "Ġste": 2516,
      "Ġpopular": 2517,
      "Ġprim": 2518,
      "ilities": 2519,
      "onse": 2520,
      "AS": 2521,
      "ript": 2522,
      "ateg": 2523,
      "ES": 2524,
      "ients": 2525,
      "itution": 2526,
      "Ġcomput": 2527,
      "lear": 2528,
      "uary": 2529,
      "apan": 2530,
      "asons": 2531,
      "Ġpersonal": 2532,
      "Ġwind": 2533,
      "val": 2534,
      "Ġapplic": 2535,
      "fect": 2536,
      "ĠJuly": 2537,
      "hod": 2538,
      "ĠDes": 2539,
      "Ġresults": 2540,
      "Ġansw": 2541,
      "ĠAustral": 2542,
      "ude": 2543,
      "lt": 2544,
      "haps": 2545,
      "17": 2546,
      "Ġtotal": 2547,
      "Ġanyone": 2548,
      "Ġsold": 2549,
      "13": 2550,
      "Ġrate": 2551,
      "Ġnecess": 2552,
      "ns": 2553,
      "Ġvol": 2554,
      "ham": 2555,
      "ĠMond": 2556,
      "Ġden": 2557,
      "ĠSw": 2558,
      "Ġminutes": 2559,
      "rel": 2560,
      "Ġtechnology": 2561,
      "Ġrespect": 2562,
      "Ġscient": 2563,
      "ĠAg": 2564,
      "Ġdead": 2565,
      "Ġexpress": 2566,
      "Ġsurpr": 2567,
      "anger": 2568,
      "Ġtarget": 2569,
      "Ġanti": 2570,
      "Ġhy": 2571,
      "Ġearlier": 2572,
      "Ġcomment": 2573,
      "iter": 2574,
      "key": 2575,
      "ule": 2576,
      "Ġcreated": 2577,
      "Ġproblems": 2578,
      "aging": 2579,
      "aut": 2580,
      "isl": 2581,
      "Ġreceived": 2582,
      "ĠPal": 2583,
      "Ġenvironment": 2584,
      "ĠFriday": 2585,
      "Ġbase": 2586,
      "Ġforce": 2587,
      "Ġexpected": 2588,
      "Ġannounced": 2589,
      "atives": 2590,
      "omm": 2591,
      "Ġport": 2592,
      "Ġprivate": 2593,
      "action": 2594,
      "na": 2595,
      "Ġquestions": 2596,
      "ends": 2597,
      "Ġimpact": 2598,
      "ĠCont": 2599,
      "Ġfunction": 2600,
      "Ġcannot": 2601,
      "Ġincrease": 2602,
      "Ġgoal": 2603,
      "Ġways": 2604,
      "Ġupd": 2605,
      "duct": 2606,
      "ires": 2607,
      "uel": 2608,
      "ittee": 2609,
      "aving": 2610,
      "Ġ197": 2611,
      "Ġeasy": 2612,
      "ĠCour": 2613,
      "ĠApril": 2614,
      "ĠTues": 2615,
      "reet": 2616,
      "Ġterror": 2617,
      "Ġshot": 2618,
      "Ġcapt": 2619,
      "aterial": 2620,
      "ĠAmericans": 2621,
      "iple": 2622,
      "Ġinvolved": 2623,
      "Ġcivil": 2624,
      "ĠJapan": 2625,
      "itten": 2626,
      "urch": 2627,
      "hern": 2628,
      "ples": 2629,
      "Ġspeak": 2630,
      "Ġexecut": 2631,
      "18": 2632,
      "Ġet": 2633,
      "ĠEven": 2634,
      "ĠTuesday": 2635,
      "ĠMonday": 2636,
      "itiz": 2637,
      "Ġnearly": 2638,
      "Ġoriginal": 2639,
      "Ġmodel": 2640,
      "Ġcases": 2641,
      "Ġcode": 2642,
      "Ġrelationship": 2643,
      "Ġlangu": 2644,
      "Ġsen": 2645,
      "Ġinternational": 2646,
      "ĠCount": 2647,
      "Ġexact": 2648,
      "okes": 2649,
      "Ġdiv": 2650,
      "lex": 2651,
      "Ġ2010": 2652,
      "Ġliving": 2653,
      "icro": 2654,
      "Ġleave": 2655,
      "eter": 2656,
      "Ġstaff": 2657,
      "ĠGeor": 2658,
      "ĠDavid": 2659,
      "ellig": 2660,
      "Ġaverage": 2661,
      "25": 2662,
      "hood": 2663,
      "ops": 2664,
      "lled": 2665,
      "____": 2666,
      "Ġkilled": 2667,
      "ĠWed": 2668,
      "onst": 2669,
      "put": 2670,
      "Ġpack": 2671,
      "Ġestab": 2672,
      "ĠPost": 2673,
      "ises": 2674,
      "Ġnation": 2675,
      "Ġbroad": 2676,
      "atural": 2677,
      "Ġbecom": 2678,
      "ĠHer": 2679,
      "Ġarrest": 2680,
      "Ġcoll": 2681,
      "che": 2682,
      "Ġresponse": 2683,
      "ctor": 2684,
      "Ġinside": 2685,
      "Ġterms": 2686,
      "Ġsoft": 2687,
      "Ġcal": 2688,
      "ĠPaul": 2689,
      "ĠSan": 2690,
      "ĠCor": 2691,
      "omb": 2692,
      "Ġur": 2693,
      "ĠGl": 2694,
      "Ġcontent": 2695,
      "Ġfans": 2696,
      "ĠFeb": 2697,
      "Ġ40": 2698,
      "Ġreports": 2699,
      "Ġassoci": 2700,
      "Ġclub": 2701,
      "Ġglobal": 2702,
      "Ġworth": 2703,
      "ĠCalif": 2704,
      "ams": 2705,
      "eed": 2706,
      "Ġworkers": 2707,
      "Ġfinancial": 2708,
      "Ġimmedi": 2709,
      "Ġtype": 2710,
      "Ġheart": 2711,
      "Ġsubject": 2712,
      "Ġworked": 2713,
      "Ġadm": 2714,
      "Ġusers": 2715,
      "ĠRussia": 2716,
      "ĠSch": 2717,
      "Ġpublished": 2718,
      "bor": 2719,
      "Ġ@": 2720,
      "rought": 2721,
      "Ġsource": 2722,
      "ĠFirst": 2723,
      "ging": 2724,
      "Ġdirector": 2725,
      "cast": 2726,
      "ites": 2727,
      "ky": 2728,
      "Ġability": 2729,
      "ests": 2730,
      "Ġroad": 2731,
      "izing": 2732,
      "ael": 2733,
      "oto": 2734,
      "joy": 2735,
      "Ġrespond": 2736,
      "Ġoil": 2737,
      "Ġphone": 2738,
      "ĠSund": 2739,
      "ech": 2740,
      "ĠIslam": 2741,
      "Ġweap": 2742,
      "Ġmother": 2743,
      "Ġprice": 2744,
      "Ġlack": 2745,
      "Ġinflu": 2746,
      "ovember": 2747,
      "ological": 2748,
      "ray": 2749,
      "Ġchance": 2750,
      "Ġtou": 2751,
      "Ġtakes": 2752,
      "This": 2753,
      "Ġcell": 2754,
      "Ġbuy": 2755,
      "ĠJanuary": 2756,
      "Ġsqu": 2757,
      "Ġcollect": 2758,
      "Ġmid": 2759,
      "Ġdefin": 2760,
      "Ġgave": 2761,
      "Ġlog": 2762,
      "Ġrequire": 2763,
      "Ġemer": 2764,
      "ips": 2765,
      "Ġfem": 2766,
      "Ġforeign": 2767,
      "Ġâ": 2768,
      "vertise": 2769,
      "ĠAugust": 2770,
      "Ġhappened": 2771,
      "ĠQu": 2772,
      "osition": 2773,
      "ino": 2774,
      "60": 2775,
      "bit": 2776,
      "ĠSpe": 2777,
      "clus": 2778,
      "Ġdecided": 2779,
      "Ġoffer": 2780,
      "ĠWednes": 2781,
      "Ġindic": 2782,
      "Ġnetwork": 2783,
      "ĠNovember": 2784,
      "Ġgoes": 2785,
      "Ġmaterial": 2786,
      "Ġbur": 2787,
      "Ġwhose": 2788,
      "ĠSeptember": 2789,
      "Ġmeeting": 2790,
      "Ġparticip": 2791,
      "Ġplans": 2792,
      "Ġarri": 2793,
      "ĠTV": 2794,
      "Ġsituation": 2795,
      "EN": 2796,
      "ĠAng": 2797,
      "Ġgirl": 2798,
      "Ġtal": 2799,
      "Ġcurrently": 2800,
      "Ġrecogn": 2801,
      "Ġill": 2802,
      "Ġmember": 2803,
      "ĠWednesday": 2804,
      "unt": 2805,
      "ĠEuropean": 2806,
      "Ġlives": 2807,
      "aur": 2808,
      "Ġaffect": 2809,
      "ought": 2810,
      "aled": 2811,
      "ese": 2812,
      "Ġpict": 2813,
      "Ġcapital": 2814,
      "Ġturned": 2815,
      "based": 2816,
      "oved": 2817,
      "Ġmis": 2818,
      "In": 2819,
      "Ġregard": 2820,
      "Ġ21": 2821,
      "Ġbank": 2822,
      "ĠCourt": 2823,
      "Ġstore": 2824,
      "Ġintrodu": 2825,
      "Ġareas": 2826,
      "rain": 2827,
      "Ġcy": 2828,
      "ills": 2829,
      "Ġteams": 2830,
      "istan": 2831,
      "Ġord": 2832,
      "Ġ22": 2833,
      "Ġevents": 2834,
      "ĠOf": 2835,
      "ĠBritish": 2836,
      "Ġ*": 2837,
      "Ġnorm": 2838,
      "Ġadministration": 2839,
      "Ġsimple": 2840,
      "ĠThurs": 2841,
      "ruction": 2842,
      "ĠOctober": 2843,
      "Ġvia": 2844,
      "Ġapproach": 2845,
      "Ġfelt": 2846,
      "Ġhuge": 2847,
      "Ġengine": 2848,
      "Ġcouple": 2849,
      "ĠAfric": 2850,
      "Ġcareer": 2851,
      "Ġnumbers": 2852,
      "Ġperformance": 2853,
      "Ġtrade": 2854,
      "ctions": 2855,
      "Ġemail": 2856,
      "ety": 2857,
      "Ġrace": 2858,
      "He": 2859,
      "ĠCaliforn": 2860,
      "ĠThursday": 2861,
      "Ġmethod": 2862,
      "Ġpage": 2863,
      "ps": 2864,
      "order": 2865,
      "Ġquickly": 2866,
      "mon": 2867,
      "Ġwebsite": 2868,
      "ĠSunday": 2869,
      "Ġeconomy": 2870,
      "oud": 2871,
      "Ġfather": 2872,
      "atory": 2873,
      "Ġpers": 2874,
      "Ġhon": 2875,
      "Ġtool": 2876,
      "Ġsecret": 2877,
      "Ġimprove": 2878,
      "Ġboy": 2879,
      "Ġround": 2880,
      "apt": 2881,
      "Ġvictim": 2882,
      "Ġlower": 2883,
      "Ġbuilt": 2884,
      "Ġthous": 2885,
      "ructure": 2886,
      "St": 2887,
      "Ġfre": 2888,
      "Ġallowed": 2889,
      "ĠCanada": 2890,
      "Ġwants": 2891,
      "Ġtext": 2892,
      "ĠBlack": 2893,
      "Ġtown": 2894,
      "Ġheard": 2895,
      "Ġloss": 2896,
      "Ġpoll": 2897,
      "Ġrepe": 2898,
      "rown": 2899,
      "ĠIS": 2900,
      "Ġdig": 2901,
      "Ġlegisl": 2902,
      "Ġ2008": 2903,
      "load": 2904,
      "chie": 2905,
      "Ġtravel": 2906,
      "Ġ+": 2907,
      "Ġenjoy": 2908,
      "Ġknew": 2909,
      "Ġincluded": 2910,
      "Ġpull": 2911,
      "Ġproduction": 2912,
      "oor": 2913,
      "Ġwide": 2914,
      "het": 2915,
      "ume": 2916,
      "avy": 2917,
      "ĠCalifornia": 2918,
      "Ġhop": 2919,
      "ĠThen": 2920,
      "ĠSenate": 2921,
      "Ġhands": 2922,
      "ĠInt": 2923,
      "estern": 2924,
      "ened": 2925,
      "Ġspent": 2926,
      "Ġbehav": 2927,
      "Ġ{": 2928,
      "ett": 2929,
      "orters": 2930,
      "ĠMark": 2931,
      "iction": 2932,
      "uses": 2933,
      "oo": 2934,
      "Ġboard": 2935,
      "Ġsepar": 2936,
      "Ġens": 2937,
      "Ġmovement": 2938,
      "Ġcover": 2939,
      "face": 2940,
      "Ġbi": 2941,
      "You": 2942,
      "Ġmatch": 2943,
      "gest": 2944,
      "Ġvisit": 2945,
      "force": 2946,
      "ĠRussian": 2947,
      "ences": 2948,
      "aily": 2949,
      "Ġgets": 2950,
      "Ġparticular": 2951,
      "Ġneigh": 2952,
      "ĠFin": 2953,
      "Ġattention": 2954,
      "Ġforces": 2955,
      "ĠUK": 2956,
      "Ġgrowth": 2957,
      "ze": 2958,
      "ĠPat": 2959,
      "ÂŃ": 2960,
      "ĠKore": 2961,
      "Ġtried": 2962,
      "de": 2963,
      "Ġperfect": 2964,
      "fl": 2965,
      "Ġfear": 2966,
      "Ġpopulation": 2967,
      "cies": 2968,
      "oph": 2969,
      "Ġbrought": 2970,
      "sequ": 2971,
      "Ġcause": 2972,
      "ceed": 2973,
      "anks": 2974,
      "cember": 2975,
      "][": 2976,
      "rect": 2977,
      "Ġbud": 2978,
      "Ġ23": 2979,
      "agement": 2980,
      "Ġvarious": 2981,
      "ĠPark": 2982,
      "ession": 2983,
      "ibly": 2984,
      "arily": 2985,
      "ĠFrom": 2986,
      "Ġreach": 2987,
      "Ġleader": 2988,
      "vil": 2989,
      "Ġlooks": 2990,
      "Ġvo": 2991,
      "raq": 2992,
      "down": 2993,
      "hic": 2994,
      "alled": 2995,
      "Ġfell": 2996,
      "Ġsett": 2997,
      "ĠIran": 2998,
      "ĠDonald": 2999,
      "yond": 3000,
      "Ġrules": 3001,
      "idents": 3002,
      "undred": 3003,
      "Ġmention": 3004,
      "idered": 3005,
      "Ġprevious": 3006,
      "hold": 3007,
      "Ġimage": 3008,
      "ening": 3009,
      "Ġfair": 3010,
      "Ġtraining": 3011,
      "field": 3012,
      "lin": 3013,
      "ĠPar": 3014,
      "Ġmorning": 3015,
      "Ġcitiz": 3016,
      "Ġmach": 3017,
      "ĠTex": 3018,
      "Ġcontact": 3019,
      "urd": 3020,
      "Ġprep": 3021,
      "cle": 3022,
      "ĠParty": 3023,
      "ledge": 3024,
      "ĠIndia": 3025,
      "!\"": 3026,
      "Wh": 3027,
      "Ġindepend": 3028,
      "ecause": 3029,
      "Ġprogress": 3030,
      "Ġexam": 3031,
      "raz": 3032,
      "Ġlink": 3033,
      "Ġdemand": 3034,
      "ĠDecember": 3035,
      "rim": 3036,
      "ĠKing": 3037,
      "ma": 3038,
      "aker": 3039,
      "Ġrac": 3040,
      "Ġess": 3041,
      "Ġlatest": 3042,
      "Ġstrugg": 3043,
      "elligence": 3044,
      "ĠIraq": 3045,
      "Ġsong": 3046,
      "Ġreb": 3047,
      "Ġhot": 3048,
      "Ġupon": 3049,
      "Ġliber": 3050,
      "ĠStreet": 3051,
      "ĠTimes": 3052,
      "ondon": 3053,
      "inks": 3054,
      "vent": 3055,
      "sych": 3056,
      "Ġaddition": 3057,
      "Ġtalking": 3058,
      "Ġhor": 3059,
      "ED": 3060,
      "40": 3061,
      "ges": 3062,
      "ification": 3063,
      "--------": 3064,
      "Ġsexual": 3065,
      "ĠMcC": 3066,
      "Ġsearch": 3067,
      "Ġcritic": 3068,
      "come": 3069,
      "Ġinvestigation": 3070,
      "imately": 3071,
      "ĠCons": 3072,
      "Ġconduct": 3073,
      "Ġ2009": 3074,
      "Ġconsidered": 3075,
      "ĠJew": 3076,
      "Ġmedical": 3077,
      "Ġfast": 3078,
      "iant": 3079,
      "ĠSatur": 3080,
      "Ġfeatures": 3081,
      "Ġsize": 3082,
      "aries": 3083,
      "ĠCenter": 3084,
      "Ġjobs": 3085,
      "Ġachie": 3086,
      "Ġsn": 3087,
      "iers": 3088,
      "Ġund": 3089,
      "ĠSand": 3090,
      "unk": 3091,
      "Ġparents": 3092,
      "Ġ...": 3093,
      "ĠUp": 3094,
      "Ġwond": 3095,
      "ĠChe": 3096,
      "asc": 3097,
      "ĠCounty": 3098,
      "ĠTur": 3099,
      "Ġdoll": 3100,
      "ĠNet": 3101,
      "Ġcoach": 3102,
      "uments": 3103,
      "Ġcard": 3104,
      "Ġslow": 3105,
      "Ġspeed": 3106,
      "Ġlevels": 3107,
      "Ġprior": 3108,
      "Ġlanguage": 3109,
      "ysis": 3110,
      "Ġpaper": 3111,
      "Ġincreasing": 3112,
      "igr": 3113,
      "bed": 3114,
      "Ġwritten": 3115,
      "Ġhear": 3116,
      "Ġpen": 3117,
      "ani": 3118,
      "pir": 3119,
      "ĠSoc": 3120,
      "Ġsort": 3121,
      "ĠPolice": 3122,
      "rast": 3123,
      "uf": 3124,
      "ament": 3125,
      "ĠGener": 3126,
      "ground": 3127,
      "Ġsafe": 3128,
      "Ġeffort": 3129,
      "ĠLab": 3130,
      "ĠRom": 3131,
      "ĠSaturday": 3132,
      "ny": 3133,
      "Ġspokes": 3134,
      "idge": 3135,
      "Ġprevent": 3136,
      "Ġseek": 3137,
      "ĠLondon": 3138,
      "Ġsystems": 3139,
      "Ġdraw": 3140,
      "Ġson": 3141,
      "ruary": 3142,
      "Ġclaims": 3143,
      "Ġextreme": 3144,
      "Ġserious": 3145,
      "ĠMuslim": 3146,
      "Ġeight": 3147,
      "uk": 3148,
      "Ġinn": 3149,
      "Ġplat": 3150,
      "Ġviolence": 3151,
      "room": 3152,
      "ĠLet": 3153,
      "Ġconserv": 3154,
      "Ġcompletely": 3155,
      "arth": 3156,
      "Ġbox": 3157,
      "ĠEast": 3158,
      "ĠOther": 3159,
      "Ġmajority": 3160,
      "Ġsurve": 3161,
      "Ġseven": 3162,
      "Ġlearn": 3163,
      "uit": 3164,
      "ico": 3165,
      "reedom": 3166,
      "ĠMor": 3167,
      "ĠSer": 3168,
      "Ġ28": 3169,
      "ĠJames": 3170,
      "Ġattacks": 3171,
      "bl": 3172,
      "ĠâĢ": 3173,
      "ĠMichael": 3174,
      "Ġsens": 3175,
      "99": 3176,
      "Ġgas": 3177,
      "ĠRead": 3178,
      "Ġrequired": 3179,
      "Ġscreen": 3180,
      "vertisement": 3181,
      "Ġregul": 3182,
      "Ġparticularly": 3183,
      "Ġjournal": 3184,
      "ining": 3185,
      "ishing": 3186,
      "Ġbott": 3187,
      "Ġconc": 3188,
      "ĠSim": 3189,
      "Ġscience": 3190,
      "Ġopportunity": 3191,
      "Ġsociety": 3192,
      "Ġdespite": 3193,
      "Ġbiggest": 3194,
      "Ġsurv": 3195,
      "IT": 3196,
      "Ġcross": 3197,
      "ĠCoun": 3198,
      "ĠFebruary": 3199,
      "AC": 3200,
      "Ġobv": 3201,
      "isions": 3202,
      "Ġrange": 3203,
      "anced": 3204,
      "Ġdoub": 3205,
      "Ġhistor": 3206,
      "ĠTH": 3207,
      "entially": 3208,
      "ĠMost": 3209,
      "Ġanswer": 3210,
      "Ġdocument": 3211,
      "aming": 3212,
      "Ġpractice": 3213,
      "oses": 3214,
      "Ġextra": 3215,
      "ĠBill": 3216,
      "Ġdefense": 3217,
      "If": 3218,
      "Ġexcept": 3219,
      "Ġremain": 3220,
      "Ġmessage": 3221,
      "Ġguy": 3222,
      "Ġexactly": 3223,
      "ĠRepublicans": 3224,
      "Ġnatural": 3225,
      "Ġcommunic": 3226,
      "ources": 3227,
      "rench": 3228,
      "erc": 3229,
      "Ġmodern": 3230,
      "Ġhundred": 3231,
      "Ġinteresting": 3232,
      "Ġcrim": 3233,
      "Ġsometimes": 3234,
      "Ġ27": 3235,
      "nces": 3236,
      "ĠâĢ¦": 3237,
      "Ġaren": 3238,
      "Ġ26": 3239,
      "Ġpaid": 3240,
      "ĠSince": 3241,
      "ibr": 3242,
      "Ġmiddle": 3243,
      "lying": 3244,
      "Ġexperien": 3245,
      "ĠPlay": 3246,
      "Ġcertainly": 3247,
      "Ġquarter": 3248,
      "hib": 3249,
      "OS": 3250,
      "Ġclimate": 3251,
      "uclear": 3252,
      "Ġblood": 3253,
      "Ġleading": 3254,
      "inese": 3255,
      "utions": 3256,
      "AL": 3257,
      "Ġcarry": 3258,
      "Ġdescribed": 3259,
      "light": 3260,
      "Ġsummer": 3261,
      "Ġfinally": 3262,
      "Ġrout": 3263,
      "ension": 3264,
      "There": 3265,
      "ĠDemocratic": 3266,
      "Ġtable": 3267,
      "Ġnamed": 3268,
      "ĠWhy": 3269,
      "ida": 3270,
      "Ġterm": 3271,
      "illed": 3272,
      "Ġlooked": 3273,
      "Ġquality": 3274,
      "ari": 3275,
      "Ġstories": 3276,
      "ha": 3277,
      "Ġstuff": 3278,
      "ĠMon": 3279,
      "Ġshowed": 3280,
      "OP": 3281,
      "Ġdemonst": 3282,
      "Ġult": 3283,
      "Ġremains": 3284,
      "Ġdro": 3285,
      "Ġoccur": 3286,
      "Ġimag": 3287,
      "akers": 3288,
      "ĠTexas": 3289,
      "ously": 3290,
      "Ġmovie": 3291,
      "ĠMany": 3292,
      "Ġones": 3293,
      "Ġeducation": 3294,
      "eth": 3295,
      "aves": 3296,
      "Ġchief": 3297,
      "Ġaw": 3298,
      "Ġpoor": 3299,
      "Ġconvers": 3300,
      "Ġprison": 3301,
      "eff": 3302,
      "Ġmob": 3303,
      "Ġstarting": 3304,
      "Ġprovided": 3305,
      "Ġregion": 3306,
      "uing": 3307,
      "Ġofficers": 3308,
      "IC": 3309,
      "icks": 3310,
      "Ġchanged": 3311,
      "ĠLast": 3312,
      "aught": 3313,
      "ago": 3314,
      "ĠDis": 3315,
      "Ġproducts": 3316,
      "200": 3317,
      "Ġcomments": 3318,
      "Ġlay": 3319,
      "Ġthinking": 3320,
      "Ġgrowing": 3321,
      "pper": 3322,
      "Ġdetails": 3323,
      "Ġpan": 3324,
      "Ġcosts": 3325,
      "ospital": 3326,
      "oul": 3327,
      "Ġcontinued": 3328,
      "atter": 3329,
      "Ġwriting": 3330,
      "ĠRec": 3331,
      "Ġstar": 3332,
      "Ġassist": 3333,
      "Ġgiving": 3334,
      "ĠEvery": 3335,
      "Ġdanger": 3336,
      "Ġmaintain": 3337,
      "enge": 3338,
      "Ġmill": 3339,
      "Ġefforts": 3340,
      "Ġparts": 3341,
      "Ġvoters": 3342,
      "Ġpurch": 3343,
      "inary": 3344,
      "ĠLeague": 3345,
      "Ġpurp": 3346,
      "ĠJack": 3347,
      "ĠChinese": 3348,
      "Ġuser": 3349,
      "Ġwouldn": 3350,
      "Ġmultiple": 3351,
      "Ġcalls": 3352,
      "Ġalone": 3353,
      "Ġpath": 3354,
      "ĠApple": 3355,
      "Ġsat": 3356,
      "Ġfix": 3357,
      "mp": 3358,
      "Ġculture": 3359,
      "ĠRich": 3360,
      "ables": 3361,
      "Ġdied": 3362,
      "anch": 3363,
      "Ġready": 3364,
      "fort": 3365,
      "Ġspeech": 3366,
      "ĠÐ": 3367,
      "Ġtowards": 3368,
      "ĠWilliam": 3369,
      "ĠMart": 3370,
      "Ġbeyond": 3371,
      "Ġincreased": 3372,
      "oper": 3373,
      "Ġperhaps": 3374,
      "ĠOver": 3375,
      "Ġalthough": 3376,
      "Ġwrite": 3377,
      "Ġreading": 3378,
      "Ġstudent": 3379,
      "Ġrequest": 3380,
      "ĠIndian": 3381,
      "ĠBo": 3382,
      "Ġkids": 3383,
      "Ġcele": 3384,
      "ĠAdd": 3385,
      "22": 3386,
      "Ġconcept": 3387,
      "arian": 3388,
      "set": 3389,
      "Ġstandard": 3390,
      "ĠGet": 3391,
      "ux": 3392,
      "Ġplatform": 3393,
      "Ġusually": 3394,
      "Ġscene": 3395,
      "Ġavoid": 3396,
      "Ġspot": 3397,
      "Ġcenter": 3398,
      "==": 3399,
      "Ġthroughout": 3400,
      "Ġconsist": 3401,
      "Ġhous": 3402,
      "Ġagency": 3403,
      "Ġdamage": 3404,
      "inated": 3405,
      "Ġdog": 3406,
      "Ġincludes": 3407,
      "aly": 3408,
      "Ġcorpor": 3409,
      "ĠDemocrats": 3410,
      "Ġreality": 3411,
      "ĠMinister": 3412,
      "ĠBel": 3413,
      "itute": 3414,
      "Ġil": 3415,
      "ban": 3416,
      "Ġimmediately": 3417,
      "Ġsubst": 3418,
      "Ġselect": 3419,
      "Ġdirectly": 3420,
      "omp": 3421,
      "icated": 3422,
      "Ġfootball": 3423,
      "Ġtur": 3424,
      "Ġguys": 3425,
      "Ġwife": 3426,
      "ĠOur": 3427,
      "Ġimplement": 3428,
      "Ġcouldn": 3429,
      "Ġeffects": 3430,
      "Ġchalleng": 3431,
      "zz": 3432,
      "Ġten": 3433,
      "Ġresearc": 3434,
      "Ġsle": 3435,
      "Ġclos": 3436,
      "coin": 3437,
      "ĠComp": 3438,
      "Ġcamer": 3439,
      "agon": 3440,
      "ilies": 3441,
      "ĠRober": 3442,
      "using": 3443,
      "Ġtro": 3444,
      "Ġsoftware": 3445,
      "Ġcomplex": 3446,
      "wise": 3447,
      "Ġrob": 3448,
      "Ġunf": 3449,
      "BI": 3450,
      "Ġadditional": 3451,
      "Ġ60": 3452,
      "ĠDay": 3453,
      "ford": 3454,
      "Ġpiece": 3455,
      "Ġsil": 3456,
      "isis": 3457,
      "ĠSuper": 3458,
      "Ġopin": 3459,
      "Ġsafety": 3460,
      "Ġgone": 3461,
      "Ġdesigned": 3462,
      "ĠWind": 3463,
      "itor": 3464,
      "Ġtoward": 3465,
      "Ġpressure": 3466,
      "Ġsell": 3467,
      "Ġrecomm": 3468,
      "Ġchoice": 3469,
      "Ġepis": 3470,
      "Ġrock": 3471,
      "hest": 3472,
      "Ġbrain": 3473,
      "omen": 3474,
      "mit": 3475,
      "ĠAssoci": 3476,
      "tr": 3477,
      "adem": 3478,
      "Ġver": 3479,
      "Ġrelative": 3480,
      "astic": 3481,
      "Ġfile": 3482,
      "chan": 3483,
      "Ġthousands": 3484,
      "rupt": 3485,
      "egr": 3486,
      "Ġofficer": 3487,
      "airs": 3488,
      "Ġfigure": 3489,
      "Ġremember": 3490,
      "Ġcast": 3491,
      "ara": 3492,
      "Ġorganization": 3493,
      "atever": 3494,
      "ĠServ": 3495,
      "ĠWell": 3496,
      "rowd": 3497,
      "icient": 3498,
      "Ġswe": 3499,
      "Ġmoved": 3500,
      "Ġblog": 3501,
      "Ġahead": 3502,
      "ĠII": 3503,
      "Ġcounter": 3504,
      "80": 3505,
      "Ġappears": 3506,
      "Ġscore": 3507,
      "ems": 3508,
      "Ġ}": 3509,
      "iment": 3510,
      "24": 3511,
      "iles": 3512,
      "ression": 3513,
      "Ġpassed": 3514,
      "aches": 3515,
      "Ġlaunch": 3516,
      "Ġpark": 3517,
      "Ġconditions": 3518,
      "ĠLike": 3519,
      "ĠEnglish": 3520,
      "Ġletter": 3521,
      "irth": 3522,
      "Ġnature": 3523,
      "bur": 3524,
      "Ġmeaning": 3525,
      "Ġdebate": 3526,
      "Ġstage": 3527,
      "****": 3528,
      "Ġprec": 3529,
      "olute": 3530,
      "imum": 3531,
      "Ġbeginning": 3532,
      "ĠAlthough": 3533,
      "Ġhelped": 3534,
      "Ġdeg": 3535,
      "Ġaim": 3536,
      ");": 3537,
      "Ġclean": 3538,
      "ĠVal": 3539,
      "ĠGovern": 3540,
      "Ġdisapp": 3541,
      "ĠHam": 3542,
      "Ġnom": 3543,
      "FL": 3544,
      "ports": 3545,
      "ĠFrench": 3546,
      "Ġalleged": 3547,
      "ĠBecause": 3548,
      "roy": 3549,
      "ĠGreen": 3550,
      "berg": 3551,
      "Ġreasons": 3552,
      "aughter": 3553,
      "Ġut": 3554,
      "Ġdate": 3555,
      "Ġreceive": 3556,
      "ocked": 3557,
      "Ġdrive": 3558,
      "Ġcomputer": 3559,
      "Ġdifference": 3560,
      "Ġtour": 3561,
      "US": 3562,
      "Ġproperty": 3563,
      "Ġdark": 3564,
      "Ġcentury": 3565,
      "Ġbudget": 3566,
      "ĠCr": 3567,
      "Ġnuclear": 3568,
      "ston": 3569,
      "Ġfailed": 3570,
      "Ġmoving": 3571,
      "itation": 3572,
      "Ġtouch": 3573,
      "ĠTor": 3574,
      "itness": 3575,
      "ĠBen": 3576,
      "Ġsuspect": 3577,
      "ivity": 3578,
      "aph": 3579,
      "ĠMex": 3580,
      "Ġschools": 3581,
      "Ġdevice": 3582,
      "men": 3583,
      "ampions": 3584,
      "Ġband": 3585,
      "Ġign": 3586,
      "ĠStar": 3587,
      "just": 3588,
      "Ġhappy": 3589,
      "Ġestim": 3590,
      "Ġencour": 3591,
      "craft": 3592,
      "ufact": 3593,
      "Ġpositive": 3594,
      "Ġcontribut": 3595,
      "Ġdisp": 3596,
      "Ġmyself": 3597,
      "Ġcharacters": 3598,
      "ĠSci": 3599,
      "Ġcitizens": 3600,
      "ĠCap": 3601,
      "Ġoption": 3602,
      "Ġlargest": 3603,
      "Ġreligious": 3604,
      "Ġcopy": 3605,
      "ĠAdvertisement": 3606,
      "Ġcompared": 3607,
      "Ġtwe": 3608,
      "Ġbal": 3609,
      "Ġwall": 3610,
      "Ġyes": 3611,
      "rief": 3612,
      "Ġbooks": 3613,
      "Ġmaybe": 3614,
      ",'": 3615,
      "ĠLa": 3616,
      "Ġ196": 3617,
      "ĠSyria": 3618,
      "Ġbattle": 3619,
      "ĠAir": 3620,
      "Ġrefer": 3621,
      "Ġnecessary": 3622,
      "Ġcollege": 3623,
      "Ġforced": 3624,
      "Ġfan": 3625,
      "Ġpowerful": 3626,
      "enty": 3627,
      "urt": 3628,
      "Ġshown": 3629,
      "Ġcandidate": 3630,
      "Ph": 3631,
      "Ġspending": 3632,
      "ĠEU": 3633,
      "Ġ29": 3634,
      "Ġlimited": 3635,
      "Ġtitle": 3636,
      "Ġexecutive": 3637,
      "Ġleague": 3638,
      "Ġtrust": 3639,
      "ĠInternational": 3640,
      "Ġanalysis": 3641,
      "yan": 3642,
      "Ġpresidential": 3643,
      "erve": 3644,
      "yl": 3645,
      "Ġfamilies": 3646,
      "Ġstra": 3647,
      "Ġsche": 3648,
      "ĠSmith": 3649,
      "Ġsubs": 3650,
      "Ġaware": 3651,
      "Ġarch": 3652,
      "Ġeyes": 3653,
      "ĠGeorge": 3654,
      "Ġconference": 3655,
      "ander": 3656,
      "ĠDef": 3657,
      "Ġeventually": 3658,
      "aling": 3659,
      "ĠGermany": 3660,
      "ĠAustralia": 3661,
      "ĠFlor": 3662,
      "ĠUnion": 3663,
      "ĠImage": 3664,
      "cul": 3665,
      "wood": 3666,
      "ĠPeople": 3667,
      "ĠTom": 3668,
      "ĠJer": 3669,
      "Ġilleg": 3670,
      "ĠBer": 3671,
      "Ġ>": 3672,
      "Ġfirm": 3673,
      "more": 3674,
      "Ġgrad": 3675,
      "igration": 3676,
      "ĠHigh": 3677,
      "add": 3678,
      "Ġnote": 3679,
      "Ġfollowed": 3680,
      "ĠAnt": 3681,
      "orks": 3682,
      "Ġphysical": 3683,
      "Ġmeant": 3684,
      "EC": 3685,
      "encies": 3686,
      "iable": 3687,
      "ĠDuring": 3688,
      "They": 3689,
      "Ġstreng": 3690,
      "Ġsal": 3691,
      "ĠReg": 3692,
      "venue": 3693,
      "Ġconfir": 3694,
      "ĠTod": 3695,
      "Ġanaly": 3696,
      "ressed": 3697,
      "ĠGeneral": 3698,
      "ãģ": 3699,
      "aint": 3700,
      "Ġpus": 3701,
      "Ġesc": 3702,
      "osh": 3703,
      "Ġcool": 3704,
      "Ġpsych": 3705,
      "Ġactions": 3706,
      "Ġsusp": 3707,
      "Ġconflic": 3708,
      "ĠSchool": 3709,
      "Ġcat": 3710,
      "orney": 3711,
      "Ġthrow": 3712,
      "rated": 3713,
      "Ġsigned": 3714,
      "ĠChristian": 3715,
      "Ġpromot": 3716,
      "ĠCouncil": 3717,
      "Ġideas": 3718,
      "Ġmix": 3719,
      "ĠTrans": 3720,
      "Ġdecades": 3721,
      "ares": 3722,
      "Ġgives": 3723,
      "iring": 3724,
      "Ġfeature": 3725,
      "Ġeasily": 3726,
      "Ġdetail": 3727,
      "Ġautom": 3728,
      "ĠArab": 3729,
      "ĠFranc": 3730,
      "ero": 3731,
      "Ġappeared": 3732,
      "Ġcrisis": 3733,
      "Ġpolitics": 3734,
      "Ġallows": 3735,
      "Ġtreatment": 3736,
      "Ġsmart": 3737,
      "Ġweapons": 3738,
      "iance": 3739,
      "ĠAngel": 3740,
      "Ġdise": 3741,
      "ĠRob": 3742,
      "lease": 3743,
      "Ġhar": 3744,
      "Ġdisplay": 3745,
      "Ġang": 3746,
      "Ġfrequ": 3747,
      "Ġcrime": 3748,
      "Ġcentral": 3749,
      "Ġcrowd": 3750,
      "Ġoverall": 3751,
      "Ġreform": 3752,
      "IA": 3753,
      "Ġnoted": 3754,
      "Ġdoor": 3755,
      "Ġaltern": 3756,
      "lements": 3757,
      "Ġsenior": 3758,
      "ĠBrown": 3759,
      "23": 3760,
      "Ġcredit": 3761,
      "Ġunique": 3762,
      "Ġrap": 3763,
      "Ġincome": 3764,
      "ĠBu": 3765,
      "ĠMac": 3766,
      "ĠMet": 3767,
      "Ġfeed": 3768,
      "Ġdraft": 3769,
      "Ġyourself": 3770,
      "Ġdeveloped": 3771,
      "IL": 3772,
      "Ġintelligence": 3773,
      "ĠHillary": 3774,
      "ĠBre": 3775,
      "ĠScott": 3776,
      "Ġrule": 3777,
      "Ġprograms": 3778,
      "ken": 3779,
      "Ġmeasure": 3780,
      "Ġtruth": 3781,
      "Ġindividuals": 3782,
      "Ġprojects": 3783,
      "oti": 3784,
      "ĠArt": 3785,
      "Ġlif": 3786,
      "ext": 3787,
      "ĠOh": 3788,
      "board": 3789,
      "Ġx": 3790,
      "Ġdrop": 3791,
      "Ġclearly": 3792,
      "Ġchallenge": 3793,
      "urance": 3794,
      "Ġcontinues": 3795,
      "band": 3796,
      "ĠLaw": 3797,
      "vin": 3798,
      "ĠâĢ¢": 3799,
      "ĠAlex": 3800,
      "uty": 3801,
      "Ġbeaut": 3802,
      "ĠÂ£": 3803,
      "Ġrelated": 3804,
      "Ġpreviously": 3805,
      "nown": 3806,
      "Ġadvant": 3807,
      "Ġuses": 3808,
      "ĠFollow": 3809,
      "Ġgoals": 3810,
      "Ġapparent": 3811,
      "OT": 3812,
      "Ġbenefits": 3813,
      "Ġrates": 3814,
      "bum": 3815,
      "Ġmist": 3816,
      "aud": 3817,
      "onents": 3818,
      "Ġpredict": 3819,
      "ĠInternet": 3820,
      "ĠMag": 3821,
      "ado": 3822,
      "ville": 3823,
      "Ġemb": 3824,
      "ĠChic": 3825,
      "Ġfavorite": 3826,
      "Ġmanager": 3827,
      "Ġcharge": 3828,
      "Ġ2007": 3829,
      "Ġsuccessful": 3830,
      "itely": 3831,
      "Ġlarger": 3832,
      "oles": 3833,
      "ĠAM": 3834,
      "Ġnice": 3835,
      "Ġcriminal": 3836,
      "Ġhighly": 3837,
      "Ġsto": 3838,
      "Ġpeace": 3839,
      "Ġknowledge": 3840,
      "ĠFlorida": 3841,
      "Ġprimary": 3842,
      "Ġprem": 3843,
      "Ġcorrect": 3844,
      "Ġexpand": 3845,
      "levision": 3846,
      "Ġlic": 3847,
      "Ġattract": 3848,
      "ĠGold": 3849,
      "ĠAnother": 3850,
      "ĠEarth": 3851,
      "Ġmanufact": 3852,
      "ĠAlso": 3853,
      "Ġfully": 3854,
      "Ġminor": 3855,
      "Ġstraight": 3856,
      "Ġsales": 3857,
      "secut": 3858,
      "Ġgreater": 3859,
      "Ġarm": 3860,
      "ource": 3861,
      "antly": 3862,
      "Ġlines": 3863,
      "Ġseemed": 3864,
      "AM": 3865,
      "Ġbrother": 3866,
      "mar": 3867,
      "dom": 3868,
      "resh": 3869,
      "Ġreached": 3870,
      "Ġspread": 3871,
      "ounds": 3872,
      "rol": 3873,
      "ĠTwo": 3874,
      "orter": 3875,
      "Ġtraff": 3876,
      "pre": 3877,
      "ĠMo": 3878,
      "ki": 3879,
      "Ġincident": 3880,
      "owers": 3881,
      "tt": 3882,
      "Ġrare": 3883,
      "Ġcustomers": 3884,
      "ota": 3885,
      "Ġkept": 3886,
      "dd": 3887,
      "Ġplaces": 3888,
      "ĠStud": 3889,
      "Ġstatus": 3890,
      "ID": 3891,
      "Ġclaimed": 3892,
      "Ġresources": 3893,
      "Ġfeet": 3894,
      "amb": 3895,
      "Ġuns": 3896,
      "usion": 3897,
      "Ġweb": 3898,
      "AP": 3899,
      "ategy": 3900,
      "ev": 3901,
      "riage": 3902,
      "ĠSun": 3903,
      "Ġspir": 3904,
      "Ġfighting": 3905,
      "box": 3906,
      "Ġlaun": 3907,
      "change": 3908,
      "ĠChicago": 3909,
      "Ġcities": 3910,
      "Ġowners": 3911,
      "ĠYes": 3912,
      "Ġrise": 3913,
      "Ġsave": 3914,
      "wide": 3915,
      "iders": 3916,
      "iny": 3917,
      "Ġcaused": 3918,
      "Ġemot": 3919,
      "part": 3920,
      "while": 3921,
      "itz": 3922,
      "icit": 3923,
      "Ġreflect": 3924,
      "iced": 3925,
      "Ġknows": 3926,
      "Ġliter": 3927,
      "ingly": 3928,
      "uana": 3929,
      "45": 3930,
      "sey": 3931,
      "uman": 3932,
      "ocr": 3933,
      "Ġsources": 3934,
      "term": 3935,
      "oes": 3936,
      "Ġregular": 3937,
      "Ġorganiz": 3938,
      "Ġsend": 3939,
      "35": 3940,
      "Ġfemale": 3941,
      "Ġorigin": 3942,
      "Ġcolor": 3943,
      "ĠPre": 3944,
      "EO": 3945,
      "ube": 3946,
      "ĠEngland": 3947,
      "Ġpolicies": 3948,
      "ocks": 3949,
      "Ġspend": 3950,
      "EL": 3951,
      "Ġvoice": 3952,
      "Ġtrou": 3953,
      "Ġpros": 3954,
      "ĠAP": 3955,
      "Ġshooting": 3956,
      "Ġprices": 3957,
      "Ġfine": 3958,
      "Ġstudies": 3959,
      "Ġnormal": 3960,
      "olic": 3961,
      "Ġactivity": 3962,
      "Ġminister": 3963,
      "Ġemployees": 3964,
      "Ġresearchers": 3965,
      "Ġmechan": 3966,
      "Ġcalling": 3967,
      "ĠMicro": 3968,
      "ET": 3969,
      "Ġpun": 3970,
      "rs": 3971,
      "ĠYour": 3972,
      "ifying": 3973,
      "Ġconcerns": 3974,
      "vere": 3975,
      "Ġplant": 3976,
      "EM": 3977,
      "bon": 3978,
      "Ġfunding": 3979,
      "ĠMatt": 3980,
      "ribution": 3981,
      "aith": 3982,
      "27": 3983,
      "Ġhappens": 3984,
      "Ġraised": 3985,
      "roll": 3986,
      "Ġended": 3987,
      "Ġfreedom": 3988,
      "ijuana": 3989,
      "onent": 3990,
      "ĠPhil": 3991,
      "Ġtraditional": 3992,
      "Ġsupposed": 3993,
      "OM": 3994,
      "iled": 3995,
      "ĠBush": 3996,
      "Ġintegr": 3997,
      "ĠMod": 3998,
      "Ġshut": 3999,
      "Ġnames": 4000,
      "Ġhaven": 4001,
      "Ġadding": 4002,
      "Ġacqu": 4003,
      "ĠBay": 4004,
      "ya": 4005,
      "Ġabsolute": 4006,
      "Ġbasic": 4007,
      "Ġenem": 4008,
      "Ġauthorities": 4009,
      "ipp": 4010,
      "Ġir": 4011,
      "):": 4012,
      "As": 4013,
      "ĠRel": 4014,
      "etic": 4015,
      "Ġbeat": 4016,
      "iverse": 4017,
      "ĠLou": 4018,
      "see": 4019,
      "Ġvirt": 4020,
      "Ġborn": 4021,
      "Ġalbum": 4022,
      "que": 4023,
      "inger": 4024,
      "Ġslight": 4025,
      "Ġbehavior": 4026,
      "Ġoptions": 4027,
      "Ġleaving": 4028,
      "ĠPort": 4029,
      "Ġposted": 4030,
      "Ġcreating": 4031,
      "Ġpropos": 4032,
      "Ġimpl": 4033,
      "Ġensure": 4034,
      "sp": 4035,
      "Ġhospital": 4036,
      "Ġappl": 4037,
      "ĠSam": 4038,
      "ĠHealth": 4039,
      "ĠOp": 4040,
      "soft": 4041,
      "Ġseeing": 4042,
      "Ġagreement": 4043,
      "Ġlik": 4044,
      "Ġstation": 4045,
      "ĠPress": 4046,
      "ĠMike": 4047,
      "Ġpatients": 4048,
      "Ġcharges": 4049,
      "Ġobser": 4050,
      "Ġoffered": 4051,
      "ipped": 4052,
      "Ġjump": 4053,
      "Ð¾": 4054,
      "Ġwilling": 4055,
      "Ġbeg": 4056,
      "Ġcommer": 4057,
      "Ġgrand": 4058,
      "Ġeth": 4059,
      "ĠSecret": 4060,
      "Ġadult": 4061,
      "26": 4062,
      "Ġwait": 4063,
      "Ġbirth": 4064,
      "ĠSecurity": 4065,
      "Ġcommit": 4066,
      "Ġpush": 4067,
      "ĠPalest": 4068,
      "roid": 4069,
      "Ġadop": 4070,
      "Ġcry": 4071,
      "Ġscen": 4072,
      "ĠAtt": 4073,
      "ĠMil": 4074,
      "gen": 4075,
      "Ġparties": 4076,
      "Ġrevealed": 4077,
      "ĠSub": 4078,
      "ĠOnce": 4079,
      "Ġdetermin": 4080,
      "ength": 4081,
      "Ġactual": 4082,
      "Ġvac": 4083,
      "Ġbelieved": 4084,
      "Ġdevices": 4085,
      "itude": 4086,
      "Ġperm": 4087,
      "Ġmer": 4088,
      "ica": 4089,
      "pri": 4090,
      "lick": 4091,
      "Ġgreen": 4092,
      "SA": 4093,
      "ĠInstead": 4094,
      "ĠTer": 4095
    },
    "merges": [
      [
        "Ġ",
        "t"
      ],
      [
        "Ġ",
        "a"
      ],
      [
        "h",
        "e"
      ],
      [
        "i",
        "n"
      ],
      [
        "r",
        "e"
      ],
      [
        "Ġt",
        "he"
      ],
      [
        "o",
        "n"
      ],
      [
        "e",
        "r"
      ],
      [
        "Ġ",
        "s"
      ],
      [
        "Ġ",
        "w"
      ],
      [
        "a",
        "t"
      ],
      [
        "Ġ",
        "o"
      ],
      [
        "e",
        "n"
      ],
      [
        "Ġ",
        "c"
      ],
      [
        "i",
        "t"
      ],
      [
        "i",
        "s"
      ],
      [
        "a",
        "n"
      ],
      [
        "o",
        "r"
      ],
      [
        "Ġ",
        "b"
      ],
      [
        "e",
        "d"
      ],
      [
        "e",
        "s"
      ],
      [
        "Ġ",
        "f"
      ],
      [
        "in",
        "g"
      ],
      [
        "Ġ",
        "p"
      ],
      [
        "o",
        "u"
      ],
      [
        "Ġa",
        "n"
      ],
      [
        "a",
        "l"
      ],
      [
        "Ġt",
        "o"
      ],
      [
        "a",
        "r"
      ],
      [
        "Ġ",
        "m"
      ],
      [
        "Ġ",
        "in"
      ],
      [
        "Ġo",
        "f"
      ],
      [
        "Ġ",
        "d"
      ],
      [
        "Ġ",
        "h"
      ],
      [
        "a",
        "s"
      ],
      [
        "Ġan",
        "d"
      ],
      [
        "i",
        "c"
      ],
      [
        "Ġt",
        "h"
      ],
      [
        "l",
        "e"
      ],
      [
        "i",
        "on"
      ],
      [
        "o",
        "m"
      ],
      [
        "l",
        "l"
      ],
      [
        "en",
        "t"
      ],
      [
        "Ġ",
        "T"
      ],
      [
        "Ġ",
        "n"
      ],
      [
        "Ġ",
        "l"
      ],
      [
        "Ġ",
        "re"
      ],
      [
        "s",
        "t"
      ],
      [
        "v",
        "e"
      ],
      [
        "l",
        "y"
      ],
      [
        "Ġ",
        "e"
      ],
      [
        "Ġb",
        "e"
      ],
      [
        "r",
        "o"
      ],
      [
        "Ġ",
        "g"
      ],
      [
        "Ġ",
        "I"
      ],
      [
        "i",
        "d"
      ],
      [
        "u",
        "t"
      ],
      [
        "Ġ",
        "S"
      ],
      [
        "a",
        "c"
      ],
      [
        "o",
        "t"
      ],
      [
        "Ġ",
        "A"
      ],
      [
        "Ġth",
        "at"
      ],
      [
        "Ġ",
        "on"
      ],
      [
        "a",
        "y"
      ],
      [
        "Ġ",
        "is"
      ],
      [
        "i",
        "m"
      ],
      [
        "e",
        "t"
      ],
      [
        "a",
        "m"
      ],
      [
        "a",
        "d"
      ],
      [
        "o",
        "w"
      ],
      [
        "s",
        "e"
      ],
      [
        "i",
        "g"
      ],
      [
        "Ġf",
        "or"
      ],
      [
        "Ġ",
        "C"
      ],
      [
        "v",
        "er"
      ],
      [
        "'",
        "s"
      ],
      [
        "u",
        "r"
      ],
      [
        "l",
        "d"
      ],
      [
        "c",
        "t"
      ],
      [
        "Ġ",
        "u"
      ],
      [
        "Ġs",
        "t"
      ],
      [
        "Ġ",
        "y"
      ],
      [
        "Ġ",
        "M"
      ],
      [
        "Ġ",
        "it"
      ],
      [
        "Ġ",
        "he"
      ],
      [
        "Ġ",
        "\""
      ],
      [
        "i",
        "r"
      ],
      [
        "at",
        "ion"
      ],
      [
        "it",
        "h"
      ],
      [
        "Ġw",
        "h"
      ],
      [
        "Ġ",
        "B"
      ],
      [
        "c",
        "e"
      ],
      [
        "ĠT",
        "he"
      ],
      [
        "t",
        "er"
      ],
      [
        "Ġw",
        "e"
      ],
      [
        "o",
        "l"
      ],
      [
        "i",
        "l"
      ],
      [
        "Ġw",
        "ith"
      ],
      [
        "Ġa",
        "s"
      ],
      [
        "Ġ",
        "P"
      ],
      [
        "c",
        "h"
      ],
      [
        "i",
        "ll"
      ],
      [
        "Ġ",
        "W"
      ],
      [
        "n",
        "d"
      ],
      [
        "Ġw",
        "as"
      ],
      [
        "er",
        "s"
      ],
      [
        "Ġy",
        "ou"
      ],
      [
        "Ġ",
        "H"
      ],
      [
        "k",
        "e"
      ],
      [
        "Ġc",
        "on"
      ],
      [
        "Ġd",
        "e"
      ],
      [
        "Ġ",
        "r"
      ],
      [
        "he",
        "r"
      ],
      [
        "Ġ",
        "D"
      ],
      [
        "i",
        "f"
      ],
      [
        "at",
        "e"
      ],
      [
        "Ġa",
        "t"
      ],
      [
        "a",
        "g"
      ],
      [
        "Ġ",
        "R"
      ],
      [
        "Ġh",
        "a"
      ],
      [
        "Ġ",
        "F"
      ],
      [
        "Ġs",
        "e"
      ],
      [
        "Ġp",
        "ro"
      ],
      [
        "o",
        "re"
      ],
      [
        "Ġ",
        "1"
      ],
      [
        "u",
        "l"
      ],
      [
        "p",
        "p"
      ],
      [
        "m",
        "ent"
      ],
      [
        "Ġa",
        "re"
      ],
      [
        "r",
        "i"
      ],
      [
        "es",
        "t"
      ],
      [
        "is",
        "t"
      ],
      [
        "Ġc",
        "om"
      ],
      [
        "u",
        "s"
      ],
      [
        "Ġ",
        "2"
      ],
      [
        "an",
        "d"
      ],
      [
        "o",
        "p"
      ],
      [
        "a",
        "in"
      ],
      [
        "Ġ",
        "N"
      ],
      [
        "r",
        "om"
      ],
      [
        "ig",
        "h"
      ],
      [
        "Ġ",
        "("
      ],
      [
        "or",
        "t"
      ],
      [
        "Ġn",
        "e"
      ],
      [
        "o",
        "d"
      ],
      [
        "u",
        "m"
      ],
      [
        "Ġe",
        "x"
      ],
      [
        "Ġ",
        "G"
      ],
      [
        "u",
        "n"
      ],
      [
        "re",
        "s"
      ],
      [
        "a",
        "b"
      ],
      [
        "Ġn",
        "ot"
      ],
      [
        "Ġ",
        "v"
      ],
      [
        "Ġ",
        "L"
      ],
      [
        "Ġha",
        "ve"
      ],
      [
        "es",
        "s"
      ],
      [
        "it",
        "y"
      ],
      [
        "Ġo",
        "r"
      ],
      [
        "ou",
        "ld"
      ],
      [
        "Ġb",
        "y"
      ],
      [
        "e",
        "m"
      ],
      [
        "t",
        "h"
      ],
      [
        "o",
        "s"
      ],
      [
        "an",
        "t"
      ],
      [
        "Ġf",
        "rom"
      ],
      [
        "i",
        "ve"
      ],
      [
        "Ġa",
        "l"
      ],
      [
        "Ġ",
        "E"
      ],
      [
        "e",
        "l"
      ],
      [
        "Ġs",
        "u"
      ],
      [
        "ar",
        "t"
      ],
      [
        "o",
        "c"
      ],
      [
        "Ġs",
        "h"
      ],
      [
        "Ġth",
        "is"
      ],
      [
        "n",
        "t"
      ],
      [
        "Ġ",
        "O"
      ],
      [
        "q",
        "u"
      ],
      [
        "igh",
        "t"
      ],
      [
        "u",
        "st"
      ],
      [
        "p",
        "e"
      ],
      [
        "Ġ",
        "le"
      ],
      [
        "i",
        "es"
      ],
      [
        "Ġ",
        "J"
      ],
      [
        "Ġs",
        "a"
      ],
      [
        "en",
        "d"
      ],
      [
        "Ġc",
        "h"
      ],
      [
        "Ġa",
        "b"
      ],
      [
        "ou",
        "t"
      ],
      [
        "i",
        "e"
      ],
      [
        "al",
        "l"
      ],
      [
        "Ġ",
        "-"
      ],
      [
        "re",
        "d"
      ],
      [
        "ac",
        "k"
      ],
      [
        "Ġh",
        "as"
      ],
      [
        "0",
        "0"
      ],
      [
        "al",
        "ly"
      ],
      [
        "Ġp",
        "l"
      ],
      [
        "Ġg",
        "o"
      ],
      [
        "Ġh",
        "is"
      ],
      [
        "ar",
        "d"
      ],
      [
        "om",
        "e"
      ],
      [
        "i",
        "v"
      ],
      [
        "g",
        "h"
      ],
      [
        "a",
        "p"
      ],
      [
        "e",
        "ar"
      ],
      [
        "o",
        "st"
      ],
      [
        "Ġt",
        "r"
      ],
      [
        "ou",
        "r"
      ],
      [
        "as",
        "t"
      ],
      [
        "Ġ",
        "j"
      ],
      [
        "Ġ",
        "U"
      ],
      [
        "'",
        "t"
      ],
      [
        "a",
        "k"
      ],
      [
        "u",
        "d"
      ],
      [
        "Ġd",
        "o"
      ],
      [
        "Ġthe",
        "y"
      ],
      [
        "Ġw",
        "or"
      ],
      [
        "Ġb",
        "ut"
      ],
      [
        "Ġsa",
        "id"
      ],
      [
        "r",
        "ou"
      ],
      [
        "g",
        "e"
      ],
      [
        "Ġc",
        "an"
      ],
      [
        "Ġw",
        "he"
      ],
      [
        "Ġw",
        "ill"
      ],
      [
        "Ġ",
        "k"
      ],
      [
        "ic",
        "h"
      ],
      [
        "Ġa",
        "ll"
      ],
      [
        "o",
        "k"
      ],
      [
        "Ġwh",
        "o"
      ],
      [
        "id",
        "e"
      ],
      [
        "Ġin",
        "t"
      ],
      [
        "t",
        "her"
      ],
      [
        "an",
        "s"
      ],
      [
        ".",
        "\""
      ],
      [
        "Ġthe",
        "ir"
      ],
      [
        "i",
        "al"
      ],
      [
        "Ġo",
        "ut"
      ],
      [
        "am",
        "e"
      ],
      [
        "ĠT",
        "h"
      ],
      [
        "f",
        "f"
      ],
      [
        "ĠI",
        "n"
      ],
      [
        "on",
        "g"
      ],
      [
        "e",
        "ct"
      ],
      [
        "ic",
        "e"
      ],
      [
        "p",
        "l"
      ],
      [
        "u",
        "re"
      ],
      [
        "p",
        "t"
      ],
      [
        "Ġm",
        "ore"
      ],
      [
        "on",
        "e"
      ],
      [
        "ion",
        "s"
      ],
      [
        "ac",
        "t"
      ],
      [
        "Ġm",
        "e"
      ],
      [
        "ag",
        "e"
      ],
      [
        "i",
        "ke"
      ],
      [
        "ou",
        "s"
      ],
      [
        "Ġu",
        "p"
      ],
      [
        "Ġa",
        "d"
      ],
      [
        "in",
        "e"
      ],
      [
        "Ġ",
        "K"
      ],
      [
        "Ġab",
        "out"
      ],
      [
        "at",
        "ed"
      ],
      [
        "r",
        "a"
      ],
      [
        "Ġwe",
        "re"
      ],
      [
        "Ġon",
        "e"
      ],
      [
        ",",
        "\""
      ],
      [
        "b",
        "er"
      ],
      [
        "Ġs",
        "o"
      ],
      [
        "ĠS",
        "t"
      ],
      [
        "Ġu",
        "s"
      ],
      [
        "im",
        "e"
      ],
      [
        "e",
        "p"
      ],
      [
        "o",
        "g"
      ],
      [
        "Ġh",
        "ad"
      ],
      [
        "Ġ2",
        "0"
      ],
      [
        "a",
        "re"
      ],
      [
        "i",
        "a"
      ],
      [
        "c",
        "c"
      ],
      [
        "Ġw",
        "ould"
      ],
      [
        "Ġwh",
        "ich"
      ],
      [
        "u",
        "b"
      ],
      [
        "Ġc",
        "l"
      ],
      [
        "Ġ",
        "im"
      ],
      [
        "in",
        "d"
      ],
      [
        "a",
        "ke"
      ],
      [
        "Ġcon",
        "t"
      ],
      [
        "Ġa",
        "g"
      ],
      [
        "ver",
        "y"
      ],
      [
        "u",
        "e"
      ],
      [
        "i",
        "z"
      ],
      [
        "Ġt",
        "e"
      ],
      [
        "Ġof",
        "f"
      ],
      [
        "Ġcom",
        "p"
      ],
      [
        "Ġbe",
        "en"
      ],
      [
        "Ġu",
        "n"
      ],
      [
        "Ġ",
        "en"
      ],
      [
        "s",
        "o"
      ],
      [
        "ig",
        "n"
      ],
      [
        "p",
        "er"
      ],
      [
        "a",
        "u"
      ],
      [
        "Ġy",
        "ear"
      ],
      [
        "ar",
        "y"
      ],
      [
        "i",
        "p"
      ],
      [
        "ac",
        "e"
      ],
      [
        "Ġl",
        "ike"
      ],
      [
        "e",
        "w"
      ],
      [
        "e",
        "re"
      ],
      [
        "v",
        "en"
      ],
      [
        "Ġp",
        "e"
      ],
      [
        "Ġin",
        "c"
      ],
      [
        "Ġm",
        "an"
      ],
      [
        "ĠI",
        "t"
      ],
      [
        "ay",
        "s"
      ],
      [
        "o",
        "se"
      ],
      [
        "o",
        "ok"
      ],
      [
        "r",
        "y"
      ],
      [
        "Ġre",
        "s"
      ],
      [
        "Ġp",
        "er"
      ],
      [
        "it",
        "e"
      ],
      [
        "ab",
        "le"
      ],
      [
        "Ġs",
        "p"
      ],
      [
        "Ġo",
        "ther"
      ],
      [
        "m",
        "er"
      ],
      [
        "or",
        "d"
      ],
      [
        "as",
        "s"
      ],
      [
        "Ġ",
        "Y"
      ],
      [
        "i",
        "re"
      ],
      [
        "Ġ20",
        "1"
      ],
      [
        "Ġs",
        "ome"
      ],
      [
        "en",
        "ce"
      ],
      [
        "op",
        "le"
      ],
      [
        "i",
        "b"
      ],
      [
        "i",
        "le"
      ],
      [
        "ation",
        "s"
      ],
      [
        "ic",
        "al"
      ],
      [
        "Ġo",
        "ver"
      ],
      [
        "k",
        "s"
      ],
      [
        "Ġthe",
        "re"
      ],
      [
        "Ġd",
        "is"
      ],
      [
        "ĠC",
        "h"
      ],
      [
        "res",
        "s"
      ],
      [
        "Ġal",
        "so"
      ],
      [
        "Ġa",
        "r"
      ],
      [
        "Ġbe",
        "c"
      ],
      [
        "ul",
        "t"
      ],
      [
        "Ġth",
        "an"
      ],
      [
        "Ġne",
        "w"
      ],
      [
        "ow",
        "n"
      ],
      [
        "Ġthe",
        "m"
      ],
      [
        "ou",
        "gh"
      ],
      [
        "in",
        "t"
      ],
      [
        "an",
        "ce"
      ],
      [
        "r",
        "u"
      ],
      [
        "Ġa",
        "pp"
      ],
      [
        "ou",
        "nt"
      ],
      [
        "Ġp",
        "art"
      ],
      [
        "p",
        "ort"
      ],
      [
        "Ġwhe",
        "n"
      ],
      [
        "Ġpe",
        "ople"
      ],
      [
        "Ġwh",
        "at"
      ],
      [
        "Ġ",
        "V"
      ],
      [
        "re",
        "e"
      ],
      [
        "Ġs",
        "c"
      ],
      [
        "Ġyou",
        "r"
      ],
      [
        "or",
        "m"
      ],
      [
        "f",
        "ter"
      ],
      [
        "a",
        "il"
      ],
      [
        "on",
        "d"
      ],
      [
        "Ġ",
        "qu"
      ],
      [
        "Ġ",
        "3"
      ],
      [
        "a",
        "v"
      ],
      [
        "Ġit",
        "s"
      ],
      [
        "as",
        "e"
      ],
      [
        "Ġan",
        "y"
      ],
      [
        "Ġj",
        "ust"
      ],
      [
        "ac",
        "h"
      ],
      [
        "Ġk",
        "n"
      ],
      [
        "Ġt",
        "ime"
      ],
      [
        "ĠH",
        "e"
      ],
      [
        "Ġhe",
        "r"
      ],
      [
        "Ġre",
        "c"
      ],
      [
        "l",
        "ic"
      ],
      [
        "en",
        "s"
      ],
      [
        "Ġm",
        "y"
      ],
      [
        "re",
        "at"
      ],
      [
        "Ġg",
        "et"
      ],
      [
        "i",
        "an"
      ],
      [
        "Ġ",
        "if"
      ],
      [
        "Ġwor",
        "k"
      ],
      [
        "Ġint",
        "o"
      ],
      [
        "Ġt",
        "w"
      ],
      [
        "ou",
        "nd"
      ],
      [
        "ir",
        "st"
      ],
      [
        "Ġn",
        "o"
      ],
      [
        "ve",
        "l"
      ],
      [
        "d",
        "u"
      ],
      [
        "ct",
        "ion"
      ],
      [
        "or",
        "y"
      ],
      [
        "ing",
        "s"
      ],
      [
        "id",
        "ent"
      ],
      [
        "it",
        "ion"
      ],
      [
        "or",
        "s"
      ],
      [
        "Ġo",
        "ur"
      ],
      [
        "ic",
        "k"
      ],
      [
        "Ġp",
        "re"
      ],
      [
        "o",
        "b"
      ],
      [
        "o",
        "ve"
      ],
      [
        "au",
        "se"
      ],
      [
        "w",
        "n"
      ],
      [
        "Ġpl",
        "ay"
      ],
      [
        "an",
        "g"
      ],
      [
        "ad",
        "e"
      ],
      [
        "in",
        "k"
      ],
      [
        "at",
        "es"
      ],
      [
        "is",
        "h"
      ],
      [
        "it",
        "t"
      ],
      [
        "ar",
        "k"
      ],
      [
        "Ġ",
        "ro"
      ],
      [
        "Ġ1",
        "9"
      ],
      [
        "Ġp",
        "ol"
      ],
      [
        "Ġs",
        "he"
      ],
      [
        "ver",
        "s"
      ],
      [
        "Ġc",
        "o"
      ],
      [
        "Ġa",
        "fter"
      ],
      [
        "am",
        "p"
      ],
      [
        "Ġc",
        "ould"
      ],
      [
        "Ġf",
        "irst"
      ],
      [
        "Ġh",
        "ow"
      ],
      [
        "i",
        "ous"
      ],
      [
        "n",
        "e"
      ],
      [
        "Ġa",
        "cc"
      ],
      [
        "nd",
        "er"
      ],
      [
        "Ġh",
        "im"
      ],
      [
        "a",
        "w"
      ],
      [
        "on",
        "s"
      ],
      [
        "i",
        "ld"
      ],
      [
        "Ġp",
        "o"
      ],
      [
        "Ġat",
        "t"
      ],
      [
        "Ġf",
        "e"
      ],
      [
        "Ġon",
        "ly"
      ],
      [
        "ĠB",
        "ut"
      ],
      [
        "ic",
        "t"
      ],
      [
        "he",
        "d"
      ],
      [
        "ĠW",
        "e"
      ],
      [
        "Ġp",
        "r"
      ],
      [
        "Ġtw",
        "o"
      ],
      [
        "h",
        "ing"
      ],
      [
        "Ġcom",
        "m"
      ],
      [
        "f",
        "orm"
      ],
      [
        "Ġs",
        "pe"
      ],
      [
        "Ġa",
        "ct"
      ],
      [
        "o",
        "v"
      ],
      [
        "Ġs",
        "er"
      ],
      [
        "ĠW",
        "h"
      ],
      [
        "w",
        "e"
      ],
      [
        "Ġb",
        "l"
      ],
      [
        "Ġbe",
        "t"
      ],
      [
        "f",
        "t"
      ],
      [
        "Ġde",
        "c"
      ],
      [
        "ĠTh",
        "is"
      ],
      [
        "n",
        "ing"
      ],
      [
        "Ġb",
        "ack"
      ],
      [
        "Ġ",
        "4"
      ],
      [
        "Ġm",
        "ost"
      ],
      [
        "c",
        "es"
      ],
      [
        "ĠA",
        "nd"
      ],
      [
        "t",
        "e"
      ],
      [
        "o",
        "od"
      ],
      [
        "o",
        "y"
      ],
      [
        "c",
        "k"
      ],
      [
        "Ġa",
        "m"
      ],
      [
        "Ġ",
        "'"
      ],
      [
        "Ġd",
        "id"
      ],
      [
        "if",
        "f"
      ],
      [
        "rou",
        "gh"
      ],
      [
        "at",
        "er"
      ],
      [
        "rou",
        "nd"
      ],
      [
        "Ġag",
        "ain"
      ],
      [
        "u",
        "al"
      ],
      [
        "Ġu",
        "nder"
      ],
      [
        "is",
        "e"
      ],
      [
        "Ġw",
        "ant"
      ],
      [
        "Ġd",
        "es"
      ],
      [
        "d",
        "ay"
      ],
      [
        "r",
        "it"
      ],
      [
        "Ġcon",
        "s"
      ],
      [
        "Ġbec",
        "ause"
      ],
      [
        "se",
        "l"
      ],
      [
        "Ġyear",
        "s"
      ],
      [
        "Ġn",
        "ow"
      ],
      [
        "l",
        "ud"
      ],
      [
        "ent",
        "s"
      ],
      [
        "ub",
        "lic"
      ],
      [
        "ter",
        "n"
      ],
      [
        "m",
        "an"
      ],
      [
        "Ġ",
        "["
      ],
      [
        "u",
        "ll"
      ],
      [
        "ĠU",
        "n"
      ],
      [
        "Ġe",
        "ven"
      ],
      [
        "Ġne",
        "ed"
      ],
      [
        "Ġin",
        "v"
      ],
      [
        "is",
        "s"
      ],
      [
        "e",
        "c"
      ],
      [
        "ĠA",
        "s"
      ],
      [
        "Ġkn",
        "ow"
      ],
      [
        "Ġ",
        "5"
      ],
      [
        "c",
        "ed"
      ],
      [
        "Ġse",
        "e"
      ],
      [
        "ment",
        "s"
      ],
      [
        "Ġin",
        "d"
      ],
      [
        "Ġad",
        "d"
      ],
      [
        "Ġ",
        "$"
      ],
      [
        "Ġse",
        "c"
      ],
      [
        "o",
        "ld"
      ],
      [
        "f",
        "ore"
      ],
      [
        "'",
        "re"
      ],
      [
        "Ġe",
        "very"
      ],
      [
        "u",
        "ch"
      ],
      [
        "ĠT",
        "r"
      ],
      [
        "Ġsu",
        "pp"
      ],
      [
        "Ġm",
        "ake"
      ],
      [
        "Ġe",
        "m"
      ],
      [
        "pe",
        "ct"
      ],
      [
        "Ġthe",
        "se"
      ],
      [
        "ur",
        "n"
      ],
      [
        "Ġwhe",
        "re"
      ],
      [
        "ation",
        "al"
      ],
      [
        "ver",
        "n"
      ],
      [
        "o",
        "ll"
      ],
      [
        "j",
        "ect"
      ],
      [
        "oc",
        "k"
      ],
      [
        "um",
        "p"
      ],
      [
        "Ġd",
        "on"
      ],
      [
        "Ġl",
        "ook"
      ],
      [
        "Ġb",
        "u"
      ],
      [
        "Ġe",
        "v"
      ],
      [
        "at",
        "ing"
      ],
      [
        "os",
        "s"
      ],
      [
        "Ġr",
        "ight"
      ],
      [
        "Ġw",
        "ay"
      ],
      [
        "x",
        "t"
      ],
      [
        "Ġre",
        "m"
      ],
      [
        "Ġm",
        "ay"
      ],
      [
        "Ġbe",
        "ing"
      ],
      [
        "Ġman",
        "y"
      ],
      [
        "ie",
        "w"
      ],
      [
        "Ġd",
        "iff"
      ],
      [
        "Ġthe",
        "n"
      ],
      [
        "Ġre",
        "l"
      ],
      [
        "i",
        "ly"
      ],
      [
        "le",
        "ct"
      ],
      [
        "n",
        "g"
      ],
      [
        "ro",
        "w"
      ],
      [
        "Ġc",
        "all"
      ],
      [
        "mer",
        "ic"
      ],
      [
        "Ġinc",
        "lud"
      ],
      [
        "i",
        "ed"
      ],
      [
        "as",
        "on"
      ],
      [
        "l",
        "es"
      ],
      [
        "Ġth",
        "ink"
      ],
      [
        "as",
        "ed"
      ],
      [
        "Ġde",
        "f"
      ],
      [
        "it",
        "ed"
      ],
      [
        "ak",
        "ing"
      ],
      [
        "Ġre",
        "g"
      ],
      [
        "Ġth",
        "rough"
      ],
      [
        "Ġim",
        "p"
      ],
      [
        "Ġp",
        "res"
      ],
      [
        "Ġs",
        "y"
      ],
      [
        "at",
        "h"
      ],
      [
        "Ġs",
        "ay"
      ],
      [
        "Ġsh",
        "ould"
      ],
      [
        "ri",
        "b"
      ],
      [
        "Ġf",
        "l"
      ],
      [
        "ur",
        "ing"
      ],
      [
        "Ġth",
        "ose"
      ],
      [
        "Ġ2",
        "00"
      ],
      [
        "on",
        "t"
      ],
      [
        ")",
        "."
      ],
      [
        "Ġl",
        "ast"
      ],
      [
        "Ġst",
        "ate"
      ],
      [
        "ow",
        "er"
      ],
      [
        "Ġ",
        "very"
      ],
      [
        "it",
        "ies"
      ],
      [
        "ot",
        "her"
      ],
      [
        "Ġm",
        "uch"
      ],
      [
        "if",
        "ic"
      ],
      [
        "ĠN",
        "ew"
      ],
      [
        "he",
        "n"
      ],
      [
        "Ġsh",
        "ow"
      ],
      [
        "at",
        "ive"
      ],
      [
        "Ġb",
        "r"
      ],
      [
        "ĠR",
        "e"
      ],
      [
        "Ġp",
        "h"
      ],
      [
        "ĠA",
        "meric"
      ],
      [
        "ot",
        "h"
      ],
      [
        "Ġc",
        "ount"
      ],
      [
        "t",
        "y"
      ],
      [
        "e",
        "ll"
      ],
      [
        "ar",
        "ly"
      ],
      [
        "v",
        "ed"
      ],
      [
        ".",
        "."
      ],
      [
        "Ġwe",
        "ll"
      ],
      [
        "Ġo",
        "wn"
      ],
      [
        "Ġdo",
        "es"
      ],
      [
        "ar",
        "g"
      ],
      [
        "al",
        "s"
      ],
      [
        "Ġd",
        "own"
      ],
      [
        "Ġas",
        "s"
      ],
      [
        "u",
        "nd"
      ],
      [
        "Ġbe",
        "l"
      ],
      [
        "t",
        "ing"
      ],
      [
        "T",
        "he"
      ],
      [
        "ic",
        "s"
      ],
      [
        "Ġ",
        "end"
      ],
      [
        "Ġu",
        "se"
      ],
      [
        "ter",
        "s"
      ],
      [
        "Ġgo",
        "vern"
      ],
      [
        "Ġl",
        "ong"
      ],
      [
        "an",
        "ge"
      ],
      [
        "in",
        "ce"
      ],
      [
        "om",
        "et"
      ],
      [
        "Ġbe",
        "fore"
      ],
      [
        "Ġm",
        "on"
      ],
      [
        "g",
        "r"
      ],
      [
        "w",
        "ard"
      ],
      [
        "ib",
        "le"
      ],
      [
        "Ġre",
        "port"
      ],
      [
        "Ġ",
        "ke"
      ],
      [
        "u",
        "es"
      ],
      [
        "Ġst",
        "art"
      ],
      [
        "Ġf",
        "in"
      ],
      [
        "Ġm",
        "ade"
      ],
      [
        "u",
        "p"
      ],
      [
        "t",
        "s"
      ],
      [
        "b",
        "le"
      ],
      [
        "if",
        "e"
      ],
      [
        "Ġsu",
        "ch"
      ],
      [
        "Ġte",
        "am"
      ],
      [
        "Ġ",
        "6"
      ],
      [
        "is",
        "m"
      ],
      [
        "ou",
        "n"
      ],
      [
        "ol",
        "og"
      ],
      [
        "ĠA",
        "l"
      ],
      [
        "re",
        "n"
      ],
      [
        ")",
        ","
      ],
      [
        "en",
        "er"
      ],
      [
        "ers",
        "on"
      ],
      [
        "Ġs",
        "m"
      ],
      [
        "Ġwor",
        "ld"
      ],
      [
        "Ġst",
        "ud"
      ],
      [
        "ist",
        "s"
      ],
      [
        "il",
        "ity"
      ],
      [
        "Ġhe",
        "l"
      ],
      [
        "Ġa",
        "c"
      ],
      [
        "f",
        "ul"
      ],
      [
        "i",
        "x"
      ],
      [
        "Ġgo",
        "ing"
      ],
      [
        "u",
        "ally"
      ],
      [
        "ĠY",
        "ou"
      ],
      [
        "t",
        "ain"
      ],
      [
        "Ġs",
        "ur"
      ],
      [
        "Ġgo",
        "od"
      ],
      [
        "-",
        "-"
      ],
      [
        "e",
        "k"
      ],
      [
        "Ġsu",
        "b"
      ],
      [
        "Ġagain",
        "st"
      ],
      [
        "Ġe",
        "ff"
      ],
      [
        "or",
        "k"
      ],
      [
        "it",
        "s"
      ],
      [
        "Ġ",
        "ent"
      ],
      [
        "ĠI",
        "f"
      ],
      [
        "Ġg",
        "u"
      ],
      [
        "ill",
        "ion"
      ],
      [
        "Ġs",
        "et"
      ],
      [
        "g",
        "an"
      ],
      [
        "Ġg",
        "ame"
      ],
      [
        "Ġpo",
        "int"
      ],
      [
        "y",
        "s"
      ],
      [
        "Ġst",
        "ill"
      ],
      [
        "ar",
        "s"
      ],
      [
        "st",
        "em"
      ],
      [
        "Ġle",
        "ad"
      ],
      [
        "we",
        "en"
      ],
      [
        "rou",
        "p"
      ],
      [
        "Ġhel",
        "p"
      ],
      [
        "Ġwh",
        "ile"
      ],
      [
        "i",
        "er"
      ],
      [
        "00",
        "0"
      ],
      [
        "v",
        "ing"
      ],
      [
        "Ġm",
        "in"
      ],
      [
        "al",
        "k"
      ],
      [
        "Ġs",
        "ays"
      ],
      [
        "c",
        "y"
      ],
      [
        "m",
        "s"
      ],
      [
        "Ġg",
        "r"
      ],
      [
        "im",
        "es"
      ],
      [
        "Ġin",
        "ter"
      ],
      [
        "Ġo",
        "b"
      ],
      [
        "Ġpro",
        "du"
      ],
      [
        "an",
        "k"
      ],
      [
        "c",
        "ess"
      ],
      [
        "Ġin",
        "st"
      ],
      [
        "Ġs",
        "im"
      ],
      [
        "Ġt",
        "ake"
      ],
      [
        "a",
        "x"
      ],
      [
        "Ġst",
        "r"
      ],
      [
        "Ġ",
        "ed"
      ],
      [
        "Ġcon",
        "f"
      ],
      [
        "sel",
        "f"
      ],
      [
        "Ġc",
        "ol"
      ],
      [
        "Ġbet",
        "ween"
      ],
      [
        "Ġdis",
        "c"
      ],
      [
        "ĠF",
        "or"
      ],
      [
        "Ġth",
        "ough"
      ],
      [
        "Ġc",
        "r"
      ],
      [
        "Ġpro",
        "v"
      ],
      [
        "u",
        "res"
      ],
      [
        "Ġs",
        "ame"
      ],
      [
        "Ġdiff",
        "ere"
      ],
      [
        "ĠA",
        "r"
      ],
      [
        "i",
        "o"
      ],
      [
        "o",
        "ol"
      ],
      [
        "'",
        "ve"
      ],
      [
        "Ġoff",
        "ic"
      ],
      [
        "l",
        "and"
      ],
      [
        "Ġl",
        "aw"
      ],
      [
        "ut",
        "ion"
      ],
      [
        "â",
        "Ģ"
      ],
      [
        "ĠA",
        "n"
      ],
      [
        "Ġgovern",
        "ment"
      ],
      [
        "he",
        "s"
      ],
      [
        "oll",
        "ow"
      ],
      [
        "ar",
        "ch"
      ],
      [
        "e",
        "ver"
      ],
      [
        "Ġo",
        "p"
      ],
      [
        "Ġs",
        "ign"
      ],
      [
        "Ġh",
        "igh"
      ],
      [
        "Ġn",
        "um"
      ],
      [
        "us",
        "s"
      ],
      [
        "ĠThe",
        "y"
      ],
      [
        "a",
        "h"
      ],
      [
        "w",
        "ay"
      ],
      [
        "h",
        "ip"
      ],
      [
        "a",
        "ir"
      ],
      [
        "Ġt",
        "er"
      ],
      [
        "l",
        "ed"
      ],
      [
        "ro",
        "s"
      ],
      [
        "ĠD",
        "e"
      ],
      [
        "ĠI",
        "s"
      ],
      [
        "re",
        "ad"
      ],
      [
        "g",
        "g"
      ],
      [
        "an",
        "y"
      ],
      [
        "n",
        "er"
      ],
      [
        "Ġs",
        "omet"
      ],
      [
        "Ġtr",
        "ans"
      ],
      [
        "ĠC",
        "om"
      ],
      [
        "c",
        "ent"
      ],
      [
        "Ġre",
        "f"
      ],
      [
        "ĠS",
        "h"
      ],
      [
        "ĠL",
        "e"
      ],
      [
        "am",
        "es"
      ],
      [
        "Ġ1",
        "0"
      ],
      [
        "Ġ",
        "7"
      ],
      [
        "vel",
        "op"
      ],
      [
        "ĠTr",
        "ump"
      ],
      [
        "Ġin",
        "s"
      ],
      [
        "Ġm",
        "em"
      ],
      [
        "Ġf",
        "ound"
      ],
      [
        "Ġth",
        "ree"
      ],
      [
        "Ġr",
        "un"
      ],
      [
        "at",
        "ch"
      ],
      [
        "Ġm",
        "ed"
      ],
      [
        "Ġre",
        "al"
      ],
      [
        "Ġa",
        "round"
      ],
      [
        "a",
        "ve"
      ],
      [
        ".",
        "["
      ],
      [
        "iv",
        "es"
      ],
      [
        "at",
        "her"
      ],
      [
        "ou",
        "se"
      ],
      [
        "ce",
        "pt"
      ],
      [
        "Ġhe",
        "re"
      ],
      [
        "Ġus",
        "ed"
      ],
      [
        "Ġsy",
        "stem"
      ],
      [
        "Ġsupp",
        "ort"
      ],
      [
        "Ġex",
        "p"
      ],
      [
        "v",
        "es"
      ],
      [
        "Ġg",
        "roup"
      ],
      [
        "c",
        "er"
      ],
      [
        "ĠC",
        "l"
      ],
      [
        "Ġre",
        "ally"
      ],
      [
        "ĠS",
        "e"
      ],
      [
        "o",
        "ot"
      ],
      [
        "Ġc",
        "our"
      ],
      [
        "ĠTh",
        "at"
      ],
      [
        "Ġm",
        "od"
      ],
      [
        "Ġp",
        "ublic"
      ],
      [
        "c",
        "i"
      ],
      [
        "c",
        "on"
      ],
      [
        "al",
        "e"
      ],
      [
        "a",
        "z"
      ],
      [
        "et",
        "s"
      ],
      [
        "y",
        "ing"
      ],
      [
        "ĠThe",
        "re"
      ],
      [
        "en",
        "se"
      ],
      [
        "Ġh",
        "and"
      ],
      [
        "Ġ",
        "."
      ],
      [
        "Ġspe",
        "c"
      ],
      [
        "Ġex",
        "t"
      ],
      [
        "Ġs",
        "l"
      ],
      [
        "Ġf",
        "am"
      ],
      [
        "Ġre",
        "t"
      ],
      [
        "Ġg",
        "reat"
      ],
      [
        "Ġre",
        "p"
      ],
      [
        "in",
        "s"
      ],
      [
        "Ġc",
        "ur"
      ],
      [
        "al",
        "th"
      ],
      [
        "Ġf",
        "r"
      ],
      [
        "Ġc",
        "ar"
      ],
      [
        "Ġc",
        "ap"
      ],
      [
        "Ġf",
        "act"
      ],
      [
        "ire",
        "ct"
      ],
      [
        "Ġb",
        "oth"
      ],
      [
        "Ġha",
        "pp"
      ],
      [
        "Ġw",
        "om"
      ],
      [
        "t",
        "on"
      ],
      [
        "Ġ",
        "8"
      ],
      [
        "Ġex",
        "per"
      ],
      [
        "'",
        "m"
      ],
      [
        "ul",
        "ar"
      ],
      [
        "p",
        "h"
      ],
      [
        "Ġd",
        "ay"
      ],
      [
        "ic",
        "es"
      ],
      [
        "Ġf",
        "ind"
      ],
      [
        "Ġre",
        "ad"
      ],
      [
        "in",
        "es"
      ],
      [
        "Ġd",
        "et"
      ],
      [
        "ut",
        "h"
      ],
      [
        "o",
        "h"
      ],
      [
        "Ġd",
        "uring"
      ],
      [
        "e",
        "red"
      ],
      [
        "p",
        "r"
      ],
      [
        "i",
        "vers"
      ],
      [
        "is",
        "ion"
      ],
      [
        "Ġc",
        "re"
      ],
      [
        "Ġ",
        "9"
      ],
      [
        "Ġb",
        "ig"
      ],
      [
        "Ġde",
        "velop"
      ],
      [
        "Ġto",
        "ld"
      ],
      [
        "Ġmon",
        "th"
      ],
      [
        "ĠO",
        "n"
      ],
      [
        "m",
        "in"
      ],
      [
        "Ġs",
        "ince"
      ],
      [
        "Ġp",
        "erson"
      ],
      [
        "ak",
        "es"
      ],
      [
        "ĠS",
        "o"
      ],
      [
        "ic",
        "ally"
      ],
      [
        "Ġis",
        "s"
      ],
      [
        "a",
        "red"
      ],
      [
        "Ġf",
        "ollow"
      ],
      [
        "Ġw",
        "ar"
      ],
      [
        "ort",
        "h"
      ],
      [
        "Ġc",
        "ent"
      ],
      [
        "ĠA",
        "d"
      ],
      [
        "Ġle",
        "g"
      ],
      [
        "Ġwe",
        "ek"
      ],
      [
        "Ġpol",
        "it"
      ],
      [
        "Ġf",
        "ew"
      ],
      [
        "ord",
        "ing"
      ],
      [
        "a",
        "j"
      ],
      [
        "m",
        "ed"
      ],
      [
        "ag",
        "es"
      ],
      [
        "Ġex",
        "pl"
      ],
      [
        "at",
        "t"
      ],
      [
        "Ġbel",
        "ie"
      ],
      [
        "Ġl",
        "ot"
      ],
      [
        "ĠF",
        "r"
      ],
      [
        "en",
        "e"
      ],
      [
        "an",
        "c"
      ],
      [
        "i",
        "et"
      ],
      [
        "Ġpro",
        "t"
      ],
      [
        "Ġre",
        "qu"
      ],
      [
        "r",
        "ic"
      ],
      [
        "Ġto",
        "o"
      ],
      [
        "Ġg",
        "ener"
      ],
      [
        "Ġo",
        "pp"
      ],
      [
        "g",
        "et"
      ],
      [
        "Ġcont",
        "in"
      ],
      [
        "ch",
        "ool"
      ],
      [
        "ĠA",
        "t"
      ],
      [
        "b",
        "ers"
      ],
      [
        "iz",
        "ed"
      ],
      [
        "ent",
        "ion"
      ],
      [
        "Ġc",
        "le"
      ],
      [
        "d",
        "er"
      ],
      [
        "ĠP",
        "ro"
      ],
      [
        "Ġres",
        "p"
      ],
      [
        "re",
        "nt"
      ],
      [
        "as",
        "h"
      ],
      [
        "ĠH",
        "ow"
      ],
      [
        "Ġin",
        "f"
      ],
      [
        "Ġp",
        "ut"
      ],
      [
        "Ġf",
        "il"
      ],
      [
        "Ġsomet",
        "hing"
      ],
      [
        "Ġan",
        "other"
      ],
      [
        "n",
        "ess"
      ],
      [
        "Ġc",
        "or"
      ],
      [
        "Ġdiffere",
        "nt"
      ],
      [
        "Ġl",
        "oc"
      ],
      [
        "at",
        "a"
      ],
      [
        "Ġs",
        "oc"
      ],
      [
        "Ġinv",
        "est"
      ],
      [
        "u",
        "c"
      ],
      [
        "ut",
        "e"
      ],
      [
        "Ġp",
        "ower"
      ],
      [
        "Ġv",
        "ot"
      ],
      [
        "Ġcomm",
        "un"
      ],
      [
        "Ġar",
        "t"
      ],
      [
        "n",
        "ed"
      ],
      [
        "i",
        "ence"
      ],
      [
        "Ġf",
        "ar"
      ],
      [
        "Ġc",
        "amp"
      ],
      [
        "ĠR",
        "ep"
      ],
      [
        "Ġpl",
        "an"
      ],
      [
        "Ġ",
        "0"
      ],
      [
        "ĠU",
        "S"
      ],
      [
        "ros",
        "s"
      ],
      [
        "Ġl",
        "ife"
      ],
      [
        "Ġas",
        "k"
      ],
      [
        "Ġhe",
        "ad"
      ],
      [
        "Ġre",
        "le"
      ],
      [
        "Ġp",
        "oss"
      ],
      [
        "ar",
        "ge"
      ],
      [
        "ere",
        "st"
      ],
      [
        "Ġth",
        "ings"
      ],
      [
        "th",
        "ing"
      ],
      [
        "Ġm",
        "et"
      ],
      [
        "v",
        "iew"
      ],
      [
        "Ġch",
        "ild"
      ],
      [
        "e",
        "x"
      ],
      [
        "Ġp",
        "ass"
      ],
      [
        "Ġc",
        "he"
      ],
      [
        "ant",
        "s"
      ],
      [
        "'",
        "ll"
      ],
      [
        "i",
        "k"
      ],
      [
        "Ġb",
        "o"
      ],
      [
        "od",
        "y"
      ],
      [
        "ar",
        "l"
      ],
      [
        "Ġm",
        "ight"
      ],
      [
        "in",
        "ess"
      ],
      [
        "Ġqu",
        "est"
      ],
      [
        "re",
        "t"
      ],
      [
        "Ġde",
        "p"
      ],
      [
        "Ġne",
        "ver"
      ],
      [
        "Ġe",
        "ach"
      ],
      [
        "Ġde",
        "m"
      ],
      [
        "Ġad",
        "v"
      ],
      [
        "i",
        "ent"
      ],
      [
        "t",
        "he"
      ],
      [
        "Ġne",
        "xt"
      ],
      [
        "Ġb",
        "us"
      ],
      [
        "ie",
        "ld"
      ],
      [
        "Ġm",
        "ark"
      ],
      [
        "Ġg",
        "ot"
      ],
      [
        "Ġcom",
        "e"
      ],
      [
        "iz",
        "e"
      ],
      [
        "Ġsec",
        "ond"
      ],
      [
        "ĠB",
        "l"
      ],
      [
        "Ġop",
        "en"
      ],
      [
        "Ġall",
        "ow"
      ],
      [
        "e",
        "e"
      ],
      [
        "âĢ",
        "¦"
      ],
      [
        "Ġfe",
        "el"
      ],
      [
        "Ġb",
        "est"
      ],
      [
        "itt",
        "le"
      ],
      [
        "gr",
        "am"
      ],
      [
        "Ġse",
        "em"
      ],
      [
        "Ġper",
        "cent"
      ],
      [
        "r",
        "at"
      ],
      [
        "Ġp",
        "ri"
      ],
      [
        "it",
        "al"
      ],
      [
        "or",
        "n"
      ],
      [
        "Ġp",
        "ost"
      ],
      [
        "Ġd",
        "ist"
      ],
      [
        "t",
        "en"
      ],
      [
        "Ġh",
        "ome"
      ],
      [
        "Ġd",
        "irect"
      ],
      [
        "i",
        "red"
      ],
      [
        "p",
        "le"
      ],
      [
        "u",
        "g"
      ],
      [
        "Ġcont",
        "ro"
      ],
      [
        "s",
        "on"
      ],
      [
        "Ġinc",
        "re"
      ],
      [
        "Ġw",
        "r"
      ],
      [
        "Ġh",
        "um"
      ],
      [
        "os",
        "ed"
      ],
      [
        "con",
        "om"
      ],
      [
        "Ġh",
        "ard"
      ],
      [
        "Ġin",
        "form"
      ],
      [
        "er",
        "v"
      ],
      [
        "Ġm",
        "illion"
      ],
      [
        "Ġres",
        "ult"
      ],
      [
        "ate",
        "ly"
      ],
      [
        "Ġim",
        "port"
      ],
      [
        "Ġinclud",
        "ing"
      ],
      [
        "Ġc",
        "are"
      ],
      [
        "ĠI",
        "nd"
      ],
      [
        "a",
        "im"
      ],
      [
        "ch",
        "n"
      ],
      [
        "l",
        "ing"
      ],
      [
        "Ġpl",
        "ace"
      ],
      [
        "l",
        "ess"
      ],
      [
        "Ġwith",
        "out"
      ],
      [
        "Ġcomp",
        "le"
      ],
      [
        "Ġcount",
        "ry"
      ],
      [
        "Ġa",
        "v"
      ],
      [
        "ĠS",
        "he"
      ],
      [
        "Ġ",
        "ide"
      ],
      [
        "Ġ",
        "Z"
      ],
      [
        "Ġpro",
        "ble"
      ],
      [
        "am",
        "a"
      ],
      [
        "Ġto",
        "p"
      ],
      [
        "Ġnum",
        "ber"
      ],
      [
        "Ġbu",
        "ild"
      ],
      [
        "g",
        "y"
      ],
      [
        "Ġst",
        "and"
      ],
      [
        "is",
        "hed"
      ],
      [
        "Ġf",
        "our"
      ],
      [
        "one",
        "y"
      ],
      [
        "Ġg",
        "l"
      ],
      [
        "Ġpart",
        "ic"
      ],
      [
        "ab",
        "ly"
      ],
      [
        "r",
        "al"
      ],
      [
        "ri",
        "end"
      ],
      [
        "Ġrec",
        "ent"
      ],
      [
        "r",
        "ation"
      ],
      [
        "ĠW",
        "hen"
      ],
      [
        "Ġint",
        "erest"
      ],
      [
        "Ġbet",
        "ter"
      ],
      [
        "Ġe",
        "l"
      ],
      [
        "Ġm",
        "ov"
      ],
      [
        "Ġt",
        "ri"
      ],
      [
        "Ġapp",
        "ro"
      ],
      [
        "w",
        "ays"
      ],
      [
        "r",
        "act"
      ],
      [
        "Ġl",
        "ess"
      ],
      [
        "Ġt",
        "urn"
      ],
      [
        "Ġl",
        "ittle"
      ],
      [
        "Ġbe",
        "h"
      ],
      [
        "Ġb",
        "ro"
      ],
      [
        "Ġcall",
        "ed"
      ],
      [
        "2",
        "0"
      ],
      [
        "Ġle",
        "t"
      ],
      [
        "Ġm",
        "il"
      ],
      [
        "is",
        "ed"
      ],
      [
        "Ġse",
        "ason"
      ],
      [
        "ĠP",
        "h"
      ],
      [
        "Ġp",
        "op"
      ],
      [
        "Ġc",
        "ase"
      ],
      [
        "W",
        "e"
      ],
      [
        "Ġatt",
        "ack"
      ],
      [
        "l",
        "ine"
      ],
      [
        "en",
        "cy"
      ],
      [
        "Ġre",
        "st"
      ],
      [
        "Ġan",
        "n"
      ],
      [
        "Ġd",
        "r"
      ],
      [
        "Ġle",
        "ft"
      ],
      [
        "Ġ",
        "Q"
      ],
      [
        "Ġm",
        "ove"
      ],
      [
        "in",
        "a"
      ],
      [
        "ĠB",
        "e"
      ],
      [
        "Ġke",
        "ep"
      ],
      [
        "Ġpro",
        "gram"
      ],
      [
        "aj",
        "or"
      ],
      [
        "er",
        "ing"
      ],
      [
        "le",
        "g"
      ],
      [
        "Ġdid",
        "n"
      ],
      [
        "in",
        "al"
      ],
      [
        "Ġm",
        "ain"
      ],
      [
        "Ġser",
        "v"
      ],
      [
        "c",
        "l"
      ],
      [
        "u",
        "ro"
      ],
      [
        "Ġf",
        "ull"
      ],
      [
        "Ġpre",
        "v"
      ],
      [
        "t",
        "ed"
      ],
      [
        "ĠAmeric",
        "an"
      ],
      [
        "a",
        "pp"
      ],
      [
        "Ġe",
        "conom"
      ],
      [
        "ĠWh",
        "at"
      ],
      [
        "Ġp",
        "ay"
      ],
      [
        "at",
        "ure"
      ],
      [
        "Ġeff",
        "ect"
      ],
      [
        "Ġf",
        "un"
      ],
      [
        "Ġt",
        "est"
      ],
      [
        "Ġnew",
        "s"
      ],
      [
        "re",
        "m"
      ],
      [
        "Ġus",
        "ing"
      ],
      [
        "Ġs",
        "chool"
      ],
      [
        "Ġp",
        "os"
      ],
      [
        "iv",
        "ing"
      ],
      [
        "Ġpol",
        "ice"
      ],
      [
        "Ġfor",
        "m"
      ],
      [
        "ĠO",
        "b"
      ],
      [
        "Ġsm",
        "all"
      ],
      [
        "Ġch",
        "ar"
      ],
      [
        "pl",
        "oy"
      ],
      [
        "ĠUn",
        "ited"
      ],
      [
        "c",
        "o"
      ],
      [
        "Ġw",
        "in"
      ],
      [
        "ain",
        "s"
      ],
      [
        "read",
        "y"
      ],
      [
        "Ġd",
        "ata"
      ],
      [
        "in",
        "ed"
      ],
      [
        "ĠG",
        "o"
      ],
      [
        "Ġle",
        "vel"
      ],
      [
        "Ġv",
        "al"
      ],
      [
        "u",
        "ck"
      ],
      [
        "b",
        "e"
      ],
      [
        "Ġl",
        "ist"
      ],
      [
        "Ġpro",
        "cess"
      ],
      [
        "olog",
        "y"
      ],
      [
        "Ġh",
        "ist"
      ],
      [
        "id",
        "ed"
      ],
      [
        "Ġpres",
        "ident"
      ],
      [
        "i",
        "ans"
      ],
      [
        "Ġe",
        "as"
      ],
      [
        "Ġp",
        "rom"
      ],
      [
        "od",
        "e"
      ],
      [
        "Ġwom",
        "en"
      ],
      [
        "Ġcomp",
        "any"
      ],
      [
        "Ġch",
        "ange"
      ],
      [
        "ir",
        "d"
      ],
      [
        "n",
        "ce"
      ],
      [
        "i",
        "ver"
      ],
      [
        "us",
        "ed"
      ],
      [
        "g",
        "er"
      ],
      [
        "ĠC",
        "an"
      ],
      [
        "Ġd",
        "ri"
      ],
      [
        "Ġcur",
        "rent"
      ],
      [
        "ĠCh",
        "r"
      ],
      [
        "Ġre",
        "ce"
      ],
      [
        "oh",
        "n"
      ],
      [
        "Ġal",
        "ready"
      ],
      [
        "r",
        "ap"
      ],
      [
        "Ġu",
        "nt"
      ],
      [
        "Ġcl",
        "aim"
      ],
      [
        "t",
        "o"
      ],
      [
        "Ġb",
        "re"
      ],
      [
        "ivers",
        "ity"
      ],
      [
        "Ġwh",
        "y"
      ],
      [
        "ru",
        "ct"
      ],
      [
        "Ġte",
        "chn"
      ],
      [
        "Ġm",
        "oney"
      ],
      [
        "Ġl",
        "ater"
      ],
      [
        "Ġj",
        "ob"
      ],
      [
        "Ġoffic",
        "ial"
      ],
      [
        "Ġpro",
        "ject"
      ],
      [
        "Ġ-",
        "-"
      ],
      [
        "Ġbus",
        "iness"
      ],
      [
        "a",
        "ign"
      ],
      [
        "Ġt",
        "y"
      ],
      [
        "st",
        "and"
      ],
      [
        "Ġm",
        "at"
      ],
      [
        "ĠA",
        "ll"
      ],
      [
        "Ġ1",
        "8"
      ],
      [
        "Ġb",
        "ook"
      ],
      [
        "Ġinform",
        "ation"
      ],
      [
        "Ġor",
        "gan"
      ],
      [
        "Ġex",
        "pect"
      ],
      [
        "Ġdes",
        "ign"
      ],
      [
        "Ġal",
        "ways"
      ],
      [
        "as",
        "es"
      ],
      [
        "Ġm",
        "ajor"
      ],
      [
        "Ġt",
        "alk"
      ],
      [
        "ĠS",
        "p"
      ],
      [
        "re",
        "en"
      ],
      [
        "ĠP",
        "res"
      ],
      [
        "Ġth",
        "ing"
      ],
      [
        "Ġpro",
        "f"
      ],
      [
        "Ġab",
        "le"
      ],
      [
        "Ġst",
        "ory"
      ],
      [
        "Ġed",
        "it"
      ],
      [
        "ard",
        "s"
      ],
      [
        "Ġs",
        "ol"
      ],
      [
        "a",
        "ff"
      ],
      [
        "Ġre",
        "se"
      ],
      [
        "Ġhe",
        "alth"
      ],
      [
        "er",
        "tain"
      ],
      [
        "Ġp",
        "ast"
      ],
      [
        "Ġv",
        "is"
      ],
      [
        "ĠM",
        "ar"
      ],
      [
        "ur",
        "ity"
      ],
      [
        "ĠM",
        "r"
      ],
      [
        "Ġ1",
        "2"
      ],
      [
        "Ġcl",
        "ass"
      ],
      [
        "ac",
        "y"
      ],
      [
        "iv",
        "en"
      ],
      [
        "le",
        "ction"
      ],
      [
        "Ġch",
        "ang"
      ],
      [
        "Ġo",
        "per"
      ],
      [
        "I",
        "t"
      ],
      [
        "ou",
        "th"
      ],
      [
        "Ġa",
        "way"
      ],
      [
        "ur",
        "s"
      ],
      [
        "_",
        "_"
      ],
      [
        "i",
        "or"
      ],
      [
        "Ġc",
        "ity"
      ],
      [
        "ur",
        "al"
      ],
      [
        "Ġf",
        "ree"
      ],
      [
        "ĠO",
        "ne"
      ],
      [
        "Ġs",
        "k"
      ],
      [
        "ĠJ",
        "ohn"
      ],
      [
        "Ġm",
        "ust"
      ],
      [
        "u",
        "red"
      ],
      [
        "e",
        "ad"
      ],
      [
        "uth",
        "or"
      ],
      [
        "Ġimport",
        "ant"
      ],
      [
        "ur",
        "y"
      ],
      [
        "Ġ",
        "est"
      ],
      [
        "Ġk",
        "ill"
      ],
      [
        "Ġhapp",
        "en"
      ],
      [
        "iss",
        "ion"
      ],
      [
        "he",
        "re"
      ],
      [
        "Ġle",
        "ast"
      ],
      [
        "ĠS",
        "c"
      ],
      [
        "Ġg",
        "row"
      ],
      [
        "end",
        "ing"
      ],
      [
        "ĠT",
        "o"
      ],
      [
        "Ġp",
        "at"
      ],
      [
        "pt",
        "ion"
      ],
      [
        "Ġdoes",
        "n"
      ],
      [
        "r",
        "on"
      ],
      [
        "ĠP",
        "l"
      ],
      [
        "Ġo",
        "ld"
      ],
      [
        "ne",
        "y"
      ],
      [
        "op",
        "e"
      ],
      [
        "ain",
        "ed"
      ],
      [
        "1",
        "0"
      ],
      [
        "ĠC",
        "on"
      ],
      [
        "Ġcamp",
        "aign"
      ],
      [
        "Ġv",
        "ar"
      ],
      [
        "id",
        "es"
      ],
      [
        "Ġ1",
        "5"
      ],
      [
        "Ġc",
        "ost"
      ],
      [
        "amp",
        "le"
      ],
      [
        "Ġa",
        "ff"
      ],
      [
        "Ġen",
        "ough"
      ],
      [
        "Ġc",
        "ame"
      ],
      [
        "Ġte",
        "ll"
      ],
      [
        "Ġd",
        "ays"
      ],
      [
        "c",
        "om"
      ],
      [
        "Ġm",
        "en"
      ],
      [
        "ot",
        "t"
      ],
      [
        "Ġv",
        "iew"
      ],
      [
        "ĠRep",
        "ublic"
      ],
      [
        "Ġl",
        "arge"
      ],
      [
        "id",
        "er"
      ],
      [
        "cc",
        "ess"
      ],
      [
        "Ġcon",
        "st"
      ],
      [
        "ĠT",
        "w"
      ],
      [
        "s",
        "ide"
      ],
      [
        "Ġm",
        "aking"
      ],
      [
        "ĠCom",
        "m"
      ],
      [
        "Ġst",
        "re"
      ],
      [
        "Ġpol",
        "ic"
      ],
      [
        "'",
        "d"
      ],
      [
        "Ġe",
        "lect"
      ],
      [
        "Ġk",
        "ind"
      ],
      [
        "el",
        "s"
      ],
      [
        "Ġfam",
        "ily"
      ],
      [
        "ĠO",
        "r"
      ],
      [
        "Ġf",
        "riend"
      ],
      [
        "er",
        "al"
      ],
      [
        "us",
        "h"
      ],
      [
        "Ġm",
        "ar"
      ],
      [
        "Ġrec",
        "ord"
      ],
      [
        "Ġt",
        "ax"
      ],
      [
        "ĠM",
        "c"
      ],
      [
        "ion",
        "al"
      ],
      [
        "Ġs",
        "it"
      ],
      [
        "Ġunt",
        "il"
      ],
      [
        "er",
        "n"
      ],
      [
        "is",
        "ing"
      ],
      [
        "Ġpolit",
        "ical"
      ],
      [
        "al",
        "ity"
      ],
      [
        "pp",
        "ed"
      ],
      [
        "Ġa",
        "ir"
      ],
      [
        "Ġde",
        "al"
      ],
      [
        "if",
        "ied"
      ],
      [
        "ri",
        "es"
      ],
      [
        "le",
        "y"
      ],
      [
        "o",
        "x"
      ],
      [
        "ĠD",
        "em"
      ],
      [
        "au",
        "gh"
      ],
      [
        "al",
        "f"
      ],
      [
        "Ġv",
        "ide"
      ],
      [
        "r",
        "or"
      ],
      [
        "iv",
        "ed"
      ],
      [
        "u",
        "ed"
      ],
      [
        "ĠM",
        "ay"
      ],
      [
        "oc",
        "rat"
      ],
      [
        "ĠPres",
        "ident"
      ],
      [
        "ĠN",
        "o"
      ],
      [
        "are",
        "nt"
      ],
      [
        "Ġin",
        "tern"
      ],
      [
        "Ġto",
        "ok"
      ],
      [
        "Ġ",
        ","
      ],
      [
        "is",
        "ter"
      ],
      [
        "ap",
        "s"
      ],
      [
        "Ġwork",
        "ing"
      ],
      [
        "Ġhum",
        "an"
      ],
      [
        "Ġde",
        "b"
      ],
      [
        "Ġf",
        "ore"
      ],
      [
        "o",
        "ad"
      ],
      [
        "at",
        "or"
      ],
      [
        "ĠE",
        "uro"
      ],
      [
        "ain",
        "ing"
      ],
      [
        "Ġf",
        "und"
      ],
      [
        "and",
        "s"
      ],
      [
        "Ġbec",
        "ome"
      ],
      [
        "Ġde",
        "l"
      ],
      [
        "i",
        "ol"
      ],
      [
        "Ġ",
        "es"
      ],
      [
        "Ġ",
        "ve"
      ],
      [
        "Ġme",
        "an"
      ],
      [
        "Ġact",
        "ually"
      ],
      [
        "Ġof",
        "ten"
      ],
      [
        "w",
        "are"
      ],
      [
        "Ġfor",
        "mer"
      ],
      [
        "c",
        "rib"
      ],
      [
        "b",
        "s"
      ],
      [
        "Ġl",
        "ine"
      ],
      [
        "b",
        "y"
      ],
      [
        "w",
        "ork"
      ],
      [
        "em",
        "ber"
      ],
      [
        "ĠS",
        "y"
      ],
      [
        "Ġacc",
        "ording"
      ],
      [
        "Ġ1",
        "1"
      ],
      [
        "on",
        "y"
      ],
      [
        "ĠR",
        "uss"
      ],
      [
        "Ġe",
        "ver"
      ],
      [
        "Ġg",
        "ive"
      ],
      [
        "y",
        "ear"
      ],
      [
        "ĠW",
        "ith"
      ],
      [
        "Ġw",
        "on"
      ],
      [
        "m",
        "ost"
      ],
      [
        "o",
        "int"
      ],
      [
        "Ġwor",
        "d"
      ],
      [
        "Ġb",
        "as"
      ],
      [
        "iz",
        "ation"
      ],
      [
        "ar",
        "ing"
      ],
      [
        "g",
        "in"
      ],
      [
        "Ġde",
        "v"
      ],
      [
        "Ġ19",
        "9"
      ],
      [
        "Ġor",
        "der"
      ],
      [
        "an",
        "e"
      ],
      [
        "Ġg",
        "ames"
      ],
      [
        "Ġf",
        "ac"
      ],
      [
        "ĠB",
        "r"
      ],
      [
        "i",
        "ber"
      ],
      [
        "Ġt",
        "imes"
      ],
      [
        "Ġse",
        "ver"
      ],
      [
        "ut",
        "ure"
      ],
      [
        "it",
        "her"
      ],
      [
        "ĠC",
        "ol"
      ],
      [
        "en",
        "g"
      ],
      [
        "Ġchar",
        "ac"
      ],
      [
        "Ġn",
        "ame"
      ],
      [
        "ĠA",
        "m"
      ],
      [
        "le",
        "t"
      ],
      [
        "c",
        "hed"
      ],
      [
        "Ġper",
        "form"
      ],
      [
        "ra",
        "ft"
      ],
      [
        "Ġs",
        "ing"
      ],
      [
        "..",
        "."
      ],
      [
        "Ġmark",
        "et"
      ],
      [
        "an",
        "n"
      ],
      [
        "Ġb",
        "it"
      ],
      [
        "w",
        "h"
      ],
      [
        "Ġapp",
        "ear"
      ],
      [
        "Ġdo",
        "ing"
      ],
      [
        "ak",
        "en"
      ],
      [
        "Ġe",
        "arly"
      ],
      [
        "Ġle",
        "ar"
      ],
      [
        "ic",
        "le"
      ],
      [
        "Ġse",
        "en"
      ],
      [
        "is",
        "on"
      ],
      [
        "i",
        "qu"
      ],
      [
        "id",
        "d"
      ],
      [
        "Ġn",
        "ight"
      ],
      [
        "ĠA",
        "fter"
      ],
      [
        "Ġl",
        "a"
      ],
      [
        "ĠY",
        "ork"
      ],
      [
        "Ġwhe",
        "ther"
      ],
      [
        "--",
        "--"
      ],
      [
        "ĠI",
        "m"
      ],
      [
        "*",
        "*"
      ],
      [
        "Ġha",
        "ving"
      ],
      [
        "Ġmed",
        "ia"
      ],
      [
        "Ġr",
        "a"
      ],
      [
        "Ġchild",
        "ren"
      ],
      [
        "Ġev",
        "ent"
      ],
      [
        "Ġc",
        "rit"
      ],
      [
        "Ġme",
        "et"
      ],
      [
        "Ġret",
        "urn"
      ],
      [
        "Ġsoc",
        "ial"
      ],
      [
        "Ġpro",
        "p"
      ],
      [
        "id",
        "ence"
      ],
      [
        "Ġf",
        "ive"
      ],
      [
        "Ġplay",
        "ers"
      ],
      [
        "Ġto",
        "day"
      ],
      [
        "ĠEuro",
        "pe"
      ],
      [
        "Ġquest",
        "ion"
      ],
      [
        "Ġsever",
        "al"
      ],
      [
        "ĠOb",
        "ama"
      ],
      [
        "Ġp",
        "ress"
      ],
      [
        "Ġcontro",
        "l"
      ],
      [
        "Ġp",
        "ot"
      ],
      [
        "ĠSt",
        "ates"
      ],
      [
        "ious",
        "ly"
      ],
      [
        "Ġmil",
        "it"
      ],
      [
        "Ġw",
        "ent"
      ],
      [
        "Ġyou",
        "ng"
      ],
      [
        "Ġen",
        "g"
      ],
      [
        "art",
        "ment"
      ],
      [
        "Ġo",
        "cc"
      ],
      [
        "Ġe",
        "qu"
      ],
      [
        "\"",
        "."
      ],
      [
        "i",
        "am"
      ],
      [
        "Ġmem",
        "bers"
      ],
      [
        "ĠT",
        "e"
      ],
      [
        "Ġc",
        "ertain"
      ],
      [
        "Ġw",
        "ater"
      ],
      [
        "or",
        "ies"
      ],
      [
        "Ġlike",
        "ly"
      ],
      [
        "un",
        "e"
      ],
      [
        "m",
        "ber"
      ],
      [
        "ro",
        "p"
      ],
      [
        "f",
        "or"
      ],
      [
        "i",
        "um"
      ],
      [
        "Ġs",
        "w"
      ],
      [
        "en",
        "n"
      ],
      [
        "Ġsu",
        "ccess"
      ],
      [
        "Ġinv",
        "ol"
      ],
      [
        "Ġse",
        "x"
      ],
      [
        "Ġsu",
        "re"
      ],
      [
        "Ġar",
        "g"
      ],
      [
        "Ġan",
        "t"
      ],
      [
        "ver",
        "t"
      ],
      [
        "Ġsh",
        "ort"
      ],
      [
        "at",
        "s"
      ],
      [
        "T",
        "h"
      ],
      [
        "5",
        "0"
      ],
      [
        "Ġs",
        "ide"
      ],
      [
        "end",
        "ed"
      ],
      [
        "Ġex",
        "ample"
      ],
      [
        "Ġwith",
        "in"
      ],
      [
        "Ġmonth",
        "s"
      ],
      [
        "Ġal",
        "ong"
      ],
      [
        "Ġd",
        "one"
      ],
      [
        "em",
        "pt"
      ],
      [
        "ot",
        "s"
      ],
      [
        "i",
        "ally"
      ],
      [
        "Ġ",
        "]"
      ],
      [
        "ĠSt",
        "ate"
      ],
      [
        "ub",
        "l"
      ],
      [
        "Ġh",
        "our"
      ],
      [
        "Ġ",
        "vers"
      ],
      [
        "Ġcon",
        "cer"
      ],
      [
        "ent",
        "ial"
      ],
      [
        "Ġinvest",
        "ig"
      ],
      [
        "Ġam",
        "ong"
      ],
      [
        "Ġf",
        "uture"
      ],
      [
        "Ġf",
        "ight"
      ],
      [
        "b",
        "all"
      ],
      [
        "ĠN",
        "ot"
      ],
      [
        "ĠE",
        "x"
      ],
      [
        "l",
        "f"
      ],
      [
        "Ġcour",
        "se"
      ],
      [
        "b",
        "r"
      ],
      [
        "Ġa",
        "uthor"
      ],
      [
        "Ġpri",
        "v"
      ],
      [
        "Ġ",
        "="
      ],
      [
        "Ġon",
        "ce"
      ],
      [
        "Ġunder",
        "stand"
      ],
      [
        "ul",
        "ation"
      ],
      [
        "Ġact",
        "iv"
      ],
      [
        "ag",
        "ue"
      ],
      [
        "on",
        "es"
      ],
      [
        "ĠC",
        "o"
      ],
      [
        "gg",
        "est"
      ],
      [
        "Ġv",
        "iol"
      ],
      [
        "Ġposs",
        "ible"
      ],
      [
        "it",
        "ive"
      ],
      [
        "Ġprot",
        "ect"
      ],
      [
        "ort",
        "un"
      ],
      [
        "Ġkn",
        "own"
      ],
      [
        "Ġp",
        "ur"
      ],
      [
        "u",
        "ff"
      ],
      [
        "Ġthough",
        "t"
      ],
      [
        "oc",
        "i"
      ],
      [
        "it",
        "ing"
      ],
      [
        "im",
        "ate"
      ],
      [
        "Ġch",
        "o"
      ],
      [
        "1",
        "9"
      ],
      [
        "ĠP",
        "ol"
      ],
      [
        "Ġme",
        "ans"
      ],
      [
        "E",
        "R"
      ],
      [
        "st",
        "er"
      ],
      [
        "n",
        "ect"
      ],
      [
        "ail",
        "able"
      ],
      [
        "Ġproble",
        "m"
      ],
      [
        "ĠHow",
        "ever"
      ],
      [
        "Ġw",
        "rit"
      ],
      [
        "re",
        "w"
      ],
      [
        "ĠH",
        "ouse"
      ],
      [
        "s",
        "h"
      ],
      [
        "Ġac",
        "ross"
      ],
      [
        "al",
        "d"
      ],
      [
        "iv",
        "id"
      ],
      [
        "Ġn",
        "on"
      ],
      [
        "Ġy",
        "et"
      ],
      [
        "Ġask",
        "ed"
      ],
      [
        "ĠChr",
        "ist"
      ],
      [
        "Ġsu",
        "ggest"
      ],
      [
        "Ġloc",
        "al"
      ],
      [
        "Ġf",
        "ail"
      ],
      [
        "g",
        "ress"
      ],
      [
        "Ġprodu",
        "ct"
      ],
      [
        "ĠS",
        "en"
      ],
      [
        "Ġor",
        "ig"
      ],
      [
        "Ġh",
        "old"
      ],
      [
        "ver",
        "age"
      ],
      [
        "Ġre",
        "ason"
      ],
      [
        "Ġ",
        "/"
      ],
      [
        "Ġm",
        "akes"
      ],
      [
        "ed",
        "eral"
      ],
      [
        "Ġm",
        "us"
      ],
      [
        "ag",
        "ed"
      ],
      [
        "ĠUn",
        "iversity"
      ],
      [
        "Ġcommun",
        "ity"
      ],
      [
        "our",
        "n"
      ],
      [
        "p",
        "or"
      ],
      [
        "ar",
        "m"
      ],
      [
        "Ġ3",
        "0"
      ],
      [
        "Ġ201",
        "6"
      ],
      [
        "ĠWh",
        "ile"
      ],
      [
        "in",
        "c"
      ],
      [
        "l",
        "er"
      ],
      [
        "Ġreport",
        "ed"
      ],
      [
        "Ġother",
        "s"
      ],
      [
        "Ġg",
        "iven"
      ],
      [
        "ĠM",
        "in"
      ],
      [
        "Ġbelie",
        "ve"
      ],
      [
        "ĠDem",
        "ocrat"
      ],
      [
        "it",
        "ions"
      ],
      [
        "Ġann",
        "oun"
      ],
      [
        "ens",
        "ive"
      ],
      [
        "ĠF",
        "l"
      ],
      [
        "or",
        "ld"
      ],
      [
        "Ġvide",
        "o"
      ],
      [
        "I",
        "N"
      ],
      [
        "Ġpro",
        "b"
      ],
      [
        "Ġstr",
        "ong"
      ],
      [
        "n",
        "ot"
      ],
      [
        "Ġget",
        "ting"
      ],
      [
        "Ġc",
        "ut"
      ],
      [
        ".",
        ","
      ],
      [
        "an",
        "ces"
      ],
      [
        "Ġ",
        "ident"
      ],
      [
        "ir",
        "on"
      ],
      [
        "Ġl",
        "ight"
      ],
      [
        "Ġl",
        "im"
      ],
      [
        "o",
        "ber"
      ],
      [
        "ĠP",
        "r"
      ],
      [
        "ore",
        "d"
      ],
      [
        "ur",
        "ther"
      ],
      [
        "iet",
        "y"
      ],
      [
        "Ġs",
        "ent"
      ],
      [
        "b",
        "ack"
      ],
      [
        "Ġcon",
        "d"
      ],
      [
        "Ġ",
        "X"
      ],
      [
        "ĠD",
        "on"
      ],
      [
        "Ġc",
        "a"
      ],
      [
        "Ġn",
        "ational"
      ],
      [
        "Ġ",
        "i"
      ],
      [
        "Ġn",
        "et"
      ],
      [
        "Ġem",
        "ploy"
      ],
      [
        "Ġs",
        "our"
      ],
      [
        "Ġc",
        "reat"
      ],
      [
        "as",
        "hing"
      ],
      [
        "Ġind",
        "ust"
      ],
      [
        "ĠC",
        "ent"
      ],
      [
        "u",
        "se"
      ],
      [
        "Ġh",
        "ig"
      ],
      [
        "Ġde",
        "ath"
      ],
      [
        "Ġb",
        "ased"
      ],
      [
        "Ġsa",
        "f"
      ],
      [
        "Ġstart",
        "ed"
      ],
      [
        "Ġcl",
        "ose"
      ],
      [
        "ort",
        "s"
      ],
      [
        "Ġ1",
        "6"
      ],
      [
        "re",
        "st"
      ],
      [
        "b",
        "ook"
      ],
      [
        "le",
        "ment"
      ],
      [
        "1",
        "1"
      ],
      [
        "Ġhist",
        "ory"
      ],
      [
        "Ġ201",
        "5"
      ],
      [
        "ĠS",
        "ec"
      ],
      [
        "Ġpart",
        "y"
      ],
      [
        "as",
        "ter"
      ],
      [
        "Ġ",
        "&"
      ],
      [
        "ĠAmeric",
        "a"
      ],
      [
        "Ġl",
        "ow"
      ],
      [
        "Ġm",
        "om"
      ],
      [
        "Ġav",
        "ailable"
      ],
      [
        "Ġacc",
        "ount"
      ],
      [
        "Ġser",
        "ies"
      ],
      [
        "sel",
        "ves"
      ],
      [
        "m",
        "y"
      ],
      [
        "Ġ",
        "|"
      ],
      [
        "Ġcom",
        "es"
      ],
      [
        "Ġtr",
        "ying"
      ],
      [
        "Ġfollow",
        "ing"
      ],
      [
        "Ġiss",
        "ue"
      ],
      [
        "Ġide",
        "a"
      ],
      [
        "re",
        "ed"
      ],
      [
        "Ġl",
        "ove"
      ],
      [
        "Ġacc",
        "ess"
      ],
      [
        "in",
        "ation"
      ],
      [
        "Ġto",
        "get"
      ],
      [
        "Ġtoget",
        "her"
      ],
      [
        "Ġag",
        "o"
      ],
      [
        "Ġal",
        "most"
      ],
      [
        "ie",
        "f"
      ],
      [
        "ĠG",
        "er"
      ],
      [
        "Ġf",
        "oc"
      ],
      [
        "Ġp",
        "ar"
      ],
      [
        "ĠN",
        "e"
      ],
      [
        "her",
        "s"
      ],
      [
        "u",
        "ly"
      ],
      [
        "il",
        "ar"
      ],
      [
        "Ġpr",
        "act"
      ],
      [
        "ab",
        "ility"
      ],
      [
        "res",
        "ent"
      ],
      [
        "ra",
        "el"
      ],
      [
        "Ġis",
        "n"
      ],
      [
        "Ġcle",
        "ar"
      ],
      [
        "ut",
        "es"
      ],
      [
        "Ġ1",
        "3"
      ],
      [
        "ition",
        "al"
      ],
      [
        "Ġr",
        "ul"
      ],
      [
        "Ġtr",
        "ad"
      ],
      [
        "int",
        "on"
      ],
      [
        "th",
        "ough"
      ],
      [
        "ĠN",
        "orth"
      ],
      [
        "Ġan",
        "al"
      ],
      [
        "og",
        "rap"
      ],
      [
        "?",
        "\""
      ],
      [
        "g",
        "ed"
      ],
      [
        "Ġfil",
        "m"
      ],
      [
        "Ġr",
        "is"
      ],
      [
        "u",
        "ment"
      ],
      [
        "min",
        "ist"
      ],
      [
        "Ġ1",
        "4"
      ],
      [
        "ere",
        "nce"
      ],
      [
        "ail",
        "s"
      ],
      [
        "Ġadd",
        "ed"
      ],
      [
        "i",
        "en"
      ],
      [
        "Ġs",
        "ix"
      ],
      [
        "Ġf",
        "av"
      ],
      [
        "Ġimp",
        "ro"
      ],
      [
        "Ġexper",
        "ience"
      ],
      [
        "ĠG",
        "r"
      ],
      [
        "Ġh",
        "alf"
      ],
      [
        "ĠCan",
        "ad"
      ],
      [
        "ĠE",
        "ng"
      ],
      [
        "e",
        "f"
      ],
      [
        "Ġl",
        "ive"
      ],
      [
        "ivid",
        "ual"
      ],
      [
        "un",
        "ch"
      ],
      [
        "Ġany",
        "thing"
      ],
      [
        "n",
        "es"
      ],
      [
        "Ġm",
        "iss"
      ],
      [
        "Ġ201",
        "4"
      ],
      [
        "Ġare",
        "a"
      ],
      [
        "Ġpres",
        "ent"
      ],
      [
        "Ġlook",
        "ing"
      ],
      [
        "Ġcomple",
        "te"
      ],
      [
        "ĠW",
        "ar"
      ],
      [
        "ust",
        "om"
      ],
      [
        "ĠB",
        "ro"
      ],
      [
        "Ġsay",
        "ing"
      ],
      [
        "Ġb",
        "ill"
      ],
      [
        "re",
        "am"
      ],
      [
        "r",
        "ict"
      ],
      [
        "ru",
        "g"
      ],
      [
        "Ġsec",
        "urity"
      ],
      [
        "a",
        "f"
      ],
      [
        "Ġb",
        "ad"
      ],
      [
        "Ġv",
        "ict"
      ],
      [
        "ow",
        "s"
      ],
      [
        "ci",
        "ally"
      ],
      [
        "ĠB",
        "rit"
      ],
      [
        "Ġne",
        "ar"
      ],
      [
        "it",
        "ter"
      ],
      [
        "o",
        "f"
      ],
      [
        "Ġcour",
        "t"
      ],
      [
        "u",
        "ge"
      ],
      [
        "Ġb",
        "ene"
      ],
      [
        "Ġph",
        "ot"
      ],
      [
        "Ġ1",
        "7"
      ],
      [
        "Ġm",
        "or"
      ],
      [
        "Ġt",
        "aken"
      ],
      [
        "Ġcomp",
        "et"
      ],
      [
        "ar",
        "r"
      ],
      [
        "ĠCl",
        "inton"
      ],
      [
        "ro",
        "du"
      ],
      [
        "at",
        "ors"
      ],
      [
        "ĠM",
        "an"
      ],
      [
        "ra",
        "w"
      ],
      [
        "e",
        "b"
      ],
      [
        "Ġmilit",
        "ary"
      ],
      [
        "Ġent",
        "ire"
      ],
      [
        "a",
        "id"
      ],
      [
        "ĠN",
        "ational"
      ],
      [
        "Ġbeh",
        "ind"
      ],
      [
        "ĠA",
        "b"
      ],
      [
        "a",
        "i"
      ],
      [
        "ĠIs",
        "rael"
      ],
      [
        "A",
        "T"
      ],
      [
        "Ġa",
        "ut"
      ],
      [
        "ĠA",
        "f"
      ],
      [
        "ĠD",
        "ep"
      ],
      [
        "Ġp",
        "ubl"
      ],
      [
        "ward",
        "s"
      ],
      [
        "ĠN",
        "ow"
      ],
      [
        "ĠJ",
        "ust"
      ],
      [
        "ĠC",
        "al"
      ],
      [
        "ĠS",
        "u"
      ],
      [
        "Ġtr",
        "y"
      ],
      [
        "Ġ",
        "er"
      ],
      [
        "Ġth",
        "reat"
      ],
      [
        "s",
        "y"
      ],
      [
        "Ġm",
        "ind"
      ],
      [
        "Ġr",
        "ather"
      ],
      [
        "ap",
        "er"
      ],
      [
        "Ġf",
        "ace"
      ],
      [
        "Ġdisc",
        "uss"
      ],
      [
        "Ġind",
        "ividual"
      ],
      [
        "Ġpolic",
        "y"
      ],
      [
        "Ġm",
        "ult"
      ],
      [
        "Ġpro",
        "per"
      ],
      [
        "Ġsing",
        "le"
      ],
      [
        "ĠB",
        "y"
      ],
      [
        "os",
        "p"
      ],
      [
        "ir",
        "c"
      ],
      [
        "Ġf",
        "all"
      ],
      [
        "Ġwant",
        "ed"
      ],
      [
        "pl",
        "ay"
      ],
      [
        "ĠIn",
        "st"
      ],
      [
        "Ġs",
        "um"
      ],
      [
        "ĠH",
        "is"
      ],
      [
        "Ġto",
        "t"
      ],
      [
        "Ġqu",
        "ick"
      ],
      [
        "Ġcomp",
        "an"
      ],
      [
        "Ġstud",
        "y"
      ],
      [
        "ĠR",
        "es"
      ],
      [
        "ll",
        "ing"
      ],
      [
        "Ġ",
        "z"
      ],
      [
        "ĠThe",
        "se"
      ],
      [
        "3",
        "0"
      ],
      [
        "ĠW",
        "orld"
      ],
      [
        "\"",
        ","
      ],
      [
        "Ġm",
        "ess"
      ],
      [
        "Ġatt",
        "empt"
      ],
      [
        "at",
        "ic"
      ],
      [
        "Ġsome",
        "one"
      ],
      [
        "ĠD",
        "av"
      ],
      [
        "ĠE",
        "d"
      ],
      [
        "Ġbr",
        "ing"
      ],
      [
        "er",
        "t"
      ],
      [
        "Ġspec",
        "ial"
      ],
      [
        "Ġc",
        "ult"
      ],
      [
        "Ġ",
        "Â"
      ],
      [
        "o",
        "ff"
      ],
      [
        "ĠS",
        "ome"
      ],
      [
        "id",
        "s"
      ],
      [
        "1",
        "2"
      ],
      [
        "ĠA",
        "pp"
      ],
      [
        "Ġre",
        "du"
      ],
      [
        "al",
        "es"
      ],
      [
        "ĠA",
        "ust"
      ],
      [
        "ĠG",
        "e"
      ],
      [
        "ĠC",
        "ity"
      ],
      [
        "Ġpre",
        "t"
      ],
      [
        "Ġcom",
        "b"
      ],
      [
        "Ġf",
        "ood"
      ],
      [
        "Ġl",
        "and"
      ],
      [
        "ĠB",
        "ar"
      ],
      [
        "Ġbl",
        "ack"
      ],
      [
        "Ġke",
        "y"
      ],
      [
        "Ġplay",
        "er"
      ],
      [
        "Ġfr",
        "ont"
      ],
      [
        "Ġt",
        "aking"
      ],
      [
        "ashing",
        "ton"
      ],
      [
        "ol",
        "ution"
      ],
      [
        "el",
        "t"
      ],
      [
        "p",
        "ar"
      ],
      [
        "ĠP",
        "art"
      ],
      [
        "p",
        "ly"
      ],
      [
        "ĠM",
        "y"
      ],
      [
        "ar",
        "ter"
      ],
      [
        "Ġf",
        "oot"
      ],
      [
        "am",
        "ed"
      ],
      [
        "Ġb",
        "ody"
      ],
      [
        "Ġrese",
        "arch"
      ],
      [
        "if",
        "y"
      ],
      [
        "ro",
        "te"
      ],
      [
        "Ġnot",
        "hing"
      ],
      [
        "ic",
        "ult"
      ],
      [
        "v",
        "iron"
      ],
      [
        "ĠM",
        "e"
      ],
      [
        "Ġprob",
        "ably"
      ],
      [
        "Ġsp",
        "ace"
      ],
      [
        "Ġel",
        "se"
      ],
      [
        "c",
        "hes"
      ],
      [
        "Ġex",
        "ist"
      ],
      [
        "Ġhow",
        "ever"
      ],
      [
        "m",
        "ing"
      ],
      [
        "Ġc",
        "ou"
      ],
      [
        "Ġsim",
        "ilar"
      ],
      [
        "Ġdes",
        "crib"
      ],
      [
        "Ġcon",
        "nect"
      ],
      [
        "ĠJ",
        "an"
      ],
      [
        "ĠW",
        "ashington"
      ],
      [
        "Ġm",
        "ass"
      ],
      [
        "Ġcom",
        "ing"
      ],
      [
        "Ġj",
        "o"
      ],
      [
        "Ġ201",
        "3"
      ],
      [
        "ĠD",
        "o"
      ],
      [
        "rem",
        "e"
      ],
      [
        "Ġcon",
        "v"
      ],
      [
        "l",
        "ish"
      ],
      [
        "ĠG",
        "u"
      ],
      [
        "Ġright",
        "s"
      ],
      [
        "Ġsign",
        "ific"
      ],
      [
        "Ġim",
        "m"
      ],
      [
        "Ġdec",
        "ision"
      ],
      [
        "c",
        "ing"
      ],
      [
        "h",
        "y"
      ],
      [
        "Ġbene",
        "f"
      ],
      [
        "Ġe",
        "ither"
      ],
      [
        "ac",
        "es"
      ],
      [
        "Ġh",
        "ouse"
      ],
      [
        "Ġf",
        "urther"
      ],
      [
        "Ġc",
        "oun"
      ],
      [
        "Ġs",
        "us"
      ],
      [
        "Ġpoint",
        "s"
      ],
      [
        "Ġt",
        "arg"
      ],
      [
        ".",
        ")"
      ],
      [
        "Ġe",
        "ar"
      ],
      [
        "ull",
        "y"
      ],
      [
        "ĠS",
        "outh"
      ],
      [
        "an",
        "a"
      ],
      [
        "Ġme",
        "as"
      ],
      [
        "Ġf",
        "ire"
      ],
      [
        "Ġw",
        "a"
      ],
      [
        "as",
        "ing"
      ],
      [
        "Ġfe",
        "at"
      ],
      [
        "Ġb",
        "an"
      ],
      [
        "Ġre",
        "pl"
      ],
      [
        "Ġen",
        "c"
      ],
      [
        "Ġch",
        "all"
      ],
      [
        "Ġ201",
        "2"
      ],
      [
        "Ġserv",
        "ice"
      ],
      [
        "Ġth",
        "ird"
      ],
      [
        "ive",
        "ly"
      ],
      [
        "Ġcompan",
        "ies"
      ],
      [
        "Ġw",
        "rote"
      ],
      [
        "Ġf",
        "ig"
      ],
      [
        "Ġst",
        "ates"
      ],
      [
        "Ġbe",
        "gin"
      ],
      [
        "Ġcre",
        "ate"
      ],
      [
        "ĠM",
        "ed"
      ],
      [
        "Ġiss",
        "ues"
      ],
      [
        "ent",
        "ly"
      ],
      [
        "s",
        "w"
      ],
      [
        "Ġinf",
        "l"
      ],
      [
        "Ġstud",
        "ents"
      ],
      [
        "Ġrel",
        "ations"
      ],
      [
        "Ġf",
        "ield"
      ],
      [
        "s",
        "c"
      ],
      [
        "o",
        "ver"
      ],
      [
        "Ġcom",
        "pl"
      ],
      [
        "a",
        "pe"
      ],
      [
        "ir",
        "l"
      ],
      [
        "ĠIn",
        "tern"
      ],
      [
        "Ġc",
        "and"
      ],
      [
        "ĠA",
        "cc"
      ],
      [
        "Ġ",
        ":"
      ],
      [
        "Ġf",
        "ederal"
      ],
      [
        "ĠI",
        "r"
      ],
      [
        "ĠGer",
        "man"
      ],
      [
        "n",
        "ow"
      ],
      [
        "un",
        "g"
      ],
      [
        "Ġseem",
        "s"
      ],
      [
        "Ġs",
        "ound"
      ],
      [
        "pp",
        "ing"
      ],
      [
        "Ġp",
        "ick"
      ],
      [
        "ri",
        "ed"
      ],
      [
        "pe",
        "cially"
      ],
      [
        "Ġst",
        "ri"
      ],
      [
        "O",
        "N"
      ],
      [
        "Ġwho",
        "le"
      ],
      [
        "ĠCh",
        "ina"
      ],
      [
        "Ġlead",
        "ers"
      ],
      [
        "itt",
        "ed"
      ],
      [
        "Ġro",
        "om"
      ],
      [
        "Ġsu",
        "per"
      ],
      [
        "m",
        "b"
      ],
      [
        "Ġex",
        "ec"
      ],
      [
        "a",
        "ul"
      ],
      [
        "u",
        "ation"
      ],
      [
        "a",
        "ult"
      ],
      [
        "p",
        "ite"
      ],
      [
        "Ġd",
        "ue"
      ],
      [
        "Ġst",
        "ep"
      ],
      [
        "Ġd",
        "oc"
      ],
      [
        "ib",
        "ility"
      ],
      [
        "Ġofficial",
        "s"
      ],
      [
        "it",
        "ch"
      ],
      [
        "id",
        "ay"
      ],
      [
        "Ġbe",
        "gan"
      ],
      [
        "Ġst",
        "op"
      ],
      [
        "iv",
        "il"
      ],
      [
        "Ġw",
        "atch"
      ],
      [
        "y",
        "n"
      ],
      [
        "Ġro",
        "le"
      ],
      [
        "1",
        "5"
      ],
      [
        "Ġevery",
        "thing"
      ],
      [
        "Ġt",
        "re"
      ],
      [
        "Ġtr",
        "a"
      ],
      [
        "il",
        "t"
      ],
      [
        "ĠD",
        "r"
      ],
      [
        "o",
        "on"
      ],
      [
        "Ġcharac",
        "ter"
      ],
      [
        "Ġstate",
        "ment"
      ],
      [
        "Ġrele",
        "ased"
      ],
      [
        "Ġprov",
        "ide"
      ],
      [
        "Ġoff",
        "ice"
      ],
      [
        "g",
        "o"
      ],
      [
        "Ġd",
        "am"
      ],
      [
        "Ġ19",
        "8"
      ],
      [
        "ĠAs",
        "s"
      ],
      [
        "Ġout",
        "side"
      ],
      [
        "Ġhim",
        "self"
      ],
      [
        "Ġe",
        "y"
      ],
      [
        "Ġl",
        "ab"
      ],
      [
        "ob",
        "al"
      ],
      [
        "Ġmat",
        "ter"
      ],
      [
        "Ġfin",
        "al"
      ],
      [
        "Ġst",
        "at"
      ],
      [
        "Ġpos",
        "ition"
      ],
      [
        "ad",
        "es"
      ],
      [
        "Ġ2",
        "5"
      ],
      [
        "Ġc",
        "ustom"
      ],
      [
        "Ġse",
        "lf"
      ],
      [
        "Ġbec",
        "ame"
      ],
      [
        "Ġdevelop",
        "ment"
      ],
      [
        "Ġo",
        "pt"
      ],
      [
        "Ġt",
        "reat"
      ],
      [
        "Ġen",
        "er"
      ],
      [
        "Ġit",
        "self"
      ],
      [
        "Ġin",
        "it"
      ],
      [
        "i",
        "od"
      ],
      [
        "l",
        "ike"
      ],
      [
        "att",
        "le"
      ],
      [
        "Ġd",
        "ou"
      ],
      [
        "he",
        "ad"
      ],
      [
        "viron",
        "ment"
      ],
      [
        "Ġcount",
        "ries"
      ],
      [
        "Ġrep",
        "resent"
      ],
      [
        "Ġthem",
        "selves"
      ],
      [
        "Ġne",
        "g"
      ],
      [
        "Ġl",
        "arg"
      ],
      [
        "arl",
        "ier"
      ],
      [
        "I",
        "S"
      ],
      [
        "er",
        "y"
      ],
      [
        "r",
        "ing"
      ],
      [
        "Ġhour",
        "s"
      ],
      [
        "end",
        "er"
      ],
      [
        "Ġam",
        "ount"
      ],
      [
        "ac",
        "ed"
      ],
      [
        "Ġh",
        "it"
      ],
      [
        "Ġcontin",
        "ue"
      ],
      [
        "Ġgener",
        "al"
      ],
      [
        "Ġh",
        "ope"
      ],
      [
        "Ġadd",
        "ress"
      ],
      [
        "se",
        "c"
      ],
      [
        "Ġspec",
        "ific"
      ],
      [
        "ĠNew",
        "s"
      ],
      [
        "Ġbre",
        "ak"
      ],
      [
        "Ġ1",
        "00"
      ],
      [
        "Ġa",
        "ction"
      ],
      [
        "Ġad",
        "minist"
      ],
      [
        "ĠW",
        "ill"
      ],
      [
        "og",
        "n"
      ],
      [
        "Ġ201",
        "7"
      ],
      [
        "Ġdiff",
        "icult"
      ],
      [
        "p",
        "ro"
      ],
      [
        "Ġg",
        "un"
      ],
      [
        "Ġinter",
        "view"
      ],
      [
        "Ġsignific",
        "ant"
      ],
      [
        "Ġg",
        "round"
      ],
      [
        "Ġab",
        "ove"
      ],
      [
        "am",
        "er"
      ],
      [
        "Ġev",
        "idence"
      ],
      [
        "l",
        "im"
      ],
      [
        "ĠE",
        "n"
      ],
      [
        "Ġprof",
        "ess"
      ],
      [
        "Ġgroup",
        "s"
      ],
      [
        "Ġcomm",
        "on"
      ],
      [
        "Ġsim",
        "ply"
      ],
      [
        "il",
        "i"
      ],
      [
        "l",
        "am"
      ],
      [
        "Ġresp",
        "ons"
      ],
      [
        "Ġmus",
        "ic"
      ],
      [
        "Ġd",
        "rug"
      ],
      [
        "Ġwas",
        "n"
      ],
      [
        "Ġr",
        "ad"
      ],
      [
        "Ġag",
        "ree"
      ],
      [
        "ĠM",
        "us"
      ],
      [
        "Ġtr",
        "ue"
      ],
      [
        "ĠC",
        "ar"
      ],
      [
        "Ġrun",
        "ning"
      ],
      [
        "um",
        "b"
      ],
      [
        "Ġapp",
        "e"
      ],
      [
        "Ġneed",
        "s"
      ],
      [
        "Ġty",
        "p"
      ],
      [
        "idd",
        "le"
      ],
      [
        "Ġevery",
        "one"
      ],
      [
        "o",
        "id"
      ],
      [
        "ĠW",
        "est"
      ],
      [
        "Ġshow",
        "s"
      ],
      [
        "Ġb",
        "all"
      ],
      [
        "Ġneed",
        "ed"
      ],
      [
        "Ġd",
        "om"
      ],
      [
        "Ġbuild",
        "ing"
      ],
      [
        "Ġl",
        "at"
      ],
      [
        "ĠP",
        "e"
      ],
      [
        "ĠSt",
        "e"
      ],
      [
        "ĠP",
        "er"
      ],
      [
        "og",
        "le"
      ],
      [
        "ĠF",
        "ace"
      ],
      [
        "Ġwom",
        "an"
      ],
      [
        "B",
        "C"
      ],
      [
        "Ġin",
        "j"
      ],
      [
        "e",
        "ks"
      ],
      [
        "Ġre",
        "d"
      ],
      [
        "Ġg",
        "en"
      ],
      [
        "Ã",
        "©"
      ],
      [
        "Ġd",
        "est"
      ],
      [
        "ĠWh",
        "ite"
      ],
      [
        "re",
        "g"
      ],
      [
        "rib",
        "ut"
      ],
      [
        "ĠC",
        "ong"
      ],
      [
        "Ġindust",
        "ry"
      ],
      [
        "Ġinclud",
        "e"
      ],
      [
        "ĠTw",
        "itter"
      ],
      [
        "Ġde",
        "ep"
      ],
      [
        "Ġb",
        "illion"
      ],
      [
        "Ġvers",
        "ion"
      ],
      [
        "Ġleg",
        "al"
      ],
      [
        "Ġ5",
        "0"
      ],
      [
        "Ġt",
        "em"
      ],
      [
        "Ġrele",
        "ase"
      ],
      [
        "Ġex",
        "c"
      ],
      [
        "Ġs",
        "ense"
      ],
      [
        "as",
        "k"
      ],
      [
        "Ġbel",
        "ow"
      ],
      [
        "ĠK",
        "e"
      ],
      [
        "ourn",
        "al"
      ],
      [
        "Ġsa",
        "w"
      ],
      [
        "Ġwh",
        "ite"
      ],
      [
        "ĠO",
        "ct"
      ],
      [
        "Ġpret",
        "ty"
      ],
      [
        "ang",
        "u"
      ],
      [
        "Ġqu",
        "ite"
      ],
      [
        "Ġcand",
        "id"
      ],
      [
        "Ġplay",
        "ed"
      ],
      [
        "Ġal",
        "leg"
      ],
      [
        "Ġfriend",
        "s"
      ],
      [
        "ist",
        "ic"
      ],
      [
        "Ġm",
        "ag"
      ],
      [
        "Ġener",
        "gy"
      ],
      [
        "r",
        "ight"
      ],
      [
        "Ġm",
        "ot"
      ],
      [
        "iv",
        "al"
      ],
      [
        "Ġph",
        "ys"
      ],
      [
        "le",
        "v"
      ],
      [
        "Ġl",
        "ate"
      ],
      [
        "Ġh",
        "om"
      ],
      [
        "if",
        "t"
      ],
      [
        "ep",
        "end"
      ],
      [
        "Ġab",
        "s"
      ],
      [
        "os",
        "ing"
      ],
      [
        "at",
        "ur"
      ],
      [
        "Ġa",
        "p"
      ],
      [
        "Ġl",
        "ost"
      ],
      [
        "ĠM",
        "ich"
      ],
      [
        "Ġplay",
        "ing"
      ],
      [
        "or",
        "ing"
      ],
      [
        "s",
        "er"
      ],
      [
        "f",
        "ully"
      ],
      [
        "A",
        "R"
      ],
      [
        "Ġch",
        "arg"
      ],
      [
        "Ġes",
        "pecially"
      ],
      [
        "Ġan",
        "im"
      ],
      [
        "Ġvot",
        "e"
      ],
      [
        "Ġtr",
        "ack"
      ],
      [
        "Ġe",
        "lection"
      ],
      [
        "Ġj",
        "ud"
      ],
      [
        "ĠA",
        "ug"
      ],
      [
        "Ġeconom",
        "ic"
      ],
      [
        "Ġrecent",
        "ly"
      ],
      [
        "Ġper",
        "iod"
      ],
      [
        "Ġ2",
        "4"
      ],
      [
        "Ġinst",
        "ead"
      ],
      [
        "is",
        "c"
      ],
      [
        "b",
        "ody"
      ],
      [
        "A",
        "N"
      ],
      [
        "w",
        "here"
      ],
      [
        "ĠFace",
        "book"
      ],
      [
        "Ġh",
        "ost"
      ],
      [
        "Ġc",
        "op"
      ],
      [
        "ĠH",
        "ar"
      ],
      [
        "Ġopp",
        "ortun"
      ],
      [
        "ĠM",
        "arch"
      ],
      [
        "Ġsu",
        "ff"
      ],
      [
        "ĠGo",
        "ogle"
      ],
      [
        "ĠS",
        "m"
      ],
      [
        "Ġdet",
        "er"
      ],
      [
        "i",
        "j"
      ],
      [
        "ag",
        "er"
      ],
      [
        "Ġac",
        "cept"
      ],
      [
        "Ġwe",
        "eks"
      ],
      [
        "Ġfor",
        "ward"
      ],
      [
        "ĠSe",
        "pt"
      ],
      [
        "med",
        "i"
      ],
      [
        "ĠRepublic",
        "an"
      ],
      [
        "Ġrel",
        "ig"
      ],
      [
        "b",
        "o"
      ],
      [
        "Ġlong",
        "er"
      ],
      [
        "1",
        "6"
      ],
      [
        "Ġso",
        "on"
      ],
      [
        "Ġdec",
        "l"
      ],
      [
        "Ġb",
        "ar"
      ],
      [
        "ir",
        "t"
      ],
      [
        "Ġchang",
        "es"
      ],
      [
        "ent",
        "al"
      ],
      [
        "ĠDep",
        "artment"
      ],
      [
        "ot",
        "e"
      ],
      [
        "1",
        "4"
      ],
      [
        "Ġl",
        "o"
      ],
      [
        "Ġs",
        "ite"
      ],
      [
        "Ġed",
        "uc"
      ],
      [
        "Ġp",
        "le"
      ],
      [
        "Ġp",
        "ain"
      ],
      [
        "Ġhig",
        "her"
      ],
      [
        "Ġmom",
        "ent"
      ],
      [
        "Ġe",
        "p"
      ],
      [
        "anc",
        "ial"
      ],
      [
        "O",
        "R"
      ],
      [
        "ĠE",
        "l"
      ],
      [
        "n",
        "ers"
      ],
      [
        "Ġp",
        "ie"
      ],
      [
        "ĠAcc",
        "ording"
      ],
      [
        "ir",
        "m"
      ],
      [
        "Ġsh",
        "oot"
      ],
      [
        "itt",
        "ing"
      ],
      [
        "d",
        "en"
      ],
      [
        "Ġcons",
        "um"
      ],
      [
        "ĠA",
        "ct"
      ],
      [
        "Ġon",
        "line"
      ],
      [
        "Ġl",
        "ed"
      ],
      [
        "y",
        "le"
      ],
      [
        "ac",
        "hed"
      ],
      [
        "ĠM",
        "ore"
      ],
      [
        "Ġc",
        "irc"
      ],
      [
        "iqu",
        "e"
      ],
      [
        "Ġob",
        "ject"
      ],
      [
        "m",
        "e"
      ],
      [
        "al",
        "t"
      ],
      [
        "ight",
        "s"
      ],
      [
        "Ġwr",
        "ong"
      ],
      [
        "ĠO",
        "ff"
      ],
      [
        "c",
        "il"
      ],
      [
        "Ġp",
        "red"
      ],
      [
        "le",
        "ge"
      ],
      [
        "Ġwe",
        "bs"
      ],
      [
        "Ġcons",
        "ider"
      ],
      [
        "ĠH",
        "ere"
      ],
      [
        "Ġc",
        "red"
      ],
      [
        "f",
        "er"
      ],
      [
        "o",
        "ke"
      ],
      [
        "Ġ201",
        "1"
      ],
      [
        "Ġfoc",
        "us"
      ],
      [
        "Ġris",
        "k"
      ],
      [
        "ĠJ",
        "une"
      ],
      [
        "Ġre",
        "view"
      ],
      [
        "ul",
        "arly"
      ],
      [
        "Ġp",
        "arent"
      ],
      [
        "ove",
        "red"
      ],
      [
        "Ġt",
        "it"
      ],
      [
        "Ġst",
        "ru"
      ],
      [
        "Ġcont",
        "ract"
      ],
      [
        ".",
        "'"
      ],
      [
        "Ġhe",
        "ld"
      ],
      [
        "Ġwor",
        "ks"
      ],
      [
        "Ġsh",
        "are"
      ],
      [
        "id",
        "ing"
      ],
      [
        "Ġre",
        "ve"
      ],
      [
        "ĠE",
        "m"
      ],
      [
        "Ġpot",
        "ential"
      ],
      [
        "Ġword",
        "s"
      ],
      [
        "Ġre",
        "v"
      ],
      [
        "Ġserv",
        "ices"
      ],
      [
        "Ġw",
        "alk"
      ],
      [
        "ĠA",
        "pr"
      ],
      [
        "ĠCong",
        "ress"
      ],
      [
        "Ġlaw",
        "s"
      ],
      [
        "ĠSy",
        "ri"
      ],
      [
        "o",
        "le"
      ],
      [
        "ĠH",
        "ill"
      ],
      [
        "ar",
        "c"
      ],
      [
        "t",
        "ime"
      ],
      [
        "Ġ",
        ")"
      ],
      [
        "Ġa",
        "ud"
      ],
      [
        "ĠR",
        "ed"
      ],
      [
        "Ġd",
        "i"
      ],
      [
        "o",
        "e"
      ],
      [
        "Ġst",
        "ay"
      ],
      [
        "Ġval",
        "ue"
      ],
      [
        "ĠG",
        "od"
      ],
      [
        "Ġche",
        "ck"
      ],
      [
        "c",
        "ial"
      ],
      [
        "Ġbl",
        "ock"
      ],
      [
        "he",
        "l"
      ],
      [
        "Ġa",
        "ge"
      ],
      [
        "Ġc",
        "e"
      ],
      [
        "Ġart",
        "icle"
      ],
      [
        "e",
        "es"
      ],
      [
        "Ġfav",
        "or"
      ],
      [
        "Ġst",
        "e"
      ],
      [
        "Ġpop",
        "ular"
      ],
      [
        "Ġpr",
        "im"
      ],
      [
        "il",
        "ities"
      ],
      [
        "on",
        "se"
      ],
      [
        "A",
        "S"
      ],
      [
        "ri",
        "pt"
      ],
      [
        "ate",
        "g"
      ],
      [
        "E",
        "S"
      ],
      [
        "i",
        "ents"
      ],
      [
        "it",
        "ution"
      ],
      [
        "Ġcomp",
        "ut"
      ],
      [
        "le",
        "ar"
      ],
      [
        "u",
        "ary"
      ],
      [
        "ap",
        "an"
      ],
      [
        "as",
        "ons"
      ],
      [
        "Ġperson",
        "al"
      ],
      [
        "Ġw",
        "ind"
      ],
      [
        "v",
        "al"
      ],
      [
        "Ġapp",
        "lic"
      ],
      [
        "f",
        "ect"
      ],
      [
        "ĠJ",
        "uly"
      ],
      [
        "h",
        "od"
      ],
      [
        "ĠD",
        "es"
      ],
      [
        "Ġresult",
        "s"
      ],
      [
        "Ġan",
        "sw"
      ],
      [
        "ĠAust",
        "ral"
      ],
      [
        "ud",
        "e"
      ],
      [
        "l",
        "t"
      ],
      [
        "h",
        "aps"
      ],
      [
        "1",
        "7"
      ],
      [
        "Ġtot",
        "al"
      ],
      [
        "Ġany",
        "one"
      ],
      [
        "Ġso",
        "ld"
      ],
      [
        "1",
        "3"
      ],
      [
        "Ġr",
        "ate"
      ],
      [
        "Ġne",
        "cess"
      ],
      [
        "n",
        "s"
      ],
      [
        "Ġv",
        "ol"
      ],
      [
        "h",
        "am"
      ],
      [
        "ĠM",
        "ond"
      ],
      [
        "Ġd",
        "en"
      ],
      [
        "ĠS",
        "w"
      ],
      [
        "Ġmin",
        "utes"
      ],
      [
        "re",
        "l"
      ],
      [
        "Ġtechn",
        "ology"
      ],
      [
        "Ġres",
        "pect"
      ],
      [
        "Ġsc",
        "ient"
      ],
      [
        "ĠA",
        "g"
      ],
      [
        "Ġde",
        "ad"
      ],
      [
        "Ġexp",
        "ress"
      ],
      [
        "Ġsur",
        "pr"
      ],
      [
        "ang",
        "er"
      ],
      [
        "Ġtarg",
        "et"
      ],
      [
        "Ġant",
        "i"
      ],
      [
        "Ġh",
        "y"
      ],
      [
        "Ġe",
        "arlier"
      ],
      [
        "Ġcom",
        "ment"
      ],
      [
        "it",
        "er"
      ],
      [
        "ke",
        "y"
      ],
      [
        "u",
        "le"
      ],
      [
        "Ġcre",
        "ated"
      ],
      [
        "Ġproble",
        "ms"
      ],
      [
        "ag",
        "ing"
      ],
      [
        "a",
        "ut"
      ],
      [
        "is",
        "l"
      ],
      [
        "Ġrece",
        "ived"
      ],
      [
        "ĠP",
        "al"
      ],
      [
        "Ġen",
        "vironment"
      ],
      [
        "ĠFr",
        "iday"
      ],
      [
        "Ġb",
        "ase"
      ],
      [
        "Ġfor",
        "ce"
      ],
      [
        "Ġexpect",
        "ed"
      ],
      [
        "Ġannoun",
        "ced"
      ],
      [
        "at",
        "ives"
      ],
      [
        "om",
        "m"
      ],
      [
        "Ġp",
        "ort"
      ],
      [
        "Ġpriv",
        "ate"
      ],
      [
        "act",
        "ion"
      ],
      [
        "n",
        "a"
      ],
      [
        "Ġquest",
        "ions"
      ],
      [
        "end",
        "s"
      ],
      [
        "Ġimp",
        "act"
      ],
      [
        "ĠC",
        "ont"
      ],
      [
        "Ġfun",
        "ction"
      ],
      [
        "Ġcan",
        "not"
      ],
      [
        "Ġincre",
        "ase"
      ],
      [
        "Ġgo",
        "al"
      ],
      [
        "Ġw",
        "ays"
      ],
      [
        "Ġup",
        "d"
      ],
      [
        "du",
        "ct"
      ],
      [
        "i",
        "res"
      ],
      [
        "u",
        "el"
      ],
      [
        "itt",
        "ee"
      ],
      [
        "av",
        "ing"
      ],
      [
        "Ġ19",
        "7"
      ],
      [
        "Ġeas",
        "y"
      ],
      [
        "ĠC",
        "our"
      ],
      [
        "ĠApr",
        "il"
      ],
      [
        "ĠT",
        "ues"
      ],
      [
        "re",
        "et"
      ],
      [
        "Ġter",
        "ror"
      ],
      [
        "Ġsh",
        "ot"
      ],
      [
        "Ġcap",
        "t"
      ],
      [
        "ater",
        "ial"
      ],
      [
        "ĠAmeric",
        "ans"
      ],
      [
        "ip",
        "le"
      ],
      [
        "Ġinvol",
        "ved"
      ],
      [
        "Ġc",
        "ivil"
      ],
      [
        "ĠJ",
        "apan"
      ],
      [
        "itt",
        "en"
      ],
      [
        "ur",
        "ch"
      ],
      [
        "her",
        "n"
      ],
      [
        "pl",
        "es"
      ],
      [
        "Ġspe",
        "ak"
      ],
      [
        "Ġexec",
        "ut"
      ],
      [
        "1",
        "8"
      ],
      [
        "Ġe",
        "t"
      ],
      [
        "ĠE",
        "ven"
      ],
      [
        "ĠTues",
        "day"
      ],
      [
        "ĠMond",
        "ay"
      ],
      [
        "it",
        "iz"
      ],
      [
        "Ġne",
        "arly"
      ],
      [
        "Ġorig",
        "inal"
      ],
      [
        "Ġmod",
        "el"
      ],
      [
        "Ġc",
        "ases"
      ],
      [
        "Ġc",
        "ode"
      ],
      [
        "Ġrelations",
        "hip"
      ],
      [
        "Ġl",
        "angu"
      ],
      [
        "Ġs",
        "en"
      ],
      [
        "Ġintern",
        "ational"
      ],
      [
        "ĠC",
        "ount"
      ],
      [
        "Ġex",
        "act"
      ],
      [
        "ok",
        "es"
      ],
      [
        "Ġd",
        "iv"
      ],
      [
        "le",
        "x"
      ],
      [
        "Ġ201",
        "0"
      ],
      [
        "Ġl",
        "iving"
      ],
      [
        "ic",
        "ro"
      ],
      [
        "Ġle",
        "ave"
      ],
      [
        "et",
        "er"
      ],
      [
        "Ġst",
        "aff"
      ],
      [
        "ĠGe",
        "or"
      ],
      [
        "ĠDav",
        "id"
      ],
      [
        "ell",
        "ig"
      ],
      [
        "Ġa",
        "verage"
      ],
      [
        "2",
        "5"
      ],
      [
        "h",
        "ood"
      ],
      [
        "op",
        "s"
      ],
      [
        "ll",
        "ed"
      ],
      [
        "__",
        "__"
      ],
      [
        "Ġkill",
        "ed"
      ],
      [
        "ĠW",
        "ed"
      ],
      [
        "on",
        "st"
      ],
      [
        "p",
        "ut"
      ],
      [
        "Ġp",
        "ack"
      ],
      [
        "Ġest",
        "ab"
      ],
      [
        "ĠP",
        "ost"
      ],
      [
        "is",
        "es"
      ],
      [
        "Ġn",
        "ation"
      ],
      [
        "Ġbro",
        "ad"
      ],
      [
        "at",
        "ural"
      ],
      [
        "Ġbec",
        "om"
      ],
      [
        "ĠH",
        "er"
      ],
      [
        "Ġar",
        "rest"
      ],
      [
        "Ġco",
        "ll"
      ],
      [
        "c",
        "he"
      ],
      [
        "Ġresp",
        "onse"
      ],
      [
        "ct",
        "or"
      ],
      [
        "Ġins",
        "ide"
      ],
      [
        "Ġter",
        "ms"
      ],
      [
        "Ġso",
        "ft"
      ],
      [
        "Ġc",
        "al"
      ],
      [
        "ĠP",
        "aul"
      ],
      [
        "ĠS",
        "an"
      ],
      [
        "ĠC",
        "or"
      ],
      [
        "om",
        "b"
      ],
      [
        "Ġ",
        "ur"
      ],
      [
        "ĠG",
        "l"
      ],
      [
        "Ġcont",
        "ent"
      ],
      [
        "Ġf",
        "ans"
      ],
      [
        "ĠF",
        "eb"
      ],
      [
        "Ġ4",
        "0"
      ],
      [
        "Ġreport",
        "s"
      ],
      [
        "Ġass",
        "oci"
      ],
      [
        "Ġcl",
        "ub"
      ],
      [
        "Ġgl",
        "obal"
      ],
      [
        "Ġw",
        "orth"
      ],
      [
        "ĠCal",
        "if"
      ],
      [
        "am",
        "s"
      ],
      [
        "e",
        "ed"
      ],
      [
        "Ġwork",
        "ers"
      ],
      [
        "Ġfin",
        "ancial"
      ],
      [
        "Ġim",
        "medi"
      ],
      [
        "Ġty",
        "pe"
      ],
      [
        "Ġhe",
        "art"
      ],
      [
        "Ġsub",
        "ject"
      ],
      [
        "Ġwork",
        "ed"
      ],
      [
        "Ġad",
        "m"
      ],
      [
        "Ġus",
        "ers"
      ],
      [
        "ĠRuss",
        "ia"
      ],
      [
        "ĠS",
        "ch"
      ],
      [
        "Ġpubl",
        "ished"
      ],
      [
        "b",
        "or"
      ],
      [
        "Ġ",
        "@"
      ],
      [
        "rough",
        "t"
      ],
      [
        "Ġsour",
        "ce"
      ],
      [
        "ĠF",
        "irst"
      ],
      [
        "g",
        "ing"
      ],
      [
        "Ġdirect",
        "or"
      ],
      [
        "c",
        "ast"
      ],
      [
        "it",
        "es"
      ],
      [
        "k",
        "y"
      ],
      [
        "Ġab",
        "ility"
      ],
      [
        "est",
        "s"
      ],
      [
        "Ġro",
        "ad"
      ],
      [
        "iz",
        "ing"
      ],
      [
        "a",
        "el"
      ],
      [
        "ot",
        "o"
      ],
      [
        "j",
        "oy"
      ],
      [
        "Ġresp",
        "ond"
      ],
      [
        "Ġo",
        "il"
      ],
      [
        "Ġph",
        "one"
      ],
      [
        "ĠS",
        "und"
      ],
      [
        "e",
        "ch"
      ],
      [
        "ĠIs",
        "lam"
      ],
      [
        "Ġwe",
        "ap"
      ],
      [
        "Ġm",
        "other"
      ],
      [
        "Ġpr",
        "ice"
      ],
      [
        "Ġl",
        "ack"
      ],
      [
        "Ġinfl",
        "u"
      ],
      [
        "ove",
        "mber"
      ],
      [
        "olog",
        "ical"
      ],
      [
        "r",
        "ay"
      ],
      [
        "Ġch",
        "ance"
      ],
      [
        "Ġt",
        "ou"
      ],
      [
        "Ġt",
        "akes"
      ],
      [
        "Th",
        "is"
      ],
      [
        "Ġc",
        "ell"
      ],
      [
        "Ġbu",
        "y"
      ],
      [
        "ĠJan",
        "uary"
      ],
      [
        "Ġs",
        "qu"
      ],
      [
        "Ġcol",
        "lect"
      ],
      [
        "Ġm",
        "id"
      ],
      [
        "Ġdef",
        "in"
      ],
      [
        "Ġg",
        "ave"
      ],
      [
        "Ġl",
        "og"
      ],
      [
        "Ġrequ",
        "ire"
      ],
      [
        "Ġe",
        "mer"
      ],
      [
        "ip",
        "s"
      ],
      [
        "Ġf",
        "em"
      ],
      [
        "Ġfore",
        "ign"
      ],
      [
        "Ġ",
        "â"
      ],
      [
        "vert",
        "ise"
      ],
      [
        "ĠAug",
        "ust"
      ],
      [
        "Ġhappen",
        "ed"
      ],
      [
        "ĠQ",
        "u"
      ],
      [
        "os",
        "ition"
      ],
      [
        "in",
        "o"
      ],
      [
        "6",
        "0"
      ],
      [
        "b",
        "it"
      ],
      [
        "ĠS",
        "pe"
      ],
      [
        "cl",
        "us"
      ],
      [
        "Ġdec",
        "ided"
      ],
      [
        "Ġoff",
        "er"
      ],
      [
        "ĠWed",
        "nes"
      ],
      [
        "Ġind",
        "ic"
      ],
      [
        "Ġnet",
        "work"
      ],
      [
        "ĠN",
        "ovember"
      ],
      [
        "Ġgo",
        "es"
      ],
      [
        "Ġm",
        "aterial"
      ],
      [
        "Ġb",
        "ur"
      ],
      [
        "Ġwho",
        "se"
      ],
      [
        "ĠSept",
        "ember"
      ],
      [
        "Ġmeet",
        "ing"
      ],
      [
        "Ġpartic",
        "ip"
      ],
      [
        "Ġpl",
        "ans"
      ],
      [
        "Ġar",
        "ri"
      ],
      [
        "ĠT",
        "V"
      ],
      [
        "Ġsit",
        "uation"
      ],
      [
        "E",
        "N"
      ],
      [
        "ĠA",
        "ng"
      ],
      [
        "Ġg",
        "irl"
      ],
      [
        "Ġt",
        "al"
      ],
      [
        "Ġcurrent",
        "ly"
      ],
      [
        "Ġrec",
        "ogn"
      ],
      [
        "Ġ",
        "ill"
      ],
      [
        "Ġmem",
        "ber"
      ],
      [
        "ĠWednes",
        "day"
      ],
      [
        "un",
        "t"
      ],
      [
        "ĠEurope",
        "an"
      ],
      [
        "Ġl",
        "ives"
      ],
      [
        "a",
        "ur"
      ],
      [
        "Ġaff",
        "ect"
      ],
      [
        "ough",
        "t"
      ],
      [
        "al",
        "ed"
      ],
      [
        "es",
        "e"
      ],
      [
        "Ġp",
        "ict"
      ],
      [
        "Ġcap",
        "ital"
      ],
      [
        "Ġturn",
        "ed"
      ],
      [
        "b",
        "ased"
      ],
      [
        "ov",
        "ed"
      ],
      [
        "Ġm",
        "is"
      ],
      [
        "I",
        "n"
      ],
      [
        "Ġreg",
        "ard"
      ],
      [
        "Ġ2",
        "1"
      ],
      [
        "Ġb",
        "ank"
      ],
      [
        "ĠCour",
        "t"
      ],
      [
        "Ġst",
        "ore"
      ],
      [
        "Ġint",
        "rodu"
      ],
      [
        "Ġare",
        "as"
      ],
      [
        "r",
        "ain"
      ],
      [
        "Ġc",
        "y"
      ],
      [
        "ill",
        "s"
      ],
      [
        "Ġteam",
        "s"
      ],
      [
        "ist",
        "an"
[...]
