{
  "version": "1.0",
  "truncation": null,
  "padding": null,
  "added_tokens": [
    {
      "id": 0,
      "content": "[PAD]",
      "single_word": false,
      "lstrip": false,
      "rstrip": false,
      "normalized": false,
      "special": true
    },
    {
      "id": 1,
      "content": "[UNK]",
      "single_word": false,
      "lstrip": false,
      "rstrip": false,
      "normalized": false,
      "special": true
    },
    {
      "id": 2,
      "content": "[CLS]",
      "single_word": false,
      "lstrip": false,
      "rstrip": false,
      "normalized": false,
      "special": true
    },
    {
      "id": 3,
      "content": "[SEP]",
      "single_word": false,
      "lstrip": false,
      "rstrip": false,
      "normalized": false,
      "special": true
    },
    {
      "id": 4,
      "content": "[MASK]",
      "single_word": false,
      "lstrip": false,
      "rstrip": false,
      "normalized": false,
      "special": true
    },
    {
      "id": 5,
      "content": "[BOS]",
      "single_word": false,
      "lstrip": false,
      "rstrip": false,
      "normalized": false,
      "special": true
    },
    {
      "id": 6,
      "content": "[EOS]",
      "single_word": false,
      "lstrip": false,
      "rstrip": false,
      "normalized": false,
      "special": true
    }
  ],
  "normalizer": null,
  "pre_tokenizer": {
    "type": "ByteLevel",
    "add_prefix_space": true,
    "trim_offsets": true,
    "use_regex": true
  },
  "post_processor": null,
  "decoder": {
    "type": "ByteLevel",
    "add_prefix_space": true,
    "trim_offsets": true,
    "use_regex": true
  },
  "model": {
    "type": "BPE",
    "dropout": 0.1,
    "unk_token": "[UNK]",
    "continuing_subword_prefix": null,
    "end_of_word_suffix": null,
    "fuse_unk": false,
    "byte_fallback": false,
    "ignore_merges": false,
    "vocab": {
      "[PAD]": 0,
      "[UNK]": 1,
      "[CLS]": 2,
      "[SEP]": 3,
      "[MASK]": 4,
      "[BOS]": 5,
      "[EOS]": 6,
      "!": 7,
      "\"": 8,
      "#": 9,
      "$": 10,
      "%": 11,
      "&": 12,
      "'": 13,
      "(": 14,
      ")": 15,
      "*": 16,
      "+": 17,
      ",": 18,
      "-": 19,
      ".": 20,
      "/": 21,
      "0": 22,
      "1": 23,
      "2": 24,
      "3": 25,
      "4": 26,
      "5": 27,
      "6": 28,
      "7": 29,
      "8": 30,
      "9": 31,
      ":": 32,
      ";": 33,
      "<": 34,
      "=": 35,
      ">": 36,
      "?": 37,
      "@": 38,
      "A": 39,
      "B": 40,
      "C": 41,
      "D": 42,
      "E": 43,
      "F": 44,
      "G": 45,
      "H": 46,
      "I": 47,
      "J": 48,
      "K": 49,
      "L": 50,
      "M": 51,
      "N": 52,
      "O": 53,
      "P": 54,
      "Q": 55,
      "R": 56,
      "S": 57,
      "T": 58,
      "U": 59,
      "V": 60,
      "W": 61,
      "X": 62,
      "Y": 63,
      "Z": 64,
      "[": 65,
      "\\": 66,
      "]": 67,
      "^": 68,
      "_": 69,
      "`": 70,
      "a": 71,
      "b": 72,
      "c": 73,
      "d": 74,
      "e": 75,
      "f": 76,
      "g": 77,
      "h": 78,
      "i": 79,
      "j": 80,
      "k": 81,
      "l": 82,
      "m": 83,
      "n": 84,
      "o": 85,
      "p": 86,
      "q": 87,
      "r": 88,
      "s": 89,
      "t": 90,
      "u": 91,
      "v": 92,
      "w": 93,
      "x": 94,
      "y": 95,
      "z": 96,
      "{": 97,
      "|": 98,
      "}": 99,
      "~": 100,
      "¡": 101,
      "¢": 102,
      "£": 103,
      "¤": 104,
      "¥": 105,
      "¦": 106,
      "§": 107,
      "¨": 108,
      "©": 109,
      "ª": 110,
      "«": 111,
      "¬": 112,
      "®": 113,
      "¯": 114,
      "°": 115,
      "±": 116,
      "²": 117,
      "³": 118,
      "´": 119,
      "µ": 120,
      "¶": 121,
      "·": 122,
      "¸": 123,
      "¹": 124,
      "º": 125,
      "»": 126,
      "¼": 127,
      "½": 128,
      "¾": 129,
      "¿": 130,
      "À": 131,
      "Á": 132,
      "Â": 133,
      "Ã": 134,
      "Ä": 135,
      "Å": 136,
      "Æ": 137,
      "Ç": 138,
      "È": 139,
      "É": 140,
      "Ê": 141,
      "Ë": 142,
      "Ì": 143,
      "Í": 144,
      "Î": 145,
      "Ï": 146,
      "Ð": 147,
      "Ñ": 148,
      "Ò": 149,
      "Ó": 150,
      "Ô": 151,
      "Õ": 152,
      "Ö": 153,
      "×": 154,
      "Ø": 155,
      "Ù": 156,
      "Ú": 157,
      "Û": 158,
      "Ü": 159,
      "Ý": 160,
      "Þ": 161,
      "ß": 162,
      "à": 163,
      "á": 164,
      "â": 165,
      "ã": 166,
      "ä": 167,
      "å": 168,
      "æ": 169,
      "ç": 170,
      "è": 171,
      "é": 172,
      "ê": 173,
      "ë": 174,
      "ì": 175,
      "í": 176,
      "î": 177,
      "ï": 178,
      "ð": 179,
      "ñ": 180,
      "ò": 181,
      "ó": 182,
      "ô": 183,
      "õ": 184,
      "ö": 185,
      "÷": 186,
      "ø": 187,
      "ù": 188,
      "ú": 189,
      "û": 190,
      "ü": 191,
      "ý": 192,
      "þ": 193,
      "ÿ": 194,
      "Ā": 195,
      "ā": 196,
      "Ă": 197,
      "ă": 198,
      "Ą": 199,
      "ą": 200,
      "Ć": 201,
      "ć": 202,
      "Ĉ": 203,
      "ĉ": 204,
      "Ċ": 205,
      "ċ": 206,
      "Č": 207,
      "č": 208,
      "Ď": 209,
      "ď": 210,
      "Đ": 211,
      "đ": 212,
      "Ē": 213,
      "ē": 214,
      "Ĕ": 215,
      "ĕ": 216,
      "Ė": 217,
      "ė": 218,
      "Ę": 219,
      "ę": 220,
      "Ě": 221,
      "ě": 222,
      "Ĝ": 223,
      "ĝ": 224,
      "Ğ": 225,
      "ğ": 226,
      "Ġ": 227,
      "ġ": 228,
      "Ģ": 229,
      "ģ": 230,
      "Ĥ": 231,
      "ĥ": 232,
      "Ħ": 233,
      "ħ": 234,
      "Ĩ": 235,
      "ĩ": 236,
      "Ī": 237,
      "ī": 238,
      "Ĭ": 239,
      "ĭ": 240,
      "Į": 241,
      "į": 242,
      "İ": 243,
      "ı": 244,
      "Ĳ": 245,
      "ĳ": 246,
      "Ĵ": 247,
      "ĵ": 248,
      "Ķ": 249,
      "ķ": 250,
      "ĸ": 251,
      "Ĺ": 252,
      "ĺ": 253,
      "Ļ": 254,
      "ļ": 255,
      "Ľ": 256,
      "ľ": 257,
      "Ŀ": 258,
      "ŀ": 259,
      "Ł": 260,
      "ł": 261,
      "Ń": 262,
      "in": 263,
      "es": 264,
      "at": 265,
      "on": 266,
      "Ġa": 267,
      "re": 268,
      "en": 269,
      "al": 270,
      "Ġs": 271,
      "Ġt": 272,
      "er": 273,
      "ic": 274,
      "Ġin": 275,
      "Ġp": 276,
      "it": 277,
      "ion": 278,
      "ent": 279,
      "ed": 280,
      "ar": 281,
      "an": 282,
      "ro": 283,
      "or": 284,
      "Ġm": 285,
      "Ġb": 286,
      "Ġc": 287,
      "Ġf": 288,
      "he": 289,
      "is": 290,
      "ing": 291,
      "Ġre": 292,
      "ul": 293,
      "im": 294,
      "Ġd": 295,
      "id": 296,
      "ol": 297,
      "nd": 298,
      "em": 299,
      "ation": 300,
      "Ġand": 301,
      "per": 302,
      "ical": 303,
      "Ġby": 304,
      "alt": 305,
      "ati": 306,
      "Ġh": 307,
      "Ġo": 308,
      "ct": 309,
      "Ġe": 310,
      "Ġn": 311,
      "el": 312,
      "ur": 313,
      "om": 314,
      "ly": 315,
      "ch": 316,
      "ff": 317,
      "ag": 318,
      "ri": 319,
      "ov": 320,
      "Ġw": 321,
      "are": 322,
      "ak": 323,
      "imp": 324,
      "Ġdi": 325,
      "Ġman": 326,
      "rov": 327,
      "Ġimp": 328,
      "cri": 329,
      "alth": 330,
      "escri": 331,
      "ents": 332,
      "Ġpati": 333,
      "Ġl": 334,
      "as": 335,
      "Ġst": 336,
      "Ġ1": 337,
      "ig": 338,
      "ow": 339,
      "os": 340,
      "Ġto": 341,
      "ĠA": 342,
      "ĠT": 343,
      "ain": 344,
      "ĠM": 345,
      "ear": 346,
      "ect": 347,
      "ac": 348,
      "Ġhe": 349,
      "Ġcon": 350,
      "Ġfor": 351,
      "Ġex": 352,
      "ers": 353,
      "ment": 354,
      "Ġcom": 355,
      "um": 356,
      "enc": 357,
      "uc": 358,
      "reat": 359,
      "ron": 360,
      "00": 361,
      "ĠN": 362,
      "Ġas": 363,
      "Ġ5": 364,
      "ake": 365,
      "Ġind": 366,
      "sion": 367,
      "ienc": 368,
      "ular": 369,
      "ves": 370,
      "Ġmanag": 371,
      "be": 372,
      "ffect": 373,
      "duc": 374,
      "ies": 375,
      "Ġtreat": 376,
      "He": 377,
      "Res": 378,
      "ines": 379,
      "Ġreg": 380,
      "Ġsur": 381,
      "Ġimprov": 382,
      "Ġreduc": 383,
      "Ġtreatment": 384,
      "ates": 385,
      "Health": 386,
      "uro": 387,
      "itor": 388,
      "bed": 389,
      "Ġhy": 390,
      "ffects": 391,
      "escribed": 392,
      "Ġregular": 393,
      "Ġpatients": 394,
      "care": 395,
      "Ġsurg": 396,
      "euro": 397,
      "Ġmanaging": 398,
      "rescribed": 399,
      "il": 400,
      "us": 401,
      "ut": 402,
      "Ġthe": 403,
      "Ġth": 404,
      "Ġg": 405,
      "ĠS": 406,
      "ad": 407,
      "ot": 408,
      "ĠC": 409,
      "ug": 410,
      "am": 411,
      "ĠP": 412,
      "un": 413,
      "ity": 414,
      "iv": 415,
      "ate": 416,
      "Ġof": 417,
      "bl": 418,
      "ist": 419,
      "and": 420,
      "Ġch": 421,
      "ard": 422,
      "ci": 423,
      "op": 424,
      "ud": 425,
      "Ġon": 426,
      "ea": 427,
      "ĠE": 428,
      "all": 429,
      "st": 430,
      "age": 431,
      "ue": 432,
      "ide": 433,
      "ith": 434,
      "Ġtr": 435,
      "Ġsh": 436,
      "ie": 437,
      "ign": 438,
      "ult": 439,
      "ĠO": 440,
      "ach": 441,
      "ap": 442,
      "35": 443,
      "Ġint": 444,
      "40": 445,
      "Ġad": 446,
      "Ġwith": 447,
      "ual": 448,
      "65": 449,
      "old": 450,
      "ffic": 451,
      "ement": 452,
      "ĠG": 453,
      "og": 454,
      "ame": 455,
      "Ġro": 456,
      "oll": 457,
      "ition": 458,
      "ase": 459,
      "ubl": 460,
      "ĠTh": 461,
      "ild": 462,
      "Ġcomp": 463,
      "Ġcont": 464,
      "Ġcomm": 465,
      "Ġsc": 466,
      "pt": 467,
      "ary": 468,
      "Ġare": 469,
      "aus": 470,
      "Ġout": 471,
      "ath": 472,
      "ĠThe": 473,
      "ai": 474,
      "ise": 475,
      "ublic": 476,
      "oci": 477,
      "rect": 478,
      "Ġlo": 479,
      "ital": 480,
      "unity": 481,
      "vis": 482,
      "pert": 483,
      "Ġwa": 484,
      "Ġmon": 485,
      "Ġrem": 486,
      "Ġprov": 487,
      "Ġsm": 488,
      "Ġstud": 489,
      "Ġpers": 490,
      "Ġ15": 491,
      "Ġdirect": 492,
      "Ġstand": 493,
      "Ġpop": 494,
      "ations": 495,
      "year": 496,
      "Ġtim": 497,
      "hi": 498,
      "ĠV": 499,
      "For": 500,
      "yst": 501,
      "ystem": 502,
      "vol": 503,
      "olog": 504,
      "rol": 505,
      "ption": 506,
      "fl": 507,
      "ollow": 508,
      "ĠAn": 509,
      "vest": 510,
      "earch": 511,
      "elie": 512,
      "iness": 513,
      "dition": 514,
      "het": 515,
      "ission": 516,
      "perienc": 517,
      "rug": 518,
      "reak": 519,
      "ology": 520,
      "eries": 521,
      "Ġshow": 522,
      "ront": 523,
      "umm": 524,
      "ask": 525,
      "ivid": 526,
      "osp": 527,
      "ividual": 528,
      "ulation": 529,
      "Ġass": 530,
      "Ġbr": 531,
      "edical": 532,
      "ĠRes": 533,
      "Ġtake": 534,
      "icate": 535,
      "gue": 536,
      "ospital": 537,
      "Ġsystem": 538,
      "Ġsch": 539,
      "Ġfollow": 540,
      "Ġhead": 541,
      "Ġinvest": 542,
      "Ġexperienc": 543,
      "Ġsmall": 544,
      "Ġcontrol": 545,
      "Ġhealth": 546,
      "Ġinvol": 547,
      "Ġoper": 548,
      "Ġben": 549,
      "Ġstudy": 550,
      "Ġindividual": 551,
      "Ġcommunity": 552,
      "Ġpain": 553,
      "Ġroom": 554,
      "Ġfront": 555,
      "Ġstandard": 556,
      "Ġwait": 557,
      "Ġcondition": 558,
      "Ġhospital": 559,
      "Ġpopulation": 560,
      "Ġcompare": 561,
      "Ġreduce": 562,
      "Ġindicate": 563,
      "ans": 564,
      "ated": 565,
      "har": 566,
      "Ġ100": 567,
      "ĠThis": 568,
      "Ġ35": 569,
      "Ġ50": 570,
      "Ġ65": 571,
      "Ġ40": 572,
      "An": 573,
      "lin": 574,
      "ĠGu": 575,
      "ating": 576,
      "erc": 577,
      "Ġtrans": 578,
      "Drug": 579,
      "Descri": 580,
      "ĠHealth": 581,
      "ĠSumm": 582,
      "ĠOper": 583,
      "ĠName": 584,
      "ĠResult": 585,
      "ĠCase": 586,
      "tes": 587,
      "Ġprovid": 588,
      "Ġtimes": 589,
      "ements": 590,
      "imit": 591,
      "ination": 592,
      "Ġinvestig": 593,
      "Ġlimit": 594,
      "zz": 595,
      "Ġimpl": 596,
      "pot": 597,
      "Ġinfl": 598,
      "ban": 599,
      "mission": 600,
      "Ġshows": 601,
      "ension": 602,
      "Ġremov": 603,
      "Ġ500": 604,
      "za": 605,
      "RI": 606,
      "Ġur": 607,
      "Ġinn": 608,
      "Ġinflu": 609,
      "Public": 610,
      "Research": 611,
      "Side": 612,
      "Ġassoci": 613,
      "aily": 614,
      "cem": 615,
      "ovel": 616,
      "idel": 617,
      "Medical": 618,
      "hib": 619,
      "edul": 620,
      "acc": 621,
      "ronic": 622,
      "itors": 623,
      "Ġbrain": 624,
      "Ġschedul": 625,
      "Ġconditions": 626,
      "istent": 627,
      "CE": 628,
      "Ġfollowed": 629,
      "Ġther": 630,
      "Ġcompared": 631,
      "elief": 632,
      "aches": 633,
      "Ġnovel": 634,
      "Ġadvis": 635,
      "Ġdaily": 636,
      "Ġeffic": 637,
      "mac": 638,
      "Ġexerc": 639,
      "Ġassociated": 640,
      "Ġtherap": 641,
      "Ġoperating": 642,
      "Ġexperiences": 643,
      "dates": 644,
      "Ġpatient": 645,
      "Ġinnov": 646,
      "Ġmonitor": 647,
      "umor": 648,
      "abe": 649,
      "Ġexercise": 650,
      "break": 651,
      "path": 652,
      "%.": 653,
      "iency": 654,
      "harmac": 655,
      "Ġurban": 656,
      "idelines": 657,
      "Ġsalt": 658,
      "Ġregularly": 659,
      "Ġscan": 660,
      "linical": 661,
      "Ġinvolves": 662,
      "Ġdirected": 663,
      "Ġproviders": 664,
      "Ġmask": 665,
      "Ġimprovement": 666,
      "Ġmonitoring": 667,
      "Ġhypot": 668,
      "Ġefficiency": 669,
      "Ġchronic": 670,
      "Ġinnovation": 671,
      "Ġneuro": 672,
      "Ġremoval": 673,
      "Ġdiabe": 674,
      "Ġhealthcare": 675,
      "Ġaffects": 676,
      "Ġdiabetes": 677,
      "Ġoutbreak": 678,
      "Ġinhib": 679,
      "Ġadvised": 680,
      "atigue": 681,
      "hetical": 682,
      "Ġtransmission": 683,
      "enza": 684,
      "Ġpersistent": 685,
      "Ġreduces": 686,
      "Ġfatigue": 687,
      "Ġmg": 688,
      "ĠOperations": 689,
      "Ġprescribed": 690,
      "ĠNeuro": 691,
      "Ġintake": 692,
      "Ġinfluenza": 693,
      "Ġtumor": 694,
      "Ġsurgeries": 695,
      "Ġhypothetical": 696,
      "Ġimproves": 697,
      "Ġsurgical": 698,
      "Description": 699,
      "Ġnaus": 700,
      "Ġgly": 701,
      "Ġheadaches": 702,
      "Dos": 703,
      "Ġdizz": 704,
      "Ġmandates": 705,
      "Ġbenign": 706,
      "Ġfrontal": 707,
      "Ġscheduling": 708,
      "Ġhypert": 709,
      "pathic": 710,
      "accination": 711,
      "Ġtherapies": 712,
      "ĠResults": 713,
      "Ġimplements": 714,
      "ĠMRI": 715,
      "ĠEffects": 716,
      "Relief": 717,
      "ĠGuidelines": 718,
      "Ġinhibitors": 719,
      "Ġnausea": 720,
      "Ġinvestigates": 721,
      "ĠSummary": 722,
      "Ġdizziness": 723,
      "Pharmac": 724,
      "Ġhypertension": 725,
      "ĠACE": 726,
      "Ġlobe": 727,
      "Clinical": 728,
      "ĠMild": 729,
      "Ġneuropathic": 730,
      "cemic": 731,
      "ĠVaccination": 732,
      "Ġglycemic": 733,
      "Dosage": 734,
      "Healthcare": 735,
      "ĠPrescribed": 736,
      "ĠNeuroRelief": 737,
      "Pharmacology": 738,
      "et": 739,
      "Ġr": 740,
      "ay": 741,
      "ce": 742,
      "ver": 743,
      "ess": 744,
      "le": 745,
      "Ġwh": 746,
      "ve": 747,
      "ht": 748,
      "est": 749,
      "ec": 750,
      "th": 751,
      "od": 752,
      "Ġpro": 753,
      "ure": 754,
      "ge": 755,
      "our": 756,
      "Ġal": 757,
      "ĠI": 758,
      "Ġy": 759,
      "ort": 760,
      "art": 761,
      "Ġbe": 762,
      "ill": 763,
      "ĠB": 764,
      "ice": 765,
      "ĠW": 766,
      "ĠR": 767,
      "ir": 768,
      "11": 769,
      "ee": 770,
      "und": 771,
      "ight": 772,
      "Ġan": 773,
      "ern": 774,
      "ĠD": 775,
      "ugh": 776,
      "12": 777,
      "âĢ": 778,
      "Ġsp": 779,
      "ĠF": 780,
      "up": 781,
      "if": 782,
      "out": 783,
      "Ġk": 784,
      "ive": 785,
      "14": 786,
      "act": 787,
      "10": 788,
      "13": 789,
      "one": 790,
      "ind": 791,
      "ore": 792,
      "ose": 793,
      "ace": 794,
      "ine": 795,
      "Ġag": 796,
      "ĠL": 797,
      "ant": 798,
      "Ġne": 799,
      "Ġit": 800,
      "ome": 801,
      "ast": 802,
      "Ġde": 803,
      "end": 804,
      "ous": 805,
      "ter": 806,
      "se": 807,
      "15": 808,
      "ĠH": 809,
      "Ġle": 810,
      "ong": 811,
      "Ġres": 812,
      "iz": 813,
      "ite": 814,
      "very": 815,
      "oul": 816,
      "ree": 817,
      "ould": 818,
      "Ġar": 819,
      "Ġpart": 820,
      "Ġv": 821,
      "sel": 822,
      "ust": 823,
      "Ġpl": 824,
      "oc": 825,
      "Ġwor": 826,
      "Ġat": 827,
      "ble": 828,
      "Ġme": 829,
      "ell": 830,
      "20": 831,
      "pp": 832,
      "Ġse": 833,
      "Ġcl": 834,
      "Ġpr": 835,
      "oun": 836,
      "Ġnot": 837,
      "ry": 838,
      "ren": 839,
      "Ġen": 840,
      "25": 841,
      "99": 842,
      "her": 843,
      "28": 844,
      "27": 845,
      "38": 846,
      "37": 847,
      "ish": 848,
      "Ġthat": 849,
      "45": 850,
      "68": 851,
      "67": 852,
      "48": 853,
      "47": 854,
      "ond": 855,
      "Ġis": 856,
      "vel": 857,
      "qu": 858,
      "ory": 859,
      "30": 860,
      "17": 861,
      "18": 862,
      "29": 863,
      "60": 864,
      "cial": 865,
      "39": 866,
      "self": 867,
      "69": 868,
      "49": 869,
      "ack": 870,
      "ost": 871,
      "ĠSt": 872,
      "19": 873,
      "Ġor": 874,
      "Ġac": 875,
      "Ġev": 876,
      "Ġact": 877,
      "Ġrec": 878,
      "Ġper": 879,
      "Ġ7": 880,
      "ber": 881,
      "Ġ8": 882,
      "Ġreal": 883,
      "Ġpol": 884,
      "ave": 885,
      "Ġbo": 886,
      "Ġgro": 887,
      "ood": 888,
      "Ġevery": 889,
      "ass": 890,
      "aw": 891,
      "ough": 892,
      "Ġj": 893,
      "Ġwe": 894,
      "for": 895,
      "Ġdo": 896,
      "ount": 897,
      "Ġab": 898,
      "Ġfin": 899,
      "Ġus": 900,
      "ey": 901,
      "ire": 902,
      "tain": 903,
      "uct": 904,
      "ner": 905,
      "form": 906,
      "ious": 907,
      "âĢĻ": 908,
      "cess": 909,
      "Ġ10": 910,
      "ater": 911,
      "eren": 912,
      "Ġ9": 913,
      "isc": 914,
      "ection": 915,
      "Ġso": 916,
      "orn": 917,
      "ĠRe": 918,
      "ou": 919,
      "uth": 920,
      "vi": 921,
      "ody": 922,
      "ize": 923,
      "outh": 924,
      "Ġsu": 925,
      "Ġsome": 926,
      "get": 927,
      "Ġinc": 928,
      "Ġany": 929,
      "Ġnew": 930,
      "Ġapp": 931,
      "port": 932,
      "Ġfe": 933,
      "ok": 934,
      "ik": 935,
      "pe": 936,
      "Ġpre": 937,
      "ich": 938,
      "Ġqu": 939,
      "24": 940,
      "23": 941,
      "Ġbl": 942,
      "Ġatt": 943,
      "26": 944,
      "Ġdec": 945,
      "Ġinter": 946,
      "Ġthro": 947,
      "Ġser": 948,
      "Ġpos": 949,
      "Ġbu": 950,
      "16": 951,
      "Ġrel": 952,
      "Ġmov": 953,
      "Ġoffic": 954,
      "Ġspe": 955,
      "ord": 956,
      "ab": 957,
      "ĠIn": 958,
      "Ġresp": 959,
      "pl": 960,
      "Ġdisc": 961,
      "ther": 962,
      "Ġyou": 963,
      "Ġart": 964,
      "Ġcent": 965,
      "Ġall": 966,
      "Ġpartic": 967,
      "33": 968,
      "ial": 969,
      "able": 970,
      "ress": 971,
      "own": 972,
      "ail": 973,
      "mer": 974,
      "44": 975,
      "ance": 976,
      "ile": 977,
      "ick": 978,
      "oy": 979,
      "Ġup": 980,
      "now": 981,
      "oin": 982,
      "ark": 983,
      "ause": 984,
      "rom": 985,
      "hing": 986,
      "ade": 987,
      "75": 988,
      "85": 989,
      "amp": 990,
      "Ġun": 991,
      "Ġyour": 992,
      "36": 993,
      "pen": 994,
      "si": 995,
      "way": 996,
      "urn": 997,
      "46": 998,
      "ank": 999,
      "Ġlik": 1000,
      "ason": 1001,
      "oor": 1002,
      "Ġhave": 1003,
      "eek": 1004,
      "ught": 1005,
      "lud": 1006,
      "ational": 1007,
      "each": 1008,
      "ject": 1009,
      "etw": 1010,
      "other": 1011,
      "erm": 1012,
      "ys": 1013,
      "omet": 1014,
      "alk": 1015,
      "atch": 1016,
      "ife": 1017,
      "iew": 1018,
      "ually": 1019,
      "ull": 1020,
      "air": 1021,
      "ange": 1022,
      "Ġmy": 1023,
      "eral": 1024,
      "80": 1025,
      "illion": 1026,
      "Ġgo": 1027,
      "70": 1028,
      "ility": 1029,
      "eep": 1030,
      "89": 1031,
      "fferen": 1032,
      "Ġpe": 1033,
      "79": 1034,
      "duct": 1035,
      "ady": 1036,
      "con": 1037,
      "Ġthem": 1038,
      "etter": 1039,
      "side": 1040,
      "ember": 1041,
      "ather": 1042,
      "ention": 1043,
      "ident": 1044,
      "Ġwork": 1045,
      "velop": 1046,
      "over": 1047,
      "thing": 1048,
      "ense": 1049,
      "rong": 1050,
      "Ġbec": 1051,
      "22": 1052,
      "Ġthis": 1053,
      "esent": 1054,
      "aj": 1055,
      "gy": 1056,
      "Ġfrom": 1057,
      "ural": 1058,
      "rat": 1059,
      "ffer": 1060,
      "ertain": 1061,
      "uthor": 1062,
      "conom": 1063,
      "ajor": 1064,
      "uccess": 1065,
      "ience": 1066,
      "aper": 1067,
      "ource": 1068,
      "emoc": 1069,
      "oice": 1070,
      "body": 1071,
      "early": 1072,
      "Ġhow": 1073,
      "Ġfir": 1074,
      "emocrat": 1075,
      "ĠU": 1076,
      "viron": 1077,
      "rive": 1078,
      "vironment": 1079,
      "Ġte": 1080,
      "Ġhim": 1081,
      "Ġplay": 1082,
      "ck": 1083,
      "Ġam": 1084,
      "Ġknow": 1085,
      "Ġund": 1086,
      "ĠMr": 1087,
      "34": 1088,
      "Ġwas": 1089,
      "66": 1090,
      "Ġel": 1091,
      "Ġagain": 1092,
      "Ġeven": 1093,
      "Ġacc": 1094,
      "arge": 1095,
      "Ġco": 1096,
      "Ġsec": 1097,
      "Ġmay": 1098,
      "55": 1099,
      "Ġcons": 1100,
      "Ġph": 1101,
      "Ġshould": 1102,
      "Ġow": 1103,
      "Ġthrough": 1104,
      "edge": 1105,
      "Ġinclud": 1106,
      "Ġdes": 1107,
      "Ġim": 1108,
      "ĠWh": 1109,
      "Ġadd": 1110,
      "Ġgen": 1111,
      "87": 1112,
      "Ġgu": 1113,
      "Ġent": 1114,
      "Ġsomet": 1115,
      "Ġinst": 1116,
      "Ġstr": 1117,
      "Ġcar": 1118,
      "Ġwr": 1119,
      "Ġhis": 1120,
      "Ġsa": 1121,
      "Ġcour": 1122,
      "Ġdifferen": 1123,
      "ĠâĢ": 1124,
      "Ġlead": 1125,
      "Ġhap": 1126,
      "Ġlaw": 1127,
      "Ġmod": 1128,
      "Ġsign": 1129,
      "Ġfact": 1130,
      "Ġdet": 1131,
      "Ġtri": 1132,
      "Ġcan": 1133,
      "Ġperson": 1134,
      "Ġcoll": 1135,
      "Ġthey": 1136,
      "Ġcare": 1137,
      "Ġfeel": 1138,
      "Ġav": 1139,
      "Ġbut": 1140,
      "Ġdevelop": 1141,
      "ef": 1142,
      "Ġwill": 1143,
      "Ġ6": 1144,
      "Ġinterest": 1145,
      "nt": 1146,
      "Ġpolit": 1147,
      "ĠY": 1148,
      "Ġsoci": 1149,
      "Ġbeh": 1150,
      "Ġsit": 1151,
      "Ġbuild": 1152,
      "Ġnews": 1153,
      "Ġmain": 1154,
      "Ġrecent": 1155,
      "Ġlist": 1156,
      "Ġsimp": 1157,
      "Ġsk": 1158,
      "Ġprof": 1159,
      "Ġproduct": 1160,
      "tt": 1161,
      "Ġrespon": 1162,
      "Ġgrow": 1163,
      "Ġmajor": 1164,
      "Ġfinal": 1165,
      "Ġeconom": 1166,
      "Ġmeet": 1167,
      "Ġperform": 1168,
      "Ġauthor": 1169,
      "Ġsuccess": 1170,
      "Ġnor": 1171,
      "Ġadm": 1172,
      "Ġcertain": 1173,
      "Ġparticular": 1174,
      "Ġdiscus": 1175,
      "Ġnat": 1176,
      "Ġsing": 1177,
      "88": 1178,
      "77": 1179,
      "Ġcult": 1180,
      "Ġwind": 1181,
      "Ġteach": 1182,
      "50": 1183,
      "Ġenvironment": 1184,
      "Ġhot": 1185,
      "ĠPro": 1186,
      "Ġ2": 1187,
      "Ġsouth": 1188,
      "43": 1189,
      "Ġwest": 1190,
      "59": 1191,
      "ven": 1192,
      "red": 1193,
      "Ġtheir": 1194,
      "ss": 1195,
      "so": 1196,
      "Ġmore": 1197,
      "ork": 1198,
      "ĠK": 1199,
      "Ġ3": 1200,
      "Ġabout": 1201,
      "ever": 1202,
      "ld": 1203,
      "Ġone": 1204,
      "here": 1205,
      "Ġwho": 1206,
      "ely": 1207,
      "uch": 1208,
      "ople": 1209,
      "ĠCh": 1210,
      "cc": 1211,
      "ĠAl": 1212,
      "ead": 1213,
      "ia": 1214,
      "Ġwould": 1215,
      "Ġ4": 1216,
      "Ġwhich": 1217,
      "ink": 1218,
      "ock": 1219,
      "fter": 1220,
      "av": 1221,
      "round": 1222,
      "ese": 1223,
      "90": 1224,
      "pr": 1225,
      "ove": 1226,
      "ang": 1227,
      "itt": 1228,
      "any": 1229,
      "ĠJ": 1230,
      "Ġyear": 1231,
      "Ġthere": 1232,
      "âĢĿ": 1233,
      "wo": 1234,
      "ict": 1235,
      "32": 1236,
      "Ġher": 1237,
      "ime": 1238,
      "Ġwhat": 1239,
      "Ġ14": 1240,
      "ence": 1241,
      "Ġlike": 1242,
      "ft": 1243,
      "ob": 1244,
      "ip": 1245,
      "Ġjust": 1246,
      "ep": 1247,
      "Ġ(": 1248,
      "Ġif": 1249,
      "Ġwhen": 1250,
      "78": 1251,
      "Ġget": 1252,
      "Ġtime": 1253,
      "igh": 1254,
      "Ġalso": 1255,
      "Ġpeople": 1256,
      "ting": 1257,
      "ole": 1258,
      "Ġover": 1259,
      "Ġother": 1260,
      "Ġthan": 1261,
      "Ġour": 1262,
      "ote": 1263,
      "oint": 1264,
      "ĠCon": 1265,
      "Ġinto": 1266,
      "xt": 1267,
      "vent": 1268,
      "overn": 1269,
      "Ġsay": 1270,
      "Ġits": 1271,
      "Ġno": 1272,
      "ful": 1273,
      "64": 1274,
      "oth": 1275,
      "tern": 1276,
      "ics": 1277,
      "eed": 1278,
      "ower": 1279,
      "pecial": 1280,
      "pect": 1281,
      "Ġshe": 1282,
      "'s": 1283,
      "Ġ13": 1284,
      "gr": 1285,
      "een": 1286,
      "uring": 1287,
      "lass": 1288,
      "rig": 1289,
      "bility": 1290,
      "ution": 1291,
      "Ġ12": 1292,
      "Ġcould": 1293,
      "ince": 1294,
      "ax": 1295,
      "overnment": 1296,
      "upport": 1297,
      "The": 1298,
      "ily": 1299,
      "pare": 1300,
      "meric": 1301,
      "gan": 1302,
      "ool": 1303,
      "az": 1304,
      "ĠEx": 1305,
      "Ġonly": 1306,
      "etween": 1307,
      "95": 1308,
      "iss": 1309,
      "right": 1310,
      "Ġfirst": 1311,
      "gree": 1312,
      "hip": 1313,
      "esident": 1314,
      "Ġafter": 1315,
      "ix": 1316,
      "ession": 1317,
      "der": 1318,
      "tand": 1319,
      "Ġback": 1320,
      "ward": 1321,
      "Ġtwo": 1322,
      "Ġcr": 1323,
      "ouse": 1324,
      "ier": 1325,
      "Ġem": 1326,
      "Ġneed": 1327,
      "Ġwant": 1328,
      "63": 1329,
      "estion": 1330,
      "ittle": 1331,
      "ĠDemocrat": 1332,
      "inist": 1333,
      "42": 1334,
      "ĠAmeric": 1335,
      "Ġmost": 1336,
      "Ġnow": 1337,
      "oot": 1338,
      "ific": 1339,
      "umber": 1340,
      "ording": 1341,
      "ilit": 1342,
      "rent": 1343,
      "Ġoff": 1344,
      "ways": 1345,
      "ute": 1346,
      "iel": 1347,
      "ross": 1348,
      "sible": 1349,
      "riend": 1350,
      "ably": 1351,
      "Ġday": 1352,
      "ata": 1353,
      "Ġbecause": 1354,
      "formation": 1355,
      "62": 1356,
      "cept": 1357,
      "arket": 1358,
      "view": 1359,
      "Ġmake": 1360,
      "chn": 1361,
      "Ġthink": 1362,
      "aim": 1363,
      "usiness": 1364,
      "gin": 1365,
      "gram": 1366,
      "vice": 1367,
      "day": 1368,
      "ush": 1369,
      "urrent": 1370,
      "gest": 1371,
      "ral": 1372,
      "io": 1373,
      "Ġthese": 1374,
      "Ġthing": 1375,
      "ew": 1376,
      "ought": 1377,
      "ountry": 1378,
      "rop": 1379,
      "to": 1380,
      "uman": 1381,
      "Ġfl": 1382,
      "reen": 1383,
      "bject": 1384,
      "amily": 1385,
      "ision": 1386,
      "earn": 1387,
      "Ġway": 1388,
      "Ġlook": 1389,
      "ration": 1390,
      "ield": 1391,
      "imes": 1392,
      "Ġthen": 1393,
      "abl": 1394,
      "ready": 1395,
      "atter": 1396,
      "ample": 1397,
      "ream": 1398,
      "arly": 1399,
      "ploy": 1400,
      "Ġright": 1401,
      "Ġwhere": 1402,
      "elf": 1403,
      "Ġsee": 1404,
      "fore": 1405,
      "thers": 1406,
      "ider": 1407,
      "Ġvery": 1408,
      "heck": 1409,
      "quire": 1410,
      "ety": 1411,
      "hether": 1412,
      "eth": 1413,
      "ampa": 1414,
      "aining": 1415,
      "erstand": 1416,
      "Ġmany": 1417,
      "aps": 1418,
      "edia": 1419,
      "ency": 1420,
      "ampaign": 1421,
      "uture": 1422,
      "ither": 1423,
      "uff": 1424,
      "Ġmuch": 1425,
      "urity": 1426,
      "ope": 1427,
      "Ġwell": 1428,
      "ĠTr": 1429,
      "ele": 1430,
      "fe": 1431,
      "Ġhel": 1432,
      "ury": 1433,
      "itch": 1434,
      "oung": 1435,
      "irl": 1436,
      "ization": 1437,
      "feren": 1438,
      "57": 1439,
      "urch": 1440,
      "icle": 1441,
      "reet": 1442,
      "idd": 1443,
      "isk": 1444,
      "oss": 1445,
      "most": 1446,
      "alf": 1447,
      "icy": 1448,
      "sw": 1449,
      "ailable": 1450,
      "Ġdown": 1451,
      "58": 1452,
      "bably": 1453,
      "idence": 1454,
      "ustom": 1455,
      "ilm": 1456,
      "elieve": 1457,
      "ring": 1458,
      "Ġcall": 1459,
      "arent": 1460,
      "istory": 1461,
      "aught": 1462,
      "allen": 1463,
      "ĠIt": 1464,
      "Ġgood": 1465,
      "cern": 1466,
      "oward": 1467,
      "oman": 1468,
      "uality": 1469,
      "cif": 1470,
      "Ġthose": 1471,
      "asy": 1472,
      "acter": 1473,
      "reate": 1474,
      "tty": 1475,
      "cient": 1476,
      "Ġlast": 1477,
      "ify": 1478,
      "itive": 1479,
      "selves": 1480,
      "uation": 1481,
      "py": 1482,
      "ffort": 1483,
      "ocus": 1484,
      "ecess": 1485,
      "though": 1486,
      "etwork": 1487,
      "oid": 1488,
      "imal": 1489,
      "ference": 1490,
      "ecut": 1491,
      "joy": 1492,
      "present": 1493,
      "aff": 1494,
      "vision": 1495,
      "imil": 1496,
      "Ġbefore": 1497,
      "avi": 1498,
      "raw": 1499,
      "iter": 1500,
      "Ġstart": 1501,
      "Ġsuch": 1502,
      "ype": 1503,
      "Ġend": 1504,
      "rease": 1505,
      "Ġlong": 1506,
      "inue": 1507,
      "ior": 1508,
      "ederal": 1509,
      "ene": 1510,
      "ilitary": 1511,
      "eave": 1512,
      "uge": 1513,
      "Ġreport": 1514,
      "ustry": 1515,
      "arious": 1516,
      "tect": 1517,
      "plain": 1518,
      "fficult": 1519,
      "ird": 1520,
      "arri": 1521,
      "educ": 1522,
      "yle": 1523,
      "alue": 1524,
      "asure": 1525,
      "itution": 1526,
      "usic": 1527,
      "roach": 1528,
      "Ġhelp": 1529,
      "ethod": 1530,
      "Ġown": 1531,
      "adition": 1532,
      "uggest": 1533,
      "head": 1534,
      "pecially": 1535,
      "Ġuse": 1536,
      "ĠRep": 1537,
      "pport": 1538,
      "oment": 1539,
      "ĠAmerican": 1540,
      "apital": 1541,
      "imilar": 1542,
      "efit": 1543,
      "atement": 1544,
      "orning": 1545,
      "ificant": 1546,
      "aterial": 1547,
      "uter": 1548,
      "chnology": 1549,
      "ivil": 1550,
      "olor": 1551,
      "oreign": 1552,
      "veal": 1553,
      "haps": 1554,
      "avel": 1555,
      "iddle": 1556,
      "essional": 1557,
      "uple": 1558,
      "angu": 1559,
      "urp": 1560,
      "ablish": 1561,
      "igure": 1562,
      "ucture": 1563,
      "ĠâĢľ": 1564,
      "Ġdef": 1565,
      "pite": 1566,
      "essage": 1567,
      "ongress": 1568,
      "ivity": 1569,
      "ousand": 1570,
      "ogn": 1571,
      "face": 1572,
      "ule": 1573,
      "ublican": 1574,
      "onder": 1575,
      "umer": 1576,
      "iece": 1577,
      "ege": 1578,
      "era": 1579,
      "Ġworld": 1580,
      "uble": 1581,
      "ationship": 1582,
      "ysical": 1583,
      "avy": 1584,
      "andid": 1585,
      "oose": 1586,
      "ancial": 1587,
      "ledge": 1588,
      "swer": 1589,
      "ctor": 1590,
      "cific": 1591,
      "actly": 1592,
      "Ġhigh": 1593,
      "ccur": 1594,
      "ecessary": 1595,
      "udd": 1596,
      "inistration": 1597,
      "eaut": 1598,
      "eration": 1599,
      "itiz": 1600,
      "atever": 1601,
      "eech": 1602,
      "ganization": 1603,
      "ume": 1604,
      "ickly": 1605,
      "orney": 1606,
      "alys": 1607,
      "sibility": 1608,
      "actice": 1609,
      "ye": 1610,
      "anguage": 1611,
      "itizen": 1612,
      "aditional": 1613,
      "Ġsame": 1614,
      "pportunity": 1615,
      "undred": 1616,
      "Ġweek": 1617,
      "udget": 1618,
      "Ġreally": 1619,
      "perty": 1620,
      "ecutive": 1621,
      "Ġstill": 1622,
      "icture": 1623,
      "Th": 1624,
      "eah": 1625,
      "alysis": 1626,
      "ister": 1627,
      "iful": 1628,
      "band": 1629,
      "allenge": 1630,
      "essor": 1631,
      "Ġgreat": 1632,
      "bate": 1633,
      "augh": 1634,
      "agine": 1635,
      "Ġhas": 1636,
      "avior": 1637,
      "aise": 1638,
      "inute": 1639,
      "Ġset": 1640,
      "ceive": 1641,
      "eautiful": 1642,
      "flect": 1643,
      "aughter": 1644,
      "ĠFor": 1645,
      "cientist": 1646,
      "Ġagainst": 1647,
      "Ġhere": 1648,
      "inner": 1649,
      "Ġunder": 1650,
      "duce": 1651,
      "rother": 1652,
      "Ġsupport": 1653,
      "ĠCom": 1654,
      "aby": 1655,
      "agaz": 1656,
      "enior": 1657,
      "Ġwhile": 1658,
      "paper": 1659,
      "emory": 1660,
      "ustomer": 1661,
      "reement": 1662,
      "Ġhand": 1663,
      "igious": 1664,
      "usband": 1665,
      "Ġfind": 1666,
      "adio": 1667,
      "elevision": 1668,
      "ermine": 1669,
      "97": 1670,
      "agazine": 1671,
      "Ġpoint": 1672,
      "andidate": 1673,
      "ategy": 1674,
      "ĠAr": 1675,
      "urpose": 1676,
      "yer": 1677,
      "rouble": 1678,
      "Ġbetween": 1679,
      "Ġgame": 1680,
      "udience": 1681,
      "erself": 1682,
      "achine": 1683,
      "98": 1684,
      "itchen": 1685,
      "arriage": 1686,
      "ipant": 1687,
      "amera": 1688,
      "Ġgovernment": 1689,
      "arden": 1690,
      "ployee": 1691,
      "Ġteam": 1692,
      "attern": 1693,
      "udden": 1694,
      "ĠCongress": 1695,
      "Ġaround": 1696,
      "Ġthree": 1697,
      "Ġrun": 1698,
      "ĠRepublican": 1699,
      "uddenly": 1700,
      "onight": 1701,
      "ognize": 1702,
      "oldier": 1703,
      "Ġlife": 1704,
      "Ġmonth": 1705,
      "Ġnever": 1706,
      "Ġgroup": 1707,
      "Ġiss": 1708,
      "Ġfew": 1709,
      "Ġboth": 1710,
      "Ġtoo": 1711,
      "Ġsomething": 1712,
      "Ġwar": 1713,
      "Ġplan": 1714,
      "Ġchar": 1715,
      "Ġstate": 1716,
      "Ġpublic": 1717,
      "Ġlot": 1718,
      "Ġbig": 1719,
      "Ġret": 1720,
      "Ġask": 1721,
      "Ġput": 1722,
      "St": 1723,
      "ten": 1724,
      "Ġfar": 1725,
      "Ġhome": 1726,
      "Ġanother": 1727,
      "Ġbest": 1728,
      "Ġform": 1729,
      "Ġduring": 1730,
      "Ġseem": 1731,
      "Ġturn": 1732,
      "Ġtry": 1733,
      "Ġsince": 1734,
      "Ġmight": 1735,
      "ĠMrs": 1736,
      "Ġleg": 1737,
      "Ġread": 1738,
      "Ġlittle": 1739,
      "Ġopen": 1740,
      "Ġchild": 1741,
      "Ġnext": 1742,
      "Ġdifferent": 1743,
      "ĠSh": 1744,
      "Ġpower": 1745,
      "Ġeach": 1746,
      "Ġallow": 1747,
      "Ġsecond": 1748,
      "Ġtalk": 1749,
      "Ġloc": 1750,
      "Ġbetter": 1751,
      "Ġpass": 1752,
      "Ġplace": 1753,
      "Ġquestion": 1754,
      "Ġwithout": 1755,
      "Ġless": 1756,
      "Ġmillion": 1757,
      "Ġimport": 1758,
      "Ġhard": 1759,
      "Ġwhy": 1760,
      "Ġhappen": 1761,
      "Ġresult": 1762,
      "Ġtop": 1763,
      "Ġmust": 1764,
      "Ġnumber": 1765,
      "Ġrest": 1766,
      "Ġalways": 1767,
      "Ġcase": 1768,
      "Ġpay": 1769,
      "Ġkeep": 1770,
      "Ġseason": 1771,
      "Ġkind": 1772,
      "Ġincluding": 1773,
      "Ġaway": 1774,
      "Ġreason": 1775,
      "Ġbook": 1776,
      "Ġvis": 1777,
      "Ġfour": 1778,
      "Ġinformation": 1779,
      "Ġbusiness": 1780,
      "Ġpolice": 1781,
      "Ġprocess": 1782,
      "Ġschool": 1783,
      "Ġcountry": 1784,
      "Ġcompany": 1785,
      "Ġattack": 1786,
      "Ġable": 1787,
      "Ġtell": 1788,
      "Ġtest": 1789,
      "Ġleft": 1790,
      "Ġwin": 1791,
      "Ġfriend": 1792,
      "Ġdesign": 1793,
      "Ġexpect": 1794,
      "Ġlet": 1795,
      "Ġenough": 1796,
      "ĠHe": 1797,
      "Ġchange": 1798,
      "Ġever": 1799,
      "Ġfree": 1800,
      "Ġprogram": 1801,
      "Ġcurrent": 1802,
      "Ġlevel": 1803,
      "Ġjob": 1804,
      "Ġstory": 1805,
      "Ġtax": 1806,
      "Ġpast": 1807,
      "Ġleast": 1808,
      "Ġalready": 1809,
      "Ġdata": 1810,
      "Ġsure": 1811,
      "Ġfamily": 1812,
      "Ġold": 1813,
      "Ġunt": 1814,
      "Ġmean": 1815,
      "Ġmarket": 1816,
      "Ġofficial": 1817,
      "Ġthought": 1818,
      "Ġclass": 1819,
      "Ġimportant": 1820,
      "Ġair": 1821,
      "Ġcity": 1822,
      "Ġlater": 1823,
      "Ġclaim": 1824,
      "Ġcost": 1825,
      "Ġview": 1826,
      "Ġoften": 1827,
      "Ġproject": 1828,
      "Ġthough": 1829,
      "Ġbit": 1830,
      "Ġ20": 1831,
      "Ġintern": 1832,
      "Ġdeal": 1833,
      "Ġfund": 1834,
      "Ġfull": 1835,
      "Ġresearch": 1836,
      "Ġlearn": 1837,
      "Ġgive": 1838,
      "Ġest": 1839,
      "Ġmoney": 1840,
      "Ġpresident": 1841,
      "Ġfight": 1842,
      "Ġuntil": 1843,
      "Ġorder": 1844,
      "Ġactually": 1845,
      "Ġnight": 1846,
      "Ġword": 1847,
      "Ġhuman": 1848,
      "Ġreturn": 1849,
      "Ġsever": 1850,
      "Ġgeneral": 1851,
      "Ġcourse": 1852,
      "Ġunderstand": 1853,
      "Ġshort": 1854,
      "Ġeffect": 1855,
      "Ġstop": 1856,
      "Ġwatch": 1857,
      "Ġexample": 1858,
      "Ġseveral": 1859,
      "Ġwhether": 1860,
      "Ġid": 1861,
      "Ġpossible": 1862,
      "Ġcampaign": 1863,
      "Ġbecome": 1864,
      "Ġq": 1865,
      "Ġhour": 1866,
      "Ġes": 1867,
      "Ġland": 1868,
      "Ġwithin": 1869,
      "Ġlikely": 1870,
      "Ġalong": 1871,
      "Ġaccording": 1872,
      "Ġearly": 1873,
      "Ġfuture": 1874,
      "Ġonce": 1875,
      "Ġrequire": 1876,
      "Ġaction": 1877,
      "Ġpolitical": 1878,
      "Ġsocial": 1879,
      "Ġside": 1880,
      "Ġbelieve": 1881,
      "Ġname": 1882,
      "Ġacross": 1883,
      "Ġtoday": 1884,
      "Ġappear": 1885,
      "Ġrecord": 1886,
      "Ġbad": 1887,
      "ĠPart": 1888,
      "Ġterm": 1889,
      "Ġevent": 1890,
      "Ġarm": 1891,
      "Ġline": 1892,
      "Ġothers": 1893,
      "Ġyet": 1894,
      "Ġtoget": 1895,
      "Ġpress": 1896,
      "Ġtogether": 1897,
      "ummer": 1898,
      "Ġyoung": 1899,
      "Ġstrong": 1900,
      "Ġavailable": 1901,
      "Ġbring": 1902,
      "Ġamong": 1903,
      "tal": 1904,
      "Ġlocal": 1905,
      "Ġclear": 1906,
      "Ġremain": 1907,
      "Ġprobably": 1908,
      "Ġbuilding": 1909,
      "Ġcheck": 1910,
      "Ġposition": 1911,
      "Ġmind": 1912,
      "Ġago": 1913,
      "Ġfive": 1914,
      "Ġwater": 1915,
      "Ġmove": 1916,
      "Ġsomeone": 1917,
      "Ġhold": 1918,
      "Ġbegin": 1919,
      "Ġdetail": 1920,
      "Ġformer": 1921,
      "Ġdecision": 1922,
      "Ġissue": 1923,
      "Ġexperience": 1924,
      "Ġconcern": 1925,
      "Ġhit": 1926,
      "Ġarea": 1927,
      "Ġnear": 1928,
      "Ġshare": 1929,
      "Ġlight": 1930,
      "Ġexist": 1931,
      "Ġident": 1932,
      "Ġcourt": 1933,
      "Ġidea": 1934,
      "Ġsite": 1935,
      "Ġlarge": 1936,
      "Ġfire": 1937,
      "Ġoffer": 1938,
      "Ġelse": 1939,
      "Ġmedia": 1940,
      "Ġlow": 1941,
      "Ġvisit": 1942,
      "ĠAg": 1943,
      "Ġbehind": 1944,
      "ergy": 1945,
      "Ġspecial": 1946,
      "Ġanything": 1947,
      "Ġstep": 1948,
      "Ġpresent": 1949,
      "Ġaccount": 1950,
      "Ġentire": 1951,
      "Ġbreak": 1952,
      "Ġbillion": 1953,
      "Ġseries": 1954,
      "Ġnothing": 1955,
      "Ġpretty": 1956,
      "Ġface": 1957,
      "Ġnational": 1958,
      "Ġcreate": 1959,
      "Ġfilm": 1960,
      "Ġtotal": 1961,
      "Ġeither": 1962,
      "Ġeffort": 1963,
      "Ġgoal": 1964,
      "Ġcut": 1965,
      "Ġhowever": 1966,
      "Ġdevelopment": 1967,
      "Ġhistory": 1968,
      "Ġgirl": 1969,
      "Ġeverything": 1970,
      "Ġfood": 1971,
      "Ġparty": 1972,
      "Ġsecurity": 1973,
      "Ġquite": 1974,
      "Ġhalf": 1975,
      "Ġfocus": 1976,
      "Ġhouse": 1977,
      "Ġenergy": 1978,
      "Ġalmost": 1979,
      "Ġaddress": 1980,
      "Ġmodel": 1981,
      "Ġrisk": 1982,
      "Ġamount": 1983,
      "Ġprovide": 1984,
      "Ġreach": 1985,
      "Ġsense": 1986,
      "Ġpolicy": 1987,
      "Ġlive": 1988,
      "Ġpersonal": 1989,
      "Ġtoward": 1990,
      "Ġwhole": 1991,
      "Ġbody": 1992,
      "Ġkey": 1993,
      "Ġrather": 1994,
      "Ġspeak": 1995,
      "Ġspace": 1996,
      "Ġbank": 1997,
      "Ġprotect": 1998,
      "Ġwrong": 1999,
      "Ġbuy": 2000,
      "Ġpick": 2001,
      "Ġconsider": 2002,
      "Ġheart": 2003,
      "Ġhear": 2004,
      "Ġoutside": 2005,
      "Ġenjoy": 2006,
      "Ġmatter": 2007,
      "Ġcover": 2008,
      "Ġeveryone": 2009,
      "Ġstay": 2010,
      "Ġcharacter": 2011,
      "Ġsaid": 2012,
      "Ġelection": 2013,
      "Ġsimply": 2014,
      "Ġblack": 2015,
      "Ġleave": 2016,
      "Ġoption": 2017,
      "Ġfall": 2018,
      "Ġwalk": 2019,
      "Ġcard": 2020,
      "Ġkid": 2021,
      "Ġserious": 2022,
      "Ġspend": 2023,
      "Ġdrug": 2024,
      "Ġapproach": 2025,
      "Ġaccept": 2026,
      "Ġsound": 2027,
      "Ġclose": 2028,
      "Ġsoon": 2029,
      "Ġnetwork": 2030,
      "Ġfield": 2031,
      "Ġwhite": 2032,
      "Ġsingle": 2033,
      "Ġmiss": 2034,
      "Ġrecently": 2035,
      "Ġmilitary": 2036,
      "Ġmoment": 2037,
      "Ġground": 2038,
      "Ġthird": 2039,
      "Ġage": 2040,
      "Ġbenefit": 2041,
      "Ġarticle": 2042,
      "Ġdifficult": 2043,
      "Ġthreat": 2044,
      "Ġstar": 2045,
      "Ġrepresent": 2046,
      "Ġability": 2047,
      "Ġsuggest": 2048,
      "Ġfoot": 2049,
      "Ġstatement": 2050,
      "Ġindustry": 2051,
      "Ġitself": 2052,
      "Ġabove": 2053,
      "Ġthemselves": 2054,
      "Ġincrease": 2055,
      "Ġunit": 2056,
      "Ġforward": 2057,
      "Ġjoin": 2058,
      "Ġsubject": 2059,
      "Ġservice": 2060,
      "Ġeduc": 2061,
      "Ġeasy": 2062,
      "Ġvalue": 2063,
      "Ġexplain": 2064,
      "Ġmethod": 2065,
      "Ġhimself": 2066,
      "Ġrole": 2067,
      "Ġcommon": 2068,
      "Ġred": 2069,
      "Ġinternational": 2070,
      "Ġtrue": 2071,
      "Ġplayer": 2072,
      "Ġsix": 2073,
      "Ġinstead": 2074,
      "Ġtown": 2075,
      "Ġsimilar": 2076,
      "Ġreveal": 2077,
      "Ġanyone": 2078,
      "Ġoffice": 2079,
      "Ġdirector": 2080,
      "Ġlate": 2081,
      "Ġrate": 2082,
      "Ġvarious": 2083,
      "Ġbar": 2084,
      "Ġhope": 2085,
      "Ġsell": 2086,
      "Ġevidence": 2087,
      "Ġregion": 2088,
      "Ġinterview": 2089,
      "Ġsend": 2090,
      "Ġcell": 2091,
      "Ġavoid": 2092,
      "Ġmeeting": 2093,
      "Ġusually": 2094,
      "Ġcontinue": 2095,
      "Ġfast": 2096,
      "Ġready": 2097,
      "Ġsituation": 2098,
      "Ġsource": 2099,
      "Ġpull": 2100,
      "Ġparent": 2101,
      "Ġsignificant": 2102,
      "Ġespecially": 2103,
      "Ġattention": 2104,
      "Ġten": 2105,
      "Ġinclude": 2106,
      "Ġforce": 2107,
      "Ġmaterial": 2108,
      "Ġboard": 2109,
      "Ġmusic": 2110,
      "Ġprice": 2111,
      "Ġrelationship": 2112,
      "Ġcause": 2113,
      "Ġnatural": 2114,
      "Ġvote": 2115,
      "Ġdoor": 2116,
      "Ġfederal": 2117,
      "Ġmother": 2118,
      "Ġsuccessful": 2119,
      "Ġrange": 2120,
      "Ġpopular": 2121,
      "Ġmember": 2122,
      "Ġcapital": 2123,
      "Ġson": 2124,
      "Ġpaper": 2125,
      "Ġmorning": 2126,
      "Ġimpact": 2127,
      "Ġresponse": 2128,
      "Ġfloor": 2129,
      "Ġphone": 2130,
      "Ġpage": 2131,
      "Ġquality": 2132,
      "Ġsimple": 2133,
      "Ġmyself": 2134,
      "Ġtraining": 2135,
      "Ġtechnology": 2136,
      "Ġwoman": 2137,
      "Ġeconomic": 2138,
      "Ġdeep": 2139,
      "Ġpush": 2140,
      "Ġstuff": 2141,
      "Ġhappy": 2142,
      "Ġanswer": 2143,
      "Ġball": 2144,
      "Ġmessage": 2145,
      "Ġdiscuss": 2146,
      "Ġestablish": 2147,
      "Ġmedical": 2148,
      "Ġforeign": 2149,
      "Ġseek": 2150,
      "Ġphysical": 2151,
      "Ġpoor": 2152,
      "Ġperformance": 2153,
      "Ġcouple": 2154,
      "Ġoccur": 2155,
      "Ġplant": 2156,
      "Ġexactly": 2157,
      "Ġgun": 2158,
      "Ġblood": 2159,
      "Ġyourself": 2160,
      "Ġdraw": 2161,
      "Ġscience": 2162,
      "Ġbase": 2163,
      "Ġhuge": 2164,
      "emocratic": 2165,
      "Ġnearly": 2166,
      "Ġfirm": 2167,
      "Ġmodern": 2168,
      "Ġfinish": 2169,
      "Ġmeasure": 2170,
      "Ġthousand": 2171,
      "Ġbill": 2172,
      "Ġfinancial": 2173,
      "Ġsize": 2174,
      "Ġskill": 2175,
      "Ġtravel": 2176,
      "Ġbox": 2177,
      "Ġthank": 2178,
      "Ġanimal": 2179,
      "Ġnecessary": 2180,
      "Ġpiece": 2181,
      "Ġcharge": 2182,
      "Ġdog": 2183,
      "Ġcareer": 2184,
      "Ġcomputer": 2185,
      "Ġcivil": 2186,
      "Ġfactor": 2187,
      "Ġcarry": 2188,
      "Ġsort": 2189,
      "Ġstaff": 2190,
      "Ġtype": 2191,
      "Ġfeeling": 2192,
      "Ġsociety": 2193,
      "Ġrace": 2194,
      "Ġsong": 2195,
      "Ġsummer": 2196,
      "Ġwonder": 2197,
      "Ġdescri": 2198,
      "Ġquickly": 2199,
      "Ġfinally": 2200,
      "Ġfear": 2201,
      "Ġmaintain": 2202,
      "Ġpractice": 2203,
      "Ġfather": 2204,
      "Ġfigure": 2205,
      "yond": 2206,
      "Ġnice": 2207,
      "Ġtable": 2208,
      "Ġinside": 2209,
      "Ġspecific": 2210,
      "Ġmention": 2211,
      "Ġaffect": 2212,
      "Ġeight": 2213,
      "Ġsection": 2214,
      "Ġrespond": 2215,
      "Ġremember": 2216,
      "Ġvoice": 2217,
      "Ġtraditional": 2218,
      "Ġimage": 2219,
      "Ġfly": 2220,
      "Ġgrowth": 2221,
      "Ġspeech": 2222,
      "Ġenter": 2223,
      "Ġdiscussion": 2224,
      "Ġthrow": 2225,
      "Ġprofessional": 2226,
      "Ġstore": 2227,
      "Ġcenter": 2228,
      "Ġupon": 2229,
      "Ġinteresting": 2230,
      "Ġcertainly": 2231,
      "Ġbeyond": 2232,
      "Ġprevent": 2233,
      "Ġcontain": 2234,
      "Ġcrime": 2235,
      "Ġalthough": 2236,
      "Ġcolor": 2237,
      "Ġleader": 2238,
      "Ġnation": 2239,
      "Ġopportunity": 2240,
      "Ġmovement": 2241,
      "Ġtrial": 2242,
      "Ġchance": 2243,
      "Ġmiddle": 2244,
      "Ġorganization": 2245,
      "Ġlanguage": 2246,
      "Ġproduction": 2247,
      "Ġreceive": 2248,
      "Ġsometimes": 2249,
      "Ġculture": 2250,
      "Ġtask": 2251,
      "Ġguy": 2252,
      "Ġadministration": 2253,
      "Ġparticularly": 2254,
      "Ġdream": 2255,
      "Ġhundred": 2256,
      "Ġchoice": 2257,
      "Ġproperty": 2258,
      "Ġbehavior": 2259,
      "Ġperhaps": 2260,
      "Ġgas": 2261,
      "Ġdrive": 2262,
      "Ġstudent": 2263,
      "Ġwrite": 2264,
      "Ġmajority": 2265,
      "Ġlay": 2266,
      "Ġstreet": 2267,
      "Ġeducation": 2268,
      "Ġknowledge": 2269,
      "Ġroad": 2270,
      "Ġdark": 2271,
      "Ġwhose": 2272,
      "Ġhair": 2273,
      "Ġrock": 2274,
      "Ġloss": 2275,
      "Ġwall": 2276,
      "Ġtrade": 2277,
      "Ġcentral": 2278,
      "Ġexpert": 2279,
      "Ġwish": 2280,
      "Ġtend": 2281,
      "Ġcitizen": 2282,
      "Ġstyle": 2283,
      "Ġpressure": 2284,
      "Ġwindow": 2285,
      "Ġchair": 2286,
      "Ġwear": 2287,
      "Ġmission": 2288,
      "Ġgreen": 2289,
      "Ġfill": 2290,
      "Ġoil": 2291,
      "Ġconference": 2292,
      "Ġdoctor": 2293,
      "Ġchoose": 2294,
      "Ġwhatever": 2295,
      "Ġanalysis": 2296,
      "Ġeconomy": 2297,
      "Ġdefense": 2298,
      "Ġartist": 2299,
      "Ġpicture": 2300,
      "Ġwife": 2301,
      "Ġnature": 2302,
      "Ġpositive": 2303,
      "Ġstage": 2304,
      "Ġofficer": 2305,
      "Ġlisten": 2306,
      "Ġagree": 2307,
      "Ġseven": 2308,
      "Ġdifference": 2309,
      "Ġitem": 2310,
      "Ġnorth": 2311,
      "Ġdebate": 2312,
      "Ġfish": 2313,
      "Ġrich": 2314,
      "Ġmovie": 2315,
      "Ġcollege": 2316,
      "Ġbudget": 2317,
      "Ġfine": 2318,
      "Ġstructure": 2319,
      "Ġalone": 2320,
      "Ġreality": 2321,
      "Ġmaybe": 2322,
      "Ġsafe": 2323,
      "Ġletter": 2324,
      "Ġreflect": 2325,
      "Ġchallenge": 2326,
      "Ġsport": 2327,
      "Ġpolitics": 2328,
      "Ġheavy": 2329,
      "Ġdespite": 2330,
      "Ġinvestment": 2331,
      "Ġdirection": 2332,
      "Ġahead": 2333,
      "Ġnotice": 2334,
      "Ġbeautiful": 2335,
      "Ġsave": 2336,
      "ĠTV": 2337,
      "Ġscore": 2338,
      "Ġbeat": 2339,
      "Ġweight": 2340,
      "Ġseat": 2341,
      "Ġlose": 2342,
      "Ġwhom": 2343,
      "Ġnewspaper": 2344,
      "Ġscientist": 2345,
      "Ġactivity": 2346,
      "Ġcatch": 2347,
      "Ġcentury": 2348,
      "Ġcoach": 2349,
      "Ġimagine": 2350,
      "Ġbrother": 2351,
      "Ġscene": 2352,
      "Ġtruth": 2353,
      "Ġpeace": 2354,
      "Ġmanager": 2355,
      "Ġthroughout": 2356,
      "Ġworry": 2357,
      "Ġsurface": 2358,
      "Ġchurch": 2359,
      "Ġcultural": 2360,
      "Ġstation": 2361,
      "Ġlaugh": 2362,
      "Ġattorney": 2363,
      "Ġrise": 2364,
      "Ġstock": 2365,
      "Ġrule": 2366,
      "Ġindeed": 2367,
      "Ġadult": 2368,
      "Ġdecade": 2369,
      "Ġspring": 2370,
      "Ġinstitution": 2371,
      "Ġeye": 2372,
      "Ġprofessor": 2373,
      "Ġraise": 2374,
      "Ġbed": 2375,
      "Ġdrop": 2376,
      "Ġsuffer": 2377,
      "Ġeast": 2378,
      "Ġboy": 2379,
      "Ġbag": 2380,
      "Ġsea": 2381,
      "Ġexecutive": 2382,
      "Ġtrip": 2383,
      "Ġminute": 2384,
      "Ġresource": 2385,
      "Ġmemory": 2386,
      "Ġcandidate": 2387,
      "Ġprepare": 2388,
      "ĠDe": 2389,
      "Ġapply": 2390,
      "Ġblue": 2391,
      "Ġagency": 2392,
      "Ġresponsibility": 2393,
      "Ġnote": 2394,
      "Ġserve": 2395,
      "Ġeverybody": 2396,
      "Ġagreement": 2397,
      "Ġtelevision": 2398,
      "Ġyard": 2399,
      "Ġwriter": 2400,
      "Ġpurpose": 2401,
      "Ġproduce": 2402,
      "Ġtheory": 2403,
      "Ġcustomer": 2404,
      "Ġtough": 2405,
      "Ġclearly": 2406,
      "Ġguess": 2407,
      "Ġhusband": 2408,
      "Ġsenior": 2409,
      "Ġonto": 2410,
      "Ġskin": 2411,
      "Ġglass": 2412,
      "ercial": 2413,
      "Ġcommercial": 2414,
      "Ġcollection": 2415,
      "Ġenvironmental": 2416,
      "Ġmarriage": 2417,
      "Ġdaughter": 2418,
      "Ġstrategy": 2419,
      "Ġbaby": 2420,
      "Ġgeneration": 2421,
      "Ġaudience": 2422,
      "Ġowner": 2423,
      "Ġdetermine": 2424,
      "Ġwide": 2425,
      "Ġmanagement": 2426,
      "Ġtrouble": 2427,
      "Ġconsumer": 2428,
      "Ġmouth": 2429,
      "Ġyes": 2430,
      "Ġeat": 2431,
      "Ġidentify": 2432,
      "Ġherself": 2433,
      "Ġreligious": 2434,
      "Ġpartner": 2435,
      "Ġthus": 2436,
      "Ġmagazine": 2437,
      "Ġrealize": 2438,
      "Ġnone": 2439,
      "Ġargue": 2440,
      "Ġcold": 2441,
      "Ġimprove": 2442,
      "Ġemployee": 2443,
      "Ġradio": 2444,
      "Ġok": 2445,
      "Ġdinner": 2446,
      "Ġedge": 2447,
      "Ġauthority": 2448,
      "Ġparticipant": 2449,
      "Ġkitchen": 2450,
      "Ġevening": 2451,
      "Ġforget": 2452,
      "Ġmachine": 2453,
      "Ġprove": 2454,
      "Ġagent": 2455,
      "Ġcamera": 2456,
      "Ġdecide": 2457,
      "Ġoperation": 2458,
      "Ġpattern": 2459,
      "Ġcup": 2460,
      "Ġsomebody": 2461,
      "Ġinvolve": 2462,
      "Ġyeah": 2463,
      "Ġhotel": 2464,
      "Ġmanage": 2465,
      "Ġpainting": 2466,
      "Ġdiscover": 2467,
      "Ġsmile": 2468,
      "Ġadmit": 2469,
      "Ġteacher": 2470,
      "Ġgarden": 2471,
      "Ġdegree": 2472,
      "Ġworker": 2473,
      "ĠEn": 2474,
      "Ġsouthern": 2475,
      "Ġlawyer": 2476,
      "Ġrecognize": 2477,
      "Ġshake": 2478,
      "Ġtree": 2479,
      "Ġsister": 2480,
      "Ġassume": 2481,
      "Ġborn": 2482,
      "Ġdescribe": 2483,
      "Ġtonight": 2484,
      "Ġwestern": 2485,
      "ĠPM": 2486,
      "Ġsuddenly": 2487,
      "Ġshoulder": 2488,
      "Ġdemocratic": 2489,
      "Ġsoldier": 2490,
      "Ġrelate": 2491,
      "86": 2492,
      "Ġarrive": 2493,
      "Ġ\"": 2494,
      "ĠAd": 2495,
      "76": 2496,
      "In": 2497,
      "ĠPl": 2498,
      "21": 2499,
      "84": 2500,
      "74": 2501,
      "83": 2502,
      "ĠMe": 2503,
      "73": 2504,
      "ĠBe": 2505,
      "ĠDi": 2506,
      "ĠIm": 2507,
      "56": 2508,
      "row": 2509,
      "ĠOn": 2510,
      "54": 2511,
      "53": 2512,
      "ĠPr": 2513,
      "82": 2514,
      "72": 2515,
      "Ġhad": 2516,
      "09": 2517,
      "Wh": 2518,
      "ĠInd": 2519,
      "ĠQ": 2520,
      "ĠSe": 2521,
      "Ġwere": 2522,
      "52": 2523,
      "ĠCl": 2524,
      "!!": 2525,
      "100": 2526,
      "Ġbeen": 2527,
      "ĠMan": 2528,
      "96": 2529,
      "ĠPol": 2530,
      "135": 2531,
      "ĠNew": 2532,
      "94": 2533,
      "93": 2534,
      "ĠAct": 2535,
      "pon": 2536,
      "ĠPer": 2537,
      "ĠFin": 2538,
      "ĠEvery": 2539,
      "ĠRec": 2540,
      "ĠReal": 2541,
      "140": 2542,
      "92": 2543,
      "ĠWe": 2544,
      "Re": 2545,
      "150": 2546,
      "120": 2547,
      "110": 2548,
      "130": 2549,
      "ĠSo": 2550,
      "31": 2551,
      "ĠBl": 2552,
      "ook": 2553,
      "41": 2554,
      "ĠLe": 2555,
      "61": 2556,
      "ĠSc": 2557,
      "ĠSp": 2558,
      "ĠOr": 2559,
      "ĠCent": 2560,
      "ĠWith": 2561,
      "ĠNot": 2562,
      "ĠApp": 2563,
      "ĠSer": 2564,
      ".âĢĿ": 2565,
      "Pro": 2566,
      "ĠSome": 2567,
      "ĠPre": 2568,
      "ĠOffic": 2569,
      "ĠQu": 2570,
      "..": 2571,
      "ĠArt": 2572,
      "ĠAtt": 2573,
      "ĠInc": 2574,
      "ĠAny": 2575,
      "Al": 2576,
      "ĠBu": 2577,
      "ĠDec": 2578,
      "ĠRel": 2579,
      "ĠInter": 2580,
      "81": 2581,
      "ĠDisc": 2582,
      "ĠPartic": 2583,
      "05": 2584,
      "'t": 2585,
      "71": 2586,
      "ĠPos": 2587,
      "ĠAs": 2588,
      "ĠAnd": 2589,
      "Ġ25": 2590,
      "ĠBut": 2591,
      "erson": 2592,
      "ĠUn": 2593,
      "rough": 2594,
      "07": 2595,
      "eel": 2596,
      "It": 2597,
      "08": 2598,
      "Ġ-": 2599,
      "ra": 2600,
      "âĢľ": 2601,
      "Ġ30": 2602,
      "ĠMay": 2603,
      "Ġ27": 2604,
      "ĠHow": 2605,
      "ally": 2606,
      "51": 2607,
      "Ġ28": 2608,
      "rove": 2609,
      "000": 2610,
      "ĠPh": 2611,
      "Ch": 2612,
      ",âĢĿ": 2613,
      "ĠNor": 2614,
      "Ġ45": 2615,
      "ĠAll": 2616,
      "ĠTe": 2617,
      "Con": 2618,
      "Ġ38": 2619,
      "Ġ37": 2620,
      "Ġ48": 2621,
      "ĠAm": 2622,
      "ĠEl": 2623,
      "ĠComm": 2624,
      "Ġ47": 2625,
      "ĠRo": 2626,
      "Ġ99": 2627,
      "Ġ67": 2628,
      "Ġ68": 2629,
      "Ġ19": 2630,
      "ĠWest": 2631,
      "ĠTo": 2632,
      "Ġdid": 2633,
      "Ġ125": 2634,
      "Ġ128": 2635,
      "Ġ127": 2636,
      "Ġ135": 2637,
      "Ġ145": 2638,
      "ian": 2639,
      "Ġ118": 2640,
      "Ġ117": 2641,
      "Ġ147": 2642,
      "Ġ138": 2643,
      "Ġ137": 2644,
      "Ġ148": 2645,
      "ĠWor": 2646,
      "06": 2647,
      "ĠGo": 2648,
      "ound": 2649,
      "ĠCar": 2650,
      "Ġ60": 2651,
      "ĠYou": 2652,
      "ĠSu": 2653,
      "Ex": 2654,
      "ĠCo": 2655,
      "04": 2656,
      ".\"": 2657,
      "ĠDo": 2658,
      "ĠSec": 2659,
      "ĠSouth": 2660,
      "Ġ29": 2661,
      "03": 2662,
      "ĠInst": 2663,
      "ĠMy": 2664,
      "02": 2665,
      "ĠAb": 2666,
      "149": 2667,
      "129": 2668,
      "109": 2669,
      "119": 2670,
      "139": 2671,
      "ĠPe": 2672,
      "ĠGen": 2673,
      "ĠBo": 2674,
      "ĠSm": 2675,
      "ĠCour": 2676,
      "Ġ49": 2677,
      "Ġ39": 2678,
      "ĠNews": 2679,
      "ĠCont": 2680,
      "Ġ115": 2681,
      "ĠChar": 2682,
      "Ġ120": 2683,
      "ike": 2684,
      "Ġ69": 2685,
      "Ġ130": 2686,
      "Ġ140": 2687,
      "125": 2688,
      "ĠThey": 2689,
      "Ġdon": 2690,
      "115": 2691,
      "105": 2692,
      "ĠColl": 2693,
      "ĠBec": 2694,
      "145": 2695,
      "Ġ149": 2696,
      "Ġ129": 2697,
      "Ġ119": 2698,
      "ĠEven": 2699,
      "ĠFir": 2700,
      "Ġ139": 2701,
      "ĠComp": 2702,
      "ĠSoci": 2703,
      "!!!!": 2704,
      "ĠAc": 2705,
      "ĠâĢĵ": 2706,
      "Ġyears": 2707,
      "ĠLaw": 2708,
      "ĠCons": 2709,
      "ĠAcc": 2710,
      "107": 2711,
      "117": 2712,
      "127": 2713,
      "137": 2714,
      "147": 2715,
      "ĠWind": 2716,
      "ĠYour": 2717,
      "ĠDes": 2718,
      "ĠStud": 2719,
      "ĠMod": 2720,
      "128": 2721,
      "108": 2722,
      "118": 2723,
      "148": 2724,
      "138": 2725,
      "ll": 2726,
      "ĠSk": 2727,
      "ĠPlay": 2728,
      "ĠDirect": 2729,
      "ĠIf": 2730,
      "ĠDet": 2731,
      "ĠUs": 2732,
      "ĠNat": 2733,
      "ĠSpe": 2734,
      "ĠAdm": 2735,
      "ĠUnd": 2736,
      "ĠAdd": 2737,
      "ĠSing": 2738,
      "ĠId": 2739,
      "Ġ$": 2740,
      "ĠProf": 2741,
      "ĠDevelop": 2742,
      "ĠTri": 2743,
      "ĠRem": 2744,
      "ĠStr": 2745,
      "ĠOut": 2746,
      "ĠManag": 2747,
      "ĠWork": 2748,
      "ĠSign": 2749,
      "ĠPolit": 2750,
      "ĠStand": 2751,
      "ĠAuthor": 2752,
      "ĠHot": 2753,
      "ĠMain": 2754,
      "ĠSomet": 2755,
      "ĠCare": 2756,
      "ĠAgain": 2757,
      "ĠImp": 2758,
      "ĠLead": 2759,
      "ĠPerson": 2760,
      "ĠKnow": 2761,
      "ĠHear": 2762,
      "ĠSimp": 2763,
      "ery": 2764,
      "Ġbeing": 2765,
      "ĠPop": 2766,
      "ĠSuccess": 2767,
      "ĠList": 2768,
      "ĠSit": 2769,
      "ĠBuild": 2770,
      "ĠMov": 2771,
      "ĠEconom": 2772,
      "ĠHim": 2773,
      "ĠFeel": 2774,
      "ĠOw": 2775,
      "ĠParticular": 2776,
      "ĠRecent": 2777,
      "ĠProduct": 2778,
      "ĠHap": 2779,
      "ĠThrough": 2780,
      "ĠEnvironment": 2781,
      "ĠDifferen": 2782,
      "ĠShould": 2783,
      "ĠMajor": 2784,
      "ĠInterest": 2785,
      "ĠTreat": 2786,
      "ĠCult": 2787,
      "On": 2788,
      "ĠPerform": 2789,
      "ĠWr": 2790,
      "ĠAv": 2791,
      "ĠThem": 2792,
      "ĠFact": 2793,
      "ĠCertain": 2794,
      "ĠInclud": 2795,
      "ĠRespon": 2796,
      "ĠDiscus": 2797,
      "ĠBeh": 2798,
      "ĠGrow": 2799,
      "ĠTeach": 2800,
      "Tr": 2801,
      "We": 2802,
      "ĠMeet": 2803,
      "ors": 2804,
      "ĠThere": 2805,
      "ĠThat": 2806,
      "Sh": 2807,
      ",\"": 2808,
      "Ġdis": 2809,
      "ĠâĢĶ": 2810,
      "Ar": 2811,
      "Ġ11": 2812,
      "Com": 2813,
      "Ġdoes": 2814,
      "ces": 2815,
      "91": 2816,
      "106": 2817,
      "116": 2818,
      "146": 2819,
      "126": 2820,
      "136": 2821,
      "ens": 2822,
      "ĠShe": 2823,
      "ased": 2824,
      "ump": 2825,
      "Ad": 2826,
      "114": 2827,
      ").": 2828,
      "144": 2829,
      "104": 2830,
      "124": 2831,
      "134": 2832,
      "123": 2833,
      "103": 2834,
      "113": 2835,
      "133": 2836,
      "143": 2837,
      "ĠCan": 2838,
      "ĠUnit": 2839,
      "Ag": 2840,
      "Part": 2841,
      "ub": 2842,
      "01": 2843,
      "102": 2844,
      "132": 2845,
      "122": 2846,
      "112": 2847,
      "142": 2848,
      "ning": 2849,
      "ton": 2850,
      "Ġ200": 2851,
      "Ġmade": 2852,
      "Ġgoing": 2853,
      "153": 2854,
      "Ġ18": 2855,
      "aking": 2856,
      "ues": 2857,
      "ext": 2858,
      "Ġgr": 2859,
      "ative": 2860,
      "Im": 2861,
      "152": 2862,
      "ĠNo": 2863,
      "Me": 2864,
      "Ġ24": 2865,
      "ied": 2866,
      "ĠWhen": 2867,
      "ĠWhat": 2868,
      "ĠAt": 2869,
      "Ġ80": 2870,
      "bs": 2871,
      "Ġ90": 2872,
      "ait": 2873,
      "âĢĶ": 2874,
      "Pl": 2875,
      "Ġ23": 2876,
      "ĠPresident": 2877,
      "nto": 2878,
      "Ġ70": 2879,
      "199": 2880,
      "En": 2881,
      "De": 2882,
      "ures": 2883,
      "ities": 2884,
      "ions": 2885,
      "les": 2886,
      "Be": 2887,
      "ĠOne": 2888,
      "chool": 2889,
      "Ġ112": 2890,
      "Ġ111": 2891,
      "ĠWar": 2892,
      "Di": 2893,
      "ĠAss": 2894,
      "com": 2895,
      "ĠFl": 2896,
      "ved": 2897,
      "Ġ114": 2898,
      "ism": 2899,
      "ĠNorth": 2900,
      "oday": 2901,
      "Ġ110": 2902,
      "Ġ26": 2903,
      "ĠBar": 2904,
      "ocal": 2905,
      "Ġ150": 2906,
      "ĠNational": 2907,
      "ĠHouse": 2908,
      "ĠState": 2909,
      "165": 2910,
      "168": 2911,
      "167": 2912,
      "Ġ[": 2913,
      "roup": 2914,
      "),": 2915,
      "Ġ17": 2916,
      "oney": 2917,
      "ĠWorld": 2918,
      "ĠHowever": 2919,
      "ĠCity": 2920,
      "ether": 2921,
      "ĠJust": 2922,
      "This": 2923,
      "ĠHis": 2924,
      "onth": 2925,
      "elp": 2926,
      "pond": 2927,
      "ĠThese": 2928,
      "otal": 2929,
      "ĠIntern": 2930,
      "efore": 2931,
      "man": 2932,
      "pring": 2933,
      "att": 2934,
      "ikely": 2935,
      "Ġ36": 2936,
      "Ġ33": 2937,
      "efense": 2938,
      "ĠAfter": 2939,
      "Ġfound": 2940,
      "Ġ113": 2941,
      "Ġ46": 2942,
      "ĠEd": 2943,
      "nergy": 2944,
      "Ġ44": 2945,
      "ogether": 2946,
      "160": 2947,
      "afe": 2948,
      "rea": 2949,
      "154": 2950,
      "gion": 2951,
      "ducation": 2952,
      "690": 2953,
      "Ġsl": 2954,
      "ĠCr": 2955,
      "ĠFace": 2956,
      "Ġused": 2957,
      "Cl": 2958,
      "ften": 2959,
      "isit": 2960,
      "volve": 2961,
      "ainting": 2962,
      "Ġ66": 2963,
      "ĠNow": 2964,
      "ered": 2965,
      "everal": 2966,
      "eyond": 2967,
      "ĠWhite": 2968,
      "As": 2969,
      "perience": 2970,
      "ĠStreet": 2971,
      "eturn": 2972,
      "ĠWill": 2973,
      "ced": 2974,
      "ĠEast": 2975,
      "ntil": 2976,
      "vidence": 2977,
      "Ġsays": 2978,
      "mercial": 2979,
      "650": 2980,
      "vestment": 2981,
      "stablish": 2982,
      "specially": 2983,
      "ĠBy": 2984,
      "ntire": 2985,
      "250": 2986,
      "Ġ123": 2987,
      "Ġ124": 2988,
      "Ġ144": 2989,
      "urface": 2990,
      "Ġ116": 2991,
      "Ġ133": 2992,
      "eft": 2993,
      "Ġ146": 2994,
      "Ġ136": 2995,
      "Ġ126": 2996,
      "680": 2997,
      "ĠEm": 2998,
      "670": 2999,
      "ssue": 3000,
      "169": 3001,
      "portant": 3002,
      "350": 3003,
      "Ġ16": 3004,
      "ressure": 3005,
      "170": 3006,
      "Pr": 3007,
      "990": 3008,
      "educe": 3009,
      "enefit": 3010,
      "Describe": 3011,
      "rovide": 3012,
      "190": 3013,
      "ĠCourt": 3014,
      "ĠThank": 3015,
      "ĠWhile": 3016,
      "180": 3017,
      "entify": 3018,
      "370": 3019,
      "270": 3020,
      "380": 3021,
      "280": 3022,
      "290": 3023,
      "390": 3024,
      "200": 3025,
      "land": 3026,
      "ĠRich": 3027,
      "Every": 3028,
      "ĠDay": 3029,
      "ices": 3030,
      "ale": 3031,
      "ĠThen": 3032,
      "ĠHer": 3033,
      "ĠCenter": 3034,
      "son": 3035,
      "Ġkn": 3036,
      "Se": 3037,
      "ings": 3038,
      "ĠMore": 3039,
      "450": 3040,
      "Per": 3041,
      "Ind": 3042,
      "Pol": 3043,
      "ĠRed": 3044,
      "480": 3045,
      "akes": 3046,
      "Man": 3047,
      "Fin": 3048,
      "ĠArm": 3049,
      "470": 3050,
      "490": 3051,
      "ĠFirst": 3052,
      "riv": 3053,
      "ĠDemocratic": 3054,
      "Ġ59": 3055,
      "ĠAir": 3056,
      "the": 3057,
      "ĠOf": 3058,
      "Ġ75": 3059,
      "ĠBlack": 3060,
      "Ġthings": 3061,
      "ĠFrom": 3062,
      "ĠParty": 3063,
      "Ġ79": 3064,
      "uck": 3065,
      "...": 3066,
      "ames": 3067,
      "ĠWell": 3068,
      "Ġ89": 3069,
      "ĠHere": 3070,
      "Ġcompl": 3071,
      "ĠPolice": 3072,
      "ĠStar": 3073,
      "ness": 3074,
      "ĠGreen": 3075,
      "Ġ55": 3076,
      "ĠHigh": 3077,
      "Rec": 3078,
      "ĠBill": 3079,
      "But": 3080,
      "Ġ109": 3081,
      "ĠGeneral": 3082,
      "ĠMost": 3083,
      "ĠInternational": 3084,
      "ĠWin": 3085,
      "Ġ95": 3086,
      "ĠWhy": 3087,
      "ĠUp": 3088,
      "ĠGovernment": 3089,
      "ĠPeople": 3090,
      "Ġext": 3091,
      "ĠBank": 3092,
      "Ġ85": 3093,
      "ĠRight": 3094,
      "ĠBecause": 3095,
      "ĠLet": 3096,
      "ĠGet": 3097,
      "br": 3098,
      "ĠMany": 3099,
      "ĠAccording": 3100,
      "Act": 3101,
      "ĠSince": 3102,
      "With": 3103,
      "ĠOur": 3104,
      "ĠGreat": 3105,
      "ĠSchool": 3106,
      "ically": 3107,
      "ĠOffice": 3108,
      "Ġ57": 3109,
      "ĠOver": 3110,
      "ages": 3111,
      "ĠFar": 3112,
      "Ġ105": 3113,
      "ash": 3114,
      "Ġ22": 3115,
      "ĠWestern": 3116,
      "ĠCup": 3117,
      "ah": 3118,
      "ĠOther": 3119,
      "ĠChurch": 3120,
      "ĠOk": 3121,
      "Ġgot": 3122,
      "ĠTheir": 3123,
      "ĠAlso": 3124,
      "ĠWall": 3125,
      "Ġ77": 3126,
      "ĠRead": 3127,
      "ĠBig": 3128,
      "ĠAlthough": 3129,
      "bers": 3130,
      "999": 3131,
      "609": 3132,
      "Ġins": 3133,
      "ĠOpen": 3134,
      "679": 3135,
      "689": 3136,
      "659": 3137,
      "ĠOnce": 3138,
      "ĠIs": 3139,
      "Ġ87": 3140,
      "Ġtold": 3141,
      "Ġ58": 3142,
      "ĠGood": 3143,
      "ĠService": 3144,
      "ĠTeam": 3145,
      "Ġ97": 3146,
      "ĠPublic": 3147,
      "If": 3148,
      "oh": 3149,
      "ivers": 3150,
      "ĠRock": 3151,
      "ĠYes": 3152,
      "ĠWindow": 3153,
      "ĠLike": 3154,
      "Ġ78": 3155,
      "ĠSon": 3156,
      "ĠLeg": 3157,
      "ĠRoad": 3158,
      "Ġ88": 3159,
      "ĠMiss": 3160,
      "ĠSystem": 3161,
      "ĠResearch": 3162,
      "Ġ107": 3163,
      "655": 3164,
      "675": 3165,
      "ĠProject": 3166,
      "605": 3167,
      "685": 3168,
      "695": 3169,
      "ĠCentral": 3170,
      "ĠSociety": 3171,
      "359": 3172,
      "409": 3173,
      "ĠInstead": 3174,
      "ĠMaybe": 3175,
      "Ġcome": 3176,
      "ĠBoth": 3177,
      "ĠSpace": 3178,
      "Ġ34": 3179,
      "179": 3180,
      "159": 3181,
      "ĠDevelopment": 3182,
      "209": 3183,
      "289": 3184,
      "189": 3185,
      "309": 3186,
      "259": 3187,
      "279": 3188,
      "389": 3189,
      "ĠDirector": 3190,
      "ĠPlan": 3191,
      "ĠGame": 3192,
      "379": 3193,
      "ĠBoy": 3194,
      "Ġ98": 3195,
      "ĠDuring": 3196,
      "ĠForce": 3197,
      "ĠFight": 3198,
      "ĠCollege": 3199,
      "ĠIts": 3200,
      "ĠOnly": 3201,
      "ĠBook": 3202,
      "ĠBlue": 3203,
      "ĠMedical": 3204,
      "ĠToday": 3205,
      "ĠEach": 3206,
      "ĠBest": 3207,
      "ĠThose": 3208,
      "Ġ108": 3209,
      "ĠBit": 3210,
      "607": 3211,
      "So": 3212,
      "Ġmin": 3213,
      "ĠSecurity": 3214,
      "ĠScience": 3215,
      "657": 3216,
      "677": 3217,
      "ĠAttorney": 3218,
      "ric": 3219,
      "te": 3220,
      "ĠFederal": 3221,
      "697": 3222,
      "ĠAnother": 3223,
      "687": 3224,
      "355": 3225,
      "405": 3226,
      "ĠFour": 3227,
      "175": 3228,
      "ĠSocial": 3229,
      "275": 3230,
      "ĠSecond": 3231,
      "155": 3232,
      "255": 3233,
      "ĠReport": 3234,
      "ĠMarket": 3235,
      "375": 3236,
      "ĠShow": 3237,
      "ĠWho": 3238,
      "ĠTen": 3239,
      "ĠGroup": 3240,
      "ĠWay": 3241,
      "195": 3242,
      "205": 3243,
      "608": 3244,
      "ĠTwo": 3245,
      "285": 3246,
      "295": 3247,
      "ĠWater": 3248,
      "688": 3249,
      "678": 3250,
      "658": 3251,
      "385": 3252,
      "305": 3253,
      "185": 3254,
      "ĠHome": 3255,
      "ĠLast": 3256,
      "!!!!!!!!": 3257,
      "395": 3258,
      "ĠPut": 3259,
      "698": 3260,
      "ĠCard": 3261,
      "ĠYear": 3262,
      "ĠTime": 3263,
      "ĠMiddle": 3264,
      "ĠTop": 3265,
      "ĠStep": 3266,
      "ĠCost": 3267,
      "ĠCheck": 3268,
      "ĠFoot": 3269,
      "ĠLife": 3270,
      "ĠSport": 3271,
      "ĠWatch": 3272,
      "ĠChild": 3273,
      "ĠColor": 3274,
      "ĠPay": 3275,
      "ĠFree": 3276,
      "ĠPower": 3277,
      "ĠTake": 3278,
      "177": 3279,
      "ĠMar": 3280,
      "ĠOld": 3281,
      "ĠBoard": 3282,
      "357": 3283,
      "459": 3284,
      "ĠSpecial": 3285,
      "ĠSpring": 3286,
      "489": 3287,
      "479": 3288,
      "ĠCompany": 3289,
      "ĠCivil": 3290,
      "197": 3291,
      "995": 3292,
      "307": 3293,
      "407": 3294,
      "ĠWalk": 3295,
      "257": 3296,
      "ĠEnter": 3297,
      "ĠControl": 3298,
      "ĠFull": 3299,
      "207": 3300,
      "157": 3301,
      "ĠMean": 3302,
      "ĠPage": 3303,
      "ĠFire": 3304,
      "ĠCommon": 3305,
      "ĠDown": 3306,
      "277": 3307,
      "187": 3308,
      "358": 3309,
      "387": 3310,
      "297": 3311,
      "397": 3312,
      "ĠCould": 3313,
      "ĠLand": 3314,
      "377": 3315,
      "287": 3316,
      "ĠYet": 3317,
      "208": 3318,
      "997": 3319,
      "blem": 3320,
      "ĠHistory": 3321,
      "ĠSee": 3322,
      "ĠClass": 3323,
      "408": 3324,
      "ĠBack": 3325,
      "ĠStandard": 3326,
      "ĠHeart": 3327,
      "ĠFollow": 3328,
      "188": 3329,
      "ĠTrump": 3330,
      "ĠNight": 3331,
      "ĠLight": 3332,
      "ĠLine": 3333,
      "288": 3334,
      "ĠPerhaps": 3335,
      "ĠHead": 3336,
      "ĠMake": 3337,
      "ĠSection": 3338,
      "ĠHuman": 3339,
      "298": 3340,
      "ĠLook": 3341,
      "ĠTest": 3342,
      "ĠBr": 3343,
      "158": 3344,
      "ĠStory": 3345,
      "Ġpost": 3346,
      "308": 3347,
      "178": 3348,
      "ĠAbout": 3349,
      "258": 3350,
      "198": 3351,
      "ĠThree": 3352,
      "278": 3353,
      "388": 3354,
      "ĠChair": 3355,
      "ĠLow": 3356,
      "ĠPoint": 3357,
      "398": 3358,
      "ĠCommunity": 3359,
      "ĠNever": 3360,
      "378": 3361,
      "ĠDark": 3362,
      "ĠFood": 3363,
      "ĠRather": 3364,
      "ĠUnder": 3365,
      "455": 3366,
      "495": 3367,
      "475": 3368,
      "ĠOff": 3369,
      "ĠForeign": 3370,
      "485": 3371,
      "ĠThink": 3372,
      "ĠSouthern": 3373,
      "ĠFly": 3374,
      "ĠWeek": 3375,
      "ĠSometimes": 3376,
      "ĠKeep": 3377,
      "ĠFinal": 3378,
      "ĠWhere": 3379,
      "ĠDespite": 3380,
      "ĠNumber": 3381,
      "New": 3382,
      "ĠThus": 3383,
      "ĠAgency": 3384,
      "ĠIndeed": 3385,
      "ĠAdministration": 3386,
      "ĠGirl": 3387,
      "ĠNeed": 3388,
      "ĠNatural": 3389,
      "ĠSea": 3390,
      "998": 3391,
      "ĠNetwork": 3392,
      "ĠContinue": 3393,
      "ĠView": 3394,
      "ĠHit": 3395,
      "ĠDefense": 3396,
      "ĠLive": 3397,
      "ĠYeah": 3398,
      "ĠStill": 3399,
      "ĠTurn": 3400,
      "ĠBreak": 3401,
      "ĠLong": 3402,
      "ĠBall": 3403,
      "ĠEnd": 3404,
      "ĠSure": 3405,
      "ĠThough": 3406,
      "ĠCentury": 3407,
      "Some": 3408,
      "ĠMedia": 3409,
      "ĠMusic": 3410,
      "ized": 3411,
      "ĠProgram": 3412,
      "ĠWould": 3413,
      "ĠDrive": 3414,
      "ĠEvent": 3415,
      "ĠLearn": 3416,
      "ĠKey": 3417,
      "ĠConference": 3418,
      "ts": 3419,
      "ĠTerm": 3420,
      "ĠNext": 3421,
      "ĠEducation": 3422,
      "ĠEnergy": 3423,
      "488": 3424,
      "477": 3425,
      "ĠSupport": 3426,
      "ĠForm": 3427,
      "ĠFront": 3428,
      "ĠYoung": 3429,
      "ĠNote": 3430,
      "ĠOrder": 3431,
      "ists": 3432,
      "ĠHave": 3433,
      "ĠCall": 3434,
      "ĠBad": 3435,
      "ĠLocal": 3436,
      "ĠSeason": 3437,
      "ĠGun": 3438,
      "457": 3439,
      "497": 3440,
      "ĠOthers": 3441,
      "487": 3442,
      "ĠManagement": 3443,
      "You": 3444,
      "ĠSet": 3445,
      "ĠImage": 3446,
      "ĠAction": 3447,
      "ĠSuch": 3448,
      "ĠExecutive": 3449,
      "ĠWhich": 3450,
      "ĠAsk": 3451,
      "ĠNone": 3452,
      "ĠFish": 3453,
      "ĠHotel": 3454,
      "ĠSubject": 3455,
      "ĠProfessor": 3456,
      "ĠMission": 3457,
      "ĠRun": 3458,
      "ĠBeat": 3459,
      "ĠAnything": 3460,
      "ĠInformation": 3461,
      "ĠTax": 3462,
      "ĠRecord": 3463,
      "ĠDream": 3464,
      "ĠFund": 3465,
      "ĠModel": 3466,
      "ĠBase": 3467,
      "ĠAuthority": 3468,
      "458": 3469,
      "498": 3470,
      "ĠLeader": 3471,
      "ĠTechnology": 3472,
      "ĠAround": 3473,
      "ĠSmall": 3474,
      "478": 3475,
      "ĠRoom": 3476,
      "pos": 3477,
      "ĠFind": 3478,
      "Ġcor": 3479,
      "ĠOfficial": 3480,
      "ĠDetail": 3481,
      "ĠTown": 3482,
      "ĠSeries": 3483,
      "ĠCurrent": 3484,
      "ĠStation": 3485,
      "ĠSpeak": 3486,
      "ĠPast": 3487,
      "ĠPull": 3488,
      "ĠStore": 3489,
      "ĠEverything": 3490,
      "ĠCapital": 3491,
      "ĠRepresent": 3492,
      "ĠCampaign": 3493,
      "ĠFuture": 3494,
      "ĠThird": 3495,
      "ĠTry": 3496,
      "Not": 3497,
      "ĠChange": 3498,
      "ĠReally": 3499,
      "ĠDeep": 3500,
      "ĠJob": 3501,
      "ĠMother": 3502,
      "ĠHand": 3503,
      "ĠIndustry": 3504,
      "ĠMind": 3505,
      "ĠEffect": 3506,
      "ĠCustomer": 3507,
      "ĠTalk": 3508,
      "ĠAmong": 3509,
      "ĠPeace": 3510,
      "ĠPolitical": 3511,
      "ĠMagazine": 3512,
      "ĠGas": 3513,
      "ĠWhether": 3514,
      "ĠDog": 3515,
      "ĠVery": 3516,
      "ĠBudget": 3517,
      "ĠEverybody": 3518,
      "ĠTotal": 3519,
      "ĠSummer": 3520,
      "ĠWord": 3521,
      "ĠPolicy": 3522,
      "ĠManager": 3523,
      "ĠCold": 3524,
      "ĠBefore": 3525,
      "ĠRadio": 3526,
      "ĠExample": 3527,
      "ĠShare": 3528,
      "ĠActually": 3529,
      "ĠAge": 3530,
      "ĠGlass": 3531,
      "ĠIdea": 3532,
      "ĠFamily": 3533,
      "ĠLot": 3534,
      "ĠSenior": 3535,
      "ĠStaff": 3536,
      "ĠWithout": 3537,
      "ĠPlayer": 3538,
      "ĠStart": 3539,
      "ĠDrug": 3540,
      "ĠJoin": 3541,
      "ĠStudent": 3542,
      "ĠEnvironmental": 3543,
      "ĠRegion": 3544,
      "ĠCollection": 3545,
      "ĠPass": 3546,
      "ĠRecently": 3547,
      "ĠSong": 3548,
      "ĠPainting": 3549,
      "ĠBeyond": 3550,
      "ĠToward": 3551,
      "ĠAnimal": 3552,
      "ĠDoctor": 3553,
      "ĠSimply": 3554,
      "ĠThousand": 3555,
      "ĠArea": 3556,
      "ĠOfficer": 3557,
      "Ġ134": 3558,
      "ĠMilitary": 3559,
      "ĠExplain": 3560,
      "ĠMuch": 3561,
      "ĠEnjoy": 3562,
      "ĠFather": 3563,
      "ĠClear": 3564,
      "ĠBed": 3565,
      "ĠOrganization": 3566,
      "ĠOffer": 3567,
      "ĠFilm": 3568,
      "ĠChance": 3569,
      "ĠSoon": 3570,
      "ĠElse": 3571,
      "ty": 3572,
      "ĠFall": 3573,
      "ĠPrice": 3574,
      "ĠFinally": 3575,
      "ĠReturn": 3576,
      "ĠData": 3577,
      "ĠTell": 3578,
      "ĠHour": 3579,
      "ĠBlood": 3580,
      "ĠToo": 3581,
      "ĠNation": 3582,
      "ĠFormer": 3583,
      "ĠHard": 3584,
      "ĠLevel": 3585,
      "ĠPolitics": 3586,
      "ĠInteresting": 3587,
      "ĠTree": 3588,
      "ĠMaterial": 3589,
      "ĠEver": 3590,
      "ĠEarly": 3591,
      "ĠBusiness": 3592,
      "ĠStop": 3593,
      "ĠGround": 3594,
      "ĠShake": 3595,
      "ĠFive": 3596,
      "ĠPush": 3597,
      "ĠEat": 3598,
      "ĠBag": 3599,
      "ĠEveryone": 3600,
      "ĠPersonal": 3601,
      "ĠPaper": 3602,
      "ĠRace": 3603,
      "ĠEntire": 3604,
      "ĠModern": 3605,
      "ĠPick": 3606,
      "ĠUse": 3607,
      "ĠForget": 3608,
      "ĠBox": 3609,
      "ĠLawyer": 3610,
      "ĠWhatever": 3611,
      "ĠPretty": 3612,
      "ĠHelp": 3613,
      "ĠThrow": 3614,
      "ĠAttention": 3615,
      "ĠManage": 3616,
      "ĠLay": 3617,
      "ĠInside": 3618,
      "ĠSound": 3619,
      "ĠEconomic": 3620,
      "ĠCrime": 3621,
      "ĠMorning": 3622,
      "ĠRest": 3623,
      "ĠScene": 3624,
      "ĠConsider": 3625,
      "ĠCover": 3626,
      "ĠPlant": 3627,
      "ĠAccept": 3628,
      "ĠGuy": 3629,
      "ĠBaby": 3630,
      "ĠAgainst": 3631,
      "ĠBuilding": 3632,
      "ĠNice": 3633,
      "ĠWonder": 3634,
      "ĠCareer": 3635,
      "ĠTrade": 3636,
      "ĠSeem": 3637,
      "ĠHold": 3638,
      "ĠStay": 3639,
      "ĠComputer": 3640,
      "ĠListen": 3641,
      "ĠDifferent": 3642,
      "ĠRemember": 3643,
      "ĠVisit": 3644,
      "ĠDoor": 3645,
      "ĠMachine": 3646,
      "ĠCitizen": 3647,
      "ĠOperation": 3648,
      "ĠWoman": 3649,
      "ĠDeal": 3650,
      "ĠAttack": 3651,
      "ĠHappy": 3652,
      "ĠTable": 3653,
      "ĠWant": 3654,
      "ĠYard": 3655,
      "ĠAlmost": 3656,
      "ĠAgent": 3657,
      "ĠSource": 3658,
      "ĠEasy": 3659,
      "ĠItself": 3660,
      "ĠShort": 3661,
      "ĠReligious": 3662,
      "ĠMonth": 3663,
      "ĠSay": 3664,
      "ĠSeek": 3665,
      "ĠProcess": 3666,
      "ĠStudy": 3667,
      "ĠHospital": 3668,
      "ĠHair": 3669,
      "ĠSuccessful": 3670,
      "ĠEither": 3671,
      "ĠLater": 3672,
      "ĠClearly": 3673,
      "ĠBillion": 3674,
      "ĠTraining": 3675,
      "ĠBeautiful": 3676,
      "ĠCulture": 3677,
      "ĠWait": 3678,
      "ĠHope": 3679,
      "ĠMillion": 3680,
      "ĠLittle": 3681,
      "ĠDiscover": 3682,
      "ĠElection": 3683,
      "ĠMight": 3684,
      "ĠIncrease": 3685,
      "ĠType": 3686,
      "ĠOption": 3687,
      "ĠFigure": 3688,
      "ĠNothing": 3689,
      "ĠGeneration": 3690,
      "cl": 3691,
      "Ġproblem": 3692,
      "ĠDrop": 3693,
      "ĠQuality": 3694,
      "ĠArticle": 3695,
      "ĠKnowledge": 3696,
      "vers": 3697,
      "ĠOil": 3698,
      "ĠContain": 3699,
      "ĠTruth": 3700,
      "ĠClaim": 3701,
      "ĠDesign": 3702,
      "ĠVoice": 3703,
      "ĠNature": 3704,
      "ĠTend": 3705,
      "ĠPlace": 3706,
      "Ġperc": 3707,
      "ĠEnough": 3708,
      "ĠMovie": 3709,
      "ĠGive": 3710,
      "ĠWrong": 3711,
      "ĠDifficult": 3712,
      "ĠImprove": 3713,
      "ĠSister": 3714,
      "ĠEdge": 3715,
      "ĠTask": 3716,
      "ĠFinish": 3717,
      "ĠHusband": 3718,
      "ĠOften": 3719,
      "ĠCoach": 3720,
      "ĠSituation": 3721,
      "ĠEye": 3722,
      "ĠFast": 3723,
      "ĠKid": 3724,
      "ĠChallenge": 3725,
      "ĠConcern": 3726,
      "ĠClose": 3727,
      "ĠSix": 3728,
      "ĠThing": 3729,
      "ĠStuff": 3730,
      "ĠEffort": 3731,
      "ĠNotice": 3732,
      "ĠSuggest": 3733,
      "ĠRelate": 3734,
      "ĠEstablish": 3735,
      "ĠMoney": 3736,
      "ĠNear": 3737,
      "ĠProduction": 3738,
      "ĠTogether": 3739,
      "ĠSame": 3740,
      "ĠEvidence": 3741,
      "ĠExpect": 3742,
      "ĠTrouble": 3743,
      "ĠQuestion": 3744,
      "ĠInstitution": 3745,
      "ĠRespond": 3746,
      "ĠFew": 3747,
      "ĠTough": 3748,
      "ĠMemory": 3749,
      "ĠEspecially": 3750,
      "ĠUnderstand": 3751,
      "ĠFeeling": 3752,
      "ĠVarious": 3753,
      "ĠFill": 3754,
      "ĠSuffer": 3755,
      "ĠAcross": 3756,
      "ĠUpon": 3757,
      "ĠBegin": 3758,
      "ĠRange": 3759,
      "ĠField": 3760,
      "ĠScore": 3761,
      "ĠTreatment": 3762,
      "ĠSoldier": 3763,
      "ĠCharacter": 3764,
      "ĠGarden": 3765,
      "ĠDaughter": 3766,
      "ĠHundred": 3767,
      "ĠApply": 3768,
      "ĠAbove": 3769,
      "ĠSave": 3770,
      "ĠDescribe": 3771,
      "ĠValue": 3772,
      "ĠEvening": 3773,
      "ĠPopulation": 3774,
      "ĠRule": 3775,
      "ĠSomebody": 3776,
      "ĠDirection": 3777,
      "ĠImpact": 3778,
      "ĠTravel": 3779,
      "ĠAgreement": 3780,
      "ĠAssume": 3781,
      "ĠFinancial": 3782,
      "ĠSomething": 3783,
      "ĠCatch": 3784,
      "ĠPerformance": 3785,
      "ĠMember": 3786,
      "ĠFine": 3787,
      "ĠLanguage": 3788,
      "ĠLeft": 3789,
      "ĠWeight": 3790,
      "ĠSkin": 3791,
      "ĠSpecific": 3792,
      "ĠMethod": 3793,
      "ĠPrevent": 3794,
      "omen": 3795,
      "ĠAlways": 3796,
      "ĠMatter": 3797,
      "ĠEight": 3798,
      "ĠWide": 3799,
      "ĠBring": 3800,
      "ĠForward": 3801,
      "ĠSurface": 3802,
      "ĠTrip": 3803,
      "less": 3804,
      "ĠExperience": 3805,
      "ĠBrother": 3806,
      "ĠTrue": 3807,
      "ĠCommercial": 3808,
      "ĠSingle": 3809,
      "ĠAhead": 3810,
      "ĠMessage": 3811,
      "ĠMinute": 3812,
      "ĠStrategy": 3813,
      "ĠNearly": 3814,
      "ĠStock": 3815,
      "ĠItem": 3816,
      "ĠProfessional": 3817,
      "ĠParticularly": 3818,
      "ĠCamera": 3819,
      "ĠStrong": 3820,
      "ĠExpert": 3821,
      "ĠStructure": 3822,
      "How": 3823,
      "ĠPoor": 3824,
      "ĠImagine": 3825,
      "ĠBecome": 3826,
      "ĠKitchen": 3827,
      "ĠPhysical": 3828,
      "ĠBetter": 3829,
      "ĠInto": 3830,
      "ĠInvestment": 3831,
      "ĠProperty": 3832,
      "ĠCharge": 3833,
      "ĠTrial": 3834,
      "ĠAudience": 3835,
      "ĠCouple": 3836,
      "ĠSignificant": 3837,
      "ĠHeavy": 3838,
      "ĠCarry": 3839,
      "ĠCourse": 3840,
      "ĠIncluding": 3841,
      "ĠBuy": 3842,
      "ĠParticipant": 3843,
      "ĠWorry": 3844,
      "ĠOpportunity": 3845,
      "ĠThreat": 3846,
      "ĠVote": 3847,
      "ĠSerious": 3848,
      "ĠPicture": 3849,
      "ĠFactor": 3850,
      "ĠBehind": 3851,
      "ĠInvolve": 3852,
      "ĠSide": 3853,
      "ĠCut": 3854,
      "ĠChoice": 3855,
      "ĠSpeech": 3856,
      "ĠCertainly": 3857,
      "ĠLess": 3858,
      "ĠLarge": 3859,
      "ĠSell": 3860,
      "ĠParent": 3861,
      "ĠAllow": 3862,
      "ĠFear": 3863,
      "ĠCondition": 3864,
      "ĠFocus": 3865,
      "ĠAdmit": 3866,
      "ĠDiscuss": 3867,
      "ĠTelevision": 3868,
      "ĠLetter": 3869,
      "ĠBetween": 3870,
      "ĠStyle": 3871,
      "ĠWithin": 3872,
      "ĠSimilar": 3873,
      "ĠIssue": 3874,
      "ĠHimself": 3875,
      "ĠPartner": 3876,
      "ĠFirm": 3877,
      "ĠSeveral": 3878,
      "ĠGoal": 3879,
      "ĠPiece": 3880,
      "ĠOutside": 3881,
      "ĠOwn": 3882,
      "ĠReach": 3883,
      "ĠPractice": 3884,
      "ĠOwner": 3885,
      "ĠDecide": 3886,
      "ĠThought": 3887,
      "ĠReality": 3888,
      "ĠTonight": 3889,
      "ĠSend": 3890,
      "ĠHerself": 3891,
      "Ġsub": 3892,
      "ĠUntil": 3893,
      "ĠAgo": 3894,
      "ĠPosition": 3895,
      "And": 3896,
      "ĠMust": 3897,
      "ĠOccur": 3898,
      "ĠResponse": 3899,
      "ĠLikely": 3900,
      "ĠRemain": 3901,
      "ĠCompare": 3902,
      "ĠMention": 3903,
      "ĠProbably": 3904,
      "ĠAppear": 3905,
      "ĠSafe": 3906,
      "ĠLoss": 3907,
      "ĠHalf": 3908,
      "ĠThan": 3909,
      "ĠWear": 3910,
      "ĠStage": 3911,
      "ĠArgue": 3912,
      "ĠQuickly": 3913,
      "ĠLeave": 3914,
      "ĠMovement": 3915,
      "ĠReflect": 3916,
      "ĠIdentify": 3917,
      "ĠHappen": 3918,
      "ĠSomeone": 3919,
      "ĠMyself": 3920,
      "ĠSort": 3921,
      "ĠKind": 3922,
      "ĠAffect": 3923,
      "606": 3924,
      "ĠPresent": 3925,
      "656": 3926,
      "ĠCause": 3927,
      "686": 3928,
      "ĠDifference": 3929,
      "ĠTheory": 3930,
      "ĠResource": 3931,
      "ĠLaugh": 3932,
      "ĠSeat": 3933,
      "ĠAble": 3934,
      "ĠAlready": 3935,
      "ĠAvailable": 3936,
      "Ġ43": 3937,
      "676": 3938,
      "696": 3939,
      "ĠDegree": 3940,
      "ĠThroughout": 3941,
      "line": 3942,
      "ĠRequire": 3943,
      "ĠImportant": 3944,
      "ĠAddress": 3945,
      "ĠWhole": 3946,
      "ĠReady": 3947,
      "ĠPopular": 3948,
      "ĠExist": 3949,
      "ĠSpend": 3950,
      "ĠDiscussion": 3951,
      "ĠWish": 3952,
      "ĠIndividual": 3953,
      "ĠAway": 3954,
      "ĠSite": 3955,
      "ĠChoose": 3956,
      "ĠQuite": 3957,
      "ĠArtist": 3958,
      "ĠMajority": 3959,
      "ĠPattern": 3960,
      "ĠRaise": 3961,
      "ĠSimple": 3962,
      "ĠTeacher": 3963,
      "ĠSuddenly": 3964,
      "ĠWhose": 3965,
      "ĠAlong": 3966,
      "ĠMeasure": 3967,
      "ĠGrowth": 3968,
      "ĠSeven": 3969,
      "ĠAnswer": 3970,
      "ĠDecade": 3971,
      "ĠMouth": 3972,
      "ĠTraditional": 3973,
      "ĠScientist": 3974,
      "ĠCell": 3975,
      "ĠGuess": 3976,
      "ĠMaintain": 3977,
      "ĠAnyone": 3978,
      "ĠMoment": 3979,
      "ĠWorker": 3980,
      "ĠPurpose": 3981,
      "ĠFriend": 3982,
      "ĠHuge": 3983,
      "ĠDecision": 3984,
      "ĠTv": 3985,
      "ĠCandidate": 3986,
      "ĠPressure": 3987,
      "ĠPhone": 3988,
      "ĠAmount": 3989,
      "ĠDetermine": 3990,
      "ĠReveal": 3991,
      "ĠYourself": 3992,
      "ĠBody": 3993,
      "ĠLeast": 3994,
      "ĠLose": 3995,
      "ĠProvide": 3996,
      "ĠDebate": 3997,
      "ĠAccount": 3998,
      "ĠSense": 3999
    },
    "merges": [
      [
        "i",
        "n"
      ],
      [
        "e",
        "s"
      ],
      [
        "a",
        "t"
      ],
      [
        "o",
        "n"
      ],
      [
        "Ġ",
        "a"
      ],
      [
        "r",
        "e"
      ],
      [
        "e",
        "n"
      ],
      [
        "a",
        "l"
      ],
      [
        "Ġ",
        "s"
      ],
      [
        "Ġ",
        "t"
      ],
      [
        "e",
        "r"
      ],
      [
        "i",
        "c"
      ],
      [
        "Ġ",
        "in"
      ],
      [
        "Ġ",
        "p"
      ],
      [
        "i",
        "t"
      ],
      [
        "i",
        "on"
      ],
      [
        "en",
        "t"
      ],
      [
        "e",
        "d"
      ],
      [
        "a",
        "r"
      ],
      [
        "a",
        "n"
      ],
      [
        "r",
        "o"
      ],
      [
        "o",
        "r"
      ],
      [
        "Ġ",
        "m"
      ],
      [
        "Ġ",
        "b"
      ],
      [
        "Ġ",
        "c"
      ],
      [
        "Ġ",
        "f"
      ],
      [
        "h",
        "e"
      ],
      [
        "i",
        "s"
      ],
      [
        "in",
        "g"
      ],
      [
        "Ġ",
        "re"
      ],
      [
        "u",
        "l"
      ],
      [
        "i",
        "m"
      ],
      [
        "Ġ",
        "d"
      ],
      [
        "i",
        "d"
      ],
      [
        "o",
        "l"
      ],
      [
        "n",
        "d"
      ],
      [
        "e",
        "m"
      ],
      [
        "at",
        "ion"
      ],
      [
        "Ġa",
        "nd"
      ],
      [
        "p",
        "er"
      ],
      [
        "ic",
        "al"
      ],
      [
        "Ġb",
        "y"
      ],
      [
        "al",
        "t"
      ],
      [
        "at",
        "i"
      ],
      [
        "Ġ",
        "h"
      ],
      [
        "Ġ",
        "o"
      ],
      [
        "c",
        "t"
      ],
      [
        "Ġ",
        "e"
      ],
      [
        "Ġ",
        "n"
      ],
      [
        "e",
        "l"
      ],
      [
        "u",
        "r"
      ],
      [
        "o",
        "m"
      ],
      [
        "l",
        "y"
      ],
      [
        "c",
        "h"
      ],
      [
        "f",
        "f"
      ],
      [
        "a",
        "g"
      ],
      [
        "r",
        "i"
      ],
      [
        "o",
        "v"
      ],
      [
        "Ġ",
        "w"
      ],
      [
        "a",
        "re"
      ],
      [
        "a",
        "k"
      ],
      [
        "im",
        "p"
      ],
      [
        "Ġd",
        "i"
      ],
      [
        "Ġm",
        "an"
      ],
      [
        "ro",
        "v"
      ],
      [
        "Ġ",
        "imp"
      ],
      [
        "c",
        "ri"
      ],
      [
        "alt",
        "h"
      ],
      [
        "es",
        "cri"
      ],
      [
        "ent",
        "s"
      ],
      [
        "Ġp",
        "ati"
      ],
      [
        "Ġ",
        "l"
      ],
      [
        "a",
        "s"
      ],
      [
        "Ġs",
        "t"
      ],
      [
        "Ġ",
        "1"
      ],
      [
        "i",
        "g"
      ],
      [
        "o",
        "w"
      ],
      [
        "o",
        "s"
      ],
      [
        "Ġt",
        "o"
      ],
      [
        "Ġ",
        "A"
      ],
      [
        "Ġ",
        "T"
      ],
      [
        "a",
        "in"
      ],
      [
        "Ġ",
        "M"
      ],
      [
        "e",
        "ar"
      ],
      [
        "e",
        "ct"
      ],
      [
        "a",
        "c"
      ],
      [
        "Ġ",
        "he"
      ],
      [
        "Ġc",
        "on"
      ],
      [
        "Ġf",
        "or"
      ],
      [
        "Ġe",
        "x"
      ],
      [
        "er",
        "s"
      ],
      [
        "m",
        "ent"
      ],
      [
        "Ġc",
        "om"
      ],
      [
        "u",
        "m"
      ],
      [
        "en",
        "c"
      ],
      [
        "u",
        "c"
      ],
      [
        "re",
        "at"
      ],
      [
        "r",
        "on"
      ],
      [
        "0",
        "0"
      ],
      [
        "Ġ",
        "N"
      ],
      [
        "Ġa",
        "s"
      ],
      [
        "Ġ",
        "5"
      ],
      [
        "ak",
        "e"
      ],
      [
        "Ġin",
        "d"
      ],
      [
        "s",
        "ion"
      ],
      [
        "i",
        "enc"
      ],
      [
        "ul",
        "ar"
      ],
      [
        "v",
        "es"
      ],
      [
        "Ġman",
        "ag"
      ],
      [
        "b",
        "e"
      ],
      [
        "ff",
        "ect"
      ],
      [
        "d",
        "uc"
      ],
      [
        "i",
        "es"
      ],
      [
        "Ġt",
        "reat"
      ],
      [
        "H",
        "e"
      ],
      [
        "R",
        "es"
      ],
      [
        "in",
        "es"
      ],
      [
        "Ġre",
        "g"
      ],
      [
        "Ġs",
        "ur"
      ],
      [
        "Ġimp",
        "rov"
      ],
      [
        "Ġre",
        "duc"
      ],
      [
        "Ġtreat",
        "ment"
      ],
      [
        "at",
        "es"
      ],
      [
        "He",
        "alth"
      ],
      [
        "u",
        "ro"
      ],
      [
        "it",
        "or"
      ],
      [
        "b",
        "ed"
      ],
      [
        "Ġh",
        "y"
      ],
      [
        "ffect",
        "s"
      ],
      [
        "escri",
        "bed"
      ],
      [
        "Ġreg",
        "ular"
      ],
      [
        "Ġpati",
        "ents"
      ],
      [
        "c",
        "are"
      ],
      [
        "Ġsur",
        "g"
      ],
      [
        "e",
        "uro"
      ],
      [
        "Ġmanag",
        "ing"
      ],
      [
        "r",
        "escribed"
      ],
      [
        "i",
        "l"
      ],
      [
        "u",
        "s"
      ],
      [
        "u",
        "t"
      ],
      [
        "Ġt",
        "he"
      ],
      [
        "Ġt",
        "h"
      ],
      [
        "Ġ",
        "g"
      ],
      [
        "Ġ",
        "S"
      ],
      [
        "a",
        "d"
      ],
      [
        "o",
        "t"
      ],
      [
        "Ġ",
        "C"
      ],
      [
        "u",
        "g"
      ],
      [
        "a",
        "m"
      ],
      [
        "Ġ",
        "P"
      ],
      [
        "u",
        "n"
      ],
      [
        "it",
        "y"
      ],
      [
        "i",
        "v"
      ],
      [
        "at",
        "e"
      ],
      [
        "Ġo",
        "f"
      ],
      [
        "b",
        "l"
      ],
      [
        "is",
        "t"
      ],
      [
        "an",
        "d"
      ],
      [
        "Ġc",
        "h"
      ],
      [
        "ar",
        "d"
      ],
      [
        "c",
        "i"
      ],
      [
        "o",
        "p"
      ],
      [
        "u",
        "d"
      ],
      [
        "Ġ",
        "on"
      ],
      [
        "e",
        "a"
      ],
      [
        "Ġ",
        "E"
      ],
      [
        "al",
        "l"
      ],
      [
        "s",
        "t"
      ],
      [
        "ag",
        "e"
      ],
      [
        "u",
        "e"
      ],
      [
        "id",
        "e"
      ],
      [
        "it",
        "h"
      ],
      [
        "Ġt",
        "r"
      ],
      [
        "Ġs",
        "h"
      ],
      [
        "i",
        "e"
      ],
      [
        "ig",
        "n"
      ],
      [
        "ul",
        "t"
      ],
      [
        "Ġ",
        "O"
      ],
      [
        "a",
        "ch"
      ],
      [
        "a",
        "p"
      ],
      [
        "3",
        "5"
      ],
      [
        "Ġin",
        "t"
      ],
      [
        "4",
        "0"
      ],
      [
        "Ġa",
        "d"
      ],
      [
        "Ġw",
        "ith"
      ],
      [
        "u",
        "al"
      ],
      [
        "6",
        "5"
      ],
      [
        "ol",
        "d"
      ],
      [
        "ff",
        "ic"
      ],
      [
        "em",
        "ent"
      ],
      [
        "Ġ",
        "G"
      ],
      [
        "o",
        "g"
      ],
      [
        "am",
        "e"
      ],
      [
        "Ġ",
        "ro"
      ],
      [
        "ol",
        "l"
      ],
      [
        "it",
        "ion"
      ],
      [
        "as",
        "e"
      ],
      [
        "u",
        "bl"
      ],
      [
        "ĠT",
        "h"
      ],
      [
        "il",
        "d"
      ],
      [
        "Ġcom",
        "p"
      ],
      [
        "Ġcon",
        "t"
      ],
      [
        "Ġcom",
        "m"
      ],
      [
        "Ġs",
        "c"
      ],
      [
        "p",
        "t"
      ],
      [
        "ar",
        "y"
      ],
      [
        "Ġa",
        "re"
      ],
      [
        "a",
        "us"
      ],
      [
        "Ġo",
        "ut"
      ],
      [
        "at",
        "h"
      ],
      [
        "ĠT",
        "he"
      ],
      [
        "a",
        "i"
      ],
      [
        "is",
        "e"
      ],
      [
        "ubl",
        "ic"
      ],
      [
        "o",
        "ci"
      ],
      [
        "re",
        "ct"
      ],
      [
        "Ġl",
        "o"
      ],
      [
        "it",
        "al"
      ],
      [
        "un",
        "ity"
      ],
      [
        "v",
        "is"
      ],
      [
        "per",
        "t"
      ],
      [
        "Ġw",
        "a"
      ],
      [
        "Ġm",
        "on"
      ],
      [
        "Ġre",
        "m"
      ],
      [
        "Ġp",
        "rov"
      ],
      [
        "Ġs",
        "m"
      ],
      [
        "Ġst",
        "ud"
      ],
      [
        "Ġp",
        "ers"
      ],
      [
        "Ġ1",
        "5"
      ],
      [
        "Ġdi",
        "rect"
      ],
      [
        "Ġst",
        "and"
      ],
      [
        "Ġp",
        "op"
      ],
      [
        "ation",
        "s"
      ],
      [
        "y",
        "ear"
      ],
      [
        "Ġt",
        "im"
      ],
      [
        "h",
        "i"
      ],
      [
        "Ġ",
        "V"
      ],
      [
        "F",
        "or"
      ],
      [
        "y",
        "st"
      ],
      [
        "yst",
        "em"
      ],
      [
        "v",
        "ol"
      ],
      [
        "ol",
        "og"
      ],
      [
        "ro",
        "l"
      ],
      [
        "pt",
        "ion"
      ],
      [
        "f",
        "l"
      ],
      [
        "oll",
        "ow"
      ],
      [
        "ĠA",
        "n"
      ],
      [
        "ves",
        "t"
      ],
      [
        "ear",
        "ch"
      ],
      [
        "el",
        "ie"
      ],
      [
        "ines",
        "s"
      ],
      [
        "d",
        "ition"
      ],
      [
        "he",
        "t"
      ],
      [
        "is",
        "sion"
      ],
      [
        "per",
        "ienc"
      ],
      [
        "r",
        "ug"
      ],
      [
        "re",
        "ak"
      ],
      [
        "olog",
        "y"
      ],
      [
        "er",
        "ies"
      ],
      [
        "Ġsh",
        "ow"
      ],
      [
        "ron",
        "t"
      ],
      [
        "um",
        "m"
      ],
      [
        "as",
        "k"
      ],
      [
        "iv",
        "id"
      ],
      [
        "os",
        "p"
      ],
      [
        "ivid",
        "ual"
      ],
      [
        "ul",
        "ation"
      ],
      [
        "Ġas",
        "s"
      ],
      [
        "Ġb",
        "r"
      ],
      [
        "ed",
        "ical"
      ],
      [
        "Ġ",
        "Res"
      ],
      [
        "Ġt",
        "ake"
      ],
      [
        "ic",
        "ate"
      ],
      [
        "g",
        "ue"
      ],
      [
        "osp",
        "ital"
      ],
      [
        "Ġs",
        "ystem"
      ],
      [
        "Ġs",
        "ch"
      ],
      [
        "Ġf",
        "ollow"
      ],
      [
        "Ġhe",
        "ad"
      ],
      [
        "Ġin",
        "vest"
      ],
      [
        "Ġex",
        "perienc"
      ],
      [
        "Ġsm",
        "all"
      ],
      [
        "Ġcont",
        "rol"
      ],
      [
        "Ġhe",
        "alth"
      ],
      [
        "Ġin",
        "vol"
      ],
      [
        "Ġo",
        "per"
      ],
      [
        "Ġb",
        "en"
      ],
      [
        "Ġstud",
        "y"
      ],
      [
        "Ġind",
        "ividual"
      ],
      [
        "Ġcomm",
        "unity"
      ],
      [
        "Ġp",
        "ain"
      ],
      [
        "Ġro",
        "om"
      ],
      [
        "Ġf",
        "ront"
      ],
      [
        "Ġstand",
        "ard"
      ],
      [
        "Ġwa",
        "it"
      ],
      [
        "Ġcon",
        "dition"
      ],
      [
        "Ġh",
        "ospital"
      ],
      [
        "Ġpop",
        "ulation"
      ],
      [
        "Ġcomp",
        "are"
      ],
      [
        "Ġreduc",
        "e"
      ],
      [
        "Ġind",
        "icate"
      ],
      [
        "an",
        "s"
      ],
      [
        "at",
        "ed"
      ],
      [
        "h",
        "ar"
      ],
      [
        "Ġ1",
        "00"
      ],
      [
        "ĠTh",
        "is"
      ],
      [
        "Ġ",
        "35"
      ],
      [
        "Ġ5",
        "0"
      ],
      [
        "Ġ",
        "65"
      ],
      [
        "Ġ",
        "40"
      ],
      [
        "A",
        "n"
      ],
      [
        "l",
        "in"
      ],
      [
        "ĠG",
        "u"
      ],
      [
        "at",
        "ing"
      ],
      [
        "er",
        "c"
      ],
      [
        "Ġtr",
        "ans"
      ],
      [
        "D",
        "rug"
      ],
      [
        "D",
        "escri"
      ],
      [
        "Ġ",
        "Health"
      ],
      [
        "ĠS",
        "umm"
      ],
      [
        "ĠO",
        "per"
      ],
      [
        "ĠN",
        "ame"
      ],
      [
        "ĠRes",
        "ult"
      ],
      [
        "ĠC",
        "ase"
      ],
      [
        "t",
        "es"
      ],
      [
        "Ġprov",
        "id"
      ],
      [
        "Ġtim",
        "es"
      ],
      [
        "em",
        "ents"
      ],
      [
        "im",
        "it"
      ],
      [
        "in",
        "ation"
      ],
      [
        "Ġinvest",
        "ig"
      ],
      [
        "Ġl",
        "imit"
      ],
      [
        "z",
        "z"
      ],
      [
        "Ġimp",
        "l"
      ],
      [
        "p",
        "ot"
      ],
      [
        "Ġin",
        "fl"
      ],
      [
        "b",
        "an"
      ],
      [
        "m",
        "ission"
      ],
      [
        "Ġshow",
        "s"
      ],
      [
        "en",
        "sion"
      ],
      [
        "Ġrem",
        "ov"
      ],
      [
        "Ġ5",
        "00"
      ],
      [
        "z",
        "a"
      ],
      [
        "R",
        "I"
      ],
      [
        "Ġ",
        "ur"
      ],
      [
        "Ġin",
        "n"
      ],
      [
        "Ġinfl",
        "u"
      ],
      [
        "P",
        "ublic"
      ],
      [
        "Res",
        "earch"
      ],
      [
        "S",
        "ide"
      ],
      [
        "Ġass",
        "oci"
      ],
      [
        "ai",
        "ly"
      ],
      [
        "c",
        "em"
      ],
      [
        "ov",
        "el"
      ],
      [
        "id",
        "el"
      ],
      [
        "M",
        "edical"
      ],
      [
        "hi",
        "b"
      ],
      [
        "ed",
        "ul"
      ],
      [
        "ac",
        "c"
      ],
      [
        "ron",
        "ic"
      ],
      [
        "itor",
        "s"
      ],
      [
        "Ġbr",
        "ain"
      ],
      [
        "Ġsch",
        "edul"
      ],
      [
        "Ġcondition",
        "s"
      ],
      [
        "ist",
        "ent"
      ],
      [
        "C",
        "E"
      ],
      [
        "Ġfollow",
        "ed"
      ],
      [
        "Ġth",
        "er"
      ],
      [
        "Ġcompare",
        "d"
      ],
      [
        "elie",
        "f"
      ],
      [
        "ach",
        "es"
      ],
      [
        "Ġn",
        "ovel"
      ],
      [
        "Ġad",
        "vis"
      ],
      [
        "Ġd",
        "aily"
      ],
      [
        "Ġe",
        "ffic"
      ],
      [
        "m",
        "ac"
      ],
      [
        "Ġex",
        "erc"
      ],
      [
        "Ġassoci",
        "ated"
      ],
      [
        "Ġther",
        "ap"
      ],
      [
        "Ġoper",
        "ating"
      ],
      [
        "Ġexperienc",
        "es"
      ],
      [
        "d",
        "ates"
      ],
      [
        "Ġpati",
        "ent"
      ],
      [
        "Ġinn",
        "ov"
      ],
      [
        "Ġmon",
        "itor"
      ],
      [
        "um",
        "or"
      ],
      [
        "a",
        "be"
      ],
      [
        "Ġexerc",
        "ise"
      ],
      [
        "b",
        "reak"
      ],
      [
        "p",
        "ath"
      ],
      [
        "%",
        "."
      ],
      [
        "ienc",
        "y"
      ],
      [
        "har",
        "mac"
      ],
      [
        "Ġur",
        "ban"
      ],
      [
        "idel",
        "ines"
      ],
      [
        "Ġs",
        "alt"
      ],
      [
        "Ġregular",
        "ly"
      ],
      [
        "Ġsc",
        "an"
      ],
      [
        "lin",
        "ical"
      ],
      [
        "Ġinvol",
        "ves"
      ],
      [
        "Ġdirect",
        "ed"
      ],
      [
        "Ġprovid",
        "ers"
      ],
      [
        "Ġm",
        "ask"
      ],
      [
        "Ġimprov",
        "ement"
      ],
      [
        "Ġmonitor",
        "ing"
      ],
      [
        "Ġhy",
        "pot"
      ],
      [
        "Ġeffic",
        "iency"
      ],
      [
        "Ġch",
        "ronic"
      ],
      [
        "Ġinnov",
        "ation"
      ],
      [
        "Ġn",
        "euro"
      ],
      [
        "Ġremov",
        "al"
      ],
      [
        "Ġdi",
        "abe"
      ],
      [
        "Ġhealth",
        "care"
      ],
      [
        "Ġa",
        "ffects"
      ],
      [
        "Ġdiabe",
        "tes"
      ],
      [
        "Ġout",
        "break"
      ],
      [
        "Ġin",
        "hib"
      ],
      [
        "Ġadvis",
        "ed"
      ],
      [
        "ati",
        "gue"
      ],
      [
        "het",
        "ical"
      ],
      [
        "Ġtrans",
        "mission"
      ],
      [
        "en",
        "za"
      ],
      [
        "Ġpers",
        "istent"
      ],
      [
        "Ġreduc",
        "es"
      ],
      [
        "Ġf",
        "atigue"
      ],
      [
        "Ġm",
        "g"
      ],
      [
        "ĠOper",
        "ations"
      ],
      [
        "Ġp",
        "rescribed"
      ],
      [
        "ĠN",
        "euro"
      ],
      [
        "Ġint",
        "ake"
      ],
      [
        "Ġinflu",
        "enza"
      ],
      [
        "Ġt",
        "umor"
      ],
      [
        "Ġsurg",
        "eries"
      ],
      [
        "Ġhypot",
        "hetical"
      ],
      [
        "Ġimprov",
        "es"
      ],
      [
        "Ġsurg",
        "ical"
      ],
      [
        "Descri",
        "ption"
      ],
      [
        "Ġn",
        "aus"
      ],
      [
        "Ġg",
        "ly"
      ],
      [
        "Ġhead",
        "aches"
      ],
      [
        "D",
        "os"
      ],
      [
        "Ġdi",
        "zz"
      ],
      [
        "Ġman",
        "dates"
      ],
      [
        "Ġben",
        "ign"
      ],
      [
        "Ġfront",
        "al"
      ],
      [
        "Ġschedul",
        "ing"
      ],
      [
        "Ġhy",
        "pert"
      ],
      [
        "path",
        "ic"
      ],
      [
        "acc",
        "ination"
      ],
      [
        "Ġtherap",
        "ies"
      ],
      [
        "ĠResult",
        "s"
      ],
      [
        "Ġimpl",
        "ements"
      ],
      [
        "ĠM",
        "RI"
      ],
      [
        "ĠE",
        "ffects"
      ],
      [
        "R",
        "elief"
      ],
      [
        "ĠGu",
        "idelines"
      ],
      [
        "Ġinhib",
        "itors"
      ],
      [
        "Ġnaus",
        "ea"
      ],
      [
        "Ġinvestig",
        "ates"
      ],
      [
        "ĠSumm",
        "ary"
      ],
      [
        "Ġdizz",
        "iness"
      ],
      [
        "P",
        "harmac"
      ],
      [
        "Ġhypert",
        "ension"
      ],
      [
        "ĠA",
        "CE"
      ],
      [
        "Ġlo",
        "be"
      ],
      [
        "C",
        "linical"
      ],
      [
        "ĠM",
        "ild"
      ],
      [
        "Ġneuro",
        "pathic"
      ],
      [
        "cem",
        "ic"
      ],
      [
        "ĠV",
        "accination"
      ],
      [
        "Ġgly",
        "cemic"
      ],
      [
        "Dos",
        "age"
      ],
      [
        "Health",
        "care"
      ],
      [
        "ĠP",
        "rescribed"
      ],
      [
        "ĠNeuro",
        "Relief"
      ],
      [
        "Pharmac",
        "ology"
      ],
      [
        "e",
        "t"
      ],
      [
        "Ġ",
        "r"
      ],
      [
        "a",
        "y"
      ],
      [
        "c",
        "e"
      ],
      [
        "v",
        "er"
      ],
      [
        "es",
        "s"
      ],
      [
        "l",
        "e"
      ],
      [
        "Ġw",
        "h"
      ],
      [
        "v",
        "e"
      ],
      [
        "h",
        "t"
      ],
      [
        "es",
        "t"
      ],
      [
        "e",
        "c"
      ],
      [
        "t",
        "h"
      ],
      [
        "o",
        "d"
      ],
      [
        "Ġp",
        "ro"
      ],
      [
        "u",
        "re"
      ],
      [
        "g",
        "e"
      ],
      [
        "o",
        "ur"
      ],
      [
        "Ġa",
        "l"
      ],
      [
        "Ġ",
        "I"
      ],
      [
        "Ġ",
        "y"
      ],
      [
        "or",
        "t"
      ],
      [
        "ar",
        "t"
      ],
      [
        "Ġb",
        "e"
      ],
      [
        "il",
        "l"
      ],
      [
        "Ġ",
        "B"
      ],
      [
        "ic",
        "e"
      ],
      [
        "Ġ",
        "W"
      ],
      [
        "Ġ",
        "R"
      ],
      [
        "i",
        "r"
      ],
      [
        "1",
        "1"
      ],
      [
        "e",
        "e"
      ],
      [
        "u",
        "nd"
      ],
      [
        "ig",
        "ht"
      ],
      [
        "Ġa",
        "n"
      ],
      [
        "er",
        "n"
      ],
      [
        "Ġ",
        "D"
      ],
      [
        "ug",
        "h"
      ],
      [
        "1",
        "2"
      ],
      [
        "â",
        "Ģ"
      ],
      [
        "Ġs",
        "p"
      ],
      [
        "Ġ",
        "F"
      ],
      [
        "u",
        "p"
      ],
      [
        "i",
        "f"
      ],
      [
        "o",
        "ut"
      ],
      [
        "Ġ",
        "k"
      ],
      [
        "iv",
        "e"
      ],
      [
        "1",
        "4"
      ],
      [
        "a",
        "ct"
      ],
      [
        "1",
        "0"
      ],
      [
        "1",
        "3"
      ],
      [
        "on",
        "e"
      ],
      [
        "in",
        "d"
      ],
      [
        "o",
        "re"
      ],
      [
        "os",
        "e"
      ],
      [
        "ac",
        "e"
      ],
      [
        "in",
        "e"
      ],
      [
        "Ġa",
        "g"
      ],
      [
        "Ġ",
        "L"
      ],
      [
        "an",
        "t"
      ],
      [
        "Ġn",
        "e"
      ],
      [
        "Ġ",
        "it"
      ],
      [
        "om",
        "e"
      ],
      [
        "as",
        "t"
      ],
      [
        "Ġd",
        "e"
      ],
      [
        "en",
        "d"
      ],
      [
        "o",
        "us"
      ],
      [
        "t",
        "er"
      ],
      [
        "s",
        "e"
      ],
      [
        "1",
        "5"
      ],
      [
        "Ġ",
        "H"
      ],
      [
        "Ġl",
        "e"
      ],
      [
        "on",
        "g"
      ],
      [
        "Ġr",
        "es"
      ],
      [
        "i",
        "z"
      ],
      [
        "it",
        "e"
      ],
      [
        "ver",
        "y"
      ],
      [
        "o",
        "ul"
      ],
      [
        "re",
        "e"
      ],
      [
        "oul",
        "d"
      ],
      [
        "Ġa",
        "r"
      ],
      [
        "Ġp",
        "art"
      ],
      [
        "Ġ",
        "v"
      ],
      [
        "s",
        "el"
      ],
      [
        "us",
        "t"
      ],
      [
        "Ġp",
        "l"
      ],
      [
        "o",
        "c"
      ],
      [
        "Ġw",
        "or"
      ],
      [
        "Ġ",
        "at"
      ],
      [
        "bl",
        "e"
      ],
      [
        "Ġm",
        "e"
      ],
      [
        "el",
        "l"
      ],
      [
        "2",
        "0"
      ],
      [
        "p",
        "p"
      ],
      [
        "Ġs",
        "e"
      ],
      [
        "Ġc",
        "l"
      ],
      [
        "Ġp",
        "r"
      ],
      [
        "o",
        "un"
      ],
      [
        "Ġn",
        "ot"
      ],
      [
        "r",
        "y"
      ],
      [
        "re",
        "n"
      ],
      [
        "Ġ",
        "en"
      ],
      [
        "2",
        "5"
      ],
      [
        "9",
        "9"
      ],
      [
        "h",
        "er"
      ],
      [
        "2",
        "8"
      ],
      [
        "2",
        "7"
      ],
      [
        "3",
        "8"
      ],
      [
        "3",
        "7"
      ],
      [
        "is",
        "h"
      ],
      [
        "Ġth",
        "at"
      ],
      [
        "4",
        "5"
      ],
      [
        "6",
        "8"
      ],
      [
        "6",
        "7"
      ],
      [
        "4",
        "8"
      ],
      [
        "4",
        "7"
      ],
      [
        "on",
        "d"
      ],
      [
        "Ġ",
        "is"
      ],
      [
        "v",
        "el"
      ],
      [
        "q",
        "u"
      ],
      [
        "or",
        "y"
      ],
      [
        "3",
        "0"
      ],
      [
        "1",
        "7"
      ],
      [
        "1",
        "8"
      ],
      [
        "2",
        "9"
      ],
      [
        "6",
        "0"
      ],
      [
        "ci",
        "al"
      ],
      [
        "3",
        "9"
      ],
      [
        "sel",
        "f"
      ],
      [
        "6",
        "9"
      ],
      [
        "4",
        "9"
      ],
      [
        "ac",
        "k"
      ],
      [
        "os",
        "t"
      ],
      [
        "ĠS",
        "t"
      ],
      [
        "1",
        "9"
      ],
      [
        "Ġ",
        "or"
      ],
      [
        "Ġa",
        "c"
      ],
      [
        "Ġe",
        "v"
      ],
      [
        "Ġa",
        "ct"
      ],
      [
        "Ġre",
        "c"
      ],
      [
        "Ġp",
        "er"
      ],
      [
        "Ġ",
        "7"
      ],
      [
        "b",
        "er"
      ],
      [
        "Ġ",
        "8"
      ],
      [
        "Ġre",
        "al"
      ],
      [
        "Ġp",
        "ol"
      ],
      [
        "a",
        "ve"
      ],
      [
        "Ġb",
        "o"
      ],
      [
        "Ġg",
        "ro"
      ],
      [
        "o",
        "od"
      ],
      [
        "Ġe",
        "very"
      ],
      [
        "as",
        "s"
      ],
      [
        "a",
        "w"
      ],
      [
        "o",
        "ugh"
      ],
      [
        "Ġ",
        "j"
      ],
      [
        "Ġw",
        "e"
      ],
      [
        "f",
        "or"
      ],
      [
        "Ġd",
        "o"
      ],
      [
        "oun",
        "t"
      ],
      [
        "Ġa",
        "b"
      ],
      [
        "Ġf",
        "in"
      ],
      [
        "Ġ",
        "us"
      ],
      [
        "e",
        "y"
      ],
      [
        "i",
        "re"
      ],
      [
        "t",
        "ain"
      ],
      [
        "u",
        "ct"
      ],
      [
        "n",
        "er"
      ],
      [
        "for",
        "m"
      ],
      [
        "i",
        "ous"
      ],
      [
        "âĢ",
        "Ļ"
      ],
      [
        "c",
        "ess"
      ],
      [
        "Ġ1",
        "0"
      ],
      [
        "at",
        "er"
      ],
      [
        "e",
        "ren"
      ],
      [
        "Ġ",
        "9"
      ],
      [
        "is",
        "c"
      ],
      [
        "ect",
        "ion"
      ],
      [
        "Ġs",
        "o"
      ],
      [
        "or",
        "n"
      ],
      [
        "ĠR",
        "e"
      ],
      [
        "o",
        "u"
      ],
      [
        "ut",
        "h"
      ],
      [
        "v",
        "i"
      ],
      [
        "od",
        "y"
      ],
      [
        "iz",
        "e"
      ],
      [
        "out",
        "h"
      ],
      [
        "Ġs",
        "u"
      ],
      [
        "Ġs",
        "ome"
      ],
      [
        "g",
        "et"
      ],
      [
        "Ġin",
        "c"
      ],
      [
        "Ġan",
        "y"
      ],
      [
        "Ġne",
        "w"
      ],
      [
        "Ġa",
        "pp"
      ],
      [
        "p",
        "ort"
      ],
      [
        "Ġf",
        "e"
      ],
      [
        "o",
        "k"
      ],
      [
        "i",
        "k"
      ],
      [
        "p",
        "e"
      ],
      [
        "Ġp",
        "re"
      ],
      [
        "ic",
        "h"
      ],
      [
        "Ġ",
        "qu"
      ],
      [
        "2",
        "4"
      ],
      [
        "2",
        "3"
      ],
      [
        "Ġb",
        "l"
      ],
      [
        "Ġat",
        "t"
      ],
      [
        "2",
        "6"
      ],
      [
        "Ġd",
        "ec"
      ],
      [
        "Ġint",
        "er"
      ],
      [
        "Ġth",
        "ro"
      ],
      [
        "Ġs",
        "er"
      ],
      [
        "Ġp",
        "os"
      ],
      [
        "Ġb",
        "u"
      ],
      [
        "1",
        "6"
      ],
      [
        "Ġre",
        "l"
      ],
      [
        "Ġm",
        "ov"
      ],
      [
        "Ġo",
        "ffic"
      ],
      [
        "Ġsp",
        "e"
      ],
      [
        "or",
        "d"
      ],
      [
        "a",
        "b"
      ],
      [
        "ĠI",
        "n"
      ],
      [
        "Ġres",
        "p"
      ],
      [
        "p",
        "l"
      ],
      [
        "Ġd",
        "isc"
      ],
      [
        "th",
        "er"
      ],
      [
        "Ġy",
        "ou"
      ],
      [
        "Ġar",
        "t"
      ],
      [
        "Ġc",
        "ent"
      ],
      [
        "Ġal",
        "l"
      ],
      [
        "Ġpart",
        "ic"
      ],
      [
        "3",
        "3"
      ],
      [
        "i",
        "al"
      ],
      [
        "a",
        "ble"
      ],
      [
        "r",
        "ess"
      ],
      [
        "ow",
        "n"
      ],
      [
        "a",
        "il"
      ],
      [
        "m",
        "er"
      ],
      [
        "4",
        "4"
      ],
      [
        "an",
        "ce"
      ],
      [
        "il",
        "e"
      ],
      [
        "ic",
        "k"
      ],
      [
        "o",
        "y"
      ],
      [
        "Ġ",
        "up"
      ],
      [
        "n",
        "ow"
      ],
      [
        "o",
        "in"
      ],
      [
        "ar",
        "k"
      ],
      [
        "aus",
        "e"
      ],
      [
        "ro",
        "m"
      ],
      [
        "h",
        "ing"
      ],
      [
        "ad",
        "e"
      ],
      [
        "7",
        "5"
      ],
      [
        "8",
        "5"
      ],
      [
        "am",
        "p"
      ],
      [
        "Ġ",
        "un"
      ],
      [
        "Ġy",
        "our"
      ],
      [
        "3",
        "6"
      ],
      [
        "p",
        "en"
      ],
      [
        "s",
        "i"
      ],
      [
        "w",
        "ay"
      ],
      [
        "ur",
        "n"
      ],
      [
        "4",
        "6"
      ],
      [
        "an",
        "k"
      ],
      [
        "Ġl",
        "ik"
      ],
      [
        "as",
        "on"
      ],
      [
        "o",
        "or"
      ],
      [
        "Ġh",
        "ave"
      ],
      [
        "ee",
        "k"
      ],
      [
        "ug",
        "ht"
      ],
      [
        "l",
        "ud"
      ],
      [
        "ation",
        "al"
      ],
      [
        "ea",
        "ch"
      ],
      [
        "j",
        "ect"
      ],
      [
        "et",
        "w"
      ],
      [
        "ot",
        "her"
      ],
      [
        "er",
        "m"
      ],
      [
        "y",
        "s"
      ],
      [
        "om",
        "et"
      ],
      [
        "al",
        "k"
      ],
      [
        "at",
        "ch"
      ],
      [
        "if",
        "e"
      ],
      [
        "ie",
        "w"
      ],
      [
        "ual",
        "ly"
      ],
      [
        "ul",
        "l"
      ],
      [
        "ai",
        "r"
      ],
      [
        "an",
        "ge"
      ],
      [
        "Ġm",
        "y"
      ],
      [
        "er",
        "al"
      ],
      [
        "8",
        "0"
      ],
      [
        "ill",
        "ion"
      ],
      [
        "Ġg",
        "o"
      ],
      [
        "7",
        "0"
      ],
      [
        "il",
        "ity"
      ],
      [
        "ee",
        "p"
      ],
      [
        "8",
        "9"
      ],
      [
        "ff",
        "eren"
      ],
      [
        "Ġp",
        "e"
      ],
      [
        "7",
        "9"
      ],
      [
        "d",
        "uct"
      ],
      [
        "ad",
        "y"
      ],
      [
        "c",
        "on"
      ],
      [
        "Ġthe",
        "m"
      ],
      [
        "et",
        "ter"
      ],
      [
        "s",
        "ide"
      ],
      [
        "em",
        "ber"
      ],
      [
        "ath",
        "er"
      ],
      [
        "ent",
        "ion"
      ],
      [
        "id",
        "ent"
      ],
      [
        "Ġwor",
        "k"
      ],
      [
        "vel",
        "op"
      ],
      [
        "ov",
        "er"
      ],
      [
        "th",
        "ing"
      ],
      [
        "en",
        "se"
      ],
      [
        "ron",
        "g"
      ],
      [
        "Ġb",
        "ec"
      ],
      [
        "2",
        "2"
      ],
      [
        "Ġth",
        "is"
      ],
      [
        "es",
        "ent"
      ],
      [
        "a",
        "j"
      ],
      [
        "g",
        "y"
      ],
      [
        "Ġf",
        "rom"
      ],
      [
        "ur",
        "al"
      ],
      [
        "r",
        "at"
      ],
      [
        "ff",
        "er"
      ],
      [
        "er",
        "tain"
      ],
      [
        "uth",
        "or"
      ],
      [
        "con",
        "om"
      ],
      [
        "aj",
        "or"
      ],
      [
        "uc",
        "cess"
      ],
      [
        "ienc",
        "e"
      ],
      [
        "a",
        "per"
      ],
      [
        "our",
        "ce"
      ],
      [
        "em",
        "oc"
      ],
      [
        "o",
        "ice"
      ],
      [
        "b",
        "ody"
      ],
      [
        "ear",
        "ly"
      ],
      [
        "Ġh",
        "ow"
      ],
      [
        "Ġf",
        "ir"
      ],
      [
        "emoc",
        "rat"
      ],
      [
        "Ġ",
        "U"
      ],
      [
        "vi",
        "ron"
      ],
      [
        "ri",
        "ve"
      ],
      [
        "viron",
        "ment"
      ],
      [
        "Ġt",
        "e"
      ],
      [
        "Ġh",
        "im"
      ],
      [
        "Ġpl",
        "ay"
      ],
      [
        "c",
        "k"
      ],
      [
        "Ġa",
        "m"
      ],
      [
        "Ġk",
        "now"
      ],
      [
        "Ġ",
        "und"
      ],
      [
        "ĠM",
        "r"
      ],
      [
        "3",
        "4"
      ],
      [
        "Ġw",
        "as"
      ],
      [
        "6",
        "6"
      ],
      [
        "Ġe",
        "l"
      ],
      [
        "Ġag",
        "ain"
      ],
      [
        "Ġev",
        "en"
      ],
      [
        "Ġac",
        "c"
      ],
      [
        "ar",
        "ge"
      ],
      [
        "Ġc",
        "o"
      ],
      [
        "Ġs",
        "ec"
      ],
      [
        "Ġm",
        "ay"
      ],
      [
        "5",
        "5"
      ],
      [
        "Ġcon",
        "s"
      ],
      [
        "Ġp",
        "h"
      ],
      [
        "Ġsh",
        "ould"
      ],
      [
        "Ġo",
        "w"
      ],
      [
        "Ġthro",
        "ugh"
      ],
      [
        "ed",
        "ge"
      ],
      [
        "Ġinc",
        "lud"
      ],
      [
        "Ġd",
        "es"
      ],
      [
        "Ġ",
        "im"
      ],
      [
        "ĠW",
        "h"
      ],
      [
        "Ġad",
        "d"
      ],
      [
        "Ġg",
        "en"
      ],
      [
        "8",
        "7"
      ],
      [
        "Ġg",
        "u"
      ],
      [
        "Ġ",
        "ent"
      ],
      [
        "Ġs",
        "omet"
      ],
      [
        "Ġin",
        "st"
      ],
      [
        "Ġst",
        "r"
      ],
      [
        "Ġc",
        "ar"
      ],
      [
        "Ġw",
        "r"
      ],
      [
        "Ġh",
        "is"
      ],
      [
        "Ġs",
        "a"
      ],
      [
        "Ġc",
        "our"
      ],
      [
        "Ġdi",
        "fferen"
      ],
      [
        "Ġ",
        "âĢ"
      ],
      [
        "Ġle",
        "ad"
      ],
      [
        "Ġh",
        "ap"
      ],
      [
        "Ġl",
        "aw"
      ],
      [
        "Ġm",
        "od"
      ],
      [
        "Ġs",
        "ign"
      ],
      [
        "Ġf",
        "act"
      ],
      [
        "Ġd",
        "et"
      ],
      [
        "Ġt",
        "ri"
      ],
      [
        "Ġc",
        "an"
      ],
      [
        "Ġpers",
        "on"
      ],
      [
        "Ġc",
        "oll"
      ],
      [
        "Ġthe",
        "y"
      ],
      [
        "Ġc",
        "are"
      ],
      [
        "Ġfe",
        "el"
      ],
      [
        "Ġa",
        "v"
      ],
      [
        "Ġb",
        "ut"
      ],
      [
        "Ġde",
        "velop"
      ],
      [
        "e",
        "f"
      ],
      [
        "Ġw",
        "ill"
      ],
      [
        "Ġ",
        "6"
      ],
      [
        "Ġinter",
        "est"
      ],
      [
        "n",
        "t"
      ],
      [
        "Ġpol",
        "it"
      ],
      [
        "Ġ",
        "Y"
      ],
      [
        "Ġs",
        "oci"
      ],
      [
        "Ġbe",
        "h"
      ],
      [
        "Ġs",
        "it"
      ],
      [
        "Ġbu",
        "ild"
      ],
      [
        "Ġnew",
        "s"
      ],
      [
        "Ġm",
        "ain"
      ],
      [
        "Ġrec",
        "ent"
      ],
      [
        "Ġl",
        "ist"
      ],
      [
        "Ġs",
        "imp"
      ],
      [
        "Ġs",
        "k"
      ],
      [
        "Ġpro",
        "f"
      ],
      [
        "Ġpro",
        "duct"
      ],
      [
        "t",
        "t"
      ],
      [
        "Ġresp",
        "on"
      ],
      [
        "Ġgro",
        "w"
      ],
      [
        "Ġm",
        "ajor"
      ],
      [
        "Ġfin",
        "al"
      ],
      [
        "Ġe",
        "conom"
      ],
      [
        "Ġme",
        "et"
      ],
      [
        "Ġper",
        "form"
      ],
      [
        "Ġa",
        "uthor"
      ],
      [
        "Ġs",
        "uccess"
      ],
      [
        "Ġn",
        "or"
      ],
      [
        "Ġad",
        "m"
      ],
      [
        "Ġc",
        "ertain"
      ],
      [
        "Ġpartic",
        "ular"
      ],
      [
        "Ġdisc",
        "us"
      ],
      [
        "Ġn",
        "at"
      ],
      [
        "Ġs",
        "ing"
      ],
      [
        "8",
        "8"
      ],
      [
        "7",
        "7"
      ],
      [
        "Ġc",
        "ult"
      ],
      [
        "Ġw",
        "ind"
      ],
      [
        "Ġt",
        "each"
      ],
      [
        "5",
        "0"
      ],
      [
        "Ġen",
        "vironment"
      ],
      [
        "Ġh",
        "ot"
      ],
      [
        "ĠP",
        "ro"
      ],
      [
        "Ġ",
        "2"
      ],
      [
        "Ġs",
        "outh"
      ],
      [
        "4",
        "3"
      ],
      [
        "Ġw",
        "est"
      ],
      [
        "5",
        "9"
      ],
      [
        "v",
        "en"
      ],
      [
        "re",
        "d"
      ],
      [
        "Ġthe",
        "ir"
      ],
      [
        "s",
        "s"
      ],
      [
        "s",
        "o"
      ],
      [
        "Ġm",
        "ore"
      ],
      [
        "or",
        "k"
      ],
      [
        "Ġ",
        "K"
      ],
      [
        "Ġ",
        "3"
      ],
      [
        "Ġab",
        "out"
      ],
      [
        "e",
        "ver"
      ],
      [
        "l",
        "d"
      ],
      [
        "Ġon",
        "e"
      ],
      [
        "he",
        "re"
      ],
      [
        "Ġwh",
        "o"
      ],
      [
        "el",
        "y"
      ],
      [
        "u",
        "ch"
      ],
      [
        "op",
        "le"
      ],
      [
        "ĠC",
        "h"
      ],
      [
        "c",
        "c"
      ],
      [
        "ĠA",
        "l"
      ],
      [
        "e",
        "ad"
      ],
      [
        "i",
        "a"
      ],
      [
        "Ġw",
        "ould"
      ],
      [
        "Ġ",
        "4"
      ],
      [
        "Ġwh",
        "ich"
      ],
      [
        "in",
        "k"
      ],
      [
        "oc",
        "k"
      ],
      [
        "f",
        "ter"
      ],
      [
        "a",
        "v"
      ],
      [
        "ro",
        "und"
      ],
      [
        "es",
        "e"
      ],
      [
        "9",
        "0"
      ],
      [
        "p",
        "r"
      ],
      [
        "ov",
        "e"
      ],
      [
        "an",
        "g"
      ],
      [
        "it",
        "t"
      ],
      [
        "an",
        "y"
      ],
      [
        "Ġ",
        "J"
      ],
      [
        "Ġ",
        "year"
      ],
      [
        "Ġthe",
        "re"
      ],
      [
        "âĢ",
        "Ŀ"
      ],
      [
        "w",
        "o"
      ],
      [
        "ic",
        "t"
      ],
      [
        "3",
        "2"
      ],
      [
        "Ġh",
        "er"
      ],
      [
        "im",
        "e"
      ],
      [
        "Ġwh",
        "at"
      ],
      [
        "Ġ1",
        "4"
      ],
      [
        "enc",
        "e"
      ],
      [
        "Ġlik",
        "e"
      ],
      [
        "f",
        "t"
      ],
      [
        "o",
        "b"
      ],
      [
        "i",
        "p"
      ],
      [
        "Ġj",
        "ust"
      ],
      [
        "e",
        "p"
      ],
      [
        "Ġ",
        "("
      ],
      [
        "Ġ",
        "if"
      ],
      [
        "Ġwh",
        "en"
      ],
      [
        "7",
        "8"
      ],
      [
        "Ġg",
        "et"
      ],
      [
        "Ġtim",
        "e"
      ],
      [
        "ig",
        "h"
      ],
      [
        "Ġal",
        "so"
      ],
      [
        "Ġpe",
        "ople"
      ],
      [
        "t",
        "ing"
      ],
      [
        "ol",
        "e"
      ],
      [
        "Ġo",
        "ver"
      ],
      [
        "Ġo",
        "ther"
      ],
      [
        "Ġth",
        "an"
      ],
      [
        "Ġo",
        "ur"
      ],
      [
        "ot",
        "e"
      ],
      [
        "oin",
        "t"
      ],
      [
        "ĠC",
        "on"
      ],
      [
        "Ġint",
        "o"
      ],
      [
        "x",
        "t"
      ],
      [
        "v",
        "ent"
      ],
      [
        "ov",
        "ern"
      ],
      [
        "Ġs",
        "ay"
      ],
      [
        "Ġit",
        "s"
      ],
      [
        "Ġn",
        "o"
      ],
      [
        "f",
        "ul"
      ],
      [
        "6",
        "4"
      ],
      [
        "ot",
        "h"
      ],
      [
        "t",
        "ern"
      ],
      [
        "ic",
        "s"
      ],
      [
        "e",
        "ed"
      ],
      [
        "ow",
        "er"
      ],
      [
        "pe",
        "cial"
      ],
      [
        "p",
        "ect"
      ],
      [
        "Ġs",
        "he"
      ],
      [
        "'",
        "s"
      ],
      [
        "Ġ1",
        "3"
      ],
      [
        "g",
        "r"
      ],
      [
        "e",
        "en"
      ],
      [
        "ur",
        "ing"
      ],
      [
        "l",
        "ass"
      ],
      [
        "ri",
        "g"
      ],
      [
        "b",
        "ility"
      ],
      [
        "ut",
        "ion"
      ],
      [
        "Ġ1",
        "2"
      ],
      [
        "Ġc",
        "ould"
      ],
      [
        "in",
        "ce"
      ],
      [
        "a",
        "x"
      ],
      [
        "overn",
        "ment"
      ],
      [
        "up",
        "port"
      ],
      [
        "T",
        "he"
      ],
      [
        "i",
        "ly"
      ],
      [
        "p",
        "are"
      ],
      [
        "mer",
        "ic"
      ],
      [
        "g",
        "an"
      ],
      [
        "o",
        "ol"
      ],
      [
        "a",
        "z"
      ],
      [
        "ĠE",
        "x"
      ],
      [
        "Ġon",
        "ly"
      ],
      [
        "etw",
        "een"
      ],
      [
        "9",
        "5"
      ],
      [
        "is",
        "s"
      ],
      [
        "rig",
        "ht"
      ],
      [
        "Ġfir",
        "st"
      ],
      [
        "g",
        "ree"
      ],
      [
        "hi",
        "p"
      ],
      [
        "es",
        "ident"
      ],
      [
        "Ġa",
        "fter"
      ],
      [
        "i",
        "x"
      ],
      [
        "es",
        "sion"
      ],
      [
        "d",
        "er"
      ],
      [
        "t",
        "and"
      ],
      [
        "Ġb",
        "ack"
      ],
      [
        "w",
        "ard"
      ],
      [
        "Ġt",
        "wo"
      ],
      [
        "Ġc",
        "r"
      ],
      [
        "ous",
        "e"
      ],
      [
        "i",
        "er"
      ],
      [
        "Ġ",
        "em"
      ],
      [
        "Ġne",
        "ed"
      ],
      [
        "Ġw",
        "ant"
      ],
      [
        "6",
        "3"
      ],
      [
        "est",
        "ion"
      ],
      [
        "itt",
        "le"
      ],
      [
        "ĠD",
        "emocrat"
      ],
      [
        "in",
        "ist"
      ],
      [
        "4",
        "2"
      ],
      [
        "ĠA",
        "meric"
      ],
      [
        "Ġm",
        "ost"
      ],
      [
        "Ġn",
        "ow"
      ],
      [
        "o",
        "ot"
      ],
      [
        "if",
        "ic"
      ],
      [
        "um",
        "ber"
      ],
      [
        "ord",
        "ing"
      ],
      [
        "il",
        "it"
      ],
      [
        "ren",
        "t"
      ],
      [
        "Ġo",
        "ff"
      ],
      [
        "way",
        "s"
      ],
      [
        "ut",
        "e"
      ],
      [
        "i",
        "el"
      ],
      [
        "ro",
        "ss"
      ],
      [
        "si",
        "ble"
      ],
      [
        "ri",
        "end"
      ],
      [
        "ab",
        "ly"
      ],
      [
        "Ġd",
        "ay"
      ],
      [
        "at",
        "a"
      ],
      [
        "Ġbec",
        "ause"
      ],
      [
        "form",
        "ation"
      ],
      [
        "6",
        "2"
      ],
      [
        "ce",
        "pt"
      ],
      [
        "ark",
        "et"
      ],
      [
        "v",
        "iew"
      ],
      [
        "Ġm",
        "ake"
      ],
      [
        "ch",
        "n"
      ],
      [
        "Ġth",
        "ink"
      ],
      [
        "a",
        "im"
      ],
      [
        "us",
        "iness"
      ],
      [
        "g",
        "in"
      ],
      [
        "gr",
        "am"
      ],
      [
        "v",
        "ice"
      ],
      [
        "d",
        "ay"
      ],
      [
        "us",
        "h"
      ],
      [
        "ur",
        "rent"
      ],
      [
        "g",
        "est"
      ],
      [
        "r",
        "al"
      ],
      [
        "i",
        "o"
      ],
      [
        "Ġth",
        "ese"
      ],
      [
        "Ġth",
        "ing"
      ],
      [
        "e",
        "w"
      ],
      [
        "o",
        "ught"
      ],
      [
        "ount",
        "ry"
      ],
      [
        "ro",
        "p"
      ],
      [
        "t",
        "o"
      ],
      [
        "um",
        "an"
      ],
      [
        "Ġf",
        "l"
      ],
      [
        "re",
        "en"
      ],
      [
        "b",
        "ject"
      ],
      [
        "am",
        "ily"
      ],
      [
        "is",
        "ion"
      ],
      [
        "ear",
        "n"
      ],
      [
        "Ġwa",
        "y"
      ],
      [
        "Ġlo",
        "ok"
      ],
      [
        "r",
        "ation"
      ],
      [
        "iel",
        "d"
      ],
      [
        "im",
        "es"
      ],
      [
        "Ġth",
        "en"
      ],
      [
        "a",
        "bl"
      ],
      [
        "re",
        "ady"
      ],
      [
        "at",
        "ter"
      ],
      [
        "amp",
        "le"
      ],
      [
        "re",
        "am"
      ],
      [
        "ar",
        "ly"
      ],
      [
        "pl",
        "oy"
      ],
      [
        "Ġ",
        "right"
      ],
      [
        "Ġw",
        "here"
      ],
      [
        "el",
        "f"
      ],
      [
        "Ġs",
        "ee"
      ],
      [
        "f",
        "ore"
      ],
      [
        "th",
        "ers"
      ],
      [
        "id",
        "er"
      ],
      [
        "Ġ",
        "very"
      ],
      [
        "he",
        "ck"
      ],
      [
        "qu",
        "ire"
      ],
      [
        "et",
        "y"
      ],
      [
        "het",
        "her"
      ],
      [
        "et",
        "h"
      ],
      [
        "amp",
        "a"
      ],
      [
        "ain",
        "ing"
      ],
      [
        "ers",
        "tand"
      ],
      [
        "Ġman",
        "y"
      ],
      [
        "ap",
        "s"
      ],
      [
        "ed",
        "ia"
      ],
      [
        "enc",
        "y"
      ],
      [
        "ampa",
        "ign"
      ],
      [
        "ut",
        "ure"
      ],
      [
        "ith",
        "er"
      ],
      [
        "u",
        "ff"
      ],
      [
        "Ġm",
        "uch"
      ],
      [
        "ur",
        "ity"
      ],
      [
        "op",
        "e"
      ],
      [
        "Ġw",
        "ell"
      ],
      [
        "ĠT",
        "r"
      ],
      [
        "el",
        "e"
      ],
      [
        "f",
        "e"
      ],
      [
        "Ġhe",
        "l"
      ],
      [
        "ur",
        "y"
      ],
      [
        "it",
        "ch"
      ],
      [
        "oun",
        "g"
      ],
      [
        "ir",
        "l"
      ],
      [
        "iz",
        "ation"
      ],
      [
        "f",
        "eren"
      ],
      [
        "5",
        "7"
      ],
      [
        "ur",
        "ch"
      ],
      [
        "ic",
        "le"
      ],
      [
        "re",
        "et"
      ],
      [
        "id",
        "d"
      ],
      [
        "is",
        "k"
      ],
      [
        "os",
        "s"
      ],
      [
        "m",
        "ost"
      ],
      [
        "al",
        "f"
      ],
      [
        "ic",
        "y"
      ],
      [
        "s",
        "w"
      ],
      [
        "ail",
        "able"
      ],
      [
        "Ġd",
        "own"
      ],
      [
        "5",
        "8"
      ],
      [
        "b",
        "ably"
      ],
      [
        "id",
        "ence"
      ],
      [
        "ust",
        "om"
      ],
      [
        "il",
        "m"
      ],
      [
        "elie",
        "ve"
      ],
      [
        "r",
        "ing"
      ],
      [
        "Ġc",
        "all"
      ],
      [
        "are",
        "nt"
      ],
      [
        "ist",
        "ory"
      ],
      [
        "a",
        "ught"
      ],
      [
        "all",
        "en"
      ],
      [
        "ĠI",
        "t"
      ],
      [
        "Ġg",
        "ood"
      ],
      [
        "c",
        "ern"
      ],
      [
        "ow",
        "ard"
      ],
      [
        "om",
        "an"
      ],
      [
        "ual",
        "ity"
      ],
      [
        "ci",
        "f"
      ],
      [
        "Ġth",
        "ose"
      ],
      [
        "as",
        "y"
      ],
      [
        "act",
        "er"
      ],
      [
        "reat",
        "e"
      ],
      [
        "tt",
        "y"
      ],
      [
        "ci",
        "ent"
      ],
      [
        "Ġl",
        "ast"
      ],
      [
        "if",
        "y"
      ],
      [
        "it",
        "ive"
      ],
      [
        "sel",
        "ves"
      ],
      [
        "u",
        "ation"
      ],
      [
        "p",
        "y"
      ],
      [
        "ff",
        "ort"
      ],
      [
        "oc",
        "us"
      ],
      [
        "ec",
        "ess"
      ],
      [
        "th",
        "ough"
      ],
      [
        "etw",
        "ork"
      ],
      [
        "o",
        "id"
      ],
      [
        "im",
        "al"
      ],
      [
        "feren",
        "ce"
      ],
      [
        "ec",
        "ut"
      ],
      [
        "j",
        "oy"
      ],
      [
        "pr",
        "esent"
      ],
      [
        "a",
        "ff"
      ],
      [
        "vis",
        "ion"
      ],
      [
        "im",
        "il"
      ],
      [
        "Ġbe",
        "fore"
      ],
      [
        "a",
        "vi"
      ],
      [
        "r",
        "aw"
      ],
      [
        "it",
        "er"
      ],
      [
        "Ġst",
        "art"
      ],
      [
        "Ġsu",
        "ch"
      ],
      [
        "y",
        "pe"
      ],
      [
        "Ġ",
        "end"
      ],
      [
        "re",
        "ase"
      ],
      [
        "Ġl",
        "ong"
      ],
      [
        "in",
        "ue"
      ],
      [
        "i",
        "or"
      ],
      [
        "ed",
        "eral"
      ],
      [
        "en",
        "e"
      ],
      [
        "ilit",
        "ary"
      ],
      [
        "ea",
        "ve"
      ],
      [
        "ug",
        "e"
      ],
      [
        "Ġre",
        "port"
      ],
      [
        "ust",
        "ry"
      ],
      [
        "ar",
        "ious"
      ],
      [
        "t",
        "ect"
      ],
      [
        "pl",
        "ain"
      ],
      [
        "ffic",
        "ult"
      ],
      [
        "ir",
        "d"
      ],
      [
        "ar",
        "ri"
      ],
      [
        "ed",
        "uc"
      ],
      [
        "y",
        "le"
      ],
      [
        "al",
        "ue"
      ],
      [
        "as",
        "ure"
      ],
      [
        "it",
        "ution"
      ],
      [
        "us",
        "ic"
      ],
      [
        "ro",
        "ach"
      ],
      [
        "Ġhel",
        "p"
      ],
      [
        "eth",
        "od"
      ],
      [
        "Ġow",
        "n"
      ],
      [
        "ad",
        "ition"
      ],
      [
        "ug",
        "gest"
      ],
      [
        "he",
        "ad"
      ],
      [
        "pecial",
        "ly"
      ],
      [
        "Ġus",
        "e"
      ],
      [
        "ĠRe",
        "p"
      ],
      [
        "pp",
        "ort"
      ],
      [
        "om",
        "ent"
      ],
      [
        "ĠAmeric",
        "an"
      ],
      [
        "ap",
        "ital"
      ],
      [
        "imil",
        "ar"
      ],
      [
        "ef",
        "it"
      ],
      [
        "at",
        "ement"
      ],
      [
        "orn",
        "ing"
      ],
      [
        "ific",
        "ant"
      ],
      [
        "ater",
        "ial"
      ],
      [
        "ut",
        "er"
      ],
      [
        "chn",
        "ology"
      ],
      [
        "iv",
        "il"
      ],
      [
        "ol",
        "or"
      ],
      [
        "ore",
        "ign"
      ],
      [
        "ve",
        "al"
      ],
      [
        "h",
        "aps"
      ],
      [
        "a",
        "vel"
      ],
      [
        "idd",
        "le"
      ],
      [
        "ession",
        "al"
      ],
      [
        "up",
        "le"
      ],
      [
        "ang",
        "u"
      ],
      [
        "ur",
        "p"
      ],
      [
        "abl",
        "ish"
      ],
      [
        "ig",
        "ure"
      ],
      [
        "uct",
        "ure"
      ],
      [
        "ĠâĢ",
        "ľ"
      ],
      [
        "Ġde",
        "f"
      ],
      [
        "p",
        "ite"
      ],
      [
        "ess",
        "age"
      ],
      [
        "ong",
        "ress"
      ],
      [
        "iv",
        "ity"
      ],
      [
        "ous",
        "and"
      ],
      [
        "og",
        "n"
      ],
      [
        "f",
        "ace"
      ],
      [
        "ul",
        "e"
      ],
      [
        "ublic",
        "an"
      ],
      [
        "ond",
        "er"
      ],
      [
        "um",
        "er"
      ],
      [
        "ie",
        "ce"
      ],
      [
        "e",
        "ge"
      ],
      [
        "er",
        "a"
      ],
      [
        "Ġwor",
        "ld"
      ],
      [
        "ubl",
        "e"
      ],
      [
        "ations",
        "hip"
      ],
      [
        "ys",
        "ical"
      ],
      [
        "av",
        "y"
      ],
      [
        "and",
        "id"
      ],
      [
        "o",
        "ose"
      ],
      [
        "an",
        "cial"
      ],
      [
        "l",
        "edge"
      ],
      [
        "sw",
        "er"
      ],
      [
        "ct",
        "or"
      ],
      [
        "cif",
        "ic"
      ],
      [
        "act",
        "ly"
      ],
      [
        "Ġh",
        "igh"
      ],
      [
        "cc",
        "ur"
      ],
      [
        "ecess",
        "ary"
      ],
      [
        "ud",
        "d"
      ],
      [
        "inist",
        "ration"
      ],
      [
        "ea",
        "ut"
      ],
      [
        "er",
        "ation"
      ],
      [
        "it",
        "iz"
      ],
      [
        "ate",
        "ver"
      ],
      [
        "ee",
        "ch"
      ],
      [
        "gan",
        "ization"
      ],
      [
        "um",
        "e"
      ],
      [
        "ick",
        "ly"
      ],
      [
        "orn",
        "ey"
      ],
      [
        "al",
        "ys"
      ],
      [
        "si",
        "bility"
      ],
      [
        "act",
        "ice"
      ],
      [
        "y",
        "e"
      ],
      [
        "angu",
        "age"
      ],
      [
        "itiz",
        "en"
      ],
      [
        "adition",
        "al"
      ],
      [
        "Ġs",
        "ame"
      ],
      [
        "pport",
        "unity"
      ],
      [
        "und",
        "red"
      ],
      [
        "Ġw",
        "eek"
      ],
      [
        "ud",
        "get"
      ],
      [
        "Ġreal",
        "ly"
      ],
      [
        "pert",
        "y"
      ],
      [
        "ecut",
        "ive"
      ],
      [
        "Ġst",
        "ill"
      ],
      [
        "ict",
        "ure"
      ],
      [
        "T",
        "h"
      ],
      [
        "ea",
        "h"
      ],
      [
        "alys",
        "is"
      ],
      [
        "ist",
        "er"
      ],
      [
        "if",
        "ul"
      ],
      [
        "b",
        "and"
      ],
      [
        "allen",
        "ge"
      ],
      [
        "ess",
        "or"
      ],
      [
        "Ġg",
        "reat"
      ],
      [
        "b",
        "ate"
      ],
      [
        "a",
        "ugh"
      ],
      [
        "ag",
        "ine"
      ],
      [
        "Ġh",
        "as"
      ],
      [
        "avi",
        "or"
      ],
      [
        "a",
        "ise"
      ],
      [
        "in",
        "ute"
      ],
      [
        "Ġs",
        "et"
      ],
      [
        "ce",
        "ive"
      ],
      [
        "eaut",
        "iful"
      ],
      [
        "fl",
        "ect"
      ],
      [
        "aught",
        "er"
      ],
      [
        "Ġ",
        "For"
      ],
      [
        "cient",
        "ist"
      ],
      [
        "Ġagain",
        "st"
      ],
      [
        "Ġhe",
        "re"
      ],
      [
        "in",
        "ner"
      ],
      [
        "Ġund",
        "er"
      ],
      [
        "duc",
        "e"
      ],
      [
        "ro",
        "ther"
      ],
      [
        "Ġs",
        "upport"
      ],
      [
        "ĠC",
        "om"
      ],
      [
        "ab",
        "y"
      ],
      [
        "ag",
        "az"
      ],
      [
        "en",
        "ior"
      ],
      [
        "Ġwh",
        "ile"
      ],
      [
        "p",
        "aper"
      ],
      [
        "em",
        "ory"
      ],
      [
        "ustom",
        "er"
      ],
      [
        "re",
        "ement"
      ],
      [
        "Ġh",
        "and"
      ],
      [
        "ig",
        "ious"
      ],
      [
        "us",
        "band"
      ],
      [
        "Ġf",
        "ind"
      ],
      [
        "ad",
        "io"
      ],
      [
        "ele",
        "vision"
      ],
      [
        "erm",
        "ine"
      ],
      [
        "9",
        "7"
      ],
      [
        "agaz",
        "ine"
      ],
      [
        "Ġp",
        "oint"
      ],
      [
        "andid",
        "ate"
      ],
      [
        "ate",
        "gy"
      ],
      [
        "ĠA",
        "r"
      ],
      [
        "urp",
        "ose"
      ],
      [
        "y",
        "er"
      ],
      [
        "ro",
        "uble"
      ],
      [
        "Ġb",
        "etween"
      ],
      [
        "Ġg",
        "ame"
      ],
      [
        "ud",
        "ience"
      ],
      [
        "ers",
        "elf"
      ],
      [
        "ach",
        "ine"
      ],
      [
        "9",
        "8"
      ],
      [
        "itch",
        "en"
      ],
      [
        "arri",
        "age"
      ],
      [
        "ip",
        "ant"
      ],
      [
        "am",
        "era"
      ],
      [
        "Ġg",
        "overnment"
      ],
      [
        "ard",
        "en"
      ],
      [
        "ploy",
        "ee"
      ],
      [
        "Ġte",
        "am"
      ],
      [
        "at",
        "tern"
      ],
      [
        "udd",
        "en"
      ],
      [
        "ĠC",
        "ongress"
      ],
      [
        "Ġa",
        "round"
      ],
      [
        "Ġth",
        "ree"
      ],
      [
        "Ġr",
        "un"
      ],
      [
        "ĠRep",
        "ublican"
      ],
      [
        "udden",
        "ly"
      ],
      [
        "on",
        "ight"
      ],
      [
        "ogn",
        "ize"
      ],
      [
        "old",
        "ier"
      ],
      [
        "Ġl",
        "ife"
      ],
      [
        "Ġmon",
        "th"
      ],
      [
        "Ġne",
        "ver"
      ],
      [
        "Ġgro",
        "up"
      ],
      [
        "Ġis",
        "s"
      ],
      [
        "Ġfe",
        "w"
      ],
      [
        "Ġb",
        "oth"
      ],
      [
        "Ġto",
        "o"
      ],
      [
        "Ġsomet",
        "hing"
      ],
      [
        "Ġw",
        "ar"
      ],
      [
        "Ġpl",
        "an"
      ],
      [
        "Ġch",
        "ar"
      ],
      [
        "Ġst",
        "ate"
      ],
      [
        "Ġp",
        "ublic"
      ],
      [
        "Ġl",
        "ot"
      ],
      [
        "Ġb",
        "ig"
      ],
      [
        "Ġre",
        "t"
      ],
      [
        "Ġas",
        "k"
      ],
      [
        "Ġp",
        "ut"
      ],
      [
        "S",
        "t"
      ],
      [
        "t",
        "en"
      ],
      [
        "Ġf",
        "ar"
      ],
      [
        "Ġh",
        "ome"
      ],
      [
        "Ġan",
        "other"
      ],
      [
        "Ġb",
        "est"
      ],
      [
        "Ġfor",
        "m"
      ],
      [
        "Ġd",
        "uring"
      ],
      [
        "Ġse",
        "em"
      ],
      [
        "Ġt",
        "urn"
      ],
      [
        "Ġtr",
        "y"
      ],
      [
        "Ġs",
        "ince"
      ],
      [
        "Ġm",
        "ight"
      ],
      [
        "ĠMr",
        "s"
      ],
      [
        "Ġle",
        "g"
      ],
      [
        "Ġre",
        "ad"
      ],
      [
        "Ġl",
        "ittle"
      ],
      [
        "Ġo",
        "pen"
      ],
      [
        "Ġch",
        "ild"
      ],
      [
        "Ġne",
        "xt"
      ],
      [
        "Ġdifferen",
        "t"
      ],
      [
        "ĠS",
        "h"
      ],
      [
        "Ġp",
        "ower"
      ],
      [
        "Ġe",
        "ach"
      ],
      [
        "Ġall",
        "ow"
      ],
      [
        "Ġsec",
        "ond"
      ],
      [
        "Ġt",
        "alk"
      ],
      [
        "Ġlo",
        "c"
      ],
      [
        "Ġb",
        "etter"
      ],
      [
        "Ġp",
        "ass"
      ],
      [
        "Ġpl",
        "ace"
      ],
      [
        "Ġqu",
        "estion"
      ],
      [
        "Ġwith",
        "out"
      ],
      [
        "Ġl",
        "ess"
      ],
      [
        "Ġm",
        "illion"
      ],
      [
        "Ġimp",
        "ort"
      ],
      [
        "Ġh",
        "ard"
      ],
      [
        "Ġwh",
        "y"
      ],
      [
        "Ġhap",
        "pen"
      ],
      [
        "Ġres",
        "ult"
      ],
      [
        "Ġto",
        "p"
      ],
      [
        "Ġm",
        "ust"
      ],
      [
        "Ġn",
        "umber"
      ],
      [
        "Ġr",
        "est"
      ],
      [
        "Ġal",
        "ways"
      ],
      [
        "Ġc",
        "ase"
      ],
      [
        "Ġp",
        "ay"
      ],
      [
        "Ġk",
        "eep"
      ],
      [
        "Ġse",
        "ason"
      ],
      [
        "Ġk",
        "ind"
      ],
      [
        "Ġinclud",
        "ing"
      ],
      [
        "Ġa",
        "way"
      ],
      [
        "Ġre",
        "ason"
      ],
      [
        "Ġbo",
        "ok"
      ],
      [
        "Ġ",
        "vis"
      ],
      [
        "Ġf",
        "our"
      ],
      [
        "Ġin",
        "formation"
      ],
      [
        "Ġb",
        "usiness"
      ],
      [
        "Ġpol",
        "ice"
      ],
      [
        "Ġpro",
        "cess"
      ],
      [
        "Ġsch",
        "ool"
      ],
      [
        "Ġc",
        "ountry"
      ],
      [
        "Ġcomp",
        "any"
      ],
      [
        "Ġatt",
        "ack"
      ],
      [
        "Ġa",
        "ble"
      ],
      [
        "Ġt",
        "ell"
      ],
      [
        "Ġt",
        "est"
      ],
      [
        "Ġle",
        "ft"
      ],
      [
        "Ġw",
        "in"
      ],
      [
        "Ġf",
        "riend"
      ],
      [
        "Ġdes",
        "ign"
      ],
      [
        "Ġex",
        "pect"
      ],
      [
        "Ġl",
        "et"
      ],
      [
        "Ġen",
        "ough"
      ],
      [
        "Ġ",
        "He"
      ],
      [
        "Ġch",
        "ange"
      ],
      [
        "Ġe",
        "ver"
      ],
      [
        "Ġf",
        "ree"
      ],
      [
        "Ġpro",
        "gram"
      ],
      [
        "Ġc",
        "urrent"
      ],
      [
        "Ġle",
        "vel"
      ],
      [
        "Ġj",
        "ob"
      ],
      [
        "Ġst",
        "ory"
      ],
      [
        "Ġt",
        "ax"
      ],
      [
        "Ġp",
        "ast"
      ],
      [
        "Ġle",
        "ast"
      ],
      [
        "Ġal",
        "ready"
      ],
      [
        "Ġd",
        "ata"
      ],
      [
        "Ġs",
        "ure"
      ],
      [
        "Ġf",
        "amily"
      ],
      [
        "Ġ",
        "old"
      ],
      [
        "Ġun",
        "t"
      ],
      [
        "Ġme",
        "an"
      ],
      [
        "Ġm",
        "arket"
      ],
      [
        "Ġoffic",
        "ial"
      ],
      [
        "Ġth",
        "ought"
      ],
      [
        "Ġcl",
        "ass"
      ],
      [
        "Ġimport",
        "ant"
      ],
      [
        "Ġa",
        "ir"
      ],
      [
        "Ġc",
        "ity"
      ],
      [
        "Ġl",
        "ater"
      ],
      [
        "Ġcl",
        "aim"
      ],
      [
        "Ġc",
        "ost"
      ],
      [
        "Ġv",
        "iew"
      ],
      [
        "Ġof",
        "ten"
      ],
      [
        "Ġpro",
        "ject"
      ],
      [
        "Ġth",
        "ough"
      ],
      [
        "Ġb",
        "it"
      ],
      [
        "Ġ",
        "20"
      ],
      [
        "Ġint",
        "ern"
      ],
      [
        "Ġde",
        "al"
      ],
      [
        "Ġf",
        "und"
      ],
      [
        "Ġf",
        "ull"
      ],
      [
        "Ġres",
        "earch"
      ],
      [
        "Ġl",
        "earn"
      ],
      [
        "Ġg",
        "ive"
      ],
      [
        "Ġ",
        "est"
      ],
      [
        "Ġmon",
        "ey"
      ],
      [
        "Ġpr",
        "esident"
      ],
      [
        "Ġf",
        "ight"
      ],
      [
        "Ġunt",
        "il"
      ],
      [
        "Ġor",
        "der"
      ],
      [
        "Ġact",
        "ually"
      ],
      [
        "Ġn",
        "ight"
      ],
      [
        "Ġwor",
        "d"
      ],
      [
        "Ġh",
        "uman"
      ],
      [
        "Ġret",
        "urn"
      ],
      [
        "Ġse",
        "ver"
      ],
      [
        "Ġgen",
        "eral"
      ],
      [
        "Ġcour",
        "se"
      ],
      [
        "Ġund",
        "erstand"
      ],
      [
        "Ġsh",
        "ort"
      ],
      [
        "Ġe",
        "ffect"
      ],
      [
        "Ġst",
        "op"
      ],
      [
        "Ġw",
        "atch"
      ],
      [
        "Ġex",
        "ample"
      ],
      [
        "Ġsever",
        "al"
      ],
      [
        "Ġw",
        "hether"
      ],
      [
        "Ġ",
        "id"
      ],
      [
        "Ġpos",
        "sible"
      ],
      [
        "Ġc",
        "ampaign"
      ],
      [
        "Ġbec",
        "ome"
      ],
      [
        "Ġ",
        "q"
      ],
      [
        "Ġh",
        "our"
      ],
      [
        "Ġ",
        "es"
      ],
      [
        "Ġl",
        "and"
      ],
      [
        "Ġwith",
        "in"
      ],
      [
        "Ġlik",
        "ely"
      ],
      [
        "Ġal",
        "ong"
      ],
      [
        "Ġacc",
        "ording"
      ],
      [
        "Ġe",
        "arly"
      ],
      [
        "Ġf",
        "uture"
      ],
      [
        "Ġon",
        "ce"
      ],
      [
        "Ġre",
        "quire"
      ],
      [
        "Ġact",
        "ion"
      ],
      [
        "Ġpolit",
        "ical"
      ],
      [
        "Ġsoci",
        "al"
      ],
      [
        "Ġs",
        "ide"
      ],
      [
        "Ġb",
        "elieve"
      ],
      [
        "Ġn",
        "ame"
      ],
      [
        "Ġac",
        "ross"
      ],
      [
        "Ġto",
        "day"
      ],
      [
        "Ġapp",
        "ear"
      ],
      [
        "Ġrec",
        "ord"
      ],
      [
        "Ġb",
        "ad"
      ],
      [
        "ĠP",
        "art"
      ],
      [
        "Ġt",
        "erm"
      ],
      [
        "Ġev",
        "ent"
      ],
      [
        "Ġar",
        "m"
      ],
      [
        "Ġl",
        "ine"
      ],
      [
        "Ġo",
        "thers"
      ],
      [
        "Ġy",
        "et"
      ],
      [
        "Ġto",
        "get"
      ],
      [
        "Ġpr",
        "ess"
      ],
      [
        "Ġtoget",
        "her"
      ],
      [
        "umm",
        "er"
      ],
      [
        "Ġy",
        "oung"
      ],
      [
        "Ġst",
        "rong"
      ],
      [
        "Ġav",
        "ailable"
      ],
      [
        "Ġbr",
        "ing"
      ],
      [
        "Ġam",
        "ong"
      ],
      [
        "t",
        "al"
      ],
      [
        "Ġloc",
        "al"
      ],
      [
        "Ġcl",
        "ear"
      ],
      [
        "Ġrem",
        "ain"
      ],
      [
        "Ġpro",
        "bably"
      ],
      [
        "Ġbuild",
        "ing"
      ],
      [
        "Ġc",
        "heck"
      ],
      [
        "Ġpos",
        "ition"
      ],
      [
        "Ġm",
        "ind"
      ],
      [
        "Ġag",
        "o"
      ],
      [
        "Ġf",
        "ive"
      ],
      [
        "Ġw",
        "ater"
      ],
      [
        "Ġmov",
        "e"
      ],
      [
        "Ġsome",
        "one"
      ],
      [
        "Ġh",
        "old"
      ],
      [
        "Ġbe",
        "gin"
      ],
      [
        "Ġdet",
        "ail"
      ],
      [
        "Ġfor",
        "mer"
      ],
      [
        "Ġdec",
        "ision"
      ],
      [
        "Ġiss",
        "ue"
      ],
      [
        "Ġexperienc",
        "e"
      ],
      [
        "Ġcon",
        "cern"
      ],
      [
        "Ġh",
        "it"
      ],
      [
        "Ġare",
        "a"
      ],
      [
        "Ġn",
        "ear"
      ],
      [
        "Ġsh",
        "are"
      ],
      [
        "Ġl",
        "ight"
      ],
      [
        "Ġex",
        "ist"
      ],
      [
        "Ġ",
        "ident"
      ],
      [
        "Ġcour",
        "t"
      ],
      [
        "Ġid",
        "ea"
      ],
      [
        "Ġs",
        "ite"
      ],
      [
        "Ġl",
        "arge"
      ],
      [
        "Ġf",
        "ire"
      ],
      [
        "Ġo",
        "ffer"
      ],
      [
        "Ġel",
        "se"
      ],
      [
        "Ġm",
        "edia"
      ],
      [
        "Ġl",
        "ow"
      ],
      [
        "Ġvis",
        "it"
      ],
      [
        "ĠA",
        "g"
      ],
      [
        "Ġbeh",
        "ind"
      ],
      [
        "er",
        "gy"
      ],
      [
        "Ġspe",
        "cial"
      ],
      [
        "Ġany",
        "thing"
      ],
      [
        "Ġst",
        "ep"
      ],
      [
        "Ġpr",
        "esent"
      ],
      [
        "Ġacc",
        "ount"
      ],
      [
        "Ġent",
        "ire"
      ],
      [
        "Ġb",
        "reak"
      ],
      [
        "Ġb",
        "illion"
      ],
      [
        "Ġs",
        "eries"
      ],
      [
        "Ġnot",
        "hing"
      ],
      [
        "Ġpre",
        "tty"
      ],
      [
        "Ġf",
        "ace"
      ],
      [
        "Ġn",
        "ational"
      ],
      [
        "Ġc",
        "reate"
      ],
      [
        "Ġf",
        "ilm"
      ],
      [
        "Ġto",
        "tal"
      ],
      [
        "Ġe",
        "ither"
      ],
      [
        "Ġe",
        "ffort"
      ],
      [
        "Ġgo",
        "al"
      ],
      [
        "Ġc",
        "ut"
      ],
      [
        "Ġhow",
        "ever"
      ],
      [
        "Ġdevelop",
        "ment"
      ],
      [
        "Ġh",
        "istory"
      ],
      [
        "Ġg",
        "irl"
      ],
      [
        "Ġevery",
        "thing"
      ],
      [
        "Ġf",
        "ood"
      ],
      [
        "Ġpart",
        "y"
      ],
      [
        "Ġsec",
        "urity"
      ],
      [
        "Ġqu",
        "ite"
      ],
      [
        "Ġh",
        "alf"
      ],
      [
        "Ġf",
        "ocus"
      ],
      [
        "Ġh",
        "ouse"
      ],
      [
        "Ġen",
        "ergy"
      ],
      [
        "Ġal",
        "most"
      ],
      [
        "Ġadd",
        "ress"
      ],
      [
        "Ġmod",
        "el"
      ],
      [
        "Ġr",
        "isk"
      ],
      [
        "Ġam",
        "ount"
      ],
      [
        "Ġprov",
        "ide"
      ],
      [
        "Ġre",
        "ach"
      ],
      [
        "Ġs",
        "ense"
      ],
      [
        "Ġpol",
        "icy"
      ],
      [
        "Ġl",
        "ive"
      ],
      [
        "Ġperson",
        "al"
      ],
      [
        "Ġt",
        "oward"
      ],
      [
        "Ġwh",
        "ole"
      ],
      [
        "Ġb",
        "ody"
      ],
      [
        "Ġk",
        "ey"
      ],
      [
        "Ġr",
        "ather"
      ],
      [
        "Ġspe",
        "ak"
      ],
      [
        "Ġsp",
        "ace"
      ],
      [
        "Ġb",
        "ank"
      ],
      [
        "Ġpro",
        "tect"
      ],
      [
        "Ġw",
        "rong"
      ],
      [
        "Ġbu",
        "y"
      ],
      [
        "Ġp",
        "ick"
      ],
      [
        "Ġcons",
        "ider"
      ],
      [
        "Ġhe",
        "art"
      ],
      [
        "Ġhe",
        "ar"
      ],
      [
        "Ġout",
        "side"
      ],
      [
        "Ġen",
        "joy"
      ],
      [
        "Ġm",
        "atter"
      ],
      [
        "Ġc",
        "over"
      ],
      [
        "Ġevery",
        "one"
      ],
      [
        "Ġst",
        "ay"
      ],
      [
        "Ġchar",
        "acter"
      ],
      [
        "Ġsa",
        "id"
      ],
      [
        "Ġel",
        "ection"
      ],
      [
        "Ġsimp",
        "ly"
      ],
      [
        "Ġbl",
        "ack"
      ],
      [
        "Ġl",
        "eave"
      ],
      [
        "Ġo",
        "ption"
      ],
      [
        "Ġf",
        "all"
      ],
      [
        "Ġw",
        "alk"
      ],
      [
        "Ġc",
        "ard"
      ],
      [
        "Ġk",
        "id"
      ],
      [
        "Ġser",
        "ious"
      ],
      [
        "Ġsp",
        "end"
      ],
      [
        "Ġd",
        "rug"
      ],
      [
        "Ġapp",
        "roach"
      ],
      [
        "Ġac",
        "cept"
      ],
      [
        "Ġso",
        "und"
      ],
      [
        "Ġcl",
        "ose"
      ],
      [
        "Ġso",
        "on"
      ],
      [
        "Ġn",
        "etwork"
      ],
      [
        "Ġf",
        "ield"
      ],
      [
        "Ġwh",
        "ite"
      ],
      [
        "Ġsing",
        "le"
      ],
      [
        "Ġm",
        "iss"
      ],
      [
        "Ġrecent",
        "ly"
      ],
      [
        "Ġm",
        "ilitary"
      ],
      [
        "Ġm",
        "oment"
      ],
      [
        "Ġgro",
        "und"
      ],
      [
        "Ġth",
        "ird"
      ],
      [
        "Ġa",
        "ge"
      ],
      [
        "Ġben",
        "efit"
      ],
      [
        "Ġart",
        "icle"
      ],
      [
        "Ġdi",
        "fficult"
      ],
      [
        "Ġth",
        "reat"
      ],
      [
        "Ġst",
        "ar"
      ],
      [
        "Ġre",
        "present"
      ],
      [
        "Ġab",
        "ility"
      ],
      [
        "Ġs",
        "uggest"
      ],
      [
        "Ġf",
        "oot"
      ],
      [
        "Ġst",
        "atement"
      ],
      [
        "Ġind",
        "ustry"
      ],
      [
        "Ġit",
        "self"
      ],
      [
        "Ġab",
        "ove"
      ],
      [
        "Ġthem",
        "selves"
      ],
      [
        "Ġinc",
        "rease"
      ],
      [
        "Ġun",
        "it"
      ],
      [
        "Ġfor",
        "ward"
      ],
      [
        "Ġj",
        "oin"
      ],
      [
        "Ġsu",
        "bject"
      ],
      [
        "Ġser",
        "vice"
      ],
      [
        "Ġ",
        "educ"
      ],
      [
        "Ġe",
        "asy"
      ],
      [
        "Ġv",
        "alue"
      ],
      [
        "Ġex",
        "plain"
      ],
      [
        "Ġm",
        "ethod"
      ],
      [
        "Ġhim",
        "self"
      ],
      [
        "Ġro",
        "le"
      ],
      [
        "Ġcomm",
        "on"
      ],
      [
        "Ġre",
        "d"
      ],
      [
        "Ġintern",
        "ational"
      ],
      [
        "Ġtr",
        "ue"
      ],
      [
        "Ġplay",
        "er"
      ],
      [
        "Ġs",
        "ix"
      ],
      [
        "Ġinst",
        "ead"
      ],
      [
        "Ġt",
        "own"
      ],
      [
        "Ġs",
        "imilar"
      ],
      [
        "Ġre",
        "veal"
      ],
      [
        "Ġany",
        "one"
      ],
      [
        "Ġoffic",
        "e"
      ],
      [
        "Ġdirect",
        "or"
      ],
      [
        "Ġl",
        "ate"
      ],
      [
        "Ġr",
        "ate"
      ],
      [
        "Ġv",
        "arious"
      ],
      [
        "Ġb",
        "ar"
      ],
      [
        "Ġh",
        "ope"
      ],
      [
        "Ġs",
        "ell"
      ],
      [
        "Ġev",
        "idence"
      ],
      [
        "Ġreg",
        "ion"
      ],
      [
        "Ġinter",
        "view"
      ],
      [
        "Ġs",
        "end"
      ],
      [
        "Ġc",
        "ell"
      ],
      [
        "Ġav",
        "oid"
      ],
      [
        "Ġmeet",
        "ing"
      ],
      [
        "Ġus",
        "ually"
      ],
      [
        "Ġcont",
        "inue"
      ],
      [
        "Ġf",
        "ast"
      ],
      [
        "Ġre",
        "ady"
      ],
      [
        "Ġsit",
        "uation"
      ],
      [
        "Ġs",
        "ource"
      ],
      [
        "Ġp",
        "ull"
      ],
      [
        "Ġp",
        "arent"
      ],
      [
        "Ġsign",
        "ificant"
      ],
      [
        "Ġes",
        "pecially"
      ],
      [
        "Ġatt",
        "ention"
      ],
      [
        "Ġt",
        "en"
      ],
      [
        "Ġinclud",
        "e"
      ],
      [
        "Ġfor",
        "ce"
      ],
      [
        "Ġm",
        "aterial"
      ],
      [
        "Ġbo",
        "ard"
      ],
      [
        "Ġm",
        "usic"
      ],
      [
        "Ġpr",
        "ice"
      ],
      [
        "Ġrel",
        "ationship"
      ],
      [
        "Ġc",
        "ause"
      ],
      [
        "Ġnat",
        "ural"
      ],
      [
        "Ġv",
        "ote"
      ],
      [
        "Ġdo",
        "or"
      ],
      [
        "Ġf",
        "ederal"
      ],
      [
        "Ġm",
        "other"
      ],
      [
        "Ġsuccess",
        "ful"
      ],
      [
        "Ġr",
        "ange"
      ],
      [
        "Ġpop",
        "ular"
      ],
      [
        "Ġm",
        "ember"
      ],
      [
        "Ġc",
        "apital"
      ],
      [
        "Ġs",
        "on"
      ],
      [
        "Ġp",
        "aper"
      ],
      [
        "Ġm",
        "orning"
      ],
      [
        "Ġimp",
        "act"
      ],
      [
        "Ġrespon",
        "se"
      ],
      [
        "Ġfl",
        "oor"
      ],
      [
        "Ġph",
        "one"
      ],
      [
        "Ġp",
        "age"
      ],
      [
        "Ġq",
        "uality"
      ],
      [
        "Ġsimp",
        "le"
      ],
      [
        "Ġmy",
        "self"
      ],
      [
        "Ġtr",
        "aining"
      ],
      [
        "Ġte",
        "chnology"
      ],
      [
        "Ġw",
        "oman"
      ],
      [
        "Ġeconom",
        "ic"
      ],
      [
        "Ġd",
        "eep"
      ],
      [
        "Ġp",
        "ush"
      ],
      [
        "Ġst",
        "uff"
      ],
      [
        "Ġhap",
        "py"
      ],
      [
        "Ġan",
        "swer"
      ],
      [
        "Ġb",
        "all"
      ],
      [
        "Ġm",
        "essage"
      ],
      [
        "Ġdiscus",
        "s"
      ],
      [
        "Ġest",
        "ablish"
      ],
      [
        "Ġm",
        "edical"
      ],
      [
        "Ġf",
        "oreign"
      ],
      [
        "Ġs",
        "eek"
      ],
      [
        "Ġph",
        "ysical"
      ],
      [
        "Ġp",
        "oor"
      ],
      [
        "Ġperform",
        "ance"
      ],
      [
        "Ġco",
        "uple"
      ],
      [
        "Ġo",
        "ccur"
      ],
      [
        "Ġpl",
        "ant"
      ],
      [
        "Ġex",
        "actly"
      ],
      [
        "Ġg",
        "un"
      ],
      [
        "Ġbl",
        "ood"
      ],
      [
        "Ġyour",
        "self"
      ],
      [
        "Ġd",
        "raw"
      ],
      [
        "Ġsc",
        "ience"
      ],
      [
        "Ġb",
        "ase"
      ],
      [
        "Ġh",
        "uge"
      ],
      [
        "emocrat",
        "ic"
      ],
      [
        "Ġn",
        "early"
      ],
      [
        "Ġfir",
        "m"
      ],
      [
        "Ġmod",
        "ern"
      ],
      [
        "Ġfin",
        "ish"
      ],
      [
        "Ġme",
        "asure"
      ],
      [
        "Ġth",
        "ousand"
      ],
      [
        "Ġb",
        "ill"
      ],
      [
        "Ġfin",
        "ancial"
      ],
      [
        "Ġs",
        "ize"
      ],
      [
        "Ġsk",
        "ill"
      ],
      [
        "Ġtr",
        "avel"
      ],
      [
        "Ġbo",
        "x"
      ],
      [
        "Ġth",
        "ank"
      ],
      [
        "Ġan",
        "imal"
      ],
      [
        "Ġn",
        "ecessary"
      ],
      [
        "Ġp",
        "iece"
      ],
      [
        "Ġch",
        "arge"
      ],
      [
        "Ġd",
        "og"
      ],
      [
        "Ġcare",
        "er"
      ],
      [
        "Ġcomp",
        "uter"
      ],
      [
        "Ġc",
        "ivil"
      ],
      [
        "Ġfact",
        "or"
      ],
      [
        "Ġcar",
        "ry"
      ],
      [
        "Ġs",
        "ort"
      ],
      [
        "Ġst",
        "aff"
      ],
      [
        "Ġt",
        "ype"
      ],
      [
        "Ġfeel",
        "ing"
      ],
      [
        "Ġsoci",
        "ety"
      ],
      [
        "Ġr",
        "ace"
      ],
      [
        "Ġs",
        "ong"
      ],
      [
        "Ġs",
        "ummer"
      ],
      [
        "Ġw",
        "onder"
      ],
      [
        "Ġd",
        "escri"
      ],
      [
        "Ġqu",
        "ickly"
      ],
      [
        "Ġfinal",
        "ly"
      ],
      [
        "Ġf",
        "ear"
      ],
      [
        "Ġmain",
        "tain"
      ],
      [
        "Ġpr",
        "actice"
      ],
      [
        "Ġf",
        "ather"
      ],
      [
        "Ġf",
        "igure"
      ],
      [
        "y",
        "ond"
      ],
      [
        "Ġn",
        "ice"
      ],
      [
        "Ġt",
        "able"
      ],
      [
        "Ġin",
        "side"
      ],
      [
        "Ġspe",
        "cific"
      ],
      [
        "Ġm",
        "ention"
      ],
      [
        "Ġa",
        "ffect"
      ],
      [
        "Ġe",
        "ight"
      ],
      [
        "Ġs",
        "ection"
      ],
      [
        "Ġresp",
        "ond"
      ],
      [
        "Ġrem",
        "ember"
      ],
      [
        "Ġv",
        "oice"
      ],
      [
        "Ġtr",
        "aditional"
      ],
      [
        "Ġim",
        "age"
      ],
      [
        "Ġf",
        "ly"
      ],
      [
        "Ġgrow",
        "th"
      ],
      [
        "Ġsp",
        "eech"
      ],
      [
        "Ġent",
        "er"
      ],
      [
        "Ġdiscus",
        "sion"
      ],
      [
        "Ġthro",
        "w"
      ],
      [
        "Ġprof",
        "essional"
      ],
      [
        "Ġst",
        "ore"
      ],
      [
        "Ġcent",
        "er"
      ],
      [
        "Ġup",
        "on"
      ],
      [
        "Ġinterest",
        "ing"
      ],
      [
        "Ġcertain",
        "ly"
      ],
      [
        "Ġbe",
        "yond"
      ],
      [
        "Ġpre",
        "vent"
      ],
      [
        "Ġcont",
        "ain"
      ],
      [
        "Ġcr",
        "ime"
      ],
      [
        "Ġal",
        "though"
      ],
      [
        "Ġc",
        "olor"
      ],
      [
        "Ġlead",
        "er"
      ],
      [
        "Ġn",
        "ation"
      ],
      [
        "Ġo",
        "pportunity"
      ],
      [
        "Ġmov",
        "ement"
      ],
      [
        "Ġtri",
        "al"
      ],
      [
        "Ġch",
        "ance"
      ],
      [
        "Ġm",
        "iddle"
      ],
      [
        "Ġor",
        "ganization"
      ],
      [
        "Ġl",
        "anguage"
      ],
      [
        "Ġproduct",
        "ion"
      ],
      [
        "Ġre",
        "ceive"
      ],
      [
        "Ġsomet",
        "imes"
      ],
      [
        "Ġcult",
        "ure"
      ],
      [
        "Ġt",
        "ask"
      ],
      [
        "Ġgu",
        "y"
      ],
      [
        "Ġadm",
        "inistration"
      ],
      [
        "Ġparticular",
        "ly"
      ],
      [
        "Ġd",
        "ream"
      ],
      [
        "Ġh",
        "undred"
      ],
      [
        "Ġch",
        "oice"
      ],
      [
        "Ġpro",
        "perty"
      ],
      [
        "Ġbeh",
        "avior"
      ],
      [
        "Ġper",
        "haps"
      ],
      [
        "Ġg",
        "as"
      ],
      [
        "Ġd",
        "rive"
      ],
      [
        "Ġstud",
        "ent"
      ],
      [
        "Ġwr",
        "ite"
      ],
      [
        "Ġmajor",
        "ity"
      ],
      [
        "Ġl",
        "ay"
      ],
      [
        "Ġst",
        "reet"
      ],
      [
        "Ġeduc",
        "ation"
      ],
      [
        "Ġknow",
        "ledge"
      ],
      [
        "Ġro",
        "ad"
      ],
      [
        "Ġd",
        "ark"
      ],
      [
        "Ġwh",
        "ose"
      ],
      [
        "Ġh",
        "air"
      ],
      [
        "Ġro",
        "ck"
      ],
      [
        "Ġl",
        "oss"
      ],
      [
        "Ġw",
        "all"
      ],
      [
        "Ġtr",
        "ade"
      ],
      [
        "Ġcent",
        "ral"
      ],
      [
        "Ġex",
        "pert"
      ],
      [
        "Ġw",
        "ish"
      ],
      [
        "Ġt",
        "end"
      ],
      [
        "Ġc",
        "itizen"
      ],
      [
        "Ġst",
        "yle"
      ],
      [
        "Ġpress",
        "ure"
      ],
      [
        "Ġwind",
        "ow"
      ],
      [
        "Ġch",
        "air"
      ],
      [
        "Ġw",
        "ear"
      ],
      [
        "Ġm",
        "ission"
      ],
      [
        "Ġg",
        "reen"
      ],
      [
        "Ġf",
        "ill"
      ],
      [
        "Ġo",
        "il"
      ],
      [
        "Ġcon",
        "ference"
      ],
      [
        "Ġdo",
        "ctor"
      ],
      [
        "Ġch",
        "oose"
      ],
      [
        "Ġwh",
        "atever"
      ],
      [
        "Ġan",
        "alysis"
      ],
      [
        "Ġeconom",
        "y"
      ],
      [
        "Ġdef",
        "ense"
      ],
      [
        "Ġart",
        "ist"
      ],
      [
        "Ġp",
        "icture"
      ],
      [
        "Ġw",
        "ife"
      ],
      [
        "Ġnat",
        "ure"
      ],
      [
        "Ġpos",
        "itive"
      ],
      [
        "Ġst",
        "age"
      ],
      [
        "Ġoffic",
        "er"
      ],
      [
        "Ġlist",
        "en"
      ],
      [
        "Ġag",
        "ree"
      ],
      [
        "Ġse",
        "ven"
      ],
      [
        "Ġdifferen",
        "ce"
      ],
      [
        "Ġit",
        "em"
      ],
      [
        "Ġnor",
        "th"
      ],
      [
        "Ġde",
        "bate"
      ],
      [
        "Ġf",
        "ish"
      ],
      [
        "Ġr",
        "ich"
      ],
      [
        "Ġmov",
        "ie"
      ],
      [
        "Ġcoll",
        "ege"
      ],
      [
        "Ġb",
        "udget"
      ],
      [
        "Ġf",
        "ine"
      ],
      [
        "Ġstr",
        "ucture"
      ],
      [
        "Ġal",
        "one"
      ],
      [
        "Ġreal",
        "ity"
      ],
      [
        "Ġmay",
        "be"
      ],
      [
        "Ġsa",
        "fe"
      ],
      [
        "Ġl",
        "etter"
      ],
      [
        "Ġre",
        "flect"
      ],
      [
        "Ġch",
        "allenge"
      ],
      [
        "Ġsp",
        "ort"
      ],
      [
        "Ġpolit",
        "ics"
      ],
      [
        "Ġhe",
        "avy"
      ],
      [
        "Ġdes",
        "pite"
      ],
      [
        "Ġinvest",
        "ment"
      ],
      [
        "Ġdirect",
        "ion"
      ],
      [
        "Ġa",
        "head"
      ],
      [
        "Ġnot",
        "ice"
      ],
      [
        "Ġb",
        "eautiful"
      ],
      [
        "Ġs",
        "ave"
      ],
      [
        "ĠT",
        "V"
      ],
      [
        "Ġsc",
        "ore"
      ],
      [
        "Ġbe",
        "at"
      ],
      [
        "Ġwe",
        "ight"
      ],
      [
        "Ġse",
        "at"
      ],
      [
        "Ġl",
        "ose"
      ],
      [
        "Ġwh",
        "om"
      ],
      [
        "Ġnews",
        "paper"
      ],
      [
        "Ġs",
        "cientist"
      ],
      [
        "Ġact",
        "ivity"
      ],
      [
        "Ġc",
        "atch"
      ],
      [
        "Ġcent",
        "ury"
      ],
      [
        "Ġco",
        "ach"
      ],
      [
        "Ġim",
        "agine"
      ],
      [
        "Ġb",
        "rother"
      ],
      [
        "Ġsc",
        "ene"
      ],
      [
        "Ġtr",
        "uth"
      ],
      [
        "Ġpe",
        "ace"
      ],
      [
        "Ġmanag",
        "er"
      ],
      [
        "Ġthrough",
        "out"
      ],
      [
        "Ġwor",
        "ry"
      ],
      [
        "Ġsur",
        "face"
      ],
      [
        "Ġch",
        "urch"
      ],
      [
        "Ġcult",
        "ural"
      ],
      [
        "Ġst",
        "ation"
      ],
      [
        "Ġl",
        "augh"
      ],
      [
        "Ġatt",
        "orney"
      ],
      [
        "Ġr",
        "ise"
      ],
      [
        "Ġst",
        "ock"
      ],
      [
        "Ġr",
        "ule"
      ],
      [
        "Ġind",
        "eed"
      ],
      [
        "Ġad",
        "ult"
      ],
      [
        "Ġdec",
        "ade"
      ],
      [
        "Ġsp",
        "ring"
      ],
      [
        "Ġinst",
        "itution"
      ],
      [
        "Ġe",
        "ye"
      ],
      [
        "Ġprof",
        "essor"
      ],
      [
        "Ġr",
        "aise"
      ],
      [
        "Ġb",
        "ed"
      ],
      [
        "Ġd",
        "rop"
      ],
      [
        "Ġsu",
        "ffer"
      ],
      [
        "Ġe",
        "ast"
      ],
      [
        "Ġbo",
        "y"
      ],
      [
        "Ġb",
        "ag"
      ],
      [
        "Ġs",
        "ea"
      ],
      [
        "Ġex",
        "ecutive"
      ],
      [
        "Ġtri",
        "p"
      ],
      [
        "Ġm",
        "inute"
      ],
      [
        "Ġres",
        "ource"
      ],
      [
        "Ġm",
        "emory"
      ],
      [
        "Ġc",
        "andidate"
      ],
      [
        "Ġpre",
        "pare"
      ],
      [
        "ĠD",
        "e"
      ],
      [
        "Ġapp",
        "ly"
      ],
      [
        "Ġbl",
        "ue"
      ],
      [
        "Ġag",
        "ency"
      ],
      [
        "Ġrespon",
        "sibility"
      ],
      [
        "Ġnot",
        "e"
      ],
      [
        "Ġser",
        "ve"
      ],
      [
        "Ġevery",
        "body"
      ],
      [
        "Ġag",
        "reement"
      ],
      [
        "Ġt",
        "elevision"
      ],
      [
        "Ġy",
        "ard"
      ],
      [
        "Ġwr",
        "iter"
      ],
      [
        "Ġp",
        "urpose"
      ],
      [
        "Ġpro",
        "duce"
      ],
      [
        "Ġthe",
        "ory"
      ],
      [
        "Ġc",
        "ustomer"
      ],
      [
        "Ġto",
        "ugh"
      ],
      [
        "Ġcl",
        "early"
      ],
      [
        "Ġgu",
        "ess"
      ],
      [
        "Ġh",
        "usband"
      ],
      [
        "Ġs",
        "enior"
      ],
      [
        "Ġon",
        "to"
      ],
      [
        "Ġsk",
        "in"
      ],
      [
        "Ġg",
        "lass"
      ],
      [
        "er",
        "cial"
      ],
      [
        "Ġcomm",
        "ercial"
      ],
      [
        "Ġcoll",
        "ection"
      ],
      [
        "Ġenvironment",
        "al"
      ],
      [
        "Ġm",
        "arriage"
      ],
      [
        "Ġd",
        "aughter"
      ],
      [
        "Ġstr",
        "ategy"
      ],
      [
        "Ġb",
        "aby"
      ],
      [
        "Ġgen",
        "eration"
      ],
      [
        "Ġa",
        "udience"
      ],
      [
        "Ġow",
        "ner"
      ],
      [
        "Ġdet",
        "ermine"
      ],
      [
        "Ġw",
        "ide"
      ],
      [
        "Ġmanag",
        "ement"
      ],
      [
        "Ġt",
        "rouble"
      ],
      [
        "Ġcons",
        "umer"
      ],
      [
        "Ġm",
        "outh"
      ],
      [
        "Ġy",
        "es"
      ],
      [
        "Ġe",
        "at"
      ],
      [
        "Ġident",
        "ify"
      ],
      [
        "Ġh",
        "erself"
      ],
      [
        "Ġrel",
        "igious"
      ],
      [
        "Ġpart",
        "ner"
      ],
      [
        "Ġth",
        "us"
      ],
      [
        "Ġm",
        "agazine"
      ],
      [
        "Ġreal",
        "ize"
      ],
      [
        "Ġn",
        "one"
      ],
      [
        "Ġar",
        "gue"
      ],
      [
        "Ġc",
        "old"
      ],
      [
        "Ġimprov",
        "e"
      ],
      [
        "Ġem",
        "ployee"
      ],
      [
        "Ġr",
        "adio"
      ],
      [
        "Ġo",
        "k"
      ],
      [
        "Ġd",
        "inner"
      ],
      [
        "Ġ",
        "edge"
      ],
      [
        "Ġauthor",
        "ity"
      ],
      [
        "Ġpartic",
        "ipant"
      ],
      [
        "Ġk",
        "itchen"
      ],
      [
        "Ġeven",
        "ing"
      ],
      [
        "Ġfor",
        "get"
      ],
      [
        "Ġm",
        "achine"
      ],
      [
        "Ġprov",
        "e"
      ],
      [
        "Ġag",
        "ent"
      ],
      [
        "Ġc",
        "amera"
      ],
      [
        "Ġdec",
        "ide"
      ],
      [
        "Ġoper",
        "ation"
      ],
      [
        "Ġp",
        "attern"
      ],
      [
        "Ġc",
        "up"
      ],
      [
        "Ġsome",
        "body"
      ],
      [
        "Ġinvol",
        "ve"
      ],
      [
        "Ġy",
        "eah"
      ],
      [
        "Ġhot",
        "el"
      ],
      [
        "Ġmanag",
        "e"
      ],
      [
        "Ġpain",
        "ting"
      ],
      [
        "Ġdisc",
        "over"
      ],
      [
        "Ġsm",
        "ile"
      ],
      [
        "Ġadm",
        "it"
      ],
      [
        "Ġteach",
        "er"
      ],
      [
        "Ġg",
        "arden"
      ],
      [
        "Ġde",
        "gree"
      ],
      [
        "Ġwork",
        "er"
      ],
      [
        "ĠE",
        "n"
      ],
      [
        "Ġsouth",
        "ern"
      ],
      [
        "Ġlaw",
        "yer"
      ],
      [
        "Ġrec",
        "ognize"
      ],
      [
        "Ġsh",
        "ake"
      ],
      [
        "Ġt",
        "ree"
      ],
      [
        "Ġs",
        "ister"
      ],
      [
        "Ġass",
        "ume"
      ],
      [
        "Ġb",
        "orn"
      ],
      [
        "Ġdescri",
        "be"
      ],
      [
        "Ġt",
        "onight"
      ],
      [
        "Ġwest",
        "ern"
      ],
      [
        "ĠP",
        "M"
      ],
      [
        "Ġs",
        "uddenly"
      ],
      [
        "Ġshould",
        "er"
      ],
      [
        "Ġd",
        "emocratic"
      ],
      [
        "Ġs",
        "oldier"
      ],
      [
        "Ġrel",
        "ate"
      ],
      [
        "8",
        "6"
      ],
      [
        "Ġar",
        "rive"
      ],
      [
        "Ġ",
        "\""
      ],
      [
        "ĠA",
        "d"
      ],
      [
        "7",
        "6"
      ],
      [
        "I",
        "n"
      ],
      [
        "ĠP",
        "l"
      ],
      [
        "2",
        "1"
      ],
      [
        "8",
        "4"
      ],
      [
        "7",
        "4"
      ],
      [
        "8",
        "3"
      ],
      [
        "ĠM",
        "e"
      ],
      [
        "7",
        "3"
      ],
      [
        "ĠB",
        "e"
      ],
      [
        "ĠD",
        "i"
      ],
      [
        "ĠI",
        "m"
      ],
      [
        "5",
        "6"
      ],
      [
        "ro",
        "w"
      ],
      [
        "ĠO",
        "n"
      ],
      [
        "5",
        "4"
      ],
      [
        "5",
        "3"
      ],
      [
        "ĠP",
        "r"
      ],
      [
        "8",
        "2"
      ],
      [
        "7",
        "2"
      ],
      [
        "Ġh",
        "ad"
      ],
      [
        "0",
        "9"
      ],
      [
        "W",
        "h"
      ],
      [
        "ĠI",
        "nd"
      ],
      [
        "Ġ",
        "Q"
      ],
      [
        "ĠS",
        "e"
      ],
      [
        "Ġwe",
        "re"
      ],
      [
        "5",
        "2"
      ],
      [
        "ĠC",
        "l"
      ],
      [
        "!",
        "!"
      ],
      [
        "1",
        "00"
      ],
      [
        "Ġbe",
        "en"
      ],
      [
        "ĠM",
        "an"
      ],
      [
        "9",
        "6"
      ],
      [
        "ĠP",
        "ol"
      ],
      [
        "1",
        "35"
      ],
      [
        "ĠN",
        "ew"
      ],
      [
        "9",
        "4"
      ],
      [
        "9",
        "3"
      ],
      [
        "ĠA",
        "ct"
      ],
      [
        "p",
        "on"
      ],
      [
        "ĠP",
        "er"
      ],
      [
        "ĠF",
        "in"
      ],
      [
        "ĠE",
        "very"
      ],
      [
        "ĠR",
        "ec"
      ],
      [
        "ĠRe",
        "al"
      ],
      [
        "1",
        "40"
      ],
      [
        "9",
        "2"
      ],
      [
        "ĠW",
        "e"
      ],
      [
        "R",
        "e"
      ],
      [
        "15",
        "0"
      ],
      [
        "12",
        "0"
      ],
      [
        "11",
        "0"
      ],
      [
        "13",
        "0"
      ],
      [
        "ĠS",
        "o"
      ],
      [
        "3",
        "1"
      ],
      [
        "ĠB",
        "l"
      ],
      [
        "o",
        "ok"
      ],
      [
        "4",
        "1"
      ],
      [
        "ĠL",
        "e"
      ],
      [
        "6",
        "1"
      ],
      [
        "ĠS",
        "c"
      ],
      [
        "ĠS",
        "p"
      ],
      [
        "ĠO",
        "r"
      ],
      [
        "ĠC",
        "ent"
      ],
      [
        "ĠW",
        "ith"
      ],
      [
        "ĠN",
        "ot"
      ],
      [
        "ĠA",
        "pp"
      ],
      [
        "ĠS",
        "er"
      ],
      [
        ".",
        "âĢĿ"
      ],
      [
        "P",
        "ro"
      ],
      [
        "ĠS",
        "ome"
      ],
      [
        "ĠP",
        "re"
      ],
      [
        "ĠO",
        "ffic"
      ],
      [
        "ĠQ",
        "u"
      ],
      [
        ".",
        "."
      ],
      [
        "ĠAr",
        "t"
      ],
      [
        "ĠA",
        "tt"
      ],
      [
        "ĠIn",
        "c"
      ],
      [
        "ĠAn",
        "y"
      ],
      [
        "A",
        "l"
      ],
      [
        "ĠB",
        "u"
      ],
      [
        "ĠD",
        "ec"
      ],
      [
        "ĠR",
        "el"
      ],
      [
        "ĠIn",
        "ter"
      ],
      [
        "8",
        "1"
      ],
      [
        "ĠD",
        "isc"
      ],
      [
        "ĠPart",
        "ic"
      ],
      [
        "0",
        "5"
      ],
      [
        "'",
        "t"
      ],
      [
        "7",
        "1"
      ],
      [
        "ĠP",
        "os"
      ],
      [
        "ĠA",
        "s"
      ],
      [
        "ĠA",
        "nd"
      ],
      [
        "Ġ",
        "25"
      ],
      [
        "ĠB",
        "ut"
      ],
      [
        "ers",
        "on"
      ],
      [
        "ĠU",
        "n"
      ],
      [
        "ro",
        "ugh"
      ],
      [
        "0",
        "7"
      ],
      [
        "e",
        "el"
      ],
      [
        "I",
        "t"
      ],
      [
        "0",
        "8"
      ],
      [
        "Ġ",
        "-"
      ],
      [
        "r",
        "a"
      ],
      [
        "âĢ",
        "ľ"
      ],
      [
        "Ġ",
        "30"
      ],
      [
        "ĠM",
        "ay"
      ],
      [
        "Ġ",
        "27"
      ],
      [
        "ĠH",
        "ow"
      ],
      [
        "al",
        "ly"
      ],
      [
        "5",
        "1"
      ],
      [
        "Ġ",
        "28"
      ],
      [
        "rov",
        "e"
      ],
      [
        "00",
        "0"
      ],
      [
        "ĠP",
        "h"
      ],
      [
        "C",
        "h"
      ],
      [
        ",",
        "âĢĿ"
      ],
      [
        "ĠN",
        "or"
      ],
      [
        "Ġ",
        "45"
      ],
      [
        "ĠAl",
        "l"
      ],
      [
        "ĠT",
        "e"
      ],
      [
        "C",
        "on"
      ],
      [
        "Ġ",
        "38"
      ],
      [
        "Ġ",
        "37"
      ],
      [
        "Ġ",
        "48"
      ],
      [
        "ĠA",
        "m"
      ],
      [
        "ĠE",
        "l"
      ],
      [
        "ĠCom",
        "m"
      ],
      [
        "Ġ",
        "47"
      ],
      [
        "ĠR",
        "o"
      ],
      [
        "Ġ",
        "99"
      ],
      [
        "Ġ",
        "67"
      ],
      [
        "Ġ",
        "68"
      ],
      [
        "Ġ1",
        "9"
      ],
      [
        "ĠW",
        "est"
      ],
      [
        "ĠT",
        "o"
      ],
      [
        "Ġd",
        "id"
      ],
      [
        "Ġ1",
        "25"
      ],
      [
        "Ġ1",
        "28"
      ],
      [
        "Ġ1",
        "27"
      ],
      [
        "Ġ1",
        "35"
      ],
      [
        "Ġ1",
        "45"
      ],
      [
        "i",
        "an"
      ],
      [
        "Ġ1",
        "18"
      ],
      [
        "Ġ1",
        "17"
      ],
      [
        "Ġ1",
        "47"
      ],
      [
        "Ġ1",
        "38"
      ],
      [
        "Ġ1",
        "37"
      ],
      [
        "Ġ1",
        "48"
      ],
      [
        "ĠW",
        "or"
      ],
      [
        "0",
        "6"
      ],
      [
        "ĠG",
        "o"
      ],
      [
        "o",
        "und"
      ],
      [
        "ĠC",
        "ar"
      ],
      [
        "Ġ",
        "60"
      ],
      [
        "ĠY",
        "ou"
      ],
      [
        "ĠS",
        "u"
      ],
      [
        "E",
        "x"
      ],
      [
        "ĠC",
        "o"
      ],
      [
        "0",
        "4"
      ],
      [
        ".",
        "\""
      ],
      [
        "ĠD",
        "o"
      ],
      [
        "ĠS",
        "ec"
      ],
      [
        "ĠS",
        "outh"
      ],
      [
        "Ġ",
        "29"
      ],
      [
        "0",
        "3"
      ],
      [
        "ĠIn",
        "st"
      ],
      [
        "ĠM",
        "y"
      ],
      [
        "0",
        "2"
      ],
      [
        "ĠA",
        "b"
      ],
      [
        "14",
        "9"
      ],
      [
        "12",
        "9"
      ],
      [
        "10",
        "9"
      ],
      [
        "11",
        "9"
      ],
      [
        "13",
        "9"
      ],
      [
        "ĠP",
        "e"
      ],
      [
        "ĠG",
        "en"
      ],
      [
        "ĠB",
        "o"
      ],
      [
        "ĠS",
        "m"
      ],
      [
        "ĠC",
        "our"
      ],
      [
        "Ġ",
        "49"
      ],
      [
        "Ġ",
        "39"
      ],
      [
        "ĠNew",
        "s"
      ],
      [
        "ĠCon",
        "t"
      ],
      [
        "Ġ1",
        "15"
      ],
      [
        "ĠC",
        "har"
      ],
      [
        "Ġ1",
        "20"
      ],
      [
        "ik",
        "e"
      ],
      [
        "Ġ",
        "69"
      ],
      [
        "Ġ1",
        "30"
      ],
      [
        "Ġ1",
        "40"
      ],
      [
        "12",
        "5"
      ],
      [
        "ĠThe",
        "y"
      ],
      [
        "Ġd",
        "on"
      ],
      [
        "11",
        "5"
      ],
      [
        "10",
        "5"
      ],
      [
        "ĠC",
        "oll"
      ],
      [
        "ĠB",
        "ec"
      ],
      [
        "14",
        "5"
      ],
      [
        "Ġ1",
        "49"
      ],
      [
        "Ġ1",
        "29"
      ],
      [
        "Ġ1",
        "19"
      ],
      [
        "ĠE",
        "ven"
      ],
      [
        "ĠF",
        "ir"
      ],
      [
        "Ġ1",
        "39"
      ],
      [
        "ĠCom",
        "p"
      ],
      [
        "ĠS",
        "oci"
      ],
      [
        "!!",
        "!!"
      ],
      [
        "ĠA",
        "c"
      ],
      [
        "ĠâĢ",
        "ĵ"
      ],
      [
        "Ġyear",
        "s"
      ],
      [
        "ĠL",
        "aw"
      ],
      [
        "ĠCon",
        "s"
      ],
      [
        "ĠA",
        "cc"
      ],
      [
        "10",
        "7"
      ],
      [
        "11",
        "7"
      ],
      [
        "12",
        "7"
      ],
      [
        "13",
        "7"
      ],
      [
        "14",
        "7"
      ],
      [
        "ĠW",
        "ind"
      ],
      [
        "ĠY",
        "our"
      ],
      [
        "ĠD",
        "es"
      ],
      [
        "ĠSt",
        "ud"
      ],
      [
        "ĠM",
        "od"
      ],
      [
        "12",
        "8"
      ],
      [
        "10",
        "8"
      ],
      [
        "11",
        "8"
      ],
      [
        "14",
        "8"
      ],
      [
        "13",
        "8"
      ],
      [
        "l",
        "l"
      ],
      [
        "ĠS",
        "k"
      ],
      [
        "ĠPl",
        "ay"
      ],
      [
        "ĠDi",
        "rect"
      ],
      [
        "ĠI",
        "f"
      ],
      [
        "ĠD",
        "et"
      ],
      [
        "ĠU",
        "s"
      ],
      [
        "ĠN",
        "at"
      ],
      [
        "ĠS",
        "pe"
      ],
      [
        "ĠAd",
        "m"
      ],
      [
        "ĠU",
        "nd"
      ],
      [
        "ĠAd",
        "d"
      ],
      [
        "ĠS",
        "ing"
      ],
      [
        "ĠI",
        "d"
      ],
      [
        "Ġ",
        "$"
      ],
      [
        "ĠPro",
        "f"
      ],
      [
        "ĠDe",
        "velop"
      ],
      [
        "ĠT",
        "ri"
      ],
      [
        "ĠR",
        "em"
      ],
      [
        "ĠSt",
        "r"
      ],
      [
        "ĠO",
        "ut"
      ],
      [
        "ĠMan",
        "ag"
      ],
      [
        "ĠW",
        "ork"
      ],
      [
        "ĠS",
        "ign"
      ],
      [
        "ĠPol",
        "it"
      ],
      [
        "ĠSt",
        "and"
      ],
      [
        "ĠA",
        "uthor"
      ],
      [
        "ĠH",
        "ot"
      ],
      [
        "ĠM",
        "ain"
      ],
      [
        "ĠS",
        "omet"
      ],
      [
        "ĠC",
        "are"
      ],
      [
        "ĠAg",
        "ain"
      ],
      [
        "ĠIm",
        "p"
      ],
      [
        "ĠL",
        "ead"
      ],
      [
        "ĠP",
        "erson"
      ],
      [
        "ĠK",
        "now"
      ],
      [
        "ĠH",
        "ear"
      ],
      [
        "ĠS",
        "imp"
      ],
      [
        "er",
        "y"
      ],
      [
        "Ġbe",
        "ing"
      ],
      [
        "ĠP",
        "op"
      ],
      [
        "ĠS",
        "uccess"
      ],
      [
        "ĠL",
        "ist"
      ],
      [
        "ĠS",
        "it"
      ],
      [
        "ĠBu",
        "ild"
      ],
      [
        "ĠM",
        "ov"
      ],
      [
        "ĠE",
        "conom"
      ],
      [
        "ĠH",
        "im"
      ],
      [
        "ĠF",
        "eel"
      ],
      [
        "ĠO",
        "w"
      ],
      [
        "ĠPartic",
        "ular"
      ],
      [
        "ĠRec",
        "ent"
      ],
      [
        "ĠPro",
        "duct"
      ],
      [
        "ĠH",
        "ap"
      ],
      [
        "ĠTh",
        "rough"
      ],
      [
        "ĠEn",
        "vironment"
      ],
      [
        "ĠDi",
        "fferen"
      ],
      [
        "ĠSh",
        "ould"
      ],
      [
        "ĠM",
        "ajor"
      ],
      [
        "ĠInter",
        "est"
      ],
      [
        "ĠT",
        "reat"
      ],
      [
        "ĠC",
        "ult"
      ],
      [
        "O",
        "n"
      ],
      [
        "ĠPer",
        "form"
      ],
      [
        "ĠW",
        "r"
      ],
      [
        "ĠA",
        "v"
      ],
      [
        "ĠThe",
        "m"
      ],
      [
        "ĠF",
        "act"
      ],
      [
        "ĠC",
        "ertain"
      ],
      [
        "ĠInc",
        "lud"
      ],
      [
        "ĠRes",
        "pon"
      ],
      [
        "ĠDisc",
        "us"
      ],
      [
        "ĠBe",
        "h"
      ],
      [
        "ĠG",
        "row"
      ],
      [
        "ĠT",
        "each"
      ],
      [
        "T",
        "r"
      ],
      [
        "W",
        "e"
      ],
      [
        "ĠMe",
        "et"
      ],
      [
        "or",
        "s"
      ],
      [
        "ĠThe",
        "re"
      ],
      [
        "ĠTh",
        "at"
      ],
      [
        "S",
        "h"
      ],
      [
        ",",
        "\""
      ],
      [
        "Ġd",
        "is"
      ],
      [
        "ĠâĢ",
        "Ķ"
      ],
      [
        "A",
        "r"
      ],
      [
        "Ġ1",
        "1"
      ],
      [
        "C",
        "om"
      ],
      [
        "Ġdo",
        "es"
      ],
      [
        "c",
        "es"
      ],
      [
        "9",
        "1"
      ],
      [
        "10",
        "6"
      ],
      [
        "11",
        "6"
      ],
      [
        "14",
        "6"
      ],
      [
        "12",
        "6"
      ],
      [
        "13",
        "6"
      ],
      [
        "en",
        "s"
      ],
      [
        "ĠS",
        "he"
      ],
      [
        "as",
        "ed"
      ],
      [
        "um",
        "p"
      ],
      [
        "A",
        "d"
      ],
      [
[...]
