{
  "version": "1.0",
  "truncation": null,
  "padding": null,
  "added_tokens": [
    {
      "id": 0,
      "content": "[PAD]",
      "single_word": false,
      "lstrip": false,
      "rstrip": false,
      "normalized": false,
      "special": true
    },
    {
      "id": 1,
      "content": "[UNK]",
      "single_word": false,
      "lstrip": false,
      "rstrip": false,
      "normalized": false,
      "special": true
    },
    {
      "id": 2,
      "content": "[CLS]",
      "single_word": false,
      "lstrip": false,
      "rstrip": false,
      "normalized": false,
      "special": true
    },
    {
      "id": 3,
      "content": "[SEP]",
      "single_word": false,
      "lstrip": false,
      "rstrip": false,
      "normalized": false,
      "special": true
    },
    {
      "id": 4,
      "content": "[MASK]",
      "single_word": false,
      "lstrip": false,
      "rstrip": false,
      "normalized": false,
      "special": true
    },
    {
      "id": 5,
      "content": "[BOS]",
      "single_word": false,
      "lstrip": false,
      "rstrip": false,
      "normalized": false,
      "special": true
    },
    {
      "id": 6,
      "content": "[EOS]",
      "single_word": false,
      "lstrip": false,
      "rstrip": false,
      "normalized": false,
      "special": true
    }
  ],
  "normalizer": null,
  "pre_tokenizer": {
    "type": "ByteLevel",
    "add_prefix_space": true,
    "trim_offsets": true,
    "use_regex": true
  },
  "post_processor": null,
  "decoder": {
    "type": "ByteLevel",
    "add_prefix_space": true,
    "trim_offsets": true,
    "use_regex": true
  },
  "model": {
    "type": "BPE",
    "dropout": 0.1,
    "unk_token": "[UNK]",
    "continuing_subword_prefix": null,
    "end_of_word_suffix": null,
    "fuse_unk": false,
    "byte_fallback": false,
    "ignore_merges": false,
    "vocab": {
      "[PAD]": 0,
      "[UNK]": 1,
      "[CLS]": 2,
      "[SEP]": 3,
      "[MASK]": 4,
      "[BOS]": 5,
      "[EOS]": 6,
      "!": 7,
      "\"": 8,
      "#": 9,
      "$": 10,
      "%": 11,
      "&": 12,
      "'": 13,
      "(": 14,
      ")": 15,
      "*": 16,
      "+": 17,
      ",": 18,
      "-": 19,
      ".": 20,
      "/": 21,
      "0": 22,
      "1": 23,
      "2": 24,
      "3": 25,
      "4": 26,
      "5": 27,
      "6": 28,
      "7": 29,
      "8": 30,
      "9": 31,
      ":": 32,
      ";": 33,
      "<": 34,
      "=": 35,
      ">": 36,
      "?": 37,
      "@": 38,
      "A": 39,
      "B": 40,
      "C": 41,
      "D": 42,
      "E": 43,
      "F": 44,
      "G": 45,
      "H": 46,
      "I": 47,
      "J": 48,
      "K": 49,
      "L": 50,
      "M": 51,
      "N": 52,
      "O": 53,
      "P": 54,
      "Q": 55,
      "R": 56,
      "S": 57,
      "T": 58,
      "U": 59,
      "V": 60,
      "W": 61,
      "X": 62,
      "Y": 63,
      "Z": 64,
      "[": 65,
      "\\": 66,
      "]": 67,
      "^": 68,
      "_": 69,
      "`": 70,
      "a": 71,
      "b": 72,
      "c": 73,
      "d": 74,
      "e": 75,
      "f": 76,
      "g": 77,
      "h": 78,
      "i": 79,
      "j": 80,
      "k": 81,
      "l": 82,
      "m": 83,
      "n": 84,
      "o": 85,
      "p": 86,
      "q": 87,
      "r": 88,
      "s": 89,
      "t": 90,
      "u": 91,
      "v": 92,
      "w": 93,
      "x": 94,
      "y": 95,
      "z": 96,
      "{": 97,
      "|": 98,
      "}": 99,
      "~": 100,
      "¡": 101,
      "¢": 102,
      "£": 103,
      "¤": 104,
      "¥": 105,
      "¦": 106,
      "§": 107,
      "¨": 108,
      "©": 109,
      "ª": 110,
      "«": 111,
      "¬": 112,
      "®": 113,
      "¯": 114,
      "°": 115,
      "±": 116,
      "²": 117,
      "³": 118,
      "´": 119,
      "µ": 120,
      "¶": 121,
      "·": 122,
      "¸": 123,
      "¹": 124,
      "º": 125,
      "»": 126,
      "¼": 127,
      "½": 128,
      "¾": 129,
      "¿": 130,
      "À": 131,
      "Á": 132,
      "Â": 133,
      "Ã": 134,
      "Ä": 135,
      "Å": 136,
      "Æ": 137,
      "Ç": 138,
      "È": 139,
      "É": 140,
      "Ê": 141,
      "Ë": 142,
      "Ì": 143,
      "Í": 144,
      "Î": 145,
      "Ï": 146,
      "Ð": 147,
      "Ñ": 148,
      "Ò": 149,
      "Ó": 150,
      "Ô": 151,
      "Õ": 152,
      "Ö": 153,
      "×": 154,
      "Ø": 155,
      "Ù": 156,
      "Ú": 157,
      "Û": 158,
      "Ü": 159,
      "Ý": 160,
      "Þ": 161,
      "ß": 162,
      "à": 163,
      "á": 164,
      "â": 165,
      "ã": 166,
      "ä": 167,
      "å": 168,
      "æ": 169,
      "ç": 170,
      "è": 171,
      "é": 172,
      "ê": 173,
      "ë": 174,
      "ì": 175,
      "í": 176,
      "î": 177,
      "ï": 178,
      "ð": 179,
      "ñ": 180,
      "ò": 181,
      "ó": 182,
      "ô": 183,
      "õ": 184,
      "ö": 185,
      "÷": 186,
      "ø": 187,
      "ù": 188,
      "ú": 189,
      "û": 190,
      "ü": 191,
      "ý": 192,
      "þ": 193,
      "ÿ": 194,
      "Ā": 195,
      "ā": 196,
      "Ă": 197,
      "ă": 198,
      "Ą": 199,
      "ą": 200,
      "Ć": 201,
      "ć": 202,
      "Ĉ": 203,
      "ĉ": 204,
      "Ċ": 205,
      "ċ": 206,
      "Č": 207,
      "č": 208,
      "Ď": 209,
      "ď": 210,
      "Đ": 211,
      "đ": 212,
      "Ē": 213,
      "ē": 214,
      "Ĕ": 215,
      "ĕ": 216,
      "Ė": 217,
      "ė": 218,
      "Ę": 219,
      "ę": 220,
      "Ě": 221,
      "ě": 222,
      "Ĝ": 223,
      "ĝ": 224,
      "Ğ": 225,
      "ğ": 226,
      "Ġ": 227,
      "ġ": 228,
      "Ģ": 229,
      "ģ": 230,
      "Ĥ": 231,
      "ĥ": 232,
      "Ħ": 233,
      "ħ": 234,
      "Ĩ": 235,
      "ĩ": 236,
      "Ī": 237,
      "ī": 238,
      "Ĭ": 239,
      "ĭ": 240,
      "Į": 241,
      "į": 242,
      "İ": 243,
      "ı": 244,
      "Ĳ": 245,
      "ĳ": 246,
      "Ĵ": 247,
      "ĵ": 248,
      "Ķ": 249,
      "ķ": 250,
      "ĸ": 251,
      "Ĺ": 252,
      "ĺ": 253,
      "Ļ": 254,
      "ļ": 255,
      "Ľ": 256,
      "ľ": 257,
      "Ŀ": 258,
      "ŀ": 259,
      "Ł": 260,
      "ł": 261,
      "Ń": 262,
      "Ġt": 263,
      "Ġa": 264,
      "he": 265,
      "in": 266,
      "re": 267,
      "Ġthe": 268,
      "on": 269,
      "er": 270,
      "Ġs": 271,
      "Ġw": 272,
      "at": 273,
      "Ġo": 274,
      "en": 275,
      "Ġc": 276,
      "it": 277,
      "is": 278,
      "an": 279,
      "or": 280,
      "Ġb": 281,
      "es": 282,
      "ed": 283,
      "Ġf": 284,
      "ing": 285,
      "Ġp": 286,
      "ou": 287,
      "Ġan": 288,
      "Ġto": 289,
      "al": 290,
      "ar": 291,
      "Ġm": 292,
      "Ġin": 293,
      "Ġof": 294,
      "Ġd": 295,
      "Ġh": 296,
      "âĢ": 297,
      "as": 298,
      "Ġand": 299,
      "ic": 300,
      "Ġth": 301,
      "le": 302,
      "om": 303,
      "ion": 304,
      "ll": 305,
      "ent": 306,
      "Ġn": 307,
      "Ġl": 308,
      "Ġre": 309,
      "st": 310,
      "ve": 311,
      "ly": 312,
      "Ġe": 313,
      "Ġbe": 314,
      "ro": 315,
      "Ġg": 316,
      "id": 317,
      "ut": 318,
      "ac": 319,
      "ot": 320,
      "ĠT": 321,
      "ĠI": 322,
      "Ġthat": 323,
      "Ġon": 324,
      "ay": 325,
      "ĠS": 326,
      "Ġis": 327,
      "et": 328,
      "im": 329,
      "am": 330,
      "ad": 331,
      "ow": 332,
      "se": 333,
      "ig": 334,
      "Ġfor": 335,
      "âĢĻ": 336,
      "ĠA": 337,
      "ver": 338,
      "ur": 339,
      "ld": 340,
      "ct": 341,
      "ĠC": 342,
      "Ġu": 343,
      "Ġst": 344,
      "Ġy": 345,
      "Ġit": 346,
      "Ġhe": 347,
      "ir": 348,
      "ation": 349,
      "ith": 350,
      "Ġwh": 351,
      "ĠM": 352,
      "ce": 353,
      "ter": 354,
      "Ġwe": 355,
      "ol": 356,
      "il": 357,
      "Ġwith": 358,
      "Ġas": 359,
      "ĠB": 360,
      "ch": 361,
      "ill": 362,
      "nd": 363,
      "ĠP": 364,
      "Ġyou": 365,
      "Ġwas": 366,
      "ers": 367,
      "ke": 368,
      "ĠâĢ": 369,
      "Ġcon": 370,
      "Ġde": 371,
      "Ġr": 372,
      "her": 373,
      "ate": 374,
      "if": 375,
      "Ġat": 376,
      "ag": 377,
      "Ġha": 378,
      "ĠW": 379,
      "Ġse": 380,
      "ĠH": 381,
      "ore": 382,
      "Ġpro": 383,
      "ul": 384,
      "pp": 385,
      "Ġare": 386,
      "ment": 387,
      "ĠD": 388,
      "ri": 389,
      "est": 390,
      "us": 391,
      "ist": 392,
      "Ġ1": 393,
      "Ġcom": 394,
      "and": 395,
      "op": 396,
      "ĠR": 397,
      "ain": 398,
      "ĠThe": 399,
      "Ġ2": 400,
      "igh": 401,
      "rom": 402,
      "ort": 403,
      "od": 404,
      "Ġne": 405,
      "ĠF": 406,
      "Ġ(": 407,
      "Ġex": 408,
      "un": 409,
      "um": 410,
      "res": 411,
      "ab": 412,
      "Ġnot": 413,
      "âĢĿ": 414,
      "ĠN": 415,
      "Ġv": 416,
      "ess": 417,
      "Ġhave": 418,
      "ity": 419,
      "ould": 420,
      "em": 421,
      "Ġor": 422,
      "th": 423,
      "Ġby": 424,
      "os": 425,
      "ĠG": 426,
      "ant": 427,
      "Ġfrom": 428,
      "ive": 429,
      "Ġal": 430,
      "'s": 431,
      "el": 432,
      "Ġsu": 433,
      "oc": 434,
      "art": 435,
      "ĠL": 436,
      "Ġsh": 437,
      "Ġthis": 438,
      "nt": 439,
      "qu": 440,
      "ight": 441,
      "pe": 442,
      "ust": 443,
      "Ġle": 444,
      "ĠE": 445,
      "ies": 446,
      "end": 447,
      "Ġch": 448,
      "Ġsa": 449,
      "out": 450,
      "Ġab": 451,
      "The": 452,
      "ie": 453,
      "all": 454,
      "ack": 455,
      "red": 456,
      "ally": 457,
      "ĠâĢľ": 458,
      "Ġhas": 459,
      "00": 460,
      "ĠJ": 461,
      "Ġpl": 462,
      "Ġgo": 463,
      "ard": 464,
      "Ġhis": 465,
      "ome": 466,
      "iv": 467,
      "gh": 468,
      "ap": 469,
      "ost": 470,
      "ear": 471,
      "ĠO": 472,
      "our": 473,
      "Ġtr": 474,
      "ast": 475,
      "Ġj": 476,
      "ak": 477,
      "ud": 478,
      "Ġdo": 479,
      "Ġthey": 480,
      "Ġbut": 481,
      "Ġwor": 482,
      "Ġcan": 483,
      "Ġwill": 484,
      "rou": 485,
      "ge": 486,
      "Ġwhe": 487,
      "Ġsaid": 488,
      "ĠU": 489,
      "ich": 490,
      "Ġk": 491,
      "Ġall": 492,
      "ok": 493,
      "Ġwho": 494,
      "Ġ\"": 495,
      "ide": 496,
      "Ġint": 497,
      "ame": 498,
      "ans": 499,
      "ther": 500,
      "Ġout": 501,
      "ial": 502,
      "Ġtheir": 503,
      "ff": 504,
      "ong": 505,
      "ect": 506,
      "ice": 507,
      "pl": 508,
      "ure": 509,
      "pt": 510,
      "Ġmore": 511,
      "one": 512,
      "age": 513,
      "act": 514,
      "ike": 515,
      "ions": 516,
      "Ġme": 517,
      "Ġup": 518,
      "ous": 519,
      "ine": 520,
      "Ġad": 521,
      "Ġabout": 522,
      "ra": 523,
      "ated": 524,
      "ber": 525,
      "Ġone": 526,
      "Ġso": 527,
      "Ġus": 528,
      "Ġwere": 529,
      "ĠK": 530,
      "ime": 531,
      "og": 532,
      "ep": 533,
      "Ġhad": 534,
      "are": 535,
      "ia": 536,
      "Ġ20": 537,
      "Ġwould": 538,
      "ub": 539,
      "cc": 540,
      "Ġcl": 541,
      "ind": 542,
      "Ġim": 543,
      "Ġwhich": 544,
      "ue": 545,
      "ake": 546,
      "very": 547,
      "Ġcont": 548,
      "Ġag": 549,
      "Ġte": 550,
      "iz": 551,
      "Ġoff": 552,
      "Ġbeen": 553,
      "Ġun": 554,
      "Ġcomp": 555,
      "ĠSt": 556,
      "Ġen": 557,
      "au": 558,
      "so": 559,
      "per": 560,
      "ĠTh": 561,
      "ign": 562,
      "ace": 563,
      "ary": 564,
      "Ġyear": 565,
      "ew": 566,
      "ip": 567,
      "Ġlike": 568,
      "ven": 569,
      "ere": 570,
      "Ġpe": 571,
      "ook": 572,
      "Ġman": 573,
      "ays": 574,
      "Ġinc": 575,
      "ry": 576,
      "ose": 577,
      "Ġres": 578,
      "ite": 579,
      "able": 580,
      "Ġper": 581,
      "Ġsp": 582,
      "ass": 583,
      "ord": 584,
      "ire": 585,
      "Ġother": 586,
      "ĠIn": 587,
      "mer": 588,
      "Ġsome": 589,
      "ople": 590,
      "ile": 591,
      "Ġ201": 592,
      "ib": 593,
      "ence": 594,
      "ks": 595,
      "Ġover": 596,
      "ical": 597,
      "Ġthere": 598,
      "ations": 599,
      "Ġdis": 600,
      "ress": 601,
      "Ġnew": 602,
      "ult": 603,
      "int": 604,
      "Ġbec": 605,
      "Ġthan": 606,
      "own": 607,
      "Ġar": 608,
      "Ġalso": 609,
      "Ġthem": 610,
      "ru": 611,
      "ough": 612,
      "ount": 613,
      "ance": 614,
      "Ġapp": 615,
      "port": 616,
      "Ġwhat": 617,
      "Ġwhen": 618,
      "Ġpart": 619,
      "Ġyour": 620,
      "ail": 621,
      "Ġpeople": 622,
      "ree": 623,
      "ond": 624,
      "fter": 625,
      "Ġsc": 626,
      "orm": 627,
      "Ġqu": 628,
      "ĠCh": 629,
      "ase": 630,
      "av": 631,
      "Ġjust": 632,
      "Ġany": 633,
      "ĠY": 634,
      "Ġits": 635,
      "ach": 636,
      "ĠIt": 637,
      "Ġtime": 638,
      "Ġkn": 639,
      "Ġher": 640,
      "Ġmy": 641,
      "ens": 642,
      "Ġrec": 643,
      "Ġ3": 644,
      "Ġget": 645,
      "lic": 646,
      "reat": 647,
      "Ġif": 648,
      "ĠV": 649,
      ".âĢĿ": 650,
      "Ġinto": 651,
      "ian": 652,
      "Ġwork": 653,
      "ound": 654,
      "Ġtw": 655,
      "vel": 656,
      "irst": 657,
      "Ġno": 658,
      "ction": 659,
      "du": 660,
      "ings": 661,
      "ory": 662,
      "Ġour": 663,
      "ident": 664,
      "ition": 665,
      "ick": 666,
      "ors": 667,
      "ob": 668,
      "Ġ-": 669,
      "ove": 670,
      "ang": 671,
      "Ġpre": 672,
      "Ġplay": 673,
      "ause": 674,
      "ink": 675,
      "wn": 676,
      "hing": 677,
      "ade": 678,
      "itt": 679,
      "ates": 680,
      "amp": 681,
      "ark": 682,
      "Ġro": 683,
      "Ġshe": 684,
      "Ġpol": 685,
      "vers": 686,
      "Ġco": 687,
      "Ġafter": 688,
      "ĠHe": 689,
      "Ġ19": 690,
      "Ġcould": 691,
      "Ġfirst": 692,
      "Ġhow": 693,
      ",âĢĿ": 694,
      "ne": 695,
      "Ġhim": 696,
      "nder": 697,
      "ious": 698,
      "'t": 699,
      "ild": 700,
      "ons": 701,
      "Ġacc": 702,
      "aw": 703,
      "Ġpo": 704,
      "Ġatt": 705,
      "Ġfe": 706,
      "Ġonly": 707,
      "ict": 708,
      "hed": 709,
      "Ġpr": 710,
      "Ġtwo": 711,
      "ov": 712,
      "ish": 713,
      "Ġcomm": 714,
      "Ġspe": 715,
      "âĢľ": 716,
      ".\"": 717,
      "Ġact": 718,
      "form": 719,
      "Ġbl": 720,
      "we": 721,
      "Ġser": 722,
      "ft": 723,
      "ck": 724,
      "Ġbet": 725,
      "ning": 726,
      "Ġback": 727,
      "te": 728,
      "Ġmost": 729,
      "ces": 730,
      "Ġdec": 731,
      "ood": 732,
      "ĠâĢĵ": 733,
      "oy": 734,
      "Ġam": 735,
      "Ġdid": 736,
      "rough": 737,
      "iff": 738,
      "round": 739,
      "ater": 740,
      "Ġagain": 741,
      "Ġ4": 742,
      "Ġwant": 743,
      "day": 744,
      "ual": 745,
      "ise": 746,
      "Ġunder": 747,
      "Ġdes": 748,
      "ull": 749,
      "sel": 750,
      "Ġbecause": 751,
      ",\"": 752,
      "Ġcons": 753,
      "Ġ$": 754,
      "rit": 755,
      "Ġnow": 756,
      "ĠâĢĶ": 757,
      "Ġyears": 758,
      "..": 759,
      "ents": 760,
      "lud": 761,
      "Ġneed": 762,
      "Ġeven": 763,
      "tern": 764,
      "man": 765,
      "iss": 766,
      "ublic": 767,
      "ec": 768,
      "Ġinv": 769,
      "Ġknow": 770,
      "ĠWe": 771,
      "Ġsee": 772,
      "old": 773,
      "ced": 774,
      "ments": 775,
      "Ġadd": 776,
      "Ġind": 777,
      "Ġsec": 778,
      "fore": 779,
      "Ġevery": 780,
      "uch": 781,
      "urn": 782,
      "Ġ5": 783,
      "Ġmake": 784,
      "Ġsupp": 785,
      "ĠUn": 786,
      "pect": 787,
      "Ġthese": 788,
      "Ġem": 789,
      "ock": 790,
      "Ġwhere": 791,
      "oll": 792,
      "ject": 793,
      "In": 794,
      "xt": 795,
      "ational": 796,
      "vern": 797,
      "Ġbu": 798,
      "Th": 799,
      "Ġlook": 800,
      "Ġdon": 801,
      "oss": 802,
      "ĠAnd": 803,
      "Ġway": 804,
      "ump": 805,
      "Ġev": 806,
      "Ġbeing": 807,
      "Ġrem": 808,
      "Ġright": 809,
      "ating": 810,
      "ng": 811,
      "Ġthen": 812,
      "lect": 813,
      "Ġmay": 814,
      "ily": 815,
      "row": 816,
      "ason": 817,
      "Ġmany": 818,
      "iew": 819,
      "ĠTr": 820,
      "ĠBut": 821,
      "Ġcall": 822,
      "Ġdiff": 823,
      "Ġthink": 824,
      "Ġdef": 825,
      "Ġrel": 826,
      "ont": 827,
      "aking": 828,
      "ased": 829,
      "ied": 830,
      "Ġinclud": 831,
      "meric": 832,
      "les": 833,
      "Ġreg": 834,
      "Ġimp": 835,
      "rib": 836,
      "ath": 837,
      "Ġthrough": 838,
      "Ġshould": 839,
      "ited": 840,
      "Ġ[": 841,
      "Ġsay": 842,
      "Ġsy": 843,
      "Ġpres": 844,
      "Ġvery": 845,
      "Ġthose": 846,
      "Ġlast": 847,
      "other": 848,
      "ower": 849,
      "uring": 850,
      "Ġfl": 851,
      "ell": 852,
      "Ġmuch": 853,
      ").": 854,
      "Ġstate": 855,
      "ty": 856,
      "ities": 857,
      "ĠThis": 858,
      "ss": 859,
      "ative": 860,
      "hen": 861,
      "Ġbr": 862,
      "Ġshow": 863,
      "ific": 864,
      "Ġwell": 865,
      "ĠWh": 866,
      "Ġdoes": 867,
      "oth": 868,
      "Ġown": 869,
      "Ġcount": 870,
      "arg": 871,
      "Ġph": 872,
      "ved": 873,
      "ting": 874,
      "und": 875,
      "Ġdown": 876,
      "arly": 877,
      "Ġbel": 878,
      "als": 879,
      "Ġuse": 880,
      "Ġend": 881,
      "ics": 882,
      "Ġ200": 883,
      "Ġass": 884,
      "ange": 885,
      "--": 886,
      "ĠAmeric": 887,
      "ince": 888,
      "Ġlong": 889,
      "omet": 890,
      "ters": 891,
      "Ġbefore": 892,
      "ward": 893,
      "Ġmon": 894,
      "gr": 895,
      "Ġgovern": 896,
      "ible": 897,
      "Ġke": 898,
      "ts": 899,
      "ĠNew": 900,
      "Ġreport": 901,
      "ues": 902,
      "Ġstart": 903,
      "up": 904,
      "Ġteam": 905,
      "ble": 906,
      "olog": 907,
      "Ġmade": 908,
      "ife": 909,
      "Ġfin": 910,
      "ren": 911,
      "Ġsuch": 912,
      "oun": 913,
      "Ġworld": 914,
      "ener": 915,
      "erson": 916,
      "Ġgoing": 917,
      "ility": 918,
      "lp": 919,
      "ek": 920,
      "ually": 921,
      "Ġsm": 922,
      "ful": 923,
      "ix": 924,
      "ism": 925,
      "ists": 926,
      "Ġgood": 927,
      "),": 928,
      "Ġstud": 929,
      "Ġac": 930,
      "It": 931,
      "âĢĶ": 932,
      "tain": 933,
      "Ġsur": 934,
      "Ġagainst": 935,
      "Ġgame": 936,
      "Ġset": 937,
      "ork": 938,
      "Ġsub": 939,
      "Ġgu": 940,
      "Ġ6": 941,
      "Ġpoint": 942,
      "Ġeff": 943,
      "its": 944,
      "Ġent": 945,
      "stem": 946,
      "Ġstill": 947,
      "ars": 948,
      "gan": 949,
      "ys": 950,
      "ier": 951,
      "000": 952,
      "Ġhelp": 953,
      "illion": 954,
      "Ġwhile": 955,
      "Ġlead": 956,
      "alk": 957,
      "ving": 958,
      "roup": 959,
      "Ġsays": 960,
      "Ġob": 961,
      "Ġgr": 962,
      "imes": 963,
      "Ġmin": 964,
      "ween": 965,
      "Ġprodu": 966,
      "cy": 967,
      "ms": 968,
      "ax": 969,
      "ank": 970,
      "Ġinst": 971,
      "self": 972,
      "ef": 973,
      "Ġconf": 974,
      "Ġstr": 975,
      "cess": 976,
      "Ġsim": 977,
      "Ġtake": 978,
      "io": 979,
      "Ġinter": 980,
      "Ġcol": 981,
      "Ġdisc": 982,
      "Ġthough": 983,
      "Ġsame": 984,
      "ah": 985,
      "ures": 986,
      "Ġoffic": 987,
      "Ġcr": 988,
      "uss": 989,
      "arch": 990,
      "ollow": 991,
      "ever": 992,
      "ution": 993,
      "Ġbetween": 994,
      "Ġdiffere": 995,
      "ool": 996,
      "land": 997,
      "air": 998,
      "Ġprov": 999,
      "Ġop": 1000,
      "Ġlaw": 1001,
      "ner": 1002,
      "Ġhigh": 1003,
      "Ġed": 1004,
      "way": 1005,
      "read": 1006,
      "led": 1007,
      "ames": 1008,
      "ĠRe": 1009,
      "Ġnum": 1010,
      "gg": 1011,
      "Ġgovernment": 1012,
      "hip": 1013,
      "Ġsomet": 1014,
      "Ġsign": 1015,
      "We": 1016,
      "atch": 1017,
      "Ġter": 1018,
      "any": 1019,
      "velop": 1020,
      "hes": 1021,
      "Ġref": 1022,
      "Ġins": 1023,
      "cent": 1024,
      "Ġtrans": 1025,
      "ives": 1026,
      "Ġrun": 1027,
      "Ġaround": 1028,
      "Ġfound": 1029,
      "ave": 1030,
      "ee": 1031,
      "ather": 1032,
      "Ġmem": 1033,
      "Ġhere": 1034,
      "Ġreal": 1035,
      "Ġthree": 1036,
      "ĠAr": 1037,
      "Ġmed": 1038,
      "ouse": 1039,
      "Ġsystem": 1040,
      "Ġused": 1041,
      "Ġreally": 1042,
      "oot": 1043,
      "Ġexp": 1044,
      "cept": 1045,
      "ĠYou": 1046,
      "az": 1047,
      "cer": 1048,
      "Ġ10": 1049,
      "Ġcour": 1050,
      "Ġsupport": 1051,
      "ves": 1052,
      "ci": 1053,
      "ĠAl": 1054,
      "Ġmod": 1055,
      "Ġgroup": 1056,
      "Ġ7": 1057,
      "con": 1058,
      "ins": 1059,
      "ale": 1060,
      "ets": 1061,
      "Ġhand": 1062,
      "omm": 1063,
      "Ġret": 1064,
      "Ġpublic": 1065,
      "ying": 1066,
      "Ġspec": 1067,
      "Ġext": 1068,
      "Ġgreat": 1069,
      "Ġrep": 1070,
      "Ġsl": 1071,
      "Ġcar": 1072,
      "ense": 1073,
      "irect": 1074,
      "Ġwom": 1075,
      "ĠTrump": 1076,
      "Ġhapp": 1077,
      "ton": 1078,
      "Ġfam": 1079,
      "Ġfact": 1080,
      "Ġcur": 1081,
      "Ġexper": 1082,
      ".[": 1083,
      "ĠIs": 1084,
      "Ġcap": 1085,
      "Ġday": 1086,
      "Ġfr": 1087,
      "ĠThey": 1088,
      "alth": 1089,
      "Ġfind": 1090,
      "Ġboth": 1091,
      "Ġread": 1092,
      "ĠSh": 1093,
      "pr": 1094,
      "uth": 1095,
      "Ġdet": 1096,
      "ular": 1097,
      "ines": 1098,
      "ĠCl": 1099,
      "oh": 1100,
      "ices": 1101,
      "Ġ8": 1102,
      "Ġcre": 1103,
      "ered": 1104,
      "Ġduring": 1105,
      "Ġbig": 1106,
      "ivers": 1107,
      "Ġmonth": 1108,
      "ĠAs": 1109,
      "ph": 1110,
      "ision": 1111,
      "akes": 1112,
      "Ġdevelop": 1113,
      "Ġtold": 1114,
      "Ġperson": 1115,
      "min": 1116,
      "Ġiss": 1117,
      "Ġfollow": 1118,
      "ages": 1119,
      "Ġsince": 1120,
      "ically": 1121,
      "att": 1122,
      "ex": 1123,
      "orth": 1124,
      "Ġfew": 1125,
      "Ġwar": 1126,
      "ared": 1127,
      "Ġweek": 1128,
      "Ġcent": 1129,
      "Ġpolit": 1130,
      "med": 1131,
      "ording": 1132,
      "Ġleg": 1133,
      "aj": 1134,
      "com": 1135,
      "ĠLe": 1136,
      "Ġexpl": 1137,
      "get": 1138,
      "Ġlot": 1139,
      "ash": 1140,
      "Ġbelie": 1141,
      "ric": 1142,
      "iet": 1143,
      "Ġtoo": 1144,
      "Ġopp": 1145,
      "Ġcontin": 1146,
      "Ġgener": 1147,
      "Wh": 1148,
      "Ġprot": 1149,
      "ness": 1150,
      "Ġcle": 1151,
      "Ġfil": 1152,
      "Ġput": 1153,
      "der": 1154,
      "rent": 1155,
      "bers": 1156,
      "ention": 1157,
      "Ġ9": 1158,
      "Ġanother": 1159,
      "Ġrequ": 1160,
      "anc": 1161,
      "Ġsomething": 1162,
      "ĠIf": 1163,
      "Ġresp": 1164,
      "Ġ0": 1165,
      "ized": 1166,
      "the": 1167,
      "Ġsoc": 1168,
      "chool": 1169,
      "Ġpower": 1170,
      "Ġdifferent": 1171,
      "ata": 1172,
      "Ġche": 1173,
      "ute": 1174,
      "Ġinf": 1175,
      "Ġart": 1176,
      "ĠDe": 1177,
      "Ġloc": 1178,
      "ĠFr": 1179,
      "Ġinvest": 1180,
      "uc": 1181,
      "Ġplan": 1182,
      "Ġfar": 1183,
      "Ġvot": 1184,
      "Ġpass": 1185,
      "Ġthings": 1186,
      "Ġcor": 1187,
      "ned": 1188,
      "Ġlife": 1189,
      "Ġhead": 1190,
      "ience": 1191,
      "Ġrele": 1192,
      "Ġcommun": 1193,
      "thing": 1194,
      "Ġposs": 1195,
      "arl": 1196,
      "This": 1197,
      "Ġcamp": 1198,
      "Ġmight": 1199,
      "ody": 1200,
      "Ġbo": 1201,
      "Ġ'": 1202,
      "erest": 1203,
      "Ġmet": 1204,
      "ross": 1205,
      "arge": 1206,
      "ik": 1207,
      "Ġchild": 1208,
      "ret": 1209,
      "Ġask": 1210,
      "Ġnever": 1211,
      "ient": 1212,
      "Ġeach": 1213,
      "iness": 1214,
      "ĠâĢĺ": 1215,
      "Ġdep": 1216,
      "Ġdem": 1217,
      "ants": 1218,
      "ĠAn": 1219,
      "Ġnext": 1220,
      "ize": 1221,
      "Ġquest": 1222,
      "ield": 1223,
      "Ġcome": 1224,
      "view": 1225,
      "Ġadv": 1226,
      "ĠFor": 1227,
      "Ġgot": 1228,
      "Ġsecond": 1229,
      "Ġbus": 1230,
      "Ġbest": 1231,
      "Ġmark": 1232,
      "ĠSe": 1233,
      "ĠUS": 1234,
      "ital": 1235,
      "ĠThat": 1236,
      "ittle": 1237,
      "Ġopen": 1238,
      "Ġallow": 1239,
      "Ġseem": 1240,
      "Ġfeel": 1241,
      "ple": 1242,
      "Ġ.": 1243,
      "20": 1244,
      "Ġpost": 1245,
      "nce": 1246,
      "ten": 1247,
      "cl": 1248,
      "ĠPro": 1249,
      "Ġwr": 1250,
      "Ġhome": 1251,
      "Ġpri": 1252,
      "rat": 1253,
      "Ġdirect": 1254,
      "Ġpercent": 1255,
      "Ġdist": 1256,
      "gram": 1257,
      "ug": 1258,
      "less": 1259,
      "ired": 1260,
      "erv": 1261,
      "osed": 1262,
      "son": 1263,
      "ama": 1264,
      "Ġhard": 1265,
      "ĠRep": 1266,
      "orn": 1267,
      "Ġcontro": 1268,
      "Ġincre": 1269,
      "Ġcare": 1270,
      "Ġimport": 1271,
      "chn": 1272,
      "ately": 1273,
      "Ġhum": 1274,
      "Ġcomple": 1275,
      "Ġmillion": 1276,
      "Ġwithout": 1277,
      "Ġplace": 1278,
      "Ġav": 1279,
      "Ġide": 1280,
      "Ġresult": 1281,
      "Ġproble": 1282,
      "Ġincluding": 1283,
      "Ġinform": 1284,
      "gy": 1285,
      "conom": 1286,
      "aim": 1287,
      "Ġbuild": 1288,
      "Ġcountry": 1289,
      "ĠBl": 1290,
      "Ġtop": 1291,
      "Ġgl": 1292,
      "ably": 1293,
      "Ġnumber": 1294,
      "oney": 1295,
      "ished": 1296,
      "Ġbetter": 1297,
      "ways": 1298,
      "riend": 1299,
      "Ġfour": 1300,
      "Ġstand": 1301,
      "Ġel": 1302,
      "Ġseason": 1303,
      "Ġmov": 1304,
      "Ġlet": 1305,
      "Ġtri": 1306,
      "Ġrecent": 1307,
      "ral": 1308,
      "Ġinterest": 1309,
      "Ġpartic": 1310,
      "Ġcalled": 1311,
      "But": 1312,
      "uro": 1313,
      "Ġturn": 1314,
      "Ġlittle": 1315,
      "ration": 1316,
      "ead": 1317,
      "Ġappro": 1318,
      "Ġless": 1319,
      "ract": 1320,
      "Ġbro": 1321,
      "Ġbeh": 1322,
      "ised": 1323,
      "Ġmil": 1324,
      "Ġcase": 1325,
      "ĠInd": 1326,
      "Ġattack": 1327,
      "leg": 1328,
      "line": 1329,
      "Ġdr": 1330,
      "Ġmove": 1331,
      "ling": 1332,
      "Ġann": 1333,
      "app": 1334,
      "Ġleft": 1335,
      "ĠZ": 1336,
      "Ġkeep": 1337,
      "Ġpop": 1338,
      "ency": 1339,
      "Ġrest": 1340,
      "10": 1341,
      "ode": 1342,
      "ering": 1343,
      "ĠThere": 1344,
      "Ġfull": 1345,
      "Ġdidn": 1346,
      "ina": 1347,
      "ajor": 1348,
      "Ġmain": 1349,
      "Ġfun": 1350,
      "ted": 1351,
      "ature": 1352,
      "inal": 1353,
      "rem": 1354,
      "Ġprogram": 1355,
      "Ġtest": 1356,
      "Ġpolice": 1357,
      "Ġserv": 1358,
      "co": 1359,
      "Ġusing": 1360,
      "Ġform": 1361,
      "Ġprev": 1362,
      "Ġpay": 1363,
      "Ġval": 1364,
      "Ġeffect": 1365,
      "Ġnews": 1366,
      "be": 1367,
      "Ġpos": 1368,
      "ĠAmerican": 1369,
      "Ġwin": 1370,
      "Ġeconom": 1371,
      "uck": 1372,
      "He": 1373,
      "Ġsmall": 1374,
      "ready": 1375,
      "Ġchar": 1376,
      "ology": 1377,
      "'re": 1378,
      "ains": 1379,
      "iving": 1380,
      "ĠSo": 1381,
      "Ġwomen": 1382,
      "Ġlist": 1383,
      "ined": 1384,
      "ided": 1385,
      "to": 1386,
      "ger": 1387,
      "Ġschool": 1388,
      "Ġdata": 1389,
      "__": 1390,
      "Ġlevel": 1391,
      "Ġeas": 1392,
      "Ġchange": 1393,
      "ploy": 1394,
      "ians": 1395,
      "Ġprocess": 1396,
      "Ġpresident": 1397,
      "ird": 1398,
      "ĠAt": 1399,
      "reen": 1400,
      "Ġhist": 1401,
      "used": 1402,
      "Ġprom": 1403,
      "ruct": 1404,
      "Ġcurrent": 1405,
      "Ġrece": 1406,
      "Ġwhy": 1407,
      "Ġalready": 1408,
      "Ġcompany": 1409,
      "ohn": 1410,
      "Ġbre": 1411,
      "Ġunt": 1412,
      "Ġdri": 1413,
      "ĠOb": 1414,
      "ĠUnited": 1415,
      "Ġmat": 1416,
      "iver": 1417,
      "Ġtechn": 1418,
      "ĠQ": 1419,
      "Ġsol": 1420,
      "Ġalways": 1421,
      "Ġtalk": 1422,
      "Ġty": 1423,
      "iversity": 1424,
      "stand": 1425,
      "Ġexpect": 1426,
      "rap": 1427,
      "Ġproject": 1428,
      "ĠHow": 1429,
      "Ġlater": 1430,
      "Ġjob": 1431,
      "Ġmoney": 1432,
      "Ġofficial": 1433,
      "Ġthing": 1434,
      "Ġbusiness": 1435,
      "Ġbook": 1436,
      "ĠShe": 1437,
      "Ġclaim": 1438,
      "Ġstory": 1439,
      "Ġchang": 1440,
      "Ġorgan": 1441,
      "ĠPh": 1442,
      "Ġdesign": 1443,
      "here": 1444,
      "ases": 1445,
      "iven": 1446,
      "aign": 1447,
      "Ġmajor": 1448,
      "Ġprof": 1449,
      "Ġclass": 1450,
      "ĠCan": 1451,
      "lection": 1452,
      "ron": 1453,
      "ertain": 1454,
      "Ġinformation": 1455,
      "Ġable": 1456,
      "urs": 1457,
      "Ġrese": 1458,
      "outh": 1459,
      "aff": 1460,
      "ĠBe": 1461,
      "ption": 1462,
      "ards": 1463,
      "Ġfree": 1464,
      "Ġaway": 1465,
      "...": 1466,
      "Ġpast": 1467,
      "wit": 1468,
      "Ġhealth": 1469,
      "Ġvis": 1470,
      "Ġmust": 1471,
      "uthor": 1472,
      "ĠAd": 1473,
      "Ġhappen": 1474,
      "Ġtell": 1475,
      "ior": 1476,
      "Ġsk": 1477,
      "Ġimportant": 1478,
      "Ġcity": 1479,
      "Ġdoesn": 1480,
      "ission": 1481,
      "Ġoper": 1482,
      "acy": 1483,
      "ured": 1484,
      "ural": 1485,
      "ample": 1486,
      "Ġold": 1487,
      "Ġ--": 1488,
      "Ġest": 1489,
      "Ġmen": 1490,
      "Ġkill": 1491,
      "urity": 1492,
      "Ġcost": 1493,
      "ending": 1494,
      "Ġ18": 1495,
      "Ġleast": 1496,
      "els": 1497,
      "rist": 1498,
      "ury": 1499,
      "Ġhop": 1500,
      "sc": 1501,
      "Ġview": 1502,
      "Ġgrow": 1503,
      "ney": 1504,
      "ott": 1505,
      "St": 1506,
      "Ġconst": 1507,
      "ox": 1508,
      "âĢ¦": 1509,
      "Ġedit": 1510,
      "50": 1511,
      "side": 1512,
      "Ġdays": 1513,
      "resident": 1514,
      "ider": 1515,
      "Ġaff": 1516,
      "Ġcame": 1517,
      "ained": 1518,
      "Ġenough": 1519,
      "ides": 1520,
      "Ġstre": 1521,
      "Ġpat": 1522,
      "Ġ12": 1523,
      "Ġmaking": 1524,
      "Ġcampaign": 1525,
      "ern": 1526,
      "Ġkind": 1527,
      "Ġ=": 1528,
      "ccess": 1529,
      "Ġlarge": 1530,
      "ley": 1531,
      "Ġelect": 1532,
      "Ġvar": 1533,
      "ĠSp": 1534,
      "Ġpolic": 1535,
      "Ġmar": 1536,
      "Ġfriend": 1537,
      "eral": 1538,
      "Ġfamily": 1539,
      "ĠGo": 1540,
      "ror": 1541,
      "Ġrecord": 1542,
      "Ġsit": 1543,
      "ising": 1544,
      "Ġpolitical": 1545,
      "ional": 1546,
      "pped": 1547,
      "ator": 1548,
      "oad": 1549,
      "augh": 1550,
      "Ġuntil": 1551,
      "Ġtax": 1552,
      "As": 1553,
      "ality": 1554,
      "Ġvide": 1555,
      "ush": 1556,
      "Ġworking": 1557,
      "ries": 1558,
      "by": 1559,
      "arent": 1560,
      "ived": 1561,
      "If": 1562,
      "Ġline": 1563,
      "Ġair": 1564,
      "Ġtook": 1565,
      "Ġdeal": 1566,
      "ified": 1567,
      "ĠComm": 1568,
      "Ġfore": 1569,
      "Ġdeb": 1570,
      "Ġactually": 1571,
      "ued": 1572,
      "Ġes": 1573,
      "----": 1574,
      "ĠRepublic": 1575,
      "ocrat": 1576,
      "alf": 1577,
      "Ġve": 1578,
      "bs": 1579,
      "ĠMar": 1580,
      "Ġdel": 1581,
      "ĠJohn": 1582,
      "Ġbecome": 1583,
      "ember": 1584,
      "aining": 1585,
      "ister": 1586,
      "aps": 1587,
      "ĠPl": 1588,
      "ane": 1589,
      "ony": 1590,
      "ĠSc": 1591,
      "Ġintern": 1592,
      "Ġgames": 1593,
      "Ġmean": 1594,
      "work": 1595,
      "Ġgive": 1596,
      "iol": 1597,
      "Ġoften": 1598,
      "Ġformer": 1599,
      "Ġever": 1600,
      "Ġfund": 1601,
      "Ġwon": 1602,
      "ison": 1603,
      "ER": 1604,
      "ann": 1605,
      "ware": 1606,
      "oint": 1607,
      "most": 1608,
      "ĠEuro": 1609,
      "year": 1610,
      "Ġword": 1611,
      "ĠDem": 1612,
      "Ġhuman": 1613,
      "iqu": 1614,
      "Ġaccording": 1615,
      "aring": 1616,
      "gin": 1617,
      "Ġtimes": 1618,
      "wh": 1619,
      "Ġreturn": 1620,
      "19": 1621,
      "iber": 1622,
      "Ġbas": 1623,
      "uture": 1624,
      "eng": 1625,
      "ĠAll": 1626,
      "ither": 1627,
      "Ġsever": 1628,
      "Ġorder": 1629,
      "ization": 1630,
      "let": 1631,
      "ĠCon": 1632,
      "raft": 1633,
      "Ġdev": 1634,
      "Ġname": 1635,
      "Ġdoing": 1636,
      "ĠOr": 1637,
      "rop": 1638,
      "Ġbit": 1639,
      "Ġsing": 1640,
      "There": 1641,
      "ĠSy": 1642,
      "Ġ199": 1643,
      "ĠRuss": 1644,
      "aken": 1645,
      "Ġ15": 1646,
      "Ġlear": 1647,
      "ĠMc": 1648,
      "Ġnight": 1649,
      "Ġcharac": 1650,
      "Ġhaving": 1651,
      "Ġla": 1652,
      "Ġplayers": 1653,
      "ched": 1654,
      "Ġmarket": 1655,
      "Ġseen": 1656,
      "Ġra": 1657,
      "icle": 1658,
      "for": 1659,
      "Ġappear": 1660,
      "Ġfac": 1661,
      "idd": 1662,
      "mber": 1663,
      "Ġtoday": 1664,
      "11": 1665,
      "ĠPresident": 1666,
      "Ġsocial": 1667,
      "Ġearly": 1668,
      "iam": 1669,
      "Ġmedia": 1670,
      "Ġevent": 1671,
      "Ġchildren": 1672,
      "ĠMay": 1673,
      "Ġseveral": 1674,
      "Ġwhether": 1675,
      "sh": 1676,
      "ium": 1677,
      "Ġperform": 1678,
      "Ġ,": 1679,
      "Ġwent": 1680,
      "Ġpot": 1681,
      "ories": 1682,
      "Ġsure": 1683,
      "Ġpress": 1684,
      "Ġfive": 1685,
      "Ġprop": 1686,
      "Ġyoung": 1687,
      "iously": 1688,
      "Ġcrit": 1689,
      "Ġquestion": 1690,
      "Ġequ": 1691,
      "idence": 1692,
      "ĠYork": 1693,
      "artment": 1694,
      "ands": 1695,
      "Ġmilit": 1696,
      "Ġmeet": 1697,
      "Ġcontrol": 1698,
      "Ġcertain": 1699,
      "ene": 1700,
      "ats": 1701,
      "enn": 1702,
      "ortun": 1703,
      "Ġmembers": 1704,
      "Ġlikely": 1705,
      "Ġexample": 1706,
      "Ġside": 1707,
      "Ġwater": 1708,
      "ots": 1709,
      "Ġdone": 1710,
      "ĠCol": 1711,
      "ended": 1712,
      "Ġeng": 1713,
      "Ġinvol": 1714,
      "Ġocc": 1715,
      "Ġarg": 1716,
      "Ġalong": 1717,
      "ĠMr": 1718,
      "ential": 1719,
      "ĠEurope": 1720,
      "Ġant": 1721,
      "lf": 1722,
      "ĠObama": 1723,
      "Ġcourse": 1724,
      "empt": 1725,
      "ĠStates": 1726,
      "Ġshort": 1727,
      "Ġsuccess": 1728,
      "ially": 1729,
      "Ġvers": 1730,
      "vert": 1731,
      "And": 1732,
      "ubl": 1733,
      "ster": 1734,
      "eb": 1735,
      "Ġhour": 1736,
      "Ġsex": 1737,
      "Ġmonths": 1738,
      "urch": 1739,
      "Ġunderstand": 1740,
      "Ġ11": 1741,
      "Ġfuture": 1742,
      "iting": 1743,
      "Ġonce": 1744,
      "ĠBr": 1745,
      "rew": 1746,
      "uff": 1747,
      "imate": 1748,
      "Ġfight": 1749,
      "Ġinvestig": 1750,
      "ĠOn": 1751,
      "ague": 1752,
      "Ġdesc": 1753,
      "Ġmeans": 1754,
      "Ġwithin": 1755,
      "Ġconcer": 1756,
      "nect": 1757,
      "ball": 1758,
      "Ġproblem": 1759,
      "Ġpossible": 1760,
      "Ġamong": 1761,
      "Ġauthor": 1762,
      "Ġthought": 1763,
      "une": 1764,
      "Ġpriv": 1765,
      "ourn": 1766,
      "Ġcho": 1767,
      "Ġwrit": 1768,
      "Ġreason": 1769,
      "ĠNo": 1770,
      "ulation": 1771,
      "ĠWhen": 1772,
      "Ġavail": 1773,
      "ggest": 1774,
      "Ġyet": 1775,
      "gress": 1776,
      "Ġhold": 1777,
      "Ġknown": 1778,
      "Ġfail": 1779,
      "Ġacross": 1780,
      "ones": 1781,
      "Ġviol": 1782,
      "Ġmakes": 1783,
      "Ġorig": 1784,
      "ler": 1785,
      "Ġ&": 1786,
      "itive": 1787,
      "Ġactiv": 1788,
      "ald": 1789,
      "Ġcommunity": 1790,
      "ivid": 1791,
      "Ġprotect": 1792,
      "Ġproduct": 1793,
      "Ġ]": 1794,
      "Ġlocal": 1795,
      "not": 1796,
      "ĠState": 1797,
      "Ġnon": 1798,
      "inc": 1799,
      "Ġ2016": 1800,
      "verage": 1801,
      "ĠAm": 1802,
      "Ġsuggest": 1803,
      "You": 1804,
      "Ġgiven": 1805,
      "arm": 1806,
      "Ġasked": 1807,
      "oci": 1808,
      "orld": 1809,
      "back": 1810,
      "ederal": 1811,
      "br": 1812,
      "ensive": 1813,
      "Ġprob": 1814,
      "ĠHouse": 1815,
      "Ġothers": 1816,
      "Ġbelieve": 1817,
      "Ġstrong": 1818,
      "ĠUniversity": 1819,
      "Ġmus": 1820,
      "por": 1821,
      "aged": 1822,
      "Ġlight": 1823,
      "ĠTe": 1824,
      "iety": 1825,
      "Ġgetting": 1826,
      "Ġvideo": 1827,
      "Ġreported": 1828,
      "ances": 1829,
      "ĠChrist": 1830,
      "ĠCo": 1831,
      "12": 1832,
      "Ġben": 1833,
      "Ġannoun": 1834,
      "ored": 1835,
      "Ġ30": 1836,
      "âĢĵ": 1837,
      "Ġsent": 1838,
      "ober": 1839,
      "Ġ2015": 1840,
      "Ġcut": 1841,
      "itions": 1842,
      "iron": 1843,
      "Ġsour": 1844,
      "Ġca": 1845,
      ".,": 1846,
      "30": 1847,
      "'ve": 1848,
      "Ġident": 1849,
      "Ġcond": 1850,
      "Ġlim": 1851,
      "urther": 1852,
      "Ġi": 1853,
      "Ġdeath": 1854,
      "Ġnational": 1855,
      "Ġcreat": 1856,
      "ashing": 1857,
      "Ġnet": 1858,
      "Ġindust": 1859,
      "ĠX": 1860,
      "Ġsaf": 1861,
      "Ġclose": 1862,
      "ĠCom": 1863,
      "ĠDemocrat": 1864,
      "lement": 1865,
      "Ġstarted": 1866,
      "Ġlove": 1867,
      "For": 1868,
      "Ġland": 1869,
      "Ġavailable": 1870,
      "Ġpar": 1871,
      "orts": 1872,
      "Ġbased": 1873,
      "Ġissue": 1874,
      "ability": 1875,
      "resent": 1876,
      "Ġago": 1877,
      "Ġmom": 1878,
      "aster": 1879,
      "Ġparty": 1880,
      "selves": 1881,
      "rest": 1882,
      "ĠMin": 1883,
      "book": 1884,
      "Ġhig": 1885,
      "Ġhistory": 1886,
      "Ġcomes": 1887,
      "use": 1888,
      "Ġlow": 1889,
      "Ġfollowing": 1890,
      "ĠCent": 1891,
      "Ġemploy": 1892,
      "Ġ/": 1893,
      "Ġseries": 1894,
      "Ġtrying": 1895,
      "ument": 1896,
      "Ġaccount": 1897,
      "Ġalmost": 1898,
      "hers": 1899,
      "Ġidea": 1900,
      "ĠFl": 1901,
      "ĠAmerica": 1902,
      "Ġtoget": 1903,
      "Ġtogether": 1904,
      "ination": 1905,
      "Ġfoc": 1906,
      "utes": 1907,
      "uly": 1908,
      "ĠSen": 1909,
      "AT": 1910,
      "Ġ#": 1911,
      "Ġclear": 1912,
      "reed": 1913,
      "ief": 1914,
      "Ġisn": 1915,
      "Ġexperience": 1916,
      "Ġpract": 1917,
      "ilar": 1918,
      "ĠPr": 1919,
      "ĠWhat": 1920,
      "Ġadded": 1921,
      "ĠBro": 1922,
      "Ġtrad": 1923,
      "Ġaccess": 1924,
      "of": 1925,
      "erence": 1926,
      "ged": 1927,
      "unch": 1928,
      "Ġ16": 1929,
      "though": 1930,
      "itional": 1931,
      "Ġfilm": 1932,
      "ails": 1933,
      "arr": 1934,
      "rodu": 1935,
      "ream": 1936,
      "Ġhalf": 1937,
      "Ġrul": 1938,
      "ograp": 1939,
      "Ġarea": 1940,
      "af": 1941,
      "Ġ2014": 1942,
      "ĠOne": 1943,
      "Ġimpro": 1944,
      "Ġanything": 1945,
      "Ġlooking": 1946,
      "Ġsix": 1947,
      "Ġcomplete": 1948,
      "rict": 1949,
      "Ġlive": 1950,
      "my": 1951,
      "nes": 1952,
      "ividual": 1953,
      "ien": 1954,
      "Ġsaying": 1955,
      "Ġmiss": 1956,
      "erman": 1957,
      "ĠEx": 1958,
      "ustom": 1959,
      "rael": 1960,
      "inton": 1961,
      "IN": 1962,
      "Ġbad": 1963,
      "Ġpresent": 1964,
      "Ġvict": 1965,
      "Ġtaken": 1966,
      "minist": 1967,
      "Ġris": 1968,
      "Ġphot": 1969,
      "uge": 1970,
      "raw": 1971,
      "rug": 1972,
      "ĠCanad": 1973,
      "Ġbill": 1974,
      "cially": 1975,
      "Ġer": 1976,
      "'m": 1977,
      "ai": 1978,
      "Ġanal": 1979,
      "ote": 1980,
      "Ġdiscuss": 1981,
      "Ġbehind": 1982,
      "ĠAf": 1983,
      "Ġaut": 1984,
      "Ġfav": 1985,
      "Ġnear": 1986,
      "15": 1987,
      "witter": 1988,
      "What": 1989,
      "ert": 1990,
      "Ġcourt": 1991,
      "ĠEng": 1992,
      "ows": 1993,
      "aid": 1994,
      "ev": 1995,
      "ĠTo": 1996,
      "ators": 1997,
      "Ġentire": 1998,
      "Ġproper": 1999,
      "ĠDon": 2000,
      "Ġmor": 2001,
      "Ġtry": 2002,
      "osp": 2003,
      "Ġrather": 2004,
      "Ġsecurity": 2005,
      "play": 2006,
      "Ġmult": 2007,
      "Ġmilitary": 2008,
      "Ġcompet": 2009,
      "wards": 2010,
      "Ġthreat": 2011,
      "sy": 2012,
      "ĠPol": 2013,
      "ON": 2014,
      "Ġ14": 2015,
      "Ġface": 2016,
      "ĠNorth": 2017,
      "Ġz": 2018,
      "Ġsingle": 2019,
      "Ġmess": 2020,
      "Ġquick": 2021,
      "Ġfall": 2022,
      "Ġpubl": 2023,
      "irc": 2024,
      "An": 2025,
      "Ġindividual": 2026,
      "Ġsomeone": 2027,
      "Ġtot": 2028,
      "Ġpolicy": 2029,
      "Ġwanted": 2030,
      "Ġmind": 2031,
      "ĠSec": 2032,
      "atic": 2033,
      "ĠMan": 2034,
      "On": 2035,
      "aper": 2036,
      "lling": 2037,
      "Ġblack": 2038,
      "Ġstudy": 2039,
      "Ġcult": 2040,
      "Ġbring": 2041,
      "ĠGr": 2042,
      "ĠBrit": 2043,
      "Ġsum": 2044,
      "ids": 2045,
      "Ġattempt": 2046,
      "Ġ17": 2047,
      "ĠWar": 2048,
      "ply": 2049,
      "ĠÂ": 2050,
      "Ġfood": 2051,
      "Ġspecial": 2052,
      "off": 2053,
      "Ġplayer": 2054,
      "Ġpret": 2055,
      "ĠDep": 2056,
      "par": 2057,
      "ĠIm": 2058,
      "ales": 2059,
      "When": 2060,
      "Ġcomb": 2061,
      "Ġspace": 2062,
      "Ġredu": 2063,
      "ĠCal": 2064,
      "Ġnothing": 2065,
      "Ġtaking": 2066,
      "Ġcompan": 2067,
      "viron": 2068,
      "olution": 2069,
      "Ġkey": 2070,
      "Ġfoot": 2071,
      "Ġprobably": 2072,
      "over": 2073,
      "RE": 2074,
      "rote": 2075,
      "Ġ13": 2076,
      "elt": 2077,
      "ĠWorld": 2078,
      "Ġelse": 2079,
      "icult": 2080,
      "Ġconnect": 2081,
      "Ġcou": 2082,
      "Ġfront": 2083,
      ".)": 2084,
      "Ġjo": 2085,
      "Ġ|": 2086,
      "ashington": 2087,
      "ĠNational": 2088,
      "ify": 2089,
      "arter": 2090,
      "ming": 2091,
      "**": 2092,
      "ĠCity": 2093,
      "Ġresearch": 2094,
      "ault": 2095,
      "ĠClinton": 2096,
      "ung": 2097,
      "Ġcoming": 2098,
      "ĠIsrael": 2099,
      "dd": 2100,
      "reme": 2101,
      "amed": 2102,
      "ully": 2103,
      "Ġcoun": 2104,
      "Ġhowever": 2105,
      "Ġsw": 2106,
      "Ġdecision": 2107,
      "Ġpoints": 2108,
      "IS": 2109,
      "Ġbody": 2110,
      "cing": 2111,
      "ches": 2112,
      "Ġexist": 2113,
      "Ġbenef": 2114,
      "yn": 2115,
      "irl": 2116,
      "That": 2117,
      "Ġear": 2118,
      "Ġdescrib": 2119,
      "Ġeither": 2120,
      "Ġrights": 2121,
      "Ġimm": 2122,
      "So": 2123,
      "Ġfeat": 2124,
      "Ġsimilar": 2125,
      "aces": 2126,
      "Ġconv": 2127,
      "Ġwa": 2128,
      "Ġmass": 2129,
      "ana": 2130,
      "Ġdoc": 2131,
      "Ġsus": 2132,
      "ĠAust": 2133,
      "ĠSu": 2134,
      "Ġtarg": 2135,
      "Ġcreate": 2136,
      "AN": 2137,
      "Ġstates": 2138,
      "Ġfurther": 2139,
      "sw": 2140,
      "Ġenc": 2141,
      "ĠWith": 2142,
      "Ġfire": 2143,
      "Ġ2013": 2144,
      "Ġissues": 2145,
      "go": 2146,
      "Ġhouse": 2147,
      "Ġwrote": 2148,
      "Ġchall": 2149,
      "asing": 2150,
      "Ġfield": 2151,
      "Ġban": 2152,
      "ape": 2153,
      "Ġsuper": 2154,
      "Ġwhole": 2155,
      "Ġrepl": 2156,
      "Ġthird": 2157,
      "Ġhit": 2158,
      "Ġstop": 2159,
      "14": 2160,
      "Ġseems": 2161,
      "Ġfig": 2162,
      "Ġpick": 2163,
      "Ġbegin": 2164,
      "ried": 2165,
      "Ġcompl": 2166,
      "Ġstep": 2167,
      "16": 2168,
      "Ġ:": 2169,
      "ĠApp": 2170,
      "Ġservice": 2171,
      "ĠBar": 2172,
      "Ġeverything": 2173,
      "pping": 2174,
      "Ġsignific": 2175,
      "ĠGe": 2176,
      "pecially": 2177,
      "ĠJan": 2178,
      "mb": 2179,
      "Ġexec": 2180,
      "ively": 2181,
      "pro": 2182,
      "Ġfederal": 2183,
      "itted": 2184,
      "Ġrelations": 2185,
      "ibility": 2186,
      "ilt": 2187,
      "Ġself": 2188,
      "Ġstri": 2189,
      "oon": 2190,
      "ran": 2191,
      "ring": 2192,
      "now": 2193,
      "amer": 2194,
      "ently": 2195,
      "eal": 2196,
      "ĠWashington": 2197,
      "Ġ2017": 2198,
      "ĠDav": 2199,
      "Ġey": 2200,
      "Ġwatch": 2201,
      "pite": 2202,
      "Ġdue": 2203,
      "Ġdam": 2204,
      "Ġmeas": 2205,
      "Ġlab": 2206,
      "Ġstudents": 2207,
      "Ġtra": 2208,
      "uation": 2209,
      "ivil": 2210,
      "Ġcompanies": 2211,
      "Ġcand": 2212,
      "ĠGu": 2213,
      "Ġsound": 2214,
      "Ġdou": 2215,
      "iday": 2216,
      "Ã©": 2217,
      "Ġleaders": 2218,
      "attle": 2219,
      "ĠHowever": 2220,
      "Ġmatter": 2221,
      "Ġrole": 2222,
      "ĠSouth": 2223,
      "ades": 2224,
      "Ġreleased": 2225,
      "obal": 2226,
      "aul": 2227,
      "Ġofficials": 2228,
      "Ġbegan": 2229,
      "Ġinfl": 2230,
      "Ġener": 2231,
      "ery": 2232,
      "Ġtre": 2233,
      "head": 2234,
      "Ġcustom": 2235,
      "Ġposition": 2236,
      "Ġdevelopment": 2237,
      "Ġstatement": 2238,
      "ĠInst": 2239,
      "Ch": 2240,
      "Ġitself": 2241,
      "Ġhimself": 2242,
      "Ġoutside": 2243,
      "Ġtrue": 2244,
      "vironment": 2245,
      "Ġroom": 2246,
      "ĠPart": 2247,
      "Ġabove": 2248,
      "Ġcharacter": 2249,
      "like": 2250,
      "Ġprovide": 2251,
      "Ġamount": 2252,
      "Ġopt": 2253,
      "arlier": 2254,
      "Ġfinal": 2255,
      "Ġrepresent": 2256,
      "Ġ2012": 2257,
      "Ġstat": 2258,
      "Ġcontinue": 2259,
      "Ġaction": 2260,
      "Ġbreak": 2261,
      "Ġoffice": 2262,
      "Ġthemselves": 2263,
      "Ġinit": 2264,
      "lim": 2265,
      "Ġ198": 2266,
      "Ġbecame": 2267,
      "ender": 2268,
      "Ġcountries": 2269,
      "aced": 2270,
      "ĠAss": 2271,
      "abl": 2272,
      "Ġtreat": 2273,
      "ĠIntern": 2274,
      "Ġhours": 2275,
      "Ġneg": 2276,
      "ask": 2277,
      "Ġspecific": 2278,
      "Ġwasn": 2279,
      "Ġsimply": 2280,
      "Ġaddress": 2281,
      "ĠRes": 2282,
      "sec": 2283,
      "iod": 2284,
      "13": 2285,
      "Ġgeneral": 2286,
      "Ġrad": 2287,
      "Ġground": 2288,
      "'ll": 2289,
      "Ġ100": 2290,
      "Ġ25": 2291,
      "ograph": 2292,
      "oid": 2293,
      "Ġlarg": 2294,
      "ris": 2295,
      "reg": 2296,
      "Ġprofess": 2297,
      "ĠJust": 2298,
      "BC": 2299,
      "umb": 2300,
      "Ġinterview": 2301,
      "Ġgun": 2302,
      "Ġdifficult": 2303,
      "ili": 2304,
      "Ġrunning": 2305,
      "Ġeveryone": 2306,
      "Ġcop": 2307,
      "ĠEd": 2308,
      "Ġrespons": 2309,
      "Ġexc": 2310,
      "Ġevidence": 2311,
      "Ġagree": 2312,
      "18": 2313,
      "Ġneeds": 2314,
      "Ġadminist": 2315,
      "Ġbuilding": 2316,
      "Ġwoman": 2317,
      "Ġdrug": 2318,
      "ogn": 2319,
      "ĠChina": 2320,
      "eks": 2321,
      "ights": 2322,
      "iddle": 2323,
      "Ġtyp": 2324,
      "Ġbelow": 2325,
      "Ġsaw": 2326,
      "Ġap": 2327,
      "AR": 2328,
      "Ġversion": 2329,
      "Ġdest": 2330,
      "Ġshows": 2331,
      "lam": 2332,
      "Ġinj": 2333,
      "Ġball": 2334,
      "Ġneeded": 2335,
      "ĠAb": 2336,
      "Ġdom": 2337,
      "angu": 2338,
      "Ġlat": 2339,
      "Ġdeep": 2340,
      "Ġmusic": 2341,
      "acebook": 2342,
      "Ġtem": 2343,
      "isc": 2344,
      "Ġrelease": 2345,
      "Ġcommon": 2346,
      "Ġgroups": 2347,
      "ĠGerman": 2348,
      "ournal": 2349,
      "Ġpretty": 2350,
      "Ġsignificant": 2351,
      "Ġinclude": 2352,
      "Ġindustry": 2353,
      "ift": 2354,
      "Ġplayed": 2355,
      "ĠMed": 2356,
      "Ġalleg": 2357,
      "Ġquite": 2358,
      "Ġsense": 2359,
      "ser": 2360,
      "Ġenergy": 2361,
      "Ġmot": 2362,
      "body": 2363,
      "ĠHis": 2364,
      "Ġlegal": 2365,
      "epend": 2366,
      "ribut": 2367,
      "ique": 2368,
      "ival": 2369,
      "Ġfriends": 2370,
      "Ġphys": 2371,
      "ĠAfter": 2372,
      "where": 2373,
      "Ġmag": 2374,
      "AS": 2375,
      "Ġbillion": 2376,
      "Ġ50": 2377,
      "Ġplaying": 2378,
      "Ġlate": 2379,
      "lev": 2380,
      "Ġobject": 2381,
      "17": 2382,
      "Ġinstead": 2383,
      "Ġwhite": 2384,
      "Ġcandid": 2385,
      "Ġabs": 2386,
      "ĠCar": 2387,
      "Ġespecially": 2388,
      "Ġlost": 2389,
      "Ġcharg": 2390,
      "ĠTwitter": 2391,
      "How": 2392,
      "atur": 2393,
      "ĠMus": 2394,
      "ogle": 2395,
      "Ġjud": 2396,
      "ĠWest": 2397,
      "ager": 2398,
      "Ġple": 2399,
      "oring": 2400,
      "Ġhom": 2401,
      "Ġhost": 2402,
      "Ġelection": 2403,
      "Ġgen": 2404,
      "osing": 2405,
      "arc": 2406,
      "Ġforward": 2407,
      "Ġvote": 2408,
      "istic": 2409,
      "Ġanim": 2410,
      "Ġred": 2411,
      "Ġopportun": 2412,
      "Ġvalue": 2413,
      "Ġsuff": 2414,
      "Ġweeks": 2415,
      "Ġrecently": 2416,
      "ccording": 2417,
      "oke": 2418,
      "right": 2419,
      "Ġchanges": 2420,
      "Ġmoment": 2421,
      "eed": 2422,
      "ĠWhite": 2423,
      "Ġhope": 2424,
      "ĠNot": 2425,
      "bo": 2426,
      "eg": 2427,
      "ĠCong": 2428,
      "ĠNews": 2429,
      "Ġtrack": 2430,
      "yle": 2431,
      "Ġpain": 2432,
      "Ġwrong": 2433,
      "Ġaccept": 2434,
      "ĠOct": 2435,
      "irt": 2436,
      "Ġdeter": 2437,
      "Ġbar": 2438,
      "Ġlonger": 2439,
      "Ġlo": 2440,
      "ĠSept": 2441,
      "lt": 2442,
      "irm": 2443,
      "ental": 2444,
      "Ġcheck": 2445,
      "Ġsoon": 2446,
      "time": 2447,
      "Ġdecl": 2448,
      "Ġperiod": 2449,
      "hod": 2450,
      "Ġep": 2451,
      "ĠWill": 2452,
      "medi": 2453,
      "ij": 2454,
      "Ġsite": 2455,
      "itting": 2456,
      "ĠMy": 2457,
      "Ġshoot": 2458,
      "Ġeconomic": 2459,
      "Ġrelig": 2460,
      "Ġ)": 2461,
      "Ġpie": 2462,
      "ached": 2463,
      "Ġrev": 2464,
      "Ġcirc": 2465,
      "oph": 2466,
      "Ġfocus": 2467,
      "iding": 2468,
      "Ġconsider": 2469,
      "Ġwind": 2470,
      "ĠDr": 2471,
      "ĠDepartment": 2472,
      "Ġstay": 2473,
      "Ġwalk": 2474,
      "lege": 2475,
      "oe": 2476,
      "ĠMarch": 2477,
      "Ġgoal": 2478,
      "Ġworks": 2479,
      "overed": 2480,
      "Ġheld": 2481,
      "Ġwebs": 2482,
      "Ġtit": 2483,
      "onse": 2484,
      "Ġparent": 2485,
      "ns": 2486,
      "Ġpotential": 2487,
      "cial": 2488,
      "Ġstru": 2489,
      "Ġwords": 2490,
      "Ġled": 2491,
      "ularly": 2492,
      "Ġdi": 2493,
      "Ġconsum": 2494,
      "At": 2495,
      "Ġblock": 2496,
      "ees": 2497,
      "Ġcontract": 2498,
      "Ġhigher": 2499,
      "Ġreve": 2500,
      "Ġshare": 2501,
      "Ġcred": 2502,
      "ĠAug": 2503,
      "ners": 2504,
      "lear": 2505,
      "Ġeduc": 2506,
      "Ġpred": 2507,
      "ript": 2508,
      "Ġsold": 2509,
      "They": 2510,
      "key": 2511,
      "25": 2512,
      "ĠSyri": 2513,
      "anger": 2514,
      "Ġlaws": 2515,
      "Ġarticle": 2516,
      "aut": 2517,
      "Ġonline": 2518,
      "ĠRepublican": 2519,
      "ĠThese": 2520,
      "Ġaud": 2521,
      "Ġ24": 2522,
      "ES": 2523,
      "cil": 2524,
      "ham": 2525,
      "asons": 2526,
      "fect": 2527,
      "Ġpersonal": 2528,
      "ĠMich": 2529,
      "Ġdead": 2530,
      "ilities": 2531,
      "Ġanyone": 2532,
      "Ġce": 2533,
      "Ġrisk": 2534,
      "urd": 2535,
      "ancial": 2536,
      "Ġansw": 2537,
      "ole": 2538,
      "itution": 2539,
      "ĠHar": 2540,
      "Al": 2541,
      "Ġnecess": 2542,
      "Ġden": 2543,
      "uary": 2544,
      "put": 2545,
      "Ġcode": 2546,
      "haps": 2547,
      "uel": 2548,
      "Ad": 2549,
      "Ġfunction": 2550,
      "Ġtechnology": 2551,
      "Ġresults": 2552,
      "Ġreview": 2553,
      "Ġtotal": 2554,
      "Ġ2011": 2555,
      "che": 2556,
      "Ġminutes": 2557,
      "____": 2558,
      "Ġapplic": 2559,
      "Ġhy": 2560,
      "eter": 2561,
      "Ġearlier": 2562,
      "Ġservices": 2563,
      "Ġupd": 2564,
      "ients": 2565,
      "ĠSte": 2566,
      "Ġexpected": 2567,
      "ĠJune": 2568,
      "ĠDo": 2569,
      "aging": 2570,
      "icro": 2571,
      "ĠGod": 2572,
      "Ġpopular": 2573,
      "Ġscient": 2574,
      "ateg": 2575,
      "Ph": 2576,
      "Ġcomput": 2577,
      "ude": 2578,
      "Ġenvironment": 2579,
      "ule": 2580,
      "Ġsurpr": 2581,
      "Ġproblems": 2582,
      "Ġprim": 2583,
      "Ġtarget": 2584,
      "ĠSm": 2585,
      "alt": 2586,
      "Ġage": 2587,
      "Ġbase": 2588,
      "pril": 2589,
      "ends": 2590,
      "Ġexpress": 2591,
      "apan": 2592,
      "Ġrespect": 2593,
      "ĠPe": 2594,
      "val": 2595,
      "Ġreceived": 2596,
      "Ġways": 2597,
      "fer": 2598,
      "Ġshot": 2599,
      "iter": 2600,
      "Ġrate": 2601,
      "Ġcannot": 2602,
      "Ġprivate": 2603,
      "Ġport": 2604,
      "Ġforce": 2605,
      "Ġcreated": 2606,
      "Ġcomment": 2607,
      "hern": 2608,
      "Ġvol": 2609,
      "ĠCongress": 2610,
      "Ġannounced": 2611,
      "iple": 2612,
      "ĠEn": 2613,
      "omb": 2614,
      "Ġmater": 2615,
      "ech": 2616,
      "atives": 2617,
      "ĠMond": 2618,
      "na": 2619,
      "Ġeasy": 2620,
      "Ġimpact": 2621,
      "Ġfavor": 2622,
      "ĠJuly": 2623,
      "ctor": 2624,
      "Ġanti": 2625,
      "Ġquestions": 2626,
      "ittee": 2627,
      "aving": 2628,
      "ples": 2629,
      "reet": 2630,
      "Ġpack": 2631,
      "ills": 2632,
      "isl": 2633,
      "Ġ{": 2634,
      "Ġpur": 2635,
      "ĠFacebook": 2636,
      "Ġdiv": 2637,
      "Ġincrease": 2638,
      "onst": 2639,
      "Ġ197": 2640,
      "hood": 2641,
      "rel": 2642,
      "Ġlangu": 2643,
      "Ġspeak": 2644,
      "60": 2645,
      "Ġnearly": 2646,
      "uesday": 2647,
      "Ġinvolved": 2648,
      "Ġsen": 2649,
      "Ġexact": 2650,
      "Ġoriginal": 2651,
      "itten": 2652,
      "itiz": 2653,
      "Ġmodel": 2654,
      "ires": 2655,
      "ĠRed": 2656,
      "EN": 2657,
      "Ġstaff": 2658,
      "Ġcivil": 2659,
      "To": 2660,
      "Ġexecut": 2661,
      "okes": 2662,
      "Ġcapt": 2663,
      "Ġterror": 2664,
      "ourt": 2665,
      "mp": 2666,
      "lex": 2667,
      "action": 2668,
      "Ġleave": 2669,
      "Ġet": 2670,
      "Ġfans": 2671,
      "Ġcases": 2672,
      "ĠCount": 2673,
      "ĠFriday": 2674,
      "==": 2675,
      "lled": 2676,
      "ĠAustral": 2677,
      "Ġworth": 2678,
      "Ġtype": 2679,
      "Ġnation": 2680,
      "Ġur": 2681,
      "Ġinside": 2682,
      "Ġsource": 2683,
      "Ġrelationship": 2684,
      "OR": 2685,
      "Ġcoll": 2686,
      "cast": 2687,
      "Ġresponse": 2688,
      "ĠMonday": 2689,
      "ĠEl": 2690,
      "ams": 2691,
      "Ġinternational": 2692,
      "me": 2693,
      "ging": 2694,
      "Ġarrest": 2695,
      "Ġusers": 2696,
      "Ġglobal": 2697,
      "Ġheart": 2698,
      "Ġbecom": 2699,
      "Ġsoft": 2700,
      "ĠApril": 2701,
      "ĠTuesday": 2702,
      "ips": 2703,
      "Ġadm": 2704,
      "Ġcal": 2705,
      "Ġaverage": 2706,
      "Ġbroad": 2707,
      "ites": 2708,
      "Ġoil": 2709,
      "ray": 2710,
      "duct": 2711,
      "ests": 2712,
      "rought": 2713,
      "joy": 2714,
      "Ġliving": 2715,
      "Ġcontent": 2716,
      "bor": 2717,
      "Ġprice": 2718,
      "Ġchance": 2719,
      "ops": 2720,
      "ael": 2721,
      "Ġestabl": 2722,
      "ellig": 2723,
      "ky": 2724,
      "Ġreports": 2725,
      "Ġ+": 2726,
      "Ġkilled": 2727,
      "ĠPer": 2728,
      "Ġclub": 2729,
      "Ġbuy": 2730,
      "Ġdirector": 2731,
      "Ġworked": 2732,
      "atural": 2733,
      "Ġability": 2734,
      "Ġimmedi": 2735,
      "Ġmid": 2736,
      "Ġtakes": 2737,
      "unt": 2738,
      "hel": 2739,
      "Ġrespond": 2740,
      "Ġcell": 2741,
      "Ġpublished": 2742,
      "ext": 2743,
      "ĠWed": 2744,
      "ĠAct": 2745,
      "rain": 2746,
      "Ġroad": 2747,
      "Ġsubject": 2748,
      "Ġmother": 2749,
      "ĠAmericans": 2750,
      "ological": 2751,
      "Ġcollect": 2752,
      "ĠGoogle": 2753,
      "Ġterms": 2754,
      "Ġgave": 2755,
      "Ġweap": 2756,
      "Ġgirl": 2757,
      "osition": 2758,
      "Ġdefin": 2759,
      "bit": 2760,
      "clus": 2761,
      "ĠWhile": 2762,
      "oto": 2763,
      "ĠFeb": 2764,
      "Ġstore": 2765,
      "Ġtou": 2766,
      "izing": 2767,
      "ĠJapan": 2768,
      "ises": 2769,
      "Ġdecided": 2770,
      "ovember": 2771,
      "Ġworkers": 2772,
      "Ġ40": 2773,
      "Ġlog": 2774,
      "Ġsqu": 2775,
      "Ġphone": 2776,
      "Ġplans": 2777,
      "Ġcapital": 2778,
      "Ġ2010": 2779,
      "Ġmaterial": 2780,
      "ĠAfric": 2781,
      "ĠPal": 2782,
      "Ġhappened": 2783,
      "ĠCalif": 2784,
      "ĠSome": 2785,
      "Ġlack": 2786,
      "ĠGeor": 2787,
      "Ġ@": 2788,
      "Ġmember": 2789,
      "Ġforeign": 2790,
      "ĊĊ": 2791,
      "ĠBy": 2792,
      "ĠNow": 2793,
      "ĠRussia": 2794,
      "Ġemer": 2795,
      "oved": 2796,
      "Ġcurrently": 2797,
      "Ġlives": 2798,
      "Ġinflu": 2799,
      "Ġwhose": 2800,
      "Ġgoes": 2801,
      "Ġsituation": 2802,
      "Ġturned": 2803,
      "ĠOff": 2804,
      "Ġevents": 2805,
      "Ġoffer": 2806,
      "nesday": 2807,
      "ĠSeptember": 2808,
      "Ġrequire": 2809,
      "ino": 2810,
      "Ġfinancial": 2811,
      "based": 2812,
      "ĠSund": 2813,
      "Ġfem": 2814,
      "ought": 2815,
      "ĠAg": 2816,
      "\".": 2817,
      "Ġtal": 2818,
      "rown": 2819,
      "Ġteams": 2820,
      "Ġassoci": 2821,
      "Ġaffect": 2822,
      "One": 2823,
      "ursday": 2824,
      "Ġmethod": 2825,
      "Ġarri": 2826,
      "Ġnetwork": 2827,
      "Ġill": 2828,
      "aur": 2829,
      "rect": 2830,
      "fully": 2831,
      "AL": 2832,
      "Ġpage": 2833,
      "ĠIslam": 2834,
      "ĠJanuary": 2835,
      "vertise": 2836,
      "icated": 2837,
      "Ġhuge": 2838,
      "99": 2839,
      "Ġsimple": 2840,
      "ĠHill": 2841,
      "Ġareas": 2842,
      "ruction": 2843,
      "order": 2844,
      "Ġpict": 2845,
      "ese": 2846,
      "Ġtext": 2847,
      "Ġrecogn": 2848,
      "ĠSan": 2849,
      "Ġcouple": 2850,
      "istan": 2851,
      "Ġord": 2852,
      "Ġapproach": 2853,
      "Ġregard": 2854,
      "Ġmeeting": 2855,
      "ĠTV": 2856,
      "Ġintrodu": 2857,
      "Ġfelt": 2858,
      "ĠDavid": 2859,
      "ened": 2860,
      "Ġcareer": 2861,
      "Ġtool": 2862,
      "Ġnorm": 2863,
      "ĠGl": 2864,
      "ĠCor": 2865,
      "ĠAng": 2866,
      "Ġquickly": 2867,
      "Ġhon": 2868,
      "apt": 2869,
      "ĠWednesday": 2870,
      "Ġmis": 2871,
      "Ġparticip": 2872,
      "Ġ21": 2873,
      "ĠNovember": 2874,
      "Ġvictim": 2875,
      "âĢĿ.": 2876,
      "Ġrace": 2877,
      "Ġemail": 2878,
      "Ġbank": 2879,
      "Ġfather": 2880,
      "ĠAugust": 2881,
      "Ġpull": 2882,
      "Sh": 2883,
      "ett": 2884,
      "chie": 2885,
      "oud": 2886,
      "Ġvia": 2887,
      "\",": 2888,
      "ructure": 2889,
      "Ġcy": 2890,
      "iction": 2891,
      "Ġnumbers": 2892,
      "Ġadministration": 2893,
      "Ġround": 2894,
      "ume": 2895,
      "Ġboy": 2896,
      "ĠThursday": 2897,
      "Ġpers": 2898,
      "Ġthous": 2899,
      "ĠMe": 2900,
      "ety": 2901,
      "Ġfre": 2902,
      "Ġwebsite": 2903,
      "ĠEuropean": 2904,
      "Ġcover": 2905,
      "Ġbuilt": 2906,
      "Ġspent": 2907,
      "Ġheard": 2908,
      "Ġenjoy": 2909,
      "load": 2910,
      "Ġloss": 2911,
      "ornia": 2912,
      "ĠPaul": 2913,
      "aily": 2914,
      "Ġimprove": 2915,
      "Ġrepe": 2916,
      "--------": 2917,
      "Ġhands": 2918,
      "Ġengine": 2919,
      "Ġproduction": 2920,
      "Ġmatch": 2921,
      "Ġsecret": 2922,
      "oor": 2923,
      "avy": 2924,
      "het": 2925,
      "ĠBritish": 2926,
      "Ġwide": 2927,
      "Ġeconomy": 2928,
      "Ġreveal": 2929,
      "Ġknew": 2930,
      "ĠCourt": 2931,
      "ĠOctober": 2932,
      "Ġperformance": 2933,
      "Ġdig": 2934,
      "Ġallowed": 2935,
      "Ġwants": 2936,
      "Ġboard": 2937,
      "40": 2938,
      "uses": 2939,
      "Ġtrade": 2940,
      "Ġneigh": 2941,
      "face": 2942,
      "Ġtravel": 2943,
      "orters": 2944,
      "Ġste": 2945,
      "Ġ22": 2946,
      "Ġbi": 2947,
      "cember": 2948,
      "Ġvisit": 2949,
      "Ġpoll": 2950,
      "Ġgets": 2951,
      "atory": 2952,
      "Ġtown": 2953,
      "ĠSunday": 2954,
      "Ġfear": 2955,
      "Ġlegisl": 2956,
      "Ġperfect": 2957,
      "gest": 2958,
      "estern": 2959,
      "urning": 2960,
      "ences": 2961,
      "down": 2962,
      "Ġcause": 2963,
      "oo": 2964,
      "ishing": 2965,
      "Ġmovement": 2966,
      "ession": 2967,
      "Ġincluded": 2968,
      "ze": 2969,
      "lin": 2970,
      "agement": 2971,
      "Ġsepar": 2972,
      "Ġlower": 2973,
      "ĠCanada": 2974,
      "ening": 2975,
      "ĠUK": 2976,
      "Ġtried": 2977,
      "Ġens": 2978,
      "Ġvo": 2979,
      "Ġforces": 2980,
      "With": 2981,
      "Ġbrought": 2982,
      "200": 2983,
      "ĠSch": 2984,
      "?âĢĿ": 2985,
      "fl": 2986,
      "Ġbehav": 2987,
      "ĠQu": 2988,
      "ED": 2989,
      "ceed": 2990,
      "field": 2991,
      "rim": 2992,
      "Ġattention": 2993,
      "Ġreach": 2994,
      "Ġlooks": 2995,
      "ĠKore": 2996,
      "Ġmention": 2997,
      "Ġpopulation": 2998,
      "arily": 2999,
      "ĠIS": 3000,
      "Ġprogress": 3001,
      "ctions": 3002,
      "undred": 3003,
      "Ġfell": 3004,
      "Ġsett": 3005,
      "Ġparticular": 3006,
      "Ġbud": 3007,
      "ibly": 3008,
      "Ġhot": 3009,
      "force": 3010,
      "Ġliber": 3011,
      "ĠCalifornia": 3012,
      "Ġfair": 3013,
      "'d": 3014,
      "After": 3015,
      "Ġrac": 3016,
      "anks": 3017,
      "yond": 3018,
      "Ġlink": 3019,
      "alled": 3020,
      "AC": 3021,
      "ÂŃ": 3022,
      "US": 3023,
      "Ġimage": 3024,
      "Ġvarious": 3025,
      "ĠHer": 3026,
      "ĠBlack": 3027,
      "Ġcontact": 3028,
      "hold": 3029,
      "bl": 3030,
      "Ġtalking": 3031,
      "Ġess": 3032,
      "Ġtraining": 3033,
      "ĠPark": 3034,
      "Ġ23": 3035,
      "Ġdemand": 3036,
      "Ġhor": 3037,
      "Ġmorning": 3038,
      "ma": 3039,
      "inks": 3040,
      "raq": 3041,
      "][": 3042,
      "ĠSw": 3043,
      "ĠCont": 3044,
      "Ġprevious": 3045,
      "raz": 3046,
      "Ġleader": 3047,
      "idents": 3048,
      "ecause": 3049,
      "Ġstrugg": 3050,
      "idered": 3051,
      "aker": 3052,
      "iers": 3053,
      "sych": 3054,
      "arth": 3055,
      "Ġrules": 3056,
      "bed": 3057,
      "Ġreb": 3058,
      "Ġsong": 3059,
      "ondon": 3060,
      "Ġveh": 3061,
      "Ġupon": 3062,
      "Ġsearch": 3063,
      "cle": 3064,
      "ledge": 3065,
      "ĠJew": 3066,
      "Ġprep": 3067,
      "OS": 3068,
      "ĠDecember": 3069,
      "sequ": 3070,
      "Ġlatest": 3071,
      "Ġcitiz": 3072,
      "mon": 3073,
      "come": 3074,
      "While": 3075,
      "ĠSenate": 3076,
      "Ġindepend": 3077,
      "ges": 3078,
      "ĠCounty": 3079,
      "IT": 3080,
      "ps": 3081,
      "Ġwond": 3082,
      "ĠRussian": 3083,
      "ĠStreet": 3084,
      "ĠTex": 3085,
      "Ġfeatures": 3086,
      "Ġgrowth": 3087,
      "cies": 3088,
      "Ġsize": 3089,
      "Ġmach": 3090,
      "ĠPat": 3091,
      "uments": 3092,
      "iant": 3093,
      "Ġexam": 3094,
      "ification": 3095,
      "Tr": 3096,
      ");": 3097,
      "ĠTimes": 3098,
      "ille": 3099,
      "Ġsn": 3100,
      "Ġaddition": 3101,
      "ground": 3102,
      "omp": 3103,
      "unk": 3104,
      "Ġinvestigation": 3105,
      "Ġcoach": 3106,
      "Ġund": 3107,
      "uk": 3108,
      "ament": 3109,
      "ĠParty": 3110,
      "Ġmedical": 3111,
      "ha": 3112,
      "Ġsort": 3113,
      "Ġpen": 3114,
      "Ġslow": 3115,
      "IC": 3116,
      "icles": 3117,
      "Ġspeed": 3118,
      "Ġfast": 3119,
      "Ġconsidered": 3120,
      "Ġsystems": 3121,
      "ĠPost": 3122,
      "ĠIran": 3123,
      "elligence": 3124,
      "ruary": 3125,
      "ĠCenter": 3126,
      "ĠIndia": 3127,
      "Ġdocument": 3128,
      "ĠIraq": 3129,
      "aries": 3130,
      "Ġparents": 3131,
      "imately": 3132,
      "Ġpaper": 3133,
      "Ġcritic": 3134,
      "igr": 3135,
      "Ġachie": 3136,
      "Ġsexual": 3137,
      "ope": 3138,
      "wo": 3139,
      "aturday": 3140,
      "Ġseek": 3141,
      "Ġextreme": 3142,
      "Ġlanguage": 3143,
      "Ġsens": 3144,
      "vent": 3145,
      "aph": 3146,
      "Ġwritten": 3147,
      "Ġhear": 3148,
      "ĠKe": 3149,
      "uf": 3150,
      "Ġconserv": 3151,
      "Ġprior": 3152,
      "Ġjobs": 3153,
      "Ġdoll": 3154,
      "Ġlevels": 3155,
      "AM": 3156,
      "Ġdraw": 3157,
      "Ġbox": 3158,
      "Ġ2008": 3159,
      "pir": 3160,
      "Ġcompletely": 3161,
      "Ġspokes": 3162,
      "ĠPar": 3163,
      "uit": 3164,
      "Ġsociety": 3165,
      "ĠMuslim": 3166,
      "Ġextra": 3167,
      "eth": 3168,
      "Ġ...": 3169,
      "ication": 3170,
      "Ġconduct": 3171,
      "She": 3172,
      "asc": 3173,
      "Ġseven": 3174,
      "Ġconc": 3175,
      "ĠKing": 3176,
      "Ġlearn": 3177,
      "Ġmessage": 3178,
      "Ġdoub": 3179,
      "ĠMark": 3180,
      "Ġeight": 3181,
      "Ġinteresting": 3182,
      "ĠDonald": 3183,
      "atform": 3184,
      "Ġprevent": 3185,
      "eared": 3186,
      "Ġincreasing": 3187,
      "Ġrange": 3188,
      "Ġeffort": 3189,
      "Ġ}": 3190,
      "eff": 3191,
      "itch": 3192,
      "ĠLondon": 3193,
      "Ġserious": 3194,
      "add": 3195,
      "idge": 3196,
      "rast": 3197,
      "Ġinn": 3198,
      "aming": 3199,
      "ining": 3200,
      "Ġclaims": 3201,
      "ysis": 3202,
      "ĠRom": 3203,
      "Ġregul": 3204,
      "ari": 3205,
      "Ġson": 3206,
      "Ġanswer": 3207,
      "Ġobv": 3208,
      "Ġopportunity": 3209,
      "Ġbiggest": 3210,
      "Ġclimate": 3211,
      "Ġscreen": 3212,
      "illed": 3213,
      "Ġresour": 3214,
      "Ġsurve": 3215,
      "inally": 3216,
      "Ġbott": 3217,
      "Ġcard": 3218,
      "Ġparticularly": 3219,
      "ani": 3220,
      "Ġ2009": 3221,
      "Ġjournal": 3222,
      "abor": 3223,
      "Ġdespite": 3224,
      "OP": 3225,
      "Ġviolence": 3226,
      "Ġmajority": 3227,
      "ĠMore": 3228,
      "Ġattacks": 3229,
      "Ġaren": 3230,
      "entially": 3231,
      "ĠEast": 3232,
      "ico": 3233,
      "Ġstories": 3234,
      "Ġcarry": 3235,
      "Ġexcept": 3236,
      "lying": 3237,
      "22": 3238,
      "Ġexactly": 3239,
      "light": 3240,
      "uclear": 3241,
      "anced": 3242,
      "Ġcross": 3243,
      "ĠEm": 3244,
      "room": 3245,
      "Ġcertainly": 3246,
      "Ġchanged": 3247,
      "Ġhundred": 3248,
      "reedom": 3249,
      "ĠFebruary": 3250,
      "Ġguy": 3251,
      "Ġlay": 3252,
      "ĠTH": 3253,
      "Ġremain": 3254,
      "80": 3255,
      "ension": 3256,
      "isions": 3257,
      "Ġmodern": 3258,
      "Ġrequired": 3259,
      "Ġult": 3260,
      "Ġlooked": 3261,
      "Ġofficers": 3262,
      "Ġdefense": 3263,
      "Ġgas": 3264,
      "ĠChe": 3265,
      "Ġ27": 3266,
      "Ġconvers": 3267,
      "Ġsometimes": 3268,
      "Ġaw": 3269,
      "rench": 3270,
      "vertisement": 3271,
      "Ġpractice": 3272,
      "Ġstar": 3273,
      "Ġmiddle": 3274,
      "oses": 3275,
      "urt": 3276,
      "Ġmovie": 3277,
      "Ġsurv": 3278,
      "Ġexperien": 3279,
      "Ġsummer": 3280,
      "Ġhistor": 3281,
      "Ġregion": 3282,
      "Ġfinally": 3283,
      "Ġscience": 3284,
      "ux": 3285,
      "set": 3286,
      "atter": 3287,
      "ously": 3288,
      "Ġpaid": 3289,
      "ĠSand": 3290,
      "utions": 3291,
      "Ġquarter": 3292,
      "Ġcrim": 3293,
      "Ġnatural": 3294,
      "Ġterm": 3295,
      "inese": 3296,
      "Ġleading": 3297,
      "Ġrout": 3298,
      "Ġgiving": 3299,
      "Ġstuff": 3300,
      "Ġpan": 3301,
      "nces": 3302,
      "ĠSaturday": 3303,
      "Ġones": 3304,
      "tr": 3305,
      "Ġuser": 3306,
      "Ġdro": 3307,
      "ny": 3308,
      "Ġimag": 3309,
      "Ġdetails": 3310,
      "Ġpoor": 3311,
      "Ġproducts": 3312,
      "Ġquality": 3313,
      "Ġstarting": 3314,
      "pper": 3315,
      "akers": 3316,
      "Ġdanger": 3317,
      "Ġprison": 3318,
      "Ġblood": 3319,
      "ĠSpe": 3320,
      "Ġtable": 3321,
      "aught": 3322,
      "ĠSoc": 3323,
      "ida": 3324,
      "Ġprovided": 3325,
      "ĠNet": 3326,
      "ospital": 3327,
      "uing": 3328,
      "Ġwriting": 3329,
      "Ġdescribed": 3330,
      "aves": 3331,
      "Ġdemonst": 3332,
      "Ġcosts": 3333,
      "Ġwrite": 3334,
      "Ġnamed": 3335,
      "Ġremains": 3336,
      "yl": 3337,
      "Ġvoters": 3338,
      "ibr": 3339,
      "enge": 3340,
      "icks": 3341,
      "ĠDes": 3342,
      "Ġsafe": 3343,
      "ĠInt": 3344,
      "ĠMcC": 3345,
      "Ġthinking": 3346,
      "Ġchief": 3347,
      "24": 3348,
      "Ġgrowing": 3349,
      "ĠDemocratic": 3350,
      "Ġitem": 3351,
      "erc": 3352,
      "ĠEven": 3353,
      "ĠMor": 3354,
      "Ġparts": 3355,
      "Ġoccur": 3356,
      "Ġcamer": 3357,
      "Ġpath": 3358,
      "Ġassist": 3359,
      "Ġcontinued": 3360,
      "ÃĤ": 3361,
      "oper": 3362,
      "Ġmill": 3363,
      "Ġmaintain": 3364,
      "Ġwouldn": 3365,
      "Ġeducation": 3366,
      "Ġpurp": 3367,
      "Ġmultiple": 3368,
      "oul": 3369,
      "inary": 3370,
      "Ġready": 3371,
      "Ġshowed": 3372,
      "ĠTexas": 3373,
      "Ġpurch": 3374,
      "Ġcomments": 3375,
      "ara": 3376,
      "No": 3377,
      "Ġculture": 3378,
      "Ġ26": 3379,
      "Ġdied": 3380,
      "ĠRepublicans": 3381,
      "Ġdamage": 3382,
      "Ġfix": 3383,
      "Ġstudent": 3384,
      "arian": 3385,
      "Ġmob": 3386,
      "coin": 3387,
      "Ġ28": 3388,
      "Ġalone": 3389,
      "ĠSer": 3390,
      "Ġspot": 3391,
      "Ġimplement": 3392,
      "Ġefforts": 3393,
      "ĠCoun": 3394,
      "ago": 3395,
      "Ġperhaps": 3396,
      "Ġreading": 3397,
      "ĠTur": 3398,
      "Ġhous": 3399,
      "ĠLeague": 3400,
      "ĠJames": 3401,
      "Ġrequest": 3402,
      "Ġguys": 3403,
      "fort": 3404,
      "anch": 3405,
      "FL": 3406,
      "ĠCons": 3407,
      "Ġkids": 3408,
      "Ġcele": 3409,
      "Ġunf": 3410,
      "Ġspeech": 3411,
      "Ġcalls": 3412,
      "hib": 3413,
      "Ġalthough": 3414,
      "Ġincreased": 3415,
      "Ġbeyond": 3416,
      "Ġfile": 3417,
      "Ġusually": 3418,
      "ables": 3419,
      "Ġrecomm": 3420,
      "ĠMichael": 3421,
      "egr": 3422,
      "inated": 3423,
      "Ġfootball": 3424,
      "ban": 3425,
      "aly": 3426,
      "ĠBill": 3427,
      "Ġtowards": 3428,
      "ĠGener": 3429,
      "using": 3430,
      "Ġil": 3431,
      "Ġsubst": 3432,
      "Ġavoid": 3433,
      "urg": 3434,
      "Ġdirectly": 3435,
      "Ġrob": 3436,
      "ĠFirst": 3437,
      "Ġreality": 3438,
      "Ġcouldn": 3439,
      "lish": 3440,
      "itute": 3441,
      "Ãĥ": 3442,
      "Ġscene": 3443,
      "Ġresearc": 3444,
      "All": 3445,
      "Ġcenter": 3446,
      "Ġplatform": 3447,
      "zz": 3448,
      "ications": 3449,
      "Ġthroughout": 3450,
      "Ġ*": 3451,
      "Ġselect": 3452,
      "Ġconcept": 3453,
      "Ġincludes": 3454,
      "Ġcomplex": 3455,
      "Ġtro": 3456,
      "ston": 3457,
      "Ġblog": 3458,
      "iles": 3459,
      "ĠChinese": 3460,
      "Ġchalleng": 3461,
      "Ġimmediately": 3462,
      "Ġcast": 3463,
      "ford": 3464,
      "Ġconsist": 3465,
      "Ġremember": 3466,
      "Ġclos": 3467,
      "mit": 3468,
      "Ġwife": 3469,
      "Ġstandard": 3470,
      "ĠâĢ¦": 3471,
      "rowd": 3472,
      "Ġdebate": 3473,
      "Im": 3474,
      "Ġopin": 3475,
      "Ġgone": 3476,
      "ĠIndian": 3477,
      "BI": 3478,
      "Ġchoice": 3479,
      "astic": 3480,
      "Ġletter": 3481,
      "Ġtoward": 3482,
      "Ġepis": 3483,
      "Ġver": 3484,
      "....": 3485,
      "Ġ(@": 3486,
      "itor": 3487,
      "23": 3488,
      "Ġofficer": 3489,
      "Ġsoftware": 3490,
      "ĠGreen": 3491,
      "wise": 3492,
      "Now": 3493,
      "Ġahead": 3494,
      "ĠĠ": 3495,
      "Ġsell": 3496,
      "Ġten": 3497,
      "Ġfigure": 3498,
      "Re": 3499,
      "Ġcounter": 3500,
      "Ġthousands": 3501,
      "Ġrock": 3502,
      "ression": 3503,
      "hest": 3504,
      "Ġdesigned": 3505,
      "Ġprec": 3506,
      "Ġsafety": 3507,
      "Ġut": 3508,
      "ĠMinister": 3509,
      "Ġswe": 3510,
      "oes": 3511,
      "Ġeffects": 3512,
      "Ġagency": 3513,
      "rupt": 3514,
      "Ġpassed": 3515,
      "Ġpiece": 3516,
      "?\"": 3517,
      "Ġtwe": 3518,
      "ĠPlay": 3519,
      "Ġreceive": 3520,
      "Ġoption": 3521,
      "Ġcorpor": 3522,
      "Ġpressure": 3523,
      "Ġ60": 3524,
      "Ġproperty": 3525,
      "ĠMon": 3526,
      "Ġdog": 3527,
      "Ġmoved": 3528,
      "ports": 3529,
      "Ġadditional": 3530,
      "atever": 3531,
      "Ġsil": 3532,
      "aches": 3533,
      "irth": 3534,
      "men": 3535,
      "icient": 3536,
      "Ġsle": 3537,
      "Ġlaunch": 3538,
      "aughter": 3539,
      "olute": 3540,
      "de": 3541,
      "ilies": 3542,
      "Ġalleged": 3543,
      "berg": 3544,
      "ampions": 3545,
      "omen": 3546,
      "airs": 3547,
      "Ġmoving": 3548,
      "Ġstage": 3549,
      "ĠJack": 3550,
      "imum": 3551,
      "Ġrelative": 3552,
      "Ġdisapp": 3553,
      "Ġmeaning": 3554,
      "itness": 3555,
      "ĠThen": 3556,
      "\":": 3557,
      "Ġclean": 3558,
      "ĠRich": 3559,
      "Ġdark": 3560,
      "roy": 3561,
      "Ġbrain": 3562,
      "Ġign": 3563,
      "ĠDemocrats": 3564,
      "Ġfan": 3565,
      "Ġpark": 3566,
      "adem": 3567,
      "iment": 3568,
      "more": 3569,
      "ĠBo": 3570,
      "Ġhelped": 3571,
      "Ġappears": 3572,
      "Ġreasons": 3573,
      "ĠSim": 3574,
      "Ġdeg": 3575,
      "Ġconditions": 3576,
      "ĠAssoci": 3577,
      "Ġnature": 3578,
      "ĠApple": 3579,
      "ĠWilliam": 3580,
      "Ġmyself": 3581,
      "ĠMart": 3582,
      "rief": 3583,
      "ÃĥÃĤ": 3584,
      "Ġyes": 3585,
      "Ġmaybe": 3586,
      "Ġnuclear": 3587,
      "ÃĥÃĤÃĥÃĤ": 3588,
      "Ġdate": 3589,
      "Ġfailed": 3590,
      "OT": 3591,
      "ĠII": 3592,
      "Ġhappy": 3593,
      "AD": 3594,
      "ĠSuper": 3595,
      "Ġbeginning": 3596,
      "ĠVal": 3597,
      "Ġsuspect": 3598,
      "Ġsat": 3599,
      "itation": 3600,
      "Ġdrive": 3601,
      "agon": 3602,
      "Ġtour": 3603,
      "Ġtouch": 3604,
      "Ġaim": 3605,
      "Ġorganization": 3606,
      "ocked": 3607,
      "Ġencour": 3608,
      "ĠDay": 3609,
      "wood": 3610,
      "Ġbudget": 3611,
      "Ġbattle": 3612,
      "27": 3613,
      "Ġcharacters": 3614,
      "yan": 3615,
      "Ġcopy": 3616,
      "Ġcris": 3617,
      "Ġnom": 3618,
      "just": 3619,
      "Ġcomputer": 3620,
      "Ġwall": 3621,
      "Ġcommand": 3622,
      "Ġconference": 3623,
      "Ġeyes": 3624,
      "Ġnecessary": 3625,
      "amb": 3626,
      "Ġdifference": 3627,
      "aint": 3628,
      "Ġstra": 3629,
      "Ġpowerful": 3630,
      "Ġdevice": 3631,
      "Ġbooks": 3632,
      "Ġestim": 3633,
      "sp": 3634,
      "Ġdisp": 3635,
      "ĠOf": 3636,
      "Ġleague": 3637,
      "Ġpresidential": 3638,
      "Ġforced": 3639,
      "erve": 3640,
      "Ġcollege": 3641,
      "Ġtitle": 3642,
      "craft": 3643,
      "Ġcentury": 3644,
      "Ġpositive": 3645,
      "cient": 3646,
      "Ġsal": 3647,
      "enty": 3648,
      "ĠRober": 3649,
      "35": 3650,
      "Ġbal": 3651,
      "ĠHere": 3652,
      "Ġcitizens": 3653,
      "Ġrefer": 3654,
      "ID": 3655,
      "Ġcandidate": 3656,
      "Ġ196": 3657,
      "Ġshown": 3658,
      "Ġlargest": 3659,
      "iable": 3660,
      "ĠServ": 3661,
      "ĠÐ": 3662,
      "Ġilleg": 3663,
      "aud": 3664,
      "ĠWind": 3665,
      "ĠTor": 3666,
      "Ġsche": 3667,
      "Be": 3668,
      "ivity": 3669,
      "Ġfeature": 3670,
      "Ġscore": 3671,
      "Ġtrust": 3672,
      "Ġband": 3673,
      "Ġcontribut": 3674,
      "ĠSyria": 3675,
      "ĠDis": 3676,
      "lease": 3677,
      "ET": 3678,
      "ufact": 3679,
      "ĠÂ£": 3680,
      "Ġspending": 3681,
      "Ġcool": 3682,
      "Ġfirm": 3683,
      "ĠEnglish": 3684,
      "ĠAir": 3685,
      "AP": 3686,
      "Ġlimited": 3687,
      "igration": 3688,
      "Ġaware": 3689,
      "ĠBen": 3690,
      "Ġreligious": 3691,
      "Ġeventually": 3692,
      "Ġthrow": 3693,
      "Ġ29": 3694,
      "Ġexecutive": 3695,
      "orney": 3696,
      "ĠFrench": 3697,
      "Ġmeant": 3698,
      "Ġautom": 3699,
      "Ġarch": 3700,
      "OM": 3701,
      "orks": 3702,
      "Ġschools": 3703,
      "Ġpus": 3704,
      "Ġesc": 3705,
      "26": 3706,
      "My": 3707,
      "Ġgrad": 3708,
      "Ġcompared": 3709,
      "ken": 3710,
      "Ġphysical": 3711,
      "ĠNe": 3712,
      "Ġhar": 3713,
      "Ġyourself": 3714,
      "Ġang": 3715,
      "cul": 3716,
      "Ġstreng": 3717,
      "Ġcorrect": 3718,
      "Ġconfir": 3719,
      "Ġcrowd": 3720,
      "ares": 3721,
      "rated": 3722,
      "Ġfollowed": 3723,
      "ĠMex": 3724,
      "Ġfamilies": 3725,
      "Ġideas": 3726,
      "Ġeasily": 3727,
      "Ġgives": 3728,
      "Ġdetail": 3729,
      "Ġfeed": 3730,
      "Ġanalysis": 3731,
      "ĠStar": 3732,
      "Ġactions": 3733,
      "Ġmix": 3734,
      "Ġallows": 3735,
      "Ġdraft": 3736,
      "Ġsusp": 3737,
      "Ġdecades": 3738,
      "venue": 3739,
      "Ġsigned": 3740,
      "45": 3741,
      "urance": 3742,
      "Ġnice": 3743,
      "ĠEU": 3744,
      "ressed": 3745,
      "iring": 3746,
      "inn": 3747,
      "Is": 3748,
      "ero": 3749,
      "Ġuses": 3750,
      "New": 3751,
      "Ġdisplay": 3752,
      "band": 3753,
      "Ġoverall": 3754,
      "Ġpolitics": 3755,
      "Ġx": 3756,
      "tt": 3757,
      "board": 3758,
      "Ġsenior": 3759,
      "Ġpsych": 3760,
      "Ġcrime": 3761,
      "Ġcat": 3762,
      "Ġaltern": 3763,
      "Ġappeared": 3764,
      "Ġmist": 3765,
      "Ġgoals": 3766,
      "Ġconflic": 3767,
      "ĠArab": 3768,
      "By": 3769,
      "Ġcontinues": 3770,
      "Ġrap": 3771,
      "Ġcentral": 3772,
      "ĠBel": 3773,
      "Ġanaly": 3774,
      "Don": 3775,
      "ĠEarth": 3776,
      "iance": 3777,
      "Ġdise": 3778,
      "Ġincome": 3779,
      "rs": 3780,
      "ĠSmith": 3781,
      "ĠCap": 3782,
      "chan": 3783,
      "ĠInternational": 3784,
      "Ġdrop": 3785,
      "Advertisement": 3786,
      "ĠAngel": 3787,
      "pre": 3788,
      "Ġweapons": 3789,
      "encies": 3790,
      "lements": 3791,
      "Ġfrequ": 3792,
      "ota": 3793,
      "resh": 3794,
      "Ġnoted": 3795,
      "uty": 3796,
      "iny": 3797,
      "ĠJer": 3798,
      "Ġlif": 3799,
      "Ġdeveloped": 3800,
      "Ġunique": 3801,
      "ĠSchool": 3802,
      "ĠGovern": 3803,
      "According": 3804,
      "Ġpromot": 3805,
      "rol": 3806,
      "Ġprojects": 3807,
      "Ġtreatment": 3808,
      "100": 3809,
      "Ġbenefits": 3810,
      "Ġtruth": 3811,
      "Ġpeace": 3812,
      "itely": 3813,
      "ĠBer": 3814,
      "Ġcharge": 3815,
      "Ġpredict": 3816,
      "Ġapparent": 3817,
      "bum": 3818,
      "Ġlic": 3819,
      "Ġsmart": 3820,
      "onents": 3821,
      "Ġdoor": 3822,
      "EC": 3823,
      "Ġbeaut": 3824,
      "):": 3825,
      "Ġsto": 3826,
      "Ġchallenge": 3827,
      "Ġmanager": 3828,
      "ĠUnion": 3829,
      "Ġadvant": 3830,
      "Ġbrother": 3831,
      "Ġcustomers": 3832,
      "Ġclearly": 3833,
      "Ġrates": 3834,
      "Ġsales": 3835,
      "Ġindividuals": 3836,
      "Ġfully": 3837,
      "Ġcredit": 3838,
      "Ġstraight": 3839,
      "Ġrelated": 3840,
      "part": 3841,
      "orter": 3842,
      "ĠChristian": 3843,
      "ĠFranc": 3844,
      "owers": 3845,
      "box": 3846,
      "ING": 3847,
      "Ġcrisis": 3848,
      "ĠAustralia": 3849,
      "Ġhighly": 3850,
      "oti": 3851,
      "ĠGeorge": 3852,
      "Ġemb": 3853,
      "Ġweb": 3854,
      "ĠAnt": 3855,
      "Ġren": 3856,
      "ĠRec": 3857,
      "Ġrule": 3858,
      "mar": 3859,
      "Ġmeasure": 3860,
      "Ġlines": 3861,
      "ategy": 3862,
      "riage": 3863,
      "ĠGermany": 3864,
      "ki": 3865,
      "Ġminor": 3866,
      "Ġexpand": 3867,
      "ĠMac": 3868,
      "Ġpreviously": 3869,
      "Ġattract": 3870,
      "ĠPolice": 3871,
      "Ġresources": 3872,
      "Ġsuccessful": 3873,
      "Ġreform": 3874,
      "levision": 3875,
      "ĠBrown": 3876,
      "ounds": 3877,
      "Ġspread": 3878,
      "Ġpun": 3879,
      "ean": 3880,
      "Ġprograms": 3881,
      "Ġspir": 3882,
      "Ġkept": 3883,
      "Ġintelligence": 3884,
      "Some": 3885,
      "Ġlarger": 3886,
      "sey": 3887,
      "antly": 3888,
      "ĠGold": 3889,
      "Ġenem": 3890,
      "ĠFlor": 3891,
      "Ġseemed": 3892,
      "Ġincident": 3893,
      "ocks": 3894,
      "Ġnote": 3895,
      "28": 3896,
      "while": 3897,
      "change": 3898,
      "aith": 3899,
      "Ġrare": 3900,
      "ville": 3901,
      "Un": 3902,
      "ĠComp": 3903,
      "Ġvoice": 3904,
      "Ġknowledge": 3905,
      "Ġcriminal": 3906,
      "Ġplaces": 3907,
      "IA": 3908,
      "ĠRob": 3909,
      "iced": 3910,
      "Ġsave": 3911,
      "Pro": 3912,
      "ĠCouncil": 3913,
      "ĠHigh": 3914,
      "Ġknows": 3915,
      "Ġsend": 3916,
      "Ġreached": 3917,
      "Ġfeet": 3918,
      "secut": 3919,
      "Ġprem": 3920,
      "Ġfighting": 3921,
      "Ġunc": 3922,
      "ĠInternet": 3923,
      "Ġregular": 3924,
      "ĠDef": 3925,
      "Ġlaun": 3926,
      "Ġgreater": 3927,
      "ĠFrom": 3928,
      "dom": 3929,
      "Ġsources": 3930,
      "Ġspend": 3931,
      "Ġcolor": 3932,
      "Ġrise": 3933,
      "29": 3934,
      "Ġfine": 3935,
      "Ġclaimed": 3936,
      "Ġindic": 3937,
      "olic": 3938,
      "Ġplant": 3939,
      "icago": 3940,
      "bon": 3941,
      "Ġmanufact": 3942,
      "Ġtraff": 3943,
      "Ġcaused": 3944,
      "iled": 3945,
      "Ġprimary": 3946,
      "ube": 3947,
      "wide": 3948,
      "EO": 3949,
      "21": 3950,
      "roll": 3951,
      "osh": 3952,
      "onent": 3953,
      "Ġresearchers": 3954,
      "Ġintegr": 3955,
      "ĠEngland": 3956,
      "Ġowners": 3957,
      "Ġemot": 3958,
      "Ġstatus": 3959,
      "ĠGeneral": 3960,
      "Ġoptions": 3961,
      "Ġended": 3962,
      "oday": 3963,
      "Ġ>": 3964,
      "Ġshooting": 3965,
      "Ġliter": 3966,
      "term": 3967,
      "ĠEvery": 3968,
      "Ar": 3969,
      "icit": 3970,
      "ado": 3971,
      "ingly": 3972,
      "Ġfemale": 3973,
      "ĠBre": 3974,
      "Ġsupposed": 3975,
      "iders": 3976,
      "ĠLa": 3977,
      "Ġprint": 3978,
      "Ġ2007": 3979,
      "etro": 3980,
      "ya": 3981,
      "iverse": 3982,
      "que": 3983,
      "Ġhappens": 3984,
      "Ġcities": 3985,
      "usion": 3986,
      "Ġjump": 3987,
      "Ġreflect": 3988,
      "Ġshut": 3989,
      "lick": 3990,
      "inger": 3991,
      "Ġhaven": 3992,
      "ĠHam": 3993,
      "Ġarm": 3994,
      "ifying": 3995,
      "Ġprices": 3996,
      "Ġuns": 3997,
      "âĢĿ,": 3998,
      "Ġcalling": 3999,
      "Ġpros": 4000,
      "Ġstudies": 4001,
      "ĠMag": 4002,
      "Ġbeat": 4003,
      "Ġorganiz": 4004,
      "Ġnormal": 4005,
      "uana": 4006,
      "Ġnames": 4007,
      "Ġabsolute": 4008,
      "Ġpolicies": 4009,
      "Ġbasic": 4010,
      "ĠBay": 4011,
      "Not": 4012,
      "Ġtrou": 4013,
      "Ġemployees": 4014,
      "uman": 4015,
      "Ġvirt": 4016,
      "Ġconcerns": 4017,
      "ĠUp": 4018,
      "Ġadding": 4019,
      "ĠAP": 4020,
      "Ġtraditional": 4021,
      "Ġfavorite": 4022,
      "ront": 4023,
      "Ġgrand": 4024,
      "Ġimpl": 4025,
      "Ġcreating": 4026,
      "Ġcharges": 4027,
      "Ġmer": 4028,
      "Sc": 4029,
      "Ġraised": 4030,
      "ica": 4031,
      "Ġhospital": 4032,
      "Ġfunding": 4033,
      "Ġwait": 4034,
      "Ġauthorities": 4035,
      "Ġseeing": 4036,
      "Ġcommer": 4037,
      "90": 4038,
      "Ġlik": 4039,
      "ona": 4040,
      "Ġbeg": 4041,
      ".âĢĻ": 4042,
      "Ġacqu": 4043,
      "ĠGet": 4044,
      "Ġslight": 4045,
      "Ġfreedom": 4046,
      "oles": 4047,
      "ĠFlorida": 4048,
      "Ġactual": 4049,
      "ength": 4050,
      "OU": 4051,
      "Ġir": 4052,
      "Ġleaving": 4053,
      "Ġvac": 4054,
      "Ġscen": 4055,
      "vere": 4056,
      "Ġensure": 4057,
      "ijuana": 4058,
      "Ġagreement": 4059,
      "EL": 4060,
      "Ġminister": 4061,
      "Ġactivity": 4062,
      "aby": 4063,
      "kn": 4064,
      "rian": 4065,
      "Ġalbum": 4066,
      "ribution": 4067,
      "Ġoffered": 4068,
      "70": 4069,
      "Ġwilling": 4070,
      "Ġcry": 4071,
      "alse": 4072,
      "Ġappl": 4073,
      "Ġpush": 4074,
      "Ġbirth": 4075,
      "Ex": 4076,
      "ĠScott": 4077,
      "ĠMost": 4078,
      "ipped": 4079,
      "Ġmechan": 4080,
      "Ġweekend": 4081,
      "ĠSun": 4082,
      "ĠLaw": 4083,
      "Ġrevealed": 4084,
      "earch": 4085,
      "Ġgold": 4086,
      "Ġgreen": 4087,
      "Ġwild": 4088,
      ".'": 4089,
      "ĠTom": 4090,
      "500": 4091,
      "Ġparties": 4092,
      "Ġstation": 4093,
      "Ġmostly": 4094,
      "ipp": 4095,
      "Ġwonder": 4096,
      "Ġpropos": 4097,
      "acing": 4098,
      "ĠTrans": 4099,
      "Ġlearned": 4100,
      "ram": 4101,
      "Here": 4102,
      "Ġposted": 4103,
      "Ġstyle": 4104,
      "arliam": 4105,
      "Ġbrief": 4106,
      "Ġadop": 4107,
      "itude": 4108,
      "Ġdetermin": 4109,
      "ĠLet": 4110,
      "ĠAccording": 4111,
      "see": 4112,
      "miss": 4113,
      "ST": 4114,
      "Ġstrategy": 4115,
      "Ġâ": 4116,
      "istry": 4117,
      "ĠHillary": 4118,
      "Ġeth": 4119,
      "Ġbelieved": 4120,
      "Ġrank": 4121,
      "Ġpicture": 4122,
      "pen": 4123,
      "Ġinstall": 4124,
      "ĠReg": 4125,
      "Ġwhatever": 4126,
      "ĠWell": 4127,
      "Ġproduced": 4128,
      "ĠPeople": 4129,
      "ĠSecret": 4130,
      "ĠChicago": 4131,
      "Ġfeeling": 4132,
      "Ġarrested": 4133,
      "Ġbehavior": 4134,
      "pri": 4135,
      "ĠMo": 4136,
      "Ġstreet": 4137,
      "Ġwhom": 4138,
      "net": 4139,
      "Ġlawy": 4140,
      "Ġwat": 4141,
      "Ġdire": 4142,
      "33": 4143,
      "IL": 4144,
      "ĠFrance": 4145,
      "mark": 4146,
      "Cl": 4147,
      "Ġobser": 4148,
      "Ġadult": 4149,
      "Ġmission": 4150,
      "Ġmassive": 4151,
      "cher": 4152,
      "Ġqual": 4153,
      "Ġshowing": 4154,
      "Ġimages": 4155,
      "Ġchoose": 4156,
      "Ġenforce": 4157,
      "Ġdevices": 4158,
      "Ġvalues": 4159,
      "Ġrecords": 4160,
      "gen": 4161,
      "soft": 4162,
      "arliament": 4163,
      "Ġpatients": 4164,
      "Ġassault": 4165,
      "ĠOh": 4166,
      "Ġtemper": 4167,
      "Ġproduce": 4168,
      "Ġjudge": 4169,
      "ĠStud": 4170,
      "Ġapplication": 4171,
      "ĠAlex": 4172,
      "Ġinfluence": 4173,
      "Ġtend": 4174,
      "Ġcars": 4175,
      "Ġmount": 4176,
      "Ġprovides": 4177,
      "ocr": 4178,
      "ection": 4179,
      "ĠWall": 4180,
      "SA": 4181,
      "Ġhero": 4182,
      "uild": 4183,
      "Ġdream": 4184,
      "Ġruns": 4185,
      "ĠCommittee": 4186,
      "Ġlose": 4187,
      "igned": 4188,
      "ĠCommission": 4189,
      "Ġasking": 4190,
      "ĠPhil": 4191,
      "Ġetc": 4192,
      "Ġteac": 4193,
      "Ġnegoti": 4194,
      "Ġborder": 4195,
      "Ġvill": 4196,
      "roid": 4197,
      "ugg": 4198,
      "Ġcelebr": 4199,
      "Ġweight": 4200,
      "ĠLou": 4201,
      "ĠWhy": 4202,
      "iation": 4203,
      "Ġindependent": 4204,
      "Ġconfirmed": 4205,
      "ĠBush": 4206,
      "Ġdrink": 4207,
      "Ġoperations": 4208,
      "orial": 4209,
      "Ġresidents": 4210,
      "Ġcritical": 4211,
      "Ġeye": 4212,
      "ste": 4213,
      "ription": 4214,
      "Ġworse": 4215,
      "point": 4216,
      "Ġcommit": 4217,
      "Ġopposition": 4218,
      "no": 4219,
      "vest": 4220,
      "Ġpattern": 4221,
      "ĠKorea": 4222,
      "Ġlearning": 4223,
      "Ġbrand": 4224,
      "BA": 4225,
      "icial": 4226,
      "aked": 4227,
      "Ġdistrict": 4228,
      "Ġresponsible": 4229,
      "Ġenter": 4230,
      "ĠMal": 4231,
      "Ġdefend": 4232,
      "ented": 4233,
      "However": 4234,
      "Ġbenefit": 4235,
      "Ġfat": 4236,
      "cell": 4237,
      "Ġcru": 4238,
      "ĠMatt": 4239,
      "ĠSam": 4240,
      "Ġsolution": 4241,
      "ĠHealth": 4242,
      "ae": 4243,
      "Ġchair": 4244,
      "Ġoffers": 4245,
      "ĠJustice": 4246,
      "Ġtelevision": 4247,
      "udd": 4248,
      "ties": 4249,
      "cience": 4250,
      "ags": 4251,
      "Get": 4252,
      "Ġagreed": 4253,
      "Ġeffective": 4254,
      "Ġcore": 4255,
      "Ġcoal": 4256,
      "Ġdebt": 4257,
      "ĠPress": 4258,
      "mine": 4259,
      "Ġproposed": 4260,
      "Ġdollars": 4261,
      "Ġadvoc": 4262,
      "Ġinterested": 4263,
      "Ġbur": 4264,
      "Ġtrain": 4265,
      "Ġreplace": 4266,
      "ĠMod": 4267,
      "Ġder": 4268,
      "Ġchem": 4269,
      "ĠDel": 4270,
      "Ġprotest": 4271,
      "Ġsection": 4272,
      "ĠCup": 4273,
      "Ġmillions": 4274,
      "Ġpolitic": 4275,
      "ĠPort": 4276,
      "win": 4277,
      "Ġhighest": 4278,
      "rial": 4279,
      "Ġdigital": 4280,
      "Ġmemory": 4281,
      "CC": 4282,
      "Ġtypes": 4283,
      "Ġreject": 4284,
      "ĠWestern": 4285,
      "illing": 4286,
      "oly": 4287,
      "ords": 4288,
      "Ġexplained": 4289,
      "Ġopinion": 4290,
      "These": 4291,
      "ĠLiber": 4292,
      "ĠMil": 4293,
      "rav": 4294,
      "Ġassum": 4295,
      "ĠBecause": 4296,
      "Ġfit": 4297,
      "estic": 4298,
      "outhern": 4299,
      "Ġtick": 4300,
      "ĠUk": 4301,
      "ĠFrancis": 4302,
      "Ġopening": 4303,
      "Ġ80": 4304,
      "Ġdaily": 4305,
      "Ġmiles": 4306,
      "Ġtrial": 4307,
      "uries": 4308,
      "Ġheavy": 4309,
      "rad": 4310,
      "ĠOther": 4311,
      "Ġunderstanding": 4312,
      "ĠOur": 4313,
      "rate": 4314,
      "oom": 4315,
      "Ġoccas": 4316,
      "Ġbasis": 4317,
      "ĠPalest": 4318,
      "ĠOffice": 4319,
      "Ġrestrict": 4320,
      "Ġhundreds": 4321,
      "Ġbecomes": 4322,
      "Ġmachine": 4323,
      "Ġload": 4324,
      "ĠMicro": 4325,
      "Ġcontrovers": 4326,
      "Ġmap": 4327,
      "âĢ¢": 4328,
      "Con": 4329,
      "ĠBit": 4330,
      "aks": 4331,
      "orthern": 4332,
      "Ġcamera": 4333,
      "Ġonto": 4334,
      "Ġsurround": 4335,
      "Ġkick": 4336,
      "Ġstrik": 4337,
      "Ġadvantage": 4338,
      "Ġinvestment": 4339,
      "ĠMike": 4340,
      "Ġdefe": 4341,
      "icip": 4342,
      "ĠWindows": 4343,
      "GB": 4344,
      "Ġcondition": 4345,
      "ander": 4346,
      "Ġillegal": 4347,
      "ĠNFL": 4348,
      "ĠJohnson": 4349,
      "Ġgenerally": 4350,
      "Ġdouble": 4351,
      "Ġscientists": 4352,
      "Ġmur": 4353,
      "Ġpartners": 4354,
      "Ġdestroy": 4355,
      "75": 4356,
      "ĠFound": 4357,
      "Ġice": 4358,
      "Ġmale": 4359,
      "Ġmarriage": 4360,
      "Ġannounce": 4361,
      "Ġspl": 4362,
      "ading": 4363,
      "ĠGreat": 4364,
      "Ġjoin": 4365,
      "olf": 4366,
      "Ġachieve": 4367,
      "Ġbecoming": 4368,
      "Ġbomb": 4369,
      "Ġopened": 4370,
      "ĠDist": 4371,
      "lant": 4372,
      "well": 4373,
      "ĠSecurity": 4374,
      "Ġtheory": 4375,
      "Ġmanagement": 4376,
      "Ġharm": 4377,
      "ĠBig": 4378,
      "rig": 4379,
      "ih": 4380,
      "Ġdie": 4381,
      "Ġphoto": 4382,
      "Ġaccused": 4383,
      "azing": 4384,
      "Ġamb": 4385,
      "Ġunlike": 4386,
      "orrow": 4387,
      "Ġextremely": 4388,
      "irgin": 4389,
      "coming": 4390,
      "Ġfaith": 4391,
      "Ġserve": 4392,
      "Ġship": 4393,
      "ears": 4394,
      "ipe": 4395,
      "Ġshared": 4396,
      "PA": 4397,
      "Ġprofessional": 4398,
      "Ġelectric": 4399,
      "Ġeasier": 4400,
      "Ġthus": 4401,
      "eline": 4402,
      "Ġdoubt": 4403,
      "ĠAdd": 4404,
      "Mr": 4405,
      "ĠTer": 4406,
      "Ġwinning": 4407,
      "ĠIslamic": 4408,
      "Ġneighbor": 4409,
      "Ġbelief": 4410,
      "ortunately": 4411,
      "Ġmarijuana": 4412,
      "Ġobtain": 4413,
      "ishment": 4414,
      "Ġlegislation": 4415,
      "ĠSanders": 4416,
      "Ð¾": 4417,
      "ĠMany": 4418,
      "Ġincred": 4419,
      "level": 4420,
      "Ġnotes": 4421,
      "Ġ31": 4422,
      "ĠMad": 4423,
      "Ġnine": 4424,
      "Ġnegative": 4425,
      "Ġborn": 4426,
      "Ġreduce": 4427,
      "Ġvictory": 4428,
      "Ġlimit": 4429,
      "iful": 4430,
      "Ġresist": 4431,
      "Ġpurpose": 4432,
      "lands": 4433,
      "ĠHall": 4434,
      "mission": 4435,
      "Ġsolid": 4436,
      "Ġserved": 4437,
      "ĠArt": 4438,
      "Ġdocuments": 4439,
      "Ġvictims": 4440,
      "Ġnotice": 4441,
      "odes": 4442,
      "Ġreturned": 4443,
      "ĠLab": 4444,
      "do": 4445,
      "Ġframe": 4446,
      "Ġinstance": 4447,
      "za": 4448,
      "Ġbed": 4449,
      "acity": 4450,
      "Ġbottom": 4451,
      "rey": 4452,
      "Ġ2006": 4453,
      "ĠYour": 4454,
      "ario": 4455,
      "ghan": 4456,
      "ribe": 4457,
      "Ġ90": 4458,
      "ĠAtt": 4459,
      "Ġassociated": 4460,
      "Ġaudience": 4461,
      "Ġexisting": 4462,
      "Ġran": 4463,
      "Ġwealth": 4464,
      "Ġteach": 4465,
      "Ġsleep": 4466,
      "Ġnorth": 4467,
      "Ġepisode": 4468,
      "upp": 4469,
      "Ġvs": 4470,
      "Ġdepartment": 4471,
      "36": 4472,
      "ĠCommun": 4473,
      "Ġsun": 4474,
      "Ġlocation": 4475,
      "ĠChurch": 4476,
      "FC": 4477,
      "Ġconservative": 4478,
      "Ġactive": 4479,
      "Ġcomfort": 4480,
      "PS": 4481,
      "Ġinitial": 4482,
      "known": 4483,
      "Ġhearing": 4484,
      "ĠInstitute": 4485,
      "Ġchurch": 4486,
      "ĠEv": 4487,
      "Ġleadership": 4488,
      "ĠSl": 4489,
      "Ġspecies": 4490,
      "Ġexplain": 4491,
      "Ġargument": 4492,
      "ĠÃ": 4493,
      "atically": 4494,
      "inate": 4495,
      "BS": 4496,
      "house": 4497,
      "Ġdangerous": 4498,
      "Ġputting": 4499,
      "Ġseparate": 4500,
      "Ġcoverage": 4501,
      "Ġwatching": 4502,
      "witch": 4503,
      "ĠInc": 4504,
      "ĠCanadian": 4505,
      "Ġviews": 4506,
      "bert": 4507,
      "Ġrat": 4508,
      "Ġ35": 4509,
      "omas": 4510,
      "44": 4511,
      "Ġitems": 4512,
      "________": 4513,
      "ios": 4514,
      "Ġcontain": 4515,
      "Ġdrugs": 4516,
      "works": 4517,
      "Ġgay": 4518,
      "ĠGame": 4519,
      "Ġdefinitely": 4520,
      "Ġlaunched": 4521,
      "Ġfresh": 4522,
      "ĠCr": 4523,
      "EM": 4524,
      "ĠUN": 4525,
      "Ġinternet": 4526,
      "Ġpurs": 4527,
      "Ġspoke": 4528,
      "Ġcommunities": 4529,
      "Ġappeal": 4530,
      "Ġradio": 4531,
      "Bl": 4532,
      "Ġrepeated": 4533,
      "iliar": 4534,
      "Ġsupporters": 4535,
      "ĠOver": 4536,
      "which": 4537,
      "iller": 4538,
      "ĠWil": 4539,
      "ribute": 4540,
      "zen": 4541,
      "akistan": 4542,
      "Ġrefere": 4543,
      "ography": 4544,
      "inct": 4545,
      "Ġcommittee": 4546,
      "ada": 4547,
      "Ġstructure": 4548,
      "ĠFBI": 4549,
      "Ġnovel": 4550,
      "Ġcommercial": 4551,
      "istics": 4552,
      "Ġreact": 4553,
      "Ġmobile": 4554,
      "Ġdaughter": 4555,
      "Ġissued": 4556,
      "ĠĊ": 4557,
      "Ġsurface": 4558,
      "Ġdirection": 4559,
      "ctors": 4560,
      "asy": 4561,
      "Ġtrend": 4562,
      "ource": 4563,
      "OL": 4564,
      "ĠLos": 4565,
      "Ġdiscovered": 4566,
      "Ġnor": 4567,
      "Ġsuggested": 4568,
      "ĠSince": 4569,
      "ĠBank": 4570,
      "Ġstated": 4571,
      "ĠAre": 4572,
      "ĠFin": 4573,
      "met": 4574,
      "ady": 4575,
      "Ġvehicle": 4576,
      "anted": 4577,
      "ĠBritain": 4578,
      "Ġtelling": 4579,
      "resp": 4580,
      "ĠAfrica": 4581,
      "Ġmax": 4582,
      "Ġtells": 4583,
      "ĠChris": 4584,
      "Ġfarm": 4585,
      "Ġdecade": 4586,
      "Ġhus": 4587,
      "Ġcompetition": 4588,
      "ĠLike": 4589,
      "going": 4590,
      "Ġcontext": 4591,
      "Ġinsurance": 4592,
      "ĠFox": 4593,
      "ĠDirect": 4594,
      "Ġrestaur": 4595,
      "Ġfalse": 4596,
      "ĠCarol": 4597,
      "Ġcash": 4598,
      "32": 4599,
      "tered": 4600,
      "ĠKen": 4601,
      "Ġconcerned": 4602,
      "Ġcharged": 4603,
      "ĠUkrain": 4604,
      "Ġfuel": 4605,
      "Ġclosed": 4606,
      "NN": 4607,
      "ĠTy": 4608,
      "Ġgeneration": 4609,
      "Ġwitness": 4610,
      "bing": 4611,
      "oman": 4612,
      "ĠPM": 4613,
      "Ġworst": 4614,
      "Ġbackground": 4615,
      "Ġmicro": 4616,
      "Ġdisease": 4617,
      "Ġolder": 4618,
      "vention": 4619,
      "Ġcards": 4620,
      "ĠPri": 4621,
      "Ġentirely": 4622,
      "gency": 4623,
      "arant": 4624,
      "Ġlabor": 4625,
      "Ġfloor": 4626,
      "88": 4627,
      "!âĢĿ": 4628,
      "CH": 4629,
      "Ġsmaller": 4630,
      "ference": 4631,
      "Americ": 4632,
      "ius": 4633,
      "Ġtools": 4634,
      "semb": 4635,
      "Ġcaught": 4636,
      "Ġdriving": 4637,
      "Ġded": 4638,
      "Ġsupported": 4639,
      "Ġtask": 4640,
      "ulf": 4641,
      "Ġcompar": 4642,
      "Ġsites": 4643,
      "ĠTHE": 4644,
      "NA": 4645,
      "andon": 4646,
      "Ġblue": 4647,
      "Ġaspect": 4648,
      "Ġwel": 4649,
      "Ġtransport": 4650,
      "ĠAfrican": 4651,
      "Ġtraffic": 4652,
      "Ġplease": 4653,
      "itable": 4654,
      "ĠJones": 4655,
      "Ġfinding": 4656,
      "Ġdriver": 4657,
      "overy": 4658,
      "ĠQue": 4659,
      "ĠIsraeli": 4660,
      "iling": 4661,
      "Ġplays": 4662,
      "Ġ70": 4663,
      "andom": 4664,
      "Image": 4665,
      "ampionship": 4666,
      "ossible": 4667,
      "ĠRobert": 4668,
      "night": 4669,
      "iest": 4670,
      "====": 4671,
      "ĠSup": 4672,
      "Ġaccur": 4673,
      "Ġstrateg": 4674,
      "37": 4675,
      "34": 4676,
      "Ġallowing": 4677,
      "ĠAM": 4678,
      "icy": 4679,
      "oyal": 4680,
      "Ġlargely": 4681,
      "Ġkid": 4682,
      "ĠJewish": 4683,
      "equ": 4684,
      "Ġrequires": 4685,
      "Le": 4686,
      "Ġjustice": 4687,
      "Ġphil": 4688,
      "Ġconsequ": 4689,
      "spe": 4690,
      "Ġge": 4691,
      "ĠMiss": 4692,
      "Ġstrength": 4693,
      "ici": 4694,
      "Ġconcern": 4695,
      "Ġraise": 4696,
      "Ġtesting": 4697,
      "Ġstock": 4698,
      "Ġtransfer": 4699,
      "Ġhack": 4700,
      "Ġtruly": 4701,
      "ulated": 4702,
      "azon": 4703,
      "igrants": 4704,
      "hem": 4705,
      "ĠVer": 4706,
      "Ġdecisions": 4707,
      "38": 4708,
      "ception": 4709,
      "Ġcateg": 4710,
      "Ġannual": 4711,
      "Ġafford": 4712,
      "ait": 4713,
      "Ġanimals": 4714,
      "how": 4715,
      "ĠJeff": 4716,
      "olly": 4717,
      "Ġrough": 4718,
      "Ġattend": 4719,
      "Ġactivities": 4720,
      "izes": 4721,
      "kins": 4722,
      "Ġcandidates": 4723,
      "nel": 4724,
      "SP": 4725,
      "ocracy": 4726,
      "Ġmentioned": 4727,
      "anging": 4728,
      "ĠAfghan": 4729,
      "cont": 4730,
      "Ġ2018": 4731,
      "Ġplanning": 4732,
      "but": 4733,
      "ĠAc": 4734,
      "ĠAngeles": 4735,
      "Ġexerc": 4736,
      "Ġjoined": 4737,
      "Ġconstruction": 4738,
      "Ġrecommend": 4739,
      "Ġwaiting": 4740,
      "Ġexclus": 4741,
      "Ġiniti": 4742,
      "ĠSil": 4743,
      "Ġholding": 4744,
      "cknow": 4745,
      "Ġunit": 4746,
      "bour": 4747,
      "Ġremoved": 4748,
      "Ġrefuge": 4749,
      "Ġbelieves": 4750,
      "Ġdiscussion": 4751,
      "Ġscale": 4752,
      "More": 4753,
      "Ġplaced": 4754,
      "Ġsouth": 4755,
      "ĠPre": 4756,
      "Ġcatch": 4757,
      "serv": 4758,
      "Ġdeliver": 4759,
      "ĠGOP": 4760,
      "DA": 4761,
      "anda": 4762,
      "Ġtim": 4763,
      "phone": 4764,
      "âĢĺ": 4765,
      "Ġsan": 4766,
      "Ġmurder": 4767,
      "Ġpresence": 4768,
      "Ġhomes": 4769,
      "annel": 4770,
      "pective": 4771,
      "inter": 4772,
      "ĠMer": 4773,
      "ĠGree": 4774,
      "Ġconflict": 4775,
      "isation": 4776,
      "Ġbusinesses": 4777,
      "##": 4778,
      "ĠAssociation": 4779,
      "lor": 4780,
      "Ġsports": 4781,
      "rency": 4782,
      "Ġhasn": 4783,
      "ĠPakistan": 4784,
      "osure": 4785,
      "Ġupdate": 4786,
      "Ġabuse": 4787,
      "Ġgirls": 4788,
      "!!": 4789,
      "Ġcook": 4790,
      "Ġcancer": 4791,
      "onto": 4792,
      "Ġfant": 4793,
      "ancy": 4794,
      "Ġspokesman": 4795,
      "Ġguess": 4796,
      "ĠFore": 4797,
      "Ã¡": 4798,
      "Ġconversation": 4799,
      "ĠFrank": 4800,
      "Ġbul": 4801,
      "ibrary": 4802,
      "ĠOut": 4803,
      "Ġintroduced": 4804,
      "Ġinjury": 4805,
      "ĠCEO": 4806,
      "39": 4807,
      "formation": 4808,
      "bre": 4809,
      "Ġestablished": 4810,
      "Ġcells": 4811,
      "Ġproviding": 4812,
      "season": 4813,
      "Ġuseful": 4814,
      "ĠVirgin": 4815,
      "lig": 4816,
      "ĠLeg": 4817,
      "ava": 4818,
      "ĠConst": 4819,
      "Ġinterests": 4820,
      "ey": 4821,
      "ĠInstead": 4822,
      "Ġmodels": 4823,
      "azine": 4824,
      "Ġmissing": 4825,
      "Ġearth": 4826,
      "Ġeat": 4827,
      "ros": 4828,
      "Ġstopped": 4829,
      "ĠJud": 4830,
      "ĠMet": 4831,
      "55": 4832,
      "rick": 4833,
      "Ġsubsc": 4834,
      "icon": 4835,
      "Ġhousing": 4836,
      "Ġpet": 4837,
      "Ġtransl": 4838,
      "Ġsetting": 4839,
      "ĠMicrosoft": 4840,
      "Ġlength": 4841,
      "Ġspirit": 4842,
      "Ġfiles": 4843,
      "ĠTre": 4844,
      "Ġfourth": 4845,
      "what": 4846,
      "itz": 4847,
      "Ġoffensive": 4848,
      "RA": 4849,
      "vant": 4850,
      "Ġcircum": 4851,
      "oms": 4852,
      "kin": 4853,
      "ĠSal": 4854,
      "Our": 4855,
      "la": 4856,
      "ĠJim": 4857,
      "oted": 4858,
      "Ġobvious": 4859,
      "Ġtherefore": 4860,
      "Ġprefer": 4861,
      "Ġfinished": 4862,
      "Ġconclud": 4863,
      "ĠMP": 4864,
      "Ġsequ": 4865,
      "ĠKh": 4866,
      "ĠJapanese": 4867,
      "Ġskills": 4868,
      "Ġcommitted": 4869,
      "Ġveter": 4870,
      "Ġenforcement": 4871,
      "Ġfocused": 4872,
      "ĠGroup": 4873,
      "Ġdownload": 4874,
      "rd": 4875,
      "ĠTim": 4876,
      "Ġoperation": 4877,
      "real": 4878,
      "ĠPC": 4879,
      "Ġstick": 4880,
      "owl": 4881,
      "Ġpartner": 4882,
      "Ġgraph": 4883,
      "Ġacknow": 4884,
      "Ġbanks": 4885,
      "TC": 4886,
      "Ġidentity": 4887,
      "Ġappropri": 4888,
      "eah": 4889,
      "ĠMexico": 4890,
      "Ġnewsp": 4891,
      "cks": 4892,
      "Ġoccup": 4893,
      "Ġfeels": 4894,
      "umn": 4895,
      "Ġtough": 4896,
      "Ġtweet": 4897,
      "Ġrelatively": 4898,
      "ĠStep": 4899,
      "ula": 4900,
      "48": 4901,
      "Ġ2005": 4902,
      "Ġotherwise": 4903,
      "ups": 4904,
      "ĠRyan": 4905,
      "Ġarrived": 4906,
      "ulate": 4907,
      "Pl": 4908,
      "AA": 4909,
      "Ġplanet": 4910,
      "Ġdat": 4911,
      "ucky": 4912,
      "Ġconnection": 4913,
      "Ġfigures": 4914,
      "igan": 4915,
      "Ġowner": 4916,
      "Ġmanaged": 4917,
      "Ġstrike": 4918,
      "****": 4919,
      "Ġkeeping": 4920,
      "ĠSupreme": 4921,
      "ĠLouis": 4922,
      "ĠProf": 4923,
      "ĠMont": 4924,
      "Ġsurvey": 4925,
      "apped": 4926,
      "Ġtrip": 4927,
      "itutional": 4928,
      "Ġexchange": 4929,
      "Ġcommission": 4930,
      "dden": 4931,
      "Ġelements": 4932,
      "amm": 4933,
      "Ġ2000": 4934,
      "Ġ=>": 4935,
      "ĠRichard": 4936,
      "ĠNor": 4937,
      "ĠAndroid": 4938,
      "Ġsteps": 4939,
      "Ġmeasures": 4940,
      "Ġdetect": 4941,
      "Ġhair": 4942,
      "outs": 4943,
      "wing": 4944,
      "gar": 4945,
      "Ġclick": 4946,
      "ĠPet": 4947,
      "Ġnone": 4948,
      "Ġrevolution": 4949,
      "Des": 4950,
      "ĠImages": 4951,
      "Ġhusband": 4952,
      "ĠRock": 4953,
      "ĠPalestin": 4954,
      "gypt": 4955,
      "ronic": 4956,
      "Ġsust": 4957,
      "Ġsupply": 4958,
      "onym": 4959,
      "mas": 4960,
      "Ġdefensive": 4961,
      "isf": 4962,
      "Ġstruct": 4963,
      "Ġassess": 4964,
      "uct": 4965,
      "Ġmere": 4966,
      "uke": 4967,
      "Ġaward": 4968,
      "hens": 4969,
      "Trump": 4970,
      "Ġcrew": 4971,
      "Ġfle": 4972,
      "ĠInter": 4973,
      "Ġslightly": 4974,
      "ĠMartin": 4975,
      "Ġidentified": 4976,
      "hi": 4977,
      "Ġsch": 4978,
      "49": 4979,
      "ĠGovernment": 4980,
      "iot": 4981,
      "ighter": 4982,
      "Ġcollection": 4983,
      "Ġtalks": 4984,
      "Ġbigger": 4985,
      "Ġkilling": 4986,
      "Ġprotection": 4987,
      "Ġfunds": 4988,
      "Ġphotos": 4989,
      "vis": 4990,
      "Ġcorner": 4991,
      "Ġroll": 4992,
      "ĠTeam": 4993,
      "ĠUSA": 4994,
      "ĠDec": 4995,
      "Ġhate": 4996,
      "agn": 4997,
      "Ġplanned": 4998,
      "Ġsuggests": 4999,
      "rees": 5000,
      "ĠChar": 5001,
      "Ġremind": 5002,
      "Ġwindow": 5003,
      "ĠSub": 5004,
      "makers": 5005,
      "Ġsudden": 5006,
      "Ġaggress": 5007,
      "ka": 5008,
      "ĠBern": 5009,
      "ĠGood": 5010,
      "Ġwish": 5011,
      "Ġfailure": 5012,
      "ĠArmy": 5013,
      "ils": 5014,
      "Ġweak": 5015,
      "Ġmental": 5016,
      "Ġhappening": 5017,
      "Ġspeaking": 5018,
      "ĠCollege": 5019,
      "stream": 5020,
      "Ġbeer": 5021,
      "uate": 5022,
      "adium": 5023,
      "ĠMary": 5024,
      "ĠYes": 5025,
      "ano": 5026,
      "Ġdecide": 5027,
      "ania": 5028,
      "Ġstanding": 5029,
      "ocal": 5030,
      "Ġdepend": 5031,
      "Ġ45": 5032,
      "place": 5033,
      "Ġsides": 5034,
      "enses": 5035,
      "Ġamazing": 5036,
      "Ġenvironmental": 5037,
      "Ġscript": 5038,
      "ĠAlthough": 5039,
      "ancing": 5040,
      "gers": 5041,
      "Ġappoint": 5042,
      "range": 5043,
      "uters": 5044,
      "47": 5045,
      "ĠSur": 5046,
      "Ġfamiliar": 5047,
      "Why": 5048,
      "Ġspect": 5049,
      "ola": 5050,
      "ĠJose": 5051,
      "Ġcarried": 5052,
      "Ġgain": 5053,
      "Ġseconds": 5054,
      "Ġprofessor": 5055,
      "Ġstarts": 5056,
      "Ġscientific": 5057,
      "Ġvul": 5058,
      "Ġthanks": 5059,
      "Ġhelping": 5060,
      "ĠJes": 5061,
      "idering": 5062,
      "ynam": 5063,
      "prof": 5064,
      "Ġvotes": 5065,
      "verse": 5066,
      "Ġorganizations": 5067,
      "odies": 5068,
      "Ġregist": 5069,
      "agues": 5070,
      "Ġimmigration": 5071,
      "ĠAtlant": 5072,
      "fe": 5073,
      "oston": 5074,
      "ĠResearch": 5075,
      "icide": 5076,
      "awn": 5077,
      "ĠIr": 5078,
      "Ġphilos": 5079,
      "Ġtaxes": 5080,
      "Photo": 5081,
      "Ġguard": 5082,
      "Ġmulti": 5083,
      "ĠThomas": 5084,
      "ĠSecretary": 5085,
      "Go": 5086,
      "arks": 5087,
      "Ġ;": 5088,
      "!\"": 5089,
      "Ġque": 5090,
      "Ġimpossible": 5091,
      "mail": 5092,
      "Ġsolar": 5093,
      "eless": 5094,
      "Ġprinc": 5095,
      "hedul": 5096,
      "ĠAlso": 5097,
      "ĠJoe": 5098,
      "Ġdegree": 5099,
      "Ġworry": 5100,
      "cious": 5101,
      "ias": 5102,
      "Ġtack": 5103,
      "Ð°": 5104,
      "Ġfellow": 5105,
      "Last": 5106,
      "with": 5107,
      "illa": 5108,
      "Ġappre": 5109,
      "HL": 5110,
      "ader": 5111,
      "Ġvariety": 5112,
      "ĠSyrian": 5113,
      "Ġreligion": 5114,
      "Ġserver": 5115,
      "iser": 5116,
      "ĠTheir": 5117,
      "Ġ32": 5118,
      "IM": 5119,
      "Ðµ": 5120,
      "aven": 5121,
      "gn": 5122,
      "ĠFire": 5123,
      "run": 5124,
      "Ġgender": 5125,
      "Ġneighborhood": 5126,
      "Ġhonest": 5127,
      "Ġpair": 5128,
      "Ġalternative": 5129,
      "acks": 5130,
      "Ġcold": 5131,
      "ĠUs": 5132,
      "Ġinteract": 5133,
      "Ġdropped": 5134,
      "roud": 5135,
      "Ġfiled": 5136,
      "Ġlived": 5137,
      "Ġauthority": 5138,
      "ipping": 5139,
      "Ġbalance": 5140,
      "ipment": 5141,
      "Ġchanging": 5142,
      "Ġterrit": 5143,
      "stein": 5144,
      "Ġapparently": 5145,
      "Ġflight": 5146,
      "Ġacadem": 5147,
      "arsh": 5148,
      "Ġpossibly": 5149,
      "ĠPrime": 5150,
      "erous": 5151,
      "Ġdeploy": 5152,
      "âĢĶâĢĶ": 5153,
      "ĠLast": 5154,
      "Ġtwice": 5155,
      "ĠBur": 5156,
      "46": 5157,
      "ocol": 5158,
      "Ġunivers": 5159,
      "ĠDistrict": 5160,
      "Ġaccounts": 5161,
      "Ġlosing": 5162,
      "Ġerror": 5163,
      "Ġstandards": 5164,
      "aded": 5165,
      "Ġinnov": 5166,
      "ĠPeter": 5167,
      "Ġtast": 5168,
      "Ġabsolutely": 5169,
      "ND": 5170,
      "ansion": 5171,
      "ION": 5172,
      "Ġhumans": 5173,
      "ĠToronto": 5174,
      "Ġultimately": 5175,
      "Ġsounds": 5176,
      "rastructure": 5177,
      "Ġsea": 5178,
      "Ġapply": 5179,
      "ym": 5180,
      "olit": 5181,
      "ĠFoundation": 5182,
      "Ġcolle": 5183,
      "Ġcuts": 5184,
      "Ġincreasingly": 5185,
      "Ġturns": 5186,
      "ĠAri": 5187,
      "Ġvast": 5188,
      "Ġmarkets": 5189,
      "ĠTwo": 5190,
      "Ġshall": 5191,
      "icted": 5192,
      "Ġhealthy": 5193,
      "osen": 5194,
      "itect": 5195,
      "Ġsoldiers": 5196,
      "ruit": 5197,
      "Ġexpensive": 5198,
      "Ġtests": 5199,
      "Ġapart": 5200,
      "Ġrich": 5201,
      "ashed": 5202,
      "Ġcorporate": 5203,
      "ĠWeb": 5204,
      "Ġpossibility": 5205,
      "Ġdeveloping": 5206,
      "Ġcloser": 5207,
      "ores": 5208,
      "Ġwriter": 5209,
      "Ġbatter": 5210,
      "Ġbeautiful": 5211,
      "Ġdevelopers": 5212,
      "och": 5213,
      "Read": 5214,
      "under": 5215,
      "Ġregarding": 5216,
      "From": 5217,
      "ayer": 5218,
      "Ġuniversity": 5219,
      "ĠDen": 5220,
      "Ġdomestic": 5221,
      "Of": 5222,
      "Ġoperating": 5223,
      "obby": 5224,
      "Ġarmy": 5225,
      "mitted": 5226,
      "ologies": 5227,
      "ĠTime": 5228,
      "Ġsitting": 5229,
      "aine": 5230,
      "ĠCarolina": 5231,
      "Ġarms": 5232,
      "Ġagencies": 5233,
      "ĠCur": 5234,
      "atures": 5235,
      "Ġath": 5236,
      "Ġunless": 5237,
      "Ġanimal": 5238,
      "Ġexperts": 5239,
      "ĠEgypt": 5240,
      "aren": 5241,
      "Ġguarant": 5242,
      "Ġpaying": 5243,
      "Ġresponsibility": 5244,
      "Ġmut": 5245,
      "ĠMos": 5246,
      "pm": 5247,
      "Ġapplications": 5248,
      "Ġvision": 5249,
      "LE": 5250,
      "den": 5251,
      "ĠCentral": 5252,
      "Ġschedul": 5253,
      "Ã¤": 5254,
      "Ġcapacity": 5255,
      "rible": 5256,
      "Ġskin": 5257,
      "Ġattorney": 5258,
      "Ġtrail": 5259,
      "ĠUnder": 5260,
      "look": 5261,
      "imal": 5262,
      "Ġpil": 5263,
      "Ġimagine": 5264,
      "Ġseeking": 5265,
      "ĠPlan": 5266,
      "oving": 5267,
      "Ġinternal": 5268,
      "lets": 5269,
      "apers": 5270,
      "Ġunits": 5271,
      "isted": 5272,
      "Ġforms": 5273,
      "()": 5274,
      "ĠST": 5275,
      "IV": 5276,
      "ĠAmazon": 5277,
      "Ġcovered": 5278,
      "ĠMiddle": 5279,
      "ĠService": 5280,
      "Ġyards": 5281,
      "Ġconvention": 5282,
      "gu": 5283,
      "ĠJon": 5284,
      "alls": 5285,
      "Ġunion": 5286,
      "Ġheat": 5287,
      "Ġadjust": 5288,
      "Ġexpert": 5289,
      "Even": 5290,
      "Ġhelps": 5291,
      "Ġsurprise": 5292,
      "Ġfamous": 5293,
      "TH": 5294,
      "Ġ2004": 5295,
      "Ġelections": 5296,
      "Just": 5297,
      "hand": 5298,
      "uster": 5299,
      "ĠFrancisco": 5300,
      "Ġfif": 5301,
      "Ġrid": 5302,
      "Ġgar": 5303,
      "anche": 5304,
      "Ġelim": 5305,
      "person": 5306,
      "ĠCamp": 5307,
      "Ġfol": 5308,
      "Ġbrow": 5309,
      "Ġbroken": 5310,
      "Ġestimated": 5311,
      "related": 5312,
      "Ġteen": 5313,
      "Ġpresented": 5314,
      "Ġpit": 5315,
      "ĠCath": 5316,
      "Ġinstit": 5317,
      "Ġintended": 5318,
      "Let": 5319,
      "ĠBitcoin": 5320,
      "Ġnar": 5321,
      "ressive": 5322,
      "OW": 5323,
      "ĠBoston": 5324,
      "Ġvulner": 5325,
      "ortion": 5326,
      "ENT": 5327,
      "uration": 5328,
      "eder": 5329,
      "ĠSol": 5330,
      "terday": 5331,
      "Ġsymb": 5332,
      "porary": 5333,
      "pret": 5334,
      "state": 5335,
      "ĠJournal": 5336,
      "Ġtroops": 5337,
      "Ġera": 5338,
      "01": 5339,
      "Ġpieces": 5340,
      "Ġlocated": 5341,
      "Ġbaby": 5342,
      "coh": 5343,
      "enced": 5344,
      "Ġodd": 5345,
      "ĠLat": 5346,
      "road": 5347,
      "ĠThose": 5348,
      "Ġton": 5349,
      "Ġfired": 5350,
      "Ġstreets": 5351,
      "idden": 5352,
      "cel": 5353,
      "Ġrefused": 5354,
      "ĠVirginia": 5355,
      "Ġrapid": 5356,
      "ours": 5357,
      "Ġspecifically": 5358,
      "Ġconsult": 5359,
      "Ġdin": 5360,
      "lymp": 5361,
      "Ġbringing": 5362,
      "Ġequipment": 5363,
      "Ġearn": 5364,
      "Ġtight": 5365,
      "Ġequal": 5366,
      "Ġsport": 5367,
      "Ġvehicles": 5368,
      "Ġstars": 5369,
      "isher": 5370,
      "ĠMur": 5371,
      "Ġseasons": 5372,
      "ĠGal": 5373,
      "Ġoccurred": 5374,
      "Ġconclus": 5375,
      "Ab": 5376,
      "uzz": 5377,
      "ureau": 5378,
      "Every": 5379,
      "Ġplenty": 5380,
      "Ġdetermine": 5381,
      "].": 5382,
      "yr": 5383,
      "Ġpotentially": 5384,
      "Ġscr": 5385,
      "ĠWho": 5386,
      "65": 5387,
      "Ġsector": 5388,
      "Ġcombat": 5389,
      "Ġprepared": 5390,
      "rie": 5391,
      "??": 5392,
      "inating": 5393,
      "cean": 5394,
      "Ġgovernments": 5395,
      "Ġprove": 5396,
      "ĠAny": 5397,
      "Ġstret": 5398,
      "Ġproposal": 5399,
      "Ġinsp": 5400,
      "Ġfaster": 5401,
      "Ġboost": 5402,
      "ĠRo": 5403,
      "Ġcouncil": 5404,
      "ĠSocial": 5405,
      "useum": 5406,
      "Ġprosecut": 5407,
      "31": 5408,
      "ocking": 5409,
      "Ġvoted": 5410,
      "icate": 5411,
      "Ġinfrastructure": 5412,
      "Do": 5413,
      "Ġclim": 5414,
      "ĠIsland": 5415,
      "ĠMass": 5416,
      "ĠMedic": 5417,
      "ĠChief": 5418,
      "Ġclot": 5419,
      "Ġruling": 5420,
      "Ġpositions": 5421,
      "Ġdram": 5422,
      "Ġflow": 5423,
      "IP": 5424,
      "ĠPublic": 5425,
      "Ġselling": 5426,
      "orage": 5427,
      "ĠRub": 5428,
      "Ġoffering": 5429,
      "Ġbreat": 5430,
      "ĠSaud": 5431,
      "----------------": 5432,
      "ĠLee": 5433,
      "Ġbroke": 5434,
      "ĠMel": 5435,
      "ĠOnce": 5436,
      "ĠPut": 5437,
      "Ġchallenges": 5438,
      "Ġpointed": 5439,
      "Ġvir": 5440,
      "Ġsecure": 5441,
      "ĠParis": 5442,
      "phas": 5443,
      "Ġweapon": 5444,
      "Ĥ¬": 5445,
      "gl": 5446,
      "Ġcultural": 5447,
      "ĠSpr": 5448,
      "Ġgreatest": 5449,
      "Ġhyp": 5450,
      "ket": 5451,
      "Ġremove": 5452,
      "Ġfinish": 5453,
      "ĠRiver": 5454,
      "sen": 5455,
      "Ġtrig": 5456,
      "Ġturning": 5457,
      "ashion": 5458,
      "Ġexpressed": 5459,
      "Ġelected": 5460,
      "Ġjail": 5461,
      "lyn": 5462,
      "Ġchemical": 5463,
      "noon": 5464,
      "Ġaircraft": 5465,
      "ĠProt": 5466,
      "Ġcarbon": 5467,
      "Up": 5468,
      "Ġbought": 5469,
      "olved": 5470,
      "ĠJo": 5471,
      "Ġmethods": 5472,
      "Ġoriginally": 5473,
      ",'": 5474,
      "Ġheav": 5475,
      "Ġretail": 5476,
      "Ġshape": 5477,
      "Ġcriticism": 5478,
      "class": 5479,
      "Ġ1990": 5480,
      "standing": 5481,
      "Ġweren": 5482,
      "ĠForce": 5483,
      "ĠFederal": 5484,
      "ĠDuring": 5485,
      "Ġremained": 5486,
      "ini": 5487,
      "Ġtourn": 5488,
      "Ġconducted": 5489,
      "oty": 5490,
      "war": 5491,
      "Ġprime": 5492,
      "that": 5493,
      "Ġherself": 5494,
      "ĠDan": 5495,
      "Ġsigns": 5496,
      "Ġfacing": 5497,
      "Ġsale": 5498,
      "Ġclin": 5499,
      "Ġfactors": 5500,
      "vey": 5501,
      "ĠCru": 5502,
      "Ġstress": 5503,
      "Ġappearance": 5504,
      "Ġvoting": 5505,
      "Ġmaster": 5506,
      "Ġobviously": 5507,
      "ĠOlymp": 5508,
      "Ġtele": 5509,
      "Ġinvolve": 5510,
      "ĠGuard": 5511,
      "Ġhandle": 5512,
      "95": 5513,
      "ĠBook": 5514,
      "Ġremaining": 5515,
      "ĠConserv": 5516,
      "Ġgrew": 5517,
      "Ġaffected": 5518,
      "ĠSant": 5519,
      "onom": 5520,
      "Ġindeed": 5521,
      "Ġaccident": 5522,
      "IG": 5523,
      "ĠOpen": 5524,
      "Ġrandom": 5525,
      "ĠAustralian": 5526,
      "Ġhun": 5527,
      "Ġ500": 5528,
      "Ġreduced": 5529,
      "reens": 5530,
      "Ġpoliticians": 5531,
      "Ġthank": 5532,
      "ĠBoth": 5533,
      "ighters": 5534,
      "Ġdetermined": 5535,
      "Ġexcited": 5536,
      "Ġthr": 5537,
      "ĠRem": 5538,
      "Ġspring": 5539,
      "Ġhurt": 5540,
      "Ġregime": 5541,
      "Ġplus": 5542,
      "Ġwood": 5543,
      "Ġapps": 5544,
      "ĠColor": 5545,
      "Ġaid": 5546,
      "Since": 5547,
      "endment": 5548,
      "ĠFe": 5549,
      "Ġsurprising": 5550,
      "ĠHol": 5551,
      "Ġtalked": 5552,
      "Ġast": 5553,
      "Ġpurchase": 5554,
      "Ġwearing": 5555,
      "Ġtact": 5556,
      "Ġyouth": 5557,
      "Ġappreci": 5558,
      "Ġargued": 5559,
      "Ġleads": 5560,
      "Ġbound": 5561,
      "ĠIN": 5562,
      "ĠPlease": 5563,
      "Ġpercentage": 5564,
      "ĠWilliams": 5565,
      "ruption": 5566,
      "Ġplants": 5567,
      "Ġshift": 5568,
      "ĠPac": 5569,
      "Ġseriously": 5570,
      "Ġmarg": 5571,
      "rier": 5572,
      "gment": 5573,
      "ĠSing": 5574,
      "Ġexplos": 5575,
      "Ġenemy": 5576,
      "ita": 5577,
      "Ġconsidering": 5578,
      "mm": 5579,
      "DP": 5580,
      "Ġcas": 5581,
      "Ġsupporting": 5582,
      "SS": 5583,
      "ucks": 5584,
      "ogue": 5585,
      "rog": 5586,
      "Ġmode": 5587,
      "Ġproced": 5588,
      "hab": 5589,
      "First": 5590,
      "Ġrevenue": 5591,
      "ĠCharl": 5592,
      "anged": 5593,
      "LA": 5594,
      "estival": 5595,
      "Ġminimum": 5596,
      "ĠNov": 5597,
      "Ġpulled": 5598,
      "TV": 5599,
      "Ġgrab": 5600,
      "Ġbasically": 5601,
      "ĠSteve": 5602,
      "eds": 5603,
      "hered": 5604,
      "Ġliberal": 5605,
      "Ġdim": 5606,
      "ĠBBC": 5607,
      "Ġafternoon": 5608,
      "ĠRel": 5609,
      "Ġfilms": 5610,
      "Ġopportunities": 5611,
      "ensions": 5612,
      "Ġcart": 5613,
      "Ġ195": 5614,
      "ĠShow": 5615,
      "oral": 5616,
      "Ġpanel": 5617,
      "Ġprospect": 5618,
      "Ġlots": 5619,
      "ĠBet": 5620,
      "Phone": 5621,
      "Ġpages": 5622,
      "Ġseat": 5623,
      "Ġswitch": 5624,
      "Ġdepart": 5625,
      "Another": 5626,
      "ĠSpace": 5627,
      "Ġstruggle": 5628,
      "osite": 5629,
      "Ġmotiv": 5630,
      "Ġvideos": 5631,
      "Ġexperienced": 5632,
      "obe": 5633,
      "odd": 5634,
      "Ġcontrast": 5635,
      "ĠMem": 5636,
      "ternal": 5637,
      "uts": 5638,
      "life": 5639,
      "ĠFree": 5640,
      "Ġadvance": 5641,
      "ĠDaily": 5642,
      "Ġends": 5643,
      "plom": 5644,
      "Ġproceed": 5645,
      "Ġbelong": 5646,
      "Ġtreated": 5647,
      "Ġpackage": 5648,
      "ownt": 5649,
      "Ġexperiment": 5650,
      "Ġconsumers": 5651,
      "Ġattempts": 5652,
      "Ġrecorded": 5653,
      "Ġrent": 5654,
      "abilities": 5655,
      "Ġfra": 5656,
      "Ġburn": 5657,
      "Ġpowers": 5658,
      "arp": 5659,
      "PD": 5660,
      "Ġtun": 5661,
      "Ġsuit": 5662,
      "Sp": 5663,
      "Ġminute": 5664,
      "Well": 5665,
      "Ġsuppl": 5666,
      "essions": 5667,
      "Ġreporters": 5668,
      "Ġhopes": 5669,
      "ivered": 5670,
      "Ġlisten": 5671,
      "uous": 5672,
      "His": 5673,
      "ĠPower": 5674,
      "Ġcalcul": 5675,
      "ompl": 5676,
      "Ġcompleted": 5677,
      "Ġagent": 5678,
      "Ġdenied": 5679,
      "edia": 5680,
      "Ġwidely": 5681,
      "Ġidentify": 5682,
      "ato": 5683,
      "Ġwrites": 5684,
      "PR": 5685,
      "Ġfactor": 5686,
      "Ġdefault": 5687,
      "Ġevening": 5688,
      "Ġment": 5689,
      "Ġdisappoint": 5690,
      "ÃĥÃĤÃĥÃĤÃĥÃĤÃĥÃĤ": 5691,
      "aling": 5692,
      "Ġemergency": 5693,
      "Ġelement": 5694,
      "etic": 5695,
      "Ġsignificantly": 5696,
      "Ġdistance": 5697,
      "Am": 5698,
      "Ġpassing": 5699,
      "Ġdismiss": 5700,
      "Ġopposed": 5701,
      "Ġsem": 5702,
      "ĠNAS": 5703,
      "Ġdifferences": 5704,
      "Ġvalid": 5705,
      "org": 5706,
      "Ġcollabor": 5707,
      "Ġconcent": 5708,
      "Ġreaction": 5709,
      "essor": 5710,
      "pet": 5711,
      "Ġreference": 5712,
      "Ġconstruct": 5713,
      "Ġquant": 5714,
      "apping": 5715,
      "Ġprivacy": 5716,
      "Ġapproved": 5717,
      "comm": 5718,
      "ÑĤ": 5719,
      "ĠDirector": 5720,
      "42": 5721,
      "lines": 5722,
      "ĠPhoto": 5723,
      "Ġmort": 5724,
      "Ġtrouble": 5725,
      "Ġemp": 5726,
      "Ġtypically": 5727,
      "Ġfrust": 5728,
      "aled": 5729,
      "Ġdiscl": 5730,
      "oking": 5731,
      "Ġhol": 5732,
      "Ġ2003": 5733,
      "ĠRad": 5734,
      "ĠProject": 5735,
      "ributed": 5736,
      "ller": 5737,
      "Ġdiss": 5738,
      "ĠOhio": 5739,
      "Ġmatters": 5740,
      "oken": 5741,
      "Ġinstruct": 5742,
      "col": 5743,
      "mosp": 5744,
      "erved": 5745,
      "Pe": 5746,
      "erry": 5747,
      "adow": 5748,
      "top": 5749,
      "cohol": 5750,
      "Ġquiet": 5751,
      "Ġzone": 5752,
      "Ġrenew": 5753,
      "ĠAfghanistan": 5754,
      "App": 5755,
      "ĠToday": 5756,
      "Ġstands": 5757,
      "ĠPenn": 5758,
      "Ġweather": 5759,
      "Ġsac": 5760,
      "Ġconfident": 5761,
      "aped": 5762,
      "Ġresponded": 5763,
      "bur": 5764,
      "sts": 5765,
      "Ġsubs": 5766,
      "host": 5767,
      "ĠScience": 5768,
      "ffee": 5769,
      "Ġtransition": 5770,
      "Ġcombined": 5771,
      "Ind": 5772,
      "Ġlit": 5773,
      "ĠSystem": 5774,
      "Ġglass": 5775,
      "apter": 5776,
      "Ġadvert": 5777,
      "care": 5778,
      "iat": 5779,
      "abled": 5780,
      "Ġcoast": 5781,
      "aints": 5782,
      "free": 5783,
      "ĠSov": 5784,
      "esters": 5785,
      "nell": 5786,
      "TS": 5787,
      "Ġcapable": 5788,
      "issions": 5789,
      "razy": 5790,
      "Ġthoughts": 5791,
      "Ġbatt": 5792,
      "rawn": 5793,
      "Ġcooper": 5794,
      "Ġvisual": 5795,
      "05": 5796,
      "xual": 5797,
      "ĠRoad": 5798,
      "Ġunable": 5799,
      "ĠTurkey": 5800,
      "ĠYet": 5801,
      "unction": 5802,
      "Ġtradition": 5803,
      "Ġentertain": 5804,
      "ĠHaw": 5805,
      "Ġgra": 5806,
      "Ġupgr": 5807,
      "Ġcoord": 5808,
      "urb": 5809,
      "Ġstorm": 5810,
      "Ġbroadcast": 5811,
      "ĠMedia": 5812,
      "Ġmand": 5813,
      "Ġshouldn": 5814,
      "Ġinstitutions": 5815,
      "Ġperspective": 5816,
      "ounded": 5817,
      "ĠGM": 5818,
      "Ġproud": 5819,
      "Ġprompt": 5820,
      "Ġtechnical": 5821,
      ",[": 5822,
      "Ġfly": 5823,
      "Ġforg": 5824,
      "ilit": 5825,
      "ĠHuman": 5826,
      "Ð¸": 5827,
      "yth": 5828,
      "Ġreaders": 5829,
      "astern": 5830,
      "Ġloved": 5831,
      "Ġmovies": 5832,
      "ĠLin": 5833,
      "zer": 5834,
      "edd": 5835,
      "aniel": 5836,
      "ishes": 5837,
      "Ġdiscrim": 5838,
      "ĠJackson": 5839,
      "evin": 5840,
      "Ġsets": 5841,
      "idel": 5842,
      "respond": 5843,
      "Ġcreation": 5844,
      "mond": 5845,
      "rid": 5846,
      "Ġdial": 5847,
      "Ġconfidence": 5848,
      "Ġmessages": 5849,
      "Ġadmitted": 5850,
      "Ġprin": 5851,
      "Ġcloud": 5852,
      "43": 5853,
      "Ġoptim": 5854,
      "Cont": 5855,
      "Ġbull": 5856,
      "Ġid": 5857,
      "Ġexplo": 5858,
      "Ġobjects": 5859,
      "ellow": 5860,
      "oves": 5861,
      "Over": 5862,
      "Ġcircumst": 5863,
      "Ġreportedly": 5864,
      "Ġcraft": 5865,
      "ĠScot": 5866,
      "Ġexplains": 5867,
      "Ġrail": 5868,
      "Ġbodies": 5869,
      "Ġreporting": 5870,
      "Ġcrimes": 5871,
      "Ġdeclared": 5872,
      "Ġviolent": 5873,
      "Ġcaption": 5874,
      "ĠPS": 5875,
      "ERS": 5876,
      "pass": 5877,
      "Ġmal": 5878,
      "Ġsubstant": 5879,
      "Ġroute": 5880,
      "Ġ36": 5881,
      "isters": 5882,
      "Ġgiant": 5883,
      "Ġsatisf": 5884,
      "Ġadvice": 5885,
      "ansas": 5886,
      "Ġforget": 5887,
      "ĠTO": 5888,
      "Ġsevere": 5889,
      "elly": 5890,
      "Ġnumerous": 5891,
      "Ġdelivered": 5892,
      "Ġsuffered": 5893,
      "can": 5894,
      "ĠSqu": 5895,
      "Ġinjured": 5896,
      "Ġaccompl": 5897,
      "Ġexperiences": 5898,
      "ĠMa": 5899,
      "Ġflag": 5900,
      "Ġpitch": 5901,
      "Ġdeclined": 5902,
      "Ġ2001": 5903,
      "Ġconnected": 5904,
      "Ġpictures": 5905,
      "unte": 5906,
      "Ġordered": 5907,
      ",âĢĻ": 5908,
      "Ġeditor": 5909,
      "Ġcann": 5910,
      "ĠChristmas": 5911,
      "Other": 5912,
      "Rep": 5913,
      "Ġlabel": 5914,
      "Ġdelay": 5915,
      "De": 5916,
      "Ġexcell": 5917,
      "Ġemails": 5918,
      "dule": 5919,
      "Ġrot": 5920,
      "inals": 5921,
      "Ġongoing": 5922,
      "ilty": 5923,
      "Ġourselves": 5924,
      "ache": 5925,
      "angers": 5926,
      "called": 5927,
      "Ġfaces": 5928,
      "Ġactivists": 5929,
      "Ġpublicly": 5930,
      "Ġagents": 5931,
      "Ġwalking": 5932,
      "Ġcrack": 5933,
      "Ġcopyright": 5934,
      "Ġapprox": 5935,
      "uls": 5936,
      "Ġfranch": 5937,
      "usiness": 5938,
      "ĠRE": 5939,
      "arn": 5940,
      "ĠWal": 5941,
      "Ġfindings": 5942,
      "Ġ1980": 5943,
      "Ġmarried": 5944,
      "Ġrealize": 5945,
      "Ġconfirm": 5946,
      "ÃŃ": 5947,
      "During": 5948,
      "resents": 5949,
      "Ġtransform": 5950,
      "Ġstatements": 5951,
      "ĠMuslims": 5952,
      "Ġappropriate": 5953,
      "ga": 5954,
      "Ġperman": 5955,
      "Ġlegit": 5956,
      "Ġlawyer": 5957,
      "ĠVol": 5958,
      "abin": 5959,
      "ulations": 5960,
      "ionally": 5961,
      "Ġclient": 5962,
      "Ġsad": 5963,
      "nergy": 5964,
      "Ġemphas": 5965,
      "Ġthinks": 5966,
      "uations": 5967,
      "Ġupdates": 5968,
      "Ġedge": 5969,
      "ĠWood": 5970,
      "Ġguns": 5971,
      "li": 5972,
      "Oh": 5973,
      "Ġpractices": 5974,
      "Ġarchitect": 5975,
      "Ġvan": 5976,
      "ĠGrand": 5977,
      "Ġbuildings": 5978,
      "Ġmoral": 5979,
      "ĠSaudi": 5980,
      "Qu": 5981,
      "Ġgather": 5982,
      "Ġfish": 5983,
      "ĠUkraine": 5984,
      "Ġpool": 5985,
      "ĠLabour": 5986,
      "Ġnewspaper": 5987,
      "Ġleaves": 5988,
      "ourney": 5989,
      "ĠRod": 5990,
      "Ġpicked": 5991,
      "Ġcontains": 5992,
      "ĠAndrew": 5993,
      "gia": 5994,
      "Ġsession": 5995,
      "ĠSee": 5996,
      "Ġartist": 5997,
      "Res": 5998,
      "ĠAC": 5999,
      "hew": 6000,
      "amental": 6001,
      "ĠID": 6002,
      "ĠTra": 6003,
      "ĠFollow": 6004,
      "ĠLib": 6005,
      "Ġphilosoph": 6006,
      "ampion": 6007,
      "LS": 6008,
      "ĠStr": 6009,
      "Ġcentre": 6010,
      "employ": 6011,
      "Ġeval": 6012,
      "Ġfacts": 6013,
      "Ġterrorist": 6014,
      "ĠBack": 6015,
      "Ġhell": 6016,
      "ouston": 6017,
      "enture": 6018,
      "Although": 6019,
      "cos": 6020,
      "cons": 6021,
      "Ġargue": 6022,
      "ĠDou": 6023,
      "razil": 6024,
      "orse": 6025,
      "irty": 6026,
      "enda": 6027,
      "UT": 6028,
      "asp": 6029,
      "long": 6030,
      "ĠIll": 6031,
      "Se": 6032,
      "ĠAv": 6033,
      "Ġpure": 6034,
      "Ġshop": 6035,
      "64": 6036,
      "ala": 6037,
      "Ġexpansion": 6038,
      "inent": 6039,
      "Ġnecessarily": 6040,
      "ĠiPhone": 6041,
      "ooth": 6042,
      "ĠEr": 6043,
      "Ġmissed": 6044,
      "Ġexplan": 6045,
      "Ġsecretary": 6046,
      "ĠSher": 6047,
      "Ġexamples": 6048,
      "ĠRon": 6049,
      "Ġallegations": 6050,
      "Ġessentially": 6051,
      "Ġdesire": 6052,
      "ĠTechn": 6053,
      "Ġeffectively": 6054,
      "Ġfilled": 6055,
      "Ġdiplom": 6056,
      "uy": 6057,
      "Ġmaterials": 6058,
      "II": 6059,
      "Ġdynam": 6060,
      "ĠRead": 6061,
      "Ġbond": 6062,
      "water": 6063,
      "Ġcauses": 6064,
      "Ġinjuries": 6065,
      "ĠOl": 6066,
      "Follow": 6067,
      "Many": 6068,
      "Ġaf": 6069,
      "ĠSum": 6070,
      "Ġrain": 6071,
      "ĠWeek": 6072,
      "ĠAff": 6073,
      "TA": 6074,
      "date": 6075,
      "otic": 6076,
      "Ġinitially": 6077,
      "Ġabandon": 6078,
      "ĠMichigan": 6079,
      "kay": 6080,
      "tion": 6081,
      "Ġneither": 6082,
      "OC": 6083,
      "Ġbare": 6084,
      "Ġske": 6085,
      "Ġdebut": 6086,
      "enger": 6087,
      "Ġdrivers": 6088,
      "Ġauth": 6089,
      "icing": 6090,
      "ĠJul": 6091,
      "ĠLife": 6092,
      "reland": 6093,
      "ĠRev": 6094,
      "Tube": 6095,
      "Ġdatab": 6096,
      "ĠKim": 6097,
      "Ġwarned": 6098,
      "ta": 6099,
      "rum": 6100,
      "Ġtalent": 6101,
      "Ġquarterback": 6102,
      "Ġmyster": 6103,
      "ador": 6104,
      "Ġarmed": 6105,
      "orry": 6106,
      "ĠJews": 6107,
      "Ġlinked": 6108,
      "agers": 6109,
      "Ġarticles": 6110,
      "Ġyesterday": 6111,
      "Most": 6112,
      "rant": 6113,
      "edy": 6114,
      "Ġwear": 6115,
      "athan": 6116,
      "Ġgovernor": 6117,
      "Ġjoint": 6118,
      "Ġaccepted": 6119,
      "Ġmagazine": 6120,
      "ĠDevelop": 6121,
      "Ġdemocracy": 6122,
      "Ġeverybody": 6123,
      "American": 6124,
      "Ġplayoff": 6125,
      "ĠPhot": 6126,
      "ĠMount": 6127,
      "Ġmotor": 6128,
      "ocratic": 6129,
      "esome": 6130,
      "ĠStan": 6131,
      "Ġtech": 6132,
      "Ġsam": 6133,
      "Ġ33": 6134,
      "zona": 6135,
      "Ġexercise": 6136,
      "Ġsubsequ": 6137,
      "',": 6138,
      "Ġincor": 6139,
      "Ġ300": 6140,
      "Yes": 6141,
      "Ġnations": 6142,
      "ĠGen": 6143,
      "Ġatmosp": 6144,
      "ĠLake": 6145,
      "Ġinterpret": 6146,
      "Ġsuc": 6147,
      "Ġscheduled": 6148,
      "Ġfollows": 6149,
      "illy": 6150,
      "ĠRomney": 6151,
      "ĠISIS": 6152,
      "Ġsurprised": 6153,
      "aza": 6154,
      "vin": 6155,
      "Ġathlet": 6156,
      "Ġbegins": 6157,
      "ĠRights": 6158,
      "Ġconsequences": 6159,
      "Spe": 6160,
      "Ġlisted": 6161,
      "ĠBlue": 6162,
      "ĠCub": 6163,
      "ĠWork": 6164,
      "Ġtree": 6165,
      "acle": 6166,
      "Ġnearby": 6167,
      "ĠSecond": 6168,
      "Ġdiscussed": 6169,
      "alty": 6170,
      "ĠAT": 6171,
      "Ġscored": 6172,
      "Ġfort": 6173,
      "Ġstood": 6174,
      "ĠHy": 6175,
      "stood": 6176,
      "Ġpushed": 6177,
      "asure": 6178,
      "Ġshots": 6179,
      "Ġadvanced": 6180,
      "gent": 6181,
      "Ġpatient": 6182,
      "Ġride": 6183,
      "Ġflo": 6184,
      "Ġtotally": 6185,
      "Ġfaced": 6186,
      "Ġing": 6187,
      "orders": 6188,
      "66": 6189,
      "Ġapplied": 6190,
      "Ġnative": 6191,
      "ĠYear": 6192,
      "ĠJesus": 6193,
      "Ġchart": 6194,
      "sembly": 6195,
      "Ġboss": 6196,
      "ĠNBA": 6197,
      "Ġrein": 6198,
      "ĠSeattle": 6199,
      "Can": 6200,
      "Ġmoves": 6201,
      "ĠCNN": 6202,
      "Ġannouncement": 6203,
      "mates": 6204,
      "Ġrepresents": 6205,
      "arden": 6206,
      "iger": 6207,
      "Ġroughly": 6208,
      "Then": 6209,
      "Ġbright": 6210,
      "Ġremark": 6211,
      "whel": 6212,
      "Ġprotests": 6213,
      "Ġsongs": 6214,
      "ĠColumb": 6215,
      "Ġresolution": 6216,
      "Ġsplit": 6217,
      "ĠDC": 6218,
      "fortunately": 6219,
      "Ġmir": 6220,
      "Ġincreases": 6221,
      "Ġlawsuit": 6222,
      "Ġheads": 6223,
      "Ġwarm": 6224,
      "ĠFer": 6225,
      "Ġthreats": 6226,
      "Ġadds": 6227,
      "arters": 6228,
      "Ġwithd": 6229,
      "Ġconfig": 6230,
      "ĠSign": 6231,
      "Ġexistence": 6232,
      "illance": 6233,
      "Ġrum": 6234,
      "ĠCarl": 6235,
      "Ġguilty": 6236,
      "ĠBarack": 6237,
      "Ġbrings": 6238,
      "rich": 6239,
      "Ġradical": 6240,
      "77": 6241,
      "41": 6242,
      "ĠSwed": 6243,
      "Ġsought": 6244,
      "Ġfairly": 6245,
      "Ġenh": 6246,
      "Ġplane": 6247,
      "IF": 6248,
      "Ġdoctor": 6249,
      "ĠOF": 6250,
      "Ġspons": 6251,
      "Ġbehavi": 6252,
      "Ġparliament": 6253,
      "Ġcampus": 6254,
      "Ġoutput": 6255,
      "ĠVict": 6256,
      "Ġrising": 6257,
      "Ġinvestors": 6258,
      "Ġclasses": 6259,
      "Ġ2002": 6260,
      "Ġlie": 6261,
      "ena": 6262,
      "ĠAsia": 6263,
      "ologist": 6264,
      "Ġunlikely": 6265,
      "ĠOnly": 6266,
      "Ġdistribution": 6267,
      "Ġhighlight": 6268,
      "iques": 6269,
      "duc": 6270,
      "Ġhousehold": 6271,
      "ĠSoviet": 6272,
      "98": 6273,
      "Ġpra": 6274,
      "ĠValley": 6275,
      "rip": 6276,
      "ĠPrem": 6277,
      "],": 6278,
      "Ġrestaurant": 6279,
      "Ġcontest": 6280,
      "Ġclassic": 6281,
      "Ġalt": 6282,
      "Ġflood": 6283,
      "Ġfill": 6284,
      "ĠAnother": 6285,
      "ĠMs": 6286,
      "PU": 6287,
      "ĠWhe": 6288,
      "ĠBob": 6289,
      "Ġwaste": 6290,
      "acter": 6291,
      "Ġisland": 6292,
      "Ġhistorical": 6293,
      "word": 6294,
      "ĠIts": 6295,
      "Ġmetal": 6296,
      "west": 6297,
      "icious": 6298,
      "ĠElect": 6299,
      "Ġbreaking": 6300,
      "Ġtow": 6301,
      "Ġbutton": 6302,
      "ollywood": 6303,
      "Ġtemperature": 6304,
      "Ġentry": 6305,
      "Ġcolleagues": 6306,
      "OD": 6307,
      "Ġresc": 6308,
      "Ġsick": 6309,
      "Ġsquare": 6310,
      "Ġlock": 6311,
      "Ġcreative": 6312,
      "irds": 6313,
      "Ġphen": 6314,
      "Ġessential": 6315,
      "abb": 6316,
      "Ġfraud": 6317,
      "Ġstring": 6318,
      "Ġrally": 6319,
      "ĠHen": 6320,
      "ĠBoard": 6321,
      "Ġimproved": 6322,
      "Ġholds": 6323,
      "Ġsucceed": 6324,
      "inem": 6325,
      "ĠClub": 6326,
      "ĠSports": 6327,
      "Ġdoctors": 6328,
      "itors": 6329,
      "Ġanywhere": 6330,
      "Ġallegedly": 6331,
      "Ġrow": 6332,
      "ĠMaybe": 6333,
      "ĠHist": 6334,
      "Ġreceiving": 6335,
      "Ġ//": 6336,
      "Ġtargets": 6337,
      "ĠIreland": 6338,
      "Ġlinks": 6339,
      "Ġschol": 6340,
      "Ġfunctions": 6341,
      "Ġsav": 6342,
      "Ġvari": 6343,
      "Ġboys": 6344,
      "Ġreturns": 6345,
      "Ġperformed": 6346,
      "Ġbuying": 6347,
      "ĠEach": 6348,
      "law": 6349,
      "Ġdecre": 6350,
      "Ġmotion": 6351,
      "mes": 6352,
      "ĠIP": 6353,
      "See": 6354,
      "oked": 6355,
      "ĠKorean": 6356,
      "Ġsymbol": 6357,
      "andal": 6358,
      "Ġlaugh": 6359,
      "Ġharder": 6360,
      "ĠBrook": 6361,
      "Ġhat": 6362,
      "ĠSky": 6363,
      "Ġcombination": 6364,
      "Ġwarning": 6365,
      "Ġstores": 6366,
      "Ġentered": 6367,
      "ensus": 6368,
      "Ġsym": 6369,
      "born": 6370,
      "Ġcorrespond": 6371,
      "ĠEll": 6372,
      "Ġdeaths": 6373,
      "ĠKn": 6374,
      "Ġresident": 6375,
      "Ġmanufacture": 6376,
      "Ġshif": 6377,
      "Ġopposite": 6378,
      "Ġlies": 6379,
      "Ġillust": 6380,
      "Ġsomewhat": 6381,
      "Ġstorage": 6382,
      "Ġimportance": 6383,
      "Ġnetworks": 6384,
      "Ġinput": 6385,
      "ĠDiv": 6386,
      "MA": 6387,
      "ĠWalk": 6388,
      "Ġalcohol": 6389,
      "Ġintention": 6390,
      "Ġflat": 6391,
      "Ġpromise": 6392,
      "Ġconsistent": 6393,
      "Pol": 6394,
      "Ġoffense": 6395,
      "agan": 6396,
      "Ġconfront": 6397,
      "Ġreplaced": 6398,
      "ĠBrazil": 6399,
      "Ġfavour": 6400,
      "Ġheavily": 6401,
      "Ġcere": 6402,
      "omin": 6403,
      "ette": 6404,
      "Ġsnow": 6405,
      "Add": 6406,
      "Ġplot": 6407,
      "Ġblow": 6408,
      "ĠWars": 6409,
      "Ġbug": 6410,
      "Ġrelevant": 6411,
      "ĠColorado": 6412,
      "olve": 6413,
      "Ġzero": 6414,
      "Man": 6415,
      "Ġexperim": 6416,
      "ĠHarr": 6417,
      "Ġpip": 6418,
      "ĠAnn": 6419,
      "04": 6420,
      "Ã¶": 6421,
      "78": 6422,
      "Ġhoping": 6423,
      "Ġmanage": 6424,
      "onna": 6425,
      "ĠHouston": 6426,
      "Ġvice": 6427,
      "ican": 6428,
      "Ġyounger": 6429,
      "Ġempt": 6430,
      "Ġnav": 6431,
      "ellect": 6432,
      "Ġsees": 6433,
      "Ġconsumer": 6434,
      "Ġmoments": 6435,
      "Ġregulations": 6436,
      "Ġversions": 6437,
      "Ġprohib": 6438,
      "08": 6439,
      "ĠBoy": 6440,
      "erences": 6441,
      "Ġevolution": 6442,
      "ĠFar": 6443,
      "Ġsyn": 6444,
      "ads": 6445,
      "Ġhardware": 6446,
      "Ġindustrial": 6447,
      "Ġacknowled": 6448,
      "Ġopponent": 6449,
      "Ob": 6450,
      "Ġchain": 6451,
      "Ġcurrency": 6452,
      "Ġlibrary": 6453,
      "Ġcircumstances": 6454,
      "Ġadults": 6455,
      "ulous": 6456,
      "Ġbag": 6457,
      "oma": 6458,
      "ĠWatch": 6459,
      "ideo": 6460,
      "Ġdefined": 6461,
      "def": 6462,
      "Ġgrown": 6463,
      "Ġfashion": 6464,
      "oming": 6465,
      "esc": 6466,
      "Ġ38": 6467,
      "Ġtom": 6468,
      "Ġsuffering": 6469,
      "hetic": 6470,
      "certain": 6471,
      "Ġfacility": 6472,
      "Ġclosely": 6473,
      "Ġmarketing": 6474,
      "mo": 6475,
      "Ġcontroversial": 6476,
      "efully": 6477,
      "IR": 6478,
      "Ġexpression": 6479,
      "ĠImage": 6480,
      "Ġancient": 6481,
      "ĠLong": 6482,
      "ĠCatholic": 6483,
      "ĠHel": 6484,
      "ĠExp": 6485,
      "usal": 6486,
      "Ġacts": 6487,
      "Ġfewer": 6488,
      "ĠLord": 6489,
      "Ġbon": 6490,
      "Ġartists": 6491,
      "ĠWik": 6492,
      "erves": 6493,
      "ĠDavis": 6494,
      "09": 6495,
      "Ġ48": 6496,
      "Ġmine": 6497,
      "hus": 6498,
      "Ġvolunte": 6499,
      "Ġcheap": 6500,
      "ĠArizona": 6501,
      "Ġfundamental": 6502,
      "greg": 6503,
      "Ġtiny": 6504,
      "ĠRam": 6505,
      "Per": 6506,
      "Ġexcellent": 6507,
      "atell": 6508,
      "Ġdivision": 6509,
      "ĠCard": 6510,
      "Ġembr": 6511,
      "ĠDie": 6512,
      "opy": 6513,
      "Ġsentence": 6514,
      "ĠNY": 6515,
      "Ġbike": 6516,
      "ometimes": 6517,
      "Ã³": 6518,
      "nam": 6519,
      "cho": 6520,
      "ĠGames": 6521,
      "Ġdecline": 6522,
      "game": 6523,
      "ĠGar": 6524,
      "ĠCy": 6525,
      "Ġrepeatedly": 6526,
      "Ġhotel": 6527,
      "ĠMot": 6528,
      "chers": 6529,
      "va": 6530,
      "ati": 6531,
      "Ġemotional": 6532,
      "Ġunus": 6533,
      "Ġopponents": 6534,
      "ocket": 6535,
      "ĠJava": 6536,
      "Ġmouth": 6537,
      "Ġcrazy": 6538,
      "friend": 6539,
      "ĠYouTube": 6540,
      "Ġskill": 6541,
      "Donald": 6542,
      "Ġdescribe": 6543,
      "Ġdownt": 6544,
      "Ġtermin": 6545,
      "etroit": 6546,
      "Ġimmigrants": 6547,
      "Ġefficient": 6548,
      "Ġcolumn": 6549,
      "ĠMen": 6550,
      "Ġwins": 6551,
      "Ġhur": 6552,
      "Ġremote": 6553,
      "ĠBat": 6554,
      "ĠOld": 6555,
      "abis": 6556,
      "ii": 6557,
      "Ġregional": 6558,
      "amin": 6559,
      "Ġtournament": 6560,
      "Ġdetailed": 6561,
      "Ġschedule": 6562,
      "Ġtrick": 6563,
      "ĠGra": 6564,
      "Like": 6565,
      "Ġkinds": 6566,
      "Ġcarrying": 6567,
      "Ġowned": 6568,
      "hips": 6569,
      "ĠHome": 6570,
      "Ġstrange": 6571,
      "ĠWay": 6572,
      "NC": 6573,
      "Ġwire": 6574,
      "Ġpled": 6575,
      "Ġguide": 6576,
      "awa": 6577,
      "Ġisol": 6578,
      "Ġimmediate": 6579,
      "Ġpushing": 6580,
      "Ġmanner": 6581,
      "Ġextent": 6582,
      "Ã¼": 6583,
      "ĠCIA": 6584,
      "Ġrealized": 6585,
      "En": 6586,
      "chen": 6587,
      "ĠWild": 6588,
      "Ġfrequently": 6589,
      "ayers": 6590,
      "Ġ37": 6591,
      "Ġmechanism": 6592,
      "Ġorders": 6593,
      "Ġfeatured": 6594,
      "ĠTal": 6595,
      "azi": 6596,
      "Ġcustomer": 6597,
      "foot": 6598,
      "lo": 6599,
      "xy": 6600,
      "Ġattempted": 6601,
      "dis": 6602,
      "anish": 6603,
      "iveness": 6604,
      "Ġreferred": 6605,
      "alian": 6606,
      "Two": 6607,
      "ordan": 6608,
      "Ġearned": 6609,
      "ĠCle": 6610,
      "Ġnarr": 6611,
      "68": 6612,
      "Ġchairman": 6613,
      "kel": 6614,
      "ORE": 6615,
      "Ġdedicated": 6616,
      "DS": 6617,
      "Ġcoffee": 6618,
      "ockey": 6619,
      "ĠDown": 6620,
      "Ġcycle": 6621,
      "Ġrape": 6622,
      "ĠDi": 6623,
      "Ġacting": 6624,
      "anes": 6625,
      "utch": 6626,
      "uable": 6627,
      "ĠTop": 6628,
      "Ġring": 6629,
      "burg": 6630,
      "Ġupdated": 6631,
      "pan": 6632,
      "ora": 6633,
      "ĠVan": 6634,
      "Ġrelationships": 6635,
      "Ġcomfortable": 6636,
      "Ġusual": 6637,
      "Ġalongside": 6638,
      "Ġcompetitive": 6639,
      "Ġwalked": 6640,
      "Despite": 6641,
      "Ġbat": 6642,
      "Ġfuck": 6643,
      "Ġjourney": 6644,
      "uated": 6645,
      "Ġfasc": 6646,
      "Ġdepth": 6647,
      "Ġinstru": 6648,
      "nic": 6649,
      "ĠSar": 6650,
      "Ġsky": 6651,
      "ĠEnergy": 6652,
      "Ġdesk": 6653,
      "Ġdeleg": 6654,
      "ĠEric": 6655,
      "Ġpregn": 6656,
      "Ġintent": 6657,
      "Ġliterally": 6658,
      "Ġsand": 6659,
      "Ġcausing": 6660,
      "Ġmedic": 6661,
      "Ġformed": 6662,
      "ĠEconom": 6663,
      "Ġupcoming": 6664,
      "Ġexciting": 6665,
      "name": 6666,
      "Ġstruck": 6667,
      "Ġalive": 6668,
      "Ġsending": 6669,
      "Ġknowing": 6670,
      "Ġobserv": 6671,
      "Ġinspired": 6672,
      "Ġstream": 6673,
      "Ġprecise": 6674,
      "ua": 6675,
      "Ġsigning": 6676,
      "Ġcert": 6677,
      "Ġuniverse": 6678,
      "AF": 6679,
      "Ġoverwhel": 6680,
      "Ġreput": 6681,
      "ĠPalestinian": 6682,
      "âĢĻ.": 6683,
      "ugh": 6684,
      "ĠAut": 6685,
      "iami": 6686,
      "Ġurban": 6687,
      "Ġking": 6688,
      "Ġauthors": 6689,
      "\":\"": 6690,
      "izz": 6691,
      "Ġsurrounding": 6692,
      "Ġtransp": 6693,
      "Ġagenda": 6694,
      "Ġ75": 6695,
      "adel": 6696,
      "Ġnewslet": 6697,
      "Ġwave": 6698,
      "Ġliqu": 6699,
      "Ġcommitment": 6700,
      "ĠDev": 6701,
      "Ġ1970": 6702,
      "ĠIns": 6703,
      "ĠDefense": 6704,
      "axy": 6705,
      "Ġfranchise": 6706,
      "Ġegg": 6707,
      "Ġbasket": 6708,
      "acking": 6709,
      "ĠMat": 6710,
      "Ġproperties": 6711,
      "Ġposts": 6712,
      "Ġwatched": 6713,
      "boy": 6714,
      "rence": 6715,
      "ĠAgain": 6716,
      "ceived": 6717,
      "Ġnorthern": 6718,
      "Ġassets": 6719,
      "Ġtort": 6720,
      "Ġsharing": 6721,
      "Ġkit": 6722,
      "Ġwinter": 6723,
      "Ġpassion": 6724,
      "Ġaside": 6725,
      "ipl": 6726,
      "ulture": 6727,
      "ĠYoung": 6728,
      "%)": 6729,
      "ĠJr": 6730,
      "otal": 6731,
      "Ġtargeted": 6732,
      "Ġinvolving": 6733,
      "ĠEnter": 6734,
      "iciency": 6735,
      "ĠTit": 6736,
      "dro": 6737,
      "ĠCruz": 6738,
      "Ġsuicide": 6739,
      "amily": 6740,
      "Ġhall": 6741,
      "Ġmainstream": 6742,
      "ĠRight": 6743,
      "Ġ34": 6744,
      "ras": 6745,
      "ĠSupp": 6746,
      "Ġteachers": 6747,
      "Ġforth": 6748,
      "weight": 6749,
      "Ġlatter": 6750,
      "ĠCharles": 6751,
      "aylor": 6752,
      "Ġwest": 6753,
      "gor": 6754,
      "ĠSC": 6755,
      "aire": 6756,
      "bel": 6757,
      "Ġchannel": 6758,
      "Ġdealing": 6759,
      "luding": 6760,
      "Ġanyway": 6761,
      "Ġ49": 6762,
      "Ġdomin": 6763,
      "People": 6764,
      "Ġnoticed": 6765,
      "ĠKevin": 6766,
      "Or": 6767,
      "rors": 6768,
      "Ġattacked": 6769,
      "Ġdeeply": 6770,
      "Ġsuddenly": 6771,
      "obb": 6772,
      "Ġmeat": 6773,
      "Ġnarrow": 6774,
      "Ġsister": 6775,
      "Ġstudio": 6776,
      "Ġneut": 6777,
      "Ġpromised": 6778,
      "02": 6779,
      "apse": 6780,
      "ko": 6781,
      "Ġserving": 6782,
      "ĠMic": 6783,
      "Ġsimpl": 6784,
      "Ġsurveillance": 6785,
      "58": 6786,
      "Ġwake": 6787,
      "Ġrequirements": 6788,
      "umber": 6789,
      "Ġoblig": 6790,
      "Ġexplore": 6791,
      "verty": 6792,
      "ogan": 6793,
      "Ġteacher": 6794,
      "Ġdefeat": 6795,
      "bar": 6796,
      "Ġcongress": 6797,
      "Ġbattery": 6798,
      "ĠMiller": 6799,
      "Ġsustain": 6800,
      "Ġdestroyed": 6801,
      "Ġwal": 6802,
      "acc": 6803,
      "oration": 6804,
      "Ġapproval": 6805,
      "Ġcrash": 6806,
      "Ġrefugees": 6807,
      "Ġfemin": 6808,
      "Ġwelcome": 6809,
      "onymous": 6810,
      "Ġblame": 6811,
      "Ġdu": 6812,
      "igg": 6813,
      "Ġprotected": 6814,
      "Ġcommunication": 6815,
      "itarian": 6816,
      "Ġproperly": 6817,
      "ĠWilson": 6818,
      "ĠArch": 6819,
      "Ġmistake": 6820,
      "Ġdiscover": 6821,
      "Ġreward": 6822,
      "Fr": 6823,
      "Ġpoverty": 6824,
      "ĠClass": 6825,
      "Ġflu": 6826,
      "Ġchose": 6827,
      "Int": 6828,
      "ĠMax": 6829,
      "Ġputs": 6830,
      "06": 6831,
      "Ġfolks": 6832,
      "Ġevil": 6833,
      "GBT": 6834,
      "Ġdry": 6835,
      "ographic": 6836,
      "ĠPan": 6837,
      "ĠChild": 6838,
      "Ġsho": 6839,
      "Ġ\\": 6840,
      "Ġgod": 6841,
      "you": 6842,
      "inson": 6843,
      "Ġterritory": 6844,
      "Ġrisks": 6845,
      "ĠWat": 6846,
      "aze": 6847,
      "gery": 6848,
      "Ġfixed": 6849,
      "cers": 6850,
      "ensity": 6851,
      "Ġextended": 6852,
      "arry": 6853,
      "avor": 6854,
      "Ġwid": 6855,
      "ĠCast": 6856,
      "Ġeast": 6857,
      "phy": 6858,
      "ĠPR": 6859,
      "Ġphenomen": 6860,
      "Ġimpressive": 6861,
      "Ġvillage": 6862,
      "rations": 6863,
      "ĠHollywood": 6864,
      "Ġheight": 6865,
      "ĠSociety": 6866,
      "ĠÎ": 6867,
      "Ġsubsid": 6868,
      "ao": 6869,
      "ixt": 6870,
      "style": 6871,
      "Ġassume": 6872,
      "Ġvirtual": 6873,
      "Ġworried": 6874,
      "woman": 6875,
      "owered": 6876,
      "ĠJersey": 6877,
      "ĠBrad": 6878,
      "Ġterrorism": 6879,
      "ingu": 6880,
      "Ġunderstood": 6881,
      "Ġlocations": 6882,
      "Ġsweet": 6883,
      "ĠPutin": 6884,
      "Ġdisag": 6885,
      "Ġgang": 6886,
      "Ġsomehow": 6887,
      "Ġprotesters": 6888,
      "Ġtested": 6889,
      "Ġselection": 6890,
      "Ġeating": 6891,
      "ura": 6892,
      "ĠâĢĻ": 6893,
      "Ġallies": 6894,
      "Ñģ": 6895,
      "Ġproof": 6896,
      "Ġvacc": 6897,
      "ĠStephen": 6898,
      "ĠBest": 6899,
      "Ġpal": 6900,
      "Ġselected": 6901,
      "ĠCamer": 6902,
      "Ġmatches": 6903,
      "ocation": 6904,
      "Ġgap": 6905,
      "Ġtopic": 6906,
      "Ġconver": 6907,
      "redit": 6908,
      "Ġslowly": 6909,
      "ĠDam": 6910,
      "arity": 6911,
      "rive": 6912,
      "Ġdeals": 6913,
      "Ġexhib": 6914,
      "Rel": 6915,
      "sole": 6916,
      "Ġbear": 6917,
      "Ġunknown": 6918,
      "Ġvolume": 6919,
      "Ġpromote": 6920,
      "Ġmoder": 6921,
      "Ġbunch": 6922,
      "ums": 6923,
      "aug": 6924,
      "Ġmerely": 6925,
      "str": 6926,
      "Ġharass": 6927,
      "oster": 6928,
      "Ġobserved": 6929,
      "lls": 6930,
      "iro": 6931,
      "alle": 6932,
      "nesota": 6933,
      "Ġwage": 6934,
      "Ġsole": 6935,
      "Ġlimits": 6936,
      "uilding": 6937,
      "ĠPolit": 6938,
      "Ġrub": 6939,
      "John": 6940,
      "May": 6941,
      "Ġparticipants": 6942,
      "ĠDun": 6943,
      "ĠNASA": 6944,
      "raid": 6945,
      "ĠGeorgia": 6946,
      "Ð¾Ð": 6947,
      "Ġsomewhere": 6948,
      "Ġsupports": 6949,
      "Ġrecognize": 6950,
      "Ġabortion": 6951,
      "Ġtheme": 6952,
      "Ġanx": 6953,
      "Ġnomine": 6954,
      "Ġpic": 6955,
      "oric": 6956,
      "ĠFil": 6957,
      "Ġsouthern": 6958,
      "Ġapproximately": 6959,
      "anges": 6960,
      "Ġmaximum": 6961,
      "sex": 6962,
      "Ġretire": 6963,
      "Ġped": 6964,
      "Ġsquad": 6965,
      "Ġconstant": 6966,
      "Ġfinds": 6967,
      "67": 6968,
      "ĠDetroit": 6969,
      "Ġfalling": 6970,
      "fire": 6971,
      "Ġhonor": 6972,
      "asts": 6973,
      "ĠLove": 6974,
      "\",\"": 6975,
      "Dr": 6976,
      "ĠLu": 6977,
      "Ġelectricity": 6978,
      "07": 6979,
      "ether": 6980,
      "Ġlikes": 6981,
      "Ġexposed": 6982,
      "Ġdiagn": 6983,
      "Ġresistance": 6984,
      "lv": 6985,
      "new": 6986,
      "Ġadapt": 6987,
      "Ġtruck": 6988,
      "Ġtypical": 6989,
      "alo": 6990,
      "Ġfacilities": 6991,
      "Ġpersonally": 6992,
      "Ġdatabase": 6993,
      "Ġcomparison": 6994,
      "stone": 6995,
      "iform": 6996,
      "ĠFour": 6997,
      "Ġdiet": 6998,
      "gender": 6999,
      "ĠContin": 7000,
      "Ġstretch": 7001,
      "UR": 7002,
      "Ġstrongly": 7003,
      "allas": 7004,
      "ĠAgency": 7005,
      "Ġsoul": 7006,
      "ĠWomen": 7007,
      "Ġdress": 7008,
      "ĠTurk": 7009,
      "Ġemissions": 7010,
      "ĠAdminist": 7011,
      "Ġunemploy": 7012,
      "Ġformat": 7013,
      "Ġintellect": 7014,
      "ĠEp": 7015,
      "NE": 7016,
      "ĠCam": 7017,
      "han": 7018,
      "VER": 7019,
      "Ġcritics": 7020,
      "Ġlicense": 7021,
      "wan": 7022,
      "Ġcaptured": 7023,
      "Ġcondem": 7024,
      "Ġdesper": 7025,
      "ĠNight": 7026,
      "ĠStand": 7027,
      "Ġencourage": 7028,
      "Ġgotten": 7029,
      "enders": 7030,
      "Te": 7031,
      "Ġthread": 7032,
      "ĠOk": 7033,
      "Ġsample": 7034,
      "aser": 7035,
      "po": 7036,
      "sters": 7037,
      "Ġmeetings": 7038,
      "Ġrequests": 7039,
      "Ġshel": 7040,
      "ciples": 7041,
      "Ġarguments": 7042,
      "Ġunp": 7043,
      "Ġhel": 7044,
      "ĠFord": 7045,
      "asks": 7046,
      "Ġscheme": 7047,
      "ĠHun": 7048,
      "ivery": 7049,
      "Ġbid": 7050,
      "03": 7051,
      "Ġdrag": 7052,
      "Ġinqu": 7053,
      "Ġcontrolled": 7054,
      "::": 7055,
      "Ġcomprom": 7056,
      "pool": 7057,
      "ĠAsian": 7058,
      "ĠLand": 7059,
      "Ġbrew": 7060,
      "Ġrejected": 7061,
      "ĠNHL": 7062,
      "Ġpolls": 7063,
      "Ġequival": 7064,
      "Ġescape": 7065,
      "ĠDNA": 7066,
      "orted": 7067,
      "ĠNetwork": 7068,
      "Ġfighters": 7069,
      "ĠCompany": 7070,
      "Ġphase": 7071,
      "ems": 7072,
      "Ġcutting": 7073,
      "celer": 7074,
      "Ġchosen": 7075,
      "onsin": 7076,
      "Ġdefinition": 7077,
      "Ġflex": 7078,
      "ĠDespite": 7079,
      "eping": 7080,
      "Ġregions": 7081,
      "isconsin": 7082,
      "ĠMiami": 7083,
      "Ġempty": 7084,
      "zens": 7085,
      "Ġunw": 7086,
      "Ġjournalists": 7087,
      "Ġdeck": 7088,
      "ĠNations": 7089,
      "Ġenemies": 7090,
      "ĊĊĊ": 7091,
      "obile": 7092,
      "Ġdirected": 7093,
      "Ġsight": 7094,
      "list": 7095,
      "igation": 7096,
      "ĠView": 7097,
      "Ġamounts": 7098,
      "Ġdecent": 7099,
      "Ġideal": 7100,
      "Ġtechnologies": 7101,
      "ĠWhere": 7102,
      "Ġclaiming": 7103,
      "Ġofficially": 7104,
      "Ġreasonable": 7105,
      "Ġcourts": 7106,
      "Ġobtained": 7107,
      "ĠEnd": 7108,
      "Ġprofit": 7109,
      "Ġflying": 7110,
      "ĠLabor": 7111,
      "Ġthreatened": 7112,
      "Ġfields": 7113,
      "post": 7114,
      "ĠSea": 7115,
      "ĠAR": 7116,
      "Ġdogs": 7117,
      "ÑĢ": 7118,
      "Ġchampion": 7119,
      "Ġfees": 7120,
      "SE": 7121,
      "Ġnarrative": 7122,
      "ĠRog": 7123,
      "Ġfifth": 7124,
      "0000": 7125,
      "ĠConf": 7126,
      "59": 7127,
      "Ġgaming": 7128,
      "Ġcommunications": 7129,
      "owa": 7130,
      "Ġstronger": 7131,
      "Ġincl": 7132,
      "Ġbench": 7133,
      "ĠDaniel": 7134,
      "Ġsomebody": 7135,
      "ĠSteven": 7136,
      "rary": 7137,
      "cow": 7138,
      "Ġble": 7139,
      "Ġhits": 7140,
      "Ġextensive": 7141,
      "Ġgoods": 7142,
      "ĠUt": 7143,
      "pes": 7144,
      "ĠHot": 7145,
      "Ġwinner": 7146,
      "Ġpurposes": 7147,
      "Ġicon": 7148,
      "Ġtank": 7149,
      "ĠThough": 7150,
      "Ġconstantly": 7151,
      "Ġrig": 7152,
      "ĠItaly": 7153,
      "Ġnobody": 7154,
      "57": 7155,
      "Ġties": 7156,
      "Ġanswers": 7157,
      "Ġelsewhere": 7158,
      "Ġmagic": 7159,
      "lock": 7160,
      "Ġtrees": 7161,
      "Ġdeveloper": 7162,
      "Ġruled": 7163,
      "ĠSk": 7164,
      "pected": 7165,
      "Ġdriven": 7166,
      "ĠCD": 7167,
      "Ġemployee": 7168,
      "Ġengage": 7169,
      "Ġdistinct": 7170,
      "Ġdrawn": 7171,
      "ĠIndepend": 7172,
      "Ġanymore": 7173,
      "cript": 7174,
      "ĠServices": 7175,
      "Ġregularly": 7176,
      "Ġconstit": 7177,
      "Ġprimarily": 7178,
      "ĠJordan": 7179,
      "ĠAuthor": 7180,
      "inations": 7181,
      "Any": 7182,
      "ĠConstitution": 7183,
      "ĠBas": 7184,
      "lder": 7185,
      "osis": 7186,
      "otten": 7187,
      "Ġspin": 7188,
      "ĠBru": 7189,
      "Ġrival": 7190,
      "mont": 7191,
      "Ġroster": 7192,
      "Ġhouses": 7193,
      "Ġapartment": 7194,
      "Ġchoices": 7195,
      "Ġperfectly": 7196,
      "Ġseats": 7197,
      "emen": 7198,
      "Ġcontem": 7199,
      "ĠLight": 7200,
      "ĠScotland": 7201,
      "ĠAcadem": 7202,
      "icer": 7203,
      "MS": 7204,
      "intend": 7205,
      "ĠBrian": 7206,
      "owed": 7207,
      "ĠSpanish": 7208,
      "ĠAttorney": 7209,
      "Ġaudio": 7210,
      "Ġparam": 7211,
      "Ġloan": 7212,
      "Ġconscious": 7213,
      "Ġworldwide": 7214,
      "Once": 7215,
      "69": 7216,
      "asters": 7217,
      "rome": 7218,
      "ĠOS": 7219,
      "LC": 7220,
      "Ġpayments": 7221,
      "Ġassistant": 7222,
      "Ġincredible": 7223,
      "Ġcoalition": 7224,
      "igure": 7225,
      "Ġkeeps": 7226,
      "isan": 7227,
      "Ġemployment": 7228,
      "sea": 7229,
      "Ġprovince": 7230,
      "Ġaspects": 7231,
      "Ġcolon": 7232,
      "ĠCivil": 7233,
      "Ġpenalty": 7234,
      "ĠThank": 7235,
      "ĠSouthern": 7236,
      "Ġmayor": 7237,
      "Ġconcluded": 7238,
      "Ġencoun": 7239,
      "iner": 7240,
      "Ġending": 7241,
      "icken": 7242,
      "Police": 7243,
      "Ġweird": 7244,
      "ima": 7245,
      "Ġads": 7246,
      "ĠCare": 7247,
      "ĠWater": 7248,
      "MP": 7249,
      "Ġtied": 7250,
      "Ġretain": 7251,
      "earing": 7252,
      "inity": 7253,
      "Ġatmosphere": 7254,
      "Off": 7255,
      "rint": 7256,
      "Ġactor": 7257,
      "Ġletters": 7258,
      "Ġsituations": 7259,
      "ĠDisney": 7260,
      "Ġenthus": 7261,
      "unning": 7262,
      "Ġkil": 7263,
      "ĠLew": 7264,
      "ĠTurn": 7265,
      "Ġupper": 7266,
      "Ġterrible": 7267,
      "Ġpod": 7268,
      "ĠJoseph": 7269,
      "Ġexists": 7270,
      "Ġawesome": 7271,
      "Ġreporter": 7272,
      "Ġsolutions": 7273,
      "Ġpayment": 7274,
      "apes": 7275,
      "anchester": 7276,
      "Ġestimates": 7277,
      "Ġangry": 7278,
      "Ġclients": 7279,
      "Ġreturning": 7280,
      "Ġoutcome": 7281,
      "sell": 7282,
      "rep": 7283,
      "rett": 7284,
      "imp": 7285,
      "Also": 7286,
      "Ġroutine": 7287,
      "Ġparking": 7288,
      "Ġcontinuing": 7289,
      "aed": 7290,
      "Ġaccurate": 7291,
      "Ġmurd": 7292,
      "Ġwriters": 7293,
      "ĠOrgan": 7294,
      "rating": 7295,
      "Ġexplanation": 7296,
      "Ġresulting": 7297,
      "Ġinformed": 7298,
      "rates": 7299,
      "Ġfold": 7300,
      "ĠMinnesota": 7301,
      "Ġdrinking": 7302,
      "Ġtrading": 7303,
      "ĠDark": 7304,
      "Ġincredibly": 7305,
      "ez": 7306,
      "ĠAdam": 7307,
      "ĠAh": 7308,
      "Ġfounder": 7309,
      "irms": 7310,
      "Ġdemands": 7311,
      "Ġrepresented": 7312,
      "Ġblind": 7313,
      "ĠNick": 7314,
      "Ġ39": 7315,
      "Ġestablish": 7316,
      "Ġestate": 7317,
      "ship": 7318,
      "Ġmixed": 7319,
      "Ġcomplicated": 7320,
      "Ġdozen": 7321,
      "ĠEduc": 7322,
      "raph": 7323,
      "Getty": 7324,
      "ĠIrish": 7325,
      "Ġproved": 7326,
      "ilarly": 7327,
      "Ġcontributed": 7328,
      ".\"[": 7329,
      "Ġregistered": 7330,
      "Ġinnoc": 7331,
      "Ġconven": 7332,
      "ĠBell": 7333,
      "iscal": 7334,
      "regon": 7335,
      "Ġmyth": 7336,
      "print": 7337,
      "Ġnewly": 7338,
      "Ġcrucial": 7339,
      "ML": 7340,
      "Ġprote": 7341,
      "Ġconclusion": 7342,
      "Ġcomponents": 7343,
      "ĠGall": 7344,
      "ĠReal": 7345,
      "Ġstim": 7346,
      "Ġstuck": 7347,
      "Ġtechniques": 7348,
      "Ġmachines": 7349,
      "ifications": 7350,
      "ĠBowl": 7351,
      "Ġgenerate": 7352,
      "ĠTw": 7353,
      "Sec": 7354,
      "Today": 7355,
      "idency": 7356,
      "Ġcapture": 7357,
      "ker": 7358,
      "abama": 7359,
      "Ġstead": 7360,
      "bal": 7361,
      "Ġbills": 7362,
      "Ġboot": 7363,
      "Ġhabit": 7364,
      "ĠLGBT": 7365,
      "Ġprogramming": 7366,
      "Com": 7367,
      "oria": 7368,
      "Ġprofile": 7369,
      "Because": 7370,
      "Ġshares": 7371,
      "Ġsatell": 7372,
      "vy": 7373,
      "there": 7374,
      "Ġrus": 7375,
      "Ġtaste": 7376,
      "ĠIT": 7377,
      "Ġchances": 7378,
      "Ġbaseball": 7379,
      "Ġaggressive": 7380,
      "lights": 7381,
      "Ġcategory": 7382,
      "Ġiron": 7383,
      "Ġticket": 7384,
      "CE": 7385,
      "acked": 7386,
      "ĠBull": 7387,
      "Ġfeedback": 7388,
      "300": 7389,
      "esy": 7390,
      "ĠWin": 7391,
      "Ġsignal": 7392,
      "Ġpaint": 7393,
      "Ġsympt": 7394,
      "gorith": 7395,
      "onic": 7396,
      "Ġgro": 7397,
      "Ġtall": 7398,
      "ali": 7399,
      "ĠMS": 7400,
      "ĠSenator": 7401,
      "sm": 7402,
      "Ġuncertain": 7403,
      "ĠInf": 7404,
      "tle": 7405,
      "Ġprivile": 7406,
      "Ġgranted": 7407,
      "Ġorganized": 7408,
      "ifer": 7409,
      "Inst": 7410,
      "aron": 7411,
      "ĠWisconsin": 7412,
      "Ġdollar": 7413,
      "Ġlawmakers": 7414,
      "ĠMoore": 7415,
      "adelph": 7416,
      "Ð½": 7417,
      "Ġdegrees": 7418,
      "essed": 7419,
      "ĠNBC": 7420,
      "Ġdict": 7421,
      "Ġbrowser": 7422,
      "Ġexcess": 7423,
      "Ġdefence": 7424,
      "Ġraising": 7425,
      "iana": 7426,
      "Ġmail": 7427,
      "ĠAL": 7428,
      "Ġteaching": 7429,
      "hent": 7430,
      "ĠTem": 7431,
      "Ġcomplaint": 7432,
      "ye": 7433,
      "Ġconspir": 7434,
      "Ġnut": 7435,
      "Ġinfect": 7436,
      "Ġvulnerable": 7437,
      "56": 7438,
      "Ġplastic": 7439,
      "Äĥ": 7440,
      "HS": 7441,
      "Ġveteran": 7442,
      "ĠSpecial": 7443,
      "ĠPacific": 7444,
      "Ġ42": 7445,
      "lers": 7446,
      "Ġimper": 7447,
      "Ġmanip": 7448,
      "ĠTest": 7449,
      "uine": 7450,
      "Ġcounty": 7451,
      "Ġpilot": 7452,
      "Ġsurvive": 7453,
      "ĠItalian": 7454,
      "ĠSeries": 7455,
      "aun": 7456,
      "Ġthin": 7457,
      "ĠColl": 7458,
      "Ġgall": 7459,
      "ĠProgram": 7460,
      "ĠCat": 7461,
      "adelphia": 7462,
      "Ġ($": 7463,
      "actions": 7464,
      "Ġpermanent": 7465,
      "Ġcompens": 7466,
      "Ġaimed": 7467,
      "Ġcompre": 7468,
      "anny": 7469,
      "Ġpasses": 7470,
      "ĠCome": 7471,
      "ibilities": 7472,
      "Ġwarming": 7473,
      "ĠChampionship": 7474,
      "Ġtherap": 7475,
      "Ġrecovery": 7476,
      "Ġcontrols": 7477,
      "Ġblocks": 7478,
      "Ġoperate": 7479,
      "Ġengaged": 7480,
      "ĠSn": 7481,
      "mal": 7482,
      "Ġentit": 7483,
      "ĠDar": 7484,
      "athy": 7485,
      "âĢĻ,": 7486,
      "Ġafraid": 7487,
      "ĠEastern": 7488,
      "ĠSpain": 7489,
      "Ġ65": 7490,
      "ĠId": 7491,
      "ĠParliament": 7492,
      "Ġtaught": 7493,
      "Ġtitles": 7494,
      "Ġwestern": 7495,
      "ria": 7496,
      "Ġprinciples": 7497,
      "Ġpin": 7498,
      "ĠMu": 7499,
      "ĠBusiness": 7500,
      "ĠInvest": 7501,
      "Ġmarked": 7502,
      "Ġpersonnel": 7503,
      "agram": 7504,
      "ĠForeign": 7505,
      "ĠZeal": 7506,
      "Ġassistance": 7507,
      "Ġapolog": 7508,
      "Col": 7509,
      "writ": 7510,
      "Ġ150": 7511,
      "Ġanticip": 7512,
      "ĠViet": 7513,
      "Ġvaluable": 7514,
      "orough": 7515,
      "ĠThanks": 7516,
      "Ġru": 7517,
      "chain": 7518,
      "Ġautomatically": 7519,
      "ĠKurd": 7520,
      "Ġelite": 7521,
      "ĠTony": 7522,
      "Ġinspir": 7523,
      "Ġenable": 7524,
      "Ġworker": 7525,
      "Ġfault": 7526,
      "Ġaccomp": 7527,
      "Ġconsumption": 7528,
      "Ġphr": 7529,
      "fast": 7530,
      "%.": 7531,
      "Ġsuccessfully": 7532,
      "ĠBalt": 7533,
      "Ġbom": 7534,
      "aturally": 7535,
      "Ġinstalled": 7536,
      "Ġattended": 7537,
      "Ġenjoyed": 7538,
      "Ġmonit": 7539,
      "mod": 7540,
      "ashes": 7541,
      "everal": 7542,
      "otes": 7543,
      "Ġchampionship": 7544,
      "inder": 7545,
      "Ġextension": 7546,
      "Ġroot": 7547,
      "Ġstrikes": 7548,
      "Ġpace": 7549,
      "itals": 7550,
      "Ġsufficient": 7551,
      "active": 7552,
      "Ġacademic": 7553,
      "Ġregardless": 7554,
      "rific": 7555,
      "Ġscenes": 7556,
      "Ġnegotiations": 7557,
      "Ġrating": 7558,
      "uan": 7559,
      "Ġextrem": 7560,
      "Ġhidden": 7561,
      "ĠDead": 7562,
      "ĠOs": 7563,
      "upid": 7564,
      "Ġmainly": 7565,
      "weet": 7566,
      "Ġtroub": 7567,
      "Ġoverse": 7568,
      "ĠLinux": 7569,
      "Ġreputation": 7570,
      "ĠOper": 7571,
      "Ġpropag": 7572,
      "Ġadvertising": 7573,
      "ĠCoast": 7574,
      "era": 7575,
      "Ġphotograph": 7576,
      "ĠRoman": 7577,
      "Ġbes": 7578,
      "ĠGi": 7579,
      "herent": 7580,
      "this": 7581,
      "Ġbrut": 7582,
      "Ġ1999": 7583,
      "ĠTake": 7584,
      "Ġvisited": 7585,
      "cus": 7586,
      "ĠHas": 7587,
      "Ġsurgery": 7588,
      "Ġ64": 7589,
      "Ġlawyers": 7590,
      "Ġcomic": 7591,
      "Ġsolve": 7592,
      "Ġdisaster": 7593,
      "Ġbusy": 7594,
      "Ġpatterns": 7595,
      "month": 7596,
      "Ġduty": 7597,
      "Ġextract": 7598,
      "ĠDallas": 7599,
      "Ġadvis": 7600,
      "rete": 7601,
      "Ġracial": 7602,
      "ĠLook": 7603,
      "Ġpossession": 7604,
      "Ġfunny": 7605,
      "Ġfake": 7606,
      "Ġcollected": 7607,
      "ĠTaylor": 7608,
      "ĠFre": 7609,
      "Ġwing": 7610,
      "scape": 7611,
      "Ġequivalent": 7612,
      "twitter": 7613,
      "Mean": 7614,
      "Ġintense": 7615,
      "ĠJosh": 7616,
      "Ġcameras": 7617,
      "etary": 7618,
      "Ġgrant": 7619,
      "Ġexposure": 7620,
      "Ed": 7621,
      "ĠNorthern": 7622,
      "ĠKent": 7623,
      "Ġfeelings": 7624,
      "Ġtrib": 7625,
      "azz": 7626,
      "ĠâĤ¬": 7627,
      "Ġemerged": 7628,
      "Ġunusual": 7629,
      "Ġphones": 7630,
      "Ġengineering": 7631,
      "olt": 7632,
      "Ġloud": 7633,
      "antic": 7634,
      "ĠKelly": 7635,
      "ĠGer": 7636,
      "front": 7637,
      "Ġ55": 7638,
      "ĠStill": 7639,
      "Ġdescribes": 7640,
      "ĠBefore": 7641,
      "rypt": 7642,
      "Ġmedium": 7643,
      "star": 7644,
      "Ġexpectations": 7645,
      "ĠHom": 7646,
      "Ġprominent": 7647,
      "oz": 7648,
      "Ġbitcoin": 7649,
      "Ġprocesses": 7650,
      "ĠPolicy": 7651,
      "Ġportion": 7652,
      "ĠCross": 7653,
      "Ġhadn": 7654,
      "Ġrecording": 7655,
      "Ġcup": 7656,
      "Ġgenerated": 7657,
      "Ġdiscipl": 7658,
      "Ġpriority": 7659,
      "Ġdowntown": 7660,
      "cling": 7661,
      "Ġcorruption": 7662,
      "Ġeverywhere": 7663,
      "Ġrarely": 7664,
      "ĠRay": 7665,
      "ĠNation": 7666,
      "Ġadopted": 7667,
      "Ġrecip": 7668,
      "Ġprinciple": 7669,
      "Ġpermission": 7670,
      "making": 7671,
      "irk": 7672,
      "Ġcompete": 7673,
      "ĠMars": 7674,
      "ĠGreek": 7675,
      "Ġsup": 7676,
      "Ġtracks": 7677,
      "Ġ400": 7678,
      "97": 7679,
      "asion": 7680,
      "ba": 7681,
      "ATE": 7682,
      "Ġparticipate": 7683,
      "ĠMoscow": 7684,
      "Ġexplicit": 7685,
      "Ġcreates": 7686,
      "inding": 7687,
      "Ġresulted": 7688,
      "inking": 7689,
      "Ġcontracts": 7690,
      "Ġcrop": 7691,
      "istent": 7692,
      "viously": 7693,
      "Ġimplementation": 7694,
      "Ġstab": 7695,
      "iel": 7696,
      "Ġcited": 7697,
      "Ġlaid": 7698,
      "ĠIowa": 7699,
      "Ġpounds": 7700,
      "ifies": 7701,
      "Ġenorm": 7702,
      "Ġelev": 7703,
      "Ġthousand": 7704,
      "Ġfought": 7705,
      "Ġwonderful": 7706,
      "Ġinev": 7707,
      "PG": 7708,
      "Ġshortly": 7709,
      "Ġdepending": 7710,
      "bro": 7711,
      "Ġ2019": 7712,
      "ĠAlabama": 7713,
      "Co": 7714,
      "ĠRet": 7715,
      "Ġtaxp": 7716,
      "ĠAnth": 7717,
      "Ġairport": 7718,
      "Ġrecru": 7719,
      "Ġtag": 7720,
      "igen": 7721,
      "Ġmanufacturing": 7722,
      "Ġthick": 7723,
      "orne": 7724,
      "amber": 7725,
      "ules": 7726,
      "fall": 7727,
      "text": 7728,
      "Ġfarmers": 7729,
      "Ġcannabis": 7730,
      "Ġscenario": 7731,
      "ĠGreg": 7732,
      "Ġmel": 7733,
      "ĠLive": 7734,
      "ikes": 7735,
      "ĠMcG": 7736,
      "Ġcable": 7737,
      "ĠZealand": 7738,
      "Ġgenuine": 7739,
      "ĠAvenue": 7740,
      "ĠDevelopment": 7741,
      "Ġcomputers": 7742,
      "Ġminority": 7743,
      "wr": 7744,
      "athered": 7745,
      "86": 7746,
      "da": 7747,
      "ĠEmp": 7748,
      "elect": 7749,
      "ĠVeg": 7750,
      "Ġvisible": 7751,
      "ĠMajor": 7752,
      "ĠESP": 7753,
      "Ġcrypt": 7754,
      "Ġdrawing": 7755,
      "itar": 7756,
      "Ġfinance": 7757,
      "Ġscoring": 7758,
      "ĠCall": 7759,
      "Ġ1960": 7760,
      "Ġlosses": 7761,
      "Ġborrow": 7762,
      "iler": 7763,
      "Ġshock": 7764,
      "osexual": 7765,
      "cles": 7766,
      "gun": 7767,
      "ja": 7768,
      "400": 7769,
      "Ġstrict": 7770,
      "adi": 7771,
      "ĠFoot": 7772,
      "ĠPhiladelphia": 7773,
      "ĠNC": 7774,
      "Ġbehalf": 7775,
      "quarters": 7776,
      "ĠJac": 7777,
      "Ġstations": 7778,
      "Mar": 7779,
      "Rec": 7780,
      "ĠManchester": 7781,
      "UL": 7782,
      "ĠFort": 7783,
      "aska": 7784,
      "ĠFC": 7785,
      "ĠFood": 7786,
      "Ġagric": 7787,
      "Ġridic": 7788,
      "ĠOregon": 7789,
      "ĠArm": 7790,
      "ĠSaf": 7791,
      "Ġtor": 7792,
      "Ġuniform": 7793,
      "Ġho": 7794,
      "BO": 7795,
      "Ġsanctions": 7796,
      "53": 7797,
      "Ġdozens": 7798,
      "Ġven": 7799,
      "ĠConference": 7800,
      "ĠRick": 7801,
      "Meanwhile": 7802,
      "Ġlights": 7803,
      "54": 7804,
      "Ġfounded": 7805,
      "idelines": 7806,
      "Ġobst": 7807,
      "Ġtox": 7808,
      "Ġpump": 7809,
      "ht": 7810,
      "Ġbasketball": 7811,
      "Ġformal": 7812,
      "ĠHit": 7813,
      "Before": 7814,
      "Ġfirms": 7815,
      "Ġhistoric": 7816,
      "Ġcounsel": 7817,
      "Ġheaded": 7818,
      "Ġveget": 7819,
      "opher": 7820,
      "who": 7821,
      "Ġaffili": 7822,
      "ĠFair": 7823,
      "Ġroles": 7824,
      "ĠKey": 7825,
      "Ġdiscrimination": 7826,
      "eland": 7827,
      "mann": 7828,
      "Ġmovements": 7829,
      "Ġclubs": 7830,
      "Ġsharp": 7831,
      "ĠGlobal": 7832,
      "ogether": 7833,
      "Ġships": 7834,
      "Ġ44": 7835,
      "ĠReview": 7836,
      "Ġphilosophy": 7837,
      "enny": 7838,
      "Ġtur": 7839,
      "Ġestablishment": 7840,
      "Ġexception": 7841,
      "ĠAD": 7842,
      "Ġstruggling": 7843,
      "Ġinterface": 7844,
      "Ġlanguages": 7845,
      "Ġacceler": 7846,
      "Ġalgorith": 7847,
      "ĠRoyal": 7848,
      "52": 7849,
      "Ġfoundation": 7850,
      "ĠThree": 7851,
      "Ġstable": 7852,
      "Ġfinger": 7853,
      "ĠTurkish": 7854,
      "ni": 7855,
      "ĠMid": 7856,
      "ilton": 7857,
      "aning": 7858,
      "Ġtoler": 7859,
      "from": 7860,
      "Ġtackle": 7861,
      "Ġbridge": 7862,
      "ĠNavy": 7863,
      "rous": 7864,
      "uer": 7865,
      "Ġliked": 7866,
      "Ġdinner": 7867,
      "ĠDid": 7868,
      "76": 7869,
      "pread": 7870,
      "Ġbanned": 7871,
      "ĠHT": 7872,
      "Ġoutr": 7873,
      "found": 7874,
      "ĠHay": 7875,
      "Ġstadium": 7876,
      "Ġspark": 7877,
      "51": 7878,
      "Ġwithdraw": 7879,
      "enth": 7880,
      "lla": 7881,
      "Ġhang": 7882,
      "Ġmagn": 7883,
      "Ġedition": 7884,
      "ĠNob": 7885,
      "ĠPack": 7886,
      "uper": 7887,
      "ĠAND": 7888,
      "ĠDig": 7889,
      "Ġentering": 7890,
      "teen": 7891,
      "ystem": 7892,
      "olis": 7893,
      "Ġflaw": 7894,
      "rators": 7895,
      "jo": 7896,
      "ĠPay": 7897,
      "Ġprofession": 7898,
      "profit": 7899,
      "rative": 7900,
      "ĠLo": 7901,
      "ĠReuters": 7902,
      "Ġgained": 7903,
      "imore": 7904,
      "Ġneuro": 7905,
      "idespread": 7906,
      "Ġcha": 7907,
      "Ġju": 7908,
      "ĠHenry": 7909,
      "ilipp": 7910,
      "Ġbeliefs": 7911,
      "Us": 7912,
      "ĠAcademy": 7913,
      "ĠAS": 7914,
      "ington": 7915,
      "ĠAmendment": 7916,
      "Ġindex": 7917,
      "Ġdeliber": 7918,
      "ĠMoh": 7919,
      "urrent": 7920,
      "lete": 7921,
      "Ġrecognized": 7922,
      "Ġbra": 7923,
      "Ġfee": 7924,
      "ĠPremier": 7925,
      "Ġdelivery": 7926,
      "Ġrelief": 7927,
      "Ġlegend": 7928,
      "Ġjournalist": 7929,
      "Ġwheel": 7930,
      "Ġbath": 7931,
      "ĠGetty": 7932,
      "ĠLind": 7933,
      "Ġdoors": 7934,
      "ĠVis": 7935,
      "Ġaver": 7936,
      "Ġcontaining": 7937,
      "ĠJason": 7938,
      "))": 7939,
      "Ġbarely": 7940,
      "Ġcyber": 7941,
      "Ġproducer": 7942,
      "ĠEducation": 7943,
      "Ġ1998": 7944,
      "========": 7945,
      "Ġstructures": 7946,
      "Those": 7947,
      "Ġachieved": 7948,
      "Ġdestruction": 7949,
      "Ġasks": 7950,
      "Ġhired": 7951,
      "log": 7952,
      "Ġhole": 7953,
      "Ġfootage": 7954,
      "etime": 7955,
      "Ġconvin": 7956,
      "ĠAbout": 7957,
      "Ġarrange": 7958,
      "ester": 7959,
      "ĠTown": 7960,
      "Ġsaved": 7961,
      "Ġrely": 7962,
      "cription": 7963,
      "oured": 7964,
      "ĠField": 7965,
      "ĠCentre": 7966,
      "ĠDiego": 7967,
      "world": 7968,
      "Ġnominee": 7969,
      "Ġexclusive": 7970,
      "ĠAdministration": 7971,
      "ĠOnt": 7972,
      "Ġbacked": 7973,
      "ounced": 7974,
      "ĠMusic": 7975,
      "Ġfiction": 7976,
      "Ġviewers": 7977,
      "Ġplug": 7978,
      "ĠThus": 7979,
      "olen": 7980,
      "etts": 7981,
      "Ġrose": 7982,
      "ĠPoint": 7983,
      "ĠHarry": 7984,
      "ĠRand": 7985,
      "umer": 7986,
      "Ġneighb": 7987,
      "AG": 7988,
      "ĠPerhaps": 7989,
      "Ġepisodes": 7990,
      "lan": 7991,
      "osa": 7992,
      "izon": 7993,
      "Ġneutral": 7994,
      "abs": 7995,
      "aching": 7996,
      "Ġforever": 7997,
      "prise": 7998,
      "Ġmilk": 7999
    },
    "merges": [
      [
        "Ġ",
        "t"
      ],
      [
        "Ġ",
        "a"
      ],
      [
        "h",
        "e"
      ],
      [
        "i",
        "n"
      ],
      [
        "r",
        "e"
      ],
      [
        "Ġt",
        "he"
      ],
      [
        "o",
        "n"
      ],
      [
        "e",
        "r"
      ],
      [
        "Ġ",
        "s"
      ],
      [
        "Ġ",
        "w"
      ],
      [
        "a",
        "t"
      ],
      [
        "Ġ",
        "o"
      ],
      [
        "e",
        "n"
      ],
      [
        "Ġ",
        "c"
      ],
      [
        "i",
        "t"
      ],
      [
        "i",
        "s"
      ],
      [
        "a",
        "n"
      ],
      [
        "o",
        "r"
      ],
      [
        "Ġ",
        "b"
      ],
      [
        "e",
        "s"
      ],
      [
        "e",
        "d"
      ],
      [
        "Ġ",
        "f"
      ],
      [
        "in",
        "g"
      ],
      [
        "Ġ",
        "p"
      ],
      [
        "o",
        "u"
      ],
      [
        "Ġa",
        "n"
      ],
      [
        "Ġt",
        "o"
      ],
      [
        "a",
        "l"
      ],
      [
        "a",
        "r"
      ],
      [
        "Ġ",
        "m"
      ],
      [
        "Ġ",
        "in"
      ],
      [
        "Ġo",
        "f"
      ],
      [
        "Ġ",
        "d"
      ],
      [
        "Ġ",
        "h"
      ],
      [
        "â",
        "Ģ"
      ],
      [
        "a",
        "s"
      ],
      [
        "Ġan",
        "d"
      ],
      [
        "i",
        "c"
      ],
      [
        "Ġt",
        "h"
      ],
      [
        "l",
        "e"
      ],
      [
        "o",
        "m"
      ],
      [
        "i",
        "on"
      ],
      [
        "l",
        "l"
      ],
      [
        "en",
        "t"
      ],
      [
        "Ġ",
        "n"
      ],
      [
        "Ġ",
        "l"
      ],
      [
        "Ġ",
        "re"
      ],
      [
        "s",
        "t"
      ],
      [
        "v",
        "e"
      ],
      [
        "l",
        "y"
      ],
      [
        "Ġ",
        "e"
      ],
      [
        "Ġb",
        "e"
      ],
      [
        "r",
        "o"
      ],
      [
        "Ġ",
        "g"
      ],
      [
        "i",
        "d"
      ],
      [
        "u",
        "t"
      ],
      [
        "a",
        "c"
      ],
      [
        "o",
        "t"
      ],
      [
        "Ġ",
        "T"
      ],
      [
        "Ġ",
        "I"
      ],
      [
        "Ġth",
        "at"
      ],
      [
        "Ġ",
        "on"
      ],
      [
        "a",
        "y"
      ],
      [
        "Ġ",
        "S"
      ],
      [
        "Ġ",
        "is"
      ],
      [
        "e",
        "t"
      ],
      [
        "i",
        "m"
      ],
      [
        "a",
        "m"
      ],
      [
        "a",
        "d"
      ],
      [
        "o",
        "w"
      ],
      [
        "s",
        "e"
      ],
      [
        "i",
        "g"
      ],
      [
        "Ġf",
        "or"
      ],
      [
        "âĢ",
        "Ļ"
      ],
      [
        "Ġ",
        "A"
      ],
      [
        "v",
        "er"
      ],
      [
        "u",
        "r"
      ],
      [
        "l",
        "d"
      ],
      [
        "c",
        "t"
      ],
      [
        "Ġ",
        "C"
      ],
      [
        "Ġ",
        "u"
      ],
      [
        "Ġs",
        "t"
      ],
      [
        "Ġ",
        "y"
      ],
      [
        "Ġ",
        "it"
      ],
      [
        "Ġ",
        "he"
      ],
      [
        "i",
        "r"
      ],
      [
        "at",
        "ion"
      ],
      [
        "it",
        "h"
      ],
      [
        "Ġw",
        "h"
      ],
      [
        "Ġ",
        "M"
      ],
      [
        "c",
        "e"
      ],
      [
        "t",
        "er"
      ],
      [
        "Ġw",
        "e"
      ],
      [
        "o",
        "l"
      ],
      [
        "i",
        "l"
      ],
      [
        "Ġw",
        "ith"
      ],
      [
        "Ġa",
        "s"
      ],
      [
        "Ġ",
        "B"
      ],
      [
        "c",
        "h"
      ],
      [
        "i",
        "ll"
      ],
      [
        "n",
        "d"
      ],
      [
        "Ġ",
        "P"
      ],
      [
        "Ġy",
        "ou"
      ],
      [
        "Ġw",
        "as"
      ],
      [
        "er",
        "s"
      ],
      [
        "k",
        "e"
      ],
      [
        "Ġ",
        "âĢ"
      ],
      [
        "Ġc",
        "on"
      ],
      [
        "Ġd",
        "e"
      ],
      [
        "Ġ",
        "r"
      ],
      [
        "he",
        "r"
      ],
      [
        "at",
        "e"
      ],
      [
        "i",
        "f"
      ],
      [
        "Ġa",
        "t"
      ],
      [
        "a",
        "g"
      ],
      [
        "Ġh",
        "a"
      ],
      [
        "Ġ",
        "W"
      ],
      [
        "Ġs",
        "e"
      ],
      [
        "Ġ",
        "H"
      ],
      [
        "o",
        "re"
      ],
      [
        "Ġp",
        "ro"
      ],
      [
        "u",
        "l"
      ],
      [
        "p",
        "p"
      ],
      [
        "Ġa",
        "re"
      ],
      [
        "m",
        "ent"
      ],
      [
        "Ġ",
        "D"
      ],
      [
        "r",
        "i"
      ],
      [
        "es",
        "t"
      ],
      [
        "u",
        "s"
      ],
      [
        "is",
        "t"
      ],
      [
        "Ġ",
        "1"
      ],
      [
        "Ġc",
        "om"
      ],
      [
        "an",
        "d"
      ],
      [
        "o",
        "p"
      ],
      [
        "Ġ",
        "R"
      ],
      [
        "a",
        "in"
      ],
      [
        "ĠT",
        "he"
      ],
      [
        "Ġ",
        "2"
      ],
      [
        "ig",
        "h"
      ],
      [
        "r",
        "om"
      ],
      [
        "or",
        "t"
      ],
      [
        "o",
        "d"
      ],
      [
        "Ġn",
        "e"
      ],
      [
        "Ġ",
        "F"
      ],
      [
        "Ġ",
        "("
      ],
      [
        "Ġe",
        "x"
      ],
      [
        "u",
        "n"
      ],
      [
        "u",
        "m"
      ],
      [
        "re",
        "s"
      ],
      [
        "a",
        "b"
      ],
      [
        "Ġn",
        "ot"
      ],
      [
        "âĢ",
        "Ŀ"
      ],
      [
        "Ġ",
        "N"
      ],
      [
        "Ġ",
        "v"
      ],
      [
        "es",
        "s"
      ],
      [
        "Ġha",
        "ve"
      ],
      [
        "it",
        "y"
      ],
      [
        "ou",
        "ld"
      ],
      [
        "e",
        "m"
      ],
      [
        "Ġo",
        "r"
      ],
      [
        "t",
        "h"
      ],
      [
        "Ġb",
        "y"
      ],
      [
        "o",
        "s"
      ],
      [
        "Ġ",
        "G"
      ],
      [
        "an",
        "t"
      ],
      [
        "Ġf",
        "rom"
      ],
      [
        "i",
        "ve"
      ],
      [
        "Ġa",
        "l"
      ],
      [
        "'",
        "s"
      ],
      [
        "e",
        "l"
      ],
      [
        "Ġs",
        "u"
      ],
      [
        "o",
        "c"
      ],
      [
        "ar",
        "t"
      ],
      [
        "Ġ",
        "L"
      ],
      [
        "Ġs",
        "h"
      ],
      [
        "Ġth",
        "is"
      ],
      [
        "n",
        "t"
      ],
      [
        "q",
        "u"
      ],
      [
        "igh",
        "t"
      ],
      [
        "p",
        "e"
      ],
      [
        "u",
        "st"
      ],
      [
        "Ġ",
        "le"
      ],
      [
        "Ġ",
        "E"
      ],
      [
        "i",
        "es"
      ],
      [
        "en",
        "d"
      ],
      [
        "Ġc",
        "h"
      ],
      [
        "Ġs",
        "a"
      ],
      [
        "ou",
        "t"
      ],
      [
        "Ġa",
        "b"
      ],
      [
        "T",
        "he"
      ],
      [
        "i",
        "e"
      ],
      [
        "al",
        "l"
      ],
      [
        "ac",
        "k"
      ],
      [
        "re",
        "d"
      ],
      [
        "al",
        "ly"
      ],
      [
        "ĠâĢ",
        "ľ"
      ],
      [
        "Ġh",
        "as"
      ],
      [
        "0",
        "0"
      ],
      [
        "Ġ",
        "J"
      ],
      [
        "Ġp",
        "l"
      ],
      [
        "Ġg",
        "o"
      ],
      [
        "ar",
        "d"
      ],
      [
        "Ġh",
        "is"
      ],
      [
        "om",
        "e"
      ],
      [
        "i",
        "v"
      ],
      [
        "g",
        "h"
      ],
      [
        "a",
        "p"
      ],
      [
        "o",
        "st"
      ],
      [
        "e",
        "ar"
      ],
      [
        "Ġ",
        "O"
      ],
      [
        "ou",
        "r"
      ],
      [
        "Ġt",
        "r"
      ],
      [
        "as",
        "t"
      ],
      [
        "Ġ",
        "j"
      ],
      [
        "a",
        "k"
      ],
      [
        "u",
        "d"
      ],
      [
        "Ġd",
        "o"
      ],
      [
        "Ġthe",
        "y"
      ],
      [
        "Ġb",
        "ut"
      ],
      [
        "Ġw",
        "or"
      ],
      [
        "Ġc",
        "an"
      ],
      [
        "Ġw",
        "ill"
      ],
      [
        "r",
        "ou"
      ],
      [
        "g",
        "e"
      ],
      [
        "Ġw",
        "he"
      ],
      [
        "Ġsa",
        "id"
      ],
      [
        "Ġ",
        "U"
      ],
      [
        "ic",
        "h"
      ],
      [
        "Ġ",
        "k"
      ],
      [
        "Ġa",
        "ll"
      ],
      [
        "o",
        "k"
      ],
      [
        "Ġwh",
        "o"
      ],
      [
        "Ġ",
        "\""
      ],
      [
        "id",
        "e"
      ],
      [
        "Ġin",
        "t"
      ],
      [
        "am",
        "e"
      ],
      [
        "an",
        "s"
      ],
      [
        "t",
        "her"
      ],
      [
        "Ġo",
        "ut"
      ],
      [
        "i",
        "al"
      ],
      [
        "Ġthe",
        "ir"
      ],
      [
        "f",
        "f"
      ],
      [
        "on",
        "g"
      ],
      [
        "e",
        "ct"
      ],
      [
        "ic",
        "e"
      ],
      [
        "p",
        "l"
      ],
      [
        "u",
        "re"
      ],
      [
        "p",
        "t"
      ],
      [
        "Ġm",
        "ore"
      ],
      [
        "on",
        "e"
      ],
      [
        "ag",
        "e"
      ],
      [
        "ac",
        "t"
      ],
      [
        "i",
        "ke"
      ],
      [
        "ion",
        "s"
      ],
      [
        "Ġm",
        "e"
      ],
      [
        "Ġu",
        "p"
      ],
      [
        "ou",
        "s"
      ],
      [
        "in",
        "e"
      ],
      [
        "Ġa",
        "d"
      ],
      [
        "Ġab",
        "out"
      ],
      [
        "r",
        "a"
      ],
      [
        "at",
        "ed"
      ],
      [
        "b",
        "er"
      ],
      [
        "Ġon",
        "e"
      ],
      [
        "Ġs",
        "o"
      ],
      [
        "Ġu",
        "s"
      ],
      [
        "Ġwe",
        "re"
      ],
      [
        "Ġ",
        "K"
      ],
      [
        "im",
        "e"
      ],
      [
        "o",
        "g"
      ],
      [
        "e",
        "p"
      ],
      [
        "Ġh",
        "ad"
      ],
      [
        "a",
        "re"
      ],
      [
        "i",
        "a"
      ],
      [
        "Ġ2",
        "0"
      ],
      [
        "Ġw",
        "ould"
      ],
      [
        "u",
        "b"
      ],
      [
        "c",
        "c"
      ],
      [
        "Ġc",
        "l"
      ],
      [
        "in",
        "d"
      ],
      [
        "Ġ",
        "im"
      ],
      [
        "Ġwh",
        "ich"
      ],
      [
        "u",
        "e"
      ],
      [
        "a",
        "ke"
      ],
      [
        "ver",
        "y"
      ],
      [
        "Ġcon",
        "t"
      ],
      [
        "Ġa",
        "g"
      ],
      [
        "Ġt",
        "e"
      ],
      [
        "i",
        "z"
      ],
      [
        "Ġof",
        "f"
      ],
      [
        "Ġbe",
        "en"
      ],
      [
        "Ġu",
        "n"
      ],
      [
        "Ġcom",
        "p"
      ],
      [
        "ĠS",
        "t"
      ],
      [
        "Ġ",
        "en"
      ],
      [
        "a",
        "u"
      ],
      [
        "s",
        "o"
      ],
      [
        "p",
        "er"
      ],
      [
        "ĠT",
        "h"
      ],
      [
        "ig",
        "n"
      ],
      [
        "ac",
        "e"
      ],
      [
        "ar",
        "y"
      ],
      [
        "Ġy",
        "ear"
      ],
      [
        "e",
        "w"
      ],
      [
        "i",
        "p"
      ],
      [
        "Ġl",
        "ike"
      ],
      [
        "v",
        "en"
      ],
      [
        "e",
        "re"
      ],
      [
        "Ġp",
        "e"
      ],
      [
        "o",
        "ok"
      ],
      [
        "Ġm",
        "an"
      ],
      [
        "ay",
        "s"
      ],
      [
        "Ġin",
        "c"
      ],
      [
        "r",
        "y"
      ],
      [
        "o",
        "se"
      ],
      [
        "Ġre",
        "s"
      ],
      [
        "it",
        "e"
      ],
      [
        "ab",
        "le"
      ],
      [
        "Ġp",
        "er"
      ],
      [
        "Ġs",
        "p"
      ],
      [
        "as",
        "s"
      ],
      [
        "or",
        "d"
      ],
      [
        "i",
        "re"
      ],
      [
        "Ġo",
        "ther"
      ],
      [
        "ĠI",
        "n"
      ],
      [
        "m",
        "er"
      ],
      [
        "Ġs",
        "ome"
      ],
      [
        "op",
        "le"
      ],
      [
        "i",
        "le"
      ],
      [
        "Ġ20",
        "1"
      ],
      [
        "i",
        "b"
      ],
      [
        "en",
        "ce"
      ],
      [
        "k",
        "s"
      ],
      [
        "Ġo",
        "ver"
      ],
      [
        "ic",
        "al"
      ],
      [
        "Ġthe",
        "re"
      ],
      [
        "ation",
        "s"
      ],
      [
        "Ġd",
        "is"
      ],
      [
        "res",
        "s"
      ],
      [
        "Ġne",
        "w"
      ],
      [
        "ul",
        "t"
      ],
      [
        "in",
        "t"
      ],
      [
        "Ġbe",
        "c"
      ],
      [
        "Ġth",
        "an"
      ],
      [
        "ow",
        "n"
      ],
      [
        "Ġa",
        "r"
      ],
      [
        "Ġal",
        "so"
      ],
      [
        "Ġthe",
        "m"
      ],
      [
        "r",
        "u"
      ],
      [
        "ou",
        "gh"
      ],
      [
        "ou",
        "nt"
      ],
      [
        "an",
        "ce"
      ],
      [
        "Ġa",
        "pp"
      ],
      [
        "p",
        "ort"
      ],
      [
        "Ġwh",
        "at"
      ],
      [
        "Ġwhe",
        "n"
      ],
      [
        "Ġp",
        "art"
      ],
      [
        "Ġyou",
        "r"
      ],
      [
        "a",
        "il"
      ],
      [
        "Ġpe",
        "ople"
      ],
      [
        "re",
        "e"
      ],
      [
        "on",
        "d"
      ],
      [
        "f",
        "ter"
      ],
      [
        "Ġs",
        "c"
      ],
      [
        "or",
        "m"
      ],
      [
        "Ġ",
        "qu"
      ],
      [
        "ĠC",
        "h"
      ],
      [
        "as",
        "e"
      ],
      [
        "a",
        "v"
      ],
      [
        "Ġj",
        "ust"
      ],
      [
        "Ġan",
        "y"
      ],
      [
        "Ġ",
        "Y"
      ],
      [
        "Ġit",
        "s"
      ],
      [
        "ac",
        "h"
      ],
      [
        "ĠI",
        "t"
      ],
      [
        "Ġt",
        "ime"
      ],
      [
        "Ġk",
        "n"
      ],
      [
        "Ġhe",
        "r"
      ],
      [
        "Ġm",
        "y"
      ],
      [
        "en",
        "s"
      ],
      [
        "Ġre",
        "c"
      ],
      [
        "Ġ",
        "3"
      ],
      [
        "Ġg",
        "et"
      ],
      [
        "l",
        "ic"
      ],
      [
        "re",
        "at"
      ],
      [
        "Ġ",
        "if"
      ],
      [
        "Ġ",
        "V"
      ],
      [
        ".",
        "âĢĿ"
      ],
      [
        "Ġint",
        "o"
      ],
      [
        "i",
        "an"
      ],
      [
        "Ġwor",
        "k"
      ],
      [
        "ou",
        "nd"
      ],
      [
        "Ġt",
        "w"
      ],
      [
        "ve",
        "l"
      ],
      [
        "ir",
        "st"
      ],
      [
        "Ġn",
        "o"
      ],
      [
        "ct",
        "ion"
      ],
      [
        "d",
        "u"
      ],
      [
        "ing",
        "s"
      ],
      [
        "or",
        "y"
      ],
      [
        "Ġo",
        "ur"
      ],
      [
        "id",
        "ent"
      ],
      [
        "it",
        "ion"
      ],
      [
        "ic",
        "k"
      ],
      [
        "or",
        "s"
      ],
      [
        "o",
        "b"
      ],
      [
        "Ġ",
        "-"
      ],
      [
        "o",
        "ve"
      ],
      [
        "an",
        "g"
      ],
      [
        "Ġp",
        "re"
      ],
      [
        "Ġpl",
        "ay"
      ],
      [
        "au",
        "se"
      ],
      [
        "in",
        "k"
      ],
      [
        "w",
        "n"
      ],
      [
        "h",
        "ing"
      ],
      [
        "ad",
        "e"
      ],
      [
        "it",
        "t"
      ],
      [
        "at",
        "es"
      ],
      [
        "am",
        "p"
      ],
      [
        "ar",
        "k"
      ],
      [
        "Ġ",
        "ro"
      ],
      [
        "Ġs",
        "he"
      ],
      [
        "Ġp",
        "ol"
      ],
      [
        "ver",
        "s"
      ],
      [
        "Ġc",
        "o"
      ],
      [
        "Ġa",
        "fter"
      ],
      [
        "ĠH",
        "e"
      ],
      [
        "Ġ1",
        "9"
      ],
      [
        "Ġc",
        "ould"
      ],
      [
        "Ġf",
        "irst"
      ],
      [
        "Ġh",
        "ow"
      ],
      [
        ",",
        "âĢĿ"
      ],
      [
        "n",
        "e"
      ],
      [
        "Ġh",
        "im"
      ],
      [
        "nd",
        "er"
      ],
      [
        "i",
        "ous"
      ],
      [
        "'",
        "t"
      ],
      [
        "i",
        "ld"
      ],
      [
        "on",
        "s"
      ],
      [
        "Ġa",
        "cc"
      ],
      [
        "a",
        "w"
      ],
      [
        "Ġp",
        "o"
      ],
      [
        "Ġat",
        "t"
      ],
      [
        "Ġf",
        "e"
      ],
      [
        "Ġon",
        "ly"
      ],
      [
        "ic",
        "t"
      ],
      [
        "he",
        "d"
      ],
      [
        "Ġp",
        "r"
      ],
      [
        "Ġtw",
        "o"
      ],
      [
        "o",
        "v"
      ],
      [
        "is",
        "h"
      ],
      [
        "Ġcom",
        "m"
      ],
      [
        "Ġs",
        "pe"
      ],
      [
        "âĢ",
        "ľ"
      ],
      [
        ".",
        "\""
      ],
      [
        "Ġa",
        "ct"
      ],
      [
        "f",
        "orm"
      ],
      [
        "Ġb",
        "l"
      ],
      [
        "w",
        "e"
      ],
      [
        "Ġs",
        "er"
      ],
      [
        "f",
        "t"
      ],
      [
        "c",
        "k"
      ],
      [
        "Ġbe",
        "t"
      ],
      [
        "n",
        "ing"
      ],
      [
        "Ġb",
        "ack"
      ],
      [
        "t",
        "e"
      ],
      [
        "Ġm",
        "ost"
      ],
      [
        "c",
        "es"
      ],
      [
        "Ġde",
        "c"
      ],
      [
        "o",
        "od"
      ],
      [
        "ĠâĢ",
        "ĵ"
      ],
      [
        "o",
        "y"
      ],
      [
        "Ġa",
        "m"
      ],
      [
        "Ġd",
        "id"
      ],
      [
        "rou",
        "gh"
      ],
      [
        "if",
        "f"
      ],
      [
        "rou",
        "nd"
      ],
      [
        "at",
        "er"
      ],
      [
        "Ġag",
        "ain"
      ],
      [
        "Ġ",
        "4"
      ],
      [
        "Ġw",
        "ant"
      ],
      [
        "d",
        "ay"
      ],
      [
        "u",
        "al"
      ],
      [
        "is",
        "e"
      ],
      [
        "Ġu",
        "nder"
      ],
      [
        "Ġd",
        "es"
      ],
      [
        "u",
        "ll"
      ],
      [
        "se",
        "l"
      ],
      [
        "Ġbec",
        "ause"
      ],
      [
        ",",
        "\""
      ],
      [
        "Ġcon",
        "s"
      ],
      [
        "Ġ",
        "$"
      ],
      [
        "r",
        "it"
      ],
      [
        "Ġn",
        "ow"
      ],
      [
        "ĠâĢ",
        "Ķ"
      ],
      [
        "Ġyear",
        "s"
      ],
      [
        ".",
        "."
      ],
      [
        "ent",
        "s"
      ],
      [
        "l",
        "ud"
      ],
      [
        "Ġne",
        "ed"
      ],
      [
        "Ġe",
        "ven"
      ],
      [
        "ter",
        "n"
      ],
      [
        "m",
        "an"
      ],
      [
        "is",
        "s"
      ],
      [
        "ub",
        "lic"
      ],
      [
        "e",
        "c"
      ],
      [
        "Ġin",
        "v"
      ],
      [
        "Ġkn",
        "ow"
      ],
      [
        "ĠW",
        "e"
      ],
      [
        "Ġse",
        "e"
      ],
      [
        "o",
        "ld"
      ],
      [
        "c",
        "ed"
      ],
      [
        "ment",
        "s"
      ],
      [
        "Ġad",
        "d"
      ],
      [
        "Ġin",
        "d"
      ],
      [
        "Ġse",
        "c"
      ],
      [
        "f",
        "ore"
      ],
      [
        "Ġe",
        "very"
      ],
      [
        "u",
        "ch"
      ],
      [
        "ur",
        "n"
      ],
      [
        "Ġ",
        "5"
      ],
      [
        "Ġm",
        "ake"
      ],
      [
        "Ġsu",
        "pp"
      ],
      [
        "ĠU",
        "n"
      ],
      [
        "pe",
        "ct"
      ],
      [
        "Ġthe",
        "se"
      ],
      [
        "Ġe",
        "m"
      ],
      [
        "oc",
        "k"
      ],
      [
        "Ġwhe",
        "re"
      ],
      [
        "o",
        "ll"
      ],
      [
        "j",
        "ect"
      ],
      [
        "I",
        "n"
      ],
      [
        "x",
        "t"
      ],
      [
        "ation",
        "al"
      ],
      [
        "ver",
        "n"
      ],
      [
        "Ġb",
        "u"
      ],
      [
        "T",
        "h"
      ],
      [
        "Ġl",
        "ook"
      ],
      [
        "Ġd",
        "on"
      ],
      [
        "os",
        "s"
      ],
      [
        "ĠA",
        "nd"
      ],
      [
        "Ġw",
        "ay"
      ],
      [
        "um",
        "p"
      ],
      [
        "Ġe",
        "v"
      ],
      [
        "Ġbe",
        "ing"
      ],
      [
        "Ġre",
        "m"
      ],
      [
        "Ġr",
        "ight"
      ],
      [
        "at",
        "ing"
      ],
      [
        "n",
        "g"
      ],
      [
        "Ġthe",
        "n"
      ],
      [
        "le",
        "ct"
      ],
      [
        "Ġm",
        "ay"
      ],
      [
        "i",
        "ly"
      ],
      [
        "ro",
        "w"
      ],
      [
        "as",
        "on"
      ],
      [
        "Ġman",
        "y"
      ],
      [
        "ie",
        "w"
      ],
      [
        "ĠT",
        "r"
      ],
      [
        "ĠB",
        "ut"
      ],
      [
        "Ġc",
        "all"
      ],
      [
        "Ġd",
        "iff"
      ],
      [
        "Ġth",
        "ink"
      ],
      [
        "Ġde",
        "f"
      ],
      [
        "Ġre",
        "l"
      ],
      [
        "on",
        "t"
      ],
      [
        "ak",
        "ing"
      ],
      [
        "as",
        "ed"
      ],
      [
        "i",
        "ed"
      ],
      [
        "Ġinc",
        "lud"
      ],
      [
        "mer",
        "ic"
      ],
      [
        "l",
        "es"
      ],
      [
        "Ġre",
        "g"
      ],
      [
        "Ġim",
        "p"
      ],
      [
        "ri",
        "b"
      ],
      [
        "at",
        "h"
      ],
      [
        "Ġth",
        "rough"
      ],
      [
        "Ġsh",
        "ould"
      ],
      [
        "it",
        "ed"
      ],
      [
        "Ġ",
        "["
      ],
      [
        "Ġs",
        "ay"
      ],
      [
        "Ġs",
        "y"
      ],
      [
        "Ġp",
        "res"
      ],
      [
        "Ġ",
        "very"
      ],
      [
        "Ġth",
        "ose"
      ],
      [
        "Ġl",
        "ast"
      ],
      [
        "ot",
        "her"
      ],
      [
        "ow",
        "er"
      ],
      [
        "ur",
        "ing"
      ],
      [
        "Ġf",
        "l"
      ],
      [
        "e",
        "ll"
      ],
      [
        "Ġm",
        "uch"
      ],
      [
        ")",
        "."
      ],
      [
        "Ġst",
        "ate"
      ],
      [
        "t",
        "y"
      ],
      [
        "it",
        "ies"
      ],
      [
        "ĠTh",
        "is"
      ],
      [
        "s",
        "s"
      ],
      [
        "at",
        "ive"
      ],
      [
        "he",
        "n"
      ],
      [
        "Ġb",
        "r"
      ],
      [
        "Ġsh",
        "ow"
      ],
      [
        "if",
        "ic"
      ],
      [
        "Ġwe",
        "ll"
      ],
      [
        "ĠW",
        "h"
      ],
      [
        "Ġdo",
        "es"
      ],
      [
        "ot",
        "h"
      ],
      [
        "Ġo",
        "wn"
      ],
      [
        "Ġc",
        "ount"
      ],
      [
        "ar",
        "g"
      ],
      [
        "Ġp",
        "h"
      ],
      [
        "v",
        "ed"
      ],
      [
        "t",
        "ing"
      ],
      [
        "u",
        "nd"
      ],
      [
        "Ġd",
        "own"
      ],
      [
        "ar",
        "ly"
      ],
      [
        "Ġbe",
        "l"
      ],
      [
        "al",
        "s"
      ],
      [
        "Ġu",
        "se"
      ],
      [
        "Ġ",
        "end"
      ],
      [
        "ic",
        "s"
      ],
      [
        "Ġ2",
        "00"
      ],
      [
        "Ġas",
        "s"
      ],
      [
        "an",
        "ge"
      ],
      [
        "-",
        "-"
      ],
      [
        "ĠA",
        "meric"
      ],
      [
        "in",
        "ce"
      ],
      [
        "Ġl",
        "ong"
      ],
      [
        "om",
        "et"
      ],
      [
        "ter",
        "s"
      ],
      [
        "Ġbe",
        "fore"
      ],
      [
        "w",
        "ard"
      ],
      [
        "Ġm",
        "on"
      ],
      [
        "g",
        "r"
      ],
      [
        "Ġgo",
        "vern"
      ],
      [
        "ib",
        "le"
      ],
      [
        "Ġ",
        "ke"
      ],
      [
        "t",
        "s"
      ],
      [
        "ĠN",
        "ew"
      ],
      [
        "Ġre",
        "port"
      ],
      [
        "u",
        "es"
      ],
      [
        "Ġst",
        "art"
      ],
      [
        "u",
        "p"
      ],
      [
        "Ġte",
        "am"
      ],
      [
        "b",
        "le"
      ],
      [
        "ol",
        "og"
      ],
      [
        "Ġm",
        "ade"
      ],
      [
        "if",
        "e"
      ],
      [
        "Ġf",
        "in"
      ],
      [
        "re",
        "n"
      ],
      [
        "Ġsu",
        "ch"
      ],
      [
        "ou",
        "n"
      ],
      [
        "Ġwor",
        "ld"
      ],
      [
        "en",
        "er"
      ],
      [
        "ers",
        "on"
      ],
      [
        "Ġgo",
        "ing"
      ],
      [
        "il",
        "ity"
[...]
