{
  "version": "1.0",
  "truncation": null,
  "padding": null,
  "added_tokens": [
    {
      "id": 0,
      "content": "[PAD]",
      "single_word": false,
      "lstrip": false,
      "rstrip": false,
      "normalized": false,
      "special": true
    },
    {
      "id": 1,
      "content": "[UNK]",
      "single_word": false,
      "lstrip": false,
      "rstrip": false,
      "normalized": false,
      "special": true
    },
    {
      "id": 2,
      "content": "[CLS]",
      "single_word": false,
      "lstrip": false,
      "rstrip": false,
      "normalized": false,
      "special": true
    },
    {
      "id": 3,
      "content": "[SEP]",
      "single_word": false,
      "lstrip": false,
      "rstrip": false,
      "normalized": false,
      "special": true
    },
    {
      "id": 4,
      "content": "[MASK]",
      "single_word": false,
      "lstrip": false,
      "rstrip": false,
      "normalized": false,
      "special": true
    },
    {
      "id": 5,
      "content": "[BOS]",
      "single_word": false,
      "lstrip": false,
      "rstrip": false,
      "normalized": false,
      "special": true
    },
    {
      "id": 6,
      "content": "[EOS]",
      "single_word": false,
      "lstrip": false,
      "rstrip": false,
      "normalized": false,
      "special": true
    }
  ],
  "normalizer": null,
  "pre_tokenizer": {
    "type": "ByteLevel",
    "add_prefix_space": true,
    "trim_offsets": true,
    "use_regex": true
  },
  "post_processor": null,
  "decoder": null,
  "model": {
    "type": "BPE",
    "dropout": null,
    "unk_token": null,
    "continuing_subword_prefix": null,
    "end_of_word_suffix": null,
    "fuse_unk": false,
    "byte_fallback": false,
    "ignore_merges": false,
    "vocab": {
      "[PAD]": 0,
      "[UNK]": 1,
      "[CLS]": 2,
      "[SEP]": 3,
      "[MASK]": 4,
      "[BOS]": 5,
      "[EOS]": 6,
      "!": 7,
      "\"": 8,
      "#": 9,
      "$": 10,
      "%": 11,
      "&": 12,
      "'": 13,
      "(": 14,
      ")": 15,
      "*": 16,
      "+": 17,
      ",": 18,
      "-": 19,
      ".": 20,
      "/": 21,
      "0": 22,
      "1": 23,
      "2": 24,
      "3": 25,
      "4": 26,
      "5": 27,
      "6": 28,
      "7": 29,
      "8": 30,
      "9": 31,
      ":": 32,
      ";": 33,
      "<": 34,
      "=": 35,
      ">": 36,
      "?": 37,
      "@": 38,
      "A": 39,
      "B": 40,
      "C": 41,
      "D": 42,
      "E": 43,
      "F": 44,
      "G": 45,
      "H": 46,
      "I": 47,
      "J": 48,
      "K": 49,
      "L": 50,
      "M": 51,
      "N": 52,
      "O": 53,
      "P": 54,
      "Q": 55,
      "R": 56,
      "S": 57,
      "T": 58,
      "U": 59,
      "V": 60,
      "W": 61,
      "X": 62,
      "Y": 63,
      "Z": 64,
      "[": 65,
      "\\": 66,
      "]": 67,
      "^": 68,
      "_": 69,
      "`": 70,
      "a": 71,
      "b": 72,
      "c": 73,
      "d": 74,
      "e": 75,
      "f": 76,
      "g": 77,
      "h": 78,
      "i": 79,
      "j": 80,
      "k": 81,
      "l": 82,
      "m": 83,
      "n": 84,
      "o": 85,
      "p": 86,
      "q": 87,
      "r": 88,
      "s": 89,
      "t": 90,
      "u": 91,
      "v": 92,
      "w": 93,
      "x": 94,
      "y": 95,
      "z": 96,
      "{": 97,
      "|": 98,
      "}": 99,
      "~": 100,
      "¡": 101,
      "¢": 102,
      "£": 103,
      "¤": 104,
      "¥": 105,
      "¦": 106,
      "§": 107,
      "¨": 108,
      "©": 109,
      "ª": 110,
      "«": 111,
      "¬": 112,
      "®": 113,
      "¯": 114,
      "°": 115,
      "±": 116,
      "²": 117,
      "³": 118,
      "´": 119,
      "µ": 120,
      "¶": 121,
      "·": 122,
      "¸": 123,
      "¹": 124,
      "º": 125,
      "»": 126,
      "¼": 127,
      "½": 128,
      "¾": 129,
      "¿": 130,
      "Â": 131,
      "Ã": 132,
      "Ä": 133,
      "Å": 134,
      "Æ": 135,
      "Ç": 136,
      "È": 137,
      "É": 138,
      "Ê": 139,
      "Ë": 140,
      "Ì": 141,
      "Í": 142,
      "Î": 143,
      "Ï": 144,
      "Ð": 145,
      "Ñ": 146,
      "Ò": 147,
      "Ó": 148,
      "Ô": 149,
      "Õ": 150,
      "Ö": 151,
      "×": 152,
      "Ø": 153,
      "Ù": 154,
      "Ú": 155,
      "Û": 156,
      "ß": 157,
      "à": 158,
      "á": 159,
      "â": 160,
      "ã": 161,
      "ä": 162,
      "å": 163,
      "æ": 164,
      "ç": 165,
      "è": 166,
      "é": 167,
      "ê": 168,
      "ë": 169,
      "ì": 170,
      "í": 171,
      "î": 172,
      "ï": 173,
      "ð": 174,
      "ò": 175,
      "ó": 176,
      "ô": 177,
      "Ā": 178,
      "ā": 179,
      "Ă": 180,
      "ă": 181,
      "Ą": 182,
      "ą": 183,
      "Ć": 184,
      "ć": 185,
      "Ĉ": 186,
      "Ċ": 187,
      "ċ": 188,
      "Č": 189,
      "Ď": 190,
      "ď": 191,
      "Đ": 192,
      "đ": 193,
      "Ē": 194,
      "ē": 195,
      "Ĕ": 196,
      "ĕ": 197,
      "Ė": 198,
      "ė": 199,
      "Ę": 200,
      "ę": 201,
      "Ě": 202,
      "ě": 203,
      "Ĝ": 204,
      "ĝ": 205,
      "Ğ": 206,
      "ğ": 207,
      "Ġ": 208,
      "ġ": 209,
      "Ģ": 210,
      "ģ": 211,
      "Ĥ": 212,
      "ĥ": 213,
      "Ħ": 214,
      "ħ": 215,
      "Ĩ": 216,
      "ĩ": 217,
      "Ī": 218,
      "ī": 219,
      "Ĭ": 220,
      "ĭ": 221,
      "Į": 222,
      "į": 223,
      "İ": 224,
      "ı": 225,
      "Ĳ": 226,
      "ĳ": 227,
      "Ĵ": 228,
      "ĵ": 229,
      "Ķ": 230,
      "ķ": 231,
      "ĸ": 232,
      "Ĺ": 233,
      "ĺ": 234,
      "Ļ": 235,
      "ļ": 236,
      "Ľ": 237,
      "ľ": 238,
      "Ŀ": 239,
      "ŀ": 240,
      "Ł": 241,
      "ł": 242,
      "Ń": 243,
      "Ġt": 244,
      "in": 245,
      "Ġa": 246,
      "he": 247,
      "re": 248,
      "on": 249,
      "at": 250,
      "Ġs": 251,
      "es": 252,
      "en": 253,
      "er": 254,
      "al": 255,
      "Ġthe": 256,
      "it": 257,
      "Ġw": 258,
      "or": 259,
      "Ġp": 260,
      "Ġc": 261,
      "Ġb": 262,
      "Ġin": 263,
      "an": 264,
      "ou": 265,
      "is": 266,
      "Ġm": 267,
      "ed": 268,
      "Ġf": 269,
      "ing": 270,
      "ic": 271,
      "Ġan": 272,
      "ar": 273,
      "Ġo": 274,
      "ion": 275,
      "Ġto": 276,
      "Ġd": 277,
      "ro": 278,
      "Ġand": 279,
      "ent": 280,
      "Ġh": 281,
      "Ġof": 282,
      "Ġre": 283,
      "Ġl": 284,
      "as": 285,
      "Ġn": 286,
      "Ġth": 287,
      "om": 288,
      "im": 289,
      "Ġe": 290,
      "ly": 291,
      "ve": 292,
      "id": 293,
      "ll": 294,
      "ct": 295,
      "le": 296,
      "Ġy": 297,
      "ul": 298,
      "ation": 299,
      "Ġg": 300,
      "âĢ": 301,
      "st": 302,
      "ĠI": 303,
      "ig": 304,
      "ow": 305,
      "Ġfor": 306,
      "et": 307,
      "Ġyou": 308,
      "ac": 309,
      "ot": 310,
      "ĠT": 311,
      "ment": 312,
      "ur": 313,
      "ol": 314,
      "Ġhe": 315,
      "Ġon": 316,
      "Ġst": 317,
      "Ġbe": 318,
      "Ġby": 319,
      "se": 320,
      "th": 321,
      "ak": 322,
      "per": 323,
      "ĠA": 324,
      "ce": 325,
      "ri": 326,
      "ag": 327,
      "ical": 328,
      "Ġas": 329,
      "ad": 330,
      "Ġis": 331,
      "ff": 332,
      "ith": 333,
      "ers": 334,
      "ay": 335,
      "Ġ1": 336,
      "ra": 337,
      "Ġthat": 338,
      "ĠM": 339,
      "Ġcon": 340,
      "Ġwith": 341,
      "ld": 342,
      "ĠS": 343,
      "are": 344,
      "Ġcom": 345,
      "un": 346,
      "Ġdi": 347,
      "Ġit": 348,
      "Ġex": 349,
      "Ġim": 350,
      "Ġman": 351,
      "ut": 352,
      "ect": 353,
      "ch": 354,
      "ĠC": 355,
      "am": 356,
      "ati": 357,
      "el": 358,
      "ves": 359,
      "out": 360,
      "ear": 361,
      "res": 362,
      "Ġimp": 363,
      "os": 364,
      "Ġare": 365,
      "um": 366,
      "ver": 367,
      "Ġpro": 368,
      "Ġwe": 369,
      "ies": 370,
      "alth": 371,
      "âĢĻ": 372,
      "ĠN": 373,
      "cri": 374,
      "atient": 375,
      "Ġpatient": 376,
      "Ġwh": 377,
      "00": 378,
      "ake": 379,
      "ess": 380,
      "op": 381,
      "ate": 382,
      "Ġne": 383,
      "us": 384,
      "ir": 385,
      "reat": 386,
      "ĠP": 387,
      "ab": 388,
      "du": 389,
      "Ġha": 390,
      "ĠH": 391,
      "and": 392,
      "Ġsh": 393,
      "ĠThe": 394,
      "em": 395,
      "ist": 396,
      "vid": 397,
      "ain": 398,
      "ity": 399,
      "ill": 400,
      "Ġ5": 401,
      "Ġsc": 402,
      "Ġlo": 403,
      "il": 404,
      "Ġch": 405,
      "enc": 406,
      "sion": 407,
      "ron": 408,
      "ts": 409,
      "ates": 410,
      "Ġint": 411,
      "ov": 412,
      "Ġreg": 413,
      "ular": 414,
      "Ġind": 415,
      "ĠR": 416,
      "ffect": 417,
      "if": 418,
      "Ġwas": 419,
      "Ġsur": 420,
      "her": 421,
      "od": 422,
      "all": 423,
      "ard": 424,
      "ud": 425,
      "Ġ(": 426,
      "Ġhave": 427,
      "ĠG": 428,
      "Ġor": 429,
      "Ġtreat": 430,
      "ie": 431,
      "Ġmanag": 432,
      "ĠE": 433,
      "Ġout": 434,
      "itor": 435,
      "Ġimpro": 436,
      "ienc": 437,
      "uro": 438,
      "Ġpatients": 439,
      "Ġredu": 440,
      "Ġtreatment": 441,
      "oc": 442,
      "crib": 443,
      "Ġhy": 444,
      "Ġat": 445,
      "Ġthis": 446,
      "ffects": 447,
      "ealth": 448,
      "og": 449,
      "Ġregular": 450,
      "pt": 451,
      "Ġsurg": 452,
      "cribed": 453,
      "our": 454,
      "care": 455,
      "use": 456,
      "ore": 457,
      "Ġyour": 458,
      "ĠO": 459,
      "Ġtim": 460,
      "Ġmanaging": 461,
      "Ġtr": 462,
      "Ġnot": 463,
      "rescribed": 464,
      "Ġad": 465,
      "Ġcomp": 466,
      "Ġ2": 467,
      "pp": 468,
      "igh": 469,
      "ual": 470,
      "ub": 471,
      "ould": 472,
      "ide": 473,
      "age": 474,
      "ions": 475,
      "ĠTh": 476,
      "ue": 477,
      "Ġse": 478,
      "ĠB": 479,
      "Ġk": 480,
      "Ġr": 481,
      "ter": 482,
      "ated": 483,
      "Ġcont": 484,
      "ĠW": 485,
      "Ġ3": 486,
      "ib": 487,
      "ase": 488,
      "ame": 489,
      "ans": 490,
      "Ġcan": 491,
      "Ġno": 492,
      "oun": 493,
      "ations": 494,
      "ign": 495,
      "ust": 496,
      "rom": 497,
      "ug": 498,
      "oll": 499,
      "Ġde": 500,
      "ant": 501,
      "Ġv": 502,
      "ary": 503,
      "ome": 504,
      "vel": 505,
      "Ġme": 506,
      "Ġal": 507,
      "Ġdo": 508,
      "lic": 509,
      "Ġab": 510,
      "Ġ4": 511,
      "Ġinf": 512,
      "est": 513,
      "ĠAn": 514,
      "ild": 515,
      "ause": 516,
      "ĠD": 517,
      "Ġro": 518,
      "ure": 519,
      "Ġgo": 520,
      "Ġfrom": 521,
      "ise": 522,
      "ten": 523,
      "Ġmon": 524,
      "..": 525,
      "Ġmy": 526,
      "lin": 527,
      "Ġall": 528,
      "Ġcomm": 529,
      "ĠF": 530,
      "up": 531,
      "hed": 532,
      "old": 533,
      "ĠV": 534,
      "ok": 535,
      "Ġ6": 536,
      "Ġstud": 537,
      "ĠThis": 538,
      "Ġwill": 539,
      "ily": 540,
      "art": 541,
      "ments": 542,
      "ating": 543,
      "Ġwor": 544,
      "'s": 545,
      "ight": 546,
      "Ġpers": 547,
      "ĠâĢ": 548,
      "dit": 549,
      "Ġass": 550,
      "Ġbut": 551,
      "Ġj": 552,
      "Ġrem": 553,
      "ive": 554,
      "qu": 555,
      "Ġshow": 556,
      "Ġtake": 557,
      "Ġsm": 558,
      "Ġsy": 559,
      "ort": 560,
      "ath": 561,
      "ces": 562,
      "end": 563,
      "oci": 564,
      "rap": 565,
      "olog": 566,
      "Ġexper": 567,
      "rain": 568,
      "ollow": 569,
      "Ġprovid": 570,
      "iness": 571,
      "be": 572,
      "rect": 573,
      "An": 574,
      "Ġfollow": 575,
      "ost": 576,
      "Ġso": 577,
      "stem": 578,
      "ffic": 579,
      "hes": 580,
      "gh": 581,
      "Ġtrans": 582,
      "ĠNe": 583,
      "Ġun": 584,
      "Ġsystem": 585,
      "ĠL": 586,
      "arm": 587,
      "ough": 588,
      "Ġhealth": 589,
      "Ġadv": 590,
      "erc": 591,
      "ared": 592,
      "Ġli": 593,
      "ption": 594,
      "ublic": 595,
      "Ġwhe": 596,
      "ke": 597,
      "Ġinv": 598,
      "Ġthey": 599,
      "vest": 600,
      "Ġcommun": 601,
      "pit": 602,
      "Ġhead": 603,
      "Ġ15": 604,
      "tal": 605,
      "lu": 606,
      "ines": 607,
      "Ġsmall": 608,
      "ology": 609,
      "Ġstudy": 610,
      "Ġwa": 611,
      "Ġstand": 612,
      "Ġdirect": 613,
      "rol": 614,
      "ults": 615,
      "The": 616,
      "mis": 617,
      "Ġtimes": 618,
      "Ġroom": 619,
      "Ġinvest": 620,
      "Ġup": 621,
      "reak": 622,
      "Ġsal": 623,
      "very": 624,
      "ivid": 625,
      "Ġus": 626,
      "Ġpop": 627,
      "ised": 628,
      "ere": 629,
      "Ġben": 630,
      "ividual": 631,
      "ast": 632,
      "earch": 633,
      "ulation": 634,
      "rug": 635,
      "Ġindividual": 636,
      "Ġwait": 637,
      "imit": 638,
      "umm": 639,
      "ination": 640,
      "Ġcondit": 641,
      "Ġcontrol": 642,
      "Ġpain": 643,
      "Ġda": 644,
      "For": 645,
      "Ġfat": 646,
      "ĠRes": 647,
      "Ġsp": 648,
      "Ġinvol": 649,
      "Ġoper": 650,
      "Ġmas": 651,
      "pital": 652,
      "Ġlimit": 653,
      "Ġpl": 654,
      "Ġ100": 655,
      "Ġcommunity": 656,
      "mission": 657,
      "Ġindic": 658,
      "edical": 659,
      "Ġ50": 660,
      "ther": 661,
      "Ġassoci": 662,
      "eries": 663,
      "Ġimprove": 664,
      "hib": 665,
      "Ġfron": 666,
      "ief": 667,
      "Ġstandard": 668,
      "urop": 669,
      "Ġexperienc": 670,
      "year": 671,
      "âĢĿ": 672,
      "Ġ40": 673,
      "zz": 674,
      "Ġconditions": 675,
      "ospital": 676,
      "uid": 677,
      "Ġinn": 678,
      "Ġshows": 679,
      "Ġinvestig": 680,
      "ĠHealth": 681,
      "acc": 682,
      "linical": 683,
      "Ġinflu": 684,
      "Ġtherap": 685,
      "Ġeffic": 686,
      "RI": 687,
      "Ġcompared": 688,
      "itors": 689,
      "Ġassociated": 690,
      "cem": 691,
      "ronic": 692,
      "umor": 693,
      "Ġbrain": 694,
      "urb": 695,
      "cription": 696,
      "het": 697,
      "Ġexerc": 698,
      "Ġhospital": 699,
      "Ġimple": 700,
      "Ġdaily": 701,
      "aches": 702,
      "Ġ35": 703,
      "CE": 704,
      "istent": 705,
      "Ġpopulation": 706,
      "Ġremov": 707,
      "ack": 708,
      "abet": 709,
      "Ġfollowed": 710,
      "Ġreduce": 711,
      "harm": 712,
      "pot": 713,
      "Ġsu": 714,
      "Ġexercise": 715,
      "Ġinfluen": 716,
      "iency": 717,
      "Ġnovel": 718,
      "Ġinnov": 719,
      "Ġinhib": 720,
      "Ġtumor": 721,
      "Ġmonitor": 722,
      "Ġexperiences": 723,
      "za": 724,
      "harmac": 725,
      "Ġ65": 726,
      "Ġhyper": 727,
      "elines": 728,
      "abetes": 729,
      "escription": 730,
      "Ġabout": 731,
      "tension": 732,
      "hedul": 733,
      "Ġone": 734,
      "Ġ500": 735,
      "uidelines": 736,
      "Ġoperating": 737,
      "Res": 738,
      "Ġsalt": 739,
      "urban": 740,
      "Ġschedul": 741,
      "dates": 742,
      "Ġimprovement": 743,
      "Ġindicate": 744,
      "Ġchronic": 745,
      "Ġefficiency": 746,
      "Ġhealthcare": 747,
      "Ġregularly": 748,
      "Ġdiabetes": 749,
      "%.": 750,
      "Ġscan": 751,
      "Ġmonitoring": 752,
      "Ġproviders": 753,
      "ummary": 754,
      "break": 755,
      "Ġinvolves": 756,
      "Ġhypot": 757,
      "ĠNeuro": 758,
      "Ġmg": 759,
      "Ġurban": 760,
      "Ġinnovation": 761,
      "Ġremoval": 762,
      "Ġsurgical": 763,
      "ĠResults": 764,
      "Ġdirected": 765,
      "igue": 766,
      "Ġintake": 767,
      "Ġaffects": 768,
      "Ġtransmission": 769,
      "ĠCase": 770,
      "ĠOper": 771,
      "Ġgly": 772,
      "Ġmask": 773,
      "Ġreduces": 774,
      "Ġadvised": 775,
      "Ġprescribed": 776,
      "ĠEffects": 777,
      "Ġfatigue": 778,
      "ĠName": 779,
      "Rel": 780,
      "Ġtherapies": 781,
      "Ġhypertension": 782,
      "Ġinhibitors": 783,
      "Ġimproves": 784,
      "Health": 785,
      "Ġpersistent": 786,
      "ĠMRI": 787,
      "athic": 788,
      "accination": 789,
      "Ġoutbreak": 790,
      "osage": 791,
      "Ġnause": 792,
      "Ġneurop": 793,
      "hetical": 794,
      "Research": 795,
      "ĠGuidelines": 796,
      "Ġscheduling": 797,
      "Ġheadaches": 798,
      "Ġnausea": 799,
      "Public": 800,
      "Description": 801,
      "Ġdizz": 802,
      "ĠSummary": 803,
      "ĠOperations": 804,
      "Ġbenign": 805,
      "Ġinfluenza": 806,
      "Ġmore": 807,
      "Ġsurgeries": 808,
      "ind": 809,
      "cemic": 810,
      "ĠACE": 811,
      "harmacology": 812,
      "Ġhypothetical": 813,
      "Medical": 814,
      "Ġfrontal": 815,
      "Ġdizziness": 816,
      "Side": 817,
      "Ġlobe": 818,
      "Drug": 819,
      "ĠMild": 820,
      "Ġglycemic": 821,
      "Ġmandates": 822,
      "Clinical": 823,
      "Ġimplements": 824,
      "Ġinvestigates": 825,
      "Ġneuropathic": 826,
      "Healthcare": 827,
      "ĠVaccination": 828,
      "Relief": 829,
      "ĠPrescribed": 830,
      "Dosage": 831,
      "Pharmacology": 832,
      "ĠNeuroRelief": 833,
      "one": 834,
      "Ġle": 835,
      "Ġhas": 836,
      "ial": 837,
      "ge": 838,
      "ich": 839,
      "ice": 840,
      "ound": 841,
      "Ġkn": 842,
      "act": 843,
      "Ġlike": 844,
      "iv": 845,
      "ĠJ": 846,
      "Ġwho": 847,
      "'t": 848,
      "ite": 849,
      "Ġtheir": 850,
      "Ġsa": 851,
      "Ġany": 852,
      "Ġhis": 853,
      "ous": 854,
      "Ġsome": 855,
      "der": 856,
      "Ġget": 857,
      "Ġfe": 858,
      "Ġen": 859,
      "Ġtime": 860,
      "able": 861,
      "ip": 862,
      "Ġthere": 863,
      "Ġwhat": 864,
      "Ġif": 865,
      "Ġ\"": 866,
      "Ġwould": 867,
      "ĠY": 868,
      "ep": 869,
      "Ġhad": 870,
      "Ġar": 871,
      "Ġac": 872,
      "Ġwere": 873,
      "Ġthem": 874,
      "Ġour": 875,
      "Ġknow": 876,
      "ink": 877,
      "Ġjust": 878,
      "orm": 879,
      "ance": 880,
      "Ġbeen": 881,
      "Ġres": 882,
      "Ġwhich": 883,
      "Ġ20": 884,
      "ell": 885,
      "Ġother": 886,
      "ays": 887,
      "Ġwork": 888,
      "ong": 889,
      "ine": 890,
      "ally": 891,
      "ĠIn": 892,
      "iz": 893,
      "Ġher": 894,
      "ace": 895,
      "ven": 896,
      "ec": 897,
      "Ġag": 898,
      "Ġpe": 899,
      "Ġwhen": 900,
      "pl": 901,
      "ose": 902,
      "Ġapp": 903,
      "Ġyear": 904,
      "Ġthan": 905,
      "Ġam": 906,
      "ry": 907,
      "Ġcl": 908,
      "ĠâĢľ": 909,
      "Ġinc": 910,
      "so": 911,
      "Ġpre": 912,
      "ĠIt": 913,
      "ople": 914,
      "Ġoff": 915,
      "ence": 916,
      "ach": 917,
      "ail": 918,
      "ree": 919,
      "Ġhow": 920,
      "nt": 921,
      "ings": 922,
      "ks": 923,
      "Ġshe": 924,
      "ĠU": 925,
      "Ġper": 926,
      "Ġpeople": 927,
      "ber": 928,
      "Ġneed": 929,
      "Ġqu": 930,
      "ap": 931,
      "Ġdis": 932,
      "red": 933,
      "Ġover": 934,
      "ile": 935,
      "erv": 936,
      "ult": 937,
      "Ġlook": 938,
      "Ġte": 939,
      "hing": 940,
      "Ġsaid": 941,
      "Ġpart": 942,
      "Ġbec": 943,
      "ia": 944,
      "Ġnew": 945,
      "cess": 946,
      "Ġbl": 947,
      "Th": 948,
      "Ġalso": 949,
      "Ġdon": 950,
      "Ġsee": 951,
      "ĠK": 952,
      "Ġact": 953,
      "te": 954,
      "Ġinto": 955,
      "ress": 956,
      "Ġthink": 957,
      "ook": 958,
      "Ġrec": 959,
      "ang": 960,
      "Ġmay": 961,
      "Ġcould": 962,
      "ood": 963,
      "fter": 964,
      "wn": 965,
      "Ġhim": 966,
      "ount": 967,
      "Ġgood": 968,
      "Ġmake": 969,
      "...": 970,
      "Ġvery": 971,
      "uch": 972,
      "ass": 973,
      "ful": 974,
      "Ġgr": 975,
      "ark": 976,
      "Ġwant": 977,
      "Ġbet": 978,
      "Ġdid": 979,
      ").": 980,
      "Ġonly": 981,
      "Ġevery": 982,
      "Ġ-": 983,
      "oy": 984,
      "ord": 985,
      "ick": 986,
      "10": 987,
      "ting": 988,
      "irst": 989,
      "Ġback": 990,
      ".;": 991,
      "ck": 992,
      "own": 993,
      "Ġtw": 994,
      "ning": 995,
      "ade": 996,
      "ious": 997,
      "ru": 998,
      "sel": 999,
      "lp": 1000,
      "oin": 1001,
      "ents": 1002,
      "Ġ[": 1003,
      "rough": 1004,
      "Ġmuch": 1005,
      "ors": 1006,
      "Ġnow": 1007,
      "Ġhelp": 1008,
      "Ġthese": 1009,
      "Ġshould": 1010,
      "ater": 1011,
      "Ġway": 1012,
      "Ġunder": 1013,
      "ĠSt": 1014,
      "ond": 1015,
      "ory": 1016,
      "ving": 1017,
      "ey": 1018,
      "fore": 1019,
      "ens": 1020,
      "ob": 1021,
      "Ġwell": 1022,
      "20": 1023,
      "Ġuse": 1024,
      "ĠCh": 1025,
      "ons": 1026,
      "Ġmost": 1027,
      "Ġem": 1028,
      "âĢľ": 1029,
      "rit": 1030,
      "Ġhere": 1031,
      "Ġgreat": 1032,
      "Ġfirst": 1033,
      "Ġeven": 1034,
      "ĠWe": 1035,
      "Ġrep": 1036,
      ".\"": 1037,
      "ove": 1038,
      "we": 1039,
      "omet": 1040,
      "Ġthen": 1041,
      "Ġcons": 1042,
      "ire": 1043,
      "ish": 1044,
      "ĠYou": 1045,
      "ife": 1046,
      "hen": 1047,
      "Ġ201": 1048,
      "itt": 1049,
      "ction": 1050,
      "Ġafter": 1051,
      "ren": 1052,
      "Ġyears": 1053,
      "Ġreally": 1054,
      "ific": 1055,
      "Ġexp": 1056,
      "Ġdes": 1057,
      "Ġread": 1058,
      "hat": 1059,
      "Ġpr": 1060,
      "Ġits": 1061,
      "ss": 1062,
      "Ġ0": 1063,
      "Ġmany": 1064,
      "Ġtwo": 1065,
      "Ġthrough": 1066,
      ".âĢĿ": 1067,
      "Ġbecause": 1068,
      "av": 1069,
      "day": 1070,
      "ys": 1071,
      "Ġwhere": 1072,
      "Ġrel": 1073,
      "Ġacc": 1074,
      "Ġph": 1075,
      "ffere": 1076,
      "Ġlong": 1077,
      "lud": 1078,
      "Ġfind": 1079,
      "ject": 1080,
      "ĠâĢĵ": 1081,
      "ool": 1082,
      "Ġthough": 1083,
      "ple": 1084,
      "oss": 1085,
      "ty": 1086,
      "Ġsay": 1087,
      "Ġbu": 1088,
      "Ġ10": 1089,
      "ative": 1090,
      "ble": 1091,
      "âĢ¦": 1092,
      "Ġday": 1093,
      "Ġdoes": 1094,
      "other": 1095,
      "ĠHe": 1096,
      "row": 1097,
      "Ġdec": 1098,
      "les": 1099,
      "Ġagain": 1100,
      "Ġsuch": 1101,
      "Ġright": 1102,
      "tain": 1103,
      "iew": 1104,
      "Ġgoing": 1105,
      "xt": 1106,
      "Ġsupp": 1107,
      "aking": 1108,
      "It": 1109,
      "ict": 1110,
      "Ġ7": 1111,
      "Ġown": 1112,
      "Ġdown": 1113,
      "Ġthose": 1114,
      "âĢĵ": 1115,
      "ef": 1116,
      "Ġbefore": 1117,
      "self": 1118,
      "Ġdiffere": 1119,
      "ms": 1120,
      "urn": 1121,
      "Ġsomet": 1122,
      "11": 1123,
      "Ġaw": 1124,
      "the": 1125,
      "ased": 1126,
      "ities": 1127,
      "ible": 1128,
      "Ġbeing": 1129,
      "get": 1130,
      "Ġfun": 1131,
      "Ġtoo": 1132,
      "ility": 1133,
      "ually": 1134,
      "Ġpost": 1135,
      "Ġsub": 1136,
      "anc": 1137,
      "Ġ8": 1138,
      "ange": 1139,
      "),": 1140,
      "ft": 1141,
      "Ġinform": 1142,
      "Ġbel": 1143,
      "Ġgu": 1144,
      "bs": 1145,
      "Ġins": 1146,
      "ved": 1147,
      "Ġstart": 1148,
      "alk": 1149,
      "Ġ9": 1150,
      "Ġperson": 1151,
      "Ġinclud": 1152,
      "ition": 1153,
      "Ġgen": 1154,
      "Ġfl": 1155,
      "Ġcar": 1156,
      "Ġwee": 1157,
      "Ġmade": 1158,
      "form": 1159,
      "ract": 1160,
      "Ġserv": 1161,
      "Ġlove": 1162,
      "Ġprodu": 1163,
      "In": 1164,
      "Ġhapp": 1165,
      "ĠAnd": 1166,
      "oth": 1167,
      "ne": 1168,
      "ittle": 1169,
      "Ġco": 1170,
      "ied": 1171,
      "Ġstill": 1172,
      "Ġbus": 1173,
      "Ġlife": 1174,
      "ank": 1175,
      "Ġi": 1176,
      "Ġfeel": 1177,
      "'m": 1178,
      "Ġche": 1179,
      "We": 1180,
      "ian": 1181,
      "aw": 1182,
      "Ġatt": 1183,
      "Ġend": 1184,
      "Ġinter": 1185,
      "ps": 1186,
      "Ġthings": 1187,
      "12": 1188,
      "thing": 1189,
      "Ġbr": 1190,
      "Ġent": 1191,
      "Ġhigh": 1192,
      "Ġresp": 1193,
      "Ġke": 1194,
      "ave": 1195,
      "com": 1196,
      "ices": 1197,
      "uring": 1198,
      "Ġsec": 1199,
      "ram": 1200,
      "Ġlittle": 1201,
      "Ġlot": 1202,
      "ways": 1203,
      "Ġspec": 1204,
      "Ġsim": 1205,
      "You": 1206,
      "Ġfin": 1207,
      "ics": 1208,
      "13": 1209,
      "ience": 1210,
      "ures": 1211,
      "Ġsomething": 1212,
      "Ġ19": 1213,
      "ever": 1214,
      "Ġhand": 1215,
      "Ġused": 1216,
      "ross": 1217,
      "Ġadd": 1218,
      "This": 1219,
      "Ġbest": 1220,
      "ident": 1221,
      "ĠBut": 1222,
      "oint": 1223,
      "ĠĠ": 1224,
      "Ġset": 1225,
      "Ġlast": 1226,
      "riend": 1227,
      "Ġsign": 1228,
      "Ġfew": 1229,
      "14": 1230,
      "ĠIf": 1231,
      "Ġsame": 1232,
      "Ġmin": 1233,
      "als": 1234,
      "Ġdisc": 1235,
      "Ġev": 1236,
      "Ġmet": 1237,
      "Ġplay": 1238,
      "Ġcall": 1239,
      "Ġgot": 1240,
      "Ġinformation": 1241,
      "Ġpres": 1242,
      "Ġchild": 1243,
      "25": 1244,
      "Ġcome": 1245,
      "Ġinst": 1246,
      "any": 1247,
      "read": 1248,
      "ower": 1249,
      ",\"": 1250,
      "ward": 1251,
      "Ġdet": 1252,
      "ational": 1253,
      "ince": 1254,
      "erest": 1255,
      "Ġreal": 1256,
      "Ġfam": 1257,
      "Ġworld": 1258,
      "Ġsure": 1259,
      "Ġaround": 1260,
      "If": 1261,
      "Ġtry": 1262,
      "Ġdifferent": 1263,
      "Ġhome": 1264,
      "15": 1265,
      "Ġlet": 1266,
      "Ġnever": 1267,
      "Ġmod": 1268,
      "lect": 1269,
      "Ġwhile": 1270,
      "Ġop": 1271,
      "ween": 1272,
      "Ġeach": 1273,
      "ull": 1274,
      "Ġbook": 1275,
      "Ġrequ": 1276,
      "Ġcre": 1277,
      "Ġcare": 1278,
      "ock": 1279,
      "Ġfound": 1280,
      "air": 1281,
      "Ġcour": 1282,
      "Ġnum": 1283,
      "ason": 1284,
      "ered": 1285,
      "its": 1286,
      "Ġart": 1287,
      "led": 1288,
      "Ġdef": 1289,
      "gan": 1290,
      "ues": 1291,
      "Ġfact": 1292,
      "velop": 1293,
      "Ġvis": 1294,
      "ness": 1295,
      "Ġbetween": 1296,
      "Ġwon": 1297,
      "erm": 1298,
      "Ġbusiness": 1299,
      "Ġalways": 1300,
      "Ġask": 1301,
      "hip": 1302,
      "ional": 1303,
      "Ġmight": 1304,
      "tt": 1305,
      "Ġbetter": 1306,
      "mer": 1307,
      "tern": 1308,
      "ced": 1309,
      "Ġet": 1310,
      "Ġmust": 1311,
      "Ġkeep": 1312,
      "ata": 1313,
      "ection": 1314,
      "yp": 1315,
      "Ġpol": 1316,
      "Ġear": 1317,
      "Ġplace": 1318,
      "lease": 1319,
      "ix": 1320,
      "akes": 1321,
      "Ġgl": 1322,
      "24": 1323,
      "Ġfriend": 1324,
      "ee": 1325,
      "ouse": 1326,
      "ants": 1327,
      "Ġinterest": 1328,
      "ph": 1329,
      "Ġput": 1330,
      "ĠUn": 1331,
      "Ġseem": 1332,
      "eg": 1333,
      "ient": 1334,
      "Ġ$": 1335,
      "Ġav": 1336,
      "ĠThey": 1337,
      "cer": 1338,
      "ody": 1339,
      "to": 1340,
      "Ġloc": 1341,
      "ute": 1342,
      "Ġweek": 1343,
      "chool": 1344,
      "ax": 1345,
      "uc": 1346,
      "ng": 1347,
      "Ġref": 1348,
      "ork": 1349,
      "Ġcomple": 1350,
      "Ġcount": 1351,
      "19": 1352,
      "Ġeas": 1353,
      "Ġprog": 1354,
      "Ġmonth": 1355,
      "'re": 1356,
      "Ġob": 1357,
      "Ġquest": 1358,
      "Ġval": 1359,
      "Ġusing": 1360,
      "omm": 1361,
      "Ġmat": 1362,
      "Ġcle": 1363,
      "Ġthing": 1364,
      "ution": 1365,
      "Ġcur": 1366,
      "'ve": 1367,
      "ner": 1368,
      "ope": 1369,
      "Ġmem": 1370,
      "Ġmark": 1371,
      "ention": 1372,
      "16": 1373,
      "stand": 1374,
      "Ġlear": 1375,
      "Ġchar": 1376,
      "Ġide": 1377,
      "Ġboth": 1378,
      "ize": 1379,
      "Ġimport": 1380,
      "Ġtri": 1381,
      "Ġlist": 1382,
      "Ġconf": 1383,
      "Ġold": 1384,
      "uth": 1385,
      "line": 1386,
      "hy": 1387,
      "iss": 1388,
      "Ġposs": 1389,
      "Ġblog": 1390,
      ",âĢĿ": 1391,
      "Ġca": 1392,
      "Ġwithout": 1393,
      "Ġgive": 1394,
      "Ġcor": 1395,
      "Ġwrit": 1396,
      "Ġgrou": 1397,
      "30": 1398,
      "!!": 1399,
      "Ġdevelop": 1400,
      "Ġnext": 1401,
      "ather": 1402,
      "ric": 1403,
      "Ġappro": 1404,
      "ages": 1405,
      ".,": 1406,
      "Ġcoll": 1407,
      "Ġsl": 1408,
      "18": 1409,
      "cept": 1410,
      "Ġpartic": 1411,
      "chn": 1412,
      "ically": 1413,
      "Ġanother": 1414,
      "less": 1415,
      "Ġproble": 1416,
      "cc": 1417,
      "io": 1418,
      "Ġbo": 1419,
      "ĠThere": 1420,
      "ized": 1421,
      "Ġ12": 1422,
      "Ġed": 1423,
      "nce": 1424,
      "Ġ200": 1425,
      "17": 1426,
      "ds": 1427,
      "'ll": 1428,
      "Ġsit": 1429,
      "Ġplan": 1430,
      "Ġsite": 1431,
      "Ġprocess": 1432,
      "Ġgener": 1433,
      "Ġsk": 1434,
      "ah": 1435,
      "Ġret": 1436,
      "ited": 1437,
      "Ġrun": 1438,
      "az": 1439,
      "Ġwom": 1440,
      "Ġsupport": 1441,
      "Ġdidn": 1442,
      "Ġwhy": 1443,
      "Ġthree": 1444,
      "Ġel": 1445,
      "Ġform": 1446,
      "Ġdays": 1447,
      "ime": 1448,
      "Ġtell": 1449,
      "Ġhard": 1450,
      "qual": 1451,
      "Ġincre": 1452,
      "Ġmed": 1453,
      "Ġiss": 1454,
      "ired": 1455,
      "con": 1456,
      "ieve": 1457,
      "li": 1458,
      "Ġpur": 1459,
      "Ġvar": 1460,
      "ature": 1461,
      "Ġdep": 1462,
      "ably": 1463,
      "ĠHow": 1464,
      "Ġlead": 1465,
      "rong": 1466,
      "arch": 1467,
      "Ġ.": 1468,
      "Ġtop": 1469,
      "ense": 1470,
      "Ġdata": 1471,
      "here": 1472,
      "ead": 1473,
      "Ġbig": 1474,
      "Ġpay": 1475,
      "23": 1476,
      "atch": 1477,
      "ially": 1478,
      "Ġ14": 1479,
      "Ġsince": 1480,
      "Ġproduct": 1481,
      "Ġpoint": 1482,
      "Ġduring": 1483,
      "of": 1484,
      "And": 1485,
      "What": 1486,
      "ĠPro": 1487,
      "Ġext": 1488,
      "Ġdist": 1489,
      "Ġlevel": 1490,
      "ertain": 1491,
      "Ġnumber": 1492,
      "Ġaway": 1493,
      "Ġtyp": 1494,
      "Ġopen": 1495,
      "ĠShe": 1496,
      "ety": 1497,
      "ĠAs": 1498,
      "ets": 1499,
      "Ġimportant": 1500,
      "Ġfamily": 1501,
      "Ġprof": 1502,
      "Ġable": 1503,
      "//": 1504,
      "Ġkind": 1505,
      "ew": 1506,
      "Ġrest": 1507,
      "ately": 1508,
      "Ġfree": 1509,
      "Ġschool": 1510,
      "rib": 1511,
      "Ġless": 1512,
      "view": 1513,
      "Ġlar": 1514,
      "Ġlooking": 1515,
      "anks": 1516,
      "000": 1517,
      "Ġtra": 1518,
      "Ġstate": 1519,
      "Ġunderstand": 1520,
      "Ġexam": 1521,
      "Ġsol": 1522,
      "ĠFor": 1523,
      "Ġthought": 1524,
      "Ġever": 1525,
      "erg": 1526,
      "icle": 1527,
      "Ġdri": 1528,
      "Ġdone": 1529,
      "vern": 1530,
      "ruct": 1531,
      "ĠThat": 1532,
      "Ġtalk": 1533,
      "Ġ13": 1534,
      "ex": 1535,
      "ĠCon": 1536,
      "ider": 1537,
      "22": 1538,
      "Ġdesign": 1539,
      "Ġdel": 1540,
      "Ġ'": 1541,
      "ted": 1542,
      "ĠZ": 1543,
      "Ġmean": 1544,
      "://": 1545,
      "Ġturn": 1546,
      "Ġwebs": 1547,
      "pect": 1548,
      "50": 1549,
      "ĠAl": 1550,
      "Ġcontin": 1551,
      "Ġcourse": 1552,
      "Ġmain": 1553,
      "ĠSo": 1554,
      "ins": 1555,
      "Ġexpl": 1556,
      "Ġenough": 1557,
      "Ġhour": 1558,
      "Ġeffect": 1559,
      "Ġpar": 1560,
      "ases": 1561,
      "ished": 1562,
      "Ġpri": 1563,
      "Ġavail": 1564,
      "Ġjob": 1565,
      "Ġmoney": 1566,
      "--": 1567,
      "me": 1568,
      "uck": 1569,
      "Ġdoing": 1570,
      "There": 1571,
      "âĢĶ": 1572,
      "Ġtechn": 1573,
      "Ġgiv": 1574,
      "rent": 1575,
      "amp": 1576,
      "ĠÂ": 1577,
      "cl": 1578,
      "ustom": 1579,
      "Ġpos": 1580,
      "Ġsoci": 1581,
      "ale": 1582,
      "Ġcell": 1583,
      "Ġcr": 1584,
      "Ġrece": 1585,
      "Ġcase": 1586,
      "bers": 1587,
      "til": 1588,
      "ash": 1589,
      "Ġallow": 1590,
      "joy": 1591,
      "Ġleast": 1592,
      "orts": 1593,
      "Ġhaving": 1594,
      "ĠWhat": 1595,
      "ploy": 1596,
      "Ġexperience": 1597,
      "Ġbit": 1598,
      "ural": 1599,
      "Ġteam": 1600,
      "Ġprev": 1601,
      "Ġanal": 1602,
      "pr": 1603,
      "gest": 1604,
      "Ġchildren": 1605,
      "But": 1606,
      "Ġwater": 1607,
      "Ġmarket": 1608,
      "As": 1609,
      "Ġopp": 1610,
      "Ġmaking": 1611,
      "Ġstr": 1612,
      "Ġbuild": 1613,
      "Ġchange": 1614,
      "Ġpublic": 1615,
      "Ġcost": 1616,
      "Ġcho": 1617,
      "Ġactually": 1618,
      "Ġbro": 1619,
      "ars": 1620,
      "pec": 1621,
      "Ġgetting": 1622,
      "ember": 1623,
      "Ġdoesn": 1624,
      "Ġser": 1625,
      "ned": 1626,
      "Ġreport": 1627,
      "osed": 1628,
      "Ġorgan": 1629,
      "ready": 1630,
      "Ġra": 1631,
      "Ġmind": 1632,
      "ism": 1633,
      "ration": 1634,
      "Ġbeh": 1635,
      "ĠSc": 1636,
      "Ġhappen": 1637,
      "ortun": 1638,
      "Ġhum": 1639,
      "Ġactiv": 1640,
      "Ġchang": 1641,
      "Ġavailable": 1642,
      "meric": 1643,
      "Ġtoday": 1644,
      "Ġorder": 1645,
      "Ġrese": 1646,
      "Ġcent": 1647,
      "orn": 1648,
      "Ġgrow": 1649,
      "Ġperform": 1650,
      "Ġcertain": 1651,
      "Ġfar": 1652,
      "eng": 1653,
      "ists": 1654,
      "].": 1655,
      "ugh": 1656,
      "Ġhtt": 1657,
      "land": 1658,
      "Ġwithin": 1659,
      "Ġpass": 1660,
      "inal": 1661,
      "Ġcame": 1662,
      "60": 1663,
      "Ġanything": 1664,
      "So": 1665,
      "Ġsecond": 1666,
      "ote": 1667,
      "Ġalready": 1668,
      "Ġworking": 1669,
      "Ġweb": 1670,
      "ids": 1671,
      "Ġproper": 1672,
      "Ġclass": 1673,
      "Ġwebsite": 1674,
      "ision": 1675,
      "Ġpa": 1676,
      "Ġuntil": 1677,
      "app": 1678,
      "Ġfull": 1679,
      "80": 1680,
      "Ġfood": 1681,
      "Ġpresent": 1682,
      "Ġenjoy": 1683,
      "Ġey": 1684,
      "Ġgroup": 1685,
      "Ġfollowing": 1686,
      "Ġlaw": 1687,
      "ĠRe": 1688,
      "ights": 1689,
      "ization": 1690,
      "Ġincluding": 1691,
      "ier": 1692,
      "Ġ&": 1693,
      "sw": 1694,
      "ĠNew": 1695,
      "Ġpower": 1696,
      "99": 1697,
      "Ġter": 1698,
      "Ġcheck": 1699,
      "oh": 1700,
      "Ġhope": 1701,
      "els": 1702,
      "Ġqual": 1703,
      "Ġproject": 1704,
      "Ġcustom": 1705,
      "vers": 1706,
      "man": 1707,
      "Ġleft": 1708,
      "Ġdem": 1709,
      "Ġservice": 1710,
      "Ġprot": 1711,
      "Ġspe": 1712,
      "Ġsomeone": 1713,
      "Ġcompany": 1714,
      "ected": 1715,
      "Ġris": 1716,
      "Ġmeet": 1717,
      "He": 1718,
      "Ġsuc": 1719,
      "ability": 1720,
      "Ġtest": 1721,
      "40": 1722,
      "not": 1723,
      "ential": 1724,
      "Ġagainst": 1725,
      "Ġhouse": 1726,
      "Ġnight": 1727,
      "aring": 1728,
      "ĠTo": 1729,
      "?\"": 1730,
      "ĠSh": 1731,
      "Ġpo": 1732,
      "Ġmov": 1733,
      "igure": 1734,
      "gr": 1735,
      "oot": 1736,
      "ret": 1737,
      "ĠDe": 1738,
      "ivers": 1739,
      "Ġsug": 1740,
      "Ġmom": 1741,
      "Ġcol": 1742,
      "27": 1743,
      "Ġbelieve": 1744,
      "33": 1745,
      "med": 1746,
      "rist": 1747,
      "Ġ18": 1748,
      "ery": 1749,
      "do": 1750,
      "ield": 1751,
      "ĠAmeric": 1752,
      "Ġleg": 1753,
      "ww": 1754,
      "Ġes": 1755,
      "ĠâĢĺ": 1756,
      "Ġla": 1757,
      "reen": 1758,
      "ER": 1759,
      "ently": 1760,
      "aut": 1761,
      "Ġreason": 1762,
      "Ġoften": 1763,
      "Ġpot": 1764,
      "ĠWh": 1765,
      "ither": 1766,
      "Ġname": 1767,
      "itive": 1768,
      "Ġprob": 1769,
      "ĠAd": 1770,
      "Ġfil": 1771,
      "Ġonce": 1772,
      "ĠCom": 1773,
      "Ġsays": 1774,
      "How": 1775,
      "aj": 1776,
      "Ġpossible": 1777,
      "Ġbas": 1778,
      "Ġest": 1779,
      "Ġtrain": 1780,
      "ering": 1781,
      "Ġothers": 1782,
      "way": 1783,
      "Ġmeans": 1784,
      "iron": 1785,
      "und": 1786,
      "Ġmen": 1787,
      "illion": 1788,
      "Ġmus": 1789,
      "vernment": 1790,
      "que": 1791,
      "Ġwent": 1792,
      "irl": 1793,
      "hod": 1794,
      "ified": 1795,
      "90": 1796,
      "28": 1797,
      "Ġsignific": 1798,
      "Ġpast": 1799,
      "Ġcurrent": 1800,
      "26": 1801,
      "ĠIs": 1802,
      "Ġgame": 1803,
      "ression": 1804,
      "Ġbeg": 1805,
      "Ġprovide": 1806,
      "Ġintern": 1807,
      "gether": 1808,
      "Ġview": 1809,
      "Ġtogether": 1810,
      "ĠGod": 1811,
      "Ġpract": 1812,
      "Ġ30": 1813,
      "Ġside": 1814,
      "ateg": 1815,
      "....": 1816,
      "Ġyet": 1817,
      "Ġstop": 1818,
      "70": 1819,
      "Ġwonder": 1820,
      "acter": 1821,
      "ton": 1822,
      "ling": 1823,
      "Ġsaf": 1824,
      "Ġphot": 1825,
      "75": 1826,
      "ĠQ": 1827,
      "Ġarea": 1828,
      "Ġproblem": 1829,
      "Ġansw": 1830,
      "aps": 1831,
      "Ġaddit": 1832,
      "Ġconsider": 1833,
      "'d": 1834,
      "most": 1835,
      "ĠAr": 1836,
      "Ġmonths": 1837,
      "Ġmar": 1838,
      "ĠMy": 1839,
      "Ġfriends": 1840,
      "Ġyoung": 1841,
      "Ġauth": 1842,
      "Ġcomplete": 1843,
      "Ġquestion": 1844,
      "Ġelse": 1845,
      "Ġemploy": 1846,
      "ium": 1847,
      "Ġpersonal": 1848,
      "ĠAll": 1849,
      "ames": 1850,
      "Ġbuy": 1851,
      "ify": 1852,
      "Ġve": 1853,
      "ral": 1854,
      "Ġstory": 1855,
      "min": 1856,
      "45": 1857,
      "Ġidea": 1858,
      "utes": 1859,
      "Ġprogram": 1860,
      "ump": 1861,
      "Ġseen": 1862,
      "Ġwomen": 1863,
      "vide": 1864,
      "Ġocc": 1865,
      "Ġeverything": 1866,
      "alf": 1867,
      "Ġant": 1868,
      "Ġdefin": 1869,
      "uture": 1870,
      "Ġmakes": 1871,
      "uff": 1872,
      "Ġwhole": 1873,
      "Ġlarge": 1874,
      "Ġeasy": 1875,
      "Ġsing": 1876,
      "ger": 1877,
      "Ġnon": 1878,
      "29": 1879,
      "ior": 1880,
      "ries": 1881,
      "38": 1882,
      "Ġ=": 1883,
      "Ġreview": 1884,
      "ysis": 1885,
      "Ġlive": 1886,
      "Ġeng": 1887,
      "Ġsignificant": 1888,
      "ĠDo": 1889,
      "imes": 1890,
      "Ġneeds": 1891,
      "urther": 1892,
      "Ġaccess": 1893,
      "35": 1894,
      "Ġfac": 1895,
      "Ġonline": 1896,
      "Ġsw": 1897,
      "Ġclear": 1898,
      "Ġbody": 1899,
      "Ġshall": 1900,
      "Ġsuccess": 1901,
      "for": 1902,
      "Ġcountry": 1903,
      "Ġtook": 1904,
      "Ġconst": 1905,
      "Ġresearch": 1906,
      "Ġbecome": 1907,
      "Ġpret": 1908,
      "When": 1909,
      "ĠĠĠĠ": 1910,
      "Ġshare": 1911,
      "Ġnothing": 1912,
      "ĠNo": 1913,
      "Ġwin": 1914,
      "ency": 1915,
      "Ġapplic": 1916,
      "Ġservices": 1917,
      "ream": 1918,
      "Ġsever": 1919,
      "Ġdeal": 1920,
      "Ġtrying": 1921,
      "elf": 1922,
      "Ġmor": 1923,
      "ĠGo": 1924,
      "65": 1925,
      "Ġindu": 1926,
      "aken": 1927,
      "Ġbad": 1928,
      "Ġshort": 1929,
      "work": 1930,
      "used": 1931,
      "aterial": 1932,
      "Ġquite": 1933,
      "Ġcreat": 1934,
      "Ġlow": 1935,
      "fect": 1936,
      "Ġlink": 1937,
      "Ġmove": 1938,
      "Ġcou": 1939,
      "Ġpretty": 1940,
      "ĠâĢĶ": 1941,
      "Ġfav": 1942,
      "uss": 1943,
      "ording": 1944,
      "na": 1945,
      "Ġresults": 1946,
      "Ġnear": 1947,
      "Ġprobably": 1948,
      "Ġstay": 1949,
      "ats": 1950,
      "lo": 1951,
      "Ġquick": 1952,
      "Ġlocal": 1953,
      "ĠEx": 1954,
      "Ġtold": 1955,
      "ĠTr": 1956,
      "Ġalong": 1957,
      "aim": 1958,
      "Ġfour": 1959,
      "Ġbased": 1960,
      "Ġhig": 1961,
      "Ġspecial": 1962,
      "21": 1963,
      "Ġago": 1964,
      "That": 1965,
      "ĠX": 1966,
      "Ġopt": 1967,
      "Ġbenef": 1968,
      "Ġvisit": 1969,
      "urance": 1970,
      "ĠBe": 1971,
      "Ġâ": 1972,
      "by": 1973,
      "ending": 1974,
      "ode": 1975,
      "Ġmatter": 1976,
      "95": 1977,
      "ories": 1978,
      "sh": 1979,
      "port": 1980,
      "Ġelect": 1981,
      "Ġacross": 1982,
      "ived": 1983,
      "48": 1984,
      "org": 1985,
      "Ġeveryone": 1986,
      "Ġface": 1987,
      "Ġasked": 1988,
      "Ġ:": 1989,
      "Ġhours": 1990,
      "Ġlight": 1991,
      "Ġwalk": 1992,
      "Ġcard": 1993,
      "ives": 1994,
      "ĠWhen": 1995,
      "Ġarticle": 1996,
      "Ġsocial": 1997,
      "Ġann": 1998,
      "Ġparticular": 1999,
      "Ġdetail": 2000,
      "Ġfuture": 2001,
      "Ġsoon": 2002,
      "Ġresult": 2003,
      "Ġhist": 2004,
      "Ġair": 2005,
      "Ġplease": 2006,
      "Ġprofess": 2007,
      "viron": 2008,
      "Ġexc": 2009,
      "Ġvide": 2010,
      "ox": 2011,
      "78": 2012,
      "Ġseveral": 2013,
      "Ġheart": 2014,
      "br": 2015,
      "over": 2016,
      "ands": 2017,
      "ird": 2018,
      "ounds": 2019,
      "ĠSe": 2020,
      "Ġcontent": 2021,
      "Ġprom": 2022,
      "Ġhuman": 2023,
      "inc": 2024,
      "Ġident": 2025,
      "ances": 2026,
      "Ġgiven": 2027,
      "98": 2028,
      "68": 2029,
      "tend": 2030,
      "Ġbreak": 2031,
      "Ġstarted": 2032,
      "Ġmethod": 2033,
      "Ġhold": 2034,
      "Ġgirl": 2035,
      "ert": 2036,
      "Ġisn": 2037,
      "ajor": 2038,
      "Ġcomes": 2039,
      "Ġbeaut": 2040,
      "pri": 2041,
      "ole": 2042,
      "side": 2043,
      "atic": 2044,
      "Ġfoc": 2045,
      "Ġstep": 2046,
      "Ġdev": 2047,
      "eral": 2048,
      "pro": 2049,
      "acy": 2050,
      "ĠChrist": 2051,
      "Ġwar": 2052,
      "iously": 2053,
      "Ġcalled": 2054,
      "pecially": 2055,
      "Ġlearn": 2056,
      "ane": 2057,
      "Ġtotal": 2058,
      "Ġseems": 2059,
      "Ġevent": 2060,
      "Ġwanted": 2061,
      "par": 2062,
      "Ġstudents": 2063,
      "Ġlater": 2064,
      "ott": 2065,
      "wh": 2066,
      "ury": 2067,
      "Ġexample": 2068,
      "iod": 2069,
      "Ġtaking": 2070,
      "ains": 2071,
      "Ġtem": 2072,
      "Ġnice": 2073,
      "34": 2074,
      "?âĢĿ": 2075,
      "Ġeduc": 2076,
      "ĠSp": 2077,
      "ourn": 2078,
      "ina": 2079,
      "att": 2080,
      "Ġexce": 2081,
      "int": 2082,
      "Ġyourself": 2083,
      "ĠPl": 2084,
      "Ġline": 2085,
      "Ġwhether": 2086,
      "conom": 2087,
      "ĠUS": 2088,
      "Ġdr": 2089,
      "Ġaut": 2090,
      "Ġhear": 2091,
      "Ġnews": 2092,
      "Ġrisk": 2093,
      "Ġmult": 2094,
      "Ġ11": 2095,
      "Ġsubject": 2096,
      "ills": 2097,
      "36": 2098,
      "ured": 2099,
      "Ġemail": 2100,
      "Ġquality": 2101,
      "por": 2102,
      "Ġclose": 2103,
      "ply": 2104,
      "Ġele": 2105,
      "Ġgovernment": 2106,
      "ĠOn": 2107,
      "My": 2108,
      "ĠOr": 2109,
      "ried": 2110,
      "outh": 2111,
      "Ref": 2112,
      "ilar": 2113,
      "raph": 2114,
      "Ġwriting": 2115,
      "Ġopportun": 2116,
      "Ġconcer": 2117,
      "Ġabove": 2118,
      "Ġvari": 2119,
      "Ġfore": 2120,
      "though": 2121,
      "Ġage": 2122,
      "Ġdue": 2123,
      "uation": 2124,
      "Ġeither": 2125,
      "ommend": 2126,
      "Ġabs": 2127,
      "Ġmanage": 2128,
      "ĠCan": 2129,
      "Ġcal": 2130,
      "ĠHowever": 2131,
      "AT": 2132,
      "Ġbring": 2133,
      "Ġanyone": 2134,
      "Ġoffer": 2135,
      "Ġcontact": 2136,
      "37": 2137,
      "ĠYour": 2138,
      "Ġaccount": 2139,
      "selves": 2140,
      "Ġbi": 2141,
      "Ġreturn": 2142,
      "Ġpage": 2143,
      "idd": 2144,
      "ĠNot": 2145,
      "iful": 2146,
      "Ġhappy": 2147,
      "Ġmajor": 2148,
      "Ġalmost": 2149,
      "agn": 2150,
      "Ġstrong": 2151,
      "Ġquestions": 2152,
      "IN": 2153,
      "ubl": 2154,
      "Ġmil": 2155,
      "Ġmeas": 2156,
      "Ġperfect": 2157,
      "Ġenc": 2158,
      "Cross": 2159,
      "ined": 2160,
      "Ġearly": 2161,
      "Ġvalue": 2162,
      "Ġrespons": 2163,
      "ator": 2164,
      "Ġdevelopment": 2165,
      "Ġappear": 2166,
      "duct": 2167,
      "aff": 2168,
      "44": 2169,
      "Ġnet": 2170,
      "Ġrather": 2171,
      "Ġhttps": 2172,
      "Ġwatch": 2173,
      "now": 2174,
      "Ġrecommend": 2175,
      "Ġsuggest": 2176,
      "Ġmess": 2177,
      "CrossRef": 2178,
      "vironment": 2179,
      "Ġwords": 2180,
      "lick": 2181,
      "Ġkey": 2182,
      "fer": 2183,
      "Ġbegin": 2184,
      "St": 2185,
      "ĠMay": 2186,
      "Ġmaterial": 2187,
      "Ġmembers": 2188,
      "Ġhot": 2189,
      "oid": 2190,
      "ests": 2191,
      "cle": 2192,
      "Ġrelations": 2193,
      "Ġcoming": 2194,
      "Ġ25": 2195,
      "aren": 2196,
      "Ġauthor": 2197,
      "fully": 2198,
      "Ġ16": 2199,
      "Ġagree": 2200,
      "Ġoffic": 2201,
      "Ġpolic": 2202,
      "Ġminutes": 2203,
      "mm": 2204,
      "ĠAt": 2205,
      "Ġindust": 2206,
      "ively": 2207,
      "pos": 2208,
      "ĠTH": 2209,
      "rite": 2210,
      "77": 2211,
      "Ġsuper": 2212,
      "iate": 2213,
      "ising": 2214,
      "Ġpict": 2215,
      "Ġphys": 2216,
      "Ġtaken": 2217,
      "Ġconn": 2218,
      "where": 2219,
      "ides": 2220,
      "Ġhalf": 2221,
      "Ġvers": 2222,
      "rop": 2223,
      "Ġreading": 2224,
      "Ġmyself": 2225,
      "Ġmoment": 2226,
      "ĠFr": 2227,
      "fficult": 2228,
      "Ġrecord": 2229,
      "39": 2230,
      "Ġhowever": 2231,
      "Ġself": 2232,
      "Ġfurther": 2233,
      "ched": 2234,
      "uly": 2235,
      "Ġissues": 2236,
      "ON": 2237,
      "ĠThese": 2238,
      "apt": 2239,
      "ergy": 2240,
      "de": 2241,
      "Ġproducts": 2242,
      "Ġchall": 2243,
      "Ġrequire": 2244,
      "Ġnecess": 2245,
      "verage": 2246,
      "Ġmodel": 2247,
      "Ġinsurance": 2248,
      "ledge": 2249,
      "Ġanalysis": 2250,
      "Ġpress": 2251,
      "Ġamong": 2252,
      "Ġperiod": 2253,
      "ĠCl": 2254,
      "une": 2255,
      "66": 2256,
      "Ġespecially": 2257,
      "To": 2258,
      "Ġcommon": 2259,
      "Ġdise": 2260,
      "Ġmillion": 2261,
      "Ġcreate": 2262,
      "Ġcut": 2263,
      "ored": 2264,
      "Ġlikely": 2265,
      "Ġregard": 2266,
      "Ġtrue": 2267,
      "RE": 2268,
      "Ġforward": 2269,
      "ann": 2270,
      "Ġeconom": 2271,
      "aces": 2272,
      "Ġupon": 2273,
      "iversity": 2274,
      "Ġleave": 2275,
      "Ġdifficult": 2276,
      "rec": 2277,
      "Ġeyes": 2278,
      "Ġaddress": 2279,
      "Ġtype": 2280,
      "__": 2281,
      "Ġmiss": 2282,
      "Ġ...": 2283,
      "elt": 2284,
      "iol": 2285,
      "pped": 2286,
      "Ġfall": 2287,
      "Ġ17": 2288,
      "cid": 2289,
      "Ġsingle": 2290,
      "Ġpick": 2291,
      "Ġobs": 2292,
      "ogn": 2293,
      "ged": 2294,
      "Ġpie": 2295,
      "raw": 2296,
      "Ġsearch": 2297,
      "artment": 2298,
      "Ġequ": 2299,
      "icro": 2300,
      "Ġbelow": 2301,
      ".)": 2302,
      "Ġfail": 2303,
      "Ġsimply": 2304,
      "ots": 2305,
      "Ġlooks": 2306,
      "Wh": 2307,
      "Ġill": 2308,
      "resent": 2309,
      "Ġweeks": 2310,
      "Ġworth": 2311,
      "Ġinclude": 2312,
      "Ġorig": 2313,
      "ĠLi": 2314,
      "Ġexpect": 2315,
      "pers": 2316,
      "ources": 2317,
      "urs": 2318,
      "Ġpriv": 2319,
      "ĠPh": 2320,
      "Ġsent": 2321,
      "go": 2322,
      "Ġentire": 2323,
      "ips": 2324,
      "Ġissue": 2325,
      "Ġfavor": 2326,
      "Ġtax": 2327,
      "Ġspecific": 2328,
      "ibility": 2329,
      "Ġcharacter": 2330,
      "unch": 2331,
      "Ġbeautiful": 2332,
      "Ġremember": 2333,
      "urity": 2334,
      "Ġ--": 2335,
      "ĠThanks": 2336,
      "Ġfive": 2337,
      "Ġknown": 2338,
      "Ġneeded": 2339,
      "room": 2340,
      "Ġrelationship": 2341,
      "Ġdou": 2342,
      "Ġap": 2343,
      "Ġwind": 2344,
      "Ġparticip": 2345,
      "ĠEng": 2346,
      "Ġens": 2347,
      "Ġstuff": 2348,
      "Ġfre": 2349,
      "Ġcomb": 2350,
      "ĠWith": 2351,
      "Ġrespect": 2352,
      "Ġclaim": 2353,
      "No": 2354,
      "Ġinterv": 2355,
      "ush": 2356,
      "Ġcrit": 2357,
      "ians": 2358,
      "Ġsaw": 2359,
      "ained": 2360,
      "ĠBl": 2361,
      "Ġcity": 2362,
      "book": 2363,
      "Ġhigher": 2364,
      "Ġamaz": 2365,
      "Ġdeterm": 2366,
      "ique": 2367,
      "ison": 2368,
      "erence": 2369,
      "Ġmot": 2370,
      "ware": 2371,
      "Ġcop": 2372,
      "Ġ24": 2373,
      "Ġdam": 2374,
      "Ġvideo": 2375,
      "Ġwrong": 2376,
      "ilities": 2377,
      "Ġheard": 2378,
      "wards": 2379,
      "Ġrele": 2380,
      "Ġeff": 2381,
      "ource": 2382,
      "Ġperc": 2383,
      "Ġple": 2384,
      "Ġproblems": 2385,
      "ĠAm": 2386,
      "Ġcouple": 2387,
      "leep": 2388,
      "Ġbed": 2389,
      "Ġpotential": 2390,
      "Ġsimple": 2391,
      "Ġwasn": 2392,
      "Ġmorning": 2393,
      "Ġenergy": 2394,
      "Ġways": 2395,
      "Ġamount": 2396,
      "Ġconc": 2397,
      "Ġcells": 2398,
      "ĠEn": 2399,
      "ental": 2400,
      "47": 2401,
      "Ġdeath": 2402,
      "come": 2403,
      "ĠComm": 2404,
      "Ġkids": 2405,
      "97": 2406,
      "AN": 2407,
      "ĠGr": 2408,
      "Ġfunction": 2409,
      "Ġcannot": 2410,
      "Ġbar": 2411,
      "Ġstat": 2412,
      "illed": 2413,
      "ĠRep": 2414,
      "Ġfinanc": 2415,
      "Ġtraining": 2416,
      "sc": 2417,
      "Ġpolit": 2418,
      "ister": 2419,
      "Ġwrite": 2420,
      "atory": 2421,
      "Ġseason": 2422,
      "Ġliving": 2423,
      "Ġchanges": 2424,
      "Ġexact": 2425,
      "67": 2426,
      "Ġsex": 2427,
      "AR": 2428,
      "ĠTe": 2429,
      "Ġmis": 2430,
      "Ġenvironment": 2431,
      "Ġsimilar": 2432,
      "iting": 2433,
      "ring": 2434,
      "sy": 2435,
      "Ġcompan": 2436,
      "ene": 2437,
      "Ġlooked": 2438,
      "body": 2439,
      "They": 2440,
      "asing": 2441,
      "ern": 2442,
      "Ġetc": 2443,
      "Ġrepl": 2444,
      "Ġlonger": 2445,
      "Ġpercent": 2446,
      "fort": 2447,
      "iver": 2448,
      "irc": 2449,
      "utions": 2450,
      "Ġrate": 2451,
      "Ġfield": 2452,
      "af": 2453,
      "ift": 2454,
      "ik": 2455,
      "Ġmedia": 2456,
      "Ġfocus": 2457,
      "Ġvol": 2458,
      "onse": 2459,
      "Ġcompet": 2460,
      "Ġprice": 2461,
      "Ġmusic": 2462,
      "ological": 2463,
      "oints": 2464,
      "ĠOne": 2465,
      "Ġcamp": 2466,
      "orth": 2467,
      "Ġstrateg": 2468,
      "Ġtool": 2469,
      "itted": 2470,
      "Ġimm": 2471,
      "ows": 2472,
      "ĪĴ": 2473,
      "Ġhon": 2474,
      "!\"": 2475,
      "55": 2476,
      "ĠInd": 2477,
      "arget": 2478,
      "rel": 2479,
      "Ġcult": 2480,
      "ued": 2481,
      "Ġincrease": 2482,
      "co": 2483,
      "Ġthinking": 2484,
      "Ġclean": 2485,
      "roll": 2486,
      "ung": 2487,
      "ones": 2488,
      "bt": 2489,
      "hem": 2490,
      "Ġspace": 2491,
      "ding": 2492,
      "itely": 2493,
      "Ġworks": 2494,
      "ital": 2495,
      "Ġinteresting": 2496,
      "Ġcap": 2497,
      "Ġfront": 2498,
      "Ġwoman": 2499,
      "Ġpath": 2500,
      "Ġ2018": 2501,
      "ST": 2502,
      "ification": 2503,
      "Ġlevels": 2504,
      "Ġsoft": 2505,
      "She": 2506,
      "Ġaff": 2507,
      "OR": 2508,
      "Ġnorm": 2509,
      "rew": 2510,
      "88": 2511,
      "ume": 2512,
      "):": 2513,
      "Ġmother": 2514,
      "Ġpubl": 2515,
      "Ġsense": 2516,
      "Ġtrad": 2517,
      "ging": 2518,
      "Ġboy": 2519,
      "Ġdoor": 2520,
      "overed": 2521,
      "oon": 2522,
      "Ġpack": 2523,
      "atural": 2524,
      "Ġsaying": 2525,
      "Ġwish": 2526,
      "Ġach": 2527,
      "Ġsat": 2528,
      "Ġthank": 2529,
      "Ġer": 2530,
      "lish": 2531,
      "49": 2532,
      "Ġpurch": 2533,
      "46": 2534,
      "Do": 2535,
      "Ġcomput": 2536,
      "Ġblood": 2537,
      "mit": 2538,
      "Al": 2539,
      "Ġfr": 2540,
      "Ġimpact": 2541,
      "Ġrequired": 2542,
      "Ġexist": 2543,
      "imate": 2544,
      "ape": 2545,
      "atures": 2546,
      "Ġword": 2547,
      "Ġmention": 2548,
      "Ġvarious": 2549,
      "ites": 2550,
      "Ġcy": 2551,
      "yle": 2552,
      "ĠMan": 2553,
      "Ġknew": 2554,
      "ocu": 2555,
      "Ġanswer": 2556,
      "oud": 2557,
      "Well": 2558,
      "astic": 2559,
      "Ġaccept": 2560,
      "Ġbuilding": 2561,
      "Ġhistory": 2562,
      "ĠMed": 2563,
      "Ġð": 2564,
      "haps": 2565,
      "pe": 2566,
      "Ġoffice": 2567,
      "Ġbehind": 2568,
      "Ġprep": 2569,
      "ogle": 2570,
      "Ġgeneral": 2571,
      "On": 2572,
      "ided": 2573,
      "ees": 2574,
      "ym": 2575,
      "Ġhands": 2576,
      "ters": 2577,
      "ought": 2578,
      "Ġcomment": 2579,
      "arents": 2580,
      "ĠDi": 2581,
      "ror": 2582,
      "Ġready": 2583,
      "hers": 2584,
      "Ġsell": 2585,
      "Ġstruct": 2586,
      "ules": 2587,
      "val": 2588,
      "Ġpat": 2589,
      "Ġz": 2590,
      "Ġknowledge": 2591,
      "Ġneg": 2592,
      "Ġtravel": 2593,
      "oo": 2594,
      "ĠApp": 2595,
      "Ġland": 2596,
      "Ġsumm": 2597,
      "Ġess": 2598,
      "action": 2599,
      "Ġitem": 2600,
      "ples": 2601,
      "Ġshop": 2602,
      "iday": 2603,
      "ny": 2604,
      "let": 2605,
      "Ġamazing": 2606,
      "ĠJust": 2607,
      "Ġphone": 2608,
      "that": 2609,
      "Ġcause": 2610,
      "Ġchance": 2611,
      "Ġextra": 2612,
      "str": 2613,
      "Ġyes": 2614,
      "ĠMr": 2615,
      "Ġusually": 2616,
      "Ġcontrib": 2617,
      "ilt": 2618,
      "oke": 2619,
      "aster": 2620,
      "Ġrole": 2621,
      "rodu": 2622,
      "ients": 2623,
      "Ġadded": 2624,
      "Ġsam": 2625,
      "Ġ#": 2626,
      "Ġterm": 2627,
      "Ġevid": 2628,
      "Ġcompanies": 2629,
      "ĠUnited": 2630,
      "ĠIntern": 2631,
      "Ġcontinue": 2632,
      "omes": 2633,
      "Ġspeak": 2634,
      "Ġrange": 2635,
      "icles": 2636,
      "Ġparty": 2637,
      "ressed": 2638,
      "Ġposition": 2639,
      "ĠLe": 2640,
      "Ġlearning": 2641,
      "Ġapproach": 2642,
      "den": 2643,
      "reg": 2644,
      "Ġstaff": 2645,
      "irm": 2646,
      "oice": 2647,
      "Ġsurpr": 2648,
      "arent": 2649,
      "reet": 2650,
      "Ġprovided": 2651,
      "Ġinit": 2652,
      "reme": 2653,
      "Ġmanagement": 2654,
      "Ġcancer": 2655,
      "head": 2656,
      "96": 2657,
      "Ġones": 2658,
      "ude": 2659,
      "Ġce": 2660,
      "ĠMar": 2661,
      "Ġsix": 2662,
      "Ġaddition": 2663,
      "ĠThank": 2664,
      "Ġareas": 2665,
      "Ġfelt": 2666,
      "Ġgroups": 2667,
      "Ġoutside": 2668,
      "Ġsound": 2669,
      "ler": 2670,
      "Ġindustry": 2671,
      "Ġsize": 2672,
      "aged": 2673,
      "Ġdisease": 2674,
      "acks": 2675,
      "put": 2676,
      "Ġste": 2677,
      "Ġstudies": 2678,
      "ohn": 2679,
      "usion": 2680,
      "ards": 2681,
      "load": 2682,
      "ication": 2683,
      "Ġfinancial": 2684,
      "Ġred": 2685,
      "rown": 2686,
      "Ġrunning": 2687,
      "ĠAmerican": 2688,
      "amm": 2689,
      "Ġloss": 2690,
      "osis": 2691,
      "aging": 2692,
      "85": 2693,
      "Ġsens": 2694,
      "Ġdog": 2695,
      "NA": 2696,
      "urch": 2697,
      "Ġlost": 2698,
      "Ġpred": 2699,
      "ĠNow": 2700,
      "but": 2701,
      "Ġmaybe": 2702,
      "ĠMe": 2703,
      "Ġtakes": 2704,
      "Ġpoints": 2705,
      "Ġhimself": 2706,
      "Ġlab": 2707,
      "sive": 2708,
      "Ġattention": 2709,
      "ĠÂ±": 2710,
      "Ġaccording": 2711,
      "Yes": 2712,
      "Ġdefinitely": 2713,
      "ĠCent": 2714,
      "Ġthemselves": 2715,
      "Ġdrug": 2716,
      "Ġdate": 2717,
      "Ġaction": 2718,
      "orld": 2719,
      "Ġcoun": 2720,
      "aving": 2721,
      "Ġtarget": 2722,
      "Ġroad": 2723,
      "ires": 2724,
      "Ġaud": 2725,
      "Ġtalking": 2726,
      "Ġrepresent": 2727,
      "Ġcases": 2728,
      "Ġguess": 2729,
      "time": 2730,
      "ners": 2731,
      "Ġbir": 2732,
      "Ġfire": 2733,
      "Ġturned": 2734,
      "iple": 2735,
      "Ġdocu": 2736,
      "Ġgoes": 2737,
      "Ġperformance": 2738,
      "Ġsafe": 2739,
      "Ġrelated": 2740,
      "Ġmedical": 2741,
      "OU": 2742,
      "Ġtable": 2743,
      "Ġpositive": 2744,
      "EN": 2745,
      "ĠAfter": 2746,
      "aining": 2747,
      "uge": 2748,
      "Ġanim": 2749,
      "Ġnecessary": 2750,
      "Now": 2751,
      "Ġaffect": 2752,
      "Ġweight": 2753,
      "Ġobject": 2754,
      "Ch": 2755,
      "Oh": 2756,
      "Ġsleep": 2757,
      "Ġopportunity": 2758,
      "Ġlives": 2759,
      "like": 2760,
      "llent": 2761,
      "Ġprofessional": 2762,
      "Ġeducation": 2763,
      "iter": 2764,
      "Ġjoin": 2765,
      "Ġsend": 2766,
      "Ġhaven": 2767,
      "minist": 2768,
      "Ġwritten": 2769,
      "urope": 2770,
      "ĠSu": 2771,
      "ĠDon": 2772,
      "Ġproperty": 2773,
      "Ġcover": 2774,
      "AL": 2775,
      "Ġterms": 2776,
      "Ġfamil": 2777,
      "Ġfa": 2778,
      "gu": 2779,
      "Ġrad": 2780,
      "Ġideas": 2781,
      "Ġinstead": 2782,
      "resh": 2783,
      "Ġcool": 2784,
      "Ġ2017": 2785,
      "Ġdig": 2786,
      "olution": 2787,
      "Ġlower": 2788,
      "Ġtou": 2789,
      "Ġport": 2790,
      "Ġcirc": 2791,
      "ches": 2792,
      "aced": 2793,
      "Ġcouldn": 2794,
      "gen": 2795,
      "Ġparents": 2796,
      "Ġhit": 2797,
      "Ġdetails": 2798,
      "ĠStates": 2799,
      "Ġcertainly": 2800,
      "Ġassess": 2801,
      "ĠUniversity": 2802,
      "Ġwouldn": 2803,
      "yn": 2804,
      "umb": 2805,
      "At": 2806,
      "Ġobserv": 2807,
      "chan": 2808,
      "Ġep": 2809,
      "Ġcook": 2810,
      "Ġreceived": 2811,
      "ĠCar": 2812,
      "Ġpaper": 2813,
      "All": 2814,
      "Ġfit": 2815,
      "ĠSome": 2816,
      "Ġinvolved": 2817,
      "Ġbooks": 2818,
      "Ġtried": 2819,
      "Ġcredit": 2820,
      "orry": 2821,
      "Ġwonderful": 2822,
      "ators": 2823,
      "Ġlay": 2824,
      "Ġfast": 2825,
      "Ġgrowth": 2826,
      "Ġsort": 2827,
      "ishing": 2828,
      "Ġlate": 2829,
      "Ġconsum": 2830,
      "ĠAg": 2831,
      "Ġwhite": 2832,
      "Ġrecogn": 2833,
      "Ġdeep": 2834,
      "Ġpolicy": 2835,
      "iet": 2836,
      "istic": 2837,
      "obal": 2838,
      "100": 2839,
      "Ġeffects": 2840,
      "doi": 2841,
      "enty": 2842,
      "Ġsym": 2843,
      "osing": 2844,
      "Ġgave": 2845,
      "Ġten": 2846,
      "Ġswe": 2847,
      "face": 2848,
      "just": 2849,
      "Ġresponse": 2850,
      "ES": 2851,
      "Ġbab": 2852,
      "ables": 2853,
      "olute": 2854,
      "Ġselect": 2855,
      "ĠHis": 2856,
      "angu": 2857,
      "ĠInst": 2858,
      "ĠCont": 2859,
      "43": 2860,
      "isc": 2861,
      "eed": 2862,
      "Ġfeed": 2863,
      "Ġactivity": 2864,
      "Ġlisten": 2865,
      "bo": 2866,
      "Ġthanks": 2867,
      "ĠPr": 2868,
      "iation": 2869,
      "more": 2870,
      "ai": 2871,
      "ĠOur": 2872,
      "aching": 2873,
      "Ġevents": 2874,
      "oor": 2875,
      "Ġfeeling": 2876,
      "Ġcorrect": 2877,
      "Ġcustomers": 2878,
      "Ġjourn": 2879,
      "Ġsil": 2880,
      "Ġexactly": 2881,
      "Ġcomfort": 2882,
      "imum": 2883,
      "anced": 2884,
      "Ġri": 2885,
      "Ġassist": 2886,
      "Ġseries": 2887,
      "Ġapprec": 2888,
      "olic": 2889,
      "Ġestab": 2890,
      "asons": 2891,
      "Ġconv": 2892,
      "ĠHere": 2893,
      "Ġchoose": 2894,
      "Ġability": 2895,
      "ege": 2896,
      "pose": 2897,
      "Ġful": 2898,
      "Ġprote": 2899,
      "One": 2900,
      "ĠEurope": 2901,
      "Ġensure": 2902,
      "Ġquickly": 2903,
      "Ġdecided": 2904,
      "Ġhappened": 2905,
      "Ġdifference": 2906,
      "Ġtechnology": 2907,
      "ying": 2908,
      "Ġfair": 2909,
      "Ġwide": 2910,
      "vert": 2911,
      "Ġdiscuss": 2912,
      "Ġdecision": 2913,
      "Ġinsp": 2914,
      "Ġbott": 2915,
      "Ġnatural": 2916,
      "Thanks": 2917,
      "Ġrecent": 2918,
      "OT": 2919,
      "Ġ2025": 2920,
      "Ġeffective": 2921,
      "ores": 2922,
      "ha": 2923,
      "With": 2924,
      "Ġinterested": 2925,
      "Ġwear": 2926,
      "Ġversion": 2927,
      "ster": 2928,
      "ĠAct": 2929,
      "Ġdrink": 2930,
      "Ġshown": 2931,
      "Ġfoot": 2932,
      "Thank": 2933,
      "epend": 2934,
      "idered": 2935,
      "Ġsituation": 2936,
      "ont": 2937,
      "Ġfather": 2938,
      "Ġobtain": 2939,
      "Ġut": 2940,
      "Ġtown": 2941,
      "iction": 2942,
      "Ġfight": 2943,
      "Ġeat": 2944,
      "nces": 2945,
      "Ġfine": 2946,
      "yl": 2947,
      "Ġfavorite": 2948,
      "Ġthird": 2949,
      "Ġprim": 2950,
      "Ġdest": 2951,
      "69": 2952,
      "Ġ/": 2953,
      "%)": 2954,
      "cing": 2955,
      "ley": 2956,
      "Ġoil": 2957,
      "you": 2958,
      "Ġprior": 2959,
      "Ġcra": 2960,
      "Ġsection": 2961,
      "Ġstress": 2962,
      "Ġcompletely": 2963,
      "Ġhor": 2964,
      "Ġspend": 2965,
      "Ġgames": 2966,
      "Ġblack": 2967,
      "Ġconduct": 2968,
      "Ġ*": 2969,
      "Ġgets": 2970,
      "200": 2971,
      "reng": 2972,
      "Ġsun": 2973,
      "Ġhop": 2974,
      "oring": 2975,
      "Ġalone": 2976,
      "Ġpractice": 2977,
      "Ġarri": 2978,
      "Ġevidence": 2979,
      "iddle": 2980,
      "Ġfix": 2981,
      "Ġsecurity": 2982,
      "Ġglad": 2983,
      "AS": 2984,
      "rought": 2985,
      "Ġsn": 2986,
      "Ġbehav": 2987,
      "band": 2988,
      "Ġhost": 2989,
      "ival": 2990,
      "Ġmaintain": 2991,
      "ruction": 2992,
      "ober": 2993,
      "Ġactivities": 2994,
      "Ġsus": 2995,
      "play": 2996,
      "ached": 2997,
      "ĠJan": 2998,
      "Ġprotect": 2999,
      "asc": 3000,
      "Ġ,": 3001,
      "Ġdoct": 3002,
      "ĠInt": 3003,
      "32": 3004,
      "Ġfinal": 3005,
      "cript": 3006,
      "izing": 3007,
      "ping": 3008,
      "Ġtrust": 3009,
      "irt": 3010,
      "based": 3011,
      "Ġgiving": 3012,
      "Ġinj": 3013,
      "Ġinside": 3014,
      "eb": 3015,
      "Ġdead": 3016,
      "Ġbox": 3017,
      "eah": 3018,
      "my": 3019,
      "Ġconsidered": 3020,
      "Ġtour": 3021,
      "Ġgone": 3022,
      "Ġhol": 3023,
      "empt": 3024,
      "Ġheld": 3025,
      "Ġavoid": 3026,
      "Here": 3027,
      "Ġsometimes": 3028,
      "Ġapplication": 3029,
      "Ġfigure": 3030,
      "Ġreported": 3031,
      "Ġpull": 3032,
      "pping": 3033,
      "Ġx": 3034,
      "Ġaren": 3035,
      "aur": 3036,
      "Ġskills": 3037,
      "ĠGen": 3038,
      "Ġopin": 3039,
      "ĠðŁ": 3040,
      "ĠTHE": 3041,
      "ĠMore": 3042,
      "05": 3043,
      "reed": 3044,
      "87": 3045,
      "sequ": 3046,
      "ED": 3047,
      "Ġ2016": 3048,
      "ĠOf": 3049,
      "atever": 3050,
      "king": 3051,
      "Ġreceive": 3052,
      "Ġvoice": 3053,
      "Ġincluded": 3054,
      "pite": 3055,
      "Ġaware": 3056,
      "Ġfeatures": 3057,
      "Ġguys": 3058,
      "ĠAb": 3059,
      "vision": 3060,
      "back": 3061,
      "rams": 3062,
      "ze": 3063,
      "Ġ21": 3064,
      "ĠState": 3065,
      "fact": 3066,
      "ĠThen": 3067,
      "Ġsystems": 3068,
      "atur": 3069,
      "Ġslow": 3070,
      "Ġapply": 3071,
      "orrow": 3072,
      "Ġlic": 3073,
      "Ġimmed": 3074,
      "Ġnetwork": 3075,
      "Ġincreased": 3076,
      "Ġsharing": 3077,
      "Ġindividuals": 3078,
      "wise": 3079,
      "Ġground": 3080,
      "nd": 3081,
      "Ġchoice": 3082,
      "anger": 3083,
      "Ġmarketing": 3084,
      "ĠAss": 3085,
      "ony": 3086,
      "Ġoriginal": 3087,
      "Ġinternet": 3088,
      "ĠWell": 3089,
      "Ġworked": 3090,
      "ĠâĢ¦": 3091,
      "erve": 3092,
      "atter": 3093,
      "Ġhuge": 3094,
      "ughter": 3095,
      "Ġimag": 3096,
      "Ġtre": 3097,
      "Ġvia": 3098,
      "Ġdrive": 3099,
      "Ġbal": 3100,
      "Ġdom": 3101,
      "Ġcountries": 3102,
      "Ġhttp": 3103,
      "Ġclick": 3104,
      "ges": 3105,
      "Ġbur": 3106,
      "Ġcomplex": 3107,
      "Ġmeeting": 3108,
      "ulations": 3109,
      "64": 3110,
      "Ġsong": 3111,
      "ike": 3112,
      "Ġchalleng": 3113,
      "ĠJohn": 3114,
      "ĠGu": 3115,
      "ibly": 3116,
      "Ġstar": 3117,
      "aling": 3118,
      "Ġskin": 3119,
      "itch": 3120,
      "Ġexcellent": 3121,
      "Ġlog": 3122,
      "ns": 3123,
      "verse": 3124,
      "Ġnormal": 3125,
      "ĠAc": 3126,
      "cy": 3127,
      "Ġdemon": 3128,
      "Ġguy": 3129,
      "Ġsave": 3130,
      "uses": 3131,
      "Ġ60": 3132,
      "Ġabsolute": 3133,
      "31": 3134,
      "ID": 3135,
      "94": 3136,
      "Ġeasily": 3137,
      "airs": 3138,
      "Ġitself": 3139,
      "itc": 3140,
      "mark": 3141,
      "ĠIm": 3142,
      "iving": 3143,
      "su": 3144,
      "After": 3145,
      "vis": 3146,
      "Ġattend": 3147,
      "Ġextreme": 3148,
      "ught": 3149,
      "ended": 3150,
      "oms": 3151,
      "Ġcross": 3152,
      "CT": 3153,
      "mas": 3154,
      "Ġprivate": 3155,
      "Ġmicro": 3156,
      "Not": 3157,
      "Ġveh": 3158,
      "Ġviol": 3159,
      "Ġscreen": 3160,
      "IT": 3161,
      "Ġwife": 3162,
      "Ġupd": 3163,
      "Ġfactors": 3164,
      "Ġlangu": 3165,
      "ining": 3166,
      "Ġtrack": 3167,
      "ped": 3168,
      "Ġcam": 3169,
      "Ġstreng": 3170,
      "Ġfinally": 3171,
      "hood": 3172,
      "ĠSec": 3173,
      "Ġson": 3174,
      "Ġreve": 3175,
      "Ġbirth": 3176,
      "Ġencour": 3177,
      "ĠPe": 3178,
      "Ġdream": 3179,
      "Ġwall": 3180,
      "www": 3181,
      "ussion": 3182,
      "uary": 3183,
      "Ġfell": 3184,
      "right": 3185,
      "Ġuseful": 3186,
      "Ġtext": 3187,
      "Ġcosts": 3188,
      "Ġcontract": 3189,
      "ulated": 3190,
      "Ġstore": 3191,
      "Ġrecently": 3192,
      "Ġpoor": 3193,
      "ecause": 3194,
      "Ġoptions": 3195,
      "Ġeval": 3196,
      "Ġhair": 3197,
      "Ġpiece": 3198,
      "Is": 3199,
      "ĠDep": 3200,
      "Ġsett": 3201,
      "eter": 3202,
      "Ġdark": 3203,
      "Ġmach": 3204,
      "Ġaverage": 3205,
      "Ġcomments": 3206,
      "Ġnote": 3207,
      "Ġdeg": 3208,
      "ball": 3209,
      "sych": 3210,
      "Ġadditional": 3211,
      "Ġjud": 3212,
      "ĠSun": 3213,
      "oph": 3214,
      "ĠTw": 3215,
      "how": 3216,
      "Ġoption": 3217,
      "off": 3218,
      "Ġplaying": 3219,
      "ĠWorld": 3220,
      "vant": 3221,
      "ĠLet": 3222,
      "Ġprevent": 3223,
      "Ġ26": 3224,
      "lor": 3225,
      "Ġ2015": 3226,
      "ograp": 3227,
      "Ġbank": 3228,
      "Ġposts": 3229,
      "Ġconvers": 3230,
      "irit": 3231,
      "Ġunique": 3232,
      "arr": 3233,
      "Ġang": 3234,
      "Ġcommit": 3235,
      "ensive": 3236,
      "Ġu": 3237,
      "Ġcomputer": 3238,
      "Ġphysical": 3239,
      "Ġstarting": 3240,
      "ĠYork": 3241,
      "lex": 3242,
      "atives": 3243,
      "Ġgrad": 3244,
      "fl": 3245,
      "ask": 3246,
      "ĠPer": 3247,
      "86": 3248,
      "rote": 3249,
      "Ġlegal": 3250,
      "Ġtruth": 3251,
      "Ġpaid": 3252,
      "Ġmessage": 3253,
      "Ġord": 3254,
      "Ġluck": 3255,
      "Ġsummer": 3256,
      "Ġwarm": 3257,
      "ĠSy": 3258,
      "with": 3259,
      "lier": 3260,
      "uted": 3261,
      "ĠComp": 3262,
      "Ġhur": 3263,
      "Ġbud": 3264,
      "IS": 3265,
      "Be": 3266,
      "Ġpicture": 3267,
      "Ġprevious": 3268,
      "Ġhus": 3269,
      "Ġwants": 3270,
      "Ġinstall": 3271,
      "Ġloved": 3272,
      "Ġcreated": 3273,
      "Ġoffers": 3274,
      "Ġtypes": 3275,
      "Ġengine": 3276,
      "Ġ+": 3277,
      "Ġadvice": 3278,
      "Ġ<": 3279,
      "Ġcarry": 3280,
      "57": 3281,
      "Ġsolution": 3282,
      "Ġkill": 3283,
      "Ġmechan": 3284,
      "ĠAN": 3285,
      "Ġpopular": 3286,
      "ibr": 3287,
      "Ġgra": 3288,
      "Ġweekend": 3289,
      "Ġsubst": 3290,
      "Ġfear": 3291,
      "Ġsales": 3292,
      "Ġcompl": 3293,
      "Ġprec": 3294,
      "Ġcustomer": 3295,
      "Ġmember": 3296,
      "ev": 3297,
      "Ġbenefits": 3298,
      "ocr": 3299,
      "Ġspent": 3300,
      "Ġprovides": 3301,
      "Ġbrought": 3302,
      "Ġbegan": 3303,
      "Don": 3304,
      "Ġdistrib": 3305,
      "ĠGoogle": 3306,
      "Ġexpected": 3307,
      "ule": 3308,
      "Ġteac": 3309,
      "Ġcondition": 3310,
      "Ġstri": 3311,
      "ĠPart": 3312,
      "Ġlif": 3313,
      "Ġtruly": 3314,
      "Ġtemper": 3315,
      "Ġnational": 3316,
      "Ġsoftware": 3317,
      "Ġexpression": 3318,
      "Ġdraw": 3319,
      "Ġlik": 3320,
      "Ġsource": 3321,
      "ĠPlease": 3322,
      "Ġtend": 3323,
      "tr": 3324,
      "Ġprop": 3325,
      "Ġtrip": 3326,
      "Ġoccur": 3327,
      "Ġ22": 3328,
      "ĠBr": 3329,
      "ĠWill": 3330,
      "Ġsites": 3331,
      "lement": 3332,
      "ama": 3333,
      "Ġappe": 3334,
      "Ġitems": 3335,
      "Ġtowards": 3336,
      "Ġpen": 3337,
      "Ġsafety": 3338,
      "Ġunderstanding": 3339,
      "Ġrequest": 3340,
      "bl": 3341,
      "ĠPres": 3342,
      "Ġlack": 3343,
      "ivity": 3344,
      "Ġcopy": 3345,
      "Ġenh": 3346,
      "89": 3347,
      "ancy": 3348,
      "Ġfeet": 3349,
      "cember": 3350,
      "zy": 3351,
      "Ġsepar": 3352,
      "Ġflow": 3353,
      "ĠServ": 3354,
      "Ġparticularly": 3355,
      "itions": 3356,
      "Ġfund": 3357,
      "Ġresources": 3358,
      "Ġpolitical": 3359,
      "rict": 3360,
      "ceed": 3361,
      "Ġadminist": 3362,
      "Ġnature": 3363,
      "ma": 3364,
      "Ġboard": 3365,
      "Ġrecip": 3366,
      "rill": 3367,
      "ties": 3368,
      "Ġlimited": 3369,
      "Ġintrodu": 3370,
      "Ġproduction": 3371,
      "Ġfilm": 3372,
      "Our": 3373,
      "Ġcat": 3374,
      "ĠAmerica": 3375,
      "oly": 3376,
      "Ġtopic": 3377,
      "ĠReg": 3378,
      "hold": 3379,
      "Ġdesigned": 3380,
      "Ġreasons": 3381,
      "ession": 3382,
      "Ġrefer": 3383,
      "what": 3384,
      "\".": 3385,
      "Ġhealthy": 3386,
      "ĠFigure": 3387,
      "ograph": 3388,
      "ĠMet": 3389,
      "idence": 3390,
      "ĠNational": 3391,
      "etic": 3392,
      "dd": 3393,
      "Ġfrequ": 3394,
      "Ġ28": 3395,
      "Ġdepend": 3396,
      "Ġserious": 3397,
      "undred": 3398,
      "Ġload": 3399,
      "Ġcand": 3400,
      "Hi": 3401,
      "priate": 3402,
      "Ġshowed": 3403,
      "Ġmag": 3404,
      "Ġsurv": 3405,
      "Ġbase": 3406,
      "Ġpolice": 3407,
      "Ġhighly": 3408,
      "Ġinteg": 3409,
      "Ġvalues": 3410,
      "Ġcurrently": 3411,
      "mitted": 3412,
      "imately": 3413,
      "Ġ27": 3414,
      "Ġ2024": 3415,
      "Ġstudent": 3416,
      "Ġmultiple": 3417,
      "Ġrights": 3418,
      "ĠMin": 3419,
      "Why": 3420,
      "Ġseeing": 3421,
      "93": 3422,
      "Ġtit": 3423,
      "ences": 3424,
      "ĠQu": 3425,
      "Ġhusband": 3426,
      "light": 3427,
      "Ġtouch": 3428,
      "Ġseemed": 3429,
      "au": 3430,
      "oul": 3431,
      "iring": 3432,
      "obile": 3433,
      "Ġeye": 3434,
      "Ġimplement": 3435,
      "Ġpurpose": 3436,
      "Ġmass": 3437,
      "oe": 3438,
      "Ġleaders": 3439,
      "Ġobv": 3440,
      "Ġren": 3441,
      "ounts": 3442,
      "Ġofficial": 3443,
      "set": 3444,
      "Ġthroughout": 3445,
      "Ġdirectly": 3446,
      "istics": 3447,
      "Ġcalc": 3448,
      "Ġusers": 3449,
      "Ġreach": 3450,
      "ĠStud": 3451,
      "ĠWhy": 3452,
      "42": 3453,
      "Ġknows": 3454,
      "Ġplanning": 3455,
      "enn": 3456,
      "Ġinterview": 3457,
      "Ġplaces": 3458,
      "Ġinfo": 3459,
      "Ġsect": 3460,
      "Ġrespond": 3461,
      "Ġbrand": 3462,
      "Ġdro": 3463,
      "antly": 3464,
      "Ġperhaps": 3465,
      "ales": 3466,
      "arily": 3467,
      "ises": 3468,
      "Ġbaby": 3469,
      "Ġpressure": 3470,
      "ĠAf": 3471,
      "Ġtrou": 3472,
      "ING": 3473,
      "Ġ23": 3474,
      "Ġenter": 3475,
      "Ġimage": 3476,
      "esome": 3477,
      "Ġlots": 3478,
      "Med": 3479,
      ")(": 3480,
      "LL": 3481,
      "ĠÎ": 3482,
      "ari": 3483,
      "Ġtom": 3484,
      "ĠAre": 3485,
      "ighb": 3486,
      "Ġmix": 3487,
      "aign": 3488,
      "Ġbeginning": 3489,
      "Ġparts": 3490,
      "Ġdiagn": 3491,
      "Ġcold": 3492,
      "ĠDr": 3493,
      "ades": 3494,
      "Ġappl": 3495,
      "ĠAny": 3496,
      "Ġemot": 3497,
      "which": 3498,
      "isf": 3499,
      "term": 3500,
      "Ġ:)": 3501,
      "Ġexperim": 3502,
      "Ġeffort": 3503,
      "Ġrates": 3504,
      "ney": 3505,
      "Ġalthough": 3506,
      "Ġcolor": 3507,
      "Ġphotos": 3508,
      "iot": 3509,
      "Ġemerg": 3510,
      "Ġchanged": 3511,
      "Ġrid": 3512,
      "arc": 3513,
      "uk": 3514,
      "ĠCal": 3515,
      "Ġhelpful": 3516,
      "Ġcourt": 3517,
      "Ġsold": 3518,
      "ĠEvery": 3519,
      "Ġspeed": 3520,
      "ĠChristmas": 3521,
      "enge": 3522,
      "58": 3523,
      "mon": 3524,
      "76": 3525,
      "Ġthous": 3526,
      "oper": 3527,
      "Ġgoal": 3528,
      "iqu": 3529,
      "ĠJanuary": 3530,
      "mail": 3531,
      "Just": 3532,
      "ĠBy": 3533,
      "Ġfeature": 3534,
      "eth": 3535,
      "Ġplans": 3536,
      "Ġdemonstr": 3537,
      "Ġgives": 3538,
      "Ġpan": 3539,
      "Ġachieve": 3540,
      "ĠCity": 3541,
      "cil": 3542,
      "Ġcode": 3543,
      "Ġlocation": 3544,
      "Ġclients": 3545,
      "Ġannoun": 3546,
      "??": 3547,
      "ĠFace": 3548,
      "Ġproced": 3549,
      "Ġ2014": 3550,
      "âĢ¢": 3551,
      "!âĢĿ": 3552,
      "Ġrout": 3553,
      "ese": 3554,
      "Ġpark": 3555,
      "Ġprojects": 3556,
      "Ġmethods": 3557,
      "Ġmeasure": 3558,
      "rep": 3559,
      "iced": 3560,
      "Ġstra": 3561,
      "Ġstories": 3562,
      "Ġnotice": 3563,
      "urg": 3564,
      "Ġpromot": 3565,
      "Ġadvant": 3566,
      "Ġcele": 3567,
      "ĠChe": 3568,
      "Ġglobal": 3569,
      "Ġnut": 3570,
      "Ġbelie": 3571,
      "ek": 3572,
      "vey": 3573,
      "Ġwaiting": 3574,
      "oes": 3575,
      "mber": 3576,
      "Ġattack": 3577,
      "imin": 3578,
      "Ġbasis": 3579,
      "ground": 3580,
      "Ġdamage": 3581,
      "Ġclinical": 3582,
      "ops": 3583,
      "Ġattempt": 3584,
      "itary": 3585,
      "OS": 3586,
      "Ġchem": 3587,
      "Ġeasier": 3588,
      "Ġpleas": 3589,
      "Ġnearly": 3590,
      "Ġaccur": 3591,
      "Ġuser": 3592,
      "Ġprogress": 3593,
      "ĠChina": 3594,
      "ÂŃ": 3595,
      "tee": 3596,
      "Ġdocument": 3597,
      "Ġwrote": 3598,
      "ino": 3599,
      "56": 3600,
      "ĠCo": 3601,
      "Ġanaly": 3602,
      "Ġwhatever": 3603,
      "IC": 3604,
      "son": 3605,
      "Ġgreen": 3606,
      "ming": 3607,
      "iven": 3608,
      "Ġaim": 3609,
      "rs": 3610,
      "Ġroll": 3611,
      "These": 3612,
      "!!!": 3613,
      "Ġball": 3614,
      "Ġautom": 3615,
      "ii": 3616,
      "ĠOct": 3617,
      "sec": 3618,
      "aled": 3619,
      "Ġlanguage": 3620,
      "ĠDay": 3621,
      "Ġtradition": 3622,
      "abor": 3623,
      "yond": 3624,
      "Ġincludes": 3625,
      "ĠAust": 3626,
      "Ġbecame": 3627,
      "ĠWhile": 3628,
      "Ġconcent": 3629,
      "lection": 3630,
      "ĠPar": 3631,
      "lying": 3632,
      "omp": 3633,
      "Ġcareer": 3634,
      "Ġclos": 3635,
      "Ġkept": 3636,
      "Ġdoll": 3637,
      "vent": 3638,
      "Ġgreater": 3639,
      "ederal": 3640,
      "Ġthoughts": 3641,
      "Ġprograms": 3642,
      "agement": 3643,
      "ength": 3644,
      "oup": 3645,
      "Ġfresh": 3646,
      "atform": 3647,
      "Ġconnect": 3648,
      "Ġliter": 3649,
      "inner": 3650,
      "Ġhundred": 3651,
      "AM": 3652,
      "Ġfully": 3653,
      "era": 3654,
      "Ġarr": 3655,
      "Ġhappens": 3656,
      "Ġeconomic": 3657,
      "Ġsuccessful": 3658,
      "Ġcollect": 3659,
      "Ġincreasing": 3660,
      "Ġneighb": 3661,
      "Ġtast": 3662,
      "Ġforce": 3663,
      "Ġround": 3664,
      "kay": 3665,
      "Ġdiscussion": 3666,
      "Ġhonest": 3667,
      "Ġfem": 3668,
      "Ġproviding": 3669,
      "itude": 3670,
      "iately": 3671,
      "Ġforget": 3672,
      "Ġallowed": 3673,
      "ovember": 3674,
      "Ġlad": 3675,
      "Ġstage": 3676,
      "ĠĠĠĠĠĠĠĠ": 3677,
      "adem": 3678,
      "79": 3679,
      "Ġmiddle": 3680,
      "Ġvariety": 3681,
      "Ġrelease": 3682,
      "ĠSouth": 3683,
      "Ġmovie": 3684,
      "CC": 3685,
      "pen": 3686,
      "Ġbeyond": 3687,
      "ada": 3688,
      "lation": 3689,
      "rest": 3690,
      "Ġbenefit": 3691,
      "ality": 3692,
      "ivil": 3693,
      "Ġfile": 3694,
      "pril": 3695,
      "ana": 3696,
      "Ġmoving": 3697,
      "unt": 3698,
      "Ġbag": 3699,
      "Ġlearned": 3700,
      "Ġheav": 3701,
      "Ġbrother": 3702,
      "no": 3703,
      "Ġpattern": 3704,
      "ĠEven": 3705,
      "ionally": 3706,
      "Ġplant": 3707,
      "Ġanti": 3708,
      "Ġbreat": 3709,
      "ufact": 3710,
      "Ġsteps": 3711,
      "ĠDecember": 3712,
      "ĠOb": 3713,
      "Ġinternational": 3714,
      "Ġstyle": 3715,
      "Ġdiet": 3716,
      "Ġtips": 3717,
      "Un": 3718,
      "Ġcampaign": 3719,
      "Ġahead": 3720,
      "Ġtal": 3721,
      "Ġtools": 3722,
      "Ġimages": 3723,
      "Ġdoubt": 3724,
      "Ġbuilt": 3725,
      "dom": 3726,
      "unk": 3727,
      "Ġwel": 3728,
      "iar": 3729,
      "Ġflu": 3730,
      "Your": 3731,
      "Ġsqu": 3732,
      "ĠSept": 3733,
      "OM": 3734,
      "Ġmax": 3735,
      "itation": 3736,
      "Ġcapt": 3737,
      "formation": 3738,
      "hel": 3739,
      "ext": 3740,
      "Ġmid": 3741,
      "Ġsignificantly": 3742,
      "Ġpurchase": 3743,
      "74": 3744,
      "Ġrelig": 3745,
      "âĢ¦]": 3746,
      "Ġfloor": 3747,
      "Ġmist": 3748,
      "ĠâĪĴ": 3749,
      "Ġgrowing": 3750,
      "Some": 3751,
      "Ġvict": 3752,
      "oday": 3753,
      "Ġhelps": 3754,
      "oming": 3755,
      "ĠTable": 3756,
      "ĠFacebook": 3757,
      "Ġpublished": 3758,
      "Ġthreat": 3759,
      "ĠBar": 3760,
      "Ġ80": 3761,
      "Ġmeant": 3762,
      "hest": 3763,
      "Ġleading": 3764,
      "Ġappropriate": 3765,
      "ipment": 3766,
      "Ġpictures": 3767,
      "ĠRead": 3768,
      "assion": 3769,
      "âĢĿ.": 3770,
      "ender": 3771,
      "Ġrelative": 3772,
      "Ġfant": 3773,
      "Ġpeace": 3774,
      "iber": 3775,
      "Ġorganization": 3776,
      "iated": 3777,
      "ĠMarch": 3778,
      "Ġcompar": 3779,
      "Ġdaughter": 3780,
      "inally": 3781,
      "pective": 3782,
      "Ġsche": 3783,
      "Ġfarm": 3784,
      "Ġopinion": 3785,
      "Ġprotein": 3786,
      "Ġnumbers": 3787,
      "ĠGl": 3788,
      "Ġstrength": 3789,
      "Ġcharge": 3790,
      "Ġ90": 3791,
      "Ġmaterials": 3792,
      "esus": 3793,
      "Ġrules": 3794,
      "ĠDis": 3795,
      "ĠCol": 3796,
      "attle": 3797,
      "pa": 3798,
      "Ġcry": 3799,
      "gn": 3800,
      "amed": 3801,
      "Ġexcept": 3802,
      "ĠPresident": 3803,
      "itter": 3804,
      "Ġregist": 3805,
      "Ġfram": 3806,
      "Ġfinding": 3807,
      "atest": 3808,
      "bed": 3809,
      "raft": 3810,
      "Ġstructure": 3811,
      "Ġvot": 3812,
      "ĠJune": 3813,
      "Ġmentioned": 3814,
      "Ġdisplay": 3815,
      "Ġmeaning": 3816,
      "Ġindepend": 3817,
      "Ġabsolutely": 3818,
      "Ġir": 3819,
      "ĠCor": 3820,
      "Ġworry": 3821,
      "59": 3822,
      "rast": 3823,
      "Ġprinc": 3824,
      "Ġexec": 3825,
      "Ġearlier": 3826,
      "Ġimmediately": 3827,
      "Ġkid": 3828,
      "ubMed": 3829,
      "Ġremind": 3830,
      "Ġprefer": 3831,
      "63": 3832,
      "dule": 3833,
      "olec": 3834,
      "ĠMark": 3835,
      "ĠHouse": 3836,
      "lig": 3837,
      "Ġ2013": 3838,
      "Ġtele": 3839,
      "ĠUK": 3840,
      "Ġaltern": 3841,
      "Ġpray": 3842,
      "Ġextremely": 3843,
      "vere": 3844,
      "Ġacqu": 3845,
      "ĠBo": 3846,
      "word": 3847,
      "Ġintell": 3848,
      "Ex": 3849,
      "Ġspot": 3850,
      "Ġsatisf": 3851,
      "itable": 3852,
      "ĠDes": 3853,
      "ogen": 3854,
      "rif": 3855,
      "73": 3856,
      "Ġ2012": 3857,
      "ĠTV": 3858,
      "Ġsounds": 3859,
      "Ġshoot": 3860,
      "ously": 3861,
      "ĠGood": 3862,
      "idents": 3863,
      "ĠAug": 3864,
      "Ġstraight": 3865,
      "Ġplatform": 3866,
      "Ġblock": 3867,
      "84": 3868,
      ".'": 3869,
      "ĠYes": 3870,
      "Ġmo": 3871,
      "round": 3872,
      "gy": 3873,
      "ĠEnglish": 3874,
      "rial": 3875,
      "AP": 3876,
      "Ġoptim": 3877,
      "Ġmodels": 3878,
      "Ġremain": 3879,
      "Ġcru": 3880,
      "**": 3881,
      "ĠRE": 3882,
      "Ġhelped": 3883,
      "elling": 3884,
      "Ġcollege": 3885,
      "urning": 3886,
      "Ġrap": 3887,
      "Ġresist": 3888,
      "AC": 3889,
      "rief": 3890,
      "order": 3891,
      "Ġdisapp": 3892,
      "using": 3893,
      "Ġfamilies": 3894,
      "Ġnegative": 3895,
      "54": 3896,
      "Ġlatest": 3897,
      "Ġbudget": 3898,
      "fortun": 3899,
      "Ġplayers": 3900,
      "Ġactive": 3901,
      "Ġoverall": 3902,
      "Ġdemand": 3903,
      "ĠUs": 3904,
      "Ġunless": 3905,
      "ĠZh": 3906,
      "icine": 3907,
      "Ġfol": 3908,
      "Ġawesome": 3909,
      "resp": 3910,
      "ti": 3911,
      "iles": 3912,
      "Ġinstit": 3913,
      "ĠSm": 3914,
      "ĠSoci": 3915,
      "Ġessential": 3916,
      "Ġidentify": 3917,
      "ĠHer": 3918,
      "Ġwilling": 3919,
      "Ġsurface": 3920,
      "Ġscient": 3921,
      "rugg": 3922,
      "Ġgirls": 3923,
      "sp": 3924,
      "ĠNorth": 3925,
      "Ġlose": 3926,
      "Ġexpert": 3927,
      "Please": 3928,
      "Ġemployees": 3929,
      "ĠColl": 3930,
      "arden": 3931,
      "Ġobserved": 3932,
      "Ġpassed": 3933,
      "Ġallows": 3934,
      "andom": 3935,
      "Ġfill": 3936,
      "Ġletter": 3937,
      "ctions": 3938,
      "ĠApril": 3939,
      "ĠNovember": 3940,
      "ĠMost": 3941,
      "53": 3942,
      "Ġrepe": 3943,
      "Ġbroad": 3944,
      "Ġrequirements": 3945,
      "Ġolder": 3946,
      "rupt": 3947,
      "Ġstates": 3948,
      "Ġappreciate": 3949,
      "ĠBrit": 3950,
      "Ġclot": 3951,
      "Ġshot": 3952,
      "Ġstatement": 3953,
      "Ġregarding": 3954,
      "rows": 3955,
      "ĠDepartment": 3956,
      "Ġslight": 3957,
      "inary": 3958,
      "Ġded": 3959,
      "orks": 3960,
      "Ġsweet": 3961,
      "udden": 3962,
      "âĪĴ": 3963,
      "Ġult": 3964,
      "Ġperformed": 3965,
      "LE": 3966,
      "Ġdoctor": 3967,
      "Ġhotel": 3968,
      "dro": 3969,
      "eep": 3970,
      "ucle": 3971,
      "Pro": 3972,
      "Ġdeveloped": 3973,
      "Ġsorry": 3974,
      "AD": 3975,
      "01": 3976,
      "ercial": 3977,
      "PubMed": 3978,
      "ulate": 3979,
      "Sh": 3980,
      "idge": 3981,
      "Ġchallenge": 3982,
      "ĠCons": 3983,
      "ocol": 3984,
      "Ġincome": 3985,
      "osp": 3986,
      "Ġlines": 3987,
      "arter": 3988,
      "ĠArt": 3989,
      "Ġmine": 3990,
      "Ġ29": 3991,
      "Ġgoals": 3992,
      "ĠDa": 3993,
      "Ġwatching": 3994,
      "Let": 3995,
      "Then": 3996,
      "Ġden": 3997,
      "Ġspirit": 3998,
      "Ġmanufact": 3999,
      "ĠPre": 4000,
      "ĠOF": 4001,
      "Ġdanger": 4002,
      "Ġbasic": 4003,
      "Ġaspect": 4004,
      "Ġforg": 4005,
      "ĠOctober": 4006,
      "Ġarticles": 4007,
      "mb": 4008,
      "itchen": 4009,
      "Ġdecre": 4010,
      "Ġmoved": 4011,
      "Ġ70": 4012,
      "Ġdeb": 4013,
      "While": 4014,
      "Ġheat": 4015,
      "Ġargu": 4016,
      "Ġculture": 4017,
      "ĠGe": 4018,
      "ĠBi": 4019,
      "pts": 4020,
      "Ġcreating": 4021,
      "____": 4022,
      "Ġtherefore": 4023,
      "Ġbre": 4024,
      "Ġver": 4025,
      "Ġscience": 4026,
      "Ġsympt": 4027,
      "Ġgas": 4028,
      "Ġestabl": 4029,
      "ĠFrom": 4030,
      "ĠSeptember": 4031,
      "Ġstrugg": 4032,
      "Ġpsych": 4033,
      "Ġdat": 4034,
      "fficient": 4035,
      "Ġattract": 4036,
      "Ġsubs": 4037,
      "rated": 4038,
      "nes": 4039,
      "ĠJuly": 4040,
      "Ġcateg": 4041,
      "Ġ2011": 4042,
      "ĠSchool": 4043,
      "Ġstrategy": 4044,
      "ĠMc": 4045,
      "Ġplayed": 4046,
      "Ġenjoyed": 4047,
      "ague": 4048,
      "Ġlocated": 4049,
      "ĠWas": 4050,
      "ĠÃ": 4051,
      "Ġmodern": 4052,
      "ta": 4053,
      "Ġsad": 4054,
      "see": 4055,
      "Ġprimary": 4056,
      "erson": 4057,
      "Ġhous": 4058,
      "Ġsuff": 4059,
      "Ġweather": 4060,
      "Ġign": 4061,
      "Ġrev": 4062,
      "rehen": 4063,
      "ĠRec": 4064,
      "Ġsecret": 4065,
      "Ġled": 4066,
      "Ġresponsible": 4067,
      "uate": 4068,
      "Ġgrand": 4069,
      "Ġconsult": 4070,
      "Ġstock": 4071,
      "Ġgun": 4072,
      "Ġton": 4073,
      "Ġearth": 4074,
      "Ġreality": 4075,
      "OL": 4076,
      "ĠOh": 4077,
      "gg": 4078,
      "ĠGerm": 4079,
      "Ġvalid": 4080,
      "Ġaf": 4081,
      "ears": 4082,
      "Ġ_": 4083,
      "Ġopportunities": 4084,
      "ography": 4085,
      "ĠAfric": 4086,
      "Ġblue": 4087,
      "ET": 4088,
      "Ġacid": 4089,
      "Ġclearly": 4090,
      "ĠÂ£": 4091,
      "Ġwhose": 4092,
      "Ġmental": 4093,
      "ĠPa": 4094,
      "Ġing": 4095,
      "Ġequipment": 4096,
      "Ġnation": 4097,
      "Ġfaith": 4098,
      "Ġchurch": 4099,
      "Ġafford": 4100,
      "ĠWar": 4101,
      "Ġtick": 4102,
      "II": 4103,
      "ris": 4104,
      "ĠAlso": 4105,
      "Ġphoto": 4106,
      "iling": 4107,
      "Ġdegree": 4108,
      "41": 4109,
      "Ġmatch": 4110,
      "PS": 4111,
      "Ġtransfer": 4112,
      "Ġposted": 4113,
      "Ġdownload": 4114,
      "Ġappears": 4115,
      "omen": 4116,
      "Ġrestaur": 4117,
      "uel": 4118,
      "bon": 4119,
      "Ġinvestment": 4120,
      "ĠCount": 4121,
      "Ġinteract": 4122,
      "Ġstatus": 4123,
      "OV": 4124,
      "orge": 4125,
      "Ġincred": 4126,
      "Ġsociety": 4127,
      "ĠJesus": 4128,
      "Ġevening": 4129,
      "Ġdied": 4130,
      "ĠSim": 4131,
      "Ġguid": 4132,
      "Ġasking": 4133,
      "Ġglass": 4134,
      "Ġvehicle": 4135,
      "mar": 4136,
      "ruit": 4137,
      "oma": 4138,
      "92": 4139,
      "Ġbusinesses": 4140,
      "aves": 4141,
      "Ġwood": 4142,
      "Ġwat": 4143,
      "Ġdrop": 4144,
      "Ġreflect": 4145,
      "Ġcit": 4146,
      "ournal": 4147,
      "Ġformer": 4148,
      "Ġlength": 4149,
      "pm": 4150,
      "Ġcollection": 4151,
      "Ġcoff": 4152,
      "Ġpresence": 4153,
      "ĠEl": 4154,
      "ĠðŁĻ": 4155,
      "Ġpredict": 4156,
      "Ġoccas": 4157,
      "Ġbottom": 4158,
      "Ġsetting": 4159,
      "Ġdevice": 4160,
      "ĠHigh": 4161,
      "Ġprepared": 4162,
      "Ġschools": 4163,
      "anging": 4164,
      "ĠLord": 4165,
      "Ġdigital": 4166,
      "Ġactual": 4167,
      "Ġtren": 4168,
      "apan": 4169,
      "ĠChar": 4170,
      "Ġexplain": 4171,
      "Ġtrade": 4172,
      "Ġserve": 4173,
      "Any": 4174,
      "ocks": 4175,
      "83": 4176,
      "new": 4177,
      "Ġdriving": 4178,
      "Ġspread": 4179,
      "Ġbehavior": 4180,
      "ĠAugust": 4181,
      "Ġotherwise": 4182,
      "iled": 4183,
      "Ġrealize": 4184,
      "ĠFirst": 4185,
      "Ġsupposed": 4186,
      "Ġgold": 4187,
      "Ġkeeping": 4188,
      "Ġcash": 4189,
      "Ġcaused": 4190,
      "ĠTO": 4191,
      "Ġdry": 4192,
      "Ġcritical": 4193,
      "Ġtotally": 4194,
      "Ġsmart": 4195,
      "friend": 4196,
      "Ġmachine": 4197,
      "Ġharm": 4198,
      "Ġguide": 4199,
      "Ġgenerally": 4200,
      "Ġdescribed": 4201,
      "ĠVal": 4202,
      "ccording": 4203,
      "Ġepis": 4204,
      "Ġshared": 4205,
      "Every": 4206,
      "terday": 4207,
      "ĠInternational": 4208,
      "Ġadop": 4209,
      "Ġexhib": 4210,
      "cast": 4211,
      "Ġbill": 4212,
      "ĠHave": 4213,
      "Ġrace": 4214,
      "Ġcomfortable": 4215,
      "Ġrelevant": 4216,
      "iant": 4217,
      "Ġox": 4218,
      "ION": 4219,
      "ros": 4220,
      "ĠHar": 4221,
      "Ġrain": 4222,
      "Ġprices": 4223,
      "la": 4224,
      "ĠKing": 4225,
      "Ġclub": 4226,
      "Ġinstruct": 4227,
      "Ġcenter": 4228,
      "Ġprin": 4229,
      "Ġworse": 4230,
      "62": 4231,
      "Ġpowerful": 4232,
      "Ġwindow": 4233,
      "Ġstick": 4234,
      "ken": 4235,
      "ĠSte": 4236,
      "Ġhelping": 4237,
      "Ġbath": 4238,
      "Ġmiles": 4239,
      "Ġ31": 4240,
      "Ġtemperature": 4241,
      "Ġmobile": 4242,
      "clus": 4243,
      "Ġcontinu": 4244,
      "Ġoffered": 4245,
      "Ġdecide": 4246,
      "Ġund": 4247,
      "overy": 4248,
      "Ġorganiz": 4249,
      "icip": 4250,
      "Ġ2010": 4251,
      "down": 4252,
      "ĠMany": 4253,
      "Ġcommunic": 4254,
      "ĠGreat": 4255,
      "Ġefforts": 4256,
      "Ġtraffic": 4257,
      "\",": 4258,
      "Ġcompon": 4259,
      "osure": 4260,
      "acity": 4261,
      "Ġscen": 4262,
      "Ġexcited": 4263,
      "ĠEar": 4264,
      "Ġfirm": 4265,
      "Ġdinner": 4266,
      "Ġwhom": 4267,
      "Ġtransport": 4268,
      "force": 4269,
      "Ġjobs": 4270,
      "istry": 4271,
      "Ġowners": 4272,
      "well": 4273,
      "ĠIN": 4274,
      "71": 4275,
      "Ġband": 4276,
      "ube": 4277,
      "aven": 4278,
      "was": 4279,
      "Ġeating": 4280,
      "ĠFriday": 4281,
      "However": 4282,
      "Ġadvantage": 4283,
      "Ġcelebr": 4284,
      "Ġreports": 4285,
      "iques": 4286,
      "Ġputting": 4287,
      "Ġpresident": 4288,
      "acing": 4289,
      "Ġadjust": 4290,
      "Ġmount": 4291,
      "Ġgift": 4292,
      "ĠTrans": 4293,
      "Re": 4294,
      "apter": 4295,
      "key": 4296,
      "ĠAustral": 4297,
      "Ġfinished": 4298,
      "cribe": 4299,
      "Ġdress": 4300,
      "Ġspect": 4301,
      "related": 4302,
      "Ġcapital": 4303,
      "Ġcatch": 4304,
      "ĠðŁĻĤ": 4305,
      "Ġquiet": 4306,
      "ressive": 4307,
      "Ġshowing": 4308,
      "Ġrock": 4309,
      "ĠOffic": 4310,
      "Ġdirection": 4311,
      "Ġmilitary": 4312,
      "ĠMon": 4313,
      "Ġminute": 4314,
      "izes": 4315,
      "Of": 4316,
      "Ġsudden": 4317,
      "Ġtrouble": 4318,
      "ault": 4319,
      "Ġregion": 4320,
      "Ġdeliver": 4321,
      "ica": 4322,
      "Ġthus": 4323,
      "Ġreleased": 4324,
      "encies": 4325,
      "riage": 4326,
      "],": 4327,
      "Ġbusy": 4328,
      "ded": 4329,
      "Ġtoward": 4330,
      "Ġpros": 4331,
      "enses": 4332,
      "Ġrelax": 4333,
      "Ġexperienced": 4334,
      "Ġlovely": 4335,
      "Ġpresented": 4336,
      "72": 4337,
      "ĠEm": 4338,
      "Can": 4339,
      "place": 4340,
      "Ġsitting": 4341,
      "Ġeth": 4342,
      "ivery": 4343,
      "Ġdiscovered": 4344,
      "dy": 4345,
      "ooking": 4346,
      "ĠYOU": 4347,
      "Ġchallenges": 4348,
      "ĠSci": 4349,
      "ae": 4350,
      "ĠCour": 4351,
      "Ġtherapy": 4352,
      "Ġproperties": 4353,
      "Ġcandid": 4354,
      "Ġarch": 4355,
      "ĠFeb": 4356,
      "MS": 4357,
      "Ġjourney": 4358,
      "Ġrare": 4359,
      "Ġcircum": 4360,
      "ils": 4361,
      "Ġkitchen": 4362,
      "aries": 4363,
      "Ġplenty": 4364,
      "82": 4365,
      "Ġadvert": 4366,
      "Ġmut": 4367,
      "Ġestim": 4368,
      "Ġbought": 4369,
      "ĠPark": 4370,
      "Ġsust": 4371,
      "Ġfactor": 4372,
      "Ġwed": 4373,
      "Ġimagine": 4374,
      "icks": 4375,
      "Ġemb": 4376,
      "Ġfan": 4377,
      "Ġcoffee": 4378,
      "change": 4379,
      "Ġcert": 4380,
      "isions": 4381,
      "Ġdetermine": 4382,
      "rate": 4383,
      "coh": 4384,
      "Ġinfluence": 4385,
      "Ġ|": 4386,
      "arant": 4387,
      "52": 4388,
      "Ġcontinued": 4389,
      "entially": 4390,
      "Ġwild": 4391,
      "Ġapplications": 4392,
      "Ġhom": 4393,
      "Ġmort": 4394,
      "Ġtiss": 4395,
      "ux": 4396,
      "ĠSunday": 4397,
      "oles": 4398,
      "Ġspecies": 4399,
      "ĠCommun": 4400,
      "Ġbalance": 4401,
      "comes": 4402,
      "iny": 4403,
      "Ġmouth": 4404,
      "TH": 4405,
      "Ġpages": 4406,
      "Ġworkers": 4407,
      "Ġbillion": 4408,
      "ara": 4409,
      "Ġquant": 4410,
      "hern": 4411,
      "aturday": 4412,
      "yt": 4413,
      "anted": 4414,
      "Ġsymptoms": 4415,
      "Ġcorpor": 4416,
      "Ġgar": 4417,
      "ĠJapan": 4418,
      "ĠMaybe": 4419,
      "cent": 4420,
      "ĠInternet": 4421,
      "ray": 4422,
      "Ġeight": 4423,
      "Ġpet": 4424,
      "Ġpoly": 4425,
      "Ġcovered": 4426,
      "Ġproduce": 4427,
      "âĢĺ": 4428,
      "eration": 4429,
      "Ġsolutions": 4430,
      "Ġparticipants": 4431,
      "Ġdie": 4432,
      "Ġvac": 4433,
      "Ġsequ": 4434,
      "Ġesc": 4435,
      "part": 4436,
      "By": 4437,
      "usiness": 4438,
      "Ġeconomy": 4439,
      "iable": 4440,
      "Ġwalking": 4441,
      "Ġsamples": 4442,
      "Ġpayment": 4443,
      "Ġauthors": 4444,
      "icious": 4445,
      "ĠData": 4446,
      "Ġscore": 4447,
      "Ġleaving": 4448,
      "ondon": 4449,
      "Ġcivil": 4450,
      "ĠGet": 4451,
      "ĠPeople": 4452,
      "Ġsale": 4453,
      "ager": 4454,
      "Ġvote": 4455,
      "ĠRo": 4456,
      "Ġpartners": 4457,
      "Ġborn": 4458,
      "Ġarm": 4459,
      "ancer": 4460,
      "Ġpregn": 4461,
      "ancing": 4462,
      "Ġdecl": 4463,
      "Ġexisting": 4464,
      "Ġ2020": 4465,
      "Ġhighest": 4466,
      "Ġaudience": 4467,
      "che": 4468,
      "Ġlarger": 4469,
      "ĠCD": 4470,
      "amin": 4471,
      "Ġrandom": 4472,
      "ĠResearch": 4473,
      "omb": 4474,
      "Ġpool": 4475,
      "fortunately": 4476,
      "Ġmanner": 4477,
      "raid": 4478,
      "acters": 4479,
      "Ġthrow": 4480,
      "ologies": 4481,
      "Ġwaste": 4482,
      "Ġmission": 4483,
      "Ġcreative": 4484,
      "Ġclient": 4485,
      "Ġrob": 4486,
      "IV": 4487,
      "ams": 4488,
      "Ġfing": 4489,
      "ran": 4490,
      "Ġcommunication": 4491,
      "ĠWest": 4492,
      "Ġdifferences": 4493,
      "Ġtraditional": 4494,
      "Ġextend": 4495,
      "Ġconsistent": 4496,
      "ipped": 4497,
      "Ġtrial": 4498,
      "Ġfantastic": 4499,
      "onday": 4500,
      "ruary": 4501,
      "ĠBecause": 4502,
      "ky": 4503,
      "Ġcontain": 4504,
      "Ġ2019": 4505,
      "Ġstreet": 4506,
      "Ġappoint": 4507,
      "Ġsupply": 4508,
      "Ġsmile": 4509,
      "uman": 4510,
      "uable": 4511,
      "Ġwelcome": 4512,
      "amic": 4513,
      "Ġsample": 4514,
      "Ġmemory": 4515,
      "Ġfab": 4516,
      "inct": 4517,
      "SS": 4518,
      "ĠRed": 4519,
      "itute": 4520,
      "Ġ2022": 4521,
      "Ġpromis": 4522,
      "Ġfriendly": 4523,
      "Ġanimals": 4524,
      "ums": 4525,
      "Ã©": 4526,
      "Ġseven": 4527,
      "Ġmajority": 4528,
      "Ġconversation": 4529,
      "fast": 4530,
      "Ġanyway": 4531,
      "Ġspending": 4532,
      "Ġcommercial": 4533,
      "ĠCenter": 4534,
      "ĠFig": 4535,
      "ifically": 4536,
      "ĠPol": 4537,
      "Ġfeels": 4538,
      "Ġcomplic": 4539,
      "OW": 4540,
      "Ġlinks": 4541,
      "Ġinitial": 4542,
      "ĠCoun": 4543,
      "ours": 4544,
      "ĠST": 4545,
      "03": 4546,
      "Ġ2023": 4547,
      "Ġopened": 4548,
      "ĠRepublic": 4549,
      "Ġtitle": 4550,
      "Ġtreated": 4551,
      "osition": 4552,
      "ĠOther": 4553,
      "Ġfinish": 4554,
      "respond": 4555,
      "board": 4556,
      "Ġreached": 4557,
      "Ġjump": 4558,
      "aint": 4559,
      "Ġachie": 4560,
      "gers": 4561,
      "ĠDem": 4562,
      "ĠEuropean": 4563,
      "Ġcharacters": 4564,
      "Ġtelling": 4565,
      "di": 4566,
      "Ġmill": 4567,
      "this": 4568,
      "61": 4569,
      "Figure": 4570,
      "Ġhearing": 4571,
      "Ġ45": 4572,
      "Are": 4573,
      "bit": 4574,
      "Ġparties": 4575,
      "ĠSw": 4576,
      "Ġpow": 4577,
      "Ġaccident": 4578,
      "uild": 4579,
      "ossible": 4580,
      "Ġpartner": 4581,
      "Ġforeign": 4582,
      "Ġended": 4583,
      "Ġestablished": 4584,
      "Ġcards": 4585,
      "cell": 4586,
      "Ġholiday": 4587,
      "Ġdouble": 4588,
      "Ġinjury": 4589,
      "Ġremains": 4590,
      "âĢ¦.": 4591,
      "under": 4592,
      "Ġplaced": 4593,
      "Ġidentified": 4594,
      "fe": 4595,
      "unction": 4596,
      "Ġmur": 4597,
      "Ġ2021": 4598,
      "Ġfish": 4599,
      "ometimes": 4600,
      "Ġplayer": 4601,
      "Ġdistance": 4602,
      "Ġrequires": 4603,
      "Ġapprox": 4604,
      "Ġprotection": 4605,
      "Ġupdate": 4606,
      "Ġpossibly": 4607,
      "asts": 4608,
      "ĠAM": 4609,
      "iding": 4610,
      "ĠAND": 4611,
      "ĠSE": 4612,
      "Ġcamera": 4613,
      "Ġdoi": 4614,
      "91": 4615,
      "Ġdetermined": 4616,
      "utive": 4617,
      "Ġdut": 4618,
      "ĠSaturday": 4619,
      "Ġsem": 4620,
      "Ġmetab": 4621,
      "ĠAng": 4622,
      "Ġrelationships": 4623,
      "Ġreplace": 4624,
      "ij": 4625,
      "Ġprofession": 4626,
      "Ġreduced": 4627,
      "Ġnor": 4628,
      "Ġstopped": 4629,
      "men": 4630,
      "Ġonto": 4631,
      "Ġcomprehen": 4632,
      "Ġconducted": 4633,
      "Ġtesting": 4634,
      "Ġsen": 4635,
      "Ġgain": 4636,
      "Ġutil": 4637,
      "rolled": 4638,
      "Ġfolks": 4639,
      "ĠTrump": 4640,
      "Ġtask": 4641,
      "Ġrule": 4642,
      "know": 4643,
      "ĠWho": 4644,
      "Ġvir": 4645,
      "001": 4646,
      "Ġobtained": 4647,
      "ibrary": 4648,
      "Ġsurround": 4649,
      "Ġwww": 4650,
      "kn": 4651,
      "Ġhell": 4652,
      "Ġpassion": 4653,
      "Ġsexual": 4654,
      "Ġkilled": 4655,
      "Ġmanaged": 4656,
      "duc": 4657,
      "Ġconcept": 4658,
      "Ġtechniques": 4659,
      "Ġefficient": 4660,
      "onna": 4661,
      "orage": 4662,
      "Ġuses": 4663,
      "Ġprincip": 4664,
      "Ġgarden": 4665,
      "Ġstrategies": 4666,
      "Ġtomorrow": 4667,
      "aker": 4668,
      "Ġdelivery": 4669,
      "Ġmagn": 4670,
      "ste": 4671,
      "ĠLondon": 4672,
      "appy": 4673,
      "Ġnames": 4674,
      "standing": 4675,
      "Ġfindings": 4676,
      "Ġlaws": 4677,
      "Ġcitiz": 4678,
      "Ġheavy": 4679,
      "Ġbiggest": 4680,
      "Ġassum": 4681,
      "night": 4682,
      "going": 4683,
      "she": 4684,
      "Ġbuying": 4685,
      "Ġhistor": 4686,
      "ĠRuss": 4687,
      "Ġcrow": 4688,
      "coming": 4689,
      "ĠClin": 4690,
      "Ġlived": 4691,
      "Ġpieces": 4692,
      "Ġcompleted": 4693,
      "Ġequal": 4694,
      "Ġafraid": 4695,
      "Ġconnection": 4696,
      "Ġyours": 4697,
      "ĠEd": 4698,
      "Ġreaders": 4699,
      "Ġyesterday": 4700,
      "ĠTechn": 4701,
      "Ġinfl": 4702,
      "Ġherself": 4703,
      "ashion": 4704,
      "ĠON": 4705,
      "alysis": 4706,
      "May": 4707,
      "Ġannual": 4708,
      "Ġcast": 4709,
      "uthor": 4710,
      "Ġdevices": 4711,
      "Ġsurprised": 4712,
      "Ġcup": 4713,
      "ero": 4714,
      "Ġdecisions": 4715,
      "Ġboys": 4716,
      "Ġexpensive": 4717,
      "Ġsurgery": 4718,
      "Ġdiscover": 4719,
      "Ġparam": 4720,
      "ĠUSA": 4721,
      "rench": 4722,
      "house": 4723,
      "Ġhab": 4724,
      "Ġindeed": 4725,
      "Ġplus": 4726,
      "ĠInc": 4727,
      "Ġpm": 4728,
      "ĠFl": 4729,
      "oney": 4730,
      "Ġhate": 4731,
      "Ġtree": 4732,
      "IP": 4733,
      "Ġmovement": 4734,
      "ses": 4735,
      "roph": 4736,
      "Ġknowing": 4737,
      "Ġwinter": 4738,
      "Ġactions": 4739,
      "iat": 4740,
      "Ġminimum": 4741,
      "Ġcalls": 4742,
      "Ġbow": 4743,
      "ĠWang": 4744,
      "ensity": 4745,
      "iforn": 4746,
      "ĠCong": 4747,
      "eds": 4748,
      "Ġcapacity": 4749,
      "ĠMonday": 4750,
      "ĠNOT": 4751,
      "Ġbecoming": 4752,
      "Ġsea": 4753,
      "ĠFebruary": 4754,
      "Ġ2009": 4755,
      "Ġcaught": 4756,
      "!)": 4757,
      "Ġsources": 4758,
      "Ġclaims": 4759,
      "ĠMus": 4760,
      "wide": 4761,
      "Ġfailure": 4762,
      "unte": 4763,
      "Ġprem": 4764,
      "ĠLove": 4765,
      "eters": 4766,
      "51": 4767,
      "Ġstanding": 4768,
      "Ġreact": 4769,
      "Ġvictim": 4770,
      "Ġforms": 4771,
      "isation": 4772,
      "Ġalb": 4773,
      "Ġscene": 4774,
      "Ġadding": 4775,
      "imen": 4776,
      "ani": 4777,
      "Ġvill": 4778,
      "ament": 4779,
      "Ġdeveloping": 4780,
      "ael": 4781,
      "ĠFood": 4782,
      "Ġcarried": 4783,
      "eline": 4784,
      "Ġclosed": 4785,
      "Ġadvance": 4786,
      "rible": 4787,
      "Ġ2008": 4788,
      "Hey": 4789,
      "Ġintellig": 4790,
      "Ġcircumst": 4791,
      "ĠIS": 4792,
      "ĠSupp": 4793,
      "ĠPM": 4794,
      "Ġgovern": 4795,
      "rim": 4796,
      "Ġlicense": 4797,
      "Ġder": 4798,
      "Ġmostly": 4799,
      "isms": 4800,
      "ference": 4801,
      "Ġagreement": 4802,
      "Ġviews": 4803,
      "amb": 4804,
      "Ġourselves": 4805,
      "Ġapplied": 4806,
      "Have": 4807,
      "Fig": 4808,
      "Ġguarant": 4809,
      "Ġimportance": 4810,
      "Ġice": 4811,
      "Ġran": 4812,
      "alt": 4813,
      "Ġresponsibility": 4814,
      "Ġexpress": 4815,
      "Ġbecomes": 4816,
      "Ġmissing": 4817,
      "ĠUp": 4818,
      "can": 4819,
      "CA": 4820,
      "Ġdrugs": 4821,
      "ĠOut": 4822,
      "fit": 4823,
      "Ġopening": 4824,
      "Ġsoul": 4825,
      "estern": 4826,
      "Ġreference": 4827,
      "Ġmail": 4828,
      "ello": 4829,
      "ĠIT": 4830,
      "poses": 4831,
      "free": 4832,
      "Ġfederal": 4833,
      "Ġsitu": 4834,
      "Ġdespite": 4835,
      "Ġteaching": 4836,
      "ĠMich": 4837,
      "Ġur": 4838,
      "ifornia": 4839,
      "Ġnucle": 4840,
      "char": 4841,
      "ĠSub": 4842,
      "Ġdebt": 4843,
      "Ġhandle": 4844,
      "upp": 4845,
      "Ġindependent": 4846,
      "Ġnumer": 4847,
      "Ph": 4848,
      "Ġstandards": 4849,
      "Ġanx": 4850,
      "log": 4851,
      "Ġsick": 4852,
      "Ġshut": 4853,
      "Ġta": 4854,
      "ipping": 4855,
      "Ġvisual": 4856,
      "iff": 4857,
      "Ġ;": 4858,
      "cont": 4859,
      "Ġsnow": 4860,
      "Ġcars": 4861,
      "Ġthousands": 4862,
      "Ġchanging": 4863,
      "ĠSan": 4864,
      "imb": 4865,
      "Ġcoverage": 4866,
      "ĠAssoci": 4867,
      "ront": 4868,
      "hether": 4869,
      "Ġbrief": 4870,
      "Ġhar": 4871,
      "CH": 4872,
      "uration": 4873,
      "atio": 4874,
      "Ġoffering": 4875,
      "ĠNet": 4876,
      "Ġtechnical": 4877,
      "Ġpolicies": 4878,
      "ĠLife": 4879,
      "Ġnone": 4880,
      "odes": 4881,
      "erences": 4882,
      "ĠSee": 4883,
      "Ġentertain": 4884,
      "Ġconcerned": 4885,
      "Ġsolid": 4886,
      "Ġplants": 4887,
      "Ġrich": 4888,
      "cohol": 4889,
      "OD": 4890,
      "inated": 4891,
      "roy": 4892,
      "Ġconstruction": 4893,
      "ternal": 4894,
      "ĠCanada": 4895,
      "Ġreturned": 4896,
      "Ġcheap": 4897,
      "ula": 4898,
      "Ġpun": 4899,
      "Ġowner": 4900,
      "Ġadults": 4901,
      "igned": 4902,
      "Ġfunny": 4903,
      "Ġsister": 4904,
      "Ġexciting": 4905,
      "ĠBro": 4906,
      "Ġproud": 4907,
      "rees": 4908,
      "Ġban": 4909,
      "Ġfilled": 4910,
      "omy": 4911,
      "noon": 4912,
      "Ġcentury": 4913,
      "venue": 4914,
      ".-": 4915,
      "eria": 4916,
      "Ġsession": 4917,
      "Ġselection": 4918,
      "Ġhomes": 4919,
      "ĠSam": 4920,
      "Ġwis": 4921,
      "ht": 4922,
      "ĠAlthough": 4923,
      "ulous": 4924,
      "ĠMake": 4925,
      "ĠSch": 4926,
      "atically": 4927,
      "tion": 4928,
      "Ġunit": 4929,
      "Ġseek": 4930,
      "Ġteams": 4931,
      "Ġmarried": 4932,
      "Ġnoticed": 4933,
      "Ġhappening": 4934,
      "ĠMod": 4935,
      "Ġbackground": 4936,
      "iveness": 4937,
      "rael": 4938,
      "ĠLike": 4939,
      "ĠChild": 4940,
      "Ġserved": 4941,
      "Ġmeasures": 4942,
      "Ġoutcomes": 4943,
      "Ġ@": 4944,
      "Ġpaying": 4945,
      "Ġdistribution": 4946,
      "Ġconsequ": 4947,
      "rad": 4948,
      "Ġsevere": 4949,
      "Ġmaster": 4950,
      "imal": 4951,
      "Ġfemale": 4952,
      "Ġraised": 4953,
      "mg": 4954,
      "Ġprocesses": 4955,
      "Ġvideos": 4956,
      "eech": 4957,
      "ĠScience": 4958,
      "ait": 4959,
      "Ġride": 4960,
      "Ġadministration": 4961,
      ",'": 4962,
      "Ġideal": 4963,
      "Ġship": 4964,
      "Ġhurt": 4965,
      "ompl": 4966,
      "gin": 4967,
      "Ġwedding": 4968,
      "Ġdollars": 4969,
      "Ġelectric": 4970,
      "arently": 4971,
      "Ġanimal": 4972,
      "Ġrecipe": 4973,
      "Ġsmaller": 4974,
      "Also": 4975,
      "Ġusual": 4976,
      "ico": 4977,
      "ighten": 4978,
      "IG": 4979,
      "Ġdesire": 4980,
      "phone": 4981,
      "Ġincor": 4982,
      "02": 4983,
      "olf": 4984,
      "Ġalternative": 4985,
      "Ġlunch": 4986,
      "Ġchann": 4987,
      "Ġconflic": 4988,
      "Ġvaluable": 4989,
      "eut": 4990,
      "ham": 4991,
      "Ġteacher": 4992,
      "Ġschedule": 4993,
      "Ġmotiv": 4994,
      "........": 4995,
      "Ġproposed": 4996,
      "Ġcombination": 4997,
      "odies": 4998,
      "ĠLaw": 4999,
      "Ġfreed": 5000,
      "inn": 5001,
      "Ġexplore": 5002,
      "Ġfans": 5003,
      "Ġcounter": 5004,
      "Or": 5005,
      "Ġthread": 5006,
      "Ġvirt": 5007,
      "Ġwalked": 5008,
      "iest": 5009,
      "Ġexpand": 5010,
      "Ġmi": 5011,
      "Me": 5012,
      "they": 5013,
      "Ġpoll": 5014,
      "ĠSystem": 5015,
      "rant": 5016,
      "eting": 5017,
      "itness": 5018,
      "Ġanywhere": 5019,
      "Ġspeaking": 5020,
      "Ġenvironmental": 5021,
      "ĠSince": 5022,
      "Ġconfidence": 5023,
      "Ġadapt": 5024,
      "Ġweap": 5025,
      "works": 5026,
      "Ġobvious": 5027,
      "Ġslightly": 5028,
      "Ġproperly": 5029,
      "Ġapart": 5030,
      "Ġarms": 5031,
      "Ġtaste": 5032,
      "81": 5033,
      "ĠPC": 5034,
      "Ġshopping": 5035,
      "icated": 5036,
      "Ġholding": 5037,
      "Ġpractices": 5038,
      "Ġliked": 5039,
      "Ġcontext": 5040,
      "Ġhoping": 5041,
      "ĠOver": 5042,
      "Ġcommand": 5043,
      "ĠJournal": 5044,
      "Ġremove": 5045,
      "Ġweak": 5046,
      "Ġearn": 5047,
      "Ġcorner": 5048,
      "ooth": 5049,
      "500": 5050,
      "Ġ>": 5051,
      "Ġdear": 5052,
      "aid": 5053,
      "ĠCouncil": 5054,
      "Ġcrazy": 5055,
      "ented": 5056,
      "04": 5057,
      "Ġagg": 5058,
      "Ġbutton": 5059,
      "Ġscale": 5060,
      "osen": 5061,
      "Ġshape": 5062,
      "ĠGovernment": 5063,
      "Ġfuck": 5064,
      "Once": 5065,
      "Ġconsidering": 5066,
      "Ġclasses": 5067,
      "clusion": 5068,
      "rab": 5069,
      "Ġdriver": 5070,
      "OP": 5071,
      "hington": 5072,
      "BC": 5073,
      "ĠCalifornia": 5074,
      "Ġchemical": 5075,
      "Ġorganizations": 5076,
      "Ġselected": 5077,
      "Ġtests": 5078,
      "Ġseriously": 5079,
      "Ġenem": 5080,
      "arian": 5081,
      "ĠCell": 5082,
      "Ġagreed": 5083,
      "Ġvisiting": 5084,
      "ĠSen": 5085,
      "Ġcentral": 5086,
      "Ġreplied": 5087,
      "Ġpreviously": 5088,
      "Ġcalling": 5089,
      "Ġfamiliar": 5090,
      "Ġseparate": 5091,
      "âĢĿ,": 5092,
      "ĠWhite": 5093,
      "Ġassessment": 5094,
      "Ġcommunities": 5095,
      "Ġbless": 5096,
      "rt": 5097,
      "Ġconven": 5098,
      "Ġ33": 5099,
      "Ġrise": 5100,
      "Ġproduced": 5101,
      "Ġstation": 5102,
      "Ġinterests": 5103,
      "Ġimpossible": 5104,
      "ĠProg": 5105,
      "IR": 5106,
      "ĠDirect": 5107,
      "Ġaccompl": 5108,
      "Ġelements": 5109,
      "Ġconce": 5110,
      "Ġrevealed": 5111,
      "ission": 5112,
      "gment": 5113,
      "AY": 5114,
      "Ġteach": 5115,
      "Ġfocused": 5116,
      "inding": 5117,
      "isted": 5118,
      "Ġjournal": 5119,
      "Good": 5120,
      "Ġstood": 5121,
      "ĠWhere": 5122,
      "Ġgene": 5123,
      "Ġ32": 5124,
      "Ġfollows": 5125,
      "iration": 5126,
      "Ġclimate": 5127,
      "Ġepisode": 5128,
      "ype": 5129,
      "ĠMicro": 5130,
      "agon": 5131,
      "Ġafternoon": 5132,
      "ĠCre": 5133,
      "ĠBoard": 5134,
      "ĠTime": 5135,
      "Ġstarts": 5136,
      "Ġsector": 5137,
      "Ġproceed": 5138,
      "ĠCourt": 5139,
      "Ġsurvey": 5140,
      "EE": 5141,
      "oking": 5142,
      "Ġeventually": 5143,
      "known": 5144,
      "Ġstorage": 5145,
      "raction": 5146,
      "Ġfunds": 5147,
      "Ġenhance": 5148,
      "anch": 5149,
      "Ġsomewhere": 5150,
      "Ġcauses": 5151,
      "Ġassistance": 5152,
      "Ġmolec": 5153,
      "ald": 5154,
      "Ġdefined": 5155,
      "roid": 5156,
      "Ġconcerns": 5157,
      "Ġlegis": 5158,
      "Ad": 5159,
      "Ġvisitors": 5160,
      "ĠInter": 5161,
      "Ġmaximum": 5162,
      "inese": 5163,
      "Ġmotor": 5164,
      "Ġpus": 5165,
      "Ġreviews": 5166,
      "ipp": 5167,
      "Ġfeedback": 5168,
      "rd": 5169,
      "Ġanswered": 5170,
      "Ġphase": 5171,
      "Ġfiles": 5172,
      "Ġbroken": 5173,
      "Ġarrived": 5174,
      "ĠOnce": 5175,
      "Ġmal": 5176,
      "Ġacadem": 5177,
      "Ġ95": 5178,
      "Ġrapid": 5179,
      "Ġsustain": 5180,
      "Ġparent": 5181,
      "IM": 5182,
      "Ġgonna": 5183,
      "Ġmedium": 5184,
      "Cl": 5185,
      "Ġsuspect": 5186,
      "Ġprison": 5187,
      "ĠChem": 5188,
      "Ġfunding": 5189,
      "Ġpurposes": 5190,
      "Ġtea": 5191,
      "Ġfacilities": 5192,
      "From": 5193,
      "Ġestablish": 5194,
      "tenance": 5195,
      "ĠPost": 5196,
      "Ġmatters": 5197,
      "Ġteachers": 5198,
      "Ġbeat": 5199,
      "Ġconfident": 5200,
      "ĠGeneral": 5201,
      "ĠObama": 5202,
      "iers": 5203,
      "Ġbelief": 5204,
      "Ġment": 5205,
      "Ġge": 5206,
      "ca": 5207,
      "Ġjoy": 5208,
      "abilities": 5209,
      "Ġ37": 5210,
      "Ġcircumstances": 5211,
      "ĠTake": 5212,
      "rapy": 5213,
      "velopment": 5214,
      "Ġbrows": 5215,
      "Ġbound": 5216,
      "oses": 5217,
      "Ġflex": 5218,
      "Ġprint": 5219,
      "Ġlisted": 5220,
      "ĠIndia": 5221,
      "Ġreaction": 5222,
      "Ġmissed": 5223,
      "Ġmarriage": 5224,
      "Ġentry": 5225,
      "Ġinstance": 5226,
      "Ġleaves": 5227,
      "Ġsecure": 5228,
      "Ġerror": 5229,
      "US": 5230,
      "Ġselling": 5231,
      "Ġbookmark": 5232,
      "onn": 5233,
      "Ġraise": 5234,
      "Ġvit": 5235,
      "othe": 5236,
      "Ġgeneration": 5237,
      "Ġpropos": 5238,
      "Ġgenes": 5239,
      "Ġvision": 5240,
      "Ġshouldn": 5241,
      "Ġrecords": 5242,
      "Ġbirthday": 5243,
      "Ġdyn": 5244,
      "Ġ36": 5245,
      "ĠAddit": 5246,
      "Ġast": 5247,
      "Ġlabor": 5248,
      "ĠRem": 5249,
      "Ġstated": 5250,
      "EM": 5251,
      "Ġrecommended": 5252,
      "ĠMor": 5253,
      "ĠRef": 5254,
      "Ġtwice": 5255,
      "icing": 5256,
      "Ġlargest": 5257,
      "Ġlock": 5258,
      "Ġfixed": 5259,
      "cks": 5260,
      "Ġapproximately": 5261,
      "ett": 5262,
      "ĠWork": 5263,
      "Ġwondering": 5264,
      "iment": 5265,
      "icken": 5266,
      "Ġvolunte": 5267,
      "UT": 5268,
      "Ġpair": 5269,
      "Ġresol": 5270,
      "ĠBlack": 5271,
      "Ġgraph": 5272,
      "Ġmale": 5273,
      "Ġvolume": 5274,
      "umn": 5275,
      "08": 5276,
      "Ġsurprise": 5277,
      "Ġrooms": 5278,
      "Ġinflamm": 5279,
      "Ġvent": 5280,
      "Ġreasonable": 5281,
      "cons": 5282,
      "Ġinvestigation": 5283,
      "icians": 5284,
      "ĠService": 5285,
      "state": 5286,
      "uries": 5287,
      "Ġrespectively": 5288,
      "Ġhydro": 5289,
      "cious": 5290,
      "Ġinterp": 5291,
      "Ġadvent": 5292,
      "orney": 5293,
      "Ġspring": 5294,
      "Ġspl": 5295,
      "ĠFOR": 5296,
      "ilit": 5297,
      "Ġbond": 5298,
      "Ġimproved": 5299,
      "ocal": 5300,
      "ĠBen": 5301,
      "Ġemp": 5302,
      "asy": 5303,
      "Ġphen": 5304,
      "Ġ?": 5305,
      "Even": 5306,
      "Ġ48": 5307,
      "ĠIsrael": 5308,
      "Ġdepartment": 5309,
      "Ġsports": 5310,
      "Ġleads": 5311,
      "htt": 5312,
      "ĠCare": 5313,
      "ĠWed": 5314,
      "Ġappeared": 5315,
      "Ġsearching": 5316,
      "Yeah": 5317,
      "hips": 5318,
      "asis": 5319,
      "ĠSpec": 5320,
      "Ġbattle": 5321,
      "Ġentirely": 5322,
      "Ġfavour": 5323,
      "there": 5324,
      "ĠAv": 5325,
      "ida": 5326,
      "Ġkick": 5327,
      "ĠAnn": 5328,
      "Ġencourage": 5329,
      "Ġannounced": 5330,
      "Ġchair": 5331,
      "Ġtough": 5332,
      "Ġminor": 5333,
      "Ġcris": 5334,
      "ĠHol": 5335,
      "utor": 5336,
      "Ġguests": 5337,
      "itis": 5338,
      "Ġsigns": 5339,
      "Ġcompetition": 5340,
      "wood": 5341,
      "Se": 5342,
      "Ġconcern": 5343,
      "ĠWashington": 5344,
      "Ġconference": 5345,
      "rm": 5346,
      "Ġpromote": 5347,
      "Ġgreatest": 5348,
      "LY": 5349,
      "Ġbeach": 5350,
      "Ġremoved": 5351,
      "oman": 5352,
      "AG": 5353,
      "ĠCommit": 5354,
      "%,": 5355,
      "ĠZhang": 5356,
      "Ġshock": 5357,
      "Ġresistance": 5358,
      "Ġantib": 5359,
      "ĠCounty": 5360,
      "Ġremark": 5361,
      "Ġoblig": 5362,
      "Ġquarter": 5363,
      "Ġwebsites": 5364,
      "zen": 5365,
      "Ġestate": 5366,
      "grad": 5367,
      "orough": 5368,
      "Ġworst": 5369,
      "Ġleader": 5370,
      "Ġfort": 5371,
      "Ġexception": 5372,
      "overs": 5373,
      "Ġagency": 5374,
      "ĠDec": 5375,
      "Ġaffected": 5376,
      "ĠBritish": 5377,
      "Ġforced": 5378,
      "ĠEduc": 5379,
      "ascular": 5380,
      "bi": 5381,
      "Ġdram": 5382,
      "upid": 5383,
      "Ġforgot": 5384,
      "Ġsubmit": 5385,
      "ructure": 5386,
      "Ġfee": 5387,
      "zed": 5388,
      "ulating": 5389,
      "osite": 5390,
      "Ġwine": 5391,
      "Ġpersonally": 5392,
      "Ġpleasure": 5393,
      "Ġsand": 5394,
      "alm": 5395,
      "ille": 5396,
      "[âĢ¦]": 5397,
      "Ġvs": 5398,
      "Ġid": 5399,
      "ĠAir": 5400,
      "Ġsuppose": 5401,
      "Ġtheme": 5402,
      "Ġdogs": 5403,
      "Ġaward": 5404,
      "Ġbreast": 5405,
      "Ġdetailed": 5406,
      "from": 5407,
      "rig": 5408,
      "Ġinternal": 5409,
      "Ġfacts": 5410,
      "ĠEast": 5411,
      "ĠEach": 5412,
      "Ġneighbor": 5413,
      "estic": 5414,
      "06": 5415,
      "Ġperspective": 5416,
      "Ġelection": 5417,
      "ĠCa": 5418,
      "BS": 5419,
      "eless": 5420,
      "Ġmulti": 5421,
      "ĠPat": 5422,
      "Ġeffectively": 5423,
      "Ġbull": 5424,
      "Ġanswers": 5425,
      "wo": 5426,
      "Ġemergency": 5427,
      "Ġspecifically": 5428,
      "Go": 5429,
      ");": 5430,
      "First": 5431,
      "Ġcruc": 5432,
      "Ġclothes": 5433,
      "Ġturns": 5434,
      "ĠFurther": 5435,
      "Ġmere": 5436,
      "Ġstream": 5437,
      "2024": 5438,
      "ĠChen": 5439,
      "Ġquot": 5440,
      "ares": 5441,
      "ya": 5442,
      "ĠHope": 5443,
      "ĠFe": 5444,
      "Ġpicked": 5445,
      "Ġadvanced": 5446,
      "Ġauto": 5447,
      "ĠItal": 5448,
      "Ġalcohol": 5449,
      "icial": 5450,
      "erry": 5451,
      "Ġfig": 5452,
      "ĠDid": 5453,
      "kin": 5454,
      "Ġveget": 5455,
      "Ġlaug": 5456,
      "Ġspeech": 5457,
      "Ġbright": 5458,
      "Ġdepending": 5459,
      "Ġstrange": 5460,
      "Hello": 5461,
      "Ġexchange": 5462,
      "Ġsight": 5463,
      "Ġoccup": 5464,
      "Ġadult": 5465,
      "ENT": 5466,
      "Ġbatter": 5467,
      "ĠPlan": 5468,
      "Ġintended": 5469,
      "2025": 5470,
      "Ġdocuments": 5471,
      "Ġrank": 5472,
      "Ġbreakfast": 5473,
      "hesis": 5474,
      "Ġconfirm": 5475,
      "ĠAmericans": 5476,
      "ĠCur": 5477,
      "Pl": 5478,
      "Ġpractical": 5479,
      "Ġcrime": 5480,
      "Ġlaugh": 5481,
      "Ġexten": 5482,
      "ĠChinese": 5483,
      "Ġtrees": 5484,
      "Ġviolence": 5485,
      "Since": 5486,
      "ato": 5487,
      "Ġsav": 5488,
      "Ġcorrespond": 5489,
      "Ġcloser": 5490,
      "Ġrent": 5491,
      "Ġnumerous": 5492,
      "ĠFrench": 5493,
      "Ġjudge": 5494,
      "aked": 5495,
      "Ġfailed": 5496,
      "egal": 5497,
      "Ġbelong": 5498,
      "ĠFin": 5499,
      "Ġking": 5500,
      "Ġgod": 5501,
      "Ġdesk": 5502,
      "Ġtissue": 5503,
      "Because": 5504,
      "iences": 5505,
      "Ġbehavi": 5506,
      "Ġanymore": 5507,
      "Ġexposure": 5508,
      "while": 5509,
      "Where": 5510,
      "Ġillust": 5511,
      "Ġingred": 5512,
      "Ġseconds": 5513,
      "ĠSuper": 5514,
      "Ġseat": 5515,
      "07": 5516,
      "ĠPri": 5517,
      "Ġexplained": 5518,
      "ĠBest": 5519,
      "Ġfreedom": 5520,
      "Ġbreath": 5521,
      "ĠChurch": 5522,
      "ĠRev": 5523,
      "Who": 5524,
      "alse": 5525,
      "box": 5526,
      "Many": 5527,
      "Ġfoods": 5528,
      "ĠBusiness": 5529,
      "Ġegg": 5530,
      "Ġconnected": 5531,
      "opy": 5532,
      "iety": 5533,
      "Ġalbum": 5534,
      "asm": 5535,
      "lines": 5536,
      "alog": 5537,
      "amily": 5538,
      "ening": 5539,
      "Ġburn": 5540,
      "entle": 5541,
      "Ġcontains": 5542,
      "ursday": 5543,
      "uesday": 5544,
      "Ġbacter": 5545,
      "Ġbeauty": 5546,
      "Ġmap": 5547,
      "ĠPL": 5548,
      "Ġagent": 5549,
      "Ġcas": 5550,
      "Ġrelatively": 5551,
      "ĠBook": 5552,
      "Ġpersons": 5553,
      "idden": 5554,
      "Ġaspects": 5555,
      "ĠKeep": 5556,
      "ĠYear": 5557,
      "Ġtonight": 5558,
      "ĠAustralia": 5559,
      "ĠII": 5560,
      "ache": 5561,
      "ĠEngland": 5562,
      "Ġfashion": 5563,
      "lined": 5564,
      "Ġtill": 5565,
      "och": 5566,
      "athy": 5567,
      "eal": 5568,
      "Ġmeal": 5569,
      "Ġarrest": 5570,
      "Ġdangerous": 5571,
      "Ġcore": 5572,
      "Ġokay": 5573,
      "ĠStreet": 5574,
      "ĠTheir": 5575,
      "Ġloan": 5576,
      "Ġkinds": 5577,
      "Ġtheory": 5578,
      "ĠDO": 5579,
      "Ġarrange": 5580,
      "Most": 5581,
      "ĠChristian": 5582,
      "Ġsugar": 5583,
      "Ġstim": 5584,
      "Ġ34": 5585,
      "Ġsuggested": 5586,
      "Ġbigger": 5587,
      "orders": 5588,
      "Ġfunctions": 5589,
      "Ġapproved": 5590,
      "Ġcollabor": 5591,
      "hetic": 5592,
      "ails": 5593,
      "ĠServices": 5594,
      "vity": 5595,
      "Ġblin": 5596,
      "Ġdiseases": 5597,
      "Ġpackage": 5598,
      "Ġnotes": 5599,
      "ĠIns": 5600,
      "essions": 5601,
      "ĠCompany": 5602,
      "Ġimmune": 5603,
      "Ġfellow": 5604,
      "Ġcardi": 5605,
      "ĠRel": 5606,
      "itect": 5607,
      "ĠMac": 5608,
      "Ġpleased": 5609,
      "otic": 5610,
      "ĠTherefore": 5611,
      "Ġforth": 5612,
      "09": 5613,
      "Ġlands": 5614,
      "ien": 5615,
      "Ġfif": 5616,
      "Ġmir": 5617,
      "Ġ2007": 5618,
      "Ġthick": 5619,
      "PA": 5620,
      "ĠCommittee": 5621,
      "Ġcharacteristics": 5622,
      "RA": 5623,
      "Ġhorse": 5624,
      "Ġradio": 5625,
      "Ġdad": 5626,
      "Ġmanager": 5627,
      "agraph": 5628,
      "Ġauthority": 5629,
      "life": 5630,
      "Ġiron": 5631,
      "ĠPaul": 5632,
      "Ġlawy": 5633,
      "pet": 5634,
      "Ġisland": 5635,
      "omic": 5636,
      "ĠGroup": 5637,
      "Ġextract": 5638,
      "Ġprocedure": 5639,
      "rier": 5640,
      "ĠReview": 5641,
      "110": 5642,
      "Ġinformed": 5643,
      "ĠHome": 5644,
      "Ġabuse": 5645,
      "Ġprocedures": 5646,
      "Ġgrab": 5647,
      "ĠCommission": 5648,
      "Ġpaint": 5649,
      "esides": 5650,
      "Ġslowly": 5651,
      "Ġcontinues": 5652,
      "Ġprofessionals": 5653,
      "top": 5654,
      "Ġflat": 5655,
      "Ġoperation": 5656,
      "Tr": 5657,
      "Ġexperts": 5658,
      "Ġexamples": 5659,
      "Ġresulting": 5660,
      "Ġrepair": 5661,
      "alled": 5662,
      "Ġcommitted": 5663,
      "Ġrealized": 5664,
      "Ġuns": 5665,
      "Ġfeelings": 5666,
      "Ġtypically": 5667,
      "Ġlucky": 5668,
      "Ġposting": 5669,
      "Ġturning": 5670,
      "rence": 5671,
      "net": 5672,
      "Ġlady": 5673,
      "Ġwearing": 5674,
      "Ġspoke": 5675,
      "Ġnamed": 5676,
      "ĠIts": 5677,
      "Ġcitizens": 5678,
      "ĠSur": 5679,
      "Ġelectronic": 5680,
      "IL": 5681,
      "Ġadmit": 5682,
      "Ġfurn": 5683,
      "Ġrestaurant": 5684,
      "Ġmice": 5685,
      "Ġobviously": 5686,
      "Ġmilk": 5687,
      "Ġcomprehensive": 5688,
      "ĠUse": 5689,
      "ĠCancer": 5690,
      "Ġsusp": 5691,
      "ĠOffice": 5692,
      "Ġcab": 5693,
      "Ġfees": 5694,
      "Ġmuscle": 5695,
      "erved": 5696,
      "ĠLa": 5697,
      "ĠMiss": 5698,
      "Ġperce": 5699,
      "Ġemotional": 5700,
      "nel": 5701,
      "rome": 5702,
      "IF": 5703,
      "Ġperfectly": 5704,
      "Ġneck": 5705,
      "Ġhighlight": 5706,
      "PC": 5707,
      "ĠAfrica": 5708,
      "Ġcombined": 5709,
      "Ġprofile": 5710,
      "De": 5711,
      "Ġmeat": 5712,
      "Ġinvolve": 5713,
      "Ġsuddenly": 5714,
      "Ġec": 5715,
      "rey": 5716,
      "Ġprove": 5717,
      "hab": 5718,
      "Ġaccord": 5719,
      "SC": 5720,
      "Ġtells": 5721,
      "Ġdatab": 5722,
      "porary": 5723,
      "Ġoperations": 5724,
      "Ġdiff": 5725,
      "ifts": 5726,
      "Ġflav": 5727,
      "ĠEarth": 5728,
      "âĢĳ": 5729,
      "Ġcute": 5730,
      "Ġimmun": 5731,
      "Ġ75": 5732,
      "Ġaid": 5733,
      "Ġinfection": 5734,
      "ems": 5735,
      "ĠOpen": 5736,
      "Ġterror": 5737,
      "Ġreduction": 5738,
      "Ġofficer": 5739,
      "Ġedge": 5740,
      "semb": 5741,
      "da": 5742,
      "Ġrecovery": 5743,
      "ĠHall": 5744,
      "uated": 5745,
      "aming": 5746,
      "Â°": 5747,
      "Pe": 5748,
      "Ġtired": 5749,
      "Ps": 5750,
      "ĠPhil": 5751,
      "ios": 5752,
      "Ġfrust": 5753,
      "Ġdestroy": 5754,
      "Ŀĳ": 5755,
      "Ġmit": 5756,
      "luding": 5757,
      "Ġarg": 5758,
      "rene": 5759,
      "ommod": 5760,
      "Ġpush": 5761,
      "Ġnoted": 5762,
      "ĠBet": 5763,
      "Ġcollected": 5764,
      "stit": 5765,
      "ĠPublic": 5766,
      "Ġfaster": 5767,
      "Ġprepare": 5768,
      "ĠAT": 5769,
      "Ġyouth": 5770,
      "ĠMol": 5771,
      "nesday": 5772,
      "Ġshel": 5773,
      "Ġpromise": 5774,
      "Ġprocessing": 5775,
      "ĠSocial": 5776,
      "Ġresidents": 5777,
      "Ġaccounts": 5778,
      "imension": 5779,
      "missions": 5780,
      "Ġchoices": 5781,
      ".âĢĻ": 5782,
      "ĠOnly": 5783,
      "rie": 5784,
      "Ġunable": 5785,
      "ĠToday": 5786,
      "Ġ38": 5787,
      "Ġmanufacture": 5788,
      "Ġstupid": 5789,
      "Ġreligious": 5790,
      "bal": 5791,
      "Ġassume": 5792,
      "Ġhasn": 5793,
      "ingly": 5794,
      "Ġargument": 5795,
      "rem": 5796,
      "Ġsigned": 5797,
      "Ġsufficient": 5798,
      "Ġpulled": 5799,
      "cles": 5800,
      "ĠBig": 5801,
      "Ġinstructions": 5802,
      "ĠLook": 5803,
      "Ġsynt": 5804,
      "ĠWeb": 5805,
      "Ġdecades": 5806,
      "hand": 5807,
      "Ġlie": 5808,
      "Ġpatterns": 5809,
      "section": 5810,
      "ki": 5811,
      "ellow": 5812,
      "Ġsmooth": 5813,
      "ĠBE": 5814,
      "akers": 5815,
      "ĠDavid": 5816,
      "Ġmaintenance": 5817,
      "Ġratio": 5818,
      "equ": 5819,
      "Ġunf": 5820,
      "gl": 5821,
      "Ġstret": 5822,
      "enced": 5823,
      "Ġaccommod": 5824,
      "ĠTom": 5825,
      "Great": 5826,
      "Ġnan": 5827,
      "Ġallowing": 5828,
      "Ġincreases": 5829,
      "stood": 5830,
      "Ġwriter": 5831,
      "Ġbunch": 5832,
      "ĠTra": 5833,
      "Ġhun": 5834,
      "ĠDNA": 5835,
      "Ġcarbon": 5836,
      "atin": 5837,
      "Ġexcess": 5838,
      "Ġwatched": 5839,
      "Ġfruit": 5840,
      "Ġweren": 5841,
      "Ġcrucial": 5842,
      "Ġmetal": 5843,
      "Ġcolors": 5844,
      "aly": 5845,
      "Ġswim": 5846,
      "Ġsuit": 5847,
      "ĠJew": 5848,
      "ĠAD": 5849,
      "anged": 5850,
      "Ġring": 5851,
      "ĠPR": 5852,
      "Ġruns": 5853,
      "Ġleadership": 5854,
      "ĠHuman": 5855,
      "comm": 5856,
      "cel": 5857,
      "Ġdele": 5858,
      "have": 5859,
      "ka": 5860,
      "then": 5861,
      "uh": 5862,
      "Ġfib": 5863,
      "Ġhadn": 5864,
      "lies": 5865,
      "gage": 5866,
      "antic": 5867,
      "ĠTwitter": 5868,
      "Ġmoments": 5869,
      "ĠPhys": 5870,
      "umber": 5871,
      "who": 5872,
      "ĠWord": 5873,
      "ĠGreen": 5874,
      "Ġcream": 5875,
      "Ġrough": 5876,
      "ira": 5877,
      "osh": 5878,
      "Ġlistening": 5879,
      "ened": 5880,
      "bel": 5881,
      "oster": 5882,
      "will": 5883,
      "Ġconcentration": 5884,
      "ĠUnder": 5885,
      "Ġsin": 5886,
      "Ġaccepted": 5887,
      "Ġchecking": 5888,
      "SA": 5889,
      "Ġcrim": 5890,
      "Ġcycle": 5891,
      "ĠThursday": 5892,
      "Ġelement": 5893,
      "point": 5894,
      "Ġhall": 5895,
      "lling": 5896,
      "Ġwitness": 5897,
      "Ġlip": 5898,
      "Ġvary": 5899,
      "Ġpresentation": 5900,
      "Ġcomparison": 5901,
      "Ġemph": 5902,
      "Get": 5903,
      "look": 5904,
      "Ġindex": 5905,
      "ricult": 5906,
      "ĠMedical": 5907,
      "Ġsupported": 5908,
      "EW": 5909,
      "ĠDemocr": 5910,
      "Ġgoods": 5911,
      "ĠWind": 5912,
      "Ġtalked": 5913,
      "ĠTuesday": 5914,
      "road": 5915,
      "Ġdetect": 5916,
      "Ġfold": 5917,
      "uce": 5918,
      "Ġdisp": 5919,
      "Ġsubsequ": 5920,
      "ship": 5921,
      "ifying": 5922,
      "Ġbio": 5923,
      "Ġ55": 5924,
      "Ġempt": 5925,
      "Ġinstru": 5926,
      "met": 5927,
      "Ġscientific": 5928,
      "ford": 5929,
      "field": 5930,
      "orter": 5931,
      "Ġaccurate": 5932,
      "Ġsides": 5933,
      "Ġcities": 5934,
      "erves": 5935,
      "Ġemployee": 5936,
      "Ġwealth": 5937,
      "Ġdirector": 5938,
      "ĠDoes": 5939,
      "Ġsupporting": 5940,
      "irmed": 5941,
      "Ġmovies": 5942,
      "Ġconstruct": 5943,
      "Ġanc": 5944,
      "Ġcomponents": 5945,
      "Ġgrown": 5946,
      "ĠTwo": 5947,
      "Ġfootball": 5948,
      "Ġalt": 5949,
      "Ġformat": 5950,
      "Ġtwenty": 5951,
      "ĠAssociation": 5952,
      "ĠAmaz": 5953,
      "Ġgather": 5954,
      "Ġ2000": 5955,
      "Ġbringing": 5956,
      "Ġtrick": 5957,
      "Ġeducational": 5958,
      "Ġblogs": 5959,
      "Ġillness": 5960,
      "Ġlibrary": 5961,
      "More": 5962,
      "ĠBel": 5963,
      "Ġrisks": 5964,
      "Ġmac": 5965,
      "Ġdiagnosis": 5966,
      "Ġfrequently": 5967,
      "des": 5968,
      "urt": 5969,
      "Ġmarkets": 5970,
      "Ġdelay": 5971,
      "Ġexpressed": 5972,
      "Ġscr": 5973,
      "Ġfairly": 5974,
      "Ġbrings": 5975,
      "omething": 5976,
      "inter": 5977,
      "Ġmer": 5978,
      "Ġtow": 5979,
      "Ġsets": 5980,
      "Ġlinked": 5981,
      "Ġupdated": 5982,
      "ĠPE": 5983,
      "Ġtopics": 5984,
      "OC": 5985,
      "Ġyounger": 5986,
      "ographic": 5987,
      "Ġsch": 5988,
      "Ġsongs": 5989,
      "ĠDist": 5990,
      "Ġiniti": 5991,
      "Ġsubstant": 5992,
      "ih": 5993,
      "Com": 5994,
      "Ġexperiment": 5995,
      "Ġincredible": 5996,
      "entions": 5997,
      "xic": 5998,
      "ĠHel": 5999,
      "ĠDel": 6000,
      "Ġforever": 6001,
      "Ġswitch": 6002,
      "yal": 6003,
      "Ġsituations": 6004,
      "ctor": 6005,
      "ĠAtt": 6006,
      "Ġhumans": 6007,
      "Ġbul": 6008,
      "ocket": 6009,
      "Ġexplan": 6010,
      "Ġentered": 6011,
      "Ġfuel": 6012,
      "Ġrestrict": 6013,
      "Ġnutrit": 6014,
      "Ġmedicine": 6015,
      "Ġofficials": 6016,
      "ĠFree": 6017,
      "Ġchosen": 6018,
      "Ġretail": 6019,
      "igration": 6020,
      "ĠWhich": 6021,
      "asks": 6022,
      "ibilities": 6023,
      "Ġconstit": 6024,
      "Ġfalse": 6025,
      "Ġsuggestions": 6026,
      "Ġincorpor": 6027,
      "ervation": 6028,
      "Ġlaunch": 6029,
      "Ġplays": 6030,
      "ĠCheck": 6031,
      "rations": 6032,
      "Ġstrain": 6033,
      "Ġtun": 6034,
      "Ġliqu": 6035,
      "Ġhang": 6036,
      "Ġboat": 6037,
      "ĠCongress": 6038,
      "Ġcriminal": 6039,
      "PR": 6040,
      "ĠOR": 6041,
      "ĠDef": 6042,
      "Ġindicated": 6043,
      "Today": 6044,
      "ius": 6045,
      "Ġreferred": 6046,
      "ĠCard": 6047,
      "Ġfighting": 6048,
      "Ġconstantly": 6049,
      "Ġgoogle": 6050,
      "rating": 6051,
      "rics": 6052,
      "Ġdealing": 6053,
      "luded": 6054,
      "ivered": 6055,
      "Ġpure": 6056,
      "Ġgentle": 6057,
      "Ġparticipate": 6058,
      "Ġrub": 6059,
      "Ġcriteria": 6060,
      "Ġfunctional": 6061,
      "ĠEducation": 6062,
      "law": 6063,
      "Ġparameters": 6064,
      "ĠDevelopment": 6065,
      "ifications": 6066,
      "Ġkeeps": 6067,
      "ĠWould": 6068,
      "Ġhundreds": 6069,
      "Ġbedroom": 6070,
      "Ġresponses": 6071,
      "ateful": 6072,
      "Ġforces": 6073,
      "outs": 6074,
      "Ġdiv": 6075,
      "ĠMary": 6076,
      "Ġbathroom": 6077,
      "Ġfly": 6078,
      "uy": 6079,
      "Sc": 6080,
      "ĠÃĹ": 6081,
      "ĠIndian": 6082,
      "Ġprepar": 6083,
      "Ġjustice": 6084,
      "ĠCollege": 6085,
      "aa": 6086,
      "Ġtransform": 6087,
      "utional": 6088,
      "Ġsac": 6089,
      "Ġsole": 6090,
      "Ġbear": 6091,
      "Ġplug": 6092,
      "Ġhero": 6093,
      "Ġdedicated": 6094,
      "Ġextent": 6095,
      "Ġtaught": 6096,
      "Ġdemonstrated": 6097,
      "iche": 6098,
      "ician": 6099,
      "Ġhonor": 6100,
      "Ġbread": 6101,
      "Ġresearc": 6102,
      "Ġcontrast": 6103,
      "ĠThose": 6104,
      "Ġuniversity": 6105,
      "Ġcrisis": 6106,
      "Ġintroduced": 6107,
      "Ġju": 6108,
      "ĠLear": 6109,
      "Ġregul": 6110,
      "ĠWednesday": 6111,
      "agram": 6112,
      "Ġalive": 6113,
      "Ġvan": 6114,
      "Ġhousehold": 6115,
      "Ġemployment": 6116,
      "Did": 6117,
      "ormal": 6118,
      "Ġdivid": 6119,
      "ĠDet": 6120,
      "Ġlosing": 6121,
      "Ġproof": 6122,
      "Ġchat": 6123,
      "ĠAngel": 6124,
      "Ġends": 6125,
      "Ġcareful": 6126,
      "ĠSer": 6127,
      "Ġ39": 6128,
      "ago": 6129,
      "Ġdiscussed": 6130,
      "Ġfamous": 6131,
      "ĠCH": 6132,
      "door": 6133,
      "Ġseeking": 6134,
      "iam": 6135,
      "Ġreward": 6136,
      "away": 6137,
      "ao": 6138,
      "Ġcorrel": 6139,
      "Ġplastic": 6140,
      "New": 6141,
      "ĠManagement": 6142,
      "EL": 6143,
      "ĠPal": 6144,
      "ĠSing": 6145,
      "Ġcommitment": 6146,
      "een": 6147,
      "eper": 6148,
      "ĠPD": 6149,
      "inating": 6150,
      "asp": 6151,
      "Ġbare": 6152,
      "Ġteen": 6153,
      "Ġhousing": 6154,
      "Ġelev": 6155,
      "Ġquote": 6156,
      "print": 6157,
      "inate": 6158,
      "Ġbelieved": 6159,
      "ĠRight": 6160,
      "Ġdelicious": 6161,
      "ĠCle": 6162,
      "ĠAuthor": 6163,
      "Ġplate": 6164,
      "Ġcontribute": 6165,
      "Ġunits": 6166,
      "Ġplanned": 6167,
      "riting": 6168,
      "isher": 6169,
      "Ġdescribe": 6170,
      "ĠMal": 6171,
      "Ġsaved": 6172,
      "ĠInformation": 6173,
      "Ġloves": 6174,
      "Ġchapter": 6175,
      "ĠBill": 6176,
      "AB": 6177,
      "Ġcere": 6178,
      "Ġevil": 6179,
      "uzz": 6180,
      "Ġorders": 6181,
      "Ġ2006": 6182,
      "Ġoutcome": 6183,
      "uine": 6184,
      "Ġmetabol": 6185,
      "ĠFore": 6186,
      "Ġsurvival": 6187,
      "Ġ..": 6188,
      "Ġstuck": 6189,
      "Ġcorporate": 6190,
      "Ġalleg": 6191,
      "Ġpossibility": 6192,
      "ications": 6193,
      "ĠPort": 6194,
      "Ġfacility": 6195,
      "pring": 6196,
      "Ġpeak": 6197,
      "Ġshit": 6198,
      "Ġofficers": 6199,
      "Ġresource": 6200,
      "Ġattrib": 6201,
      "Ġteeth": 6202,
      "Ġremaining": 6203,
      "Ġrecognize": 6204,
      "certain": 6205,
      "Ġinput": 6206,
      "Another": 6207,
      "Ġdelight": 6208,
      "Ġnurs": 6209,
      "Ġappearance": 6210,
      "Ġdescription": 6211,
      "ĠMart": 6212,
      "Ġacknow": 6213,
      "Ġgotten": 6214,
      "long": 6215,
      "Ġdevel": 6216,
      "Ġfasc": 6217,
      "Ġmassive": 6218,
      "ĠNews": 6219,
      "EC": 6220,
      "App": 6221,
      "Ġreceiving": 6222,
      "Ġshar": 6223,
      "Ġble": 6224,
      "ĠWH": 6225,
      "Ġagents": 6226,
      "ĠGermany": 6227,
      "ml": 6228,
      "Ġevaluation": 6229,
      "Ġamb": 6230,
      "Ġcarefully": 6231,
      "Ġdistinct": 6232,
      "gests": 6233,
      "inations": 6234,
      "Ġnorth": 6235,
      "Ġfacilit": 6236,
      "Ġabsor": 6237,
      "Ġskill": 6238,
      "ĠEv": 6239,
      "car": 6240,
      "Ġsouth": 6241,
      "resents": 6242,
      "Ġthorough": 6243,
      "Ġreply": 6244,
      "istical": 6245,
      "Ġaccordance": 6246,
      "itory": 6247,
      "Ġdiscl": 6248,
      "Although": 6249,
      "Ġguidelines": 6250,
      "Ġflight": 6251,
      "Ġimproving": 6252,
      "ĠMem": 6253,
      "Ġparagraph": 6254,
      "Ġperman": 6255,
      "Ġmessages": 6256,
      "Ġpublish": 6257,
      "rian": 6258,
      "Ġ[âĢ¦]": 6259,
      "Ġsignal": 6260,
      "Ġic": 6261,
      "Ġcrowd": 6262,
      "Ġtrail": 6263,
      "Ġmode": 6264,
      "Ġneuro": 6265,
      "ĠMex": 6266,
      "ĠStar": 6267,
      "Ġpassing": 6268,
      "ĠBM": 6269,
      "ĠInstitute": 6270,
      "visions": 6271,
      "ĠHy": 6272,
      "Ġeverybody": 6273,
      "ĠMethod": 6274,
      "Ġcharges": 6275,
      "ls": 6276,
      "ĠVol": 6277,
      "Ġwriters": 6278,
      "Ġdivers": 6279,
      "Ġtrig": 6280,
      "erate": 6281,
      "Ġunlike": 6282,
      "Ġguard": 6283,
      "Ġsettings": 6284,
      "Ġthousand": 6285,
      "ĠJe": 6286,
      "ocolate": 6287,
      "ĠLiu": 6288,
      "osphere": 6289,
      "Ġdiss": 6290,
      "Ġnine": 6291,
      "col": 6292,
      "rawn": 6293,
      "ĠMo": 6294,
      "sm": 6295,
      "ario": 6296,
      "Ġdance": 6297,
      "Ġsuitable": 6298,
      "Ġbone": 6299,
      "ĠAdv": 6300,
      "Ġtasks": 6301,
      "150": 6302,
      "Ġsuggests": 6303,
      "Ġduty": 6304,
      "Ġ44": 6305,
      "Ġadm": 6306,
      "Ġrecorded": 6307,
      "Ġmeasured": 6308,
      "Ġapartment": 6309,
      "Per": 6310,
      "Ġ120": 6311,
      "press": 6312,
      "Ġcourses": 6313,
      "Ġexternal": 6314,
      "Ġages": 6315,
      "Ġadvertising": 6316,
      "ups": 6317,
      "rog": 6318,
      "estyle": 6319,
      "Ġnav": 6320,
      "Ġconsent": 6321,
      "Ġriver": 6322,
      "ĠSol": 6323,
      "lim": 6324,
      "Ġthinks": 6325,
      "ĠMichael": 6326,
      "ĠFlor": 6327,
      "rical": 6328,
      "PI": 6329,
      "Ġupper": 6330,
      "Ġrepeated": 6331,
      "ena": 6332,
      "Ġvehicles": 6333,
      "Ġconstant": 6334,
      "Ġarchitect": 6335,
      "Ġisol": 6336,
      "unning": 6337,
      "Ġcolle": 6338,
      "ĠHot": 6339,
      "Ġstorm": 6340,
      "Ġ150": 6341,
      "Ġcultural": 6342,
      "ĠProgram": 6343,
      "ĠProf": 6344,
      "ĠFound": 6345,
      "ĠAdditionally": 6346,
      "itz": 6347,
      "Ġpermission": 6348,
      "Ġbasically": 6349,
      "ĠCI": 6350,
      "Ġingredients": 6351,
      "Ġagencies": 6352,
      "Ġroutine": 6353,
      "Ġsomewhat": 6354,
      "Ġdepends": 6355,
      "Ġconsumers": 6356,
      "azine": 6357,
      "Ġrecommendations": 6358,
      "gor": 6359,
      "AA": 6360,
      "Ġcapable": 6361,
      "Ġregulations": 6362,
      "bec": 6363,
      "Ġmillions": 6364,
      "Ġparking": 6365,
      "Ġfault": 6366,
      "Ġdepart": 6367,
      "ĠStat": 6368,
      "Mr": 6369,
      "Ġdecor": 6370,
      "had": 6371,
      "Ġenjoying": 6372,
      "grade": 6373,
      "uting": 6374,
      "Ġsky": 6375,
      "onder": 6376,
      "Ġdropped": 6377,
      "ĠAS": 6378,
      "Sp": 6379,
      "Ġtail": 6380,
      "Ġprecise": 6381,
      "Ġunivers": 6382,
      "Ġannoy": 6383,
      "ker": 6384,
      "ĠRich": 6385,
      "Ġtag": 6386,
      "Ġportion": 6387,
      "ĠDuring": 6388,
      "Ġnom": 6389,
      "ville": 6390,
      "Ġvital": 6391,
      "Ġ)": 6392,
      "Ġrenew": 6393,
      "Look": 6394,
      "Ġpotentially": 6395,
      "Ġgrade": 6396,
      "Ġfulf": 6397,
      "Ġreb": 6398,
      "Ġshoes": 6399,
      "Ġanxiety": 6400,
      "arn": 6401,
      "Ġreducing": 6402,
      "Ġeditor": 6403,
      "ĠRob": 6404,
      "Ġachieved": 6405,
      "ĠApple": 6406,
      "Ġresident": 6407,
      "Ġsenior": 6408,
      "Ġtested": 6409,
      "Ġfle": 6410,
      "Ġbodies": 6411,
      "lications": 6412,
      "date": 6413,
      "Ġmel": 6414,
      "ĠTex": 6415,
      "abled": 6416,
      "Ġdelivered": 6417,
      "ady": 6418,
      "Ġlung": 6419,
      "anda": 6420,
      "Ġgenuine": 6421,
      "Ġnuclear": 6422,
      "Ġaside": 6423,
      "Ġfields": 6424,
      "UN": 6425,
      "Ġsquare": 6426,
      "Ġtransl": 6427,
      "Ġcentre": 6428,
      "Ġrepresents": 6429,
      "Ġknock": 6430,
      "Ab": 6431,
      "Ġdraft": 6432,
      "Ġfool": 6433,
      "Ġtechnologies": 6434,
      "Ġliterature": 6435,
      "Ġserver": 6436,
      "aturally": 6437,
      "Ġplanet": 6438,
      "En": 6439,
      "Ġguest": 6440,
      "Ġacademic": 6441,
      "rum": 6442,
      "Ġmenu": 6443,
      "According": 6444,
      "Ġletters": 6445,
      "Ġcleaning": 6446,
      "ria": 6447,
      "Read": 6448,
      "Ġmonthly": 6449,
      "Ġyield": 6450,
      "Ġnoise": 6451,
      "Ġought": 6452,
      "Ġattorney": 6453,
      "Ġ42": 6454,
      "iverse": 6455,
      "Ġves": 6456,
      "ĠEU": 6457,
      "apping": 6458,
      ",,": 6459,
      "Ġsomebody": 6460,
      "Ġcoord": 6461,
      "ĠBank": 6462,
      "Ġexclus": 6463,
      "rac": 6464,
      "Ġ2005": 6465,
      "Ġdrinking": 6466,
      "Ġworksh": 6467,
      "Ġelimin": 6468,
      "Ġkiss": 6469,
      "1016": 6470,
      "Ġestimated": 6471,
      "Ġassociation": 6472,
      "Ġsir": 6473,
      "Ġpercentage": 6474,
      "Ġresolution": 6475,
      "Ġspok": 6476,
      "Ġsupplement": 6477,
      "active": 6478,
      "Ġdisappoint": 6479,
      "Ġdebate": 6480,
      "Ġlayer": 6481,
      "Ġapparently": 6482,
      "Ġupdates": 6483,
      "Ġsubjects": 6484,
      "ĠEp": 6485,
      "Ġatm": 6486,
      "Ġgall": 6487,
      "Ġ300": 6488,
      "VI": 6489,
      "Ġweird": 6490,
      "Ġannounce": 6491,
      "Ġgrew": 6492,
      "120": 6493,
      "Ġhat": 6494,
      "Ġregions": 6495,
      "Ġinspired": 6496,
      "Ġordered": 6497,
      "Ġads": 6498,
      "izz": 6499,
      "Ġpanel": 6500,
      "ĠLong": 6501,
      "Ġsport": 6502,
      "Ġempty": 6503,
      "Ġgro": 6504,
      "Ġconsumption": 6505,
      "ĠðŁĺ": 6506,
      "ĠAccording": 6507,
      "?!": 6508,
      "ilst": 6509,
      "cean": 6510,
      "ĠMad": 6511,
      "Ġrental": 6512,
      "Ġorg": 6513,
      "Ġconfirmed": 6514,
      "Ġmixed": 6515,
      "Ġclar": 6516,
      "Ġgrateful": 6517,
      "Over": 6518,
      "Ġdiscip": 6519,
      "ĠProt": 6520,
      "igation": 6521,
      "Ġforest": 6522,
      "ĠAut": 6523,
      "rich": 6524,
      "ĠâĢ¢": 6525,
      "iance": 6526,
      "Ġstores": 6527,
      "ĠMD": 6528,
      "ĠHear": 6529,
      "Ġbug": 6530,
      "Ġmistake": 6531,
      "Ġaccuracy": 6532,
      "Ġdepression": 6533,
      "Ġrac": 6534,
      "ĠKore": 6535,
      "Ġtechnique": 6536,
      "Ġreligion": 6537,
      "Con": 6538,
      "Ġelig": 6539,
      "Ġunderstood": 6540,
      "Ġlights": 6541,
      "marks": 6542,
      "ander": 6543,
      "Ġtransition": 6544,
      "Ġdepth": 6545,
      "Ġrom": 6546,
      "Ġsuffering": 6547,
      ".[": 6548,
      "Ġath": 6549,
      "Ġliver": 6550,
      "Qu": 6551,
      "Ġprofit": 6552,
      "Ġdefense": 6553,
      "otal": 6554,
      "Last": 6555,
      "RNA": 6556,
      "mp": 6557,
      "ĠUN": 6558,
      "Ġcritic": 6559,
      "Maybe": 6560,
      "Ġblow": 6561,
      "ĠVis": 6562,
      "Ġdoors": 6563,
      "Ġnegot": 6564,
      "words": 6565,
      "Ġtight": 6566,
      "Ġremote": 6567,
      "Ġheads": 6568,
      "Ġroot": 6569,
      "Ġbon": 6570,
      "Ġphil": 6571,
      "Ġcomplain": 6572,
      "ĠElect": 6573,
      "teen": 6574,
      "See": 6575,
      "Ġbuildings": 6576,
      "lia": 6577,
      "Ġclosely": 6578,
      "Ġrow": 6579,
      "ini": 6580,
      "Ġdetection": 6581,
      "Ġcommission": 6582,
      "when": 6583,
      "Ġissued": 6584,
      "Ġinstitutions": 6585,
      "His": 6586,
      "sey": 6587,
      "rors": 6588,
      "Ġengage": 6589,
      "2018": 6590,
      "Ġawareness": 6591,
      "Ġroof": 6592,
      "Ġdepos": 6593,
      "Ġmainly": 6594,
      "ether": 6595,
      "Ġbrown": 6596,
      "!!!!": 6597,
      "Ġopposite": 6598,
      "Ġcooking": 6599,
      "ĠAcc": 6600,
      "Ġsucceed": 6601,
      "Ġdose": 6602,
      "Ġguidance": 6603,
      "anta": 6604,
      "ĠGold": 6605,
      "Ġchicken": 6606,
      "Ġprivacy": 6607,
      "Ġgreatly": 6608,
      "ĠFrance": 6609,
      "Ġnod": 6610,
      "Ġprompt": 6611,
      "ĠNever": 6612,
      "Ġconsumer": 6613,
      "ĠTer": 6614,
      "aped": 6615,
      "Ġvacation": 6616,
      "Ġplain": 6617,
      "Ġincident": 6618,
      "Ġcompens": 6619,
      "ework": 6620,
      "ĠNut": 6621,
      "ĠLee": 6622,
      "Ġpal": 6623,
      "Ġod": 6624,
      "Ġcart": 6625,
      "Ġven": 6626,
      "being": 6627,
      "Ġplot": 6628,
      "Ġtaxes": 6629,
      "Ġneither": 6630,
      "Ġexpectations": 6631,
      "Ġidentity": 6632,
      "Ġcharged": 6633,
      "Ġchain": 6634,
      "ading": 6635,
      "Ġapproval": 6636,
      "ĠHospital": 6637,
      "Ġtiny": 6638,
      "ĠMag": 6639,
      "Ġinteraction": 6640,
      "arrow": 6641,
      "Ġboost": 6642,
      "Ġdatabase": 6643,
      "ayer": 6644,
      "Ġsle": 6645,
      "ĠVery": 6646,
      "Ġimpressed": 6647,
      "Ġprinciples": 6648,
      "Ġgender": 6649,
      "Ġnecessarily": 6650,
      "ilty": 6651,
      "omas": 6652,
      "Ġwanting": 6653,
      "Ġbike": 6654,
      "Ġ43": 6655,
      "Ġcrack": 6656,
      "Ġcategory": 6657,
      "ĠID": 6658,
      "Ġconcerning": 6659,
      "osc": 6660,
      "Ġpurchased": 6661,
      "kes": 6662,
      "Ġassets": 6663,
      "ĠGeorge": 6664,
      "Ġcontrolled": 6665,
      "Ġapplicable": 6666,
      "useum": 6667,
      "Ġreput": 6668,
      "Ġwid": 6669,
      "ĠSaf": 6670,
      "Ġchallenging": 6671,
      "Ġoccurred": 6672,
      "Ġrot": 6673,
      "ĠJames": 6674,
      "Ġsending": 6675,
      "Ġnetworks": 6676,
      "ked": 6677,
      "Ġdomain": 6678,
      "Ġwal": 6679,
      "rastructure": 6680,
      "luc": 6681,
      "ĠSal": 6682,
      "Ġsomehow": 6683,
      "ĠMedicine": 6684,
      "Ġfundament": 6685,
      "spec": 6686,
      "Ġenforce": 6687,
      "ĠIsland": 6688,
      "Ġwond": 6689,
      "Ġvul": 6690,
      "Ġemployed": 6691,
      "ĠFranc": 6692,
      "pected": 6693,
      "Ġreporting": 6694,
      "VER": 6695,
      "ĠKnow": 6696,
      "Ġmotion": 6697,
      "Ag": 6698,
      "Ġtreatments": 6699,
      "Ġdrivers": 6700,
      "ye": 6701,
      "Â±": 6702,
      "water": 6703,
      "Ġcro": 6704,
      "Ġvast": 6705,
      "bol": 6706,
      "Ĺ¦": 6707,
      "LC": 6708,
      "aterials": 6709,
      "Ġretire": 6710,
      "idays": 6711,
      "agues": 6712,
      "ĠInstead": 6713,
      "whel": 6714,
      "Ġchief": 6715,
      "Ġneighborhood": 6716,
      "claim": 6717,
      "ĠOrgan": 6718,
      "Ġlikes": 6719,
      "Ġmagic": 6720,
      "ado": 6721,
      "Ġhung": 6722,
      "person": 6723,
      "Ġartist": 6724,
      "Ġpursu": 6725,
      "Ġ46": 6726,
      "Ġsmell": 6727,
      "Ġreader": 6728,
      "bles": 6729,
      "nic": 6730,
      "reprene": 6731,
      "Ġyeah": 6732,
      "Us": 6733,
      "ĠPatient": 6734,
      "lder": 6735,
      "ĠInf": 6736,
      "Ġlegs": 6737,
      "icted": 6738,
      "gorith": 6739,
      "ĠJack": 6740,
      "Ġterrible": 6741,
      "Ġbroke": 6742,
      "Ġbloggers": 6743,
      "Ġserving": 6744,
      "Ġreject": 6745,
      "Ġ47": 6746,
      "Ġproport": 6747,
      "PP": 6748,
      "Ġexceed": 6749,
      "Ġshift": 6750,
      "Ġopinions": 6751,
      "encing": 6752,
      "Ġexpenses": 6753,
      "Ġconsideration": 6754,
      "ĠMa": 6755,
      "Ġprov": 6756,
      "Ġwinning": 6757,
      "Ġcreation": 6758,
      "Ġped": 6759,
      "Ġfer": 6760,
      "ĠEnd": 6761,
      "Ġjoint": 6762,
      "Ġmeetings": 6763,
      "Ġflo": 6764,
      "Ġattacks": 6765,
      "Ġlabel": 6766,
      "Ġreliable": 6767,
      "Ġnewspa": 6768,
      "rin": 6769,
      "ĠAC": 6770,
      "Ġworried": 6771,
      "ĠBoth": 6772,
      "Ġdefend": 6773,
      "hus": 6774,
      "Ġnormally": 6775,
      "Ġtypical": 6776,
      "cm": 6777,
      "Ġfest": 6778,
      "anges": 6779,
      "Ġrecept": 6780,
      "Ġwhis": 6781,
      "uilding": 6782,
      "estion": 6783,
      "People": 6784,
      "Ġconflict": 6785,
      "ĠUnion": 6786,
      "osph": 6787,
      "ads": 6788,
      "Ġadvoc": 6789,
      "Ġloud": 6790,
      "Ġpointed": 6791,
      "Ġprovider": 6792,
      "quality": 6793,
      "Ġpharmac": 6794,
      "Ġjoined": 6795,
      "ĠStep": 6796,
      "wing": 6797,
      "lla": 6798,
      "Ġenable": 6799,
      "Ġrelief": 6800,
      "Ġamounts": 6801,
      "ĠPerson": 6802,
      "Ġextended": 6803,
      "Ġsatisfied": 6804,
      "irect": 6805,
      "reets": 6806,
      "ĠClass": 6807,
      "Ġrating": 6808,
      "Ġdreams": 6809,
      "Ġcompare": 6810,
      "Ġproteins": 6811,
      "Ġexpertise": 6812,
      "ĠExper": 6813,
      "Ġpump": 6814,
      "Ġbutter": 6815,
      "ĠHist": 6816,
      "Ġterr": 6817,
      "Ġcarrying": 6818,
      "sit": 6819,
      "Ġanalys": 6820,
      "Ġtion": 6821,
      "Ġlessons": 6822,
      "Ġinterpret": 6823,
      "va": 6824,
      "inning": 6825,
      "Ġsessions": 6826,
      "Ġsolve": 6827,
      "Ġstructures": 6828,
      "Ġcoin": 6829,
      "Ġvacc": 6830,
      "Ġtrend": 6831,
      "Ġmad": 6832,
      "urse": 6833,
      "Am": 6834,
      "Ġcurious": 6835,
      "Ġaccomp": 6836,
      "Ġclin": 6837,
      "ĠHu": 6838,
      "Ġbegins": 6839,
      "Ġauthorities": 6840,
      "berg": 6841,
      "ĠAnt": 6842,
      "Ġhouses": 6843,
      "Ġstatements": 6844,
      "athe": 6845,
      "ĠParty": 6846,
      "ĠRad": 6847,
      "Ġinfect": 6848,
      "Ġloving": 6849,
      "Ġpapers": 6850,
      "ching": 6851,
      "Ġstruggle": 6852,
      "Ġdefic": 6853,
      "Ġenemy": 6854,
      "Ġprotected": 6855,
      "Ġdating": 6856,
      "AV": 6857,
      "LD": 6858,
      "lar": 6859,
      "ĠCO": 6860,
      "Ġpolitics": 6861,
      "ĠKim": 6862,
      "Te": 6863,
      "Ġbeer": 6864,
      "Ġcompetitive": 6865,
      "indu": 6866,
      "Ġfilms": 6867,
      "ĠFlorida": 6868,
      "Ġdegrees": 6869,
      "300": 6870,
      "Ġresearchers": 6871,
      "ĠSecret": 6872,
      "Ġmemories": 6873,
      "ĠTexas": 6874,
      "Ġsurely": 6875,
      "Ġautomatically": 6876,
      "Ġpossess": 6877,
      "Ġlifestyle": 6878,
      "Ġwalls": 6879,
      "Ġharder": 6880,
      "PD": 6881,
      "Ġimmediate": 6882,
      "Ġcred": 6883,
      "ĠAbout": 6884,
      "Ġgranted": 6885,
      "Ġliterally": 6886,
      "ĠJim": 6887,
      "ĠCentral": 6888,
      "Ġpip": 6889,
      "Ġconclusion": 6890,
      "Ġeverywhere": 6891,
      "Ġfo": 6892,
      "Ġrevenue": 6893,
      "Ġcloud": 6894,
      "Ġformation": 6895,
      "Ġdecent": 6896,
      "ĠImm": 6897,
      "Ġlocations": 6898,
      "Ġnobody": 6899,
      "ĠInvest": 6900,
      "Ġlaid": 6901,
      "SE": 6902,
      "Ġframe": 6903,
      "alls": 6904,
      "ĠStudy": 6905,
      "outhern": 6906,
      "Ġpregnancy": 6907,
      "Ġpositions": 6908,
      "ĠSecurity": 6909,
      "ĠResp": 6910,
      "ĠQue": 6911,
      "ĠKey": 6912,
      "Ġwire": 6913,
      "Ġcutting": 6914,
      "Ġpayments": 6915,
      "Ġregardless": 6916,
      "Ġgenetic": 6917,
      "Ġhabit": 6918,
      "Ġwindows": 6919,
      "Ġdoctors": 6920,
      "Ġintervention": 6921,
      "ĠFund": 6922,
      "Ġregistration": 6923,
      "ĠSection": 6924,
      "Ġregulation": 6925,
      "inet": 6926,
      "some": 6927,
      "Ġconsequences": 6928,
      "Ġcommittee": 6929,
      "zing": 6930,
      "Ġstands": 6931,
      "Ġregistered": 6932,
      "Ġguarantee": 6933,
      "Wow": 6934,
      "Ġtruck": 6935,
      "Ġheaven": 6936,
      "ĠSil": 6937,
      "Ġdiscount": 6938,
      "oration": 6939,
      "Ġinspiration": 6940,
      "Ġdecrease": 6941,
      "Ġbookmarked": 6942,
      "Ġcheese": 6943,
      "Ġ!": 6944,
      "Ġdefinition": 6945,
      "ientific": 6946,
      "eutic": 6947,
      "asure": 6948,
      "Ġlit": 6949,
      "Ġ99": 6950,
      "ĠNon": 6951,
      "orable": 6952,
      "Cont": 6953,
      "Ġimplementation": 6954,
      "Very": 6955,
      "Take": 6956,
      "ĠCR": 6957,
      "ostic": 6958,
      "Ġcandidate": 6959,
      "UR": 6960,
      "Ġlin": 6961,
      "Ġeveryday": 6962,
      "Ġnerv": 6963,
      "Ġmechanisms": 6964,
      "Ġcausing": 6965,
      "isting": 6966,
      "Ġappointment": 6967,
      "Ġlies": 6968,
      "Ġbottle": 6969,
      "Ġwhenever": 6970,
      "itivity": 6971,
      "onic": 6972,
      "ĠLu": 6973,
      "Ġreform": 6974,
      "Ġcalm": 6975,
      "Ġsentence": 6976,
      "bing": 6977,
      "Ġtrained": 6978,
      "his": 6979,
      "ĠStr": 6980,
      "Ġlean": 6981,
      "Ġru": 6982,
      "hyl": 6983,
      "aper": 6984,
      "Ġcontaining": 6985,
      "Ġvillage": 6986,
      "oved": 6987,
      "Ġapproaches": 6988,
      "ĠWestern": 6989,
      "oned": 6990,
      "Ġsty": 6991,
      "vention": 6992,
      "Ġdiverse": 6993,
      "Ġdistrict": 6994,
      "Ġsimpl": 6995,
      "Ġcalculated": 6996,
      "ano": 6997,
      "ĠSometimes": 6998,
      "Ġcoach": 6999,
      "ĠSociety": 7000,
      "Ġ49": 7001,
      "ĠDisc": 7002,
      "rete": 7003,
      "Ġchocolate": 7004,
      "Ġbrill": 7005,
      "Ġincredibly": 7006,
      "Before": 7007,
      "Ġflowers": 7008,
      "Â´": 7009,
      "Ġsolar": 7010,
      "Ġoverwhel": 7011,
      "ĠNat": 7012,
      "ĠAmazon": 7013,
      "Ġanybody": 7014,
      "Ġacting": 7015,
      "ette": 7016,
      "ĠArticle": 7017,
      "Ġindustrial": 7018,
      "Ġweapons": 7019,
      "...\"": 7020,
      "Ġassign": 7021,
      "irty": 7022,
      "rid": 7023,
      "aud": 7024,
      "Ġtelevision": 7025,
      "Ġsoil": 7026,
      "Ġremained": 7027,
      "Ġhardly": 7028,
      "TS": 7029,
      "Like": 7030,
      "fferent": 7031,
      "Ġartists": 7032,
      "hh": 7033,
      "ĠSecond": 7034,
      "Ġcake": 7035,
      "iform": 7036,
      "Ġorganic": 7037,
      "aser": 7038,
      "Ġadvis": 7039,
      "Ġcrew": 7040,
      "âĢĻ.": 7041,
      "page": 7042,
      "Ġretain": 7043,
      "Ġdump": 7044,
      "Ġstars": 7045,
      "Ġstability": 7046,
      "Ġspiritual": 7047,
      "lication": 7048,
      "Ġshoulder": 7049,
      "Ġpreparation": 7050,
      "Ġchest": 7051,
      "Ġfra": 7052,
      "ĠProject": 7053,
      "ĠLou": 7054,
      "ocation": 7055,
      "imp": 7056,
      "Ġfavourite": 7057,
      "Ġformed": 7058,
      "ĠSH": 7059,
      "ĠTimes": 7060,
      "fol": 7061,
      "Ġmechanism": 7062,
      "Ġsuffer": 7063,
      "MA": 7064,
      "Ġgrant": 7065,
      "Ġdecade": 7066,
      "Ġtub": 7067,
      "Ġexistence": 7068,
      "ĠFurthermore": 7069,
      "Ġpounds": 7070,
      "miss": 7071,
      "ĠChildren": 7072,
      "itative": 7073,
      "Ġintelligence": 7074,
      "Rem": 7075,
      "Ġaccomplish": 7076,
      "Ġaffordable": 7077,
      "EG": 7078,
      "Ġappeal": 7079,
      "Ġrul": 7080,
      "Ġtone": 7081,
      "Ġdys": 7082,
      "Ġvariables": 7083,
      "Ġformal": 7084,
      "Ġoutput": 7085,
      "Des": 7086,
      "Ġfigures": 7087,
      "Ġinsight": 7088,
      "Ġfacing": 7089,
      "ulf": 7090,
      "Ġbra": 7091,
      "Ġscores": 7092,
      "Ġletting": 7093,
      "Ġdemocr": 7094,
      "Ġlandsc": 7095,
      "bor": 7096,
      "Ġstable": 7097,
      "ials": 7098,
      "Ġstaying": 7099,
      "Ġwake": 7100,
      "Ġsan": 7101,
      "ĠPeter": 7102,
      "ĠVir": 7103,
      "-)": 7104,
      "don": 7105,
      "Ġregister": 7106,
      "Ġrecognized": 7107,
      "ĠStill": 7108,
      "ĠMrs": 7109,
      "Ġpleasant": 7110,
      "Ġdish": 7111,
      "ogether": 7112,
      "Ġwithd": 7113,
      "Ġmood": 7114,
      "Ġescape": 7115,
      "level": 7116,
      "host": 7117,
      "Ġliquid": 7118,
      "Ġfalling": 7119,
      "ĠPay": 7120,
      "arsh": 7121,
      "ĠClub": 7122,
      "ĠHim": 7123,
      "Ġattitude": 7124,
      "Ġtall": 7125,
      "Ġabsence": 7126,
      "ĠKen": 7127,
      "Ġbother": 7128,
      "Ġrein": 7129,
      "Ġstone": 7130,
      "Ġtro": 7131,
      "Ġsuccessfully": 7132,
      "Ġcomplicated": 7133,
      "rone": 7134,
      "Ġchecked": 7135,
      "ket": 7136,
      "iry": 7137,
      "Le": 7138,
      "ygen": 7139,
      "Ġscheme": 7140,
      "Ġ2004": 7141,
      "ĠCam": 7142,
      "Ġdomestic": 7143,
      "Ġcandidates": 7144,
      "Ġspons": 7145,
      "Ġultimately": 7146,
      "Ġpremium": 7147,
      "ĠSl": 7148,
      "ulin": 7149,
      "ĠLast": 7150,
      "Ġphr": 7151,
      "Ġfrequency": 7152,
      "raining": 7153,
      "cin": 7154,
      "Ġinject": 7155,
      "Ġgut": 7156,
      "CD": 7157,
      "employ": 7158,
      "Ġextensive": 7159,
      "real": 7160,
      "Ġpil": 7161,
      "Ġodd": 7162,
      "esis": 7163,
      "itting": 7164,
      "Ġinqu": 7165,
      "ĠCanad": 7166,
      "Ġinfrastructure": 7167,
      "Ġwidely": 7168,
      "lock": 7169,
      "ĠYeah": 7170,
      "Ġclassic": 7171,
      "Ġongoing": 7172,
      "ĠPolic": 7173,
      "ĠAdd": 7174,
      "Ġwise": 7175,
      "Ġdatas": 7176,
      "Ġtoler": 7177,
      "Ġmerely": 7178,
      "Ġsyn": 7179,
      "nergy": 7180,
      "ĠClick": 7181,
      "Will": 7182,
      "hi": 7183,
      "Ġalter": 7184,
      "orthern": 7185,
      "Ġchose": 7186,
      "kg": 7187,
      "Ġfro": 7188,
      "Ġdeals": 7189,
      "Ġsurprising": 7190,
      "rink": 7191,
      "ighter": 7192,
      "Ġbanks": 7193,
      "Ġlimits": 7194,
      "Ġmurder": 7195,
      "cher": 7196,
      "Ġentit": 7197,
      "Ġwound": 7198,
      "ĠMil": 7199,
      "elled": 7200,
      "Ġtickets": 7201,
      "Ġprimarily": 7202,
      "ona": 7203,
      "Ġ110": 7204,
      "ĠGerman": 7205,
      "pre": 7206,
      "liance": 7207,
      "raq": 7208,
      "isters": 7209,
      "ruck": 7210,
      "yan": 7211,
      "Ġ64": 7212,
      "opt": 7213,
      "nec": 7214,
      "Ġease": 7215,
      "Click": 7216,
      "ĠTop": 7217,
      "ĠPerhaps": 7218,
      "Ġgenerate": 7219,
      "Ġneut": 7220,
      "ĠTreat": 7221,
      "Ĥ¬": 7222,
      "iture": 7223,
      "stream": 7224,
      "Ġlaun": 7225,
      "Ġalgorith": 7226,
      "Ġheight": 7227,
      "Ġblogging": 7228,
      "olar": 7229,
      "Ġshooting": 7230,
      "Ġengaged": 7231,
      "anna": 7232,
      "ĠCr": 7233,
      "after": 7234,
      "ĠBefore": 7235,
      "add": 7236,
      "Ġcolour": 7237,
      "uit": 7238,
      "ĠDesign": 7239,
      "ĠBack": 7240,
      "anish": 7241,
      "Ġadministr": 7242,
      "orgeous": 7243,
      "Ġadequ": 7244,
      "Ġconvenient": 7245,
      "Ġfabric": 7246,
      "Ġindicates": 7247,
      "Ġscript": 7248,
      "Ġevolution": 7249,
      "xture": 7250,
      "comfort": 7251,
      "Ġtwe": 7252,
      "Ġinstalled": 7253,
      "operative": 7254,
      "'.": 7255,
      "Ġgenerated": 7256,
      "Ġforum": 7257,
      "Ġtears": 7258,
      "Ġessay": 7259,
      "Ġroute": 7260,
      "acle": 7261,
      "Ġstro": 7262,
      "rance": 7263,
      "Che": 7264,
      "ĠMat": 7265,
      "Ġ111": 7266,
      "rive": 7267,
      "ĠAgain": 7268,
      "Ġpul": 7269,
      "ĠBay": 7270,
      "ĠControl": 7271,
      "ĠReport": 7272,
      "Ġfingers": 7273,
      "Ġpenal": 7274,
      "Ġinjuries": 7275,
      "Ġcelebrate": 7276,
      "Make": 7277,
      "Ġhole": 7278,
      "Ġ56": 7279,
      "apped": 7280,
      "ĠAnalysis": 7281,
      "Ġstayed": 7282,
      "ĠBible": 7283,
      "ĠPower": 7284,
      "________": 7285,
      "Ġfoundation": 7286,
      "Ġediting": 7287,
      "Ġelectro": 7288,
      "Ġwet": 7289,
      "Ġhistorical": 7290,
      "gar": 7291,
      "oung": 7292,
      "Ġbattery": 7293,
      "Ġimpression": 7294,
      "ĠRet": 7295,
      "Ġlesson": 7296,
      "entional": 7297,
      "craft": 7298,
      "Ġglo": 7299,
      "igen": 7300,
      "Ġillegal": 7301,
      "ĠAcadem": 7302,
      "even": 7303,
      "Im": 7304,
      "PM": 7305,
      "ĠOK": 7306,
      "Ġchannel": 7307,
      "Ġdisag": 7308,
      ".....": 7309,
      "rip": 7310,
      "Ġcond": 7311,
      "Ġstreets": 7312,
      "During": 7313,
      "Ġ125": 7314,
      "Ġcounsel": 7315,
      "Ġengineering": 7316,
      "ĠWomen": 7317,
      "sembly": 7318,
      "Ġticket": 7319,
      "ends": 7320,
      "Ġdescrib": 7321,
      "Ġarrive": 7322,
      "theless": 7323,
      "Ġemails": 7324,
      "Ġstages": 7325,
      "ĠStand": 7326,
      "Ġ85": 7327,
      "Ġvisited": 7328,
      "Ġhidden": 7329,
      "Ġmountain": 7330,
      "VD": 7331,
      "ĠFamily": 7332,
      "bered": 7333,
      "ĠCC": 7334,
      "reens": 7335,
      "ĠAL": 7336,
      "ĠCA": 7337,
      "Ġcomponent": 7338,
      "Ġrestaurants": 7339,
      "Ġdrawing": 7340,
      "Ġatmosphere": 7341,
      "ĠWater": 7342,
      "Ġtalent": 7343,
      "iology": 7344,
      "list": 7345,
      "Ġexplanation": 7346,
      "Ġconver": 7347,
      "ĠTest": 7348,
      "ĠHill": 7349,
      "Ġphilos": 7350,
      "ĠWindows": 7351,
      "Â·": 7352,
      "Ġhide": 7353,
      "ras": 7354,
      "Ġtip": 7355,
      "ĠAR": 7356,
      "han": 7357,
      "Ġangry": 7358,
      "Ġwheel": 7359,
      "Ġstrongly": 7360,
      "ora": 7361,
      "icide": 7362,
      "Ġrose": 7363,
      "Ġbeneficial": 7364,
      "Ġproven": 7365,
      "Ġphotograph": 7366,
      "Ġimpl": 7367,
      "Ġbrowser": 7368,
      "ĠTechnology": 7369,
      "Ġlegislation": 7370,
      "olars": 7371,
      "Ġacts": 7372,
      "Ġstronger": 7373,
      "ERE": 7374,
      "Ġprotocol": 7375,
      "Ġnarrow": 7376,
      "uct": 7377,
      "istan": 7378,
      "Ġplane": 7379,
      "Ġ54": 7380,
      "Ġsaving": 7381,
      "Ġpregnant": 7382,
      "ĠDise": 7383,
      "ĠEngine": 7384,
      "Ġtrends": 7385,
      "Ġvulner": 7386,
      "Ġdrag": 7387,
      "class": 7388,
      "Ġexecutive": 7389,
      "Ġblame": 7390,
      "))": 7391,
      "Ġflood": 7392,
      "ĠIraq": 7393,
      "ĠMel": 7394,
      "Ġapps": 7395,
      "ailable": 7396,
      "xid": 7397,
      "Ġhyp": 7398,
      "oral": 7399,
      "yes": 7400,
      "Note": 7401,
      "Ġundert": 7402,
      "ili": 7403,
      "Ġchances": 7404,
      "ĠAfrican": 7405,
      "Ġhire": 7406,
      "Ġintention": 7407,
      "ounter": 7408,
      "ĠGrand": 7409,
      "Ġsensitive": 7410,
      "site": 7411,
      "Ġexposed": 7412,
      "Ġframework": 7413,
      "ĠFederal": 7414,
      "Ġstom": 7415,
      "Ġsizes": 7416,
      "ĠBas": 7417,
      "ĠCome": 7418,
      "ĠCode": 7419,
      "etime": 7420,
      "ointing": 7421,
      "ĠGlobal": 7422,
      "Ġrelation": 7423,
      "Ġblank": 7424,
      "Ġwave": 7425,
      "Ġcapture": 7426,
      "ophy": 7427,
      "Ġprospect": 7428,
      "Ġnervous": 7429,
      "Ġadventure": 7430,
      "oto": 7431,
      "Ġcovers": 7432,
      "raz": 7433,
      "Ġdiam": 7434,
      "about": 7435,
      "Ġfourth": 7436,
      "Ġvictims": 7437,
      "ĠMS": 7438,
      "Ġacce": 7439,
      "Ġ41": 7440,
      "Ġvessel": 7441,
      "Ġevaluate": 7442,
      "Ġsurf": 7443,
      "Ġstead": 7444,
      "ĠMA": 7445,
      "ĠEth": 7446,
      "Ġinteractions": 7447,
      "Ġthin": 7448,
      "Ġyellow": 7449,
      "Ġmembr": 7450,
      "Ġsecondary": 7451,
      "Fi": 7452,
      "Ġzero": 7453,
      "husi": 7454,
      "ĠFrancis": 7455,
      "ĠAnother": 7456,
      "Ġcategories": 7457,
      "df": 7458,
      "Ġax": 7459,
      "ĠSign": 7460,
      "Ġincreasingly": 7461,
      "Ġkilling": 7462,
      "Ġchamp": 7463,
      "Ġobst": 7464,
      "Ġhopefully": 7465,
      "ĠRoy": 7466,
      "Ġsavings": 7467,
      "rix": 7468,
      "prise": 7469,
      "NT": 7470,
      "Ġflag": 7471,
      "Ġconscious": 7472,
      "isk": 7473,
      "140": 7474,
      "ĠCommunity": 7475,
      "ĠOff": 7476,
      "vy": 7477,
      "âĢ¦âĢ¦": 7478,
      "Ġpocket": 7479,
      "ĠSk": 7480,
      "Ġsurrounding": 7481,
      "Ġdefault": 7482,
      "Ġhealing": 7483,
      "Ġcouncil": 7484,
      "Ġmeals": 7485,
      "ingu": 7486,
      "Ġsustainable": 7487,
      "Ġtech": 7488,
      "Ġoccurs": 7489,
      "ulty": 7490,
      "irms": 7491,
      "Ġ58": 7492,
      "Ġdifficulty": 7493,
      "Ġentreprene": 7494,
      "ognitive": 7495,
      "Ġpill": 7496,
      "DA": 7497,
      "ffered": 7498,
      "Ġ57": 7499,
      "Ġfinger": 7500,
      "osy": 7501,
      "illa": 7502,
      "ummer": 7503,
      "Ġinformative": 7504,
      "Ġsubsequent": 7505,
      "Ġcontem": 7506,
      "Ġtrading": 7507,
      "your": 7508,
      "Ġguilty": 7509,
      "tle": 7510,
      "last": 7511,
      "Ġcontrols": 7512,
      "Ġfaces": 7513,
      "born": 7514,
      "ownt": 7515,
      "Ġinvestors": 7516,
      "inity": 7517,
      "Ġcolleagues": 7518,
      "Ġpermanent": 7519,
      "Ġremem": 7520,
      "requ": 7521,
      "ĠCamp": 7522,
      "Ġresc": 7523,
      "ĠRober": 7524,
      "Ġbookmarks": 7525,
      "Ġ53": 7526,
      "Ġtact": 7527,
      "Ġtherm": 7528,
      "ĠNO": 7529,
      "Ġsubmitted": 7530,
      "Ġgifts": 7531,
      "including": 7532,
      "ĠSO": 7533,
      "ĠLo": 7534,
      "Ġevol": 7535,
      "alle": 7536,
      "roduction": 7537,
      "Ġhorm": 7538,
      "Ġinvited": 7539,
      "ĠAlex": 7540,
      "Ġsteel": 7541,
      "liament": 7542,
      "Ġholds": 7543,
      "haust": 7544,
      "Ġlatter": 7545,
      "ĠFrank": 7546,
      "atoes": 7547,
      "ĠLin": 7548,
      "ston": 7549,
      "Ġsynd": 7550,
      "rr": 7551,
      "Ġincl": 7552,
      "Ġenthusi": 7553,
      "ĠMass": 7554,
      "Ġdesper": 7555,
      "omed": 7556,
      "organ": 7557,
      "Ġ2003": 7558,
      "Ġroles": 7559,
      "Ġthy": 7560,
      "Ġaccessible": 7561,
      "ĠPet": 7562,
      "ĠShould": 7563,
      "ruption": 7564,
      "Ġoperate": 7565,
      "cre": 7566,
      "idem": 7567,
      "Ġobjective": 7568,
      "ĠRussia": 7569,
      "Ġdriven": 7570,
      "umes": 7571,
      "Ġchoosing": 7572,
      "Ġdates": 7573,
      "Ġimpressive": 7574,
      "Ġpowers": 7575,
      "Ġbehalf": 7576,
      "ĠIL": 7577,
      "Ġinvolving": 7578,
      "eling": 7579,
      "Ġmile": 7580,
      "ircle": 7581,
      "Ġunus": 7582,
      "Ġcorrectly": 7583,
      "ĠSD": 7584,
      "Ġcontribution": 7585,
      "ĠJud": 7586,
      "Act": 7587,
      "Ġ52": 7588,
      "icago": 7589,
      "ĠCT": 7590,
      "Ġequival": 7591,
      "Ġfigured": 7592,
      "Ġsuperior": 7593,
      "Ġmarked": 7594,
      "ĠYet": 7595,
      "Ġwhilst": 7596,
      "ĠBush": 7597,
      "Ġdynamic": 7598,
      "ĠPlus": 7599,
      "ĠCustom": 7600,
      "tw": 7601,
      "Ġtrials": 7602,
      "tered": 7603,
      "weight": 7604,
      "illy": 7605,
      "qually": 7606,
      "ĠSmith": 7607,
      "Ġanticip": 7608,
      "hent": 7609,
      "ashed": 7610,
      "ĠAdminist": 7611,
      "Ġmyst": 7612,
      "ĠThus": 7613,
      "Ġlying": 7614,
      "ester": 7615,
      "onym": 7616,
      "Ġrecall": 7617,
      "ĠOld": 7618,
      "Ġcommunicate": 7619,
      "Ġdrawn": 7620,
      "Ġunex": 7621,
      "Ġoccasion": 7622,
      "Ġcried": 7623,
      "ĠConf": 7624,
      "ĠCE": 7625,
      "Ġgorgeous": 7626,
      "Ġpreval": 7627,
      "Ġcontained": 7628,
      "ativity": 7629,
      "ĠJer": 7630,
      "Ġchildhood": 7631,
      "Ġresid": 7632,
      "130": 7633,
      "apes": 7634,
      "Ġobjects": 7635,
      "Ġshout": 7636,
      "Ġlawyer": 7637,
      "Ġhappiness": 7638,
      "ĠSuch": 7639,
      "2017": 7640,
      "Ġblind": 7641,
      "Ġextension": 7642,
      "Ġengagement": 7643,
      "Ġwarning": 7644,
      "ĠNote": 7645,
      "Ġminds": 7646,
      "LA": 7647,
      "riers": 7648,
      "Ġminim": 7649,
      "Which": 7650,
      "Ġbrilliant": 7651,
      "uster": 7652,
      "Ġlapt": 7653,
      "Ġlib": 7654,
      "ĠJapanese": 7655,
      "Ġstudying": 7656,
      "Ġending": 7657,
      "http": 7658,
      "125": 7659,
      "Ġindicating": 7660,
      "ĠÂµ": 7661,
      "Ġnaturally": 7662,
      "Ġcontest": 7663,
      "Ġaged": 7664,
      "Ġdisorders": 7665,
      "Ġzone": 7666,
      "Ġoh": 7667,
      "Ġcommonly": 7668,
      "ĠPage": 7669,
      "Ġbridge": 7670,
      "Ġsmoking": 7671,
      "ĠUsing": 7672,
      "ĠFoundation": 7673,
      "lementary": 7674,
      "Ġdimension": 7675,
      "ĠâĨ": 7676,
      "ĠReal": 7677,
      "Ġmolecular": 7678,
      "bell": 7679,
      "Ġsmiled": 7680,
      "Ġinsights": 7681,
      "Table": 7682,
      "Ġconserv": 7683,
      "atal": 7684,
      "ĠMult": 7685,
      "Ġloans": 7686,
      "Ġtransp": 7687,
      "ĠPlay": 7688,
      "Ġshares": 7689,
      "osa": 7690,
      "Ġprogramme": 7691,
      "ĠBrown": 7692,
      "Ġcertific": 7693,
      "Ġorganized": 7694,
      "ochem": 7695,
      "udd": 7696,
      "Ġexperiments": 7697,
      "holders": 7698,
      "otherapy": 7699,
      "Ġclothing": 7700,
      "lam": 7701,
      "ĠMain": 7702,
      "Ġ66": 7703,
      "Ġ130": 7704,
      "Ġhosting": 7705,
      "cers": 7706,
      "Ġattached": 7707,
      "ATION": 7708,
      "Gen": 7709,
      "ĠHappy": 7710,
      "orses": 7711,
      "cling": 7712,
      "Ġcyt": 7713,
      "Ġpin": 7714,
      "Ġregional": 7715,
      "ĠALL": 7716,
      "Ġflying": 7717,
      "etry": 7718,
      "Ġeligible": 7719,
      "lements": 7720,
      "rets": 7721,
      "Ġtab": 7722,
      "ĠTry": 7723,
      "Ġbelieves": 7724,
      "Phone": 7725,
      "Ġcompounds": 7726,
      "ĠFire": 7727,
      "ĠId": 7728,
      "ĠMoreover": 7729,
      "made": 7730,
      "Does": 7731,
      "ĠONE": 7732,
      "soft": 7733,
      "lt": 7734,
      "Ġï": 7735,
      "Ġgap": 7736,
      "Ġagricult": 7737,
      "Ġkit": 7738,
      "Ġscheduled": 7739,
      "ĠPsych": 7740,
      "Love": 7741,
      "Ġhopes": 7742,
      "MR": 7743,
      "Ġ~": 7744,
      "ĠPress": 7745,
      "ymph": 7746,
      "Ġrecover": 7747,
      "OK": 7748,
      "ubs": 7749,
      "Ġfrag": 7750,
      "pat": 7751,
      "Ġreplaced": 7752,
      "Ġadmitted": 7753,
      "appro": 7754,
      "Ġtoxic": 7755,
      "Ġtrave": 7756,
      "Ġmistakes": 7757,
      "Ġstrict": 7758,
      "ĠFather": 7759,
      "imm": 7760,
      "MP": 7761,
      "Ġgrass": 7762,
      "lif": 7763,
      "uality": 7764,
      "Ġreputation": 7765,
      "owed": 7766,
      "urrent": 7767,
      "ota": 7768,
      "Okay": 7769,
      "Ġdust": 7770,
      "rants": 7771,
      "ĠMaterials": 7772,
      "Ġraw": 7773,
      "Ġprotest": 7774,
      "ĠMarket": 7775,
      "Ġpresents": 7776,
      "Ġfitness": 7777,
      "Up": 7778,
      "Ġ400": 7779,
      "Ġpod": 7780,
      "Ġmortality": 7781,
      "Ġhem": 7782,
      "umin": 7783,
      "only": 7784,
      "ords": 7785,
      "BI": 7786,
      "Int": 7787,
      "Sorry": 7788,
      "Would": 7789,
      "Ġlicens": 7790,
      "God": 7791,
      "itud": 7792,
      "Ġboss": 7793,
      "Ġske": 7794,
      "Ġintegr": 7795,
      "Ġsuggesting": 7796,
      "month": 7797,
      "Ġlux": 7798,
      "Ġmaintaining": 7799,
      "Ġpace": 7800,
      "Ġpasseng": 7801,
      "Ġvirus": 7802,
      "Ġdesigns": 7803,
      "Ġdecreased": 7804,
      "Ġseed": 7805,
      "Man": 7806,
      "ĠHam": 7807,
      "ushed": 7808,
      "Ġthrill": 7809,
      "ĠFind": 7810,
      "ĠRock": 7811,
      "Ġcurren": 7812,
      "ĠSens": 7813,
      "pir": 7814,
      "Ġrising": 7815,
      "Ġholidays": 7816,
      "Ġcontents": 7817,
      "ita": 7818,
      "dep": 7819,
      "Ġalarm": 7820,
      "ĠContin": 7821,
      "Ġrecipes": 7822,
      "SP": 7823,
      "ifies": 7824,
      "ĠPubl": 7825,
      "Ġbinding": 7826,
      "ĠIran": 7827,
      "Ġairport": 7828,
      "Ġsurve": 7829,
      "Ġdeserve": 7830,
      "ovascular": 7831,
      "ĠCarol": 7832,
      "Ġinnovative": 7833,
      "making": 7834,
      "Ġsmoke": 7835,
      "ĠPolicy": 7836,
      "orse": 7837,
      "anes": 7838,
      "##": 7839,
      "Ġcock": 7840,
      "Ġpriority": 7841,
      "Ġparticipation": 7842,
      "Ġoutstanding": 7843,
      "âĢ¦âĢĿ": 7844,
      "step": 7845,
      "Ġentertainment": 7846,
      "Ġborrow": 7847,
      "Ġbreaking": 7848,
      "Ġexists": 7849,
      "Ġsod": 7850,
      "Ġtherapeutic": 7851,
      "2023": 7852,
      "Ġshower": 7853,
      "ĠMexico": 7854,
      "Ġshipping": 7855,
      "Ġles": 7856,
      "Ġsurvive": 7857,
      "Ġstudied": 7858,
      "ĠMill": 7859,
      "Ġputs": 7860,
      "lights": 7861,
      "Ġdesired": 7862,
      "Americ": 7863,
      "Ġupcoming": 7864,
      "earing": 7865,
      "Ġreturns": 7866,
      "Ġbacteria": 7867,
      "Ġrepeat": 7868,
      "ĠCall": 7869,
      "Ġveter": 7870,
      "Ġacute": 7871,
      "Ġstored": 7872,
      "Ġasks": 7873,
      "Ġbehaviour": 7874,
      "angers": 7875,
      "2016": 7876,
      "Ġwarrant": 7877,
      "Ġrecon": 7878,
      "acking": 7879,
      "ura": 7880,
      "asters": 7881,
      "Ġwishes": 7882,
      "Ġcookies": 7883,
      "may": 7884,
      "Ġcopyright": 7885,
      "Ġunknown": 7886,
      "Ġowned": 7887,
      "lude": 7888,
      "Ġscientists": 7889,
      "irth": 7890,
      "?)": 7891,
      "ĠArab": 7892,
      "Ġvisible": 7893,
      "Ġmembership": 7894,
      "Ġgay": 7895,
      "Ġinches": 7896,
      "Ġdiversity": 7897,
      "Ġborder": 7898,
      "Ġsleeping": 7899,
      "Ġanalyzed": 7900,
      "ependent": 7901,
      "Ġoral": 7902,
      "Ġshad": 7903,
      "Ġheaded": 7904,
      "BA": 7905,
      "Ġdeeply": 7906,
      "Ġcomposition": 7907,
      "rat": 7908,
      "Ġcolon": 7909,
      "Ġhel": 7910,
      "open": 7911,
      "Ġpathway": 7912,
      "ensus": 7913,
      "Ġarmy": 7914,
      "Ġ118": 7915,
      "ĠSpring": 7916,
      "ho": 7917,
      "Ġfurniture": 7918,
      "Ġque": 7919,
      "Ġoriginally": 7920,
      "Ġpublication": 7921,
      "sis": 7922,
      "ĠForm": 7923,
      "Ġclassroom": 7924,
      "Ġpp": 7925,
      "good": 7926,
      "would": 7927,
      "owing": 7928,
      "rary": 7929,
      "Ġ115": 7930,
      "Ġoxygen": 7931,
      "Ġemployer": 7932,
      "Ġexhaust": 7933,
      "Ġok": 7934,
      "uts": 7935,
      "Those": 7936,
      "Ġdisorder": 7937,
      "ĠMinister": 7938,
      "oga": 7939,
      "Ġpermit": 7940,
      "Ġrecognition": 7941,
      "Ġduration": 7942,
      "Ġmoral": 7943,
      "ĠTur": 7944,
      "Ġphotograp": 7945,
      "ĠGree": 7946,
      "ĠWhether": 7947,
      "Ġpeer": 7948,
      "Ġappreciated": 7949,
      "ĠCath": 7950,
      "Ġridic": 7951,
      "Ġanalyses": 7952,
      "Ġexperimental": 7953,
      "iversary": 7954,
      "lets": 7955,
      "PT": 7956,
      "comp": 7957,
      "Ġlaughed": 7958,
      "Ar": 7959,
      "edy": 7960,
      "Ġmedication": 7961,
      "Ġtack": 7962,
      "Ġburden": 7963,
      "Ġ59": 7964,
      "Ġbiological": 7965,
      "Ġcraft": 7966,
      "Ġspecified": 7967,
      "Ġworldwide": 7968,
      "astro": 7969,
      "izon": 7970,
      "Ġuniform": 7971,
      "Ġreplacement": 7972,
      "Ġaccum": 7973,
      "ĠÂ»": 7974,
      "Ġscream": 7975,
      "Ġshots": 7976,
      "ĠThink": 7977,
      "Ġbars": 7978,
      "Ġperforming": 7979,
      "function": 7980,
      "Tube": 7981,
      "Ġstake": 7982,
      "Ġtutor": 7983,
      "Ġbags": 7984,
      "Ġequally": 7985,
      "Ġvo": 7986,
      "Ġdemonstrate": 7987,
      "Ġhonestly": 7988,
      "ĠRiver": 7989,
      "Ġnights": 7990,
      "Ġadopted": 7991,
      "Ġsum": 7992,
      "idation": 7993,
      "Ġtransportation": 7994,
      "Ġperiods": 7995,
      "Ġlately": 7996,
      "Ġsilence": 7997,
      "Ġemotions": 7998,
      "ĠEs": 7999,
      "ni": 8000,
      "ĠDev": 8001,
      "Ġsections": 8002,
      "trans": 8003,
      "Ġoutdoor": 8004,
      "Ġdisagree": 8005,
      "Ġdeclared": 8006,
      "Ġlargely": 8007,
      "mes": 8008,
      "ĠStart": 8009,
      "Ġ2001": 8010,
      "Ġheading": 8011,
      "Ġcontinuing": 8012,
      "Ġcow": 8013,
      "plate": 8014,
      "ĠArch": 8015,
      "Ġsupplies": 8016,
      "Ġabund": 8017,
      "def": 8018,
      "Ġcolumn": 8019,
      "Ġrapidly": 8020,
      "Ġpromoting": 8021,
      "400": 8022,
      "dition": 8023,
      "Ġdensity": 8024,
      "oding": 8025,
      "Ġpep": 8026,
      "Ġeffectiveness": 8027,
      "Ġcorrelation": 8028,
      "Ġshame": 8029,
      "icy": 8030,
      "Ġancient": 8031,
      "Ġstomach": 8032,
      "ĠSC": 8033,
      "Ġhook": 8034,
      "ĠPan": 8035,
      "Ġdeeper": 8036,
      "Ġ117": 8037,
      "Ġbrands": 8038,
      "ĠScott": 8039,
      "Ġavailability": 8040,
      "ĠBob": 8041,
      "Ġaddressed": 8042,
      "Ġkidney": 8043,
      "plete": 8044,
      "ĠDad": 8045,
      "Ġdistributed": 8046,
      "Ġinflammation": 8047,
      "Ġjack": 8048,
      "Finally": 8049,
      "iability": 8050,
      "ĠMax": 8051,
      "Ġfundamental": 8052,
      "ĠEconom": 8053,
      "Ġimaging": 8054,
      "Ġpersonality": 8055,
      "ishes": 8056,
      "ĠChicago": 8057,
      "Ġembr": 8058,
      "2022": 8059,
      "profit": 8060,
      "Ġsilver": 8061,
      "Other": 8062,
      "ĠNY": 8063,
      "ĠPoly": 8064,
      "ĠIr": 8065,
      "him": 8066,
      "Ġinner": 8067,
      "Ġ113": 8068,
      "105": 8069,
      "Ġaudio": 8070,
      "Ġhearts": 8071,
      "ancial": 8072,
      "Ġcounty": 8073,
      "Ġlimitations": 8074,
      "flamm": 8075,
      "ĠTre": 8076,
      "Keep": 8077,
      "Ġenforcement": 8078,
      "ucks": 8079,
      "ĠAff": 8080,
      "Ġconfused": 8081,
      "ogenic": 8082,
      "Ġsup": 8083,
      "SD": 8084,
      "emon": 8085,
      "ĠMen": 8086,
      "Ġimprovements": 8087,
      "Ġpurs": 8088,
      "Ġphenomen": 8089,
      "Ġscar": 8090,
      "ĠAsia": 8091,
      "Ġuncle": 8092,
      "Ġhanging": 8093,
      "Ġsatisfaction": 8094,
      "Ġentitled": 8095,
      "Ġreaching": 8096,
      "Ġrelating": 8097,
      "Ġmagazine": 8098,
      "Ġprovisions": 8099,
      "Ġlaunched": 8100,
      "ĠEnergy": 8101,
      "Ġfinds": 8102,
      "Ġqualified": 8103,
      "ĠNext": 8104,
      "Ġensuring": 8105,
      "ĠBlog": 8106,
      "atern": 8107,
      "Ġuniverse": 8108,
      "ĠLos": 8109,
      "uan": 8110,
      "ĠEffect": 8111,
      "250": 8112,
      "imer": 8113,
      "iatric": 8114,
      "Ġ116": 8115,
      "cal": 8116,
      "deed": 8117,
      "dust": 8118,
      "Ġrail": 8119,
      "enda": 8120,
      "TA": 8121,
      "Ġcoast": 8122,
      "itar": 8123,
      "ĠMaster": 8124,
      "such": 8125,
      "ga": 8126,
      "Ġrarely": 8127,
      "viously": 8128,
      "Ġnative": 8129,
      "Ġbirds": 8130,
      "ĠTor": 8131,
      "Ġexplains": 8132,
      "Ġbird": 8133,
      "pass": 8134,
      "sem": 8135,
      "Ġpromised": 8136,
      "ĠLeg": 8137,
      "ĠYang": 8138,
      "Ġ67": 8139,
      "eat": 8140,
      "Ġexcuse": 8141,
      "Ġtelephone": 8142,
      "Ġ72": 8143,
      "Ġsacrif": 8144,
      "Ġmanufacturing": 8145,
      "Ġmixture": 8146,
      "otyp": 8147,
      "Ġtalks": 8148,
      "ĠDiv": 8149,
      "ĠĠĠ": 8150,
      "Ġlists": 8151,
      "Ġfocusing": 8152,
      "ĠPot": 8153,
      "ĠRussian": 8154,
      "ĠĠĠĠĠĠĠĠĠĠĠĠĠĠĠĠ": 8155,
      "ĠFollow": 8156,
      "Ġsummary": 8157,
      "lands": 8158,
      "ĠâĪ": 8159,
      "bled": 8160,
      "uscript": 8161,
      "Ġmini": 8162,
      "Ġcorresponding": 8163,
      "Ġproposal": 8164,
      "endar": 8165,
      "oked": 8166,
      "Ġstudio": 8167,
      "Ġalign": 8168,
      "through": 8169,
      "actions": 8170,
      "bably": 8171,
      "ĠiPhone": 8172,
      "Ġ119": 8173,
      "otes": 8174,
      "Ġdamn": 8175,
      "Ġrely": 8176,
      "Ġcompliance": 8177,
      "Ã¡": 8178,
      "Ġ68": 8179,
      "stal": 8180,
      "Ġpit": 8181,
      "Ġrice": 8182,
      "inf": 8183,
      "Ġmouse": 8184,
      "Ġtargets": 8185,
      "Bl": 8186,
      "dis": 8187,
      "ĠExt": 8188,
      "hyd": 8189,
      "ĠBur": 8190,
      "Ġclimb": 8191,
      "FL": 8192,
      "Ġinstrument": 8193,
      "cence": 8194,
      "Ġnose": 8195,
      "147": 8196,
      "Ah": 8197,
      "Ġargue": 8198,
      "Ġsuck": 8199,
      "Ġclaimed": 8200,
      "ĠBlue": 8201,
      "Ġye": 8202,
      "Ġsubstantial": 8203,
      "Ġpig": 8204,
      "ĠLab": 8205,
      "mo": 8206,
      "Ġbutt": 8207,
      "Ġweekly": 8208,
      "Ġflexible": 8209,
      "Ġscreening": 8210,
      "bar": 8211,
      "Ġ2002": 8212,
      "Ġbasket": 8213,
      "ocyt": 8214,
      "Ġtrem": 8215,
      "Ġencouraged": 8216,
      "Ġcharm": 8217,
      "ĠDirector": 8218,
      "sters": 8219,
      "Ġrequests": 8220,
      "istically": 8221,
      "ĠParis": 8222,
      "ĠClinical": 8223,
      "oured": 8224,
      "isition": 8225,
      "Ġsake": 8226,
      "',": 8227,
      "Ġequivalent": 8228,
      "Ġmachines": 8229,
      "ref": 8230,
      "ĠSar": 8231,
      "Ġdining": 8232,
      "Ġhesit": 8233,
      "OVE": 8234,
      "Ġlips": 8235,
      "uous": 8236,
      "uing": 8237,
      "Ġuncertain": 8238,
      "opers": 8239,
      "Ġmoves": 8240,
      "Ġupload": 8241,
      "SH": 8242,
      "Ġsees": 8243,
      "Ġâī": 8244,
      "Ġcontributions": 8245,
      "Ġbills": 8246,
      "Ġdont": 8247,
      "ILL": 8248,
      "Ġpainting": 8249,
      "Ġpra": 8250,
      "Ġintellect": 8251,
      "Ġsauce": 8252,
      "Ġtables": 8253,
      "Ġnearby": 8254,
      "Ġinvestigate": 8255,
      "Ġorganis": 8256,
      "Ġtargeted": 8257,
      "writ": 8258,
      "ĠWay": 8259,
      "Ġcoh": 8260,
      "ĠThings": 8261,
      "Ġactivation": 8262,
      "igate": 8263,
      "Ġapplying": 8264,
      "Ġrig": 8265,
      "acked": 8266,
      "Ġforgotten": 8267,
      "ĠSpirit": 8268,
      "lice": 8269,
      "ĠTeam": 8270,
      "exp": 8271,
      "rients": 8272,
      "usal": 8273,
      "ĠMiddle": 8274,
      "ĠMike": 8275,
      "ĠUnfortunately": 8276,
      "Ġcampus": 8277,
      "Ġinstitution": 8278,
      "bial": 8279,
      "ĠSpecial": 8280,
      "aph": 8281,
      "Ġaimed": 8282,
      "ĠCanadian": 8283,
      "inger": 8284,
      "Ġtempt": 8285,
      "lie": 8286,
      "Ġeggs": 8287,
      "Ġbowl": 8288,
      "Come": 8289,
      "aded": 8290,
      "ĠConference": 8291,
      "Ġcoal": 8292,
      "ĠDen": 8293,
      "arters": 8294,
      "Ġraising": 8295,
      "Ġcommunications": 8296,
      "Two": 8297,
      "Ġspaces": 8298,
      "Ġlegit": 8299,
      "Ġdollar": 8300,
      "Ġ112": 8301,
      "ĠThough": 8302,
      "ĠMean": 8303,
      "¿½": 8304,
      "Ġthro": 8305,
      "ĠNa": 8306,
      "orted": 8307,
      "Ġaband": 8308,
      "Ġgluc": 8309,
      "po": 8310,
      "ĠComput": 8311,
      "Ġmob": 8312,
      "Ġfishing": 8313,
      "rot": 8314,
      "aze": 8315,
      "because": 8316,
      "Ġbes": 8317,
      "live": 8318,
      "ĠWil": 8319,
      "emed": 8320,
      "Ġmoon": 8321,
      "aste": 8322,
      "rolling": 8323,
      "Ġexamination": 8324,
      "ĠWeek": 8325,
      "0000": 8326,
      "ĠItaly": 8327,
      "GF": 8328,
      "Ġgym": 8329,
      "Ġarts": 8330,
      "Ġregards": 8331,
      "ĠYouTube": 8332,
      "TT": 8333,
      "ansion": 8334,
      "Ġreveal": 8335,
      "ĠâĹ¦": 8336,
      "Ġathlet": 8337,
      "ĠNor": 8338,
      "Ġcooper": 8339,
      "Ġwinner": 8340,
      "ĠBer": 8341,
      "Sec": 8342,
      "Ġsuffered": 8343,
      "Ġbarely": 8344,
      "Ġtraveling": 8345,
      "Ġsubstance": 8346,
      "ĠDC": 8347,
      "Ġswimming": 8348,
      "inced": 8349,
      "Ġinnoc": 8350,
      "ĠWall": 8351,
      "Ġ124": 8352,
      "Ġdecline": 8353,
      "Ġdestination": 8354,
      "Ġwest": 8355,
      "Ġfraud": 8356,
      "Ġdivor": 8357,
      "Ġgrain": 8358,
      "RS": 8359,
      "ioxid": 8360,
      "ĠMom": 8361,
      "vi": 8362,
      "Ġfilter": 8363,
      "gi": 8364,
      "Ġlifetime": 8365,
      "Ġerrors": 8366,
      "Ġsymbol": 8367,
      "Ġattractive": 8368,
      "Ġintense": 8369,
      "uction": 8370,
      "Ġrecording": 8371,
      "Ġtraum": 8372,
      "Ġprayer": 8373,
      "Ġfiled": 8374,
      "Ġignore": 8375,
      "Ġwithdraw": 8376,
      "Ġbiom": 8377,
      "Ġsegment": 8378,
      "Ġunc": 8379,
      "2020": 8380,
      "Ġsignificance": 8381,
      "ĠSurg": 8382,
      "Ġvirtual": 8383,
      "Ġloose": 8384,
      "Ġstatistics": 8385,
      "kins": 8386,
      "amber": 8387,
      "ĠNE": 8388,
      "Ġrepresentative": 8389,
      "ĠInterest": 8390,
      "Ġmild": 8391,
      "Ġprosec": 8392,
      "Ġdrinks": 8393,
      "rogen": 8394,
      "hee": 8395,
      "Ġinstant": 8396,
      "tery": 8397,
      "Ġcoc": 8398,
      "reated": 8399,
      "fa": 8400,
      "lett": 8401,
      "Sometimes": 8402,
      "Ġdialog": 8403,
      "2021": 8404,
      "ĠEveryone": 8405,
      "omin": 8406,
      "ĠMother": 8407,
      "ĠLittle": 8408,
      "Ġretirement": 8409,
      "Ġenhanced": 8410,
      "Ġfluid": 8411,
      "Ġmechanical": 8412,
      "war": 8413,
      "Ġsheet": 8414,
      "Ġinvent": 8415,
      "ĠSU": 8416,
      "imited": 8417,
      "ola": 8418,
      "Ġyard": 8419,
      "Ġdownt": 8420,
      "icate": 8421,
      "Reg": 8422,
      "aneous": 8423,
      "Each": 8424,
      "Ġwisdom": 8425,
      "ĠSand": 8426,
      "ĠHeart": 8427,
      "charge": 8428,
      "Ġchannels": 8429,
      "Ġscrew": 8430,
      "giving": 8431,
      "apse": 8432,
      "Ġadverse": 8433,
      "Ġhabits": 8434,
      "ĠDig": 8435,
      "ruits": 8436,
      "Ġshops": 8437,
      "Cons": 8438,
      "oted": 8439,
      "ĠCould": 8440,
      "Ġterrif": 8441,
      "Ġ77": 8442,
      "Ġpic": 8443,
      "Ġconcepts": 8444,
      "Ġpushed": 8445,
      "Ġladies": 8446,
      "ĠSenate": 8447,
      "Ġnations": 8448,
      "ĠRNA": 8449,
      "...]": 8450,
      "ĠMuslim": 8451,
      "Ġstrike": 8452,
      "Stud": 8453,
      "Ġsplit": 8454,
      "Ġ114": 8455,
      "ĠVict": 8456,
      "Ġcontinuous": 8457,
      "arrass": 8458,
      "ĠNeed": 8459,
      "Ġpreparing": 8460,
      "bet": 8461,
      "Ġmanagers": 8462,
      "ĠAtl": 8463,
      "ĠCost": 8464,
      "Ġorigin": 8465,
      "hour": 8466,
      "Ġlol": 8467,
      "Ġram": 8468,
      "Ġstem": 8469,
      "Ġintroduction": 8470,
      "Ġlets": 8471,
      "Ġsyndrome": 8472,
      "ĠNature": 8473,
      "Ġfewer": 8474,
      "Ġbreed": 8475,
      "Ġstruck": 8476,
      "ĠMO": 8477,
      "ĠGirl": 8478,
      "ĠTim": 8479,
      "Ġprevention": 8480,
      "Ġassessed": 8481,
      "Ġunusual": 8482,
      "Ġelsewhere": 8483,
      "ishment": 8484,
      "Ġrural": 8485,
      "Ġmaintained": 8486,
      "Ġlowest": 8487,
      "Ġprivile": 8488,
      "Ġboxes": 8489,
      "Ġstruggling": 8490,
      "esity": 8491,
      "Ġelectricity": 8492,
      "âĢĻ,": 8493,
      "Ġ51": 8494,
      "Ġgolf": 8495,
      "Ġdivided": 8496,
      "BM": 8497,
      "Supp": 8498,
      "ĠAccess": 8499,
      "Ġsoldiers": 8500,
      "Ġprovision": 8501,
      "FA": 8502,
      "called": 8503,
      "Ġbuff": 8504,
      "umbled": 8505,
      "obs": 8506,
      "Ġdisplayed": 8507,
      "Ġsupports": 8508,
      "Ġrequirement": 8509,
      "ĠDistrict": 8510,
      "Ġtor": 8511,
      "Ġsystematic": 8512,
      "elly": 8513,
      "Ġacceler": 8514,
      "Ġinstallation": 8515,
      "ĠJo": 8516,
      "Ġpref": 8517,
      "everal": 8518,
      "worth": 8519,
      "Ġsear": 8520,
      "ĠEnvironment": 8521,
      "Ġ63": 8522,
      "ĠNothing": 8523,
      "?'": 8524,
      "Ġhorses": 8525,
      "Ġ98": 8526,
      "Ġstir": 8527,
      "hal": 8528,
      "Ġmortgage": 8529,
      "abil": 8530,
      "Ġgiant": 8531,
      "Her": 8532,
      "Ġcourage": 8533,
      "Ġencounter": 8534,
      "Ġreturning": 8535,
      "Ġcomputers": 8536,
      "Ġauthent": 8537,
      "Co": 8538,
      "amics": 8539,
      "Ġflash": 8540,
      "ĠInstagram": 8541,
      "iotic": 8542,
      "ĠAge": 8543,
      "uccess": 8544,
      "Ġelected": 8545,
      "Ġgrace": 8546,
      "Ġclock": 8547,
      "ĠPolice": 8548,
      "Ġera": 8549,
      "Ġtur": 8550,
      "John": 8551,
      "asma": 8552,
      "Ġ88": 8553,
      "child": 8554,
      "Ġbabies": 8555,
      "Ġsharp": 8556,
      "ĠThree": 8557,
      "HT": 8558,
      "normal": 8559,
      "ĠME": 8560,
      "empts": 8561,
      "Ġ%": 8562,
      "Ġintensity": 8563,
      "1038": 8564,
      "Ġinterface": 8565,
      "heart": 8566,
      "Ġsequence": 8567,
      "Ġ96": 8568,
      "Ġjoke": 8569,
      "Ġorient": 8570,
      "health": 8571,
      "ĠWood": 8572,
      "Ġdent": 8573,
      "Ġfaced": 8574,
      "elcome": 8575,
      "Ġacids": 8576,
      "Ġresulted": 8577,
      "Ġfinance": 8578,
      "Ġhaz": 8579,
      "stitution": 8580,
      "stract": 8581,
      "ĠMount": 8582,
      "Ġfalls": 8583,
      "Ġintroduce": 8584,
      "Ġchart": 8585,
      "Ġvegetables": 8586,
      "Ġcomprom": 8587,
      "Ġstrategic": 8588,
      "leg": 8589,
      "ĠIC": 8590,
      "Rec": 8591,
      "ĠBoy": 8592,
      "ushing": 8593,
      "Ġstructural": 8594,
      "vol": 8595,
      "usive": 8596,
      "Ġsorts": 8597,
      "ĠHotel": 8598,
      "etary": 8599,
      "ÃŃ": 8600,
      "ĠExpl": 8601,
      "Ġpermitted": 8602,
      "Ġversions": 8603,
      "ĠSpanish": 8604,
      "Ġriding": 8605,
      "DS": 8606,
      "iece": 8607,
      "umps": 8608,
      "enter": 8609,
      "ĠHoly": 8610,
      "Ġattended": 8611,
      "Ġprinciple": 8612,
      "Ġunexpected": 8613,
      "Ġadds": 8614,
      "Ġintegrated": 8615,
      "Ġovercome": 8616,
      "Ġversus": 8617,
      "Ġemphas": 8618,
      "ĠHIV": 8619,
      "Ġupset": 8620,
      "ĠLead": 8621,
      "Ġears": 8622,
      "Ġwhereas": 8623,
      "ceived": 8624,
      "ĠOpt": 8625,
      "chem": 8626,
      "Ġadj": 8627,
      "lied": 8628,
      "reland": 8629,
      "Press": 8630,
      "essed": 8631,
      "ĠImp": 8632,
      "Ġremarkable": 8633,
      "Ġgig": 8634,
      "occ": 8635,
      "Ġelder": 8636,
      "Ġwash": 8637,
      "Ġintelligent": 8638,
      "Ġproved": 8639,
      "nn": 8640,
      "Ġeager": 8641,
      "ERS": 8642,
      "Ġopposed": 8643,
      "Ġrevolution": 8644,
      "licit": 8645,
      "think": 8646,
      "Ġphones": 8647,
      "Ġdental": 8648,
      "Ġscholars": 8649,
      "Ġprecious": 8650,
      "Ġmerc": 8651,
      "Ġscenario": 8652,
      "van": 8653,
      "107": 8654,
      "Car": 8655,
      "Ġexamine": 8656,
      "anny": 8657,
      "pling": 8658,
      "Ġgate": 8659,
      "Ġanger": 8660,
      "has": 8661,
      "Ġassigned": 8662,
      "ĠAngeles": 8663,
      "Ġfucking": 8664,
      "Ġpopulations": 8665,
      "800": 8666,
      "world": 8667,
      "clusions": 8668,
      "Ġclosing": 8669,
      "Ġcompr": 8670,
      "106": 8671,
      "Ġconvinced": 8672,
      "aying": 8673,
      "Having": 8674,
      "Ġcognitive": 8675,
      "Ġestimate": 8676,
      "case": 8677,
      "ĠJul": 8678,
      "Ġnit": 8679,
      "plant": 8680,
      "Ġmanual": 8681,
      "atics": 8682,
      "mod": 8683,
      "ĠPriv": 8684,
      "Ġgained": 8685,
      "Ġserves": 8686,
      "ĠRoad": 8687,
      "Ġapolog": 8688,
      "Ġgovernments": 8689,
      "Ġcos": 8690,
      "Ġconcentrations": 8691,
      "115": 8692,
      "ĠRepublican": 8693,
      "Ġspin": 8694,
      "Ġliber": 8695,
      "Ġimplemented": 8696,
      "ĠNetwork": 8697,
      "Ġentering": 8698,
      "ĠPatients": 8699,
      "mentation": 8700,
      "Ġroads": 8701,
      "induced": 8702,
      "Ġfract": 8703,
      "Ġpicking": 8704,
      "Ġjew": 8705,
      "ĠHR": 8706,
      "ĠPS": 8707,
      "Ġcompensation": 8708,
      "Ġgear": 8709,
      "ĠPA": 8710,
      "Î²": 8711,
      "Ġproducing": 8712,
      "igan": 8713,
      "ĠDrug": 8714,
      "Ġtemporary": 8715,
      "Ġtemperatures": 8716,
      "Comm": 8717,
      "Ġ1000": 8718,
      "cellent": 8719,
      "uke": 8720,
      "ĠâĢĻ": 8721,
      "Ġfabulous": 8722,
      "Ġlandscape": 8723,
      "too": 8724,
      "Ġocean": 8725,
      "Inst": 8726,
      "ĠCentre": 8727,
      "ĠLake": 8728,
      "Ġinjured": 8729,
      "olit": 8730,
      "Ġmanif": 8731,
      "ĠIll": 8732,
      "Ġdispos": 8733,
      "Ġvisits": 8734,
      "Ã¢": 8735,
      "Ġregulatory": 8736,
      "Ġdisaster": 8737,
      "umer": 8738,
      "them": 8739,
      "edu": 8740,
      "Ġpathways": 8741,
      "Ġsensitivity": 8742,
      "ba": 8743,
      "Ġstopping": 8744,
      "uating": 8745,
      "Ġconcrete": 8746,
      "Ġlaptop": 8747,
      "Ġpreferred": 8748,
      "104": 8749,
      "Anyway": 8750,
      "PE": 8751,
      "Ġdemands": 8752,
      "Ġorganisation": 8753,
      "Ġdying": 8754,
      "ĠAgree": 8755,
      "rained": 8756,
      "ĠPract": 8757,
      "Ġordinary": 8758,
      "Ġelectrical": 8759,
      "ĠProfess": 8760,
      "Ġdiagnosed": 8761,
      "ðĿĳ": 8762,
      "Ġtort": 8763,
      "Ġtons": 8764,
      "ĠFinally": 8765,
      "Ġderived": 8766,
      "Î±": 8767,
      "ĠCy": 8768,
      "uten": 8769,
      "Ġmetabolism": 8770,
      "ugs": 8771,
      "ĠDown": 8772,
      "Ġproportion": 8773,
      "Ġadvantages": 8774,
      "Ġshook": 8775,
      "Ġdefine": 8776,
      "Ġsignaling": 8777,
      "west": 8778,
      "Ġblocks": 8779,
      "Ġarrested": 8780,
      "ĠJoe": 8781,
      "ĠDespite": 8782,
      "Ġquotes": 8783,
      "ificial": 8784,
      "Ġexpansion": 8785,
      "ĠBritain": 8786,
      "mented": 8787,
      "Ġmeta": 8788,
      "Ġidentification": 8789,
      "sts": 8790,
      "Ġscenes": 8791,
      "Ġ78": 8792,
      "Ġthereby": 8793,
      "Ġpride": 8794,
      "ĠSure": 8795,
      "ĠBeing": 8796,
      "ception": 8797,
      "reshold": 8798,
      "Ġexploring": 8799,
      "Ġembarrass": 8800,
      "otype": 8801,
      "letter": 8802,
      "erior": 8803,
      "Ġrecy": 8804,
      "ĠDisease": 8805,
      "ĠHaving": 8806,
      "Ġnewspaper": 8807,
      "atre": 8808,
      "ĠHE": 8809,
      "ĠAp": 8810,
      "Ġinitially": 8811,
      "Ġdirections": 8812,
      "Rep": 8813,
      "duction": 8814,
      "ione": 8815,
      "Ġcurve": 8816,
      "Ġscope": 8817,
      "Ġflour": 8818,
      "low": 8819,
      "âĢĲ": 8820,
      "uana": 8821,
      "athered": 8822,
      "ĠEnter": 8823,
      "Ġleague": 8824,
      "fi": 8825,
      "Ġliability": 8826,
      "ĠKorea": 8827,
      "Ġ69": 8828,
      "Ġloyal": 8829,
      "Ġadequate": 8830,
      "Ġpreprint": 8831,
      "ĠTem": 8832,
      "specific": 8833,
      "onal": 8834,
      "Ġcertified": 8835,
      "ulum": 8836,
      "415": 8837,
      "looking": 8838,
      "Ġconnections": 8839,
      "Ġlift": 8840,
      "ART": 8841,
      "108": 8842,
      "ĠExp": 8843,
      "HS": 8844,
      "Ġrequested": 8845,
      "ĠBeach": 8846,
      "ĠFA": 8847,
      "illing": 8848,
      "ĠOnline": 8849,
      "Ġcomplications": 8850,
      "Ġ76": 8851,
      "irts": 8852,
      "ĠInsurance": 8853,
      "Ġinvas": 8854,
      "rates": 8855,
      "Ġevaluated": 8856,
      "Whether": 8857,
      "109": 8858,
      "ĠProduct": 8859,
      "Ġcovering": 8860,
      "ĠBab": 8861,
      "Ġdeploy": 8862,
      "UC": 8863,
      "Ġplatforms": 8864,
      "ĠEverything": 8865,
      "ĠCN": 8866,
      "Da": 8867,
      "Ġho": 8868,
      "ua": 8869,
      "Ġcopies": 8870,
      "Ġduties": 8871,
      "iotics": 8872,
      "Ġstatistical": 8873,
      "ĠGive": 8874,
      "asty": 8875,
      "ĠÏ": 8876,
      "Ġphotography": 8877,
      "gypt": 8878,
      "Ġnarr": 8879,
      "ĠSecretary": 8880,
      "ocated": 8881,
      "Ġspell": 8882,
      "ĠBased": 8883,
      "estinal": 8884,
      "Ġattempts": 8885,
      "Ġpersonnel": 8886,
      "2015": 8887,
      "Ġinfections": 8888,
      "sect": 8889,
      "Ġprogression": 8890,
      "ribution": 8891,
      "Ġoven": 8892,
      "rying": 8893,
      "ĠMot": 8894,
      "Perhaps": 8895,
      "ĠHaw": 8896,
      "ĠFront": 8897,
      "Ġdetected": 8898,
      "135": 8899,
      "ĠShow": 8900,
      "ateral": 8901,
      "Ġawful": 8902,
      "ava": 8903,
      "lessly": 8904,
      "ova": 8905,
      "ĠScot": 8906,
      "REE": 8907,
      "ĠLouis": 8908,
      "ĠMolec": 8909,
      "Ġrepresented": 8910,
      "verty": 8911,
      "Ġlegisl": 8912,
      "Ġpretend": 8913,
      "ĠPop": 8914,
      "ĠWithout": 8915,
      "iological": 8916,
      "Part": 8917,
      "Ġedition": 8918,
      "Ġ97": 8919,
      "Ġcuts": 8920,
      "ĠThrough": 8921,
      "Ġguns": 8922,
      "ĠRemember": 8923,
      "Ġhandling": 8924,
      "Ġpoverty": 8925,
      "Ac": 8926,
      "Ġconsist": 8927,
      "BD": 8928,
      "Ġangle": 8929,
      "Ġceleb": 8930,
      "Ġarrival": 8931,
      "Ġrefused": 8932,
      "ĠLow": 8933,
      "ĠCho": 8934,
      "ocial": 8935,
      "were": 8936,
      "Ġhumor": 8937,
      "Ġminimal": 8938,
      "Ġexperiencing": 8939,
      "Ġjail": 8940,
      "Ġconfig": 8941,
      "fts": 8942,
      "Check": 8943,
      "UL": 8944,
      "weet": 8945,
      "Ġcomparable": 8946,
      "Ġweapon": 8947,
      "ĠSteve": 8948,
      "Ġworkshop": 8949,
      "mother": 8950,
      "Ġ1990": 8951,
      "vation": 8952,
      "Ġbomb": 8953,
      "Pa": 8954,
      "Ġvariable": 8955,
      "Ġalleged": 8956,
      "ĠSup": 8957,
      "128": 8958,
      "mL": 8959,
      "Ġapplies": 8960,
      "Ġsettled": 8961,
      "ĠmL": 8962,
      "Ġdisappointed": 8963,
      "Ġcircle": 8964,
      "oston": 8965,
      "Ġvoting": 8966,
      "Ġvictory": 8967,
      "Ġformula": 8968,
      "ĠâĢĿ": 8969,
      "rovers": 8970,
      "ĠFour": 8971,
      "Ġabilities": 8972,
      "Ġ62": 8973,
      "sa": 8974,
      "Ġpitch": 8975,
      "Ġirrit": 8976,
      "ĠIreland": 8977,
      "ĠTrust": 8978,
      "ĠFact": 8979,
      "TC": 8980,
      "Ġjudgment": 8981,
      "ourse": 8982,
      "Ġspoken": 8983,
      "eping": 8984,
      "Ġdefect": 8985,
      "interest": 8986,
      "merce": 8987,
      "Ġexpecting": 8988,
      "Only": 8989,
      "GE": 8990,
      "fall": 8991,
      "ATE": 8992,
      "Ġbonus": 8993,
      "Ġthoroughly": 8994,
      "FF": 8995,
      "Ġphosph": 8996,
      "129": 8997,
      "Ġthrown": 8998,
      "Ġbreaks": 8999,
      "Ġdeaths": 9000,
      "ĠTown": 9001,
      "ĠPen": 9002,
      "Ġnutrition": 9003,
      "Ġinflammatory": 9004,
      "Fe": 9005,
      "Ġpacked": 9006,
      "Ġearned": 9007,
      "Mar": 9008,
      "2013": 9009,
      "Ġbeliefs": 9010,
      "struction": 9011,
      "lle": 9012,
      "ĠBiol": 9013,
      "Ġdiscussions": 9014,
      "Ġpassword": 9015,
      "Ġtank": 9016,
      "Ġdependent": 9017,
      "Ġbuck": 9018,
      "Ġunion": 9019,
      "ĠDou": 9020,
      "Ġdeck": 9021,
      "week": 9022,
      "icular": 9023,
      "elve": 9024,
      "Ġfallen": 9025,
      "Ġmath": 9026,
      "Ġdifferently": 9027,
      "ĠMedia": 9028,
      "ĠMur": 9029,
      "ĠLand": 9030,
      "ĠList": 9031,
      "Next": 9032,
      "Ġmembrane": 9033,
      "ĠLA": 9034,
      "cor": 9035,
      "ema": 9036,
      "eras": 9037,
      "tical": 9038,
      "Ġcreates": 9039,
      "Ġmetabolic": 9040,
      "Ġmeasurements": 9041,
      "Ġimportantly": 9042,
      "ĠConn": 9043,
      "Ġlaughing": 9044,
      "Ġshirt": 9045,
      "ĠRoman": 9046,
      "Ġprinted": 9047,
      "Ġwondered": 9048,
      "Ġinvite": 9049,
      "Post": 9050,
      "necess": 9051,
      "err": 9052,
      "effect": 9053,
      "ĠCS": 9054,
      "Ġvolunteers": 9055,
      "Ġknee": 9056,
      "ĠHa": 9057,
      "Ġneur": 9058,
      "pan": 9059,
      "Ġslip": 9060,
      "Sim": 9061,
      "Ġunderlying": 9062,
      "Ġequipped": 9063,
      "ĠBre": 9064,
      "ĠDE": 9065,
      "Ġusage": 9066,
      "Ġtooth": 9067,
      "herent": 9068,
      "ĠLeague": 9069,
      "friendly": 9070,
      "Ġeast": 9071,
      "Ġrobust": 9072,
      "Ġnewly": 9073,
      "Ġintegrity": 9074,
      "Ġmanuscript": 9075,
      "eness": 9076,
      "Ġobjectives": 9077,
      "ĠðĿĳ": 9078,
      "Ġhardware": 9079,
      "ĠLight": 9080,
      "ologist": 9081,
      "ĠLabor": 9082,
      "adays": 9083,
      "Ġdestroyed": 9084,
      "aptain": 9085,
      "Ġassault": 9086,
      "2019": 9087,
      "ÂĴ": 9088,
      "Ġamend": 9089,
      "ĠIP": 9090,
      "Ġprogramming": 9091,
      "GB": 9092,
      "Ġtoile": 9093,
      "Ġvend": 9094,
      "Dep": 9095,
      "ĠPut": 9096,
      "Ġaims": 9097,
      "Ġfirms": 9098,
      "Ġjoining": 9099,
      "Ġsne": 9100,
      "Looking": 9101,
      "Ġmusical": 9102,
      "Ġindustries": 9103,
      "Sm": 9104,
      "Ġcalendar": 9105,
      "Ġthirty": 9106,
      "Ġpowder": 9107,
      "103": 9108,
      "Ġcombat": 9109,
      "aping": 9110,
      "Ġradiation": 9111,
      "ptic": 9112,
      "Ġdistract": 9113,
      "145": 9114,
      "Use": 9115,
      "ĠSM": 9116,
      "ĠDan": 9117,
      "118": 9118,
      "ethe": 9119,
      "Ġcheaper": 9120,
      "126": 9121,
      "117": 9122,
      "ala": 9123,
      "ĠCross": 9124,
      "Ġnm": 9125,
      "................": 9126,
      "folio": 9127,
      "Ġ250": 9128,
      "zer": 9129,
      "Ġchrom": 9130,
      "ĠCat": 9131,
      "Ġmeasurement": 9132,
      "Ġmoderate": 9133,
      ",âĢĻ": 9134,
      "ĠPhot": 9135,
      "atience": 9136,
      "Ġsought": 9137,
      "Ġsignals": 9138,
      "ĠVirgin": 9139,
      "bid": 9140,
      "days": 9141,
      "ĠHD": 9142,
      "Ġfeatured": 9143,
      "Ġpor": 9144,
      "Ġsilent": 9145,
      "Ġengaging": 9146,
      "agg": 9147,
      "bur": 9148,
      "Ġjuice": 9149,
      "Ġstretch": 9150,
      "acious": 9151,
      "ĠHen": 9152,
      "Ġhorrible": 9153,
      "Ġprincipal": 9154,
      "Ġdistingu": 9155,
      "Ġpushing": 9156,
      "ĠIndust": 9157,
      "ĠChris": 9158,
      "Ġprohib": 9159,
      "Ġdevelopers": 9160,
      "iating": 9161,
      "ightened": 9162,
      "opic": 9163,
      "Ġacceptable": 9164,
      "Ġbat": 9165,
      "omatic": 9166,
      "ounce": 9167,
      "Ġgarage": 9168,
      "116": 9169,
      "Ġexclusive": 9170,
      "GA": 9171,
      "Ġstring": 9172,
      "Ġtrips": 9173,
      "Ġ87": 9174,
      "Ġoffices": 9175,
      "Â®": 9176,
      ".:": 9177,
      "Ġperpet": 9178,
      "Ġburning": 9179,
      "Ġfascinating": 9180,
      "Ġextraord": 9181,
      "Ġrecruit": 9182,
      "Ġattending": 9183,
      "aha": 9184,
      "ochond": 9185,
      "Ġdiscovery": 9186,
      "ĠReally": 9187,
      "front": 9188,
      "ĠItalian": 9189,
      "Ġinvolvement": 9190,
      "bro": 9191,
      "Ġultimate": 9192,
      "Ġsilly": 9193,
      "Ġscared": 9194,
      "Ġfed": 9195,
      "ĠMont": 9196,
      "ĠImmun": 9197,
      "ĠAI": 9198,
      "Cs": 9199,
      "Ġlect": 9200,
      "html": 9201,
      "Ġpink": 9202,
      "Ġsooner": 9203,
      "ĠRights": 9204,
      "Dr": 9205,
      "boy": 9206,
      "type": 9207,
      "Never": 9208,
      "ĠAmong": 9209,
      "Ġsuicide": 9210,
      "Ġpainful": 9211,
      "Ġcrash": 9212,
      "ĠFriend": 9213,
      "https": 9214,
      "Ġarchitecture": 9215,
      "Ġsinging": 9216,
      "power": 9217,
      "Ġdozen": 9218,
      "Ġconventional": 9219,
      "Ġhits": 9220,
      "Ġseats": 9221,
      "ĠArmy": 9222,
      "iders": 9223,
      "Ġtrib": 9224,
      "Ġannoying": 9225,
      "Ġemployers": 9226,
      "aks": 9227,
      "Ġ;)": 9228,
      "ĠCatholic": 9229,
      "Ġinvestments": 9230,
      "Ġsurge": 9231,
      "ĠLar": 9232,
      "Ġ74": 9233,
      "Ġinterventions": 9234,
      "Ġstroke": 9235,
      "ĠWriting": 9236,
      "Ġessentially": 9237,
      "hot": 9238,
      "ĠEgypt": 9239,
      "ĠSupport": 9240,
      "omer": 9241,
      "Ġlymph": 9242,
      "Ġremembered": 9243,
      "Ġpsychological": 9244,
      "oving": 9245,
      "Ġconsistently": 9246,
      "ĠSciences": 9247,
      "Ġunlikely": 9248,
      "Ġtong": 9249,
      "Ġconsists": 9250,
      "Ġquit": 9251,
      "Ġthreshold": 9252,
      "acific": 9253,
      "Ġ105": 9254,
      "foot": 9255,
      "vas": 9256,
      "Ġimper": 9257,
      "Ġcertificate": 9258,
      "Ġmodified": 9259,
      "Remember": 9260,
      "py": 9261,
      "Ġmm": 9262,
      "OH": 9263,
      "Ġheavily": 9264,
      "ĠFun": 9265,
      "Ġaffil": 9266,
[...]
