{
  "version": "1.0",
  "truncation": null,
  "padding": null,
  "added_tokens": [
    {
      "id": 0,
      "content": "[PAD]",
      "single_word": false,
      "lstrip": false,
      "rstrip": false,
      "normalized": false,
      "special": true
    },
    {
      "id": 1,
      "content": "[UNK]",
      "single_word": false,
      "lstrip": false,
      "rstrip": false,
      "normalized": false,
      "special": true
    },
    {
      "id": 2,
      "content": "[CLS]",
      "single_word": false,
      "lstrip": false,
      "rstrip": false,
      "normalized": false,
      "special": true
    },
    {
      "id": 3,
      "content": "[SEP]",
      "single_word": false,
      "lstrip": false,
      "rstrip": false,
      "normalized": false,
      "special": true
    },
    {
      "id": 4,
      "content": "[MASK]",
      "single_word": false,
      "lstrip": false,
      "rstrip": false,
      "normalized": false,
      "special": true
    },
    {
      "id": 5,
      "content": "[BOS]",
      "single_word": false,
      "lstrip": false,
      "rstrip": false,
      "normalized": false,
      "special": true
    },
    {
      "id": 6,
      "content": "[EOS]",
      "single_word": false,
      "lstrip": false,
      "rstrip": false,
      "normalized": false,
      "special": true
    }
  ],
  "normalizer": null,
  "pre_tokenizer": {
    "type": "ByteLevel",
    "add_prefix_space": true,
    "trim_offsets": true,
    "use_regex": true
  },
  "post_processor": null,
  "decoder": null,
  "model": {
    "type": "BPE",
    "dropout": null,
    "unk_token": null,
    "continuing_subword_prefix": null,
    "end_of_word_suffix": null,
    "fuse_unk": false,
    "byte_fallback": false,
    "ignore_merges": false,
    "vocab": {
      "[PAD]": 0,
      "[UNK]": 1,
      "[CLS]": 2,
      "[SEP]": 3,
      "[MASK]": 4,
      "[BOS]": 5,
      "[EOS]": 6,
      "!": 7,
      "\"": 8,
      "#": 9,
      "$": 10,
      "%": 11,
      "&": 12,
      "'": 13,
      "(": 14,
      ")": 15,
      "*": 16,
      "+": 17,
      ",": 18,
      "-": 19,
      ".": 20,
      "/": 21,
      "0": 22,
      "1": 23,
      "2": 24,
      "3": 25,
      "4": 26,
      "5": 27,
      "6": 28,
      "7": 29,
      "8": 30,
      "9": 31,
      ":": 32,
      ";": 33,
      "<": 34,
      "=": 35,
      ">": 36,
      "?": 37,
      "@": 38,
      "A": 39,
      "B": 40,
      "C": 41,
      "D": 42,
      "E": 43,
      "F": 44,
      "G": 45,
      "H": 46,
      "I": 47,
      "J": 48,
      "K": 49,
      "L": 50,
      "M": 51,
      "N": 52,
      "O": 53,
      "P": 54,
      "Q": 55,
      "R": 56,
      "S": 57,
      "T": 58,
      "U": 59,
      "V": 60,
      "W": 61,
      "X": 62,
      "Y": 63,
      "Z": 64,
      "[": 65,
      "\\": 66,
      "]": 67,
      "^": 68,
      "_": 69,
      "`": 70,
      "a": 71,
      "b": 72,
      "c": 73,
      "d": 74,
      "e": 75,
      "f": 76,
      "g": 77,
      "h": 78,
      "i": 79,
      "j": 80,
      "k": 81,
      "l": 82,
      "m": 83,
      "n": 84,
      "o": 85,
      "p": 86,
      "q": 87,
      "r": 88,
      "s": 89,
      "t": 90,
      "u": 91,
      "v": 92,
      "w": 93,
      "x": 94,
      "y": 95,
      "z": 96,
      "{": 97,
      "|": 98,
      "}": 99,
      "~": 100,
      "¡": 101,
      "¢": 102,
      "£": 103,
      "¤": 104,
      "¥": 105,
      "¦": 106,
      "§": 107,
      "¨": 108,
      "©": 109,
      "ª": 110,
      "«": 111,
      "¬": 112,
      "®": 113,
      "¯": 114,
      "°": 115,
      "±": 116,
      "²": 117,
      "³": 118,
      "´": 119,
      "µ": 120,
      "¶": 121,
      "·": 122,
      "¸": 123,
      "¹": 124,
      "º": 125,
      "»": 126,
      "¼": 127,
      "½": 128,
      "¾": 129,
      "¿": 130,
      "Â": 131,
      "Ã": 132,
      "Ä": 133,
      "Å": 134,
      "Æ": 135,
      "Ç": 136,
      "È": 137,
      "É": 138,
      "Ê": 139,
      "Ë": 140,
      "Ì": 141,
      "Í": 142,
      "Î": 143,
      "Ï": 144,
      "Ð": 145,
      "Ñ": 146,
      "Ó": 147,
      "Õ": 148,
      "Ö": 149,
      "×": 150,
      "Ø": 151,
      "Ù": 152,
      "Ú": 153,
      "Û": 154,
      "à": 155,
      "á": 156,
      "â": 157,
      "ã": 158,
      "ä": 159,
      "å": 160,
      "æ": 161,
      "ç": 162,
      "è": 163,
      "é": 164,
      "ê": 165,
      "ë": 166,
      "ì": 167,
      "í": 168,
      "î": 169,
      "ï": 170,
      "ð": 171,
      "ā": 172,
      "Ă": 173,
      "ă": 174,
      "Ą": 175,
      "ą": 176,
      "Ć": 177,
      "ć": 178,
      "ĉ": 179,
      "Ċ": 180,
      "Č": 181,
      "Ġ": 182,
      "ġ": 183,
      "Ģ": 184,
      "ģ": 185,
      "Ĥ": 186,
      "ĥ": 187,
      "Ħ": 188,
      "ħ": 189,
      "Ĩ": 190,
      "ĩ": 191,
      "Ī": 192,
      "ī": 193,
      "Ĭ": 194,
      "ĭ": 195,
      "Į": 196,
      "į": 197,
      "İ": 198,
      "ı": 199,
      "Ĳ": 200,
      "ĳ": 201,
      "Ĵ": 202,
      "ĵ": 203,
      "Ķ": 204,
      "ķ": 205,
      "ĸ": 206,
      "Ĺ": 207,
      "ĺ": 208,
      "Ļ": 209,
      "ļ": 210,
      "Ľ": 211,
      "ľ": 212,
      "Ŀ": 213,
      "ŀ": 214,
      "Ł": 215,
      "ł": 216,
      "Ń": 217,
      "Ġt": 218,
      "Ġa": 219,
      "in": 220,
      "he": 221,
      "re": 222,
      "on": 223,
      "at": 224,
      "er": 225,
      "Ġthe": 226,
      "en": 227,
      "Ġo": 228,
      "Ġs": 229,
      "Ġw": 230,
      "Ġc": 231,
      "Ġp": 232,
      "al": 233,
      "it": 234,
      "ed": 235,
      "is": 236,
      "or": 237,
      "es": 238,
      "an": 239,
      "Ġin": 240,
      "Ġof": 241,
      "Ġan": 242,
      "Ġb": 243,
      "Ġf": 244,
      "ic": 245,
      "ar": 246,
      "Ġm": 247,
      "as": 248,
      "Ġd": 249,
      "ing": 250,
      "ion": 251,
      "ro": 252,
      "Ġand": 253,
      "Ġto": 254,
      "ent": 255,
      "le": 256,
      "Ġh": 257,
      "ou": 258,
      "Ġth": 259,
      "Ġre": 260,
      "ct": 261,
      "om": 262,
      "ve": 263,
      "Ġe": 264,
      "Ġn": 265,
      "ly": 266,
      "Ġl": 267,
      "st": 268,
      "ll": 269,
      "id": 270,
      "âĢ": 271,
      "Ġg": 272,
      "ĠT": 273,
      "Ġbe": 274,
      "ation": 275,
      "ot": 276,
      "se": 277,
      "ith": 278,
      "ra": 279,
      "im": 280,
      "ut": 281,
      "ur": 282,
      "Ġwith": 283,
      "ig": 284,
      "ce": 285,
      "ter": 286,
      "ol": 287,
      "ul": 288,
      "Ġis": 289,
      "Ġfor": 290,
      "un": 291,
      "Ġ(": 292,
      "ow": 293,
      "us": 294,
      "Ġon": 295,
      "et": 296,
      "ĠI": 297,
      "Ġst": 298,
      "Ġthat": 299,
      "ĠA": 300,
      "ver": 301,
      "il": 302,
      "Ġwe": 303,
      "am": 304,
      "ay": 305,
      "ad": 306,
      "ch": 307,
      "ĠS": 308,
      "ati": 309,
      "op": 310,
      "ir": 311,
      "Ġ1": 312,
      "os": 313,
      "Ġwas": 314,
      "Ġcon": 315,
      "Ġas": 316,
      "ĠC": 317,
      "Ġde": 318,
      "Ġhe": 319,
      "if": 320,
      "um": 321,
      "Ġpro": 322,
      "ents": 323,
      "ĠThe": 324,
      "ag": 325,
      "res": 326,
      "Ġwh": 327,
      "od": 328,
      "Ġv": 329,
      "ect": 330,
      "up": 331,
      "oc": 332,
      "ate": 333,
      "Ġy": 334,
      "âĢĻ": 335,
      "Ġit": 336,
      "Ġor": 337,
      "rom": 338,
      "Ġcom": 339,
      "ĠM": 340,
      "her": 341,
      "Ġex": 342,
      "ist": 343,
      "Ġr": 344,
      "ac": 345,
      "Ġat": 346,
      "Ġse": 347,
      "est": 348,
      "ant": 349,
      "ive": 350,
      "Ġ2": 351,
      "Ġpati": 352,
      "ess": 353,
      "ĠP": 354,
      "em": 355,
      "th": 356,
      "ity": 357,
      "ial": 358,
      "Ġby": 359,
      "Ġare": 360,
      "ĠB": 361,
      "ld": 362,
      "ated": 363,
      "ort": 364,
      "ers": 365,
      "ill": 366,
      "iv": 367,
      "ore": 368,
      "og": 369,
      "ain": 370,
      "ab": 371,
      "Ġwere": 372,
      "ment": 373,
      "qu": 374,
      "Ġpatients": 375,
      "Ġne": 376,
      "red": 377,
      "ud": 378,
      "Ġch": 379,
      "ical": 380,
      "ĠH": 381,
      "igh": 382,
      "Ġha": 383,
      "ies": 384,
      "ke": 385,
      "ĠD": 386,
      "ib": 387,
      "Ġfrom": 388,
      "ĠW": 389,
      "ast": 390,
      "Ġal": 391,
      "Ġnot": 392,
      "and": 393,
      "ine": 394,
      "Ġsu": 395,
      "Ġle": 396,
      "ren": 397,
      "ase": 398,
      "pl": 399,
      "ost": 400,
      "pt": 401,
      "pe": 402,
      "ĠR": 403,
      "Ġun": 404,
      "ard": 405,
      "ure": 406,
      "end": 407,
      "ia": 408,
      "our": 409,
      "ĠF": 410,
      "Ġsh": 411,
      "ph": 412,
      "art": 413,
      "el": 414,
      "ction": 415,
      "Ġhave": 416,
      "ary": 417,
      "oun": 418,
      "ĠâĢ": 419,
      "ous": 420,
      "Ġdis": 421,
      "Ġres": 422,
      "Ġab": 423,
      "ff": 424,
      "ĠN": 425,
      "per": 426,
      "Ġcan": 427,
      "Ġthis": 428,
      "all": 429,
      "Ġper": 430,
      "ight": 431,
      "Ġinc": 432,
      "00": 433,
      "ge": 434,
      "Ġint": 435,
      "ould": 436,
      "Ġad": 437,
      "Ġim": 438,
      "ĠG": 439,
      "ans": 440,
      "ĠE": 441,
      "ult": 442,
      "ign": 443,
      "ome": 444,
      "Ġcont": 445,
      "orm": 446,
      "Ġpl": 447,
      "iz": 448,
      "Ġthan": 449,
      "ie": 450,
      "ĠL": 451,
      "cc": 452,
      "reat": 453,
      "act": 454,
      "Ġtr": 455,
      "ĠO": 456,
      "'s": 457,
      "ear": 458,
      "Ġcomp": 459,
      "du": 460,
      "ĠIn": 461,
      "ress": 462,
      "ip": 463,
      "ther": 464,
      "ide": 465,
      "gh": 466,
      "ens": 467,
      "Ġ3": 468,
      "ich": 469,
      "one": 470,
      "ence": 471,
      "age": 472,
      "Ġhas": 473,
      "use": 474,
      "Ġhad": 475,
      "port": 476,
      "âĢĿ": 477,
      "out": 478,
      "Ġcl": 479,
      "Ġme": 480,
      "The": 481,
      "Ġbut": 482,
      "ations": 483,
      "Ġar": 484,
      "der": 485,
      "ell": 486,
      "Ġyou": 487,
      "Ġinf": 488,
      "ong": 489,
      "ose": 490,
      "Ġwhe": 491,
      "ap": 492,
      "Ġall": 493,
      "te": 494,
      "fter": 495,
      "ular": 496,
      "Ġsy": 497,
      "ust": 498,
      "ions": 499,
      "vel": 500,
      ").": 501,
      "Ġk": 502,
      "Ġus": 503,
      "Ġdi": 504,
      "ak": 505,
      "Ġsa": 506,
      "Ġwho": 507,
      "Ġj": 508,
      "Ġev": 509,
      "Ġpre": 510,
      "Ġmore": 511,
      "Ġwhich": 512,
      "ue": 513,
      "Ġgro": 514,
      "ack": 515,
      "ĠJ": 516,
      "ific": 517,
      "ors": 518,
      "ĠTh": 519,
      "ood": 520,
      "ally": 521,
      "Ġrec": 522,
      "Ġout": 523,
      "Ġafter": 524,
      "Ġap": 525,
      "ĠU": 526,
      ".[": 527,
      "ĠâĢľ": 528,
      "ri": 529,
      "Ġone": 530,
      "ric": 531,
      "Ġdo": 532,
      "ative": 533,
      "able": 534,
      "Ġthey": 535,
      "Ġ4": 536,
      "Ġhis": 537,
      "ance": 538,
      "ep": 539,
      "ind": 540,
      "Ġwor": 541,
      "Ġtheir": 542,
      "Ġyear": 543,
      "Ġsur": 544,
      "Ġ5": 545,
      "Ġbeen": 546,
      "ok": 547,
      "ass": 548,
      "ys": 549,
      "ame": 550,
      "ub": 551,
      "Ġbl": 552,
      "Ġup": 553,
      "so": 554,
      "ced": 555,
      "ree": 556,
      "ory": 557,
      "fe": 558,
      "ru": 559,
      "Ġstud": 560,
      "Ġag": 561,
      "Ġwill": 562,
      "ime": 563,
      "Ġ\"": 564,
      "wo": 565,
      "olog": 566,
      "Ġca": 567,
      "ice": 568,
      "Ġsp": 569,
      "Ġli": 570,
      "ath": 571,
      "Ġsaid": 572,
      "Ġen": 573,
      "Ġother": 574,
      "rent": 575,
      "Ġ0": 576,
      "Ġbet": 577,
      "ition": 578,
      "Ġman": 579,
      "Ġ20": 580,
      "Ġass": 581,
      "),": 582,
      "ach": 583,
      "ffect": 584,
      "ace": 585,
      "Ġsc": 586,
      "ang": 587,
      "Ġra": 588,
      "ne": 589,
      "Ġmay": 590,
      "we": 591,
      "ob": 592,
      "Ġsign": 593,
      "ile": 594,
      "Ġalso": 595,
      "oll": 596,
      "mon": 597,
      "erv": 598,
      "Ġhy": 599,
      "cl": 600,
      "pro": 601,
      "ord": 602,
      "ite": 603,
      "cer": 604,
      "Ġgo": 605,
      "Ġabout": 606,
      "Ġcell": 607,
      "Ġac": 608,
      "ays": 609,
      "Ġgen": 610,
      "und": 611,
      "very": 612,
      "Ġno": 613,
      "ail": 614,
      "Ġgroup": 615,
      "Ġdise": 616,
      "Ġtwo": 617,
      "ates": 618,
      "Ġover": 619,
      "Ġsub": 620,
      "Ġpart": 621,
      "ased": 622,
      "Ġmy": 623,
      "Ġpe": 624,
      "ond": 625,
      "Ġro": 626,
      "Ġ6": 627,
      "ound": 628,
      "Ġdif": 629,
      "own": 630,
      "Ġpres": 631,
      "ft": 632,
      "uc": 633,
      "int": 634,
      "Ġso": 635,
      "ake": 636,
      "uring": 637,
      "Ġinter": 638,
      "cy": 639,
      "inal": 640,
      "ĠK": 641,
      "Ġresp": 642,
      "Ġthere": 643,
      "Ġsup": 644,
      "Ġfe": 645,
      "ases": 646,
      "ry": 647,
      "Ġact": 648,
      "!!": 649,
      "Ġtrans": 650,
      "av": 651,
      "osis": 652,
      "Ġte": 653,
      "Ġdisease": 654,
      "Ġrel": 655,
      "Ġ19": 656,
      "ough": 657,
      "ks": 658,
      "Ġwould": 659,
      "Ġthese": 660,
      "Ġless": 661,
      "ild": 662,
      "Ġbec": 663,
      "Ġind": 664,
      "ied": 665,
      "Ġob": 666,
      "Ġsome": 667,
      "Ġwhen": 668,
      "Ġunder": 669,
      "iss": 670,
      "Ġincre": 671,
      "nd": 672,
      "ber": 673,
      "mer": 674,
      "ious": 675,
      "Ġtime": 676,
      "ons": 677,
      "ater": 678,
      "Ġinto": 679,
      "ian": 680,
      "Ġam": 681,
      "ugh": 682,
      "ount": 683,
      "Ġlike": 684,
      "ople": 685,
      "Ġmon": 686,
      "Ġcor": 687,
      "ces": 688,
      "oth": 689,
      "ĠSt": 690,
      "Ġinv": 691,
      "ings": 692,
      "Ġtreat": 693,
      "vers": 694,
      "Ġreg": 695,
      "ĠIt": 696,
      "Ġqu": 697,
      "Ġits": 698,
      "Ġyears": 699,
      "Ġoff": 700,
      "pec": 701,
      "ween": 702,
      "irst": 703,
      "ron": 704,
      "oci": 705,
      "ior": 706,
      "Ġnew": 707,
      "Ġant": 708,
      "ual": 709,
      "Ġfl": 710,
      "min": 711,
      "Ġeffect": 712,
      "ov": 713,
      "ject": 714,
      "Ġtra": 715,
      "Ġcar": 716,
      "ĠV": 717,
      "Ġbetween": 718,
      "ms": 719,
      "Ġonly": 720,
      "Ġsignific": 721,
      "Ġpo": 722,
      "Ġph": 723,
      "ĠWe": 724,
      "ran": 725,
      "Ġacc": 726,
      "rap": 727,
      "ident": 728,
      "Ġend": 729,
      "Ġpos": 730,
      "Ġcons": 731,
      "Ġresult": 732,
      "Ġpeople": 733,
      "lect": 734,
      "ros": 735,
      "Ġexp": 736,
      "Ġdes": 737,
      "Ġ7": 738,
      "ook": 739,
      "Ġmet": 740,
      "rol": 741,
      "lud": 742,
      "Ġmost": 743,
      "ĠThis": 744,
      "Ġduring": 745,
      "ures": 746,
      "Ġany": 747,
      "Ġsignificant": 748,
      "Ġdiffe": 749,
      "rit": 750,
      "che": 751,
      "Ġocc": 752,
      "Ġatt": 753,
      "Ġ201": 754,
      "ollow": 755,
      "Ġ+": 756,
      "Ġfirst": 757,
      "Ġher": 758,
      "Ġif": 759,
      "ogra": 760,
      "Ġmed": 761,
      "Ġinclud": 762,
      "old": 763,
      "ĠCh": 764,
      "oma": 765,
      "Ġthem": 766,
      "agn": 767,
      "velop": 768,
      "ute": 769,
      "rib": 770,
      "Ġ8": 771,
      "cent": 772,
      "ause": 773,
      "ral": 774,
      "Ġtreatment": 775,
      "ating": 776,
      "ove": 777,
      "form": 778,
      "ark": 779,
      "ormal": 780,
      "Ġrem": 781,
      "Ġdec": 782,
      "atic": 783,
      "fore": 784,
      "Ġkn": 785,
      "Ġuse": 786,
      "ically": 787,
      "mun": 788,
      "Ġreport": 789,
      "Ġarter": 790,
      "/-": 791,
      "Ġthose": 792,
      "Ġsec": 793,
      "Ġfollow": 794,
      "ful": 795,
      "Ġdevelop": 796,
      "Ġshow": 797,
      "Ġ+/-": 798,
      "Ġpost": 799,
      "ility": 800,
      "Ġpr": 801,
      "NA": 802,
      "Ġwhat": 803,
      "Ġjust": 804,
      "rough": 805,
      "ix": 806,
      "ick": 807,
      "ire": 808,
      "Ġtum": 809,
      "Ġcould": 810,
      "ized": 811,
      "Ġour": 812,
      "Ġ10": 813,
      "Ġ=": 814,
      "ardi": 815,
      "ple": 816,
      "Ġdef": 817,
      "ĠY": 818,
      "oid": 819,
      "rapy": 820,
      "ger": 821,
      "ise": 822,
      "are": 823,
      "Ġhigh": 824,
      "Ġser": 825,
      "Ġcol": 826,
      "plic": 827,
      "ink": 828,
      "stem": 829,
      "Ġhow": 830,
      "Ġyour": 831,
      "Ġdid": 832,
      "cept": 833,
      "Ġfact": 834,
      "Ġwork": 835,
      "ere": 836,
      "ict": 837,
      "ins": 838,
      "ared": 839,
      "Ġstudy": 840,
      "Ġco": 841,
      "Ġlow": 842,
      "ograph": 843,
      "Ġext": 844,
      "ish": 845,
      "gest": 846,
      "Ġadd": 847,
      "ven": 848,
      "hen": 849,
      "ox": 850,
      "ible": 851,
      "Ġlevel": 852,
      "li": 853,
      "Ġ9": 854,
      "ities": 855,
      "unction": 856,
      ".âĢĿ": 857,
      "Ġshe": 858,
      "ari": 859,
      "tern": 860,
      "wn": 861,
      "Ġsm": 862,
      "Ġget": 863,
      "cess": 864,
      "Ġem": 865,
      "ubl": 866,
      "Ġboth": 867,
      "Ġprev": 868,
      "Ġmod": 869,
      "Ġthree": 870,
      "tic": 871,
      "Ġused": 872,
      "Ġassoci": 873,
      "iew": 874,
      "Ġmin": 875,
      "Ġspec": 876,
      "Ġmonth": 877,
      "Ġop": 878,
      "itis": 879,
      "sel": 880,
      "tain": 881,
      "omy": 882,
      "Ġsim": 883,
      "ments": 884,
      "ade": 885,
      "ty": 886,
      "ock": 887,
      "Ġblood": 888,
      "Ġcases": 889,
      "Ġsuch": 890,
      "ning": 891,
      "Ġsystem": 892,
      "In": 893,
      "hed": 894,
      "ec": 895,
      "Ġris": 896,
      "gen": 897,
      "Ġlong": 898,
      "Ġbecause": 899,
      "ĠHe": 900,
      "Ġfound": 901,
      "Ġthrough": 902,
      "Ġneed": 903,
      "ex": 904,
      "Ġpol": 905,
      "ved": 906,
      "pa": 907,
      "Ġclin": 908,
      "Ġ-": 909,
      "ax": 910,
      "Ġwhere": 911,
      "ble": 912,
      "ited": 913,
      "Ġshould": 914,
      "ever": 915,
      "ism": 916,
      "Ġhyper": 917,
      "Ġear": 918,
      "Ġval": 919,
      "idence": 920,
      "pos": 921,
      "Ġplay": 922,
      "ital": 923,
      "Ġcells": 924,
      "Ġgreat": 925,
      "mpt": 926,
      "aw": 927,
      "ection": 928,
      "Ġchild": 929,
      "ting": 930,
      "duced": 931,
      "Ġtest": 932,
      "Ġcontrol": 933,
      "ics": 934,
      "the": 935,
      "Ġdiagn": 936,
      "ody": 937,
      "Ġprog": 938,
      "Ġty": 939,
      "Ġagain": 940,
      "Ġwell": 941,
      "Ġright": 942,
      "ew": 943,
      "Ġbefore": 944,
      ",âĢĿ": 945,
      "Ġoccur": 946,
      "Ġpress": 947,
      "yl": 948,
      "Ġpatient": 949,
      "med": 950,
      "ues": 951,
      "cin": 952,
      "Ġpresent": 953,
      "ulation": 954,
      "uch": 955,
      "ane": 956,
      "Ġanal": 957,
      "ĠUn": 958,
      "Ġhim": 959,
      "Ġdist": 960,
      "Ġexam": 961,
      "Ġactiv": 962,
      "Ġwom": 963,
      "mptom": 964,
      "ational": 965,
      "Ġback": 966,
      "Ġcancer": 967,
      "usion": 968,
      "Ġrisk": 969,
      "ont": 970,
      "Ġret": 971,
      "ined": 972,
      "Ġgl": 973,
      "urn": 974,
      "Ġeven": 975,
      "Ġdifferent": 976,
      "Ġaut": 977,
      "Ġins": 978,
      "its": 979,
      "ression": 980,
      "Ġhum": 981,
      "de": 982,
      "pect": 983,
      "cular": 984,
      "'t": 985,
      "di": 986,
      "oper": 987,
      "%)": 988,
      "oph": 989,
      "Ġhist": 990,
      "ily": 991,
      "ration": 992,
      "!!!!": 993,
      "Ġnum": 994,
      "ĠAn": 995,
      "Ġfind": 996,
      "hing": 997,
      "reated": 998,
      "ution": 999,
      "Ġsug": 1000,
      "Ġcomple": 1001,
      "les": 1002,
      "Ġcy": 1003,
      "itive": 1004,
      ".\"": 1005,
      "ium": 1006,
      "ange": 1007,
      "ality": 1008,
      "âĢľ": 1009,
      "Ġcent": 1010,
      "Ġ12": 1011,
      "sy": 1012,
      "ted": 1013,
      "omet": 1014,
      "Ġassociated": 1015,
      "Ġche": 1016,
      "ract": 1017,
      "Ġexper": 1018,
      "com": 1019,
      "ts": 1020,
      "day": 1021,
      "Ġbeing": 1022,
      "Ġwee": 1023,
      "000": 1024,
      "rect": 1025,
      "Ġnon": 1026,
      "Ġloc": 1027,
      "man": 1028,
      "Ġmany": 1029,
      "Ġent": 1030,
      "Ġthen": 1031,
      "acter": 1032,
      "round": 1033,
      "Ġprov": 1034,
      "Ġchar": 1035,
      "Ġpers": 1036,
      "ten": 1037,
      "Ġsuggest": 1038,
      "ually": 1039,
      "Ġgra": 1040,
      "Ġnow": 1041,
      "me": 1042,
      "ants": 1043,
      "Ġep": 1044,
      "gan": 1045,
      "Ġfunction": 1046,
      "rence": 1047,
      "ck": 1048,
      "Ġ[": 1049,
      "Ġmus": 1050,
      "als": 1051,
      "other": 1052,
      "Ġdet": 1053,
      "Ġnormal": 1054,
      "Ġwithout": 1055,
      "Ġtherapy": 1056,
      "Ġknow": 1057,
      "Ġmonths": 1058,
      "chn": 1059,
      "Ġrequ": 1060,
      "Ġleft": 1061,
      "Ġdisc": 1062,
      "rel": 1063,
      "ization": 1064,
      "Ġresults": 1065,
      "ublic": 1066,
      "Ġevery": 1067,
      "erior": 1068,
      "Ġprodu": 1069,
      "alth": 1070,
      "ife": 1071,
      "ĠAs": 1072,
      "ention": 1073,
      "ĠâĢĵ": 1074,
      "Ġ$": 1075,
      "Ġclinical": 1076,
      "Ġsymptom": 1077,
      "Ġconf": 1078,
      "Ġsee": 1079,
      "Ġcount": 1080,
      "Ġperform": 1081,
      "Ġage": 1082,
      "eral": 1083,
      "Ġrate": 1084,
      "atory": 1085,
      "aj": 1086,
      "oy": 1087,
      "Ġincreased": 1088,
      "Ġdoes": 1089,
      "10": 1090,
      "Ġmal": 1091,
      "vern": 1092,
      "Ġcall": 1093,
      "ters": 1094,
      "ĠRe": 1095,
      "entric": 1096,
      "oh": 1097,
      "get": 1098,
      "lear": 1099,
      "hes": 1100,
      "ason": 1101,
      "Ġcardi": 1102,
      "ump": 1103,
      "ata": 1104,
      "Ġter": 1105,
      "ĠAl": 1106,
      "Ġappro": 1107,
      "ential": 1108,
      "Ġmake": 1109,
      "Ġrece": 1110,
      "Ġbel": 1111,
      "ene": 1112,
      "ma": 1113,
      "Ġlar": 1114,
      "ired": 1115,
      "ole": 1116,
      "ĠThere": 1117,
      "ves": 1118,
      "Ġref": 1119,
      "ency": 1120,
      "Ġsecond": 1121,
      "Ġlead": 1122,
      "Ġdep": 1123,
      "Ġcase": 1124,
      "Ġintra": 1125,
      "aking": 1126,
      "Ġappe": 1127,
      "Ġpressure": 1128,
      "ists": 1129,
      ",\"": 1130,
      "ars": 1131,
      "Ġfour": 1132,
      "Ġvery": 1133,
      "Ġhel": 1134,
      "Ġstr": 1135,
      "ĠâĢĶ": 1136,
      "imes": 1137,
      "Ġpain": 1138,
      "Ġway": 1139,
      "ward": 1140,
      "uro": 1141,
      "ified": 1142,
      "ively": 1143,
      "Ġmen": 1144,
      "nal": 1145,
      "..": 1146,
      "str": 1147,
      "Ġhem": 1148,
      "Ġlast": 1149,
      "ness": 1150,
      "Ġmade": 1151,
      "Ġdon": 1152,
      "urrent": 1153,
      "ement": 1154,
      "ruct": 1155,
      "Ġartery": 1156,
      "Ġdeter": 1157,
      "Ġbi": 1158,
      "Ġposs": 1159,
      "ince": 1160,
      "ull": 1161,
      "ension": 1162,
      "Ġfail": 1163,
      "Ġwhile": 1164,
      "ology": 1165,
      "Th": 1166,
      "ĠThese": 1167,
      "Ġsame": 1168,
      "Ġwomen": 1169,
      "ived": 1170,
      "ages": 1171,
      "Ġ15": 1172,
      "Ġang": 1173,
      "view": 1174,
      "ural": 1175,
      "Ġusing": 1176,
      "Ġchildren": 1177,
      "Ġchang": 1178,
      "ats": 1179,
      "ient": 1180,
      "ination": 1181,
      "tle": 1182,
      "Ġmeas": 1183,
      "meric": 1184,
      "rug": 1185,
      "anc": 1186,
      "Ġmem": 1187,
      "Ġstate": 1188,
      "Ġrese": 1189,
      "ĠWh": 1190,
      "Ġcontin": 1191,
      "Ġmuch": 1192,
      "Ġtechn": 1193,
      "operative": 1194,
      "ines": 1195,
      "Ġmean": 1196,
      "Ġdown": 1197,
      "Ġheart": 1198,
      "Ġeach": 1199,
      "Ġcommon": 1200,
      "Ġlevels": 1201,
      "ram": 1202,
      "Ġagainst": 1203,
      "âĢĶ": 1204,
      "onary": 1205,
      "ajor": 1206,
      "tal": 1207,
      "Ġhuman": 1208,
      "ature": 1209,
      "Ġpar": 1210,
      "Ġpercent": 1211,
      "Ġsignificantly": 1212,
      "ize": 1213,
      "cle": 1214,
      "Ġwant": 1215,
      "Ġform": 1216,
      "ilar": 1217,
      "Ġsl": 1218,
      "Ġlook": 1219,
      "Ġoper": 1220,
      "Ġprote": 1221,
      "ĠTr": 1222,
      "Ġinvest": 1223,
      "ret": 1224,
      "Ġident": 1225,
      "Ġsupport": 1226,
      "Ġcompared": 1227,
      "mit": 1228,
      "Ġhep": 1229,
      "ival": 1230,
      "ĠBut": 1231,
      "ography": 1232,
      "rh": 1233,
      "ysis": 1234,
      "20": 1235,
      "iod": 1236,
      "Ġimport": 1237,
      "cop": 1238,
      "pp": 1239,
      "ĠAnd": 1240,
      "lym": 1241,
      "read": 1242,
      "Ġthink": 1243,
      "Ġpa": 1244,
      "rain": 1245,
      "Ġcour": 1246,
      "Ġtumor": 1247,
      "alu": 1248,
      "Ġhead": 1249,
      "uss": 1250,
      "Ġsmall": 1251,
      "hip": 1252,
      "Ġbu": 1253,
      "Ġdeath": 1254,
      "Ġstart": 1255,
      "ately": 1256,
      "Ġacute": 1257,
      "Ġfam": 1258,
      "ected": 1259,
      "Ġinvol": 1260,
      "Ġprot": 1261,
      "opl": 1262,
      "Ġdays": 1263,
      "ently": 1264,
      "Ġ11": 1265,
      "Ġown": 1266,
      "Ġ18": 1267,
      "Ġnumber": 1268,
      "Ġcaus": 1269,
      "Ġdesc": 1270,
      "Ġinfl": 1271,
      "Ġhyp": 1272,
      "âĢĵ": 1273,
      "Ġinst": 1274,
      "Ġgroups": 1275,
      "Ġhelp": 1276,
      "Ġsurv": 1277,
      "Ġpoint": 1278,
      "ologic": 1279,
      "oss": 1280,
      "ronic": 1281,
      "Ġhig": 1282,
      "Ġsay": 1283,
      "ascular": 1284,
      "Ġmajor": 1285,
      "por": 1286,
      "Ġgood": 1287,
      "row": 1288,
      "onse": 1289,
      "Ġhypert": 1290,
      "arch": 1291,
      "iqu": 1292,
      "Ġele": 1293,
      "ocy": 1294,
      "ĠAmeric": 1295,
      "][": 1296,
      "gery": 1297,
      "entricular": 1298,
      "Ġcoronary": 1299,
      "ving": 1300,
      "Ġlit": 1301,
      "Ġimpro": 1302,
      "ured": 1303,
      "Ġobs": 1304,
      "Ġprim": 1305,
      "way": 1306,
      "ĠCom": 1307,
      "Ġthough": 1308,
      "ĠNew": 1309,
      "Ġremain": 1310,
      "Ġve": 1311,
      "Ġstill": 1312,
      "ither": 1313,
      "Ġbre": 1314,
      "Ġadv": 1315,
      "Ġrest": 1316,
      "ision": 1317,
      "Ġgovern": 1318,
      "Ġed": 1319,
      "Ġset": 1320,
      "ands": 1321,
      "ivid": 1322,
      "Ġgu": 1323,
      "Ġlater": 1324,
      "Ġ200": 1325,
      "Ġcarcin": 1326,
      "Ġfre": 1327,
      "iving": 1328,
      "iven": 1329,
      "Ġworld": 1330,
      "Ġday": 1331,
      "Ġdata": 1332,
      "Ġelect": 1333,
      "Ġincluding": 1334,
      "etic": 1335,
      "Ġimmun": 1336,
      "Ġpot": 1337,
      "Ġindic": 1338,
      "Ġmark": 1339,
      "Ġevalu": 1340,
      "az": 1341,
      "Ġke": 1342,
      "uk": 1343,
      "Ġmain": 1344,
      "Ġest": 1345,
      "Ġwithin": 1346,
      "xt": 1347,
      "ogen": 1348,
      "Ġpop": 1349,
      "Ġsymptoms": 1350,
      "Ġpred": 1351,
      "Ġearly": 1352,
      "ug": 1353,
      "osp": 1354,
      "11": 1355,
      "olic": 1356,
      "Ġsurgery": 1357,
      "Ġplace": 1358,
      "ner": 1359,
      "ower": 1360,
      "ience": 1361,
      "ensive": 1362,
      "Ġcomplic": 1363,
      "ially": 1364,
      "ris": 1365,
      "ave": 1366,
      "ĠDNA": 1367,
      "ode": 1368,
      "Ġav": 1369,
      "Ġfib": 1370,
      "Ġmult": 1371,
      "ctions": 1372,
      "ĠHow": 1373,
      "ork": 1374,
      "illion": 1375,
      "Ġbr": 1376,
      "bl": 1377,
      "Ġredu": 1378,
      "Ġdecre": 1379,
      "Ġpass": 1380,
      "Ġpartic": 1381,
      "Ġlife": 1382,
      "Ġles": 1383,
      "year": 1384,
      "ool": 1385,
      "othe": 1386,
      "ale": 1387,
      "Ġperiod": 1388,
      "ccess": 1389,
      "fic": 1390,
      "Ġvir": 1391,
      "Ġmeth": 1392,
      "Ġsimilar": 1393,
      "Ġaround": 1394,
      "lymph": 1395,
      "Ġtreated": 1396,
      "ety": 1397,
      "Ġeffects": 1398,
      "Ġgreater": 1399,
      "Ġcare": 1400,
      "con": 1401,
      "ished": 1402,
      "ndrom": 1403,
      "Ġes": 1404,
      "line": 1405,
      "ening": 1406,
      "Ġpath": 1407,
      "Ġdirect": 1408,
      "Ġsk": 1409,
      "ury": 1410,
      "ption": 1411,
      "erve": 1412,
      "Ġshowed": 1413,
      "ffic": 1414,
      "Ġsyndrom": 1415,
      "Ġinit": 1416,
      "ĠCl": 1417,
      "Ġresponse": 1418,
      "Ġradi": 1419,
      "Ġreported": 1420,
      "Ġ14": 1421,
      "roph": 1422,
      "Ġgrow": 1423,
      "Ġdiagnosis": 1424,
      "Ġproble": 1425,
      "though": 1426,
      "erved": 1427,
      "12": 1428,
      "imal": 1429,
      "Ġchronic": 1430,
      "Ġstudies": 1431,
      "ather": 1432,
      "Ġhealth": 1433,
      "any": 1434,
      "ological": 1435,
      "Ġsubject": 1436,
      "self": 1437,
      "aneous": 1438,
      "Ġprocess": 1439,
      "Ġgoing": 1440,
      "ross": 1441,
      "Ġlim": 1442,
      "Ġsever": 1443,
      "Ġincrease": 1444,
      "ĠDe": 1445,
      "Ġdrug": 1446,
      "Ġfew": 1447,
      "It": 1448,
      "Ġsit": 1449,
      "Ġchanges": 1450,
      "--": 1451,
      "Ġ30": 1452,
      "ardial": 1453,
      "atch": 1454,
      "ording": 1455,
      "Ġel": 1456,
      "amp": 1457,
      "ĠSe": 1458,
      "ense": 1459,
      "Ġperson": 1460,
      "romb": 1461,
      "Ġmic": 1462,
      "Ġlymph": 1463,
      "alk": 1464,
      "Ġexpl": 1465,
      "Ġimportant": 1466,
      "Ġvis": 1467,
      "Ġrele": 1468,
      "ĠThey": 1469,
      "vere": 1470,
      "Ġequ": 1471,
      "ides": 1472,
      "Ġteam": 1473,
      "Ġdue": 1474,
      "Ġtake": 1475,
      "Ġ.": 1476,
      "Ġhigher": 1477,
      "Ġcir": 1478,
      "Ġsomet": 1479,
      "ying": 1480,
      "Ġ13": 1481,
      "Ġlarge": 1482,
      "Ġfive": 1483,
      "Ġinvestig": 1484,
      "Ġcond": 1485,
      "Ġlower": 1486,
      "ission": 1487,
      "Ġvers": 1488,
      "Ġclass": 1489,
      "Ġgovernment": 1490,
      "Ġhour": 1491,
      "Ġtiss": 1492,
      "ered": 1493,
      "hib": 1494,
      "Ġventricular": 1495,
      "Ġlaw": 1496,
      "Ġcomb": 1497,
      "Ġfrequ": 1498,
      "ged": 1499,
      "minist": 1500,
      "Ġoften": 1501,
      "to": 1502,
      "ah": 1503,
      "gy": 1504,
      "oot": 1505,
      "Ġoffic": 1506,
      "Ġaddition": 1507,
      "Ġrun": 1508,
      "Ġgame": 1509,
      "Ġvari": 1510,
      "Ġgast": 1511,
      "Ġ16": 1512,
      "ĠFor": 1513,
      "Ġsyndrome": 1514,
      "Ġactivity": 1515,
      "Ġamong": 1516,
      "Ġmor": 1517,
      "ouse": 1518,
      "ator": 1519,
      "Ġallow": 1520,
      "Ġcap": 1521,
      "let": 1522,
      "ina": 1523,
      "ung": 1524,
      "ability": 1525,
      "ĠAll": 1526,
      "urther": 1527,
      "ably": 1528,
      "Ġmyoc": 1529,
      "ĠLe": 1530,
      "cul": 1531,
      "Ġdemon": 1532,
      "Ġbas": 1533,
      "Ġeither": 1534,
      "15": 1535,
      "less": 1536,
      "cell": 1537,
      "Ġanalysis": 1538,
      "normal": 1539,
      "Ġtotal": 1540,
      "19": 1541,
      "fer": 1542,
      "Ġevidence": 1543,
      "Ġwar": 1544,
      "par": 1545,
      "Ġmight": 1546,
      "Ġsays": 1547,
      "Ġrespect": 1548,
      "Ġinj": 1549,
      "ider": 1550,
      "Ġstand": 1551,
      "Ġdescrib": 1552,
      "Ġpublic": 1553,
      "Ġ198": 1554,
      "mia": 1555,
      "Ġread": 1556,
      "ĠAr": 1557,
      "Ġangi": 1558,
      "led": 1559,
      "Ġpotential": 1560,
      "went": 1561,
      "Ġpat": 1562,
      "Ġinform": 1563,
      "Ġorgan": 1564,
      "Ġleg": 1565,
      "Ġsuccess": 1566,
      "bers": 1567,
      "omas": 1568,
      "ield": 1569,
      "land": 1570,
      "Ġassess": 1571,
      "Fig": 1572,
      "Ġsince": 1573,
      "amm": 1574,
      "ĠTo": 1575,
      "Ġperformed": 1576,
      "Ġsix": 1577,
      "Ġsing": 1578,
      "ĠIs": 1579,
      "ives": 1580,
      "ĠII": 1581,
      "Ġmar": 1582,
      "aging": 1583,
      "Ġanother": 1584,
      "Ġprevious": 1585,
      "Ġweek": 1586,
      "Ġcause": 1587,
      "ices": 1588,
      "Ġcharacter": 1589,
      "We": 1590,
      "Ġhere": 1591,
      "Ġiss": 1592,
      "Ġfollowing": 1593,
      "clud": 1594,
      "osed": 1595,
      "ospital": 1596,
      "Ġfactors": 1597,
      "ividual": 1598,
      "Ġbeh": 1599,
      "ĠIf": 1600,
      "ton": 1601,
      "rid": 1602,
      "Ġreview": 1603,
      "Ġseen": 1604,
      "Ġlocal": 1605,
      "Ġbelie": 1606,
      "Ġrep": 1607,
      "Ġchange": 1608,
      "Ġtumors": 1609,
      "oint": 1610,
      "Ġphys": 1611,
      "rop": 1612,
      "Ġreally": 1613,
      "Ġtyp": 1614,
      "ĠAt": 1615,
      "Ġ24": 1616,
      "gical": 1617,
      "ĠOn": 1618,
      "Ġcommun": 1619,
      "Ġprotein": 1620,
      "Ġtype": 1621,
      "ames": 1622,
      "Ġprimary": 1623,
      "Ġcal": 1624,
      "Ġpul": 1625,
      "Ġadminist": 1626,
      "Ġthromb": 1627,
      "akes": 1628,
      "13": 1629,
      "orn": 1630,
      "Ġinfection": 1631,
      "Ġold": 1632,
      "!!!!!!!!": 1633,
      "ank": 1634,
      "air": 1635,
      "Ġseem": 1636,
      "ann": 1637,
      "Ġsens": 1638,
      "Ġdemonstr": 1639,
      "of": 1640,
      "athe": 1641,
      "ert": 1642,
      "ĠHowever": 1643,
      "Ġbetter": 1644,
      "Ġliver": 1645,
      "Ġhapp": 1646,
      "Ġquest": 1647,
      "ON": 1648,
      "Ġaffect": 1649,
      "lex": 1650,
      "Ġabs": 1651,
      "Ġmethod": 1652,
      "Ġcarcinoma": 1653,
      "Ġnerve": 1654,
      "Ġsevere": 1655,
      "Ġclear": 1656,
      "Ġhand": 1657,
      "Ġinfar": 1658,
      "Ġabnormal": 1659,
      "Ġsol": 1660,
      "Ġleast": 1661,
      "Ġpossible": 1662,
      "14": 1663,
      "Ġ25": 1664,
      "ash": 1665,
      "Ġindividual": 1666,
      "Ġdevelopment": 1667,
      "Ġcere": 1668,
      "ĠPro": 1669,
      "Ġ17": 1670,
      "els": 1671,
      "monary": 1672,
      "Ġprob": 1673,
      "Ġmanag": 1674,
      "Ġsurvival": 1675,
      "Ġdr": 1676,
      "Ġanti": 1677,
      "ained": 1678,
      "Ġspecific": 1679,
      "Ġcrit": 1680,
      "ĠYou": 1681,
      "Ġcardiac": 1682,
      "Ġunt": 1683,
      "ending": 1684,
      "Ġfailure": 1685,
      "ĠTrump": 1686,
      "ways": 1687,
      "utes": 1688,
      "Ġproced": 1689,
      "Ġorig": 1690,
      "Ġacid": 1691,
      "Ġflow": 1692,
      "dom": 1693,
      "Ġcomplete": 1694,
      "ised": 1695,
      "Ġrole": 1696,
      "ĠSh": 1697,
      "ird": 1698,
      "Ġbody": 1699,
      "chool": 1700,
      "cut": 1701,
      "emia": 1702,
      "ler": 1703,
      "ivers": 1704,
      "Ġbest": 1705,
      "cing": 1706,
      "Ġshort": 1707,
      "gra": 1708,
      "mic": 1709,
      "Ġantib": 1710,
      "Ġconcent": 1711,
      "Ġspe": 1712,
      "omes": 1713,
      "Ġ50": 1714,
      "Ġimp": 1715,
      "Ġcurrent": 1716,
      "chan": 1717,
      "iple": 1718,
      "Ġconst": 1719,
      "Ġfil": 1720,
      "Ġapp": 1721,
      "Ġside": 1722,
      "Ġknown": 1723,
      "otic": 1724,
      "ones": 1725,
      "Ġtold": 1726,
      "Ġdel": 1727,
      "Ġdeveloped": 1728,
      "Ġwhether": 1729,
      "eng": 1730,
      "Ġtissue": 1731,
      "16": 1732,
      "Ġgener": 1733,
      "Ġmuscle": 1734,
      "Ġrespons": 1735,
      "Wh": 1736,
      "ended": 1737,
      "Ġsingle": 1738,
      "co": 1739,
      "Ġvar": 1740,
      "Ġfree": 1741,
      "ĠUS": 1742,
      "itions": 1743,
      "Ġfar": 1744,
      "Ġcalled": 1745,
      "Ġmort": 1746,
      "Ġsequ": 1747,
      "ĠQ": 1748,
      "Ġhistory": 1749,
      "Ġpur": 1750,
      "Ġtoo": 1751,
      "Ġmid": 1752,
      "Ġmyocardial": 1753,
      "Ġstat": 1754,
      "Ġinformation": 1755,
      "Ġlesions": 1756,
      "go": 1757,
      "Ġregion": 1758,
      "Ġput": 1759,
      "Ġpower": 1760,
      "ortic": 1761,
      "05": 1762,
      "opath": 1763,
      "Ġhours": 1764,
      "Ġauth": 1765,
      "ided": 1766,
      "Ġnever": 1767,
      "Ġtechniqu": 1768,
      "iness": 1769,
      "Ġgene": 1770,
      "ets": 1771,
      "epend": 1772,
      "Ġindu": 1773,
      "Ġfindings": 1774,
      "Ġopen": 1775,
      "Ġmove": 1776,
      "Ġline": 1777,
      "Ġhepat": 1778,
      "ogn": 1779,
      "Ġmg": 1780,
      "terior": 1781,
      "atter": 1782,
      "Ġische": 1783,
      "Ġreal": 1784,
      "roup": 1785,
      "onal": 1786,
      "Ġpolit": 1787,
      "Ġmust": 1788,
      "Ġbig": 1789,
      "itor": 1790,
      "Ġcereb": 1791,
      "%,": 1792,
      "gin": 1793,
      "Ġweeks": 1794,
      "ili": 1795,
      "Ġhome": 1796,
      "ym": 1797,
      "ier": 1798,
      "Ġrecord": 1799,
      "Ġer": 1800,
      "term": 1801,
      "Ġcre": 1802,
      "Ġcorrel": 1803,
      "verage": 1804,
      "Ġpoly": 1805,
      "pr": 1806,
      "Ġair": 1807,
      "Ġlittle": 1808,
      "Ġattack": 1809,
      "ĠNo": 1810,
      "18": 1811,
      "Ġinclude": 1812,
      "Ġtem": 1813,
      "Ġnear": 1814,
      "ental": 1815,
      "ney": 1816,
      "ends": 1817,
      "Ġfin": 1818,
      "Ġseveral": 1819,
      "Ġfactor": 1820,
      "ES": 1821,
      "ĠAd": 1822,
      "Ġtop": 1823,
      "Ġstudied": 1824,
      "Ġgiven": 1825,
      "Ġvol": 1826,
      "ucle": 1827,
      "Ġmm": 1828,
      "ĠOne": 1829,
      "Ġrecom": 1830,
      "erc": 1831,
      "Ġlikely": 1832,
      "Ġyoun": 1833,
      "Ġobserved": 1834,
      "Ġoccurred": 1835,
      "Ġmass": 1836,
      "Ġserv": 1837,
      "order": 1838,
      "Ġnext": 1839,
      "tained": 1840,
      "roll": 1841,
      "otherapy": 1842,
      "medi": 1843,
      "Ġfamily": 1844,
      "AT": 1845,
      "Ġprof": 1846,
      "Ġhypertension": 1847,
      "ĠCan": 1848,
      "ivity": 1849,
      "Ġ'": 1850,
      "Ġarea": 1851,
      "Ġsomething": 1852,
      "50": 1853,
      "ilit": 1854,
      "Ġrates": 1855,
      "thing": 1856,
      "sis": 1857,
      "Ġfra": 1858,
      "Ġthings": 1859,
      "erest": 1860,
      "ials": 1861,
      "sequ": 1862,
      "Ġpredict": 1863,
      "Ġlot": 1864,
      "Ġdesign": 1865,
      "Ġreve": 1866,
      "aps": 1867,
      "roid": 1868,
      "Ġask": 1869,
      "Ġreceived": 1870,
      "verse": 1871,
      "ief": 1872,
      "Ġsurgical": 1873,
      "Ġsus": 1874,
      "Ġchem": 1875,
      "Ġbene": 1876,
      "fl": 1877,
      "17": 1878,
      "Ġmechan": 1879,
      "ruction": 1880,
      "Ġsubjects": 1881,
      "Ġfem": 1882,
      "Ġinterv": 1883,
      "Ġbrain": 1884,
      "Ġpositive": 1885,
      "oplast": 1886,
      "rict": 1887,
      "Ġbus": 1888,
      "ĠUnited": 1889,
      "Ġcourse": 1890,
      "Ġdev": 1891,
      "stand": 1892,
      "ote": 1893,
      "Ġgrowth": 1894,
      "asing": 1895,
      "Ġplan": 1896,
      "Ġcr": 1897,
      "Ġur": 1898,
      "Ġparticular": 1899,
      "come": 1900,
      "Ġvirus": 1901,
      "Ġbro": 1902,
      "Ġtimes": 1903,
      "ĠPh": 1904,
      "Ġdys": 1905,
      "Ġsyn": 1906,
      "plant": 1907,
      "Ġmortality": 1908,
      "be": 1909,
      "Ġplas": 1910,
      "Ġmot": 1911,
      "Ġstruct": 1912,
      "Ġsex": 1913,
      "ences": 1914,
      "Ġcome": 1915,
      "Ġhowever": 1916,
      "ĠEn": 1917,
      "atures": 1918,
      "Ġmillion": 1919,
      "Ġcontinu": 1920,
      "ances": 1921,
      "Ġcost": 1922,
      "Ġinterest": 1923,
      "ead": 1924,
      "Ġpresence": 1925,
      "ertain": 1926,
      "hy": 1927,
      "Ġhospital": 1928,
      "Ġrelated": 1929,
      "Ġturn": 1930,
      "ocial": 1931,
      "aled": 1932,
      "This": 1933,
      "for": 1934,
      "set": 1935,
      "oscop": 1936,
      "ĠBl": 1937,
      "Ġloss": 1938,
      "Ġavail": 1939,
      "Ġsal": 1940,
      "Ġcam": 1941,
      "uted": 1942,
      "ison": 1943,
      "Ġfac": 1944,
      "Ġhard": 1945,
      "Ġgot": 1946,
      "Ġdetermin": 1947,
      "Ġfurther": 1948,
      "Ġide": 1949,
      "bo": 1950,
      "Ġeffective": 1951,
      "Ġimprove": 1952,
      "iting": 1953,
      "Ġcomplications": 1954,
      "ographic": 1955,
      "Ġann": 1956,
      "ĠSc": 1957,
      "Ġview": 1958,
      "Ġhaving": 1959,
      "rences": 1960,
      "aken": 1961,
      "face": 1962,
      "aim": 1963,
      "alf": 1964,
      "Ġserum": 1965,
      "Ġbased": 1966,
      "As": 1967,
      "ries": 1968,
      "bs": 1969,
      "Ġwall": 1970,
      "ocyt": 1971,
      "Ġneg": 1972,
      "ĠWhen": 1973,
      "ĠThat": 1974,
      "ĠZ": 1975,
      "Ġanterior": 1976,
      "rast": 1977,
      "Ġeas": 1978,
      "ãģ": 1979,
      "Ġmetast": 1980,
      "oly": 1981,
      "ressed": 1982,
      "arc": 1983,
      "Ġbone": 1984,
      "Ġlab": 1985,
      "oad": 1986,
      "Ġinhib": 1987,
      "Ġprom": 1988,
      "Ġdu": 1989,
      "Ġ100": 1990,
      "ostic": 1991,
      "Ġflu": 1992,
      "Ġrespectively": 1993,
      "Ġlet": 1994,
      "Ġmalign": 1995,
      "son": 1996,
      "abl": 1997,
      "30": 1998,
      "Ġincidence": 1999,
      "Ġschool": 2000,
      "ched": 2001,
      "arm": 2002,
      "Ġbase": 2003,
      "ateral": 2004,
      "Ġpulmonary": 2005,
      "aring": 2006,
      "Ġpolice": 2007,
      "ining": 2008,
      "ification": 2009,
      "Ġdam": 2010,
      "Ġuntil": 2011,
      "Ġfore": 2012,
      "Ġgeneral": 2013,
      "Ġexperience": 2014,
      "Ġul": 2015,
      "ĠâĢĺ": 2016,
      "Ġdiscuss": 2017,
      "ik": 2018,
      "ument": 2019,
      "Ġprevent": 2020,
      "Ġrelations": 2021,
      "den": 2022,
      "ocr": 2023,
      "Ġsite": 2024,
      "most": 2025,
      "acy": 2026,
      "Ġmov": 2027,
      "Ġable": 2028,
      "Ġmicro": 2029,
      "mine": 2030,
      "fusion": 2031,
      "ĠAmerican": 2032,
      "rest": 2033,
      "here": 2034,
      "Ġalways": 2035,
      "Ġir": 2036,
      "Ġrecept": 2037,
      "Ġ40": 2038,
      "Ġinfarction": 2039,
      "25": 2040,
      "Ġseries": 2041,
      "rial": 2042,
      "Ġport": 2043,
      "Ġleuk": 2044,
      "gl": 2045,
      "used": 2046,
      "Ġver": 2047,
      "Ġmodel": 2048,
      "oles": 2049,
      "Ġblock": 2050,
      "Ġstrong": 2051,
      "Ġbecome": 2052,
      "Ġsw": 2053,
      "Ġavailable": 2054,
      "Ġbo": 2055,
      "Ġcountry": 2056,
      "CT": 2057,
      "eth": 2058,
      "Ġbuild": 2059,
      "andom": 2060,
      "artment": 2061,
      "ges": 2062,
      "CA": 2063,
      "ians": 2064,
      "ancy": 2065,
      "ern": 2066,
      "Ġkill": 2067,
      "ama": 2068,
      "Ġinjury": 2069,
      "Ġcult": 2070,
      "Ġevent": 2071,
      "Ġey": 2072,
      "Ġpopulation": 2073,
      "rote": 2074,
      "mission": 2075,
      "Ġfeel": 2076,
      "ped": 2077,
      "pha": 2078,
      "Ġaccording": 2079,
      "pair": 2080,
      "ply": 2081,
      ".,": 2082,
      "Ġorder": 2083,
      "ring": 2084,
      "Ġkeep": 2085,
      "eding": 2086,
      "Ġcyt": 2087,
      "sych": 2088,
      "Ġstandard": 2089,
      "Ġminutes": 2090,
      "ressive": 2091,
      "Ġwrit": 2092,
      "oon": 2093,
      "omic": 2094,
      "ify": 2095,
      "ready": 2096,
      "Ġappear": 2097,
      "odes": 2098,
      "oney": 2099,
      "Ġrenal": 2100,
      "Ġdem": 2101,
      "io": 2102,
      "Ġinflu": 2103,
      "Ġproject": 2104,
      "ĠRep": 2105,
      "Ġstim": 2106,
      "duct": 2107,
      "lf": 2108,
      "Ġexc": 2109,
      "But": 2110,
      "oses": 2111,
      "ploy": 2112,
      "ibility": 2113,
      "by": 2114,
      "ds": 2115,
      "Ġult": 2116,
      "ators": 2117,
      "reg": 2118,
      "ependent": 2119,
      "ĠAfter": 2120,
      "sc": 2121,
      "Ġ199": 2122,
      "Ġla": 2123,
      "Ġvalue": 2124,
      "Ġexerc": 2125,
      "uck": 2126,
      "Ġprogram": 2127,
      "ping": 2128,
      "Ġpostoperative": 2129,
      "Ġdou": 2130,
      "ĠInd": 2131,
      "Ġpast": 2132,
      "outh": 2133,
      "Ġversus": 2134,
      "ope": 2135,
      "iol": 2136,
      "Ġcertain": 2137,
      "Ġrequired": 2138,
      "side": 2139,
      "uture": 2140,
      "Ġtax": 2141,
      "Ġneuro": 2142,
      "anced": 2143,
      "Ġmeans": 2144,
      "wh": 2145,
      "posed": 2146,
      "Ġprol": 2147,
      "Ġconclud": 2148,
      "reen": 2149,
      "like": 2150,
      "empt": 2151,
      "Ġrepl": 2152,
      "ĠMay": 2153,
      "Ġreduced": 2154,
      "Ġdetermine": 2155,
      "Ġskin": 2156,
      "ule": 2157,
      "Ġseason": 2158,
      "Ġalready": 2159,
      "Ġproduct": 2160,
      "nam": 2161,
      "ĠShe": 2162,
      "Ġmultiple": 2163,
      "ohn": 2164,
      "Ġdose": 2165,
      "ored": 2166,
      "He": 2167,
      "yr": 2168,
      "Ġcut": 2169,
      "ples": 2170,
      "Ġrelative": 2171,
      "ches": 2172,
      "orth": 2173,
      "Ġdra": 2174,
      "Ġopt": 2175,
      "uration": 2176,
      "Ġcolon": 2177,
      "urs": 2178,
      "ĠStates": 2179,
      "Ġmedical": 2180,
      "Ġconfir": 2181,
      "Ġdidn": 2182,
      "Ġpay": 2183,
      "Ġpattern": 2184,
      "tr": 2185,
      "Ġrepres": 2186,
      "Ġfat": 2187,
      "Ġrats": 2188,
      "Ġfeatures": 2189,
      "upt": 2190,
      "Ġalong": 2191,
      "Ġwon": 2192,
      "zy": 2193,
      "iation": 2194,
      "ume": 2195,
      "dle": 2196,
      "ias": 2197,
      "Ġadministration": 2198,
      "Ġven": 2199,
      "idered": 2200,
      "Ġdeg": 2201,
      "ficult": 2202,
      "Ġreturn": 2203,
      "Ġemb": 2204,
      "An": 2205,
      "Ġwhy": 2206,
      "Ġrandom": 2207,
      "Ġpanc": 2208,
      "Ġnews": 2209,
      "hem": 2210,
      "ĠPl": 2211,
      "ĠX": 2212,
      "Ġfull": 2213,
      "Ġlist": 2214,
      "Ġextra": 2215,
      "Ġexample": 2216,
      "TS": 2217,
      "Ġkind": 2218,
      "Ġwin": 2219,
      "Ġcompany": 2220,
      "IN": 2221,
      "ned": 2222,
      "Ġfoc": 2223,
      "Ġconsidered": 2224,
      "Ġda": 2225,
      "Ġcaused": 2226,
      "Ġcontrib": 2227,
      "ER": 2228,
      "ĠSp": 2229,
      "inc": 2230,
      "Ġcontain": 2231,
      "orrh": 2232,
      "Ġcomplex": 2233,
      "Ġlate": 2234,
      "Ġdescribed": 2235,
      "Ġecon": 2236,
      "Ġproblem": 2237,
      "ister": 2238,
      "Ġconcer": 2239,
      "Ġdifficult": 2240,
      "yroid": 2241,
      "SA": 2242,
      "Ġunderwent": 2243,
      "Ġimaging": 2244,
      "Ġclaim": 2245,
      "odies": 2246,
      "iversity": 2247,
      "ĠBe": 2248,
      "Ġsuccessful": 2249,
      "Ġclose": 2250,
      "Ġdone": 2251,
      "Ġ22": 2252,
      "Ġinvolved": 2253,
      "Ġproper": 2254,
      "Ġenough": 2255,
      "Ġaway": 2256,
      "olution": 2257,
      "Ġincluded": 2258,
      "Ġbook": 2259,
      "Ġfollowed": 2260,
      "Ġdeb": 2261,
      "Ġbenef": 2262,
      "ĠEx": 2263,
      "Ġill": 2264,
      "ĠOb": 2265,
      "ores": 2266,
      "Ġox": 2267,
      "ots": 2268,
      "gn": 2269,
      "Ġposterior": 2270,
      "Ġmaking": 2271,
      "rist": 2272,
      "Ġmanagement": 2273,
      "yth": 2274,
      "Ġaden": 2275,
      "Ġgr": 2276,
      "Ġvascular": 2277,
      "Ġusually": 2278,
      "eg": 2279,
      "Ġrelationship": 2280,
      "Ġbreast": 2281,
      "Ġothers": 2282,
      "Ġidentified": 2283,
      "Ġthought": 2284,
      "Ġinitial": 2285,
      "Ġapproach": 2286,
      "Ġexercise": 2287,
      "Ġdecreased": 2288,
      "Ġabdom": 2289,
      "Ġquestion": 2290,
      "01": 2291,
      "Ġsocial": 2292,
      "Ġconv": 2293,
      "Ġbusiness": 2294,
      "Ġplasma": 2295,
      "'re": 2296,
      "ories": 2297,
      "Ġvs": 2298,
      "Ġtalk": 2299,
      "arr": 2300,
      "Ġconsist": 2301,
      "paign": 2302,
      "action": 2303,
      "ectomy": 2304,
      "Ġadult": 2305,
      "pir": 2306,
      "ĠSo": 2307,
      "Ġkid": 2308,
      "Ġposition": 2309,
      "Ġeight": 2310,
      "ps": 2311,
      "Ġthing": 2312,
      "Ġpresident": 2313,
      "ulin": 2314,
      "Ġyoung": 2315,
      "vir": 2316,
      "Ch": 2317,
      "Ġpract": 2318,
      "oplasty": 2319,
      "Ġhalf": 2320,
      "Ġpolic": 2321,
      "pite": 2322,
      "Ġz": 2323,
      "Ġprost": 2324,
      "Ġmut": 2325,
      "ream": 2326,
      "Ġeff": 2327,
      "Ġdemonstrated": 2328,
      "uter": 2329,
      "istic": 2330,
      "Ġlung": 2331,
      "Ġprovide": 2332,
      "Ġcho": 2333,
      "pective": 2334,
      "Ġcity": 2335,
      "Ġfund": 2336,
      "Ġdifference": 2337,
      "Ġrecomm": 2338,
      "Ġwater": 2339,
      "Ġseven": 2340,
      "Ġamount": 2341,
      "ections": 2342,
      "Ġaverage": 2343,
      "Ġstage": 2344,
      "ĠCon": 2345,
      "Ġexpression": 2346,
      "...": 2347,
      "Ġepis": 2348,
      "Ġach": 2349,
      "Ġrevealed": 2350,
      "ĠWith": 2351,
      "Ġresearch": 2352,
      "Ġsour": 2353,
      "Ġelev": 2354,
      "Ġsubst": 2355,
      "Ġaccount": 2356,
      "Ġconsider": 2357,
      "Ġobtained": 2358,
      "Ġ21": 2359,
      "Ġ60": 2360,
      "Ġcame": 2361,
      "tt": 2362,
      "ering": 2363,
      "Ġball": 2364,
      "Ġlight": 2365,
      "Ġshown": 2366,
      "24": 2367,
      "001": 2368,
      "RE": 2369,
      "pass": 2370,
      "Ġweight": 2371,
      "Ġevents": 2372,
      "St": 2373,
      "Ġdied": 2374,
      "Ġdoesn": 2375,
      "Ġselect": 2376,
      "Ġmedia": 2377,
      "Ġproblems": 2378,
      "ĠOf": 2379,
      "over": 2380,
      "Ġunderstand": 2381,
      "ened": 2382,
      "RNA": 2383,
      "Ġrecogn": 2384,
      "enter": 2385,
      "urity": 2386,
      "Ġadj": 2387,
      "Ġfri": 2388,
      "Ġrecent": 2389,
      "Ġarterial": 2390,
      "ĠJohn": 2391,
      "arget": 2392,
      "Ġneeded": 2393,
      "Ġ23": 2394,
      "ĠEuro": 2395,
      "ional": 2396,
      "ster": 2397,
      "Ġjob": 2398,
      "Ġnecess": 2399,
      "Ġmeasure": 2400,
      "Ġdoc": 2401,
      "Ġaccess": 2402,
      "pid": 2403,
      "ĠAm": 2404,
      "Ġmoney": 2405,
      "Ġrare": 2406,
      "Ġremov": 2407,
      "Ġthird": 2408,
      "cles": 2409,
      "Ġgenes": 2410,
      "dition": 2411,
      "PA": 2412,
      "cri": 2413,
      "Ġonce": 2414,
      "Ġstro": 2415,
      "Ġdeep": 2416,
      "Ġgraft": 2417,
      "Ġsize": 2418,
      "sh": 2419,
      "astic": 2420,
      "Ġcontrols": 2421,
      "Ġstory": 2422,
      "itation": 2423,
      "Ġtell": 2424,
      "Ġattempt": 2425,
      "Ġ--": 2426,
      "Ġdeal": 2427,
      "ĠOr": 2428,
      "Ġenc": 2429,
      "Ġaortic": 2430,
      "Ġcoll": 2431,
      "Ġsurface": 2432,
      "22": 2433,
      "Ġtook": 2434,
      "Ġemer": 2435,
      "Ġformer": 2436,
      "Ġacross": 2437,
      "Ġobst": 2438,
      "inary": 2439,
      "ergy": 2440,
      "Ġgive": 2441,
      "II": 2442,
      "Ġcampaign": 2443,
      "pecially": 2444,
      "Ġstop": 2445,
      "hel": 2446,
      "Ġbiop": 2447,
      "Ġvide": 2448,
      "gment": 2449,
      "Ġname": 2450,
      "not": 2451,
      "Ġlear": 2452,
      "osph": 2453,
      "Ġcommunity": 2454,
      "atients": 2455,
      "Ġmeasured": 2456,
      "Ġworking": 2457,
      "Ġartic": 2458,
      "ĠIm": 2459,
      "Ġorigin": 2460,
      "ĠRes": 2461,
      "gether": 2462,
      "Ġrati": 2463,
      "Ġtaken": 2464,
      "Ġtogether": 2465,
      "omin": 2466,
      "osure": 2467,
      "ste": 2468,
      "ott": 2469,
      "Ġbacter": 2470,
      "Ġves": 2471,
      "Ġalmost": 2472,
      "ĠGo": 2473,
      "Ġnight": 2474,
      "Ġmembers": 2475,
      "Ġmit": 2476,
      "Ġrather": 2477,
      "Ġanim": 2478,
      "iency": 2479,
      "Ġachie": 2480,
      "Ġi": 2481,
      "ee": 2482,
      "ember": 2483,
      "umb": 2484,
      "Ġpoor": 2485,
      "aff": 2486,
      "There": 2487,
      "Ġrange": 2488,
      "atin": 2489,
      "Ġever": 2490,
      "âĢ¦": 2491,
      "Ġareas": 2492,
      "Ġsam": 2493,
      "Ġfuture": 2494,
      "ĠAlthough": 2495,
      "ror": 2496,
      "omp": 2497,
      "Ġpreviously": 2498,
      "Ġinflamm": 2499,
      "Ġimmedi": 2500,
      "Ġcompar": 2501,
      "Ġrepe": 2502,
      "Ġexperim": 2503,
      "uff": 2504,
      "Ġischemia": 2505,
      "60": 2506,
      "Ġvarious": 2507,
      "Ġestabl": 2508,
      "Ġsten": 2509,
      "Ġyet": 2510,
      "Ġsle": 2511,
      "Ġcolle": 2512,
      "Ġsitu": 2513,
      "Ġconn": 2514,
      "Ġcerebral": 2515,
      "Ġuseful": 2516,
      "Ġchrom": 2517,
      "illary": 2518,
      "mber": 2519,
      "Ġmole": 2520,
      "Ġpregn": 2521,
      "rior": 2522,
      "Ġoutcome": 2523,
      "Ġpolitical": 2524,
      "If": 2525,
      "Ġet": 2526,
      "Ġalone": 2527,
      "imate": 2528,
      "ateg": 2529,
      "ike": 2530,
      "Ġregard": 2531,
      "IV": 2532,
      "imately": 2533,
      "ĠEurope": 2534,
      "lying": 2535,
      "jection": 2536,
      "Ġmax": 2537,
      "Ġspace": 2538,
      "Ġeffic": 2539,
      "Ġdifferences": 2540,
      "Ġentire": 2541,
      "ference": 2542,
      "Ġnerv": 2543,
      "Ġ28": 2544,
      "Ġactually": 2545,
      "40": 2546,
      "Ġfav": 2547,
      "ĠCol": 2548,
      "Ġprobably": 2549,
      "23": 2550,
      "my": 2551,
      "ĠYork": 2552,
      "Ġvalues": 2553,
      "Ġcop": 2554,
      "Ġtarget": 2555,
      "Ġreason": 2556,
      "estinal": 2557,
      "Ġpros": 2558,
      "ray": 2559,
      "related": 2560,
      "induced": 2561,
      "na": 2562,
      "Ġtechnique": 2563,
      "ley": 2564,
      "ĠPres": 2565,
      "Ġcontrast": 2566,
      "Ġvas": 2567,
      "Ġdoing": 2568,
      "Ġcountries": 2569,
      "Ġabove": 2570,
      "ites": 2571,
      "Ġrecur": 2572,
      "Ġwhite": 2573,
      "ĠRepublic": 2574,
      "Ġmater": 2575,
      "Ġexist": 2576,
      "ware": 2577,
      "Ġface": 2578,
      "Ġdamage": 2579,
      "Ġfood": 2580,
      "orld": 2581,
      "Ġequal": 2582,
      "rosis": 2583,
      "ush": 2584,
      "Ġstep": 2585,
      "ĠDem": 2586,
      "Ġ27": 2587,
      "%),": 2588,
      "Ġbehav": 2589,
      "Ġviol": 2590,
      "amin": 2591,
      "plication": 2592,
      "Ġhepatitis": 2593,
      "igen": 2594,
      "Ġble": 2595,
      "ried": 2596,
      "ien": 2597,
      "ling": 2598,
      "Ġneu": 2599,
      "rem": 2600,
      "SI": 2601,
      "ication": 2602,
      "Ġprocedure": 2603,
      "Ġpsych": 2604,
      "yp": 2605,
      "oral": 2606,
      "Ġtrial": 2607,
      "Ġconditions": 2608,
      "Ġder": 2609,
      "Ġalthough": 2610,
      "Ġplac": 2611,
      "Ġpancreat": 2612,
      "cal": 2613,
      "isms": 2614,
      "ĠAf": 2615,
      "ached": 2616,
      "back": 2617,
      "Ġ197": 2618,
      "Ġstroke": 2619,
      "Ġrelease": 2620,
      "Ġulcer": 2621,
      "Ġrepresent": 2622,
      "Ġeng": 2623,
      "Ġsuperior": 2624,
      "Ġespecially": 2625,
      "mitted": 2626,
      "eb": 2627,
      "Ġmeet": 2628,
      "une": 2629,
      "Ġvit": 2630,
      "Ġcentral": 2631,
      "coh": 2632,
      "aryn": 2633,
      "Ġhemorrh": 2634,
      "Ġnat": 2635,
      "Ġcirc": 2636,
      "wit": 2637,
      "ules": 2638,
      "viron": 2639,
      "put": 2640,
      "27": 2641,
      "Ġcur": 2642,
      "Ġple": 2643,
      "Ġvein": 2644,
      "Ġcauses": 2645,
      "ament": 2646,
      "%.": 2647,
      "Ġself": 2648,
      "Ġcalc": 2649,
      "Ġadded": 2650,
      "Ġarg": 2651,
      "Ġkne": 2652,
      "dro": 2653,
      "Ġmagn": 2654,
      "Ġbran": 2655,
      "Ġresist": 2656,
      "Ġpresented": 2657,
      "ĠPatients": 2658,
      "orders": 2659,
      "ET": 2660,
      "hood": 2661,
      "leg": 2662,
      "Ġwr": 2663,
      "ophage": 2664,
      "erman": 2665,
      "Ġcyst": 2666,
      "Ġreduction": 2667,
      "work": 2668,
      "Ġfight": 2669,
      "izing": 2670,
      "Ġnegative": 2671,
      "au": 2672,
      "Ġblack": 2673,
      "Ġdrugs": 2674,
      "Ġwent": 2675,
      "Ġtypes": 2676,
      "att": 2677,
      "arter": 2678,
      "ĠSte": 2679,
      "Ġexamination": 2680,
      "Ġdog": 2681,
      "Ġincreasing": 2682,
      "Ġtoday": 2683,
      "Ġvessel": 2684,
      "ilt": 2685,
      "Ġalpha": 2686,
      "!!!!!!!!!!!!!!!!": 2687,
      "Ġfall": 2688,
      "Ġgames": 2689,
      "Ġbeta": 2690,
      "Ġmakes": 2691,
      "ront": 2692,
      "Ġmilit": 2693,
      "Ġability": 2694,
      "Ġdefic": 2695,
      "Ġmalignant": 2696,
      "Ġauthor": 2697,
      "Ġvot": 2698,
      "rew": 2699,
      "Ġdisorder": 2700,
      "ude": 2701,
      "rations": 2702,
      "Ġsuper": 2703,
      "Ġtoward": 2704,
      "Ġdecl": 2705,
      "Ġintern": 2706,
      "Ġwoman": 2707,
      "Ġbelieve": 2708,
      "Ġgastric": 2709,
      "Ġwhom": 2710,
      "Ġoverall": 2711,
      "%).": 2712,
      "And": 2713,
      "DS": 2714,
      "Ġrequire": 2715,
      "oe": 2716,
      "ĠFl": 2717,
      "Ġdetail": 2718,
      "Ġmuc": 2719,
      "Ġtub": 2720,
      "eration": 2721,
      "ĠUniversity": 2722,
      "EN": 2723,
      "af": 2724,
      "Ġ2015": 2725,
      "Ġsecret": 2726,
      "CL": 2727,
      ");": 2728,
      "opathy": 2729,
      "Ġstarted": 2730,
      "Ġcoun": 2731,
      "Ġsepar": 2732,
      "Ġlonger": 2733,
      "ĠTwo": 2734,
      "Ġsure": 2735,
      "going": 2736,
      "ising": 2737,
      "Ġart": 2738,
      "Ġnet": 2739,
      "Ġfluid": 2740,
      "Ġphot": 2741,
      "Ġevaluation": 2742,
      "Ġ26": 2743,
      "ĠNational": 2744,
      "Ġappears": 2745,
      "ev": 2746,
      "Ġspecial": 2747,
      "Ġabdominal": 2748,
      "reet": 2749,
      "obal": 2750,
      "Ġproduction": 2751,
      "rolled": 2752,
      "cers": 2753,
      "Ġsum": 2754,
      "Ġemploy": 2755,
      "lim": 2756,
      "Ġwhereas": 2757,
      "Ġpric": 2758,
      "Ġred": 2759,
      "ĠGen": 2760,
      "amine": 2761,
      "ĠMed": 2762,
      "ards": 2763,
      "Ġexamined": 2764,
      "Ġbit": 2765,
      "Ġtransplant": 2766,
      "Ġprogn": 2767,
      "aster": 2768,
      "itivity": 2769,
      "ender": 2770,
      "Ġoperation": 2771,
      "Ġrad": 2772,
      "Ġrespond": 2773,
      "Ġadditional": 2774,
      "Ġcou": 2775,
      "RI": 2776,
      "gency": 2777,
      "Ġpubl": 2778,
      "ging": 2779,
      "Ġane": 2780,
      "Ġnucle": 2781,
      "Ġanimals": 2782,
      "Ġstress": 2783,
      "ĠMan": 2784,
      "ĠObama": 2785,
      "vert": 2786,
      "Ġsleep": 2787,
      "Ġaction": 2788,
      "Ġindividuals": 2789,
      "Ġbreak": 2790,
      "ĠMc": 2791,
      "lier": 2792,
      "ĠCanad": 2793,
      "Ġtaking": 2794,
      "Ġterm": 2795,
      "hers": 2796,
      "Ġprior": 2797,
      "overed": 2798,
      "Ġbegin": 2799,
      "kn": 2800,
      "Ġcontent": 2801,
      "aged": 2802,
      "ino": 2803,
      "Ġasked": 2804,
      "vironment": 2805,
      "Ġindex": 2806,
      "ength": 2807,
      "uclear": 2808,
      "Ġcross": 2809,
      "erg": 2810,
      "Ġhold": 2811,
      "Ġchemotherapy": 2812,
      "ophageal": 2813,
      "Ġsqu": 2814,
      "Ġenergy": 2815,
      "Ġfoot": 2816,
      "Ġplayers": 2817,
      "Ġbypass": 2818,
      "Ġwhole": 2819,
      "rolog": 2820,
      "Ġissue": 2821,
      "Ġcreat": 2822,
      "On": 2823,
      "kg": 2824,
      "Ġevaluated": 2825,
      "ygen": 2826,
      "Ġpriv": 2827,
      "ctal": 2828,
      "ape": 2829,
      "nes": 2830,
      "reme": 2831,
      "ĠMr": 2832,
      "bran": 2833,
      "Ġlink": 2834,
      "ulated": 2835,
      "ĠRuss": 2836,
      "ipher": 2837,
      "Ġfield": 2838,
      "asia": 2839,
      "pri": 2840,
      "secut": 2841,
      "ĠPe": 2842,
      "Ġcathe": 2843,
      "Ġcourt": 2844,
      "Ġphen": 2845,
      "21": 2846,
      "ĠMar": 2847,
      "Ġabnormalities": 2848,
      "uly": 2849,
      "ĠSy": 2850,
      "ips": 2851,
      "Ġanaly": 2852,
      "ĠPresident": 2853,
      "Ġmiss": 2854,
      "Ġ&": 2855,
      "ball": 2856,
      "Ġtom": 2857,
      "rim": 2858,
      "Ġdiet": 2859,
      "Ġseems": 2860,
      "ocytes": 2861,
      "26": 2862,
      "Ġnational": 2863,
      "Ġbecame": 2864,
      "Ġactive": 2865,
      "Ġresection": 2866,
      "ires": 2867,
      "Ġcompl": 2868,
      "Ġlo": 2869,
      "Ġupper": 2870,
      "Ġparent": 2871,
      "selves": 2872,
      "Ġmarket": 2873,
      "ula": 2874,
      "Ġcondition": 2875,
      "Ġrapid": 2876,
      "overy": 2877,
      "unt": 2878,
      "inding": 2879,
      "Ġtests": 2880,
      "ĠAss": 2881,
      "Ġhorm": 2882,
      "Ġ2016": 2883,
      "AC": 2884,
      "Ġdistrib": 2885,
      "adder": 2886,
      "Ġeffort": 2887,
      "Ġatrial": 2888,
      "Ġserious": 2889,
      "Ġlack": 2890,
      "och": 2891,
      "urys": 2892,
      "Ġfed": 2893,
      "Ġrev": 2894,
      "Ġpret": 2895,
      "ĠMe": 2896,
      "Ġphysical": 2897,
      "Ġech": 2898,
      "Ġdetermined": 2899,
      "ĠTe": 2900,
      "venous": 2901,
      "Ġfinal": 2902,
      "Ġhypot": 2903,
      "AR": 2904,
      "otid": 2905,
      "Ġaffected": 2906,
      "Ġsynthe": 2907,
      "ague": 2908,
      "play": 2909,
      "Ġdiab": 2910,
      "ĠAb": 2911,
      "Ġreceptor": 2912,
      "Ġdecrease": 2913,
      "arily": 2914,
      "Ġstatus": 2915,
      "AS": 2916,
      "35": 2917,
      "Ġtw": 2918,
      "Ġ35": 2919,
      "Ġvideo": 2920,
      "function": 2921,
      "imens": 2922,
      "ecause": 2923,
      "Ġwide": 2924,
      "atal": 2925,
      "Ġchall": 2926,
      "Ġjoint": 2927,
      "Ġdig": 2928,
      "rael": 2929,
      "Ġtry": 2930,
      "ĠMin": 2931,
      "Ġcav": 2932,
      "arian": 2933,
      "Ġlateral": 2934,
      "Ġcombination": 2935,
      "28": 2936,
      "Ġaff": 2937,
      "ued": 2938,
      "Ġbelow": 2939,
      "Ġoral": 2940,
      "ĠDep": 2941,
      "Ġsubsequ": 2942,
      "tra": 2943,
      "inct": 2944,
      "imum": 2945,
      "Ġalcoh": 2946,
      "Ġdetected": 2947,
      "vent": 2948,
      "Ġarrest": 2949,
      "ura": 2950,
      "ensity": 2951,
      "Ġparticularly": 2952,
      "Ġarteries": 2953,
      "ĠWhat": 2954,
      "Ġvalve": 2955,
      "Ġwhose": 2956,
      "Ġcompet": 2957,
      "phal": 2958,
      "99": 2959,
      "ables": 2960,
      "Ġx": 2961,
      "Ġbar": 2962,
      "omat": 2963,
      "Ġ,": 2964,
      "For": 2965,
      "Ġdeaths": 2966,
      "Ġpoints": 2967,
      "Ġconcentration": 2968,
      "Ġ#": 2969,
      "Ġess": 2970,
      "Ġcomes": 2971,
      "book": 2972,
      "Ġangioplasty": 2973,
      "Ġestim": 2974,
      "Ġfrequency": 2975,
      "ĠSen": 2976,
      "mp": 2977,
      "Ġmetab": 2978,
      "Ġplacebo": 2979,
      "Ġgastro": 2980,
      "AN": 2981,
      "Ġmess": 2982,
      "Ġratio": 2983,
      "irl": 2984,
      "Ġbehind": 2985,
      "Ġchromos": 2986,
      "iated": 2987,
      "Ġtesting": 2988,
      "Ġvac": 2989,
      "Ġgetting": 2990,
      "Ġmiddle": 2991,
      "ras": 2992,
      "Ġresid": 2993,
      "Ġago": 2994,
      "Ġvolume": 2995,
      "Ġlove": 2996,
      "ochem": 2997,
      "inton": 2998,
      "Ġagents": 2999,
      "Ġproduced": 3000,
      "plement": 3001,
      "rin": 3002,
      "BC": 3003,
      "bid": 3004,
      "ift": 3005,
      "Ġsent": 3006,
      "Ġov": 3007,
      "Ġstates": 3008,
      "Ġshows": 3009,
      "orac": 3010,
      "Ġduration": 3011,
      "Ġtrying": 3012,
      "Ġedit": 3013,
      "Ġcand": 3014,
      "Ġobject": 3015,
      "Ġpal": 3016,
      "ptic": 3017,
      "Ġsoft": 3018,
      "Ġoccl": 3019,
      "cont": 3020,
      "ĠDemocr": 3021,
      "fort": 3022,
      "onst": 3023,
      "Ġspinal": 3024,
      "Ġdefin": 3025,
      "yle": 3026,
      "Ġjo": 3027,
      "uit": 3028,
      "Ġidea": 3029,
      "Ġsafe": 3030,
      "//": 3031,
      "Ġvict": 3032,
      "ĠJan": 3033,
      "Ġsites": 3034,
      "Ġaccept": 3035,
      "pose": 3036,
      "Ġissues": 3037,
      "Ġled": 3038,
      "Ġrecently": 3039,
      "Ġannoun": 3040,
      "Ġdisorders": 3041,
      "Ġavoid": 3042,
      "Ã©": 3043,
      "Ġisol": 3044,
      "Ġnoted": 3045,
      "sw": 3046,
      "esis": 3047,
      "uth": 3048,
      "Ġmatter": 3049,
      "ipheral": 3050,
      "Ġbra": 3051,
      "ĠSec": 3052,
      "ĠState": 3053,
      "Ġdefect": 3054,
      "Ġprotect": 3055,
      "Ġreplace": 3056,
      "Ġ]": 3057,
      "Ġben": 3058,
      "Ġreports": 3059,
      "ww": 3060,
      "Ġconsum": 3061,
      "Ġproteins": 3062,
      "Ġsimple": 3063,
      "Ġitself": 3064,
      "Ġrecurrent": 3065,
      "ĠGroup": 3066,
      "tered": 3067,
      "Ġoutside": 3068,
      "Ġcontinue": 3069,
      "Ġinvolve": 3070,
      "Ġprocedures": 3071,
      "Ġparty": 3072,
      "Ġbiopsy": 3073,
      "ĠNorth": 3074,
      "Ġmind": 3075,
      "istics": 3076,
      "Ġquick": 3077,
      "Ġcompon": 3078,
      "Ġdouble": 3079,
      "Ġdecision": 3080,
      "Ġnine": 3081,
      "Ġliter": 3082,
      "isc": 3083,
      "Ġtox": 3084,
      "rhyth": 3085,
      "Ġelectro": 3086,
      "Ġconfirmed": 3087,
      "Ġinduced": 3088,
      "ĠCar": 3089,
      "ĠBar": 3090,
      "Ġdiagnostic": 3091,
      "based": 3092,
      "Ġ:": 3093,
      "ternal": 3094,
      "ilateral": 3095,
      "ĠWorld": 3096,
      "Ġrepair": 3097,
      "parent": 3098,
      "Ġstenosis": 3099,
      "yc": 3100,
      "Ġhepatic": 3101,
      "ashing": 3102,
      "Ġconcentrations": 3103,
      "Ġdocument": 3104,
      "You": 3105,
      "enal": 3106,
      "ana": 3107,
      "Ġhom": 3108,
      "Ad": 3109,
      "Ġplate": 3110,
      "Ġdest": 3111,
      "Ġlip": 3112,
      "Ġperformance": 3113,
      "Ġlimited": 3114,
      "ĠHouse": 3115,
      "Ġbleeding": 3116,
      "Ġmat": 3117,
      "rate": 3118,
      "Ġ29": 3119,
      "Ġroom": 3120,
      "ĠRNA": 3121,
      "'ve": 3122,
      "ĠAmerica": 3123,
      "wenty": 3124,
      "ux": 3125,
      "mean": 3126,
      "ranial": 3127,
      "ĠCal": 3128,
      "Ġtrue": 3129,
      "Ġbad": 3130,
      "ĠBrit": 3131,
      "Ġdetect": 3132,
      "29": 3133,
      "ĠCD": 3134,
      "emic": 3135,
      "Ġagre": 3136,
      "irth": 3137,
      "Ġprec": 3138,
      "Ġimproved": 3139,
      "Ġremains": 3140,
      "ĠSome": 3141,
      "ĠIsrael": 3142,
      "Ġtempor": 3143,
      "ĠCT": 3144,
      "unch": 3145,
      "ifest": 3146,
      "Ġreduce": 3147,
      "Ġmembran": 3148,
      "Ġfavor": 3149,
      "rill": 3150,
      "Ġthreat": 3151,
      "Ġenvironment": 3152,
      "Ġassociation": 3153,
      "cutaneous": 3154,
      "ĠSup": 3155,
      "Ġindicate": 3156,
      "Ġpolicy": 3157,
      "roscop": 3158,
      "off": 3159,
      "Ġmom": 3160,
      "position": 3161,
      "lation": 3162,
      "Ġearlier": 3163,
      "Ġaneurys": 3164,
      "stit": 3165,
      "Ġinternal": 3166,
      "Ġlive": 3167,
      "Ġnecessary": 3168,
      "vious": 3169,
      "Ġmuscles": 3170,
      "Ġbill": 3171,
      "ocardi": 3172,
      "ae": 3173,
      "Ġauthors": 3174,
      "Ġvia": 3175,
      "ains": 3176,
      "enn": 3177,
      ".)": 3178,
      "Ġ90": 3179,
      "terol": 3180,
      "Ġ2014": 3181,
      "Ġwa": 3182,
      "Ġexpect": 3183,
      "rupt": 3184,
      "Ġbegan": 3185,
      "Ġlength": 3186,
      "Ġaltern": 3187,
      "ovascular": 3188,
      "Ġcombined": 3189,
      "Ġresponses": 3190,
      "undred": 3191,
      "Ġisn": 3192,
      "Ġsaying": 3193,
      "Ġnec": 3194,
      "Ġvisual": 3195,
      "Ġsomeone": 3196,
      "Ġhit": 3197,
      "Ġanything": 3198,
      "Ġcle": 3199,
      "Ġintravenous": 3200,
      "Ġvenous": 3201,
      "Ġbow": 3202,
      "Ġinferior": 3203,
      "erate": 3204,
      "ĠAp": 3205,
      "Ġexpected": 3206,
      "Ġfrequently": 3207,
      "osa": 3208,
      "angu": 3209,
      "Ġmilitary": 3210,
      "olar": 3211,
      "Ġhost": 3212,
      "ĠBy": 3213,
      "ony": 3214,
      "osing": 3215,
      "Ġcannot": 3216,
      "ĠChrist": 3217,
      "Ġoxygen": 3218,
      "Ġneck": 3219,
      "mat": 3220,
      "ĠHg": 3221,
      "Ġdiagnosed": 3222,
      "Ġcomm": 3223,
      "45": 3224,
      "Ġbring": 3225,
      "Ġconclude": 3226,
      "mal": 3227,
      "Ġwanted": 3228,
      "What": 3229,
      "uge": 3230,
      "elt": 3231,
      "Ġperipheral": 3232,
      "Ġreceiving": 3233,
      "Ġtend": 3234,
      "ustom": 3235,
      "ĠAfric": 3236,
      "group": 3237,
      "ĠGerman": 3238,
      "time": 3239,
      "atives": 3240,
      "Ġmonitor": 3241,
      "Ġcontract": 3242,
      "Ġ80": 3243,
      "witter": 3244,
      "ixed": 3245,
      "Ġrefer": 3246,
      "Ġsurve": 3247,
      "Ġpreval": 3248,
      "ming": 3249,
      "ĠWar": 3250,
      "Ġsystems": 3251,
      "elv": 3252,
      "Ġgenetic": 3253,
      "erous": 3254,
      "Ġsuff": 3255,
      "Al": 3256,
      "char": 3257,
      "aches": 3258,
      "Ġcandid": 3259,
      "Ġelevated": 3260,
      "Ġbur": 3261,
      "Ġelse": 3262,
      "Ġsecurity": 3263,
      "Ġsin": 3264,
      "pected": 3265,
      "Ġkey": 3266,
      "raft": 3267,
      "ĠDuring": 3268,
      "duction": 3269,
      "Ġmale": 3270,
      "Ġseiz": 3271,
      "Ġcorrect": 3272,
      "hold": 3273,
      "ober": 3274,
      "Ġrecurrence": 3275,
      "Ġonset": 3276,
      "ĠPa": 3277,
      "ontaneous": 3278,
      "Ġinfusion": 3279,
      "Ġdaily": 3280,
      "Ġlooking": 3281,
      "Ġneeds": 3282,
      "Ġcatheter": 3283,
      "Ġcord": 3284,
      "Ġdiseases": 3285,
      "Ġneurolog": 3286,
      "plications": 3287,
      "Ġ|": 3288,
      "ĠAust": 3289,
      "Ġimpact": 3290,
      "utions": 3291,
      "Ġquality": 3292,
      "Ġmajority": 3293,
      "Ġinn": 3294,
      "Ġlig": 3295,
      "resp": 3296,
      "omal": 3297,
      "Ġslow": 3298,
      "Ġdelay": 3299,
      "Ġsuggests": 3300,
      "Cl": 3301,
      "load": 3302,
      "anies": 3303,
      "Ġlost": 3304,
      "bit": 3305,
      "Ġland": 3306,
      "ĠPost": 3307,
      "aling": 3308,
      "Ġdil": 3309,
      "Ġlib": 3310,
      "Ġheav": 3311,
      "Ġfunctional": 3312,
      "ai": 3313,
      "Ġ45": 3314,
      "Ġ48": 3315,
      "iding": 3316,
      "ĠPart": 3317,
      "ccording": 3318,
      "ault": 3319,
      "Ġsound": 3320,
      "itone": 3321,
      "active": 3322,
      "32": 3323,
      "iratory": 3324,
      "ĠClinton": 3325,
      "olism": 3326,
      "ĠPer": 3327,
      "reatment": 3328,
      "Ġreleased": 3329,
      "Ġground": 3330,
      "ĠCont": 3331,
      "Ġphase": 3332,
      "namic": 3333,
      "ese": 3334,
      "Ġsecondary": 3335,
      "oscopic": 3336,
      "iat": 3337,
      "Ġenh": 3338,
      "Ġdegree": 3339,
      "ilities": 3340,
      "aser": 3341,
      "Ġsigns": 3342,
      "Ġtechniques": 3343,
      "'m": 3344,
      "Ġarr": 3345,
      "cil": 3346,
      "icity": 3347,
      "elan": 3348,
      "Ġhighly": 3349,
      "Ġeduc": 3350,
      "Ġbasis": 3351,
      "Ġhundred": 3352,
      "Ġexcept": 3353,
      "Ġsuggested": 3354,
      "Ġhemorrhage": 3355,
      "teb": 3356,
      "Ġoccurs": 3357,
      "__": 3358,
      "Ġconduct": 3359,
      "Ġ70": 3360,
      "ask": 3361,
      "Ġmethods": 3362,
      "eria": 3363,
      "Ġfig": 3364,
      "Ġmarked": 3365,
      "Ġtherefore": 3366,
      "Ġmyel": 3367,
      "range": 3368,
      "Ġcerv": 3369,
      "ĠCo": 3370,
      "Ġgenome": 3371,
      "ĠWhile": 3372,
      "vant": 3373,
      "Ġessential": 3374,
      "iet": 3375,
      "rees": 3376,
      "Ġgluc": 3377,
      "Ġantigen": 3378,
      "Ġinvestigation": 3379,
      "Ġincreases": 3380,
      "cellular": 3381,
      "Ġchest": 3382,
      "Ġparticip": 3383,
      "Ġcreate": 3384,
      "ĠCity": 3385,
      "ĠPol": 3386,
      "asis": 3387,
      "Ġinfants": 3388,
      "Ġdespite": 3389,
      "Ġleading": 3390,
      "Ġ31": 3391,
      "asons": 3392,
      "Ġintro": 3393,
      "Ġthemselves": 3394,
      "ximately": 3395,
      "ĠBro": 3396,
      "Ġ36": 3397,
      "Ġhealthy": 3398,
      "Ġsequence": 3399,
      "Ġspl": 3400,
      "uses": 3401,
      "OR": 3402,
      "Ġpersist": 3403,
      "Ġsource": 3404,
      "agon": 3405,
      "Ġdirectly": 3406,
      "Ġjud": 3407,
      "Ġbehavior": 3408,
      "33": 3409,
      "amed": 3410,
      "ĠNe": 3411,
      "ique": 3412,
      "iles": 3413,
      "80": 3414,
      "Ġful": 3415,
      "Ġenter": 3416,
      "pecific": 3417,
      "priate": 3418,
      ",[": 3419,
      "CC": 3420,
      "olesterol": 3421,
      "yn": 3422,
      "Ġantibodies": 3423,
      "Ġlay": 3424,
      "Ġleukemia": 3425,
      "ache": 3426,
      "Ġalle": 3427,
      "ype": 3428,
      "That": 3429,
      "ND": 3430,
      "ications": 3431,
      "Ġeth": 3432,
      "apan": 3433,
      "sec": 3434,
      "Ġfailed": 3435,
      "Ġagg": 3436,
      "Ġrights": 3437,
      "When": 3438,
      "ervation": 3439,
      "apt": 3440,
      "Ġindependent": 3441,
      "Ġnothing": 3442,
      "ĠOur": 3443,
      "Ġcarotid": 3444,
      "Ġreviewed": 3445,
      "Ġarticle": 3446,
      "Ġolder": 3447,
      "Ġfront": 3448,
      "Ġprovided": 3449,
      "Ġeverything": 3450,
      "Ġrandomized": 3451,
      "Ġsystemic": 3452,
      "Ġsimply": 3453,
      "Ġsat": 3454,
      "Ġce": 3455,
      "Ġforward": 3456,
      "Ġechocardi": 3457,
      "Ġsn": 3458,
      "Ġresistance": 3459,
      "head": 3460,
      "Ġepisodes": 3461,
      "king": 3462,
      "Ġcollect": 3463,
      "Ġinstead": 3464,
      "Ġspread": 3465,
      "Ġcode": 3466,
      "Ġprofess": 3467,
      "Ġdysfunction": 3468,
      "Ġtit": 3469,
      "Ġsense": 3470,
      "Ġimprovement": 3471,
      "oor": 3472,
      "Ġradiation": 3473,
      "ashington": 3474,
      "ĠAct": 3475,
      "Ġreceive": 3476,
      "Ġstay": 3477,
      "aut": 3478,
      "anged": 3479,
      "Ġimm": 3480,
      "Ġleaders": 3481,
      "Ġbenefit": 3482,
      "Ġlog": 3483,
      "Ġgun": 3484,
      "otomy": 3485,
      "Ġfamil": 3486,
      "Ġhouse": 3487,
      "que": 3488,
      "oura": 3489,
      "Ġstra": 3490,
      "ĠGu": 3491,
      "onic": 3492,
      "Ġmis": 3493,
      "ĠHis": 3494,
      "ociety": 3495,
      "Ġformation": 3496,
      "Ġpregnancy": 3497,
      "Ġwrote": 3498,
      "Ġtract": 3499,
      "Ġpack": 3500,
      "Ġpelv": 3501,
      "Ġcoming": 3502,
      "70": 3503,
      "omen": 3504,
      "more": 3505,
      "aine": 3506,
      "attle": 3507,
      "Ġfun": 3508,
      "ĠHar": 3509,
      "Ġpublished": 3510,
      "Ġanalyz": 3511,
      "kin": 3512,
      "etal": 3513,
      "ĠSouth": 3514,
      "Ġhope": 3515,
      "Ġnorm": 3516,
      "Ġtraum": 3517,
      "ĠThus": 3518,
      "ficial": 3519,
      "equ": 3520,
      "apter": 3521,
      "Ġmovement": 3522,
      "Ġinterview": 3523,
      "rine": 3524,
      "Ġcontact": 3525,
      "ulations": 3526,
      "Ġrecovery": 3527,
      "Ġcompanies": 3528,
      "Ġmother": 3529,
      "Ġstructure": 3530,
      "Ġnatural": 3531,
      "Ġrespiratory": 3532,
      "oplas": 3533,
      "Ġantibody": 3534,
      "UL": 3535,
      "Ġmice": 3536,
      "ibly": 3537,
      "ritis": 3538,
      "ĠJust": 3539,
      "ĠStud": 3540,
      "Ġcompletely": 3541,
      "Ġlat": 3542,
      "AM": 3543,
      "icians": 3544,
      "ows": 3545,
      "udden": 3546,
      "Ġrunning": 3547,
      "Ġgoal": 3548,
      "uary": 3549,
      "ocal": 3550,
      "Ġnumbers": 3551,
      "cies": 3552,
      "Ġexposure": 3553,
      "AD": 3554,
      "Ġwatch": 3555,
      "Ġischemic": 3556,
      "Ġ34": 3557,
      "Ġsaf": 3558,
      "Ġofficials": 3559,
      "Ġmorph": 3560,
      "Ġstudents": 3561,
      "Ġcurrently": 3562,
      "ST": 3563,
      "ardia": 3564,
      "Ġ2012": 3565,
      "Ġfederal": 3566,
      "ĠAI": 3567,
      "Ġglobal": 3568,
      "icular": 3569,
      "Ġthyroid": 3570,
      "Ġ2013": 3571,
      "ext": 3572,
      "Ġimmediately": 3573,
      "actions": 3574,
      "neum": 3575,
      "Ġcalcium": 3576,
      "So": 3577,
      "Ġfilm": 3578,
      "Ġduct": 3579,
      "Ġways": 3580,
      "100": 3581,
      "mb": 3582,
      "ery": 3583,
      "Ġconsecut": 3584,
      "ĠGl": 3585,
      "Ġcirrh": 3586,
      "Ġoriginal": 3587,
      "95": 3588,
      "Ġinvas": 3589,
      "ledge": 3590,
      "Ġaud": 3591,
      "ori": 3592,
      "Ġspontaneous": 3593,
      "Ġscre": 3594,
      "Ġmotor": 3595,
      "iology": 3596,
      "anks": 3597,
      "Ġnearly": 3598,
      "Ġdogs": 3599,
      "Ġden": 3600,
      "entional": 3601,
      "Ġhands": 3602,
      "Ġsoon": 3603,
      "rant": 3604,
      "portun": 3605,
      "Ġstatement": 3606,
      "Ġaspect": 3607,
      "ĠBecause": 3608,
      "Ġmedian": 3609,
      "Ġservice": 3610,
      "Ġseverity": 3611,
      "Ġlabor": 3612,
      "Ġquestions": 3613,
      "ema": 3614,
      "Ġut": 3615,
      "Ġlines": 3616,
      "Ġterms": 3617,
      "Ġaw": 3618,
      "aries": 3619,
      "Ġforce": 3620,
      "where": 3621,
      "ãĤ": 3622,
      "Ġhimself": 3623,
      "Ġremained": 3624,
      "urg": 3625,
      "lam": 3626,
      "rape": 3627,
      "Ġvent": 3628,
      "ĠEar": 3629,
      "Ġinfluence": 3630,
      "ns": 3631,
      "ournal": 3632,
      "Ġquite": 3633,
      "Ġvessels": 3634,
      "Ġliving": 3635,
      "rophy": 3636,
      "Ġpromot": 3637,
      "Ġeyes": 3638,
      "ĠWest": 3639,
      "Ġsensitivity": 3640,
      "omb": 3641,
      "ĠWashington": 3642,
      "Ġoffice": 3643,
      "Ġpick": 3644,
      "fact": 3645,
      "ales": 3646,
      "Ġupon": 3647,
      "Ġminor": 3648,
      "bor": 3649,
      "Ġren": 3650,
      "ĠMy": 3651,
      "Ġcheck": 3652,
      "Ġcontinued": 3653,
      "ĠDepartment": 3654,
      "AP": 3655,
      "iff": 3656,
      "Ġdom": 3657,
      "ĠApr": 3658,
      "ĠMus": 3659,
      "ĠPC": 3660,
      "Ġadvanced": 3661,
      "stry": 3662,
      "ades": 3663,
      "Ġcholesterol": 3664,
      "ĠOct": 3665,
      "Ġproduce": 3666,
      "pler": 3667,
      "ĠJune": 3668,
      "Ġcorrelation": 3669,
      "Ġtro": 3670,
      "Ġtradition": 3671,
      "34": 3672,
      "point": 3673,
      "Ġpie": 3674,
      "Ġexact": 3675,
      "Ġapparent": 3676,
      "://": 3677,
      "Ġshock": 3678,
      "rec": 3679,
      "apse": 3680,
      "Ġgirl": 3681,
      "Ġshare": 3682,
      "Ġheld": 3683,
      "ocyte": 3684,
      "hest": 3685,
      "Ġlesion": 3686,
      "Ġrat": 3687,
      "Ġ32": 3688,
      "Ġresulted": 3689,
      "Ġcustom": 3690,
      "Ġundergoing": 3691,
      "iver": 3692,
      "Ġgall": 3693,
      "ĠEd": 3694,
      "Ġtraining": 3695,
      "90": 3696,
      "Ġquant": 3697,
      "Ġgenerally": 3698,
      "Ġdiv": 3699,
      "ĠCor": 3700,
      "ĠPr": 3701,
      "Ġpreoperative": 3702,
      "Ġversion": 3703,
      "Ġtach": 3704,
      "Ġculture": 3705,
      "Ġsafety": 3706,
      "iam": 3707,
      "Ġwalk": 3708,
      "Ġbillion": 3709,
      "Ġassessment": 3710,
      "Ġax": 3711,
      "Ġcontra": 3712,
      "Ġson": 3713,
      "Ġperf": 3714,
      "ights": 3715,
      "Ġtranscri": 3716,
      "Ġdiscussed": 3717,
      "arin": 3718,
      "Ġinfections": 3719,
      "ĠFran": 3720,
      "Ġplayer": 3721,
      "Ġalcohol": 3722,
      "Ġassessed": 3723,
      "Re": 3724,
      "LL": 3725,
      "ĠIntern": 3726,
      "ameter": 3727,
      "How": 3728,
      "Ġwasn": 3729,
      "ĠÂ": 3730,
      "Ġdeli": 3731,
      "Ġrelatively": 3732,
      "Ġbirth": 3733,
      "asc": 3734,
      "oster": 3735,
      "Ġexperien": 3736,
      "Ġefficacy": 3737,
      "Ġmur": 3738,
      "Ġsmok": 3739,
      "Ġbowel": 3740,
      "Ġ/": 3741,
      "ĠIII": 3742,
      "icle": 3743,
      "Ġlangu": 3744,
      "urb": 3745,
      "Ġ33": 3746,
      "Ġepit": 3747,
      "zyme": 3748,
      "Ġfocus": 3749,
      "Ġten": 3750,
      "Ġmig": 3751,
      "fully": 3752,
      "Ġcorrelated": 3753,
      "aining": 3754,
      "Ġfill": 3755,
      "Ġopportun": 3756,
      "Ġconsecutive": 3757,
      "Ġarch": 3758,
      "ĠSm": 3759,
      "Ġaspir": 3760,
      "ĠMore": 3761,
      "Ġtransplantation": 3762,
      "'ll": 3763,
      "ded": 3764,
      "ivil": 3765,
      "Ġbroad": 3766,
      "Ġprevalence": 3767,
      "Ġworks": 3768,
      "Ġadults": 3769,
      "Ġtechnology": 3770,
      "Ġinflammatory": 3771,
      "Ġestablished": 3772,
      "oracic": 3773,
      "Ġocclusion": 3774,
      "orph": 3775,
      "Ġfire": 3776,
      "Ġmild": 3777,
      "gments": 3778,
      "etes": 3779,
      "Figure": 3780,
      "ycardia": 3781,
      "ĠOther": 3782,
      "Ġ2017": 3783,
      "free": 3784,
      "ĠMost": 3785,
      "rogen": 3786,
      "Ġdead": 3787,
      "Ġ37": 3788,
      "ĠJapan": 3789,
      "ogenic": 3790,
      "Ġstri": 3791,
      "Ġaddress": 3792,
      "iliary": 3793,
      "Ġlob": 3794,
      "ĠDes": 3795,
      "Ġsaw": 3796,
      "Ġdeveloping": 3797,
      "Ġlegal": 3798,
      "rapeut": 3799,
      "GF": 3800,
      "ĠPark": 3801,
      "ĠChina": 3802,
      "rection": 3803,
      "ĠSur": 3804,
      "Ġdefined": 3805,
      "ico": 3806,
      "key": 3807,
      "Ġmanifest": 3808,
      "Ġfemale": 3809,
      "Ġpoll": 3810,
      "Ġconcept": 3811,
      "itude": 3812,
      "ĠDav": 3813,
      "Ġpeak": 3814,
      "Ġfinanc": 3815,
      "odium": 3816,
      "oscopy": 3817,
      "Ġfriends": 3818,
      "ĠGe": 3819,
      "Ġexec": 3820,
      "Ġimages": 3821,
      "CG": 3822,
      "ulate": 3823,
      "Ġbuilding": 3824,
      "Ġmembrane": 3825,
      "bet": 3826,
      "Ġast": 3827,
      "Ġdepression": 3828,
      "ĠApril": 3829,
      "ech": 3830,
      "Ġforms": 3831,
      "Ġdy": 3832,
      "Ġobstruction": 3833,
      "lder": 3834,
      "Ġ65": 3835,
      "Ġpit": 3836,
      "Ġproducts": 3837,
      "Ġcm": 3838,
      "Ġreson": 3839,
      "Ġappeared": 3840,
      "iring": 3841,
      "hesis": 3842,
      "mitte": 3843,
      "Ġballoon": 3844,
      "brid": 3845,
      "ĠCON": 3846,
      "Ġextreme": 3847,
      "Ġhypertensive": 3848,
      "Ġemergency": 3849,
      "iologic": 3850,
      "ties": 3851,
      "Ġcreated": 3852,
      "):": 3853,
      "ĠMarch": 3854,
      "ĠJanuary": 3855,
      "val": 3856,
      "Ġforeign": 3857,
      "iot": 3858,
      "Ġplaying": 3859,
      "Ġsometimes": 3860,
      "Ġattacks": 3861,
      "usions": 3862,
      "iveness": 3863,
      "Ġaort": 3864,
      "Ġreaction": 3865,
      "antly": 3866,
      "Ġscan": 3867,
      "obl": 3868,
      "Ġattention": 3869,
      "ĠSept": 3870,
      "Ġhormone": 3871,
      "irect": 3872,
      "known": 3873,
      "ops": 3874,
      "Ġcomment": 3875,
      "ners": 3876,
      "Ġlarger": 3877,
      "Ġpancreatic": 3878,
      "ĠFour": 3879,
      "Ġeasy": 3880,
      "Ġphosph": 3881,
      "Ġstimulation": 3882,
      "HO": 3883,
      "Ġtool": 3884,
      "Ġcomputer": 3885,
      "Ġemail": 3886,
      "Ġresponsible": 3887,
      "haps": 3888,
      "Ġprovides": 3889,
      "onald": 3890,
      "Ġacqu": 3891,
      "ĠJuly": 3892,
      "Ġresulting": 3893,
      "rated": 3894,
      "oto": 3895,
      "Ġcred": 3896,
      "Ġinvestigated": 3897,
      "bidity": 3898,
      "Ph": 3899,
      "Ġservices": 3900,
      "Ġparts": 3901,
      "Ġoste": 3902,
      "Ġgave": 3903,
      "Ġlaws": 3904,
      "ocol": 3905,
      "Ġalter": 3906,
      "rapeutic": 3907,
      "ogl": 3908,
      "Ġprem": 3909,
      "Ġcontinuous": 3910,
      "Ġreach": 3911,
      "urch": 3912,
      "unk": 3913,
      "Ġcry": 3914,
      "Ġslight": 3915,
      "Ġmechanisms": 3916,
      "Ġchoice": 3917,
      "Ġnuclear": 3918,
      "Ġsegment": 3919,
      "Ġremaining": 3920,
      "Ġindustry": 3921,
      "To": 3922,
      "Ġcriteria": 3923,
      "ochemical": 3924,
      "perfusion": 3925,
      "Ġthroughout": 3926,
      "ĠWhite": 3927,
      "âĢĺ": 3928,
      "Ġabsence": 3929,
      "trans": 3930,
      "36": 3931,
      "Ġchol": 3932,
      "Ġsust": 3933,
      "Ġmap": 3934,
      "intestinal": 3935,
      "Ġinside": 3936,
      "ĠAug": 3937,
      "Ġeveryone": 3938,
      "Ġregions": 3939,
      "200": 3940,
      "Ġsudden": 3941,
      "DNA": 3942,
      "yond": 3943,
      "Ġsil": 3944,
      "Ġcervical": 3945,
      "Ġ75": 3946,
      "Ġlaser": 3947,
      "ĠThree": 3948,
      "Ġtransl": 3949,
      "Ġfast": 3950,
      "Ġdoses": 3951,
      "aving": 3952,
      "Ġinsulin": 3953,
      "Ġapproximately": 3954,
      "Ġchance": 3955,
      "ĠHealth": 3956,
      "cardi": 3957,
      "oke": 3958,
      "Ġund": 3959,
      "Ġcover": 3960,
      "stolic": 3961,
      "Ġmedial": 3962,
      "oes": 3963,
      "Ġallowed": 3964,
      "ĠPre": 3965,
      "Ġassist": 3966,
      "Ġliterature": 3967,
      "inf": 3968,
      "Ġtown": 3969,
      "body": 3970,
      "Ġmelan": 3971,
      "ĠIL": 3972,
      "Ġcomplication": 3973,
      "ĠSim": 3974,
      "lor": 3975,
      "Ġneut": 3976,
      "Ġwords": 3977,
      "Ġmetastases": 3978,
      "Ġdistribution": 3979,
      "ĠCong": 3980,
      "Ġpopular": 3981,
      "Ġsold": 3982,
      "estern": 3983,
      "ĠST": 3984,
      "Ġprolong": 3985,
      "Ġresonance": 3986,
      "Ġdisse": 3987,
      "Ġcapt": 3988,
      "Ġmechanism": 3989,
      "Ġprice": 3990,
      "31": 3991,
      "wise": 3992,
      "75": 3993,
      "Ġnature": 3994,
      "Ġfraction": 3995,
      "Ġinterval": 3996,
      "Ġinvolvement": 3997,
      "imin": 3998,
      "38": 3999,
      "ED": 4000,
      "Ġansw": 4001,
      "Ġkilled": 4002,
      "ises": 4003,
      "Ġeconomic": 4004,
      "Ġwind": 4005,
      "Ġstaff": 4006,
      "fficient": 4007,
      "Ġreplacement": 4008,
      "Ġpneum": 4009,
      "Ġreflect": 4010,
      "**": 4011,
      "Ġcort": 4012,
      "Ġmusic": 4013,
      "Ġmening": 4014,
      "Ġpretty": 4015,
      "Ġinternational": 4016,
      "Ġisolated": 4017,
      "Ġ2011": 4018,
      "Ġfinding": 4019,
      "Ġstatist": 4020,
      "ĠSer": 4021,
      "Ġadvant": 4022,
      "Ġpractice": 4023,
      "Ġinteg": 4024,
      "Ġmonitoring": 4025,
      "onia": 4026,
      "atur": 4027,
      "aker": 4028,
      "acebook": 4029,
      "Ġdepend": 4030,
      "clusion": 4031,
      "ĠPar": 4032,
      "Ġindicated": 4033,
      "grade": 4034,
      "Ġextent": 4035,
      "Ġcommonly": 4036,
      "rench": 4037,
      "Ġshot": 4038,
      "Ġidentify": 4039,
      "Ġwrong": 4040,
      "Ġpersonal": 4041,
      "ĠNews": 4042,
      "Ġmoment": 4043,
      "aves": 4044,
      "ports": 4045,
      "Ġtravel": 4046,
      "uments": 4047,
      "Ġdistal": 4048,
      "ests": 4049,
      "Ġincludes": 4050,
      "ml": 4051,
      "plied": 4052,
      "Ġrelig": 4053,
      "ĠQu": 4054,
      "ĠIg": 4055,
      "Ġwebs": 4056,
      "Ġachieved": 4057,
      "Ġleave": 4058,
      "Tr": 4059,
      "Ġoffer": 4060,
      "Ġneur": 4061,
      "Ġspecimens": 4062,
      "Ġrecommended": 4063,
      "Ġinstit": 4064,
      "itors": 4065,
      "ĠRob": 4066,
      "Ġcarb": 4067,
      "Ġdetection": 4068,
      "CLU": 4069,
      "Ġtakes": 4070,
      "ĠFrom": 4071,
      "Ġscient": 4072,
      "Ġregular": 4073,
      "SF": 4074,
      "oring": 4075,
      "ourt": 4076,
      "iatric": 4077,
      "\",": 4078,
      "iate": 4079,
      "Ġpap": 4080,
      "Ġplayed": 4081,
      "Sh": 4082,
      "Ġpen": 4083,
      "Ġplus": 4084,
      "ĠUK": 4085,
      "Ġprolif": 4086,
      "ronch": 4087,
      "Ġmetastatic": 4088,
      "riday": 4089,
      "Ġverteb": 4090,
      "Ġmitral": 4091,
      "Ġthus": 4092,
      "Ġste": 4093,
      "Ġ38": 4094,
      "Ġsubsequent": 4095,
      "sp": 4096,
      "Ġscore": 4097,
      "Ġhumans": 4098,
      "Ġprivate": 4099,
      "Ġarm": 4100,
      "06": 4101,
      "Ġprox": 4102,
      "ought": 4103,
      "Ġupd": 4104,
      "Ġtemper": 4105,
      "ĠTwenty": 4106,
      "Ġscreening": 4107,
      "iable": 4108,
      "Ġfist": 4109,
      "Ġtrig": 4110,
      "Ġimmune": 4111,
      "Ġbenign": 4112,
      "hea": 4113,
      "Ġgran": 4114,
      "ogle": 4115,
      "Ġspect": 4116,
      "gu": 4117,
      "Ġhydro": 4118,
      "can": 4119,
      "ifying": 4120,
      "ding": 4121,
      "Ġusers": 4122,
      "Ġcharacteristics": 4123,
      "Ġmaterial": 4124,
      "Ġsinus": 4125,
      "ĠAustral": 4126,
      "Ġfell": 4127,
      "SION": 4128,
      "Ġparents": 4129,
      "mittee": 4130,
      "plasia": 4131,
      "At": 4132,
      "Ġappropriate": 4133,
      "Ġfear": 4134,
      "ĠRES": 4135,
      "ek": 4136,
      "ground": 4137,
      "ingu": 4138,
      "Ġtrials": 4139,
      "Ġsituation": 4140,
      "48": 4141,
      "arcin": 4142,
      "Ġvitro": 4143,
      "cember": 4144,
      "uel": 4145,
      "ĠBoth": 4146,
      "Ġcarry": 4147,
      "Ġcardiovascular": 4148,
      "Ġadministered": 4149,
      "ĠCanada": 4150,
      "ĠMond": 4151,
      "Ġpartial": 4152,
      "Ġexpressed": 4153,
      "Ġelection": 4154,
      "Ġcycl": 4155,
      "down": 4156,
      "ĠWill": 4157,
      "Ġ95": 4158,
      "Ġvictim": 4159,
      "Ġmes": 4160,
      "ceed": 4161,
      "anded": 4162,
      "Ġanyone": 4163,
      "Ġonline": 4164,
      "Ġdevice": 4165,
      "Ġpelvic": 4166,
      "CD": 4167,
      "cial": 4168,
      "Ġprogress": 4169,
      "\".": 4170,
      "ĠGod": 4171,
      "ĠCount": 4172,
      "Ġdiabetes": 4173,
      "itoneal": 4174,
      "Ġens": 4175,
      "pon": 4176,
      "Ġsell": 4177,
      "Ġmorbidity": 4178,
      "Ġcomparison": 4179,
      "lection": 4180,
      "ĠCa": 4181,
      "Ġshoot": 4182,
      "Ġimage": 4183,
      "ishing": 4184,
      "OP": 4185,
      "ĠFeb": 4186,
      "unct": 4187,
      "rought": 4188,
      "Ġestimated": 4189,
      "Ġglucose": 4190,
      "Ġthous": 4191,
      "Ġcontrolled": 4192,
      "Ġsupply": 4193,
      "Ġdesigned": 4194,
      "Ġsen": 4195,
      "isions": 4196,
      "oppler": 4197,
      "teen": 4198,
      "ervative": 4199,
      "irty": 4200,
      "Ġpan": 4201,
      "Ġstructures": 4202,
      "Pro": 4203,
      "ĠTwitter": 4204,
      "ĠFurther": 4205,
      "press": 4206,
      "ellig": 4207,
      "Ġmeasures": 4208,
      "Ġoil": 4209,
      "Ġcancers": 4210,
      "Ġsamples": 4211,
      "ĠMich": 4212,
      "ĠSix": 4213,
      "ĠOver": 4214,
      "ĠStreet": 4215,
      "Ġtumour": 4216,
      "astolic": 4217,
      "ills": 4218,
      "Ġrace": 4219,
      "67": 4220,
      "Ġvote": 4221,
      "Ġscler": 4222,
      "Ġpaper": 4223,
      "ergic": 4224,
      "Ġtomography": 4225,
      "Ġpolymer": 4226,
      "acity": 4227,
      "Ġreconst": 4228,
      "ogenesis": 4229,
      "Ġbranch": 4230,
      "Ġgastrointestinal": 4231,
      "part": 4232,
      "Ġnor": 4233,
      "Ġrise": 4234,
      "ĠTrans": 4235,
      "Ġtypically": 4236,
      "Ġenzyme": 4237,
      "Ġlocation": 4238,
      "ira": 4239,
      "Ġaim": 4240,
      "Ġgas": 4241,
      "ĠSch": 4242,
      "ĠEuropean": 4243,
      "ÂŃ": 4244,
      "Ġarth": 4245,
      "ologically": 4246,
      "Ġround": 4247,
      "formation": 4248,
      "erson": 4249,
      "ĠNot": 4250,
      "Ġknowledge": 4251,
      "Ġsexual": 4252,
      "IG": 4253,
      "Ġvo": 4254,
      "ught": 4255,
      "Ġeye": 4256,
      "Ġworkers": 4257,
      "37": 4258,
      "ĠDecember": 4259,
      "CLUSION": 4260,
      "renal": 4261,
      "ĠFriday": 4262,
      "Ġalternative": 4263,
      "Ġarrhyth": 4264,
      "Ġclinically": 4265,
      "ĠComp": 4266,
      "Ġprospective": 4267,
      "lderly": 4268,
      "Ġmac": 4269,
      "ĠHB": 4270,
      "Ġepid": 4271,
      "Ġoperations": 4272,
      "Ġselected": 4273,
      "ĠCONCLUSION": 4274,
      "Ġplans": 4275,
      "Ġrepeated": 4276,
      "Ġtested": 4277,
      "Ġfamilies": 4278,
      "rag": 4279,
      "Ġsusp": 4280,
      "Ġillness": 4281,
      "Ġreb": 4282,
      "They": 4283,
      "right": 4284,
      "uries": 4285,
      "Ġagent": 4286,
      "Ġ2010": 4287,
      "gia": 4288,
      "reng": 4289,
      "Ġasc": 4290,
      "alled": 4291,
      "Ġnecrosis": 4292,
      "Ġmagnetic": 4293,
      "Ġfir": 4294,
      "Ġunique": 4295,
      "phyl": 4296,
      "Gen": 4297,
      "Ġtal": 4298,
      "Ġmaintain": 4299,
      "Ġcavity": 4300,
      "ss": 4301,
      "Ġbinding": 4302,
      "Ġcarried": 4303,
      "Ġexperienced": 4304,
      "ĠAmericans": 4305,
      "Ġsynthesis": 4306,
      "Ġbaseline": 4307,
      "ĠOctober": 4308,
      "Ġfinancial": 4309,
      "Ġathe": 4310,
      "Ġdisap": 4311,
      "Ġquickly": 4312,
      "Ġanalyzed": 4313,
      "Ġdegrees": 4314,
      "ULTS": 4315,
      "Ġhighest": 4316,
      "Ġcapital": 4317,
      "Ġdescribe": 4318,
      "Ġtachycardia": 4319,
      "ĠRESULTS": 4320,
      "Ġvariety": 4321,
      "uls": 4322,
      "ĠRepublican": 4323,
      "ĠMonday": 4324,
      "otide": 4325,
      "Ġcenter": 4326,
      "43": 4327,
      "rend": 4328,
      "ĠAng": 4329,
      "Ġallows": 4330,
      "era": 4331,
      "Ġremoved": 4332,
      "vascular": 4333,
      "ids": 4334,
      "Ġturned": 4335,
      "Ġsubstant": 4336,
      "Ġlanguage": 4337,
      "SE": 4338,
      "Ġtoler": 4339,
      "Ġgam": 4340,
      "Ġ39": 4341,
      "Ġmoderate": 4342,
      "Ġsolution": 4343,
      "Ġhemat": 4344,
      "force": 4345,
      "ha": 4346,
      "Ġcateg": 4347,
      "idine": 4348,
      "ĠSeptember": 4349,
      "Ġpage": 4350,
      "Ġbile": 4351,
      "igned": 4352,
      "Ġpict": 4353,
      "asal": 4354,
      "ĠHer": 4355,
      "Ġinjection": 4356,
      "Ġofficial": 4357,
      "Ġrecommend": 4358,
      "Ġchromosome": 4359,
      "Ġexperimental": 4360,
      "TC": 4361,
      "65": 4362,
      "ĠUs": 4363,
      "Ġphone": 4364,
      "One": 4365,
      "rum": 4366,
      "Ġdecided": 4367,
      "anned": 4368,
      "grams": 4369,
      "Ġfriend": 4370,
      "Ġchallen": 4371,
      "ĠDoppler": 4372,
      "oids": 4373,
      "ophil": 4374,
      "ECT": 4375,
      "Ġrecorded": 4376,
      "itiz": 4377,
      "Ġlives": 4378,
      "raw": 4379,
      "Ġhemody": 4380,
      "Ġnation": 4381,
      "Ġportal": 4382,
      "RO": 4383,
      "Ġcamp": 4384,
      "Ġconsequ": 4385,
      "ĠRec": 4386,
      "Ġpatterns": 4387,
      "des": 4388,
      "ani": 4389,
      "Ġnetwork": 4390,
      "47": 4391,
      "Ġdro": 4392,
      "Ġmodern": 4393,
      "hab": 4394,
      "Ġnut": 4395,
      "Un": 4396,
      "ĠCenter": 4397,
      "ulatory": 4398,
      "Ġannounced": 4399,
      "Ġsodium": 4400,
      "ĠmRNA": 4401,
      "ocl": 4402,
      "Ġpurpose": 4403,
      "istry": 4404,
      "Ġworth": 4405,
      "Ġtransfer": 4406,
      "ociated": 4407,
      "Ġhypox": 4408,
      "rotein": 4409,
      "Ġborder": 4410,
      "rian": 4411,
      "Ġmarrow": 4412,
      "Ġbeginning": 4413,
      "Ġroad": 4414,
      "pre": 4415,
      "Ġbal": 4416,
      "Ġregional": 4417,
      "uman": 4418,
      "Ġproposed": 4419,
      "aur": 4420,
      "ida": 4421,
      "Ġbox": 4422,
      "Ġcounter": 4423,
      "inger": 4424,
      "radi": 4425,
      "usive": 4426,
      "pert": 4427,
      "Ġradical": 4428,
      "men": 4429,
      "Ġintr": 4430,
      "Ġprogressive": 4431,
      "Ġfelt": 4432,
      "Ġdivid": 4433,
      "Ġconventional": 4434,
      "amous": 4435,
      "mptomatic": 4436,
      "Ġchanged": 4437,
      "02": 4438,
      "kes": 4439,
      "ĠBra": 4440,
      "HE": 4441,
      "LA": 4442,
      "ĠMic": 4443,
      "Ġcircum": 4444,
      "Ġfair": 4445,
      "Ġdang": 4446,
      "akers": 4447,
      "Ġworked": 4448,
      "arynge": 4449,
      "Ġbeyond": 4450,
      "ĠFacebook": 4451,
      "39": 4452,
      "TI": 4453,
      "Ġbladder": 4454,
      "Ġveh": 4455,
      "Ġcouple": 4456,
      "fold": 4457,
      "pris": 4458,
      "Ġtherapeutic": 4459,
      "Ġconcluded": 4460,
      "Ġunderstanding": 4461,
      "rillation": 4462,
      "Ġclearly": 4463,
      "inical": 4464,
      "Ġthick": 4465,
      "ĠLib": 4466,
      "Ġaccur": 4467,
      "inson": 4468,
      "Ġcharacterized": 4469,
      "44": 4470,
      "Ġsac": 4471,
      "ategy": 4472,
      "Ġpair": 4473,
      "Ġfrequent": 4474,
      "wide": 4475,
      "Ġdrain": 4476,
      "Ġcycle": 4477,
      "Ġconfidence": 4478,
      "rance": 4479,
      "Ġelderly": 4480,
      "ĠIV": 4481,
      "Ġnervous": 4482,
      "Ġnod": 4483,
      "Ġnone": 4484,
      "Ġappearance": 4485,
      "ĠBritish": 4486,
      "met": 4487,
      "Ġdirector": 4488,
      "Ġreact": 4489,
      "55": 4490,
      "ta": 4491,
      "Ġpull": 4492,
      "âĢĤ": 4493,
      "arcoma": 4494,
      "Ġbenefits": 4495,
      "Ġrout": 4496,
      "ovember": 4497,
      "ĠCent": 4498,
      "ĠDr": 4499,
      "Ġcritical": 4500,
      "Ġthrombosis": 4501,
      "RA": 4502,
      "specific": 4503,
      "ĠAg": 4504,
      "Ġexternal": 4505,
      "ĠFin": 4506,
      "Ġdiameter": 4507,
      "okes": 4508,
      "uesday": 4509,
      "Ġcontinues": 4510,
      "Ġconsistent": 4511,
      "Ġoutput": 4512,
      "Ġtrade": 4513,
      "Ġactivities": 4514,
      "!!!!!!!!!!!!!!!!!!!!!!!!!!!!!!!!": 4515,
      "Ġprognosis": 4516,
      "field": 4517,
      "Ġflex": 4518,
      "ĠSund": 4519,
      "Ġvag": 4520,
      "vas": 4521,
      "ocarcin": 4522,
      "ĠTra": 4523,
      "ING": 4524,
      "Ġwound": 4525,
      "olytic": 4526,
      "Ġovarian": 4527,
      "Ġbrought": 4528,
      "Ġprinc": 4529,
      "Ġrecomb": 4530,
      "aced": 4531,
      "vertis": 4532,
      "lig": 4533,
      "Ġbreat": 4534,
      "abor": 4535,
      "Ġsequences": 4536,
      "ĠAugust": 4537,
      "ĠCourt": 4538,
      "Ġchain": 4539,
      "ĠRed": 4540,
      "Ġproport": 4541,
      "Ġstrategy": 4542,
      "izes": 4543,
      "Ġsymptomatic": 4544,
      "Ġlegis": 4545,
      "dose": 4546,
      "Ġsystolic": 4547,
      "Ġtrauma": 4548,
      "SP": 4549,
      "ĠCro": 4550,
      "ĠNow": 4551,
      "paired": 4552,
      "Ġbuy": 4553,
      "Ġrevers": 4554,
      "Ġstre": 4555,
      "Ġsort": 4556,
      "orectal": 4557,
      "Ġintervention": 4558,
      "Ġdisplay": 4559,
      "Ġplant": 4560,
      "Ġ55": 4561,
      "Ġepile": 4562,
      "Ġmicroscop": 4563,
      "athetic": 4564,
      "Ġcosts": 4565,
      "mar": 4566,
      "pression": 4567,
      "ĠPal": 4568,
      "Ġbank": 4569,
      "type": 4570,
      "Ġure": 4571,
      "Ġspent": 4572,
      "Ġauto": 4573,
      "iers": 4574,
      "Ġbul": 4575,
      "arb": 4576,
      "Ġstarting": 4577,
      "Ġevaluate": 4578,
      "Ġlimit": 4579,
      "Â¢": 4580,
      "Ġimplant": 4581,
      "Ġboard": 4582,
      "Ġmeeting": 4583,
      "Ġexcess": 4584,
      "Ġunit": 4585,
      "ript": 4586,
      "Ġsurround": 4587,
      "Ġknew": 4588,
      "respond": 4589,
      "Im": 4590,
      "cast": 4591,
      "leb": 4592,
      "Ġrob": 4593,
      "Ġamb": 4594,
      "Ġtrack": 4595,
      "Ġreperfusion": 4596,
      "Ġesophageal": 4597,
      "ID": 4598,
      "Ġfal": 4599,
      "oming": 4600,
      "Ġlimb": 4601,
      "ĠGoogle": 4602,
      "Ġsearch": 4603,
      "Ġweak": 4604,
      "Ġhappened": 4605,
      "aryngeal": 4606,
      "za": 4607,
      "Ġtried": 4608,
      "Ġapplication": 4609,
      "Ġinfluen": 4610,
      "Ġconvers": 4611,
      "Ġobvious": 4612,
      "aks": 4613,
      "Ġmorning": 4614,
      "Ġeducation": 4615,
      "Ġcirrhosis": 4616,
      "ham": 4617,
      "Ġuns": 4618,
      "Ġword": 4619,
      "ophag": 4620,
      "Ġreasons": 4621,
      "Ġkidney": 4622,
      "Ġforces": 4623,
      "Ġspecies": 4624,
      "NF": 4625,
      "bre": 4626,
      "see": 4627,
      "Ġgoes": 4628,
      "ĠTuesday": 4629,
      "oglob": 4630,
      "46": 4631,
      "osin": 4632,
      "Ġml": 4633,
      "Ġhuge": 4634,
      "Ġmob": 4635,
      "encephal": 4636,
      "gins": 4637,
      "joy": 4638,
      "Ġventric": 4639,
      "Ġunits": 4640,
      "Ġpercentage": 4641,
      "Ġconstit": 4642,
      "Ġones": 4643,
      "ĠAM": 4644,
      "Ġ47": 4645,
      "Ġbacterial": 4646,
      "Ġhor": 4647,
      "ocks": 4648,
      "Ġactivation": 4649,
      "Ġcapacity": 4650,
      "bed": 4651,
      "cranial": 4652,
      "Ġhop": 4653,
      "Ġimportance": 4654,
      "ursday": 4655,
      "imen": 4656,
      "riction": 4657,
      "Ġnerves": 4658,
      "Ġviolence": 4659,
      "bum": 4660,
      "Ġgiving": 4661,
      "Ġroutine": 4662,
      "Ġsmaller": 4663,
      "Ġmental": 4664,
      "ivo": 4665,
      "ruary": 4666,
      "Ġcalcul": 4667,
      "Ġeasily": 4668,
      "49": 4669,
      "Ġwants": 4670,
      "raine": 4671,
      "Ġcomputed": 4672,
      "Ġnodes": 4673,
      "rams": 4674,
      "Ġpresentation": 4675,
      "Ġrecords": 4676,
      "Ġlocated": 4677,
      "68": 4678,
      "Ġnode": 4679,
      "Ġfans": 4680,
      "Ġhot": 4681,
      "rition": 4682,
      "Ġadverse": 4683,
      "Ġclub": 4684,
      "Ġunderlying": 4685,
      "Ġhappen": 4686,
      "iance": 4687,
      "osal": 4688,
      "Ġretro": 4689,
      "Ġreceptors": 4690,
      "Ġfully": 4691,
      "Ġraised": 4692,
      "Ġsuspected": 4693,
      "Ġrules": 4694,
      "Ġoccas": 4695,
      "Ġplaced": 4696,
      "ipp": 4697,
      "Ġsignal": 4698,
      "Ġmatch": 4699,
      "Ġgang": 4700,
      "ĠEl": 4701,
      "While": 4702,
      "light": 4703,
      "aces": 4704,
      "ĠCalif": 4705,
      "ĠIslam": 4706,
      "Ġfract": 4707,
      "olved": 4708,
      "Ġteams": 4709,
      "Ġremoval": 4710,
      "cine": 4711,
      "Ġped": 4712,
      "Ġrequires": 4713,
      "Ġseizures": 4714,
      "astom": 4715,
      "Ġdischar": 4716,
      "ĠCongress": 4717,
      "dependent": 4718,
      "Ġrib": 4719,
      "angi": 4720,
      "Ġtele": 4721,
      "Ġangina": 4722,
      "ĠSunday": 4723,
      "Ġeventually": 4724,
      "Ġplatelet": 4725,
      "agen": 4726,
      "Ġinflammation": 4727,
      "HD": 4728,
      "Ġaged": 4729,
      "Ġseparate": 4730,
      "PV": 4731,
      "Ġcra": 4732,
      "?âĢĿ": 4733,
      "path": 4734,
      "Ġconnect": 4735,
      "Ġstreng": 4736,
      "ĠDis": 4737,
      "ondon": 4738,
      "Ġstimul": 4739,
      "ĊĊ": 4740,
      "Ġcris": 4741,
      "ĠReg": 4742,
      "helial": 4743,
      "Ġengine": 4744,
      "Ġsection": 4745,
      "otype": 4746,
      "Ġprogression": 4747,
      "AA": 4748,
      "Ġfather": 4749,
      "OM": 4750,
      "ky": 4751,
      "Ġfit": 4752,
      "Ġmember": 4753,
      "ael": 4754,
      "acing": 4755,
      "encies": 4756,
      "Ġstar": 4757,
      "ĠKing": 4758,
      "Ġhistor": 4759,
      "Ġechocardiography": 4760,
      "ĠGeor": 4761,
      "Ġmill": 4762,
      "Ġdate": 4763,
      "ĠAc": 4764,
      "iform": 4765,
      "Ġcomplain": 4766,
      "ĠSince": 4767,
      "esthes": 4768,
      "ĠWed": 4769,
      "Ġreading": 4770,
      "Ġmicrograms": 4771,
      "ĠIndia": 4772,
      "Ġ)": 4773,
      "ĠThursday": 4774,
      "cyst": 4775,
      "Ġmention": 4776,
      "Ġscreen": 4777,
      "Ġdistinct": 4778,
      "Ġterror": 4779,
      "Ġvariables": 4780,
      "Ġwritten": 4781,
      "immun": 4782,
      "olute": 4783,
      "ĠSan": 4784,
      "Ġduod": 4785,
      "Ġprolonged": 4786,
      "ees": 4787,
      "ients": 4788,
      "pectively": 4789,
      "Ġoperative": 4790,
      "Ar": 4791,
      "Ġheard": 4792,
      "Ġcarcinomas": 4793,
      "Ġofficers": 4794,
      "Ġbelieved": 4795,
      "Ġtable": 4796,
      "Ġvivo": 4797,
      "ĠNovember": 4798,
      "ĠOnly": 4799,
      "with": 4800,
      "Ġneigh": 4801,
      "Ġcolor": 4802,
      "Ġinvolving": 4803,
      "Ġod": 4804,
      "ĠFirst": 4805,
      "Ġmodels": 4806,
      "iant": 4807,
      "ulmonary": 4808,
      "Ġimplement": 4809,
      "Ġinfected": 4810,
      "seud": 4811,
      "Ġpossibility": 4812,
      "Ġinitially": 4813,
      "ĠTimes": 4814,
      "Ġ49": 4815,
      "ĠHigh": 4816,
      "ptide": 4817,
      "Ġunus": 4818,
      "No": 4819,
      "Ġchann": 4820,
      "Ġlymphoma": 4821,
      "Ġretros": 4822,
      "Ġgrowing": 4823,
      "Ġbasic": 4824,
      "Ġperfect": 4825,
      "edom": 4826,
      "Ġband": 4827,
      "ulf": 4828,
      "Ġgrade": 4829,
      "Ġradio": 4830,
      "nesday": 4831,
      "Ġproximal": 4832,
      "aly": 4833,
      "Ġstable": 4834,
      "Ġ@": 4835,
      "ician": 4836,
      "Ġendothe": 4837,
      "Ġpotentially": 4838,
      "Ġventil": 4839,
      "ĠSw": 4840,
      "Ġanimal": 4841,
      "Ġunc": 4842,
      "Ġunknown": 4843,
      "53": 4844,
      "Ġcivil": 4845,
      "Ġsuggesting": 4846,
      "elligence": 4847,
      "After": 4848,
      "ĠRussia": 4849,
      "ĠFebruary": 4850,
      "porters": 4851,
      "ĠCounty": 4852,
      "Ġbronch": 4853,
      "Ġasy": 4854,
      "ontin": 4855,
      "Ġhon": 4856,
      "Ġaneurysm": 4857,
      "42": 4858,
      "mod": 4859,
      "Ġ46": 4860,
      "ociation": 4861,
      "Ġaccomp": 4862,
      "Ġsensitive": 4863,
      "itative": 4864,
      "Ġexhib": 4865,
      "earch": 4866,
      "ornia": 4867,
      "Ġtemporal": 4868,
      "hn": 4869,
      "reas": 4870,
      "ĠSam": 4871,
      "Ġrelation": 4872,
      "ructive": 4873,
      "Ġurinary": 4874,
      "Ġmamm": 4875,
      "ingly": 4876,
      "omatic": 4877,
      "Ġlearn": 4878,
      "Âł": 4879,
      "Ġfever": 4880,
      "Ġhistologic": 4881,
      "AB": 4882,
      "AL": 4883,
      "Ġanastom": 4884,
      "ĠEng": 4885,
      "citation": 4886,
      "rary": 4887,
      "Ġimpair": 4888,
      "Ġsymp": 4889,
      "Ġbiliary": 4890,
      "ogene": 4891,
      "omer": 4892,
      "Ġsetting": 4893,
      "itch": 4894,
      "Ġchief": 4895,
      "Ex": 4896,
      "mias": 4897,
      "Ġrab": 4898,
      "Ġstrateg": 4899,
      "glish": 4900,
      "ĠPaul": 4901,
      "rovers": 4902,
      "Ġweap": 4903,
      "change": 4904,
      "Ġprop": 4905,
      "cler": 4906,
      "armac": 4907,
      "Ġconducted": 4908,
      "Ġresearc": 4909,
      "Ġangiography": 4910,
      "Ġlatest": 4911,
      "IS": 4912,
      "Ġheter": 4913,
      "Ġresour": 4914,
      "Ġbuilt": 4915,
      "Ġinfarct": 4916,
      "Ġdetails": 4917,
      "Ġdoct": 4918,
      "Ġcat": 4919,
      "Ġsuccessfully": 4920,
      "With": 4921,
      "Ġfeature": 4922,
      "Ġshowing": 4923,
      "Ġ42": 4924,
      "Ab": 4925,
      "41": 4926,
      "Ġfoss": 4927,
      "ĠEven": 4928,
      "ĠSenate": 4929,
      "ession": 4930,
      "weet": 4931,
      "Ġoption": 4932,
      "ĠCons": 4933,
      "Ġperfusion": 4934,
      "Ġtissues": 4935,
      "Ġcomponent": 4936,
      "Ġdelayed": 4937,
      "lin": 4938,
      "ju": 4939,
      "Ġleads": 4940,
      "Ġwebsite": 4941,
      "urance": 4942,
      "Ġtalking": 4943,
      "esthesia": 4944,
      "CE": 4945,
      "Ġmeaning": 4946,
      "cious": 4947,
      "Ġgets": 4948,
      "Ġtraditional": 4949,
      "Ġsmoking": 4950,
      "lict": 4951,
      "Ġjournal": 4952,
      "Ġtext": 4953,
      "ĠWednesday": 4954,
      "rs": 4955,
      "Ġid": 4956,
      "Ġhearing": 4957,
      "ĠChar": 4958,
      "inese": 4959,
      "Ġviral": 4960,
      "Ġspeech": 4961,
      "ban": 4962,
      "Ġreached": 4963,
      "phrine": 4964,
      "ameters": 4965,
      "Ġ67": 4966,
      "Ġprognostic": 4967,
      "Ġpolymerase": 4968,
      "Ġleader": 4969,
      "iological": 4970,
      "âĢĿ.": 4971,
      "Ġclaims": 4972,
      "NS": 4973,
      "cules": 4974,
      "raq": 4975,
      "Ġmeasurements": 4976,
      "Ġtowards": 4977,
      "otox": 4978,
      "Ġthin": 4979,
      "ĠSE": 4980,
      "ifically": 4981,
      "Ġbud": 4982,
      "ĠLondon": 4983,
      "Ġenjoy": 4984,
      "positive": 4985,
      "Ġanat": 4986,
      "Ġyounger": 4987,
      "Ġana": 4988,
      "oul": 4989,
      "ago": 4990,
      "Ġuncom": 4991,
      "Ġfibro": 4992,
      "Ġinteresting": 4993,
      "hetic": 4994,
      "ĠEast": 4995,
      "Ġuses": 4996,
      "ogram": 4997,
      "Ġcritic": 4998,
      "Ġepisode": 4999,
      "ĠCam": 5000,
      "Ġhybrid": 5001,
      "Ġpassed": 5002,
      "Ġcareer": 5003,
      "AG": 5004,
      "wing": 5005,
      "Ġ{": 5006,
      "Ġextensive": 5007,
      "Ġcentury": 5008,
      "Ġdocumented": 5009,
      "Ġprep": 5010,
      "Ġveins": 5011,
      "Ġproperties": 5012,
      "Ġslightly": 5013,
      "Ġ2009": 5014,
      "but": 5015,
      "ille": 5016,
      "oud": 5017,
      "Ġincome": 5018,
      "Ġcoach": 5019,
      "ethyl": 5020,
      "Ġencoura": 5021,
      "ãĥ": 5022,
      "chol": 5023,
      "cor": 5024,
      "ĠMany": 5025,
      "Ġheadache": 5026,
      "Ġopportunity": 5027,
      "miss": 5028,
      "Ġemph": 5029,
      "Ġbacteria": 5030,
      "Ġbranches": 5031,
      "Ġasymptomatic": 5032,
      "BI": 5033,
      "Ġthoracic": 5034,
      "otal": 5035,
      "Ġperhaps": 5036,
      "Ġmedi": 5037,
      "Ġimmediate": 5038,
      "ester": 5039,
      "ĠTV": 5040,
      "anging": 5041,
      "two": 5042,
      "Ġhear": 5043,
      "Ġimag": 5044,
      ").[": 5045,
      "ughter": 5046,
      "Ġmemory": 5047,
      "Ġlooked": 5048,
      "Ġfemoral": 5049,
      "66": 5050,
      "Ġdiarr": 5051,
      "iders": 5052,
      "Ġintestinal": 5053,
      "ĠCalifornia": 5054,
      "iction": 5055,
      "Ġdepartment": 5056,
      "Ġefforts": 5057,
      "Ġsociety": 5058,
      "ĠAT": 5059,
      "Ġantagon": 5060,
      "Ġdeficiency": 5061,
      "Ġreferred": 5062,
      "ĠBr": 5063,
      "Ġquarter": 5064,
      "Ġattrib": 5065,
      "'d": 5066,
      "ipe": 5067,
      "Ġactions": 5068,
      "Ġprison": 5069,
      "alysis": 5070,
      "Ġcontaining": 5071,
      "Ġmand": 5072,
      "Ġorganization": 5073,
      "Ġpark": 5074,
      "Ġ44": 5075,
      "Ġcausing": 5076,
      "Ġpasses": 5077,
      "ĠBlack": 5078,
      "Ġeconomy": 5079,
      "ĠAmong": 5080,
      "Ġdrink": 5081,
      "aud": 5082,
      "take": 5083,
      "Ġnamed": 5084,
      "Ġarteri": 5085,
      "Ġaorta": 5086,
      "Ġchallenge": 5087,
      "ĠRich": 5088,
      "Ġfibrillation": 5089,
      "ĠPhil": 5090,
      "Ġanswer": 5091,
      "Ġfine": 5092,
      "Ġbecomes": 5093,
      "Ġobserv": 5094,
      "ĠEnglish": 5095,
      "Ġpm": 5096,
      "Ġchildhood": 5097,
      "ares": 5098,
      "ford": 5099,
      "ooth": 5100,
      "erm": 5101,
      "Ġcorrespond": 5102,
      "Ġachieve": 5103,
      "Ġlargest": 5104,
      "Ġbed": 5105,
      "ĠIraq": 5106,
      "riage": 5107,
      "Ġdoll": 5108,
      "ferent": 5109,
      "Ġexpress": 5110,
      "Ġpaid": 5111,
      "ĠCancer": 5112,
      "Ġprimarily": 5113,
      "Ġpercutaneous": 5114,
      "Ġlooks": 5115,
      "Ġexactly": 5116,
      "inant": 5117,
      "ĠEv": 5118,
      "Ġprevention": 5119,
      "Ġcitiz": 5120,
      "ĠMark": 5121,
      "thal": 5122,
      "ĠGra": 5123,
      "Ġprograms": 5124,
      "Ġ2008": 5125,
      "ĠKore": 5126,
      "aturday": 5127,
      "Ġvel": 5128,
      "Ġmach": 5129,
      "ĠFort": 5130,
      "Ġsurvey": 5131,
      "ĠParty": 5132,
      "OS": 5133,
      "utive": 5134,
      "Ġcontrovers": 5135,
      "apar": 5136,
      "Ġcod": 5137,
      "itable": 5138,
      "ken": 5139,
      "Ġil": 5140,
      "inase": 5141,
      "Ġload": 5142,
      "month": 5143,
      "ĠKe": 5144,
      "Ġcorpor": 5145,
      "Ġrecognized": 5146,
      "Ġpig": 5147,
      "Ġhtt": 5148,
      "ĠMR": 5149,
      "Ġclosed": 5150,
      "Ġthinking": 5151,
      "Ġsources": 5152,
      "Ġstatistically": 5153,
      "Is": 5154,
      "Ġnovel": 5155,
      "Ġinjuries": 5156,
      "Ġdemonstrate": 5157,
      "Ġadvantage": 5158,
      "treated": 5159,
      "ĠAD": 5160,
      "istan": 5161,
      "Ġpyl": 5162,
      "Ġsche": 5163,
      "vis": 5164,
      "Ġinject": 5165,
      "ĠDavid": 5166,
      "ĠSub": 5167,
      "Ġworse": 5168,
      "Ġgland": 5169,
      "Ġace": 5170,
      "Ġprotocol": 5171,
      "Ġspeed": 5172,
      "Ġfinally": 5173,
      "rog": 5174,
      "oo": 5175,
      "aria": 5176,
      "Ġpredomin": 5177,
      "Ġgranul": 5178,
      "Ġtwice": 5179,
      "Ġhar": 5180,
      "Ġexplained": 5181,
      "Ġdrive": 5182,
      "olysis": 5183,
      "Ġlic": 5184,
      "ils": 5185,
      "Ġfalse": 5186,
      "De": 5187,
      "imer": 5188,
      "ĠDay": 5189,
      "usted": 5190,
      "agic": 5191,
      "nea": 5192,
      "Ġpossibly": 5193,
      "Ġregarding": 5194,
      "ado": 5195,
      "rot": 5196,
      "Ġreality": 5197,
      "Ġdiastolic": 5198,
      "Ġgradu": 5199,
      "Ġultras": 5200,
      "Ġmassive": 5201,
      "ĠMuslim": 5202,
      "56": 5203,
      "Le": 5204,
      "inations": 5205,
      "Ġneoplas": 5206,
      "iaz": 5207,
      "Ġcontribute": 5208,
      "cre": 5209,
      "Ġcart": 5210,
      "ems": 5211,
      "ĠAfrica": 5212,
      "Ġunusual": 5213,
      "Ġsong": 5214,
      "Ġapplied": 5215,
      "ĠAccording": 5216,
      "uled": 5217,
      "Ġvul": 5218,
      "ĠMon": 5219,
      "Ġbrief": 5220,
      "Ġmessage": 5221,
      "Ġfirm": 5222,
      "FL": 5223,
      "acent": 5224,
      "ĠHIV": 5225,
      "Ġadequ": 5226,
      "Ġtypical": 5227,
      "Ġproperty": 5228,
      "lar": 5229,
      "ĠOff": 5230,
      "Ġdemand": 5231,
      "Ġsustained": 5232,
      "iences": 5233,
      "Ġcard": 5234,
      "Ġhaem": 5235,
      "Ġultrasound": 5236,
      "Ġoccup": 5237,
      "CH": 5238,
      "Ġstrug": 5239,
      "Ġfacial": 5240,
      "Ġwriting": 5241,
      "Ġ43": 5242,
      "Ġscores": 5243,
      "azine": 5244,
      "Ġmutations": 5245,
      "64": 5246,
      "Ġâ": 5247,
      "Ġdomin": 5248,
      "Ġoccurring": 5249,
      "LE": 5250,
      "erative": 5251,
      "occ": 5252,
      "ĠMor": 5253,
      "ĠDo": 5254,
      "ĠInt": 5255,
      "Ġconsumption": 5256,
      "oman": 5257,
      "ĠCoun": 5258,
      "Ġunlike": 5259,
      "Ġsurpris": 5260,
      "----": 5261,
      "dy": 5262,
      "Ġdrop": 5263,
      "ĠHist": 5264,
      "ĠNet": 5265,
      "Ġoptions": 5266,
      "DA": 5267,
      "Ġstories": 5268,
      "Ġcool": 5269,
      "ancies": 5270,
      "ĠRussian": 5271,
      "Ġrequest": 5272,
      "ocytic": 5273,
      "Ġmaximum": 5274,
      "vest": 5275,
      "Ġgives": 5276,
      "wards": 5277,
      "Ġfibers": 5278,
      "Ġsolid": 5279,
      "Ġthousands": 5280,
      "idel": 5281,
      "Ġpersistent": 5282,
      "Ġextremely": 5283,
      "Ġrupt": 5284,
      "emb": 5285,
      "Ġopening": 5286,
      "Ġdoub": 5287,
      "Ġvill": 5288,
      "Ġcalls": 5289,
      "57": 5290,
      "Ġheparin": 5291,
      "vertisement": 5292,
      "Ġcontains": 5293,
      "Ġhypothesis": 5294,
      "Ġdiarrhea": 5295,
      "Ġprocesses": 5296,
      "Ġmoving": 5297,
      "Ġreturned": 5298,
      "Ġclean": 5299,
      "Ġban": 5300,
      "Ġship": 5301,
      "Ġconflict": 5302,
      "Ġcrim": 5303,
      "Ġ...": 5304,
      "inter": 5305,
      "ĠTor": 5306,
      "Ġaren": 5307,
      "ĠDonald": 5308,
      "New": 5309,
      "Ġlaboratory": 5310,
      "otyp": 5311,
      "Ġsignificance": 5312,
      "Ag": 5313,
      "ĠChinese": 5314,
      "Ġexplain": 5315,
      "oclonal": 5316,
      "het": 5317,
      "Ġtreatments": 5318,
      "Ġwave": 5319,
      "which": 5320,
      "Ġknee": 5321,
      "ĠÐ": 5322,
      "Ġseemed": 5323,
      "%;": 5324,
      "RS": 5325,
      "ĠHol": 5326,
      "Ġsurviv": 5327,
      "Ġ<": 5328,
      "Ġhous": 5329,
      "ĠCO": 5330,
      "Ġpurch": 5331,
      "Ġadenocarcin": 5332,
      "Ġdefects": 5333,
      "eed": 5334,
      "lets": 5335,
      "Ġlif": 5336,
      "rab": 5337,
      "Ġ57": 5338,
      "Ġemot": 5339,
      "Ġminimal": 5340,
      "Ø§": 5341,
      "Ġexcell": 5342,
      "ĠJew": 5343,
      "Ġampl": 5344,
      "Ġagreement": 5345,
      "Ġcru": 5346,
      "Ġnons": 5347,
      "Ġtri": 5348,
      "ĠInstit": 5349,
      "Ġfeed": 5350,
      "Ġabsolute": 5351,
      "Ġpowerful": 5352,
      "Ġdevices": 5353,
      "Ġjobs": 5354,
      "ĠInst": 5355,
      "Ġschools": 5356,
      "ĠDemocratic": 5357,
      "Ġelectrocardi": 5358,
      "Ġpiece": 5359,
      "inephrine": 5360,
      "Ġuser": 5361,
      "Ġendoscopic": 5362,
      "Ġadmitted": 5363,
      "Ġprepar": 5364,
      "Ġoccurrence": 5365,
      "Ġcomponents": 5366,
      "ception": 5367,
      "Ġmoved": 5368,
      "Ġligament": 5369,
      "Ġvoice": 5370,
      "Ġcold": 5371,
      "ĠSaturday": 5372,
      "ĠDon": 5373,
      "Ġtransient": 5374,
      "Ġconservative": 5375,
      "Ġlinked": 5376,
      "Ġtemperature": 5377,
      "She": 5378,
      "atever": 5379,
      "ĠCONCLUSIONS": 5380,
      "PS": 5381,
      "ĠDi": 5382,
      "Ġheavy": 5383,
      "Ġcriminal": 5384,
      "58": 5385,
      "69": 5386,
      "All": 5387,
      "Ġbab": 5388,
      "ĠPat": 5389,
      "Ġcertainly": 5390,
      "Ġdri": 5391,
      "ctomy": 5392,
      "craft": 5393,
      "asm": 5394,
      "ipine": 5395,
      "Ġspir": 5396,
      "Ġrot": 5397,
      "Ġmeta": 5398,
      "Ġsummer": 5399,
      "urning": 5400,
      "Ġspokes": 5401,
      "Ġboy": 5402,
      "Ġbilateral": 5403,
      "Ġofficer": 5404,
      "ĠIran": 5405,
      "Ġ41": 5406,
      "Ġtransport": 5407,
      "lium": 5408,
      "Ġtermin": 5409,
      "Ġelements": 5410,
      "arrow": 5411,
      "room": 5412,
      "venue": 5413,
      "Ġwidely": 5414,
      "ny": 5415,
      "ĠThen": 5416,
      "Ġdirection": 5417,
      "Ġcellular": 5418,
      "Ġregression": 5419,
      "Ġparameters": 5420,
      "Ġprotection": 5421,
      "ukary": 5422,
      "Ġcommand": 5423,
      "Ġcrisis": 5424,
      "Ġforced": 5425,
      "Ġmolecules": 5426,
      "ĠRepublicans": 5427,
      "oked": 5428,
      "Ġdefense": 5429,
      "Ġcollege": 5430,
      "cks": 5431,
      "izations": 5432,
      "Ġclinic": 5433,
      "Ġguy": 5434,
      "Ġconfirm": 5435,
      "ĠEm": 5436,
      "Ġdisturb": 5437,
      "Ġseconds": 5438,
      "Ġscience": 5439,
      "Ġhelped": 5440,
      "icks": 5441,
      "Ġstuff": 5442,
      "ements": 5443,
      "Ġadop": 5444,
      "activ": 5445,
      "Ġ58": 5446,
      "ĠVir": 5447,
      "Ġster": 5448,
      "orks": 5449,
      "urt": 5450,
      "resh": 5451,
      "Ġpresenting": 5452,
      "Ġdigital": 5453,
      "Ġpus": 5454,
      "Ġformed": 5455,
      "weight": 5456,
      "Ġattach": 5457,
      "Ġdecades": 5458,
      "atform": 5459,
      "Ġcharge": 5460,
      "Ġchemical": 5461,
      "Ġsquamous": 5462,
      "Me": 5463,
      "tion": 5464,
      "opa": 5465,
      "ĠEight": 5466,
      "Ġmainly": 5467,
      "Ġresidents": 5468,
      "xi": 5469,
      "ĠSand": 5470,
      "acters": 5471,
      "Ġstudent": 5472,
      "Ġcandidate": 5473,
      "roy": 5474,
      "ĠCI": 5475,
      "Ġprefer": 5476,
      "Ġkids": 5477,
      "ero": 5478,
      "stream": 5479,
      "Ġord": 5480,
      "Ġalbum": 5481,
      "Ġremember": 5482,
      "Ġopin": 5483,
      "ognitive": 5484,
      "ĠAP": 5485,
      "Ġclimate": 5486,
      "Ġrule": 5487,
      "Ġreducing": 5488,
      "ze": 5489,
      "Ġfix": 5490,
      "lease": 5491,
      "Ġmedications": 5492,
      "ogenous": 5493,
      "Ġmelanoma": 5494,
      "Ġfistula": 5495,
      "Ġveloc": 5496,
      "Com": 5497,
      "54": 5498,
      "Ġwithd": 5499,
      "thern": 5500,
      "Ġready": 5501,
      "Ġnit": 5502,
      "ĠBen": 5503,
      "fered": 5504,
      "Ġaccom": 5505,
      "Ġcolorectal": 5506,
      "Ġreligious": 5507,
      "uminal": 5508,
      "Ġesophag": 5509,
      "ĠHere": 5510,
      "Ġgeneration": 5511,
      "yria": 5512,
      "ĠPeople": 5513,
      "Ġextrem": 5514,
      "Ġadvoc": 5515,
      "no": 5516,
      "Ġdark": 5517,
      "associated": 5518,
      "pped": 5519,
      "Ġinduction": 5520,
      "Ġlabel": 5521,
      "Ġneurologic": 5522,
      "ĠTex": 5523,
      "Ġvirt": 5524,
      "ĠPT": 5525,
      "ĠFollow": 5526,
      "elling": 5527,
      "Ġchalleng": 5528,
      "ĠPolice": 5529,
      "Ġbound": 5530,
      "Ġgly": 5531,
      "Ġscale": 5532,
      "that": 5533,
      "ultaneous": 5534,
      "Ġdiscovered": 5535,
      "ĠFive": 5536,
      "Ġoffers": 5537,
      "Ġmostly": 5538,
      "Ġsupported": 5539,
      "alt": 5540,
      "Ġexclud": 5541,
      "Ġsurge": 5542,
      "Ġprojects": 5543,
      "Be": 5544,
      "ada": 5545,
      "Ġmotion": 5546,
      "Ġimmig": 5547,
      "CO": 5548,
      "Ġske": 5549,
      "Ġfootball": 5550,
      "Ġfigure": 5551,
      "My": 5552,
      "Some": 5553,
      "ston": 5554,
      "Ġdiff": 5555,
      "Ġgrafts": 5556,
      "Ġreconstruction": 5557,
      "zen": 5558,
      "ĠWil": 5559,
      "Ġdiffer": 5560,
      "Page": 5561,
      "hl": 5562,
      "Ġlatter": 5563,
      "uty": 5564,
      "Ġstrict": 5565,
      "Ġsegments": 5566,
      "Ġrecip": 5567,
      "Ġsample": 5568,
      "Ġphenomen": 5569,
      "59": 5570,
      "Ġsoftware": 5571,
      "Ġgold": 5572,
      "ĠpH": 5573,
      "Ġpil": 5574,
      "Ġsatis": 5575,
      "51": 5576,
      "Ġ72": 5577,
      "Ġedema": 5578,
      "Ġmolecular": 5579,
      "ĠInternational": 5580,
      "Ġresearchers": 5581,
      "Ġtheory": 5582,
      "illa": 5583,
      "Ġintake": 5584,
      "Ġcouldn": 5585,
      "www": 5586,
      "ĠGermany": 5587,
      "Ġcharacters": 5588,
      "icles": 5589,
      "Ġreplication": 5590,
      "Ġstages": 5591,
      "ĠBo": 5592,
      "Ġspecificity": 5593,
      "ĠMart": 5594,
      "Ġmutation": 5595,
      "Ġhemodynamic": 5596,
      "Ġdivided": 5597,
      "Ġheat": 5598,
      "Ġmetabolic": 5599,
      "Ġ(@": 5600,
      "Ġconference": 5601,
      "ĠFrench": 5602,
      "Ġmedication": 5603,
      "Ġexcellent": 5604,
      "cule": 5605,
      "ĠMo": 5606,
      "hour": 5607,
      "ĠJames": 5608,
      "hydro": 5609,
      "Ġletter": 5610,
      "Ġrisks": 5611,
      "ĠMinister": 5612,
      "four": 5613,
      "Ġfetal": 5614,
      "Ġmist": 5615,
      "entions": 5616,
      "Ġroot": 5617,
      "Ġbiggest": 5618,
      "uters": 5619,
      "phy": 5620,
      "Ġestablish": 5621,
      "hern": 5622,
      "Ġkept": 5623,
      "Ġvisit": 5624,
      "Ġsuperficial": 5625,
      "Ġbudget": 5626,
      "Ġilleg": 5627,
      "ologous": 5628,
      "Ġwouldn": 5629,
      "oplastic": 5630,
      "BS": 5631,
      "ser": 5632,
      "Ġpseud": 5633,
      "iter": 5634,
      "new": 5635,
      "Ġcolitis": 5636,
      "Ġdoor": 5637,
      "Ġblind": 5638,
      "Ġfunctions": 5639,
      "Ġmarkers": 5640,
      "Ġcircul": 5641,
      "ĠGovern": 5642,
      "een": 5643,
      "ĠSign": 5644,
      "rick": 5645,
      "Ġassum": 5646,
      "Ġscene": 5647,
      "ĠAnt": 5648,
      "Ġprostate": 5649,
      "ruption": 5650,
      "Ġcis": 5651,
      "Ġstore": 5652,
      "Ġyield": 5653,
      "ighter": 5654,
      "la": 5655,
      "Ġreform": 5656,
      "ibular": 5657,
      "arditis": 5658,
      "Ġbasal": 5659,
      "ĠGeneral": 5660,
      "86": 5661,
      "MS": 5662,
      "eal": 5663,
      "Ġign": 5664,
      "leuk": 5665,
      "outhern": 5666,
      "Ġactual": 5667,
      "Ġlaunch": 5668,
      "ocaine": 5669,
      "lux": 5670,
      "Ġasse": 5671,
      "Ġwrite": 5672,
      "ĠCrohn": 5673,
      "otes": 5674,
      "usal": 5675,
      "ĠAir": 5676,
      "ĠJack": 5677,
      "Ġfloor": 5678,
      "Ġdistingu": 5679,
      "Ġguys": 5680,
      "Ġgone": 5681,
      "Ġsuscept": 5682,
      "crib": 5683,
      "Ġpropos": 5684,
      "Ġrelief": 5685,
      "axis": 5686,
      "Ġdebate": 5687,
      "Ġstraight": 5688,
      "UR": 5689,
      "nel": 5690,
      "ĠMid": 5691,
      "ĠMod": 5692,
      "Ġspot": 5693,
      "Ġ2018": 5694,
      "Ġclassified": 5695,
      "Ġstrongly": 5696,
      "Ġbott": 5697,
      "Ġfile": 5698,
      "Ġbeat": 5699,
      "roscler": 5700,
      "ometric": 5701,
      "ril": 5702,
      "ograms": 5703,
      "ĠAssociation": 5704,
      "Ġaggressive": 5705,
      "Ġstrength": 5706,
      "oprotein": 5707,
      "anges": 5708,
      "Ġroll": 5709,
      "Ġbattle": 5710,
      "Ġfasc": 5711,
      "Ġrelapse": 5712,
      "Ġfourth": 5713,
      "Ġinhibition": 5714,
      "Ġdefinite": 5715,
      "ĠMichael": 5716,
      "inet": 5717,
      "Ġcast": 5718,
      "Ġoffered": 5719,
      "ĠCE": 5720,
      "Ġprophyl": 5721,
      "ĠâĢ¦": 5722,
      "Ġrapidly": 5723,
      "iling": 5724,
      "Ġring": 5725,
      "ĠGreen": 5726,
      "Ġfatal": 5727,
      "cis": 5728,
      "Ġgender": 5729,
      "ults": 5730,
      "Ġevolution": 5731,
      "Ġhappy": 5732,
      "ĠMean": 5733,
      "US": 5734,
      "Ġwife": 5735,
      "ĠBet": 5736,
      "Ġamino": 5737,
      "def": 5738,
      "Ġvoters": 5739,
      "ĠEach": 5740,
      "Ġtransition": 5741,
      "Ġmonoclonal": 5742,
      "rical": 5743,
      "esophageal": 5744,
      "icip": 5745,
      "Ġlov": 5746,
      "ĠTur": 5747,
      "Ġhair": 5748,
      "Ġassay": 5749,
      "Ġaccurate": 5750,
      "from": 5751,
      "Ġserved": 5752,
      "icago": 5753,
      "ĠServ": 5754,
      "Ġincor": 5755,
      "Ġfeet": 5756,
      "ĠIndian": 5757,
      "while": 5758,
      "mm": 5759,
      "isation": 5760,
      "Ġmix": 5761,
      "Ġtouch": 5762,
      "reshold": 5763,
      "three": 5764,
      "Ġresolution": 5765,
      "Ġmeant": 5766,
      "Ġbackground": 5767,
      "ohist": 5768,
      "Ġmovie": 5769,
      "Ġpylori": 5770,
      "Ġly": 5771,
      "opic": 5772,
      "upl": 5773,
      "Ġconcerns": 5774,
      "Ġresidual": 5775,
      "psy": 5776,
      "Ġsick": 5777,
      "icated": 5778,
      "ĠTen": 5779,
      "ĠLV": 5780,
      "actic": 5781,
      "ounds": 5782,
      "berg": 5783,
      "Ġdifferentiation": 5784,
      "Ġ2007": 5785,
      "ĠAND": 5786,
      "Ġuptake": 5787,
      "Ġlearning": 5788,
      "ĠAfrican": 5789,
      "Ġceleb": 5790,
      "Ġbooks": 5791,
      "pen": 5792,
      "osh": 5793,
      "Ġmucosa": 5794,
      "Ġtoxicity": 5795,
      ")-": 5796,
      "umor": 5797,
      "Ġtranscription": 5798,
      "Ġgain": 5799,
      "irus": 5800,
      "ĠFed": 5801,
      "Ġabuse": 5802,
      "63": 5803,
      "band": 5804,
      "mark": 5805,
      "Ġwild": 5806,
      "Ġcomments": 5807,
      "ĠFrance": 5808,
      "Ġvalid": 5809,
      "gg": 5810,
      "Ġsept": 5811,
      "uretic": 5812,
      "Ġspending": 5813,
      "ĠMicro": 5814,
      "Ġproportion": 5815,
      "ĠMex": 5816,
      "Now": 5817,
      "oli": 5818,
      "Ġpopulations": 5819,
      "ĠAustralia": 5820,
      "osine": 5821,
      "ĠÂ£": 5822,
      "52": 5823,
      "88": 5824,
      "According": 5825,
      "Ġonto": 5826,
      "Ġperic": 5827,
      "Ġfif": 5828,
      "ĠWestern": 5829,
      "ĠFif": 5830,
      "Ġpancreatitis": 5831,
      "ii": 5832,
      "Ġ52": 5833,
      "Ġspecifically": 5834,
      "Ġenvironmental": 5835,
      "ufact": 5836,
      "Ġcrow": 5837,
      "icin": 5838,
      "ara": 5839,
      "omach": 5840,
      "Ġprompt": 5841,
      "Ġmaybe": 5842,
      "Ġpersons": 5843,
      "Ġmanaged": 5844,
      "opathic": 5845,
      "CR": 5846,
      "icide": 5847,
      "Ġintelligence": 5848,
      "Ġproviding": 5849,
      "zyg": 5850,
      "Ġplaces": 5851,
      "Ġimpairment": 5852,
      "Ġsympathetic": 5853,
      "500": 5854,
      "Ġlapar": 5855,
      "Ġsecretion": 5856,
      "Ġpla": 5857,
      "Ġblog": 5858,
      "Ġcoli": 5859,
      "Ġbodies": 5860,
      "Ġvary": 5861,
      "Ġperman": 5862,
      "Ġ51": 5863,
      "Ġqual": 5864,
      "Ġzone": 5865,
      "ĠDemocrats": 5866,
      "isp": 5867,
      "Ġgon": 5868,
      "Ġplatform": 5869,
      "Ġperiods": 5870,
      "Ġfewer": 5871,
      "Ġallowing": 5872,
      "Ġadjacent": 5873,
      "Ġintroduced": 5874,
      "sm": 5875,
      "iny": 5876,
      "imension": 5877,
      "Ġdiss": 5878,
      "aped": 5879,
      "Ġpharmac": 5880,
      "Ġremission": 5881,
      "olecyst": 5882,
      "Ġ1989": 5883,
      "lial": 5884,
      "ĠWilliam": 5885,
      "Ġran": 5886,
      "place": 5887,
      "ĠUp": 5888,
      "ĠLeague": 5889,
      "Ġ*": 5890,
      "alle": 5891,
      "itness": 5892,
      "Ġrect": 5893,
      "Ġnarrow": 5894,
      "oday": 5895,
      "ĠChapter": 5896,
      "tenance": 5897,
      "emy": 5898,
      "Ġjump": 5899,
      "poss": 5900,
      "Ġmargin": 5901,
      "ĠDespite": 5902,
      "?\"": 5903,
      "Ġexposed": 5904,
      "Ġinsu": 5905,
      "ophys": 5906,
      "flu": 5907,
      "Ġdrainage": 5908,
      "Ġdensity": 5909,
      "orthern": 5910,
      "Ġcutaneous": 5911,
      "uracy": 5912,
      "xiety": 5913,
      "Ġtick": 5914,
      "onucle": 5915,
      "ĠGr": 5916,
      "Ġplays": 5917,
      "ĠInter": 5918,
      "Ġderived": 5919,
      "erb": 5920,
      "esity": 5921,
      "Ġincident": 5922,
      "blast": 5923,
      "Ġinvestigate": 5924,
      "iasis": 5925,
      "nia": 5926,
      "Ġdie": 5927,
      "etro": 5928,
      "Ġindepend": 5929,
      "Ġinvasive": 5930,
      "Ġpneumonia": 5931,
      "ĠCouncil": 5932,
      "ĠVal": 5933,
      "Ġinvolves": 5934,
      "Ġproliferation": 5935,
      "illance": 5936,
      "Ġfighting": 5937,
      "Ġ64": 5938,
      "coin": 5939,
      "Ġcrime": 5940,
      "Ġdelivery": 5941,
      "Ġgoals": 5942,
      "Ġsmooth": 5943,
      "ĠResearch": 5944,
      "orney": 5945,
      "Ġtransform": 5946,
      "Ġanalys": 5947,
      "Ġpow": 5948,
      "Ġhero": 5949,
      "ĠThirty": 5950,
      "ĠTherefore": 5951,
      "Ġ1990": 5952,
      "Ġpresidential": 5953,
      "Ġvaccine": 5954,
      "Ġcitizens": 5955,
      "Ġsurvivors": 5956,
      "orb": 5957,
      "ams": 5958,
      "Ġwonder": 5959,
      "ĠFlor": 5960,
      "Ġcontained": 5961,
      "ipped": 5962,
      "Ġmetabolism": 5963,
      "61": 5964,
      "arp": 5965,
      "Ġthreshold": 5966,
      "Ġnote": 5967,
      "Ġinfect": 5968,
      "itory": 5969,
      "celer": 5970,
      "ĠAlex": 5971,
      "ĠHy": 5972,
      "reater": 5973,
      "Ġteach": 5974,
      "Ġminister": 5975,
      "oration": 5976,
      "uting": 5977,
      "Ġempt": 5978,
      "Ġsimultaneous": 5979,
      "Ġpathogenesis": 5980,
      "Ġarrhythmias": 5981,
      "],": 5982,
      "wood": 5983,
      "ocation": 5984,
      "ĠThose": 5985,
      "Ġends": 5986,
      "Ġvaccin": 5987,
      "Ġrock": 5988,
      "ardium": 5989,
      "Advertisement": 5990,
      "Ġresources": 5991,
      "Ġahead": 5992,
      "Ġcongen": 5993,
      "Ġconclusion": 5994,
      "comes": 5995,
      "Ġfreedom": 5996,
      "85": 5997,
      "yan": 5998,
      "Ġmount": 5999,
      "uster": 6000,
      "unte": 6001,
      "ĠQue": 6002,
      "Ġpolitics": 6003,
      "Ġentirely": 6004,
      "ius": 6005,
      "rat": 6006,
      "hens": 6007,
      "Ġabscess": 6008,
      "flow": 6009,
      "03": 6010,
      "uing": 6011,
      "ica": 6012,
      "Ġsigned": 6013,
      "Ġintracranial": 6014,
      "Ġutil": 6015,
      "Ġleaving": 6016,
      "Ġimpaired": 6017,
      "Ġadding": 6018,
      "Ġbrother": 6019,
      "Ġarrested": 6020,
      "Ġepithelial": 6021,
      "ĠInstitute": 6022,
      "vision": 6023,
      "ĠPM": 6024,
      "Ġshut": 6025,
      "Ġ54": 6026,
      "Ġotherwise": 6027,
      "neg": 6028,
      "Ġsmart": 6029,
      "Ġdissection": 6030,
      "ĠFurthermore": 6031,
      "Ġfle": 6032,
      "ocrine": 6033,
      "BJ": 6034,
      "Ġfa": 6035,
      "Ġcomplicated": 6036,
      "blind": 6037,
      "Ġideas": 6038,
      "77": 6039,
      "Ġcore": 6040,
      "Ġanc": 6041,
      "add": 6042,
      "Ġsufficient": 6043,
      "plete": 6044,
      "Ġbatter": 6045,
      "Ġinsert": 6046,
      "Ġfibrosis": 6047,
      "Ġannual": 6048,
      "IT": 6049,
      "Ġhip": 6050,
      "Ġdefe": 6051,
      "ags": 6052,
      "Ġtruth": 6053,
      "Ġcompleted": 6054,
      "Ġlargely": 6055,
      "Ġfossa": 6056,
      "ĠUnion": 6057,
      "risk": 6058,
      "Ġtuber": 6059,
      "Ġrepro": 6060,
      "Ġscen": 6061,
      "minent": 6062,
      "Ġdraft": 6063,
      "ochond": 6064,
      "Ġcognitive": 6065,
      "Ġhack": 6066,
      "using": 6067,
      "Ġpositions": 6068,
      "Ġminimum": 6069,
      "Ġresponded": 6070,
      "Ġdisappe": 6071,
      "org": 6072,
      "Ġcoverage": 6073,
      "IL": 6074,
      "Ġclosely": 6075,
      "ĠTexas": 6076,
      "Ġbecoming": 6077,
      "five": 6078,
      "moid": 6079,
      "amen": 6080,
      "Ġcanal": 6081,
      "Ġelimin": 6082,
      "Ġplanning": 6083,
      "ĠEarth": 6084,
      "Ġdram": 6085,
      "Ġlumb": 6086,
      "iled": 6087,
      "Ġcongest": 6088,
      "MP": 6089,
      "umber": 6090,
      "ĠPort": 6091,
      "Ġadapt": 6092,
      "Ġelement": 6093,
      "62": 6094,
      "ĠBre": 6095,
      "ĠHD": 6096,
      "ĠSyria": 6097,
      "Ġaltered": 6098,
      "Ġsave": 6099,
      "0001": 6100,
      "Ġrecognition": 6101,
      "Ġrarely": 6102,
      "vasive": 6103,
      "itud": 6104,
      "aden": 6105,
      "Ġextension": 6106,
      "Ġlayer": 6107,
      "zz": 6108,
      "Ġreactions": 6109,
      "Ġvision": 6110,
      "Ġneither": 6111,
      "Ġintensity": 6112,
      "ĠJe": 6113,
      "Ġunderst": 6114,
      "Ġinvasion": 6115,
      "Ġtim": 6116,
      "atient": 6117,
      "ĠCap": 6118,
      "Ġacquired": 6119,
      "Ġensure": 6120,
      "ocellular": 6121,
      "ĠTom": 6122,
      "ĠTheir": 6123,
      "Ġknows": 6124,
      "Ġalleged": 6125,
      "Ġatheroscler": 6126,
      "requ": 6127,
      "ĠBill": 6128,
      "ĠHPV": 6129,
      "Ġaccuracy": 6130,
      "rastruct": 6131,
      "ĠSmith": 6132,
      "forcement": 6133,
      "Ġbalance": 6134,
      "89": 6135,
      "pes": 6136,
      "ĠCP": 6137,
      "rosp": 6138,
      "Ġmedium": 6139,
      "yright": 6140,
      "Ġcollection": 6141,
      "04": 6142,
      "ya": 6143,
      "Ġwat": 6144,
      "racy": 6145,
      "ĠRo": 6146,
      "oxy": 6147,
      "Ġpressures": 6148,
      "Ġmucosal": 6149,
      "gun": 6150,
      "Ġstomach": 6151,
      "Ġconver": 6152,
      "uble": 6153,
      "Ġexcision": 6154,
      "OT": 6155,
      "born": 6156,
      "plies": 6157,
      "Ġduodenal": 6158,
      "Ġbeaut": 6159,
      "Ġrequiring": 6160,
      "Ġ1988": 6161,
      "Ġlaun": 6162,
      "ĠCanadian": 6163,
      "Ġapparently": 6164,
      "Ġsenior": 6165,
      "Ġsun": 6166,
      "Ġcommit": 6167,
      "Ġraise": 6168,
      "Ġserve": 6169,
      "Ġmodified": 6170,
      "ficiency": 6171,
      "Ġdangerous": 6172,
      "matic": 6173,
      "ĠMal": 6174,
      "ĠEvery": 6175,
      "Ġtitle": 6176,
      "BJECT": 6177,
      "ears": 6178,
      "ĠJer": 6179,
      "ivalent": 6180,
      "ampions": 6181,
      "Ġmolecule": 6182,
      "Ġpicture": 6183,
      "juana": 6184,
      "Ġdelet": 6185,
      "Ġaccum": 6186,
      "ĠPlay": 6187,
      "Ġeating": 6188,
      "ector": 6189,
      "ĠRad": 6190,
      "Ġendomet": 6191,
      "Ġdraw": 6192,
      "Ġconcern": 6193,
      "ĠFlorida": 6194,
      "ĠMA": 6195,
      "Ġtube": 6196,
      "Ġjoin": 6197,
      "Ġexchange": 6198,
      "certain": 6199,
      "Ġattached": 6200,
      "Ġmarker": 6201,
      "Ġiron": 6202,
      "Ġexisting": 6203,
      "87": 6204,
      "level": 6205,
      "Ġejection": 6206,
      "ĠHillary": 6207,
      "ĠSl": 6208,
      "Ġadrenal": 6209,
      "arijuana": 6210,
      "Ġmaintained": 6211,
      "block": 6212,
      "airs": 6213,
      "Ġdial": 6214,
      "Ġexcl": 6215,
      "Ġ59": 6216,
      "Ġyourself": 6217,
      "Ġelectroph": 6218,
      "Ġvictims": 6219,
      "Ġrecombinant": 6220,
      "Ġultr": 6221,
      "Ġsubstance": 6222,
      "Ġsubsequently": 6223,
      "Ġneurological": 6224,
      "Ġatri": 6225,
      "Ġclos": 6226,
      "ĠCommission": 6227,
      "Ġvolunte": 6228,
      "ĠScott": 6229,
      "Ġmaximal": 6230,
      "Ġcreating": 6231,
      "Ġile": 6232,
      "Ġplex": 6233,
      "orial": 6234,
      "ĠME": 6235,
      "Ġsuc": 6236,
      "Ġunex": 6237,
      "Ġregurg": 6238,
      "Ġvariable": 6239,
      "Ġfunding": 6240,
      "____": 6241,
      "Ġcranial": 6242,
      "Ġmixed": 6243,
      "ĠUsing": 6244,
      "ipl": 6245,
      "now": 6246,
      "Ġcholecyst": 6247,
      "Ġdisp": 6248,
      "Ġended": 6249,
      "Ġpredictive": 6250,
      "Ġportion": 6251,
      "Ġanxiety": 6252,
      "Ġappend": 6253,
      "Ġpolicies": 6254,
      "CP": 6255,
      "ca": 6256,
      "word": 6257,
      "ionally": 6258,
      "Ġnasal": 6259,
      "tery": 6260,
      "oxide": 6261,
      "Ġillust": 6262,
      "Ġcomparable": 6263,
      "Genomes": 6264,
      "uous": 6265,
      "zym": 6266,
      "rocy": 6267,
      "Ġweb": 6268,
      "amb": 6269,
      "estic": 6270,
      "ĠFig": 6271,
      "ensin": 6272,
      "Ġagency": 6273,
      "Ġpeace": 6274,
      "Ġidentity": 6275,
      "82": 6276,
      "Ġmil": 6277,
      "Ġthrow": 6278,
      "Ġ53": 6279,
      "orrow": 6280,
      "ented": 6281,
      "stim": 6282,
      "ĠDel": 6283,
      "Ġ1980": 6284,
      "Ġirradi": 6285,
      "ÙĦ": 6286,
      "hep": 6287,
      "Ġsend": 6288,
      "Ġfresh": 6289,
      "Ġge": 6290,
      "ulating": 6291,
      "Ġconj": 6292,
      "Ġchoose": 6293,
      "Ġdietary": 6294,
      "Bl": 6295,
      "box": 6296,
      "Ġproved": 6297,
      "ĠMET": 6298,
      "Ġruns": 6299,
      "Ġili": 6300,
      "icine": 6301,
      "ĠInf": 6302,
      "Ġconstant": 6303,
      "Ġencoun": 6304,
      "Ġnutrition": 6305,
      "Ġcities": 6306,
      "ĠHospital": 6307,
      "Ġcontroll": 6308,
      "Ġsupposed": 6309,
      "Ġoppon": 6310,
      "Ġclaimed": 6311,
      "Ġdocuments": 6312,
      "ĠStudy": 6313,
      "iotics": 6314,
      "ĠEngland": 6315,
      "isher": 6316,
      "Ġborn": 6317,
      "everal": 6318,
      "Ġsensory": 6319,
      "Ġdiscussion": 6320,
      "Ġamounts": 6321,
      "Ġfavorite": 6322,
      "aren": 6323,
      "Ġmanufact": 6324,
      "retion": 6325,
      "Ġviews": 6326,
      "Ġenhance": 6327,
      "rost": 6328,
      "Ġconscious": 6329,
      "Ġgreatest": 6330,
      "Ġowners": 6331,
      "effect": 6332,
      "Ġharm": 6333,
      "Ġstones": 6334,
      "Ġwhatever": 6335,
      "Ġtrust": 6336,
      "Ġgreen": 6337,
      "soft": 6338,
      "Ġmode": 6339,
      "Ġmaintenance": 6340,
      "ĠJustice": 6341,
      "ĠAngel": 6342,
      "Ġstrugg": 6343,
      "Effect": 6344,
      "igue": 6345,
      "ĠDa": 6346,
      "These": 6347,
      "Ġmyself": 6348,
      "Ġoppos": 6349,
      "Ġrepeat": 6350,
      "fortun": 6351,
      "Ġultrason": 6352,
      "Ġmag": 6353,
      "Ġpathway": 6354,
      "Ġepilepsy": 6355,
      "ij": 6356,
      "Ġlose": 6357,
      "âĢ¢": 6358,
      "Ġ85": 6359,
      "Ġcharges": 6360,
      "Ġpredicted": 6361,
      "Ġenhanced": 6362,
      "Ġventricle": 6363,
      "uation": 6364,
      "Ġsch": 6365,
      "ario": 6366,
      "Ġpathologic": 6367,
      "rophic": 6368,
      "ses": 6369,
      "ĠTreatment": 6370,
      "Ġrelax": 6371,
      "Ġdecade": 6372,
      "Ġhappens": 6373,
      "Ġauthorities": 6374,
      "ĠMcC": 6375,
      "Ġagreed": 6376,
      "Ġtranscript": 6377,
      "Ġexecutive": 6378,
      "rating": 6379,
      "icious": 6380,
      "Ġrein": 6381,
      "rier": 6382,
      "Ġnumerous": 6383,
      "Ġfeeling": 6384,
      ".âĢĻ": 6385,
      "Americ": 6386,
      "cher": 6387,
      "tings": 6388,
      "Ġblue": 6389,
      "Ġpartners": 6390,
      "Ġoperating": 6391,
      "prise": 6392,
      "Ġmechanical": 6393,
      "what": 6394,
      "Ġlearned": 6395,
      "Ġadequate": 6396,
      "sey": 6397,
      "dered": 6398,
      "bled": 6399,
      "pathy": 6400,
      "HR": 6401,
      "Ġuter": 6402,
      "otrop": 6403,
      "Ġbelief": 6404,
      "gram": 6405,
      "Ġmission": 6406,
      "Ġscans": 6407,
      "ĠChicago": 6408,
      "Ġcarbon": 6409,
      "ait": 6410,
      "ville": 6411,
      "Ġranged": 6412,
      "ĠLa": 6413,
      "ruit": 6414,
      "Ġfibrin": 6415,
      "Ġadenocarcinoma": 6416,
      "bladder": 6417,
      "ĠChristian": 6418,
      "oblast": 6419,
      "Ġvehicle": 6420,
      "Ġopened": 6421,
      "Ġmalignancy": 6422,
      "iced": 6423,
      "Ġdream": 6424,
      "ota": 6425,
      "Ġneph": 6426,
      "aked": 6427,
      "Ġ56": 6428,
      "Ġfollows": 6429,
      "Ġmales": 6430,
      "feron": 6431,
      "ona": 6432,
      "onomic": 6433,
      "Ġrectal": 6434,
      "Ġcredit": 6435,
      "ĠMETHO": 6436,
      "Ġlact": 6437,
      "Ġopposition": 6438,
      "ĠPD": 6439,
      "Ġarms": 6440,
      "Ġmanner": 6441,
      "Ġregulation": 6442,
      "Ġpump": 6443,
      "iment": 6444,
      "Ġstreet": 6445,
      "Ġshape": 6446,
      "Ġesc": 6447,
      "Ġdaughter": 6448,
      "III": 6449,
      "gent": 6450,
      "Ġaware": 6451,
      "Ġstyle": 6452,
      "Ġorg": 6453,
      "phinct": 6454,
      "ĠApple": 6455,
      "ĠJapanese": 6456,
      "EG": 6457,
      "fit": 6458,
      "iac": 6459,
      "anied": 6460,
      "Ġuntreated": 6461,
      "Sup": 6462,
      "Ġneon": 6463,
      "ĠEU": 6464,
      "Ġbihl": 6465,
      "Ġclearance": 6466,
      "stein": 6467,
      "ka": 6468,
      "tes": 6469,
      "Ġnice": 6470,
      "Ġanalges": 6471,
      "Ġcalling": 6472,
      "Ġsales": 6473,
      "idents": 6474,
      "Ġrank": 6475,
      "ĠBel": 6476,
      "ĠLaw": 6477,
      "Ġtoxic": 6478,
      "Ġsubstantial": 6479,
      "Ġvelocity": 6480,
      "AF": 6481,
      "Ġcharacteristic": 6482,
      "arth": 6483,
      "Ġobesity": 6484,
      "Ġphil": 6485,
      "Ġdiscrim": 6486,
      "Ġinstance": 6487,
      "Ġobservations": 6488,
      "Ð¾": 6489,
      "Ġded": 6490,
      "ading": 6491,
      "Ġeffectiveness": 6492,
      "yroidism": 6493,
      "IVE": 6494,
      "ĠFrancis": 6495,
      "TT": 6496,
      "rust": 6497,
      "amide": 6498,
      "umn": 6499,
      "Ġcardiomy": 6500,
      "Ġmigraine": 6501,
      "Ġcongenital": 6502,
      "Ġmer": 6503,
      "ĠGree": 6504,
      "Ġagree": 6505,
      "Ġregimen": 6506,
      "Ġeffectively": 6507,
      "Ġglut": 6508,
      "Ġweekend": 6509,
      "omatous": 6510,
      "Ġcandidates": 6511,
      "Ġcustomers": 6512,
      "sor": 6513,
      "Ġ}": 6514,
      "Ġassault": 6515,
      "Ġsteps": 6516,
      "Ġemployees": 6517,
      "Ġmeningitis": 6518,
      "Ġsides": 6519,
      "alpha": 6520,
      "olol": 6521,
      "ĠSun": 6522,
      "Ġsem": 6523,
      "Ġadmission": 6524,
      "Ġ500": 6525,
      "ferences": 6526,
      "Ġspend": 6527,
      "Ġterrit": 6528,
      "ĠAlso": 6529,
      "Ġincreasingly": 6530,
      "73": 6531,
      "Ġinstr": 6532,
      "Ġfold": 6533,
      "ĠMac": 6534,
      "app": 6535,
      "plicated": 6536,
      "ĠWhy": 6537,
      "Ġprofile": 6538,
      "uitary": 6539,
      "BA": 6540,
      "Ġmast": 6541,
      "Ġmouth": 6542,
      "amber": 6543,
      "open": 6544,
      "allow": 6545,
      "Ġinsurance": 6546,
      "Ġreflux": 6547,
      "Ġrepresents": 6548,
      "MA": 6549,
      "Pl": 6550,
      "bec": 6551,
      "oned": 6552,
      "Ġlin": 6553,
      "unting": 6554,
      "ĠBay": 6555,
      "Ġalive": 6556,
      "Ġdriving": 6557,
      "Ġvitamin": 6558,
      "Ġgirls": 6559,
      "ki": 6560,
      "anic": 6561,
      "Ġdegen": 6562,
      "agulation": 6563,
      "Ġplanned": 6564,
      "Ġdipl": 6565,
      "Ġmulti": 6566,
      "ĠDef": 6567,
      "Ġeryth": 6568,
      "Ġcrew": 6569,
      "Ġprecise": 6570,
      "Ġseizure": 6571,
      "leukin": 6572,
      "ivered": 6573,
      "Ġoutcomes": 6574,
      "ometry": 6575,
      "Ġlawy": 6576,
      "Ġbehavi": 6577,
      "Ġmanifestations": 6578,
      "idase": 6579,
      "Ġstation": 6580,
      "Ġconc": 6581,
      "enses": 6582,
      "Ġindicating": 6583,
      "Ġsurrounding": 6584,
      "71": 6585,
      "encing": 6586,
      "Ġshared": 6587,
      "Ġperfor": 6588,
      "Ġcompression": 6589,
      "Ġconsequences": 6590,
      "idelines": 6591,
      "Ġpun": 6592,
      "opsy": 6593,
      "ostomy": 6594,
      "Ġencephal": 6595,
      "Ġhomes": 6596,
      "odil": 6597,
      "Ġapplications": 6598,
      "Ġenlar": 6599,
      "Ġminute": 6600,
      "ocked": 6601,
      "Ġaspects": 6602,
      "Ġtree": 6603,
      "Ġleague": 6604,
      "Ġnegot": 6605,
      "Ġexperiment": 6606,
      "Ġetc": 6607,
      "Ġdiabetic": 6608,
      "ria": 6609,
      "ĠSchool": 6610,
      "ĠGold": 6611,
      "Ġdestroy": 6612,
      "Ġmurder": 6613,
      "pret": 6614,
      "orter": 6615,
      "olid": 6616,
      "Ġplane": 6617,
      "Ġextended": 6618,
      "Ġspeak": 6619,
      "Ġinhibitor": 6620,
      "Ġnormally": 6621,
      "Ġdollars": 6622,
      "Ġbottom": 6623,
      "Ġfol": 6624,
      "ola": 6625,
      "Ġwait": 6626,
      "Per": 6627,
      "rown": 6628,
      "Ġcollagen": 6629,
      "Ġchannel": 6630,
      "ĠOffice": 6631,
      "Ġpush": 6632,
      "ĠEp": 6633,
      "duc": 6634,
      "Ġassigned": 6635,
      "Ġhepatocellular": 6636,
      "Ġurine": 6637,
      "Ġmeasurement": 6638,
      "Ġstopped": 6639,
      "Ġinfant": 6640,
      "taining": 6641,
      "ĠCommittee": 6642,
      "phosph": 6643,
      "Ġmoral": 6644,
      "Ġultimately": 6645,
      "Ġattempted": 6646,
      "Ġshooting": 6647,
      "Ġneighbor": 6648,
      "CI": 6649,
      "care": 6650,
      "Ġcontext": 6651,
      "Ġseeing": 6652,
      "Ġmetastasis": 6653,
      "Ġaccompanied": 6654,
      "Ġsubgroup": 6655,
      "strial": 6656,
      "Ġlymphocytes": 6657,
      "Ġerror": 6658,
      "Ġterminal": 6659,
      "Ġvertebral": 6660,
      "ked": 6661,
      "Ġattract": 6662,
      "Ġphysicians": 6663,
      "possible": 6664,
      "84": 6665,
      "SD": 6666,
      "Ġcards": 6667,
      "ouch": 6668,
      "Ġstab": 6669,
      "cha": 6670,
      "platin": 6671,
      "Ġabort": 6672,
      "Ġhypertrophy": 6673,
      "Ġinitiation": 6674,
      "Ġasking": 6675,
      "Ġaneurysms": 6676,
      "Here": 6677,
      "ivari": 6678,
      "Ġ300": 6679,
      "Ġparties": 6680,
      "ĠGeorge": 6681,
      "72": 6682,
      "amil": 6683,
      "ĠCSF": 6684,
      "Ġhealing": 6685,
      "Ġcommer": 6686,
      "Ġperi": 6687,
      "Ġteac": 6688,
      "ĠStar": 6689,
      "Ġadjust": 6690,
      "Ġillegal": 6691,
      "col": 6692,
      "itary": 6693,
      "Ġmanager": 6694,
      "Ġcirculation": 6695,
      "Ġfixed": 6696,
      "ĠNa": 6697,
      "ĠChild": 6698,
      "Ġrestaur": 6699,
      "Ġradiotherapy": 6700,
      "Ġacids": 6701,
      "ĠSecret": 6702,
      "Ġdischarge": 6703,
      "tical": 6704,
      "Ġhyd": 6705,
      "ĠIts": 6706,
      "Ġintraoperative": 6707,
      "ATI": 6708,
      "Ġeasier": 6709,
      "Ġstrategies": 6710,
      "Ġng": 6711,
      "ĠMRI": 6712,
      "Ġpassing": 6713,
      "Ġinterested": 6714,
      "Ġlegislation": 6715,
      "ĠMETHODS": 6716,
      "rup": 6717,
      "Ġreference": 6718,
      "Ġ62": 6719,
      "Ġindicates": 6720,
      ".'": 6721,
      "ĠLou": 6722,
      "ologist": 6723,
      "Ġvalv": 6724,
      "Ġoptimal": 6725,
      "Ġcollected": 6726,
      "PD": 6727,
      "ĠPress": 6728,
      "Ġsupplement": 6729,
      "Ġconsult": 6730,
      "cript": 6731,
      "Ġsplen": 6732,
      "Ġphenomenon": 6733,
      "lands": 6734,
      "Ġtour": 6735,
      "ĠEle": 6736,
      "Ġ150": 6737,
      "iliar": 6738,
      "Ġwors": 6739,
      "Ġcapable": 6740,
      "arynx": 6741,
      "rates": 6742,
      "ini": 6743,
      "Ġsphinct": 6744,
      "opulmonary": 6745,
      "illed": 6746,
      "Ġoverl": 6747,
      "Ġtreating": 6748,
      "ophy": 6749,
      "utional": 6750,
      "Ġconstruction": 6751,
      "standing": 6752,
      "ĠRichard": 6753,
      "FC": 6754,
      "gers": 6755,
      "Ġhab": 6756,
      "iaph": 6757,
      "ĠFound": 6758,
      "Ġ61": 6759,
      "Ġregist": 6760,
      "Ġhearts": 6761,
      "ENTS": 6762,
      "By": 6763,
      "ĠEnd": 6764,
      "Ġtools": 6765,
      "itant": 6766,
      "Ġdelivered": 6767,
      "hypert": 6768,
      "Ġexperiments": 6769,
      "78": 6770,
      "Ġfan": 6771,
      "Ġeukary": 6772,
      "Ġendoc": 6773,
      "....": 6774,
      "ructed": 6775,
      "Ġidentical": 6776,
      "Ġfocal": 6777,
      "Ġprofessional": 6778,
      "Ġarthritis": 6779,
      "iotic": 6780,
      "itect": 6781,
      "Ġdat": 6782,
      "Ġhaven": 6783,
      "Ġshift": 6784,
      "Ġimplications": 6785,
      "ĠLike": 6786,
      "Ġcompos": 6787,
      "Ġrough": 6788,
      "Ġselective": 6789,
      "ĠJohnson": 6790,
      "Ġwithdraw": 6791,
      "rants": 6792,
      "Ġtun": 6793,
      "ĠDist": 6794,
      "ifications": 6795,
      "Ġu": 6796,
      "stable": 6797,
      "ifferent": 6798,
      "ĠOBJECT": 6799,
      "Ġpatency": 6800,
      "itus": 6801,
      "Ġchurch": 6802,
      "Ġnotice": 6803,
      "ĠLet": 6804,
      "Ġattend": 6805,
      "velopment": 6806,
      "Ġinstall": 6807,
      "Ġphysician": 6808,
      "Ġulcers": 6809,
      "79": 6810,
      "ansion": 6811,
      "Ġexpand": 6812,
      "coming": 6813,
      "Ġwaiting": 6814,
      "Ġdependent": 6815,
      "inn": 6816,
      "otides": 6817,
      "ĠGet": 6818,
      "Ġsuspect": 6819,
      "Ġdebt": 6820,
      "Ġpermanent": 6821,
      "alam": 6822,
      "ĠSD": 6823,
      "ĠCA": 6824,
      "Ġrid": 6825,
      "Ġ78": 6826,
      "Ġimmunode": 6827,
      "Ġconcerned": 6828,
      "Ġsuffered": 6829,
      "However": 6830,
      "ĠÃ": 6831,
      "Ġnames": 6832,
      "agement": 6833,
      "Ġunable": 6834,
      "Ġclot": 6835,
      "Ġapnea": 6836,
      "Ġacceler": 6837,
      "ĠUnder": 6838,
      "Ġstructural": 6839,
      "know": 6840,
      "psis": 6841,
      "Ġstem": 6842,
      "ĠBu": 6843,
      "Ġadhes": 6844,
      "Ġdirected": 6845,
      "Ġcolonic": 6846,
      "Ġjudge": 6847,
      "Ġrupture": 6848,
      "74": 6849,
      "rich": 6850,
      "ĠBank": 6851,
      "Ġpreced": 6852,
      "Ġbeneficial": 6853,
      "Ġsurveillance": 6854,
      "Res": 6855,
      "Sc": 6856,
      "xy": 6857,
      "Ġbol": 6858,
      "ĠWind": 6859,
      "Ġrelevant": 6860,
      "Ġgrand": 6861,
      "Ġasth": 6862,
      "Ġopinion": 6863,
      "mus": 6864,
      "vention": 6865,
      "isted": 6866,
      "Ġ99": 6867,
      "Ġinsp": 6868,
      "ĠPalest": 6869,
      "ivariate": 6870,
      "Mr": 6871,
      "Ġtask": 6872,
      "invasive": 6873,
      "Ġswe": 6874,
      "Ġpet": 6875,
      "Ġdors": 6876,
      "ĠLong": 6877,
      "Ġtransmission": 6878,
      "icking": 6879,
      "Ġglob": 6880,
      "scrib": 6881,
      "Ġdetailed": 6882,
      "imb": 6883,
      "Ġstated": 6884,
      "atell": 6885,
      "essions": 6886,
      "ĠOk": 6887,
      "âĢĿ,": 6888,
      "Ġfeat": 6889,
      "Ġaccident": 6890,
      "Ġissued": 6891,
      "ĠAtt": 6892,
      "Ġpurs": 6893,
      "Ġdivision": 6894,
      "MI": 6895,
      "igare": 6896,
      "iful": 6897,
      "ĠChurch": 6898,
      "ĠOnce": 6899,
      "Ġcerebell": 6900,
      "Ġmobile": 6901,
      "Ġdoubt": 6902,
      "Ġmarijuana": 6903,
      "Ġentered": 6904,
      "Ġcysts": 6905,
      "Ġweapons": 6906,
      "negative": 6907,
      "Ġimmunodeficiency": 6908,
      "anol": 6909,
      "aint": 6910,
      "peritoneal": 6911,
      "ordin": 6912,
      "well": 6913,
      "rey": 6914,
      "Ġsaline": 6915,
      "six": 6916,
      "idal": 6917,
      "Ġtrip": 6918,
      "Ġfacilit": 6919,
      "Ġplexus": 6920,
      "Ġanemia": 6921,
      "Ġprove": 6922,
      "isting": 6923,
      "Ġchanging": 6924,
      "Ġstanding": 6925,
      "Ġmillions": 6926,
      "ĠVirgin": 6927,
      "Ġmiles": 6928,
      "Ġages": 6929,
      "mediate": 6930,
      "Ġprevented": 6931,
      "==": 6932,
      "Ġtrend": 6933,
      "Ġpy": 6934,
      "ĠCy": 6935,
      "Ġheight": 6936,
      "Ġequivalent": 6937,
      "Ġphilos": 6938,
      "enosis": 6939,
      "Ġalterations": 6940,
      "immune": 6941,
      "iaphrag": 6942,
      "otr": 6943,
      "Ġtruly": 6944,
      "Ġdefend": 6945,
      "Ġretinal": 6946,
      "Ġtechnical": 6947,
      "Ġunclear": 6948,
      "Ġprepared": 6949,
      "Se": 6950,
      "].": 6951,
      "Ġtherap": 6952,
      "ĠOh": 6953,
      "obacter": 6954,
      "Ġsalt": 6955,
      "Ġscientists": 6956,
      "bal": 6957,
      "iative": 6958,
      "pet": 6959,
      "ashion": 6960,
      "Ġconnection": 6961,
      "Ġgallbladder": 6962,
      "Ġdeliver": 6963,
      "76": 6964,
      "gal": 6965,
      "Ġaid": 6966,
      "Ġbomb": 6967,
      "Ġprominent": 6968,
      "ĠNor": 6969,
      "Ġcultures": 6970,
      "Ġobstructive": 6971,
      "En": 6972,
      "NP": 6973,
      "alian": 6974,
      "Ġbic": 6975,
      "ĠArab": 6976,
      "Ġcomfort": 6977,
      "Ġselection": 6978,
      "Ġsepsis": 6979,
      "ĠWell": 6980,
      "Ġintact": 6981,
      "Ġ2006": 6982,
      "Ġdescribes": 6983,
      "Ġantibiotics": 6984,
      "Ġrelationships": 6985,
      "ĠInternet": 6986,
      "Ġneoplasms": 6987,
      "iltr": 6988,
      "Ġ2000": 6989,
      "Ġpartner": 6990,
      "Ġthrombolytic": 6991,
      "ĠSuper": 6992,
      "Ġneutroph": 6993,
      "96": 6994,
      "MT": 6995,
      "ĠMult": 6996,
      "ĠDES": 6997,
      "Ġcaught": 6998,
      "oyal": 6999,
      "Ġelectric": 7000,
      "ĠKorea": 7001,
      "Ġvulner": 7002,
      "plate": 7003,
      "Ġcompare": 7004,
      "ologies": 7005,
      "oidal": 7006,
      "Ġcharged": 7007,
      "Ġattempts": 7008,
      "ĠMet": 7009,
      "Ġ400": 7010,
      "Ġposted": 7011,
      "Ġpsychological": 7012,
      "CM": 7013,
      "ĠWall": 7014,
      "Ġretin": 7015,
      "Ġgradi": 7016,
      "Ġcaps": 7017,
      "Ġrequirements": 7018,
      "Ġhundreds": 7019,
      "Ġwitness": 7020,
      "Ġanalog": 7021,
      "Ġprobe": 7022,
      "Ġquantitative": 7023,
      "Ne": 7024,
      "greater": 7025,
      "Ġdement": 7026,
      "ĠMars": 7027,
      "Ġ63": 7028,
      "liament": 7029,
      "Ġhypoth": 7030,
      "Ġmarriage": 7031,
      "ACK": 7032,
      "Ġsale": 7033,
      "Ġcovered": 7034,
      "Ġburn": 7035,
      "Ġstaining": 7036,
      "ager": 7037,
      "Ġitems": 7038,
      "operation": 7039,
      "Ġimmunohist": 7040,
      "ĠClinical": 7041,
      "83": 7042,
      "abel": 7043,
      "ube": 7044,
      "Ġflat": 7045,
      "Ġremove": 7046,
      "Ġidi": 7047,
      "NC": 7048,
      "Ġmouse": 7049,
      "ĠChe": 7050,
      "Ġparas": 7051,
      "cope": 7052,
      "Ġobservation": 7053,
      "hyd": 7054,
      "ĠColle": 7055,
      "Ġspectrum": 7056,
      "htt": 7057,
      "ologists": 7058,
      "Ġsole": 7059,
      "Ġprint": 7060,
      "Ġfocused": 7061,
      "LV": 7062,
      "cos": 7063,
      "igra": 7064,
      "Ġongoing": 7065,
      "Ġvast": 7066,
      "Ġsuicide": 7067,
      "Ġunf": 7068,
      "ously": 7069,
      "Ġincred": 7070,
      "Ġcopy": 7071,
      "Ġprospectively": 7072,
      "Ġmarkedly": 7073,
      "Ġdomain": 7074,
      "Ġgamma": 7075,
      "arach": 7076,
      "Ġundert": 7077,
      "gypt": 7078,
      "Ġpreventing": 7079,
      "Ġmitochond": 7080,
      "Ġhypoxia": 7081,
      "Ġcontroversial": 7082,
      "Ġregurgitation": 7083,
      "Ġsphincter": 7084,
      "ls": 7085,
      "atation": 7086,
      "ĠMad": 7087,
      "Ġunless": 7088,
      "Ġshop": 7089,
      "rad": 7090,
      "astric": 7091,
      "phone": 7092,
      "Ġtransf": 7093,
      "enteric": 7094,
      "ĠForty": 7095,
      "Ġdiffuse": 7096,
      "NT": 7097,
      "how": 7098,
      "Ġuncommon": 7099,
      "Ġunlikely": 7100,
      "ĠGovernment": 7101,
      "ĠSociety": 7102,
      "Ġye": 7103,
      "dule": 7104,
      "Ġwilling": 7105,
      "Ġinteraction": 7106,
      "Ġantig": 7107,
      "ogenetic": 7108,
      "Ġfragment": 7109,
      "Ġcystic": 7110,
      "controlled": 7111,
      "osinophil": 7112,
      "Ġstret": 7113,
      "Ġtrain": 7114,
      "bling": 7115,
      "Ġpituitary": 7116,
      "OD": 7117,
      "Ġsulf": 7118,
      "Ġrhy": 7119,
      "ĠBer": 7120,
      "rency": 7121,
      "Ġunivers": 7122,
      "Ġroute": 7123,
      "erectomy": 7124,
      "Ġhistological": 7125,
      "maz": 7126,
      "Ġairway": 7127,
      "Ġintervals": 7128,
      "Ġhus": 7129,
      "plastic": 7130,
      "Ġdiscl": 7131,
      "Ġenzym": 7132,
      "Ġapproved": 7133,
      "flamm": 7134,
      "ĠOrgan": 7135,
      "under": 7136,
      "riend": 7137,
      "Ġexamine": 7138,
      "Ġcommunities": 7139,
      "Ġeconom": 7140,
      "Ġexistence": 7141,
      "Ġdecline": 7142,
      "Ġprices": 7143,
      "Ġanastomosis": 7144,
      "rehens": 7145,
      "Ġsections": 7146,
      "otor": 7147,
      "Ġrub": 7148,
      "iber": 7149,
      "Ġskills": 7150,
      "Ġclassic": 7151,
      "dominal": 7152,
      "Ġaccompl": 7153,
      "heum": 7154,
      "Ġcommittee": 7155,
      "Ġinvestment": 7156,
      "Ġidentification": 7157,
      "Ġaccounts": 7158,
      "Ġafford": 7159,
      "Ġspontaneously": 7160,
      "Ġcongestive": 7161,
      "Ġtight": 7162,
      "Ġbones": 7163,
      "Ġnative": 7164,
      "ander": 7165,
      "Ġ68": 7166,
      "version": 7167,
      "ĠSimilar": 7168,
      "igan": 7169,
      "Ġarmy": 7170,
      "Ġsubs": 7171,
      "Ġrandomly": 7172,
      "Ġaccepted": 7173,
      "Ġcardiomyopathy": 7174,
      "onn": 7175,
      "Ġcortic": 7176,
      "orage": 7177,
      "Ġfuel": 7178,
      "stage": 7179,
      "cemia": 7180,
      "olve": 7181,
      "Ġenforcement": 7182,
      "onto": 7183,
      "Ġmovements": 7184,
      "Ġmachine": 7185,
      "Ðµ": 7186,
      "Ġgest": 7187,
      "Ġspine": 7188,
      "Ġnewly": 7189,
      "Ġfarm": 7190,
      "Ġhypotension": 7191,
      "ĠSecond": 7192,
      "Ġleadership": 7193,
      "Ġ>": 7194,
      "urgical": 7195,
      "ource": 7196,
      "Ġimpossible": 7197,
      "appro": 7198,
      "ĠChris": 7199,
      "ĠHeart": 7200,
      "ĠIsraeli": 7201,
      "abilities": 7202,
      "Ġperitoneal": 7203,
      "Ġclosure": 7204,
      "ĠKen": 7205,
      "Ġcomplement": 7206,
      "FN": 7207,
      "night": 7208,
      "works": 7209,
      "Ġactivated": 7210,
      "Ġinhibitors": 7211,
      "Ġmissing": 7212,
      "ĠBrown": 7213,
      "IGN": 7214,
      "Ġlumbar": 7215,
      "94": 7216,
      "yd": 7217,
      "ï¼": 7218,
      "Ġchair": 7219,
      "ceptor": 7220,
      "Ġexamples": 7221,
      "Ġfemales": 7222,
      "Ġphoto": 7223,
      "agland": 7224,
      "Ġnotes": 7225,
      "Ġunilateral": 7226,
      "Ġsched": 7227,
      "Ġsupporters": 7228,
      "Ġbiops": 7229,
      "Ġrich": 7230,
      "activity": 7231,
      "ĠUl": 7232,
      "Ġquad": 7233,
      "Ġentry": 7234,
      "Ġparalle": 7235,
      "RED": 7236,
      "ĠBritain": 7237,
      "hypertensive": 7238,
      "BP": 7239,
      "Ð°": 7240,
      "Ġbegins": 7241,
      "Ġstone": 7242,
      "Ġexperiences": 7243,
      "ĠControl": 7244,
      "Ġsoldiers": 7245,
      "ĠIslamic": 7246,
      "Ġendothelial": 7247,
      "ih": 7248,
      "ĠBob": 7249,
      "Ġpresum": 7250,
      "oven": 7251,
      "Ġprotest": 7252,
      "Ġsolar": 7253,
      "board": 7254,
      "ĠMicrosoft": 7255,
      "Ġtot": 7256,
      "ĠNFL": 7257,
      "ails": 7258,
      "Ġobjective": 7259,
      "Ġcircumst": 7260,
      "Pe": 7261,
      "lu": 7262,
      "Ġther": 7263,
      "Ġstandards": 7264,
      "Ġrenin": 7265,
      "Ġtib": 7266,
      "Ġpolym": 7267,
      "Ġdescending": 7268,
      "Ġjoined": 7269,
      "ĠRobert": 7270,
      "92": 7271,
      "98": 7272,
      "Can": 7273,
      "Ġdecisions": 7274,
      "Ġsurvived": 7275,
      "Ġdeficit": 7276,
      "Ġdefinitely": 7277,
      "Ġath": 7278,
      "005": 7279,
      "Ġdepending": 7280,
      "Ġdeterior": 7281,
      "!!!!!!!!!!!!!!!!!!!!!!!!!!!!!!!!!!!!!!!!!!!!!!!!!!!!!!!!!!!!!!!!": 7282,
      "Ġanesthesia": 7283,
      "letal": 7284,
      "osen": 7285,
      "Ġreliable": 7286,
      "Ġminim": 7287,
      "Ġseek": 7288,
      "Ġinjured": 7289,
      "cluding": 7290,
      "Ġtelling": 7291,
      "Ġcatheterization": 7292,
      "oglobin": 7293,
      "Ġmentioned": 7294,
      "97": 7295,
      "Ġbeer": 7296,
      "section": 7297,
      "olf": 7298,
      "udd": 7299,
      "Ġgangl": 7300,
      "Des": 7301,
      "VT": 7302,
      "bral": 7303,
      "ĠMer": 7304,
      "Ġmere": 7305,
      "Ġkilling": 7306,
      "Ġelevation": 7307,
      "Ġrhyth": 7308,
      "eds": 7309,
      "state": 7310,
      "class": 7311,
      "Ġhyperplasia": 7312,
      "Ġargument": 7313,
      "pread": 7314,
      "Ġgiant": 7315,
      "Ġconduction": 7316,
      "Ġneural": 7317,
      "Ġ73": 7318,
      "Ġoperated": 7319,
      "Other": 7320,
      "Ġeat": 7321,
      "Ġstream": 7322,
      "ĠSal": 7323,
      "Ġvom": 7324,
      "renergic": 7325,
      "Ġ71": 7326,
      "rectomy": 7327,
      "Ġrefract": 7328,
      "Ġcamera": 7329,
      "Ġannounce": 7330,
      "Ind": 7331,
      "Ġapprec": 7332,
      "URE": 7333,
      "Ġvalu": 7334,
      "Ġplanet": 7335,
      "Ġpoorly": 7336,
      "Ġnom": 7337,
      "ription": 7338,
      "Ġflight": 7339,
      "Ġreporting": 7340,
      "Ġcalculated": 7341,
      "Ġpure": 7342,
      "Ġcounts": 7343,
      "Ġ1987": 7344,
      "ĠPhot": 7345,
      "Ġaspiration": 7346,
      "PO": 7347,
      "uccess": 7348,
      "Ġsought": 7349,
      "arant": 7350,
      "Ġlies": 7351,
      "ĠCF": 7352,
      "ĠGame": 7353,
      "Ġamaz": 7354,
      "Ġdiscontin": 7355,
      "Ġaspirin": 7356,
      "Ġretrospective": 7357,
      "rospinal": 7358,
      "81": 7359,
      "life": 7360,
      "raz": 7361,
      "ĠRel": 7362,
      "Ġrac": 7363,
      "Ġdecreases": 7364,
      "Ġgrant": 7365,
      "Ġplease": 7366,
      "Ġinternet": 7367,
      "ĠSanders": 7368,
      "imensional": 7369,
      "GB": 7370,
      "gone": 7371,
      "Ġtrem": 7372,
      "Ġfinger": 7373,
      "changed": 7374,
      "Ġinterleukin": 7375,
      "Ġelectron": 7376,
      "Ġabsor": 7377,
      "Ġsuffering": 7378,
      "amental": 7379,
      "ĠMary": 7380,
      "ĠBat": 7381,
      "Ġunstable": 7382,
      "elve": 7383,
      "ĠAny": 7384,
      "Ġhelps": 7385,
      "Ġlipid": 7386,
      "Ġinnerv": 7387,
      "Ġemphas": 7388,
      "lant": 7389,
      "sub": 7390,
      "icul": 7391,
      "Ġdin": 7392,
      "ĠMS": 7393,
      "ĠElect": 7394,
      "ĠAsia": 7395,
      "Ġfamiliar": 7396,
      "van": 7397,
      "rep": 7398,
      "iser": 7399,
      "Ġdop": 7400,
      "Ġdefine": 7401,
      "Ġgraph": 7402,
      "Ġabsent": 7403,
      "irds": 7404,
      "ĠMedical": 7405,
      "Ġfigures": 7406,
      "Ġanalyses": 7407,
      "arachn": 7408,
      "hort": 7409,
      "Ġtet": 7410,
      "enced": 7411,
      "ĠCS": 7412,
      "acco": 7413,
      "Ġworst": 7414,
      "Ġundergo": 7415,
      "Ġsupporting": 7416,
      "Ġscanning": 7417,
      "hepatic": 7418,
      "Ġantigens": 7419,
      "NN": 7420,
      "asy": 7421,
      "idespread": 7422,
      "Ġcompetition": 7423,
      "Ġschedule": 7424,
      "Ġcisplatin": 7425,
      "Ġasthma": 7426,
      "ĠPalestin": 7427,
      "hr": 7428,
      "chain": 7429,
      "Ġorth": 7430,
      "Ġmeat": 7431,
      "Ġseeking": 7432,
      "ĠResults": 7433,
      "Ġregardless": 7434,
      "Ġwindow": 7435,
      "cancer": 7436,
      "ĠDESIGN": 7437,
      "Ġwel": 7438,
      "Ġliqu": 7439,
      "Ġguide": 7440,
      "Ġpathophys": 7441,
      "Ġexplan": 7442,
      "Ġbrach": 7443,
      "ĠInstead": 7444,
      "Ġspirit": 7445,
      "ĠOBJECTIVE": 7446,
      "HL": 7447,
      "UD": 7448,
      "ĠTNF": 7449,
      "ĠInc": 7450,
      "ĠIntra": 7451,
      "Ġacts": 7452,
      "Ġbrand": 7453,
      "Ġcortex": 7454,
      "fortunately": 7455,
      "ĠCollege": 7456,
      "arachnoid": 7457,
      "More": 7458,
      "Ġonc": 7459,
      "ĠSP": 7460,
      "ĠLy": 7461,
      "Ġinfiltr": 7462,
      "neys": 7463,
      "Ġ69": 7464,
      "Ġthrombus": 7465,
      "Ġfaith": 7466,
      "IC": 7467,
      "Ġwealth": 7468,
      "osome": 7469,
      "Ġrul": 7470,
      "Ġuncertain": 7471,
      "ĠFre": 7472,
      "ricted": 7473,
      "Ġinterests": 7474,
      "do": 7475,
      "Ġsoci": 7476,
      "Ġinher": 7477,
      "Ġfashion": 7478,
      "Ġhall": 7479,
      "Ġcommission": 7480,
      "ĠAnother": 7481,
      "ĠCommun": 7482,
      "Ġsitting": 7483,
      "ato": 7484,
      "ĠAre": 7485,
      "Ġuniversity": 7486,
      "Ġapproaches": 7487,
      "Ġpancreas": 7488,
      "Ġtumours": 7489,
      "Ġpacing": 7490,
      "Ġalleg": 7491,
      "ĠOut": 7492,
      "Ġorganisms": 7493,
      "Ġaffects": 7494,
      "Ġfatty": 7495,
      "HT": 7496,
      "Sp": 7497,
      "Ġsarcoma": 7498,
      "Ġreject": 7499,
      "Ġcommitted": 7500,
      "ĠFe": 7501,
      "ellow": 7502,
      "Ġusual": 7503,
      "Ġspoke": 7504,
      "Ġinterpret": 7505,
      "Ġsupra": 7506,
      "Ġequally": 7507,
      "Ġapply": 7508,
      "Ġswitch": 7509,
      "Ġdomestic": 7510,
      "Ġfilling": 7511,
      "Post": 7512,
      "ga": 7513,
      "Ġfram": 7514,
      "ĠBush": 7515,
      "ĠGreat": 7516,
      "Ġ83": 7517,
      "Ġjustice": 7518,
      "Ġcoal": 7519,
      "Ġsupports": 7520,
      "Ġmethyl": 7521,
      "Ġwalking": 7522,
      "Ġbreath": 7523,
      "Ġhusband": 7524,
      "UND": 7525,
      "auc": 7526,
      "bits": 7527,
      "ĠCup": 7528,
      "Ġmyocardium": 7529,
      "Ġreplaced": 7530,
      "Ġdeclined": 7531,
      "ĠSyrian": 7532,
      "Ġdropped": 7533,
      "ĠMartin": 7534,
      "Ġincorpor": 7535,
      "Ġunderstood": 7536,
      "Ġlaunched": 7537,
      "vi": 7538,
      "ĠSil": 7539,
      "ĠJones": 7540,
      "Ġgenomes": 7541,
      "Ġ66": 7542,
      "rontal": 7543,
      "Ġlimits": 7544,
      "uthor": 7545,
      "Trump": 7546,
      "Ġesophagus": 7547,
      "Ġcrowd": 7548,
      "pling": 7549,
      "ĠGi": 7550,
      "Trans": 7551,
      "oemb": 7552,
      "isters": 7553,
      "ĠNS": 7554,
      "Ġlocalized": 7555,
      "Ġputting": 7556,
      "Ġirradiation": 7557,
      "ĠFoundation": 7558,
      "fra": 7559,
      "ora": 7560,
      "Ġcomprom": 7561,
      "Ġcars": 7562,
      "Ġopposed": 7563,
      "Ġphotos": 7564,
      "Ġiliac": 7565,
      "ĠLouis": 7566,
      "93": 7567,
      "rig": 7568,
      "Ġpg": 7569,
      "esthetic": 7570,
      "anda": 7571,
      "earing": 7572,
      "Ġextract": 7573,
      "Ġequip": 7574,
      "ĠAddition": 7575,
      "Ġwinning": 7576,
      "Ġholding": 7577,
      "Ġhousing": 7578,
      "eight": 7579,
      "sized": 7580,
      "real": 7581,
      "ĠAV": 7582,
      "ĠMill": 7583,
      "empor": 7584,
      "eps": 7585,
      "Ġtraffic": 7586,
      "Ġfiles": 7587,
      "EL": 7588,
      "Ġta": 7589,
      "Ġwidespread": 7590,
      "Ġfet": 7591,
      "Ġsymb": 7592,
      "areness": 7593,
      "ĠAut": 7594,
      "ĠFore": 7595,
      "ĠEgypt": 7596,
      "Ġkinase": 7597,
      "Ġaccused": 7598,
      "Ġexpensive": 7599,
      "Ġvisible": 7600,
      "Ġnucleus": 7601,
      "Ġcorresponding": 7602,
      "nucle": 7603,
      "inity": 7604,
      "atically": 7605,
      "erted": 7606,
      "Ġsan": 7607,
      "ĠRom": 7608,
      "Ġearth": 7609,
      "Ġclassification": 7610,
      "Ġorganizations": 7611,
      "Ġinduce": 7612,
      "Ġturns": 7613,
      "Ġulcerative": 7614,
      "Med": 7615,
      "Ġcorner": 7616,
      "hips": 7617,
      "Ġguidelines": 7618,
      "Ġpotent": 7619,
      "Ġconsisted": 7620,
      "ETT": 7621,
      "Ġhttp": 7622,
      "cribed": 7623,
      "nic": 7624,
      "ocracy": 7625,
      "riers": 7626,
      "Ġactivator": 7627,
      "Ġupdate": 7628,
      "Ġvaluable": 7629,
      "\\\"": 7630,
      "olization": 7631,
      "Ġdownload": 7632,
      "Ġpathology": 7633,
      "Ġvascul": 7634,
      "Ġlobe": 7635,
      "ĠToronto": 7636,
      "town": 7637,
      "uke": 7638,
      "ĠMat": 7639,
      "ĠJose": 7640,
      "Ġoffensive": 7641,
      "Ġextens": 7642,
      "Ġsounds": 7643,
      "Ġwatching": 7644,
      "91": 7645,
      "ĠBern": 7646,
      "allium": 7647,
      "Ġacad": 7648,
      "Ġpeptide": 7649,
      "ĠVer": 7650,
      "Ġabnormality": 7651,
      "Ġboys": 7652,
      "Ġdefinition": 7653,
      "Of": 7654,
      "onym": 7655,
      "Ġ74": 7656,
      "Ġworldwide": 7657,
      "Ġcuts": 7658,
      "win": 7659,
      "Ġstock": 7660,
      "asty": 7661,
      "ĠLos": 7662,
      "ograft": 7663,
      "icted": 7664,
      "Ġrestriction": 7665,
      "Ġprocessing": 7666,
      "Ġbattery": 7667,
      "Ġbiopsies": 7668,
      "Ġcatch": 7669,
      "Ġdimin": 7670,
      "Ġproven": 7671,
      "Ġje": 7672,
      "ĠJes": 7673,
      "Ġsurf": 7674,
      "Ġundergone": 7675,
      "ĠArmy": 7676,
      "ĠScience": 7677,
      "Ġratios": 7678,
      "Ġ1970": 7679,
      "Ġaudience": 7680,
      "Ġchallenges": 7681,
      "ĠCEO": 7682,
      "Ġsed": 7683,
      "Ġinterferon": 7684,
      "poses": 7685,
      "Ġdifferential": 7686,
      "Ġsalv": 7687,
      "ĠTechn": 7688,
      "net": 7689,
      "lycer": 7690,
      "ĠBow": 7691,
      "ĠDC": 7692,
      "pled": 7693,
      "Ġapart": 7694,
      "Ġtrache": 7695,
      "Ġconsists": 7696,
      "Ġcopyright": 7697,
      "Ġchromosomes": 7698,
      "Ġsclerosis": 7699,
      "xia": 7700,
      "Ġgap": 7701,
      "ĠTHE": 7702,
      "Ġperine": 7703,
      "Ġexpert": 7704,
      "Ġrestrict": 7705,
      "Ġgenerated": 7706,
      "Ġerr": 7707,
      "Ġvictory": 7708,
      "Ġaver": 7709,
      "ĠApp": 7710,
      "ĠDirect": 7711,
      "Ġintensive": 7712,
      "Ġexpansion": 7713,
      "Ġelective": 7714,
      "cence": 7715,
      "inous": 7716,
      "Ġnorth": 7717,
      "lling": 7718,
      "Ġforamen": 7719,
      "apping": 7720,
      "week": 7721,
      "Ġcohort": 7722,
      "Ġbiochemical": 7723,
      "Ġangiot": 7724,
      "Ġoriginally": 7725,
      "Ġarchitect": 7726,
      "Ġtelevision": 7727,
      "DR": 7728,
      "binding": 7729,
      "itored": 7730,
      "Ġgay": 7731,
      "ĠPak": 7732,
      "Ġoutbre": 7733,
      "Ġpregnant": 7734,
      "iltration": 7735,
      "Ġventilation": 7736,
      "icate": 7737,
      "ĠHLA": 7738,
      "Ġresus": 7739,
      "Ġpool": 7740,
      "Ġrestenosis": 7741,
      "namics": 7742,
      "ĠMexico": 7743,
      "flex": 7744,
      "ulative": 7745,
      "ĠSuch": 7746,
      "ĠPublic": 7747,
      "Ġhasn": 7748,
      "Ġjunction": 7749,
      "Ġacknow": 7750,
      "Ġtaxes": 7751,
      "Ġneurons": 7752,
      "otypes": 7753,
      "ker": 7754,
      "orep": 7755,
      "Ġ77": 7756,
      "mediated": 7757,
      "Ġtells": 7758,
      "Ġvolunteers": 7759,
      "Not": 7760,
      "xual": 7761,
      "Ġcash": 7762,
      "agues": 7763,
      "Ġshunt": 7764,
      "ĠYour": 7765,
      "Ġproducing": 7766,
      "Ġestrogen": 7767,
      "Ġera": 7768,
      "ĠCarol": 7769,
      "link": 7770,
      "Ġlith": 7771,
      "season": 7772,
      "ĠSpec": 7773,
      "ĠHel": 7774,
      "rends": 7775,
      "Ġsubcutaneous": 7776,
      "Ġthoughts": 7777,
      "Ġpractices": 7778,
      "Ġmapping": 7779,
      "Ġcorporate": 7780,
      "Ġdriver": 7781,
      "ĠÙ": 7782,
      "Ġaward": 7783,
      "Ġexists": 7784,
      "ĠBACK": 7785,
      "ĠER": 7786,
      "Ġ82": 7787,
      "Ġ84": 7788,
      "Ġdistance": 7789,
      "Ġvariation": 7790,
      "Ġpleural": 7791,
      "ĠVirginia": 7792,
      "flammatory": 7793,
      "va": 7794,
      "ctor": 7795,
      "Ġcolumn": 7796,
      "mitt": 7797,
      "ĠSeven": 7798,
      "Ġconversation": 7799,
      "called": 7800,
      "eper": 7801,
      "ĠMiss": 7802,
      "cription": 7803,
      "ĠSecurity": 7804,
      "Ġtolerance": 7805,
      "Ġattachment": 7806,
      "Ġangiotensin": 7807,
      "Ġmo": 7808,
      "Ġdip": 7809,
      "utin": 7810,
      "Ġclar": 7811,
      "angle": 7812,
      "Ġ86": 7813,
      "Ġlowest": 7814,
      "Ġepider": 7815,
      "Ġreflex": 7816,
      "Ġrefuge": 7817,
      "Ġlinear": 7818,
      "Ġmatched": 7819,
      "osterone": 7820,
      "Ġvertebra": 7821,
      "MR": 7822,
      "date": 7823,
      "Ġbip": 7824,
      "Ġbond": 7825,
      "arct": 7826,
      "Ġlived": 7827,
      "imet": 7828,
      "ĠDec": 7829,
      "Ġsubarachnoid": 7830,
      "Ġ94": 7831,
      "Ġresect": 7832,
      "Ġarrived": 7833,
      "Ġdatab": 7834,
      "Ġcircumstances": 7835,
      "orepinephrine": 7836,
      "Ġfish": 7837,
      "stru": 7838,
      "uber": 7839,
      "ubation": 7840,
      "Ġdecide": 7841,
      "porter": 7842,
      "Ġimmunos": 7843,
      "opathologic": 7844,
      "Ġbroken": 7845,
      "ĠParkinson": 7846,
      "Ġvomiting": 7847,
      "nis": 7848,
      "patient": 7849,
      "seven": 7850,
      "ĠUN": 7851,
      "ooking": 7852,
      "Ġbelieves": 7853,
      "Ġappoint": 7854,
      "Ġexcretion": 7855,
      "Ġdilatation": 7856,
      "Ps": 7857,
      "Ġleaves": 7858,
      "Ġelectrical": 7859,
      "Ġreveal": 7860,
      "Ġestimates": 7861,
      "Ġautoimmune": 7862,
      "Ġidiopathic": 7863,
      "Pre": 7864,
      "vey": 7865,
      "Ġowner": 7866,
      "Ġadvance": 7867,
      "Ġ2005": 7868,
      "ĠCentral": 7869,
      "house": 7870,
      "ios": 7871,
      "Ã¡": 7872,
      "asma": 7873,
      "ima": 7874,
      "Ġranging": 7875,
      "ounder": 7876,
      "ĠLab": 7877,
      "Ġtrunk": 7878,
      "ancing": 7879,
      "Ġpapill": 7880,
      "HA": 7881,
      "Our": 7882,
      "Ġtack": 7883,
      "erry": 7884,
      "aste": 7885,
      "Ġrecovered": 7886,
      "Ġcenters": 7887,
      "Ġetiology": 7888,
      "Ġbaby": 7889,
      "yrid": 7890,
      "Ġanomal": 7891,
      "ĠIr": 7892,
      "ĠECG": 7893,
      "Ġstarts": 7894,
      "Ġkeeping": 7895,
      "ĠAIRED": 7896,
      "Ġexhibited": 7897,
      "mazon": 7898,
      "Ġwid": 7899,
      "ĠFox": 7900,
      "Ġcann": 7901,
      "Ġdepends": 7902,
      "Ġmediast": 7903,
      "Ġdiaphrag": 7904,
      "Ġham": 7905,
      "ĠFBI": 7906,
      "Ġadoles": 7907,
      "Ġ76": 7908,
      "Ġcardiopulmonary": 7909,
      "Ġhappening": 7910,
      "Ġaircraft": 7911,
      "Ġslowly": 7912,
      "Ġfractures": 7913,
      "Ġhybridization": 7914,
      "ez": 7915,
      "Ġfant": 7916,
      "ivation": 7917,
      "ĠHuman": 7918,
      "ĠJud": 7919,
      "ĠRecent": 7920,
      "Ġadju": 7921,
      "Ġaggreg": 7922,
      "Ġpanel": 7923,
      "ROUND": 7924,
      "Ġtough": 7925,
      "ĠID": 7926,
      "Ġshif": 7927,
      "ĠNone": 7928,
      "ported": 7929,
      "Ġantihypertensive": 7930,
      "Ġplasmin": 7931,
      "Ġcartil": 7932,
      "onin": 7933,
      "Ġfaster": 7934,
      "anth": 7935,
      "ĠRet": 7936,
      "Ġbelong": 7937,
      "Ġefficient": 7938,
      "Ġstreets": 7939,
      "Ġpediatric": 7940,
      "Ġdementia": 7941,
      "HC": 7942,
      "termin": 7943,
      "ococc": 7944,
      "Ġunion": 7945,
      "Ġ81": 7946,
      "Ġautopsy": 7947,
      "Ġrevolution": 7948,
      "Ġmacroph": 7949,
      "Ġconcom": 7950,
      "ĠRem": 7951,
      "Ġmalaria": 7952,
      "Ġinstances": 7953,
      "Ġsyndromes": 7954,
      "ucky": 7955,
      "Ġnic": 7956,
      "ĠGood": 7957,
      "Ġplants": 7958,
      "Ġsecre": 7959,
      "Ġwalls": 7960,
      "Ġvasodil": 7961,
      "control": 7962,
      "Ġpackage": 7963,
      "low": 7964,
      "rd": 7965,
      "Ġdry": 7966,
      "ĠTime": 7967,
      "urally": 7968,
      "olip": 7969,
      "Ġrig": 7970,
      "Ġju": 7971,
      "ĠThomas": 7972,
      "Ġserial": 7973,
      "Ġhelpful": 7974,
      "Ġestimate": 7975,
      "Ġbrid": 7976,
      "aryng": 7977,
      "ĠEarly": 7978,
      "hi": 7979,
      "isk": 7980,
      "ishes": 7981,
      "uria": 7982,
      "Ġstead": 7983,
      "ĠHem": 7984,
      "ĠWhe": 7985,
      "Ġcompens": 7986,
      "Ġ120": 7987,
      "ĠSystem": 7988,
      "Ġdyst": 7989,
      "Ġpremature": 7990,
      "Ġimagine": 7991,
      "Ġgradient": 7992,
      "GROUND": 7993,
      "dimensional": 7994,
      "Ġbanks": 7995,
      "Ġthor": 7996,
      "teral": 7997,
      "ĠSing": 7998,
      "ups": 7999,
      "ĠMont": 8000,
      "ĠGOP": 8001,
      "ĠIns": 8002,
      "Ġneedle": 8003,
      "Ġsets": 8004,
      "Ġaffecting": 8005,
      "Ġfatigue": 8006,
      "Ġbusinesses": 8007,
      "Ġdilated": 8008,
      "Ġmesenteric": 8009,
      "Ġexcessive": 8010,
      "Ġpredominantly": 8011,
      "Ġorgans": 8012,
      "ĠBACKGROUND": 8013,
      "ket": 8014,
      "organ": 8015,
      "Ġrevenue": 8016,
      "olit": 8017,
      "unit": 8018,
      "ady": 8019,
      "abled": 8020,
      "ĠRE": 8021,
      "Ġcomprehens": 8022,
      "avy": 8023,
      "Ġmonitored": 8024,
      "Ġproduces": 8025,
      "Ġcerebrospinal": 8026,
      "Ġdifficulty": 8027,
      "mbly": 8028,
      "Ġweakness": 8029,
      "ĠNA": 8030,
      "ghan": 8031,
      "Ġinterventions": 8032,
      "Ġparticipants": 8033,
      "ĠAIDS": 8034,
      "oblastic": 8035,
      "Ac": 8036,
      "oric": 8037,
      "Ġgli": 8038,
      "ĠSa": 8039,
      "ĠCM": 8040,
      "ogly": 8041,
      "Ġfeels": 8042,
      "Ġrefused": 8043,
      "Ġresponsibility": 8044,
      "Ġmorphine": 8045,
      "Ġinstitutions": 8046,
      "bow": 8047,
      "Ġwish": 8048,
      "Ġcong": 8049,
      "ĠMem": 8050,
      "Ġangle": 8051,
      "fficiency": 8052,
      "Ġviscer": 8053,
      "Ġpostoperatively": 8054,
      "Ġoptim": 8055,
      "Ġinsertion": 8056,
      "!âĢĿ": 8057,
      "mg": 8058,
      "ĠØ": 8059,
      "Ġtwenty": 8060,
      "Ġbind": 8061,
      "Ġatyp": 8062,
      "eliac": 8063,
      "ensitivity": 8064,
      "Ġker": 8065,
      "Although": 8066,
      "Ġpieces": 8067,
      "Ġtalks": 8068,
      "Ġspokesman": 8069,
      "rons": 8070,
      "vity": 8071,
      "enger": 8072,
      "anal": 8073,
      "anish": 8074,
      "ausea": 8075,
      "Ġ92": 8076,
      "Ġfundamental": 8077,
      "Ġmissed": 8078,
      "Ġlegisl": 8079,
      "Ġdeletion": 8080,
      "Ġadjuvant": 8081,
      "GA": 8082,
      "LC": 8083,
      "PT": 8084,
      "Ġcure": 8085,
      "Ġeosinophil": 8086,
      "ching": 8087,
      "osomal": 8088,
      "ĠMike": 8089,
      "Ġatrophy": 8090,
      "ĠVT": 8091,
      "Ġdevelopers": 8092,
      "ĠSevent": 8093,
      "ozyg": 8094,
      "Ġtorn": 8095,
      "Ġpatch": 8096,
      "arial": 8097,
      "Ġstrain": 8098,
      "osarcoma": 8099,
      "ĠCath": 8100,
      "plants": 8101,
      "Ġprime": 8102,
      "Ġglass": 8103,
      "Ġlocations": 8104,
      "oplite": 8105,
      "Ġinvestigations": 8106,
      "Ġmmol": 8107,
      "Ġjoints": 8108,
      "ĠSecretary": 8109,
      "rific": 8110,
      "aments": 8111,
      "ĠOpen": 8112,
      "rix": 8113,
      "Ġveter": 8114,
      "Ġdeficits": 8115,
      "Ġnucleotide": 8116,
      "Ġstrains": 8117,
      "Ġscientific": 8118,
      "ĠJackson": 8119,
      "lines": 8120,
      "lah": 8121,
      "stone": 8122,
      "irt": 8123,
      "Ġworry": 8124,
      "Ġguess": 8125,
      "Ġbigger": 8126,
      "Ġpenet": 8127,
      "Ġfracture": 8128,
      "ĠWindows": 8129,
      "gement": 8130,
      "ĠMur": 8131,
      "Ġpathways": 8132,
      "Ġhospitals": 8133,
      "Ġcontributed": 8134,
      "Ġprotective": 8135,
      "Ġprofessor": 8136,
      "Ġequipment": 8137,
      "bour": 8138,
      "ĠTit": 8139,
      "illing": 8140,
      "ĠWomen": 8141,
      "Ġflag": 8142,
      "median": 8143,
      "Ġdetermining": 8144,
      "Ġcortical": 8145,
      "Ġmicroscopic": 8146,
      "cean": 8147,
      "ĠHam": 8148,
      "ĠHill": 8149,
      "Ġimproving": 8150,
      "Ġreduces": 8151,
      "Ġpulse": 8152,
      "Ġcytok": 8153,
      "Ġstrept": 8154,
      "FA": 8155,
      "Ġrearr": 8156,
      "sect": 8157,
      "ĠBit": 8158,
      "outs": 8159,
      "ĠJoe": 8160,
      "othing": 8161,
      "Ġantico": 8162,
      "Ġflap": 8163,
      "aza": 8164,
      "ĠLee": 8165,
      "ĠUSA": 8166,
      "Ġsusceptibility": 8167,
      "Ġprophylaxis": 8168,
      "ĠAngeles": 8169,
      "PR": 8170,
      "arrhyth": 8171,
      "adium": 8172,
      "ĠCH": 8173,
      "ĠBig": 8174,
      "Ġchart": 8175,
      "Ġlev": 8176,
      "ĠLin": 8177,
      "ĠAndroid": 8178,
      "Ġhelping": 8179,
      "oms": 8180,
      "ĠMass": 8181,
      "Ġtrib": 8182,
      "Ġclon": 8183,
      "Ġ1986": 8184,
      "Ġepithe": 8185,
      "IA": 8186,
      "cons": 8187,
      "stic": 8188,
      "ĠPlease": 8189,
      "useum": 8190,
      "lihood": 8191,
      "Ġinspir": 8192,
      "Ġperspective": 8193,
      "ĠSupreme": 8194,
      "gs": 8195,
      "Ġaer": 8196,
      "Ġsouth": 8197,
      "ĠGal": 8198,
      "Ġagon": 8199,
      "Ġ88": 8200,
      "Ġexperts": 8201,
      "Ġcourses": 8202,
      "Ġbringing": 8203,
      "Ġcas": 8204,
      "Ġpron": 8205,
      "cere": 8206,
      "etics": 8207,
      "Ġintermediate": 8208,
      "Ġfragments": 8209,
      "Ġrecognize": 8210,
      "Ð¸": 8211,
      "inte": 8212,
      "Ġnorepinephrine": 8213,
      "raction": 8214,
      "ulum": 8215,
      "Ġwearing": 8216,
      "ifies": 8217,
      "Ġcompris": 8218,
      "ĠJim": 8219,
      "Ġinteractions": 8220,
      "Ġsomewhat": 8221,
      "Ġnormot": 8222,
      "ĠIgG": 8223,
      "Ġcarrying": 8224,
      "ĠOverall": 8225,
      "ĠFifty": 8226,
      "Ġwithdrawal": 8227,
      "Ġrefractory": 8228,
      "bur": 8229,
      "host": 8230,
      "orr": 8231,
      "Ġfoll": 8232,
      "ospor": 8233,
      "Ġresolved": 8234,
      "issions": 8235,
      "Ġadvice": 8236,
      "Ġfiber": 8237,
      "Ġexplore": 8238,
      "Ġurban": 8239,
      "Ġdestruction": 8240,
      "ĠMoreover": 8241,
      "Ġpilot": 8242,
      "Ġenzymes": 8243,
      "iples": 8244,
      "pressed": 8245,
      "Ã¼": 8246,
      "Ġlands": 8247,
      "Ġincl": 8248,
      "prote": 8249,
      "Ġcoff": 8250,
      "Why": 8251,
      "Ġcultural": 8252,
      "Ġcategory": 8253,
      "Ġexcluded": 8254,
      "Ġfascia": 8255,
      "Ġfifth": 8256,
      "Ġolig": 8257,
      "ĠMax": 8258,
      "awa": 8259,
      "Ġskull": 8260,
      "Ġnecessarily": 8261,
      "itz": 8262,
      "adow": 8263,
      "ĠJon": 8264,
      "Ġviruses": 8265,
      "Ġcloser": 8266,
      "ĠSouthern": 8267,
      "ĠInit": 8268,
      "Ġeditor": 8269,
      "Ġspeaking": 8270,
      "Ġinhibited": 8271,
      "rastructure": 8272,
      "ETTING": 8273,
      "Qu": 8274,
      "gam": 8275,
      "Ġunchanged": 8276,
      "Ġblast": 8277,
      "Ġglands": 8278,
      "Ġcareful": 8279,
      "Ġpotentials": 8280,
      "Ġcommunication": 8281,
      "Ġtendon": 8282,
      "Ġepidem": 8283,
      "ãĢ": 8284,
      "Ġegg": 8285,
      "ĠSeveral": 8286,
      "Ġdepth": 8287,
      "Ġveget": 8288,
      "Ġsituations": 8289,
      "Ġsplit": 8290,
      "Ġcommercial": 8291,
      "cap": 8292,
      "then": 8293,
      "ĠTw": 8294,
      "Ġdegra": 8295,
      "Ġrheum": 8296,
      "Ġkick": 8297,
      "Ġevident": 8298,
      "ava": 8299,
      "avage": 8300,
      "Ġ96": 8301,
      "Ġepic": 8302,
      "Ġcategories": 8303,
      "Ġbeautiful": 8304,
      "long": 8305,
      "ventricular": 8306,
      "cephal": 8307,
      "ĠPS": 8308,
      "Ġmanip": 8309,
      "Ġscr": 8310,
      "Ġ87": 8311,
      "Ġtemporary": 8312,
      "ĠContin": 8313,
      "Ġemotional": 8314,
      "Ġsatisf": 8315,
      "IP": 8316,
      "inine": 8317,
      "Ġcocaine": 8318,
      "ita": 8319,
      "utter": 8320,
      "ether": 8321,
      "ĠSETTING": 8322,
      "ĠRa": 8323,
      "ĠNon": 8324,
      "ensus": 8325,
      "Ġ79": 8326,
      "ĠChief": 8327,
      "Ġdistant": 8328,
      "Ġangiographic": 8329,
      "Ġdelta": 8330,
      "Ġmasses": 8331,
      "Ġtroops": 8332,
      "Ġcomplaints": 8333,
      "Ġacet": 8334,
      "Ġtherapies": 8335,
      "gically": 8336,
      "omies": 8337,
      "ceived": 8338,
      "Ġproceed": 8339,
      "ificant": 8340,
      "Ġedge": 8341,
      "Ġguard": 8342,
      "ĠProf": 8343,
      "Ġfiled": 8344,
      "ey": 8345,
      "Ġtension": 8346,
      "Ġpall": 8347,
      "Ġnm": 8348,
      "ĠIS": 8349,
      "ĠMit": 8350,
      "ĠBur": 8351,
      "Ġsubcl": 8352,
      "Ġpredis": 8353,
      "Ġcombat": 8354,
      "Ġantibiotic": 8355,
      "Ġconsistently": 8356,
      "Ġstrike": 8357,
      "Ġtotally": 8358,
      "Ġcigare": 8359,
      "Ġrehab": 8360,
      "ords": 8361,
      "Ġoptic": 8362,
      "Ġpairs": 8363,
      "Ġopposite": 8364,
      "Get": 8365,
      "Most": 8366,
      "run": 8367,
      "Ġherself": 8368,
      "Ġvaried": 8369,
      "Ġobjects": 8370,
      "Ġhonest": 8371,
      "Ġattributed": 8372,
      "Ġperioperative": 8373,
      "Ġplasminogen": 8374,
      "opliteal": 8375,
      "Ġpace": 8376,
      "Ġmood": 8377,
      "asks": 8378,
      "Ġstorage": 8379,
      "ighters": 8380,
      "elly": 8381,
      "ĠUk": 8382,
      "ĠAbout": 8383,
      "Ġultrasonography": 8384,
      "Many": 8385,
      "iating": 8386,
      "phen": 8387,
      "top": 8388,
      "writ": 8389,
      "astern": 8390,
      "Ġhurt": 8391,
      "Ġnurs": 8392,
      "rypt": 8393,
      "Ġtransfusion": 8394,
      "Ġfamous": 8395,
      "Ġgovernments": 8396,
      "Ġmicroscopy": 8397,
      "aver": 8398,
      "dr": 8399,
      "rity": 8400,
      "rie": 8401,
      "including": 8402,
      "ione": 8403,
      "ilization": 8404,
      "Ġsettle": 8405,
      "Ġclasses": 8406,
      "Ġinnov": 8407,
      "Ġascites": 8408,
      "Ġvehicles": 8409,
      "Ġcirculating": 8410,
      "ĠMiddle": 8411,
      "lahoma": 8412,
      "Con": 8413,
      "pm": 8414,
      "tte": 8415,
      "Ġobtain": 8416,
      "Ġpaying": 8417,
      "Ġcounsel": 8418,
      "mosp": 8419,
      "Ġthy": 8420,
      "ĠCR": 8421,
      "abdominal": 8422,
      "ĠHaw": 8423,
      "Ġroles": 8424,
      "Ġindustrial": 8425,
      "Ġneuropathy": 8426,
      "Ġadenomas": 8427,
      "Ġtargets": 8428,
      "Ġabsolutely": 8429,
      "American": 8430,
      "!\"": 8431,
      "Ġlie": 8432,
      "ĠMatt": 8433,
      "Ġintended": 8434,
      "ulture": 8435,
      "Ġtransformation": 8436,
      "ĠYang": 8437,
      "Ġvena": 8438,
      "Ġconsidering": 8439,
      "Ġmaternal": 8440,
      "Ġbreathing": 8441,
      "mL": 8442,
      "edge": 8443,
      "oria": 8444,
      "Ġthallium": 8445,
      "Ġorbit": 8446,
      "estival": 8447,
      "ĠRyan": 8448,
      "Ġcryst": 8449,
      "Ġundertaken": 8450,
      "Ġmitochondrial": 8451,
      "Since": 8452,
      "ef": 8453,
      "Ġgrew": 8454,
      "oted": 8455,
      "ĠWik": 8456,
      "ĠArch": 8457,
      "Ġendometri": 8458,
      "bar": 8459,
      "mas": 8460,
      "Ġfired": 8461,
      "Ġrecording": 8462,
      "intigra": 8463,
      "Ġatten": 8464,
      "Ġpointed": 8465,
      "Ġwarm": 8466,
      "Ġauthority": 8467,
      "da": 8468,
      "ÑĤ": 8469,
      "istant": 8470,
      "Ġdisability": 8471,
      "ailed": 8472,
      "Ġindeed": 8473,
      "Ġelections": 8474,
      "matched": 8475,
      "Ġburden": 8476,
      "Ġvaginal": 8477,
      "Ġscheduled": 8478,
      "DP": 8479,
      "Last": 8480,
      "enty": 8481,
      "Ġwear": 8482,
      "ĠBlood": 8483,
      "ĠAfghan": 8484,
      "utation": 8485,
      "Ġagencies": 8486,
      "Ġpartially": 8487,
      "ĠKh": 8488,
      "Ġlesser": 8489,
      "Ġentity": 8490,
      "Ġprotected": 8491,
      "Ġembolism": 8492,
      "Ġdrinking": 8493,
      "Ġinsufficiency": 8494,
      "Ġpowers": 8495,
      "Just": 8496,
      "mand": 8497,
      "Ġinner": 8498,
      "romy": 8499,
      "Ġrh": 8500,
      "Ġchlor": 8501,
      "ĠFire": 8502,
      "obody": 8503,
      "Ġfunds": 8504,
      "Ġdermat": 8505,
      "mittent": 8506,
      "Ġnausea": 8507,
      "ipping": 8508,
      "ĠJournal": 8509,
      "ĠWeb": 8510,
      "ĠProject": 8511,
      "Ġlungs": 8512,
      "ĠPrime": 8513,
      "Ġinfluenced": 8514,
      "oglobulin": 8515,
      "TA": 8516,
      "Up": 8517,
      "iverse": 8518,
      "sup": 8519,
      "ĠAmazon": 8520,
      "ĠMil": 8521,
      "Ġsea": 8522,
      "ĠRock": 8523,
      "ounced": 8524,
      "Ġthanks": 8525,
      "ducing": 8526,
      "Ġsurgically": 8527,
      "rible": 8528,
      "Ġdefensive": 8529,
      "Ġwriter": 8530,
      "Ġfellow": 8531,
      "Ġimplantation": 8532,
      "Ġdominant": 8533,
      "From": 8534,
      "PC": 8535,
      "Ġcum": 8536,
      "Ġstars": 8537,
      "ĠData": 8538,
      "Ġshorter": 8539,
      "Ġmanage": 8540,
      "Ġglomer": 8541,
      "Ġhemisp": 8542,
      "Ġcontinuing": 8543,
      "Ġindependently": 8544,
      "(-": 8545,
      "Do": 8546,
      "Ġfran": 8547,
      "Ġmos": 8548,
      "ĠToday": 8549,
      "ĠCB": 8550,
      "resent": 8551,
      "ocardial": 8552,
      "ĠHall": 8553,
      "ĠLast": 8554,
      "ensitive": 8555,
      "Ġkil": 8556,
      "Ġoffering": 8557,
      "ographs": 8558,
      "ullary": 8559,
      "ĠPeter": 8560,
      "Ġinstitution": 8561,
      "ĠDistrict": 8562,
      "GG": 8563,
      "Ġtail": 8564,
      "inflammatory": 8565,
      "herent": 8566,
      "sts": 8567,
      "ĠPR": 8568,
      "endment": 8569,
      "Ġteen": 8570,
      "Ġregulatory": 8571,
      "Ġearn": 8572,
      "Ġdistrict": 8573,
      "Ġdepart": 8574,
      "ĠForce": 8575,
      "Ġpatent": 8576,
      "ĠImage": 8577,
      "Ġconnected": 8578,
      "Ġpulled": 8579,
      "ĠJewish": 8580,
      "Ġelectrophys": 8581,
      "IR": 8582,
      "ĠTim": 8583,
      "ĠSpe": 8584,
      "this": 8585,
      "obic": 8586,
      "Ġque": 8587,
      "Ġdistress": 8588,
      "Ġpainful": 8589,
      "Ġfilled": 8590,
      "ĠService": 8591,
      "Ġrestaurant": 8592,
      "Ġamazing": 8593,
      "Rel": 8594,
      "Section": 8595,
      "Ġtens": 8596,
      "Ġthigh": 8597,
      "agul": 8598,
      "threat": 8599,
      "Ġversions": 8600,
      "Ġsolutions": 8601,
      "Ġmalignancies": 8602,
      "Ġembry": 8603,
      "Ġwood": 8604,
      "icon": 8605,
      "Ġhits": 8606,
      "Ġordered": 8607,
      "mented": 8608,
      "ĠDen": 8609,
      "Ġexaminations": 8610,
      "Ġpuls": 8611,
      "Ġdrag": 8612,
      "Ġepidural": 8613,
      "Ġimmigration": 8614,
      "ĠOklahoma": 8615,
      "HS": 8616,
      "jun": 8617,
      "ua": 8618,
      "lla": 8619,
      "Ġacting": 8620,
      "Ġidentifying": 8621,
      "Ġargued": 8622,
      "Ġcompetitive": 8623,
      "Ġpurchase": 8624,
      "Ġinfectious": 8625,
      "Ġturning": 8626,
      "road": 8627,
      "acin": 8628,
      "Ġweren": 8629,
      "ĠArt": 8630,
      "Ġcompliance": 8631,
      "Hg": 8632,
      "Ġpra": 8633,
      "ĠAR": 8634,
      "Ġseasons": 8635,
      "ĠPan": 8636,
      "eless": 8637,
      "Ġgross": 8638,
      "Ġtransverse": 8639,
      "tyl": 8640,
      "Ġ125": 8641,
      "Ġconcerning": 8642,
      "Ġseriously": 8643,
      "Ġcrypt": 8644,
      "ĠMAIN": 8645,
      "CSF": 8646,
      "ĠProt": 8647,
      "Ġrepresented": 8648,
      "Ġvotes": 8649,
      "Ġhistorical": 8650,
      "CS": 8651,
      "Ġsports": 8652,
      "omed": 8653,
      "ĠLatin": 8654,
      "Ġbiological": 8655,
      "ĠAtlant": 8656,
      "Ġkinds": 8657,
      "Ġsuddenly": 8658,
      "Ġdorsal": 8659,
      "Ġintense": 8660,
      "Ġprelim": 8661,
      "Ġnearby": 8662,
      "Ġconsiderable": 8663,
      "Ġrhythm": 8664,
      "after": 8665,
      "ano": 8666,
      "ushing": 8667,
      "Ġdele": 8668,
      "Ġuniform": 8669,
      "Ġgrown": 8670,
      "Ġcarefully": 8671,
      "ĠClass": 8672,
      "Another": 8673,
      "Ġfavorable": 8674,
      "Ġruling": 8675,
      "Man": 8676,
      "Ĥ¬": 8677,
      "Ġsurprise": 8678,
      "Ġmedicine": 8679,
      "ĠRev": 8680,
      "Ġdescription": 8681,
      "Ġplacement": 8682,
      "Ġideal": 8683,
      "Ġloop": 8684,
      "Ġureth": 8685,
      "Ġpolymorph": 8686,
      "Am": 8687,
      "Even": 8688,
      "ythe": 8689,
      "rage": 8690,
      "Ġserver": 8691,
      "Ġgreatly": 8692,
      "Ġguarant": 8693,
      "Ġprobability": 8694,
      "Ġapps": 8695,
      "Ġadenosine": 8696,
      "Ġseparated": 8697,
      "Ġemployed": 8698,
      "Ġalcoholic": 8699,
      "Over": 8700,
      "Ġtweet": 8701,
      "Ġsport": 8702,
      "amination": 8703,
      "Ġprosecut": 8704,
      "ĠMos": 8705,
      "rene": 8706,
      "Ġquiet": 8707,
      "Ġremark": 8708,
      "oidy": 8709,
      "Ġcorrelate": 8710,
      "Ġinjected": 8711,
      "makers": 8712,
      "Ġton": 8713,
      "onitis": 8714,
      "Ġhal": 8715,
      "Ġcentre": 8716,
      "Ġbroke": 8717,
      "Ġbuildings": 8718,
      "Ġsquare": 8719,
      "Ġdefinitive": 8720,
      "ĠDaily": 8721,
      "Ġendocarditis": 8722,
      "Gl": 8723,
      "Ġwaves": 8724,
      "ĠSum": 8725,
      "Ġorient": 8726,
      "Ġresc": 8727,
      "Ġscar": 8728,
      "Ġethanol": 8729,
      "Ġretrospectively": 8730,
      "car": 8731,
      "ÙĨ": 8732,
      "heimer": 8733,
      "Ġneoplastic": 8734,
      "pel": 8735,
      "Ġdismiss": 8736,
      "Ġcompartment": 8737,
      "Ġ91": 8738,
      "Ġthrombolysis": 8739,
      "Ġabdomen": 8740,
      "Ġtargeted": 8741,
      "Ġessentially": 8742,
      "ĠFrank": 8743,
      "Ġcorticoster": 8744,
      "ĠCarolina": 8745,
      "OL": 8746,
      "umes": 8747,
      "oston": 8748,
      "Ġyouth": 8749,
      "Ġamyl": 8750,
      "Ġregimens": 8751,
      "Ġattorney": 8752,
      "ophosph": 8753,
      "Ġresting": 8754,
      "ministration": 8755,
      "Ġliquid": 8756,
      "First": 8757,
      "Ġfrust": 8758,
      "arcom": 8759,
      "Ġdeploy": 8760,
      "allas": 8761,
      "izz": 8762,
      "Ġdiver": 8763,
      "Ġ2004": 8764,
      "Ġexplo": 8765,
      "Ġseverely": 8766,
      "ĠAdd": 8767,
      "Ġmaterials": 8768,
      "Ġdetectable": 8769,
      "OH": 8770,
      "Us": 8771,
      "Ġnarr": 8772,
      "lyn": 8773,
      "umen": 8774,
      "alls": 8775,
      "ĠLife": 8776,
      "ella": 8777,
      "angement": 8778,
      "aval": 8779,
      "avor": 8780,
      "agnosis": 8781,
      "ographically": 8782,
      "Ġsequel": 8783,
      "Ġdeclared": 8784,
      "ĠStudies": 8785,
      "Ġnormotensive": 8786,
      "300": 8787,
      "odg": 8788,
      "acerb": 8789,
      "Ġleak": 8790,
      "ĠRoad": 8791,
      "Ġdecomp": 8792,
      "paper": 8793,
      "Ġadvent": 8794,
      "Ġwarrant": 8795,
      "Ġpurposes": 8796,
      "Ġprospect": 8797,
      "Ġobviously": 8798,
      "Ġproposal": 8799,
      "Ġseptal": 8800,
      "Ġconcomitant": 8801,
      "ystem": 8802,
      "inum": 8803,
      "ĠStand": 8804,
      "Ġfaces": 8805,
      "Ass": 8806,
      "Ġpromise": 8807,
      "Ġpromote": 8808,
      "Ġempty": 8809,
      "ĠMEAS": 8810,
      "SH": 8811,
      "Ġpages": 8812,
      "Ġstick": 8813,
      "Ġstaging": 8814,
      "opos": 8815,
      "ĠCommon": 8816,
      "ilitation": 8817,
      "Ġexception": 8818,
      "Ġodds": 8819,
      "Ġaccumulation": 8820,
      "Read": 8821,
      "Ġcert": 8822,
      "Ġinput": 8823,
      "Ġresident": 8824,
      "Ġinfiltration": 8825,
      "Ġjour": 8826,
      "Ġlegs": 8827,
      "ĠImmun": 8828,
      "Ġancient": 8829,
      "Ġ(+": 8830,
      "ĠHT": 8831,
      "Ġshall": 8832,
      "Ġsugar": 8833,
      "Ġpossess": 8834,
      "Ġformal": 8835,
      "Ġcytotox": 8836,
      "rimary": 8837,
      "Ġtrouble": 8838,
      "Ġfairly": 8839,
      "ĠFrancisco": 8840,
      "pic": 8841,
      "rex": 8842,
      "Ġlosing": 8843,
      "ĠAL": 8844,
      "ĠGP": 8845,
      "gender": 8846,
      "asic": 8847,
      "Ġmediated": 8848,
      "Ġconfident": 8849,
      "Ġpoliticians": 8850,
      "Ġexcited": 8851,
      "ĠBetween": 8852,
      "ĠChildren": 8853,
      "Ġparallel": 8854,
      "Ġepithelium": 8855,
      "Two": 8856,
      "Ġwire": 8857,
      "Ġlock": 8858,
      "aded": 8859,
      "ĠSar": 8860,
      "uplex": 8861,
      "Ġaband": 8862,
      "Ġbasically": 8863,
      "ĠSpace": 8864,
      "Chapter": 8865,
      "Ġbehavioral": 8866,
      "guinal": 8867,
      ",âĢĻ": 8868,
      "cost": 8869,
      "gic": 8870,
      "max": 8871,
      "amole": 8872,
      "ĠSocial": 8873,
      "ĠDown": 8874,
      "Ġplot": 8875,
      "ĠLew": 8876,
      "Ġregime": 8877,
      "oplasia": 8878,
      "Ġmultic": 8879,
      "Ġlocalization": 8880,
      "Ġnatri": 8881,
      "Ġawareness": 8882,
      "Ġpreferred": 8883,
      "uccessful": 8884,
      "burg": 8885,
      "edy": 8886,
      "Ġbrow": 8887,
      "Ġmaster": 8888,
      "adi": 8889,
      "ĠMu": 8890,
      "Ġquestionna": 8891,
      "Ġcollabor": 8892,
      "Ġreasonable": 8893,
      "Ġdenied": 8894,
      "Ġminority": 8895,
      "esterday": 8896,
      "Ġantagonists": 8897,
      "Ġskeletal": 8898,
      "gor": 8899,
      "Ġsad": 8900,
      "Ġtob": 8901,
      "Ġforget": 8902,
      "adel": 8903,
      "Ġvan": 8904,
      "Ġrational": 8905,
      "ĠHa": 8906,
      "Ġintest": 8907,
      "ĠGM": 8908,
      "Ġ89": 8909,
      "Ġcoordin": 8910,
      "ĠBefore": 8911,
      "Photo": 8912,
      "Image": 8913,
      "08": 8914,
      "During": 8915,
      "uated": 8916,
      "Ġwrap": 8917,
      "Ġvest": 8918,
      "illin": 8919,
      "Ġchor": 8920,
      "Ġtranslation": 8921,
      "Ġrelaps": 8922,
      "issue": 8923,
      "Ġremote": 8924,
      "Ġcolleagues": 8925,
      "Ġviolent": 8926,
      "Ġfeedback": 8927,
      "Ear": 8928,
      "UTC": 8929,
      "noon": 8930,
      "Ġfly": 8931,
      "Ġlac": 8932,
      "Ġgerm": 8933,
      "ĠMen": 8934,
      "Ġlikelihood": 8935,
      "Ġshoulder": 8936,
      "ĠFinally": 8937,
      "mail": 8938,
      "west": 8939,
      "ĠSqu": 8940,
      "ĠExt": 8941,
      "avirus": 8942,
      "ralateral": 8943,
      "Ġnoninvasive": 8944,
      "Ġ1985": 8945,
      "ĠFederal": 8946,
      "yridamole": 8947,
      "threatening": 8948,
      "elect": 8949,
      "ko": 8950,
      "nine": 8951,
      "pore": 8952,
      "rous": 8953,
      "Ġhate": 8954,
      "Ġstores": 8955,
      "Ġcomparing": 8956,
      "Ġrape": 8957,
      "Ġ93": 8958,
      "Ġexplains": 8959,
      "Ġmoves": 8960,
      "Ġlibrary": 8961,
      "Ġantagonist": 8962,
      "Ġsimultaneously": 8963,
      "Ġdatabase": 8964,
      "dl": 8965,
      "istent": 8966,
      "Ġchick": 8967,
      "ĠFree": 8968,
      "derived": 8969,
      "Ġinfrastructure": 8970,
      "ongue": 8971,
      "Ġfeeding": 8972,
      "Ġrelie": 8973,
      "oxic": 8974,
      "azi": 8975,
      "Ġdemonstrates": 8976,
      "Ġfinished": 8977,
      "ĠSteve": 8978,
      "pay": 8979,
      "Ġtur": 8980,
      "Ġatmosp": 8981,
      "Ġcompound": 8982,
      "Ġdesire": 8983,
      "Ġelected": 8984,
      "Ġvariability": 8985,
      "Ġcrimes": 8986,
      "Ġmagnitude": 8987,
      "Ġrevascular": 8988,
      "Ġselling": 8989,
      "Ġrabbits": 8990,
      "human": 8991,
      "Ġice": 8992,
      "itated": 8993,
      "Ġforg": 8994,
      "ĠNSA": 8995,
      "ĠItalian": 8996,
      "Ġevening": 8997,
      "Ġelig": 8998,
      "ĠImages": 8999,
      "ĠColor": 9000,
      "Ġphenotype": 9001,
      "Ġstriking": 9002,
      "Ġhttps": 9003,
      "ĠJeff": 9004,
      "</": 9005,
      "hospital": 9006,
      "mid": 9007,
      "Ã³": 9008,
      "ican": 9009,
      "adrenergic": 9010,
      "ĠCNS": 9011,
      "Ġalt": 9012,
      "Ġcomposed": 9013,
      "Ġscored": 9014,
      "Ġmetal": 9015,
      "Ġhighlight": 9016,
      "Ġbike": 9017,
      "ĠScot": 9018,
      "Ġlisten": 9019,
      "ĠTeam": 9020,
      "Ġmatters": 9021,
      "ĠGlobal": 9022,
      "Ġdynamic": 9023,
      "Ġencountered": 9024,
      "Ġsoul": 9025,
      "ĠCardi": 9026,
      "kel": 9027,
      "Ġperit": 9028,
      "angl": 9029,
      "omycin": 9030,
      "Ġgeneralized": 9031,
      "Ġcurve": 9032,
      "ĠHBV": 9033,
      "Ġhopes": 9034,
      "Ġpreliminary": 9035,
      "SM": 9036,
      "water": 9037,
      "Ġtone": 9038,
      "Ġbat": 9039,
      "asse": 9040,
      "ashed": 9041,
      "Ġreverse": 9042,
      "ĠNote": 9043,
      "Ġenemy": 9044,
      "Ġconfig": 9045,
      "Ġpathological": 9046,
      "Ġsubstit": 9047,
      "Ġpromoter": 9048,
      "factory": 9049,
      "Ġcomplaint": 9050,
      "Ġrecipients": 9051,
      "Ġunexpected": 9052,
      "Ġneighborhood": 9053,
      "Let": 9054,
      "cm": 9055,
      "Ġuro": 9056,
      "arks": 9057,
      "amily": 9058,
      "Ġexacerb": 9059,
      "never": 9060,
      "plicit": 9061,
      "genic": 9062,
      "reland": 9063,
      "Ġcontribution": 9064,
      "Ġproperly": 9065,
      "Ġvoting": 9066,
      "Ġholds": 9067,
      "orius": 9068,
      "Ġexplanation": 9069,
      "kal": 9070,
      "esome": 9071,
      "ĠTR": 9072,
      "uts": 9073,
      "Ġweather": 9074,
      "oding": 9075,
      "ĠBack": 9076,
      "peptide": 9077,
      "Ġtran": 9078,
      "Ġoutl": 9079,
      "Ġspring": 9080,
      "Ġcoast": 9081,
      "Ġhardware": 9082,
      "Ġdetermination": 9083,
      "pers": 9084,
      "Ġbund": 9085,
      "minute": 9086,
      "Ġdrawn": 9087,
      "Ġvideos": 9088,
      "Ġhemorrhagic": 9089,
      "Ġneutral": 9090,
      "ĠParis": 9091,
      "Ġtolerated": 9092,
      "Ġanalgesia": 9093,
      "itic": 9094,
      "Ġyes": 9095,
      "ubicin": 9096,
      "Ġintermittent": 9097,
      "201": 9098,
      "Ġ1984": 9099,
      "evin": 9100,
      "Ġcoffee": 9101,
      "\".[": 9102,
      "His": 9103,
      "Ġtourn": 9104,
      "Ġischa": 9105,
      "Ġprohib": 9106,
      "Ġplenty": 9107,
      "ĠJosh": 9108,
      "Ġcorrection": 9109,
      "Ġautom": 9110,
      "Ġprotests": 9111,
      "ĠMichigan": 9112,
      "Ġsurgeon": 9113,
      "Ġrefe": 9114,
      "ĠBook": 9115,
      "Ġindications": 9116,
      "Ġlegit": 9117,
      "Ġzero": 9118,
      "Ġprinciples": 9119,
      "Ġteaching": 9120,
      "iary": 9121,
      "veolar": 9122,
      "Ġbeats": 9123,
      "Ġexceed": 9124,
      "ques": 9125,
      "Ġcontralateral": 9126,
      "athyroid": 9127,
      "ĠStr": 9128,
      "ĠAnn": 9129,
      "ĠAnalysis": 9130,
      "Ġdepressed": 9131,
      "amps": 9132,
      "Ġexplos": 9133,
      "Ġvoted": 9134,
      "Ġdistributed": 9135,
      "ĠPakistan": 9136,
      "TR": 9137,
      "kins": 9138,
      "ĠPenn": 9139,
      "Ġinteract": 9140,
      "Ġindirect": 9141,
      "ĠChampions": 9142,
      "adequ": 9143,
      "Ġpalsy": 9144,
      "Ġlipoprotein": 9145,
      "Ġcorrectly": 9146,
      "ĠAustralian": 9147,
      "Ġdisappoint": 9148,
      "Ġprincip": 9149,
      "Ġcrack": 9150,
      "Ġtubercul": 9151,
      "Ġroughly": 9152,
      "Ġcomprehensive": 9153,
      "alities": 9154,
      "Ġbought": 9155,
      "Ġect": 9156,
      "oconst": 9157,
      "Ġretail": 9158,
      "Ġfunctioning": 9159,
      "parison": 9160,
      "Ġserving": 9161,
      "Ġpalp": 9162,
      "Ġhematoma": 9163,
      "Ġalbumin": 9164,
      "Ġdistinguish": 9165,
      "Ġmilk": 9166,
      "oblastoma": 9167,
      "Rec": 9168,
      "Ġgather": 9169,
      "Ġisland": 9170,
      "ĠIll": 9171,
      "aming": 9172,
      "Ġsharp": 9173,
      "Ġdefault": 9174,
      "Ġadds": 9175,
      "Ġwarning": 9176,
      "ymp": 9177,
      "Ġcreation": 9178,
      "Ġdysplasia": 9179,
      "Ġgrafting": 9180,
      "Ġparticipate": 9181,
      "ĠSwed": 9182,
[...]
