{
  "version": "1.0",
  "truncation": null,
  "padding": null,
  "added_tokens": [
    {
      "id": 0,
      "content": "[PAD]",
      "single_word": false,
      "lstrip": false,
      "rstrip": false,
      "normalized": false,
      "special": true
    },
    {
      "id": 1,
      "content": "[UNK]",
      "single_word": false,
      "lstrip": false,
      "rstrip": false,
      "normalized": false,
      "special": true
    },
    {
      "id": 2,
      "content": "[CLS]",
      "single_word": false,
      "lstrip": false,
      "rstrip": false,
      "normalized": false,
      "special": true
    },
    {
      "id": 3,
      "content": "[SEP]",
      "single_word": false,
      "lstrip": false,
      "rstrip": false,
      "normalized": false,
      "special": true
    },
    {
      "id": 4,
      "content": "[MASK]",
      "single_word": false,
      "lstrip": false,
      "rstrip": false,
      "normalized": false,
      "special": true
    },
    {
      "id": 5,
      "content": "[BOS]",
      "single_word": false,
      "lstrip": false,
      "rstrip": false,
      "normalized": false,
      "special": true
    },
    {
      "id": 6,
      "content": "[EOS]",
      "single_word": false,
      "lstrip": false,
      "rstrip": false,
      "normalized": false,
      "special": true
    }
  ],
  "normalizer": null,
  "pre_tokenizer": {
    "type": "ByteLevel",
    "add_prefix_space": true,
    "trim_offsets": true,
    "use_regex": true
  },
  "post_processor": null,
  "decoder": null,
  "model": {
    "type": "BPE",
    "dropout": null,
    "unk_token": null,
    "continuing_subword_prefix": null,
    "end_of_word_suffix": null,
    "fuse_unk": false,
    "byte_fallback": false,
    "ignore_merges": false,
    "vocab": {
      "[PAD]": 0,
      "[UNK]": 1,
      "[CLS]": 2,
      "[SEP]": 3,
      "[MASK]": 4,
      "[BOS]": 5,
      "[EOS]": 6,
      "!": 7,
      "\"": 8,
      "#": 9,
      "$": 10,
      "%": 11,
      "&": 12,
      "'": 13,
      "(": 14,
      ")": 15,
      "*": 16,
      "+": 17,
      ",": 18,
      "-": 19,
      ".": 20,
      "/": 21,
      "0": 22,
      "1": 23,
      "2": 24,
      "3": 25,
      "4": 26,
      "5": 27,
      "6": 28,
      "7": 29,
      "8": 30,
      "9": 31,
      ":": 32,
      ";": 33,
      "<": 34,
      "=": 35,
      ">": 36,
      "?": 37,
      "@": 38,
      "A": 39,
      "B": 40,
      "C": 41,
      "D": 42,
      "E": 43,
      "F": 44,
      "G": 45,
      "H": 46,
      "I": 47,
      "J": 48,
      "K": 49,
      "L": 50,
      "M": 51,
      "N": 52,
      "O": 53,
      "P": 54,
      "Q": 55,
      "R": 56,
      "S": 57,
      "T": 58,
      "U": 59,
      "V": 60,
      "W": 61,
      "X": 62,
      "Y": 63,
      "Z": 64,
      "[": 65,
      "\\": 66,
      "]": 67,
      "^": 68,
      "_": 69,
      "`": 70,
      "a": 71,
      "b": 72,
      "c": 73,
      "d": 74,
      "e": 75,
      "f": 76,
      "g": 77,
      "h": 78,
      "i": 79,
      "j": 80,
      "k": 81,
      "l": 82,
      "m": 83,
      "n": 84,
      "o": 85,
      "p": 86,
      "q": 87,
      "r": 88,
      "s": 89,
      "t": 90,
      "u": 91,
      "v": 92,
      "w": 93,
      "x": 94,
      "y": 95,
      "z": 96,
      "{": 97,
      "|": 98,
      "}": 99,
      "~": 100,
      "¡": 101,
      "¢": 102,
      "£": 103,
      "¤": 104,
      "¥": 105,
      "¦": 106,
      "§": 107,
      "¨": 108,
      "©": 109,
      "ª": 110,
      "«": 111,
      "¬": 112,
      "®": 113,
      "¯": 114,
      "°": 115,
      "±": 116,
      "²": 117,
      "³": 118,
      "´": 119,
      "µ": 120,
      "¶": 121,
      "·": 122,
      "¸": 123,
      "¹": 124,
      "º": 125,
      "»": 126,
      "¼": 127,
      "½": 128,
      "¾": 129,
      "¿": 130,
      "Â": 131,
      "Ã": 132,
      "Ä": 133,
      "Å": 134,
      "Æ": 135,
      "Ç": 136,
      "È": 137,
      "É": 138,
      "Ê": 139,
      "Ë": 140,
      "Ì": 141,
      "Í": 142,
      "Î": 143,
      "Ï": 144,
      "Ð": 145,
      "Ñ": 146,
      "Ò": 147,
      "Ó": 148,
      "Ô": 149,
      "Õ": 150,
      "Ö": 151,
      "×": 152,
      "Ø": 153,
      "Ù": 154,
      "Ú": 155,
      "Û": 156,
      "ß": 157,
      "à": 158,
      "á": 159,
      "â": 160,
      "ã": 161,
      "ä": 162,
      "å": 163,
      "æ": 164,
      "ç": 165,
      "è": 166,
      "é": 167,
      "ê": 168,
      "ë": 169,
      "ì": 170,
      "í": 171,
      "î": 172,
      "ï": 173,
      "ð": 174,
      "ò": 175,
      "ó": 176,
      "ô": 177,
      "Ā": 178,
      "ā": 179,
      "Ă": 180,
      "ă": 181,
      "Ą": 182,
      "ą": 183,
      "Ć": 184,
      "ć": 185,
      "Ĉ": 186,
      "Ċ": 187,
      "ċ": 188,
      "Č": 189,
      "Ď": 190,
      "ď": 191,
      "Đ": 192,
      "đ": 193,
      "Ē": 194,
      "ē": 195,
      "Ĕ": 196,
      "ĕ": 197,
      "Ė": 198,
      "ė": 199,
      "Ę": 200,
      "ę": 201,
      "Ě": 202,
      "ě": 203,
      "Ĝ": 204,
      "ĝ": 205,
      "Ğ": 206,
      "ğ": 207,
      "Ġ": 208,
      "ġ": 209,
      "Ģ": 210,
      "ģ": 211,
      "Ĥ": 212,
      "ĥ": 213,
      "Ħ": 214,
      "ħ": 215,
      "Ĩ": 216,
      "ĩ": 217,
      "Ī": 218,
      "ī": 219,
      "Ĭ": 220,
      "ĭ": 221,
      "Į": 222,
      "į": 223,
      "İ": 224,
      "ı": 225,
      "Ĳ": 226,
      "ĳ": 227,
      "Ĵ": 228,
      "ĵ": 229,
      "Ķ": 230,
      "ķ": 231,
      "ĸ": 232,
      "Ĺ": 233,
      "ĺ": 234,
      "Ļ": 235,
      "ļ": 236,
      "Ľ": 237,
      "ľ": 238,
      "Ŀ": 239,
      "ŀ": 240,
      "Ł": 241,
      "ł": 242,
      "Ń": 243,
      "Ġt": 244,
      "in": 245,
      "Ġa": 246,
      "he": 247,
      "re": 248,
      "on": 249,
      "at": 250,
      "Ġs": 251,
      "es": 252,
      "en": 253,
      "er": 254,
      "Ġthe": 255,
      "al": 256,
      "it": 257,
      "Ġw": 258,
      "or": 259,
      "Ġp": 260,
      "Ġc": 261,
      "Ġb": 262,
      "an": 263,
      "Ġin": 264,
      "ou": 265,
      "is": 266,
      "Ġm": 267,
      "ed": 268,
      "Ġf": 269,
      "ing": 270,
      "ic": 271,
      "Ġan": 272,
      "ar": 273,
      "Ġo": 274,
      "ion": 275,
      "Ġto": 276,
      "Ġd": 277,
      "ro": 278,
      "Ġand": 279,
      "ent": 280,
      "Ġh": 281,
      "Ġof": 282,
      "Ġre": 283,
      "Ġl": 284,
      "as": 285,
      "Ġn": 286,
      "Ġth": 287,
      "om": 288,
      "Ġe": 289,
      "im": 290,
      "ly": 291,
      "ve": 292,
      "id": 293,
      "ll": 294,
      "ct": 295,
      "le": 296,
      "Ġy": 297,
      "ul": 298,
      "ation": 299,
      "Ġg": 300,
      "âĢ": 301,
      "st": 302,
      "ĠI": 303,
      "ig": 304,
      "ow": 305,
      "Ġfor": 306,
      "et": 307,
      "Ġyou": 308,
      "ac": 309,
      "ot": 310,
      "ĠT": 311,
      "ment": 312,
      "ur": 313,
      "ol": 314,
      "Ġhe": 315,
      "Ġon": 316,
      "Ġst": 317,
      "Ġbe": 318,
      "Ġby": 319,
      "se": 320,
      "th": 321,
      "ĠA": 322,
      "ak": 323,
      "per": 324,
      "ce": 325,
      "ri": 326,
      "ag": 327,
      "Ġas": 328,
      "ical": 329,
      "ad": 330,
      "Ġis": 331,
      "ith": 332,
      "ff": 333,
      "ers": 334,
      "ay": 335,
      "Ġ1": 336,
      "Ġthat": 337,
      "ra": 338,
      "ĠM": 339,
      "ld": 340,
      "Ġwith": 341,
      "Ġcon": 342,
      "ĠS": 343,
      "are": 344,
      "un": 345,
      "Ġcom": 346,
      "Ġdi": 347,
      "Ġit": 348,
      "Ġex": 349,
      "Ġim": 350,
      "ut": 351,
      "Ġman": 352,
      "ĠC": 353,
      "ch": 354,
      "ect": 355,
      "am": 356,
      "el": 357,
      "ati": 358,
      "ves": 359,
      "out": 360,
      "ear": 361,
      "res": 362,
      "Ġimp": 363,
      "os": 364,
      "Ġare": 365,
      "um": 366,
      "ver": 367,
      "Ġpro": 368,
      "Ġwe": 369,
      "ies": 370,
      "âĢĻ": 371,
      "alth": 372,
      "ĠN": 373,
      "cri": 374,
      "atient": 375,
      "Ġwh": 376,
      "Ġpatient": 377,
      "00": 378,
      "ess": 379,
      "ake": 380,
      "op": 381,
      "ate": 382,
      "Ġne": 383,
      "us": 384,
      "ir": 385,
      "ĠP": 386,
      "ab": 387,
      "reat": 388,
      "Ġha": 389,
      "du": 390,
      "ĠH": 391,
      "and": 392,
      "ĠThe": 393,
      "Ġsh": 394,
      "em": 395,
      "ist": 396,
      "vid": 397,
      "ain": 398,
      "ity": 399,
      "ill": 400,
      "Ġ5": 401,
      "Ġsc": 402,
      "il": 403,
      "Ġlo": 404,
      "Ġch": 405,
      "enc": 406,
      "sion": 407,
      "ts": 408,
      "ron": 409,
      "Ġint": 410,
      "ates": 411,
      "ov": 412,
      "ĠR": 413,
      "Ġreg": 414,
      "if": 415,
      "ular": 416,
      "Ġind": 417,
      "ffect": 418,
      "Ġwas": 419,
      "her": 420,
      "Ġsur": 421,
      "od": 422,
      "all": 423,
      "ard": 424,
      "Ġ(": 425,
      "ud": 426,
      "ĠG": 427,
      "Ġhave": 428,
      "Ġor": 429,
      "ie": 430,
      "ĠE": 431,
      "Ġout": 432,
      "Ġtreat": 433,
      "Ġmanag": 434,
      "itor": 435,
      "Ġimpro": 436,
      "Ġat": 437,
      "ienc": 438,
      "oc": 439,
      "Ġthis": 440,
      "uro": 441,
      "Ġpatients": 442,
      "Ġredu": 443,
      "Ġtreatment": 444,
      "crib": 445,
      "Ġhy": 446,
      "ffects": 447,
      "pt": 448,
      "og": 449,
      "ealth": 450,
      "our": 451,
      "Ġregular": 452,
      "ore": 453,
      "Ġsurg": 454,
      "cribed": 455,
      "use": 456,
      "care": 457,
      "ĠO": 458,
      "Ġnot": 459,
      "Ġyour": 460,
      "Ġtr": 461,
      "Ġtim": 462,
      "Ġmanaging": 463,
      "rescribed": 464,
      "Ġad": 465,
      "Ġ2": 466,
      "Ġcomp": 467,
      "pp": 468,
      "igh": 469,
      "ub": 470,
      "ual": 471,
      "ould": 472,
      "ide": 473,
      "age": 474,
      "ions": 475,
      "ĠB": 476,
      "Ġse": 477,
      "ĠTh": 478,
      "ue": 479,
      "ter": 480,
      "Ġr": 481,
      "Ġk": 482,
      "ĠW": 483,
      "ated": 484,
      "Ġcont": 485,
      "ib": 486,
      "Ġ3": 487,
      "ase": 488,
      "ame": 489,
      "ans": 490,
      "Ġcan": 491,
      "oun": 492,
      "Ġno": 493,
      "rom": 494,
      "ations": 495,
      "ust": 496,
      "ign": 497,
      "ug": 498,
      "Ġde": 499,
      "oll": 500,
      "Ġv": 501,
      "ant": 502,
      "ary": 503,
      "ome": 504,
      "Ġal": 505,
      "Ġme": 506,
      "vel": 507,
      "Ġdo": 508,
      "lic": 509,
      "Ġab": 510,
      "est": 511,
      "Ġ4": 512,
      "Ġinf": 513,
      "ĠD": 514,
      "ĠAn": 515,
      "ild": 516,
      "ause": 517,
      "Ġro": 518,
      "ure": 519,
      "Ġgo": 520,
      "Ġfrom": 521,
      "ise": 522,
      "ten": 523,
      "..": 524,
      "Ġmon": 525,
      "ĠF": 526,
      "Ġall": 527,
      "Ġmy": 528,
      "lin": 529,
      "up": 530,
      "Ġcomm": 531,
      "hed": 532,
      "old": 533,
      "ok": 534,
      "ĠV": 535,
      "art": 536,
      "Ġwill": 537,
      "Ġ6": 538,
      "Ġstud": 539,
      "'s": 540,
      "ĠThis": 541,
      "Ġwor": 542,
      "ĠâĢ": 543,
      "ily": 544,
      "ight": 545,
      "ments": 546,
      "ating": 547,
      "Ġpers": 548,
      "Ġj": 549,
      "ive": 550,
      "qu": 551,
      "Ġbut": 552,
      "dit": 553,
      "Ġass": 554,
      "ort": 555,
      "Ġrem": 556,
      "Ġshow": 557,
      "Ġtake": 558,
      "Ġsm": 559,
      "Ġsy": 560,
      "end": 561,
      "ath": 562,
      "ces": 563,
      "oci": 564,
      "olog": 565,
      "rap": 566,
      "Ġexper": 567,
      "rain": 568,
      "ollow": 569,
      "Ġprovid": 570,
      "iness": 571,
      "be": 572,
      "rect": 573,
      "ost": 574,
      "An": 575,
      "Ġfollow": 576,
      "Ġso": 577,
      "gh": 578,
      "stem": 579,
      "ffic": 580,
      "hes": 581,
      "Ġun": 582,
      "ĠL": 583,
      "Ġtrans": 584,
      "ĠNe": 585,
      "ough": 586,
      "Ġsystem": 587,
      "Ġli": 588,
      "arm": 589,
      "Ġhealth": 590,
      "erc": 591,
      "Ġwhe": 592,
      "Ġadv": 593,
      "ke": 594,
      "ared": 595,
      "Ġthey": 596,
      "ublic": 597,
      "ption": 598,
      "Ġinv": 599,
      "vest": 600,
      "pit": 601,
      "Ġcommun": 602,
      "Ġhead": 603,
      "Ġ15": 604,
      "tal": 605,
      "lu": 606,
      "ines": 607,
      "Ġsmall": 608,
      "The": 609,
      "ology": 610,
      "Ġstudy": 611,
      "Ġwa": 612,
      "Ġstand": 613,
      "Ġdirect": 614,
      "rol": 615,
      "ults": 616,
      "Ġup": 617,
      "mis": 618,
      "very": 619,
      "Ġus": 620,
      "ere": 621,
      "Ġtimes": 622,
      "Ġinvest": 623,
      "Ġroom": 624,
      "ast": 625,
      "reak": 626,
      "Ġsal": 627,
      "ivid": 628,
      "Ġpop": 629,
      "ised": 630,
      "Ġben": 631,
      "ividual": 632,
      "earch": 633,
      "ulation": 634,
      "rug": 635,
      "Ġsp": 636,
      "Ġindividual": 637,
      "imit": 638,
      "umm": 639,
      "Ġwait": 640,
      "ination": 641,
      "Ġpl": 642,
      "Ġcontrol": 643,
      "Ġcondit": 644,
      "Ġpain": 645,
      "Ġda": 646,
      "For": 647,
      "Ġfat": 648,
      "ĠRes": 649,
      "Ġinvol": 650,
      "Ġoper": 651,
      "Ġmas": 652,
      "pital": 653,
      "Ġlimit": 654,
      "Ġ100": 655,
      "ther": 656,
      "Ġcommunity": 657,
      "mission": 658,
      "âĢĿ": 659,
      "Ġindic": 660,
      "edical": 661,
      "Ġ50": 662,
      "eries": 663,
      "Ġassoci": 664,
      "Ġimprove": 665,
      "hib": 666,
      "ief": 667,
      "Ġfron": 668,
      "Ġstandard": 669,
      "urop": 670,
      "year": 671,
      "Ġexperienc": 672,
      "Ġ40": 673,
      "zz": 674,
      "Ġconditions": 675,
      "ospital": 676,
      "uid": 677,
      "Ġinn": 678,
      "ack": 679,
      "Ġshows": 680,
      "Ġinvestig": 681,
      "Ġinflu": 682,
      "acc": 683,
      "ĠHealth": 684,
      "linical": 685,
      "Ġtherap": 686,
      "Ġeffic": 687,
      "RI": 688,
      "Ġcompared": 689,
      "itors": 690,
      "Ġassociated": 691,
      "cem": 692,
      "ronic": 693,
      "umor": 694,
      "Ġbrain": 695,
      "urb": 696,
      "Ġsu": 697,
      "het": 698,
      "cription": 699,
      "Ġexerc": 700,
      "Ġhospital": 701,
      "Ġimple": 702,
      "Ġdaily": 703,
      "aches": 704,
      "Ġ35": 705,
      "CE": 706,
      "istent": 707,
      "Ġpopulation": 708,
      "Ġremov": 709,
      "abet": 710,
      "Ġfollowed": 711,
      "Ġreduce": 712,
      "harm": 713,
      "pot": 714,
      "Ġabout": 715,
      "Ġone": 716,
      "Ġexercise": 717,
      "Ġinfluen": 718,
      "iency": 719,
      "Ġnovel": 720,
      "Ġinnov": 721,
      "Ġinhib": 722,
      "Ġtumor": 723,
      "za": 724,
      "Ġmonitor": 725,
      "Ġexperiences": 726,
      "harmac": 727,
      "Ġ65": 728,
      "Ġhyper": 729,
      "elines": 730,
      "abetes": 731,
      "escription": 732,
      "tension": 733,
      "hedul": 734,
      "Ġ500": 735,
      "uidelines": 736,
      "Ġoperating": 737,
      "Res": 738,
      "Ġsalt": 739,
      "urban": 740,
      "Ġschedul": 741,
      "dates": 742,
      "Ġimprovement": 743,
      "Ġindicate": 744,
      "Ġchronic": 745,
      "Ġefficiency": 746,
      "Ġhealthcare": 747,
      "Ġregularly": 748,
      "Ġdiabetes": 749,
      "%.": 750,
      "Ġmore": 751,
      "Ġscan": 752,
      "Ġmonitoring": 753,
      "Ġproviders": 754,
      "ummary": 755,
      "break": 756,
      "ind": 757,
      "Ġinvolves": 758,
      "Ġhypot": 759,
      "ĠNeuro": 760,
      "Ġmg": 761,
      "Ġurban": 762,
      "Ġinnovation": 763,
      "Ġremoval": 764,
      "Ġsurgical": 765,
      "Ġdirected": 766,
      "igue": 767,
      "ĠResults": 768,
      "Ġintake": 769,
      "Ġtransmission": 770,
      "Ġaffects": 771,
      "ĠOper": 772,
      "ĠCase": 773,
      "Ġmask": 774,
      "Ġgly": 775,
      "Ġreduces": 776,
      "Ġadvised": 777,
      "Ġprescribed": 778,
      "ĠEffects": 779,
      "Ġfatigue": 780,
      "Rel": 781,
      "ĠName": 782,
      "Ġhypertension": 783,
      "Ġtherapies": 784,
      "Ġimproves": 785,
      "Ġinhibitors": 786,
      "Health": 787,
      "Ġpersistent": 788,
      "ĠMRI": 789,
      "athic": 790,
      "accination": 791,
      "Ġoutbreak": 792,
      "osage": 793,
      "Ġnause": 794,
      "hetical": 795,
      "Ġneurop": 796,
      "Research": 797,
      "ĠGuidelines": 798,
      "Ġscheduling": 799,
      "Ġheadaches": 800,
      "Ġnausea": 801,
      "Public": 802,
      "Description": 803,
      "Ġdizz": 804,
      "ĠOperations": 805,
      "ĠSummary": 806,
      "Ġinfluenza": 807,
      "Ġbenign": 808,
      "Ġsurgeries": 809,
      "cemic": 810,
      "ĠACE": 811,
      "harmacology": 812,
      "Ġhypothetical": 813,
      "Medical": 814,
      "Ġfrontal": 815,
      "Ġdizziness": 816,
      "Side": 817,
      "Ġlobe": 818,
      "Drug": 819,
      "ĠMild": 820,
      "Ġmandates": 821,
      "Ġglycemic": 822,
      "Clinical": 823,
      "Ġimplements": 824,
      "Ġinvestigates": 825,
      "Ġneuropathic": 826,
      "Healthcare": 827,
      "ĠVaccination": 828,
      "Relief": 829,
      "ĠPrescribed": 830,
      "Dosage": 831,
      "Pharmacology": 832,
      "ĠNeuroRelief": 833,
      "Ġhas": 834,
      "Ġle": 835,
      "one": 836,
      "ial": 837,
      "ge": 838,
      "ich": 839,
      "ice": 840,
      "ound": 841,
      "act": 842,
      "Ġkn": 843,
      "ĠJ": 844,
      "iv": 845,
      "Ġsa": 846,
      "Ġlike": 847,
      "Ġwho": 848,
      "Ġtheir": 849,
      "Ġhis": 850,
      "ite": 851,
      "'t": 852,
      "ous": 853,
      "Ġany": 854,
      "Ġsome": 855,
      "der": 856,
      "Ġget": 857,
      "Ġfe": 858,
      "Ġen": 859,
      "able": 860,
      "Ġtime": 861,
      "ip": 862,
      "Ġthere": 863,
      "Ġwhat": 864,
      "Ġ\"": 865,
      "Ġif": 866,
      "Ġwould": 867,
      "ĠY": 868,
      "ep": 869,
      "Ġhad": 870,
      "Ġar": 871,
      "Ġac": 872,
      "Ġwere": 873,
      "Ġthem": 874,
      "Ġour": 875,
      "Ġknow": 876,
      "ink": 877,
      "orm": 878,
      "ance": 879,
      "Ġjust": 880,
      "Ġ20": 881,
      "Ġbeen": 882,
      "Ġres": 883,
      "Ġwhich": 884,
      "Ġother": 885,
      "ell": 886,
      "ays": 887,
      "ong": 888,
      "ine": 889,
      "Ġwork": 890,
      "ĠIn": 891,
      "ally": 892,
      "iz": 893,
      "Ġher": 894,
      "ace": 895,
      "ven": 896,
      "ec": 897,
      "Ġag": 898,
      "Ġpe": 899,
      "Ġwhen": 900,
      "pl": 901,
      "ose": 902,
      "Ġapp": 903,
      "Ġyear": 904,
      "Ġthan": 905,
      "ĠâĢľ": 906,
      "ry": 907,
      "Ġcl": 908,
      "Ġam": 909,
      "Ġinc": 910,
      "so": 911,
      "Ġpre": 912,
      "Ġoff": 913,
      "ople": 914,
      "ĠIt": 915,
      "ence": 916,
      "ach": 917,
      "ail": 918,
      "ree": 919,
      "Ġhow": 920,
      "nt": 921,
      "ings": 922,
      "ks": 923,
      "ĠU": 924,
      "Ġshe": 925,
      "Ġper": 926,
      "ber": 927,
      "Ġpeople": 928,
      "ap": 929,
      "Ġqu": 930,
      "Ġneed": 931,
      "Ġdis": 932,
      "red": 933,
      "Ġover": 934,
      "ile": 935,
      "ult": 936,
      "erv": 937,
      "Ġte": 938,
      "Ġsaid": 939,
      "Ġlook": 940,
      "hing": 941,
      "ia": 942,
      "Ġpart": 943,
      "Ġbec": 944,
      "Ġnew": 945,
      "cess": 946,
      "Ġbl": 947,
      "Ġalso": 948,
      "Th": 949,
      "ĠK": 950,
      "Ġdon": 951,
      "te": 952,
      "Ġact": 953,
      "Ġsee": 954,
      "Ġinto": 955,
      "ress": 956,
      "Ġrec": 957,
      "Ġthink": 958,
      "ang": 959,
      "ook": 960,
      "Ġmay": 961,
      "Ġcould": 962,
      "fter": 963,
      "wn": 964,
      "ood": 965,
      "Ġhim": 966,
      "ount": 967,
      "Ġmake": 968,
      "Ġgood": 969,
      "ass": 970,
      "Ġvery": 971,
      "uch": 972,
      "...": 973,
      "ful": 974,
      "Ġgr": 975,
      "ark": 976,
      "Ġbet": 977,
      "Ġwant": 978,
      ").": 979,
      "Ġdid": 980,
      "Ġonly": 981,
      "Ġ-": 982,
      "ord": 983,
      "Ġevery": 984,
      "oy": 985,
      "ick": 986,
      "irst": 987,
      "10": 988,
      "ting": 989,
      "Ġback": 990,
      "Ġtw": 991,
      "ck": 992,
      "own": 993,
      "ade": 994,
      ".;": 995,
      "ious": 996,
      "ning": 997,
      "ru": 998,
      "sel": 999,
      "oin": 1000,
      "lp": 1001,
      "ents": 1002,
      "Ġ[": 1003,
      "rough": 1004,
      "ors": 1005,
      "Ġmuch": 1006,
      "Ġnow": 1007,
      "ĠSt": 1008,
      "ater": 1009,
      "Ġthese": 1010,
      "Ġunder": 1011,
      "Ġshould": 1012,
      "Ġway": 1013,
      "Ġhelp": 1014,
      "ond": 1015,
      "ory": 1016,
      "ving": 1017,
      "ey": 1018,
      "ens": 1019,
      "ob": 1020,
      "fore": 1021,
      "Ġwell": 1022,
      "ĠCh": 1023,
      "20": 1024,
      "ons": 1025,
      "Ġuse": 1026,
      "Ġmost": 1027,
      "Ġem": 1028,
      "rit": 1029,
      "âĢľ": 1030,
      "Ġhere": 1031,
      "Ġrep": 1032,
      "Ġfirst": 1033,
      "Ġeven": 1034,
      "ĠWe": 1035,
      ".\"": 1036,
      "Ġgreat": 1037,
      "ove": 1038,
      "we": 1039,
      "Ġ201": 1040,
      "Ġcons": 1041,
      "Ġthen": 1042,
      "ire": 1043,
      "omet": 1044,
      "ish": 1045,
      "hen": 1046,
      "ife": 1047,
      "ĠYou": 1048,
      "ction": 1049,
      "itt": 1050,
      "Ġafter": 1051,
      "ren": 1052,
      "Ġyears": 1053,
      "Ġreally": 1054,
      "Ġexp": 1055,
      "ific": 1056,
      "Ġdes": 1057,
      "Ġits": 1058,
      "Ġread": 1059,
      "Ġpr": 1060,
      "hat": 1061,
      "ss": 1062,
      "Ġtwo": 1063,
      "Ġmany": 1064,
      "Ġ0": 1065,
      ".âĢĿ": 1066,
      "Ġthrough": 1067,
      "Ġbecause": 1068,
      "av": 1069,
      "day": 1070,
      "Ġwhere": 1071,
      "ys": 1072,
      "Ġrel": 1073,
      "Ġacc": 1074,
      "Ġph": 1075,
      "ffere": 1076,
      "lud": 1077,
      "Ġlong": 1078,
      "ĠâĢĵ": 1079,
      "ject": 1080,
      "Ġfind": 1081,
      "ool": 1082,
      "oss": 1083,
      "ple": 1084,
      "Ġthough": 1085,
      "ty": 1086,
      "Ġsay": 1087,
      "ative": 1088,
      "Ġbu": 1089,
      "Ġ10": 1090,
      "ble": 1091,
      "Ġday": 1092,
      "Ġdoes": 1093,
      "ĠHe": 1094,
      "Ġdec": 1095,
      "row": 1096,
      "âĢ¦": 1097,
      "les": 1098,
      "Ġagain": 1099,
      "other": 1100,
      "Ġsuch": 1101,
      "Ġright": 1102,
      "iew": 1103,
      "tain": 1104,
      "xt": 1105,
      "Ġgoing": 1106,
      "Ġsupp": 1107,
      "aking": 1108,
      "ict": 1109,
      "It": 1110,
      "Ġown": 1111,
      "Ġ7": 1112,
      "Ġdown": 1113,
      "Ġthose": 1114,
      "âĢĵ": 1115,
      "ef": 1116,
      "Ġbefore": 1117,
      "Ġdiffere": 1118,
      "self": 1119,
      "urn": 1120,
      "ms": 1121,
      "Ġsomet": 1122,
      "ased": 1123,
      "ities": 1124,
      "Ġaw": 1125,
      "11": 1126,
      "the": 1127,
      "Ġbeing": 1128,
      "ible": 1129,
      "get": 1130,
      "Ġfun": 1131,
      "ility": 1132,
      "ually": 1133,
      "Ġsub": 1134,
      "Ġtoo": 1135,
      "Ġpost": 1136,
      "anc": 1137,
      "ange": 1138,
      "Ġ8": 1139,
      "ft": 1140,
      "),": 1141,
      "Ġbel": 1142,
      "Ġinform": 1143,
      "Ġgu": 1144,
      "Ġins": 1145,
      "bs": 1146,
      "ved": 1147,
      "Ġstart": 1148,
      "Ġinclud": 1149,
      "alk": 1150,
      "ition": 1151,
      "Ġ9": 1152,
      "Ġgen": 1153,
      "Ġperson": 1154,
      "Ġfl": 1155,
      "Ġcar": 1156,
      "form": 1157,
      "Ġmade": 1158,
      "Ġwee": 1159,
      "ract": 1160,
      "Ġserv": 1161,
      "In": 1162,
      "Ġprodu": 1163,
      "ĠAnd": 1164,
      "Ġlove": 1165,
      "oth": 1166,
      "Ġhapp": 1167,
      "ne": 1168,
      "Ġco": 1169,
      "ied": 1170,
      "ittle": 1171,
      "ian": 1172,
      "Ġstill": 1173,
      "ank": 1174,
      "Ġlife": 1175,
      "Ġbus": 1176,
      "aw": 1177,
      "Ġfeel": 1178,
      "Ġatt": 1179,
      "Ġi": 1180,
      "Ġche": 1181,
      "We": 1182,
      "'m": 1183,
      "Ġend": 1184,
      "Ġinter": 1185,
      "ps": 1186,
      "Ġthings": 1187,
      "Ġbr": 1188,
      "Ġent": 1189,
      "Ġhigh": 1190,
      "Ġresp": 1191,
      "thing": 1192,
      "12": 1193,
      "com": 1194,
      "Ġke": 1195,
      "ave": 1196,
      "Ġsec": 1197,
      "uring": 1198,
      "ices": 1199,
      "ram": 1200,
      "Ġ19": 1201,
      "Ġspec": 1202,
      "Ġlittle": 1203,
      "ics": 1204,
      "ident": 1205,
      "Ġlot": 1206,
      "Ġsim": 1207,
      "ways": 1208,
      "Ġfin": 1209,
      "ures": 1210,
      "ience": 1211,
      "ever": 1212,
      "ĠBut": 1213,
      "Ġhand": 1214,
      "Ġused": 1215,
      "You": 1216,
      "Ġadd": 1217,
      "Ġsomething": 1218,
      "13": 1219,
      "oint": 1220,
      "ross": 1221,
      "Ġlast": 1222,
      "Ġbest": 1223,
      "This": 1224,
      "Ġset": 1225,
      "Ġsign": 1226,
      "Ġsame": 1227,
      "Ġfew": 1228,
      "riend": 1229,
      "Ġplay": 1230,
      "ĠĠ": 1231,
      "Ġmin": 1232,
      "als": 1233,
      "ĠIf": 1234,
      "14": 1235,
      "Ġdisc": 1236,
      "Ġev": 1237,
      "Ġmet": 1238,
      "Ġcall": 1239,
      "Ġpres": 1240,
      "Ġgot": 1241,
      "Ġinformation": 1242,
      "Ġchild": 1243,
      "any": 1244,
      "Ġinst": 1245,
      "ower": 1246,
      "Ġcome": 1247,
      ",\"": 1248,
      "25": 1249,
      "read": 1250,
      "ward": 1251,
      "ational": 1252,
      "ince": 1253,
      "Ġdet": 1254,
      "Ġreal": 1255,
      "erest": 1256,
      "Ġfam": 1257,
      "Ġworld": 1258,
      "Ġaround": 1259,
      "Ġtry": 1260,
      "Ġdifferent": 1261,
      "Ġsure": 1262,
      "If": 1263,
      "lect": 1264,
      "ween": 1265,
      "Ġhome": 1266,
      "Ġlet": 1267,
      "Ġmod": 1268,
      "Ġwhile": 1269,
      "Ġop": 1270,
      "Ġnever": 1271,
      "15": 1272,
      "ull": 1273,
      "Ġeach": 1274,
      "Ġrequ": 1275,
      "Ġbook": 1276,
      "ock": 1277,
      "Ġcre": 1278,
      "Ġcare": 1279,
      "Ġfound": 1280,
      "air": 1281,
      "ason": 1282,
      "Ġcour": 1283,
      "Ġnum": 1284,
      "ered": 1285,
      "Ġdef": 1286,
      "its": 1287,
      "ues": 1288,
      "gan": 1289,
      "led": 1290,
      "Ġart": 1291,
      "Ġfact": 1292,
      "velop": 1293,
      "Ġbetween": 1294,
      "erm": 1295,
      "ness": 1296,
      "Ġvis": 1297,
      "hip": 1298,
      "Ġwon": 1299,
      "mer": 1300,
      "Ġask": 1301,
      "Ġbusiness": 1302,
      "Ġalways": 1303,
      "Ġpol": 1304,
      "ional": 1305,
      "ced": 1306,
      "tt": 1307,
      "tern": 1308,
      "Ġmight": 1309,
      "Ġbetter": 1310,
      "Ġet": 1311,
      "Ġear": 1312,
      "ata": 1313,
      "yp": 1314,
      "ection": 1315,
      "Ġkeep": 1316,
      "Ġmust": 1317,
      "ix": 1318,
      "Ġplace": 1319,
      "lease": 1320,
      "akes": 1321,
      "ĠUn": 1322,
      "Ġgl": 1323,
      "ph": 1324,
      "ee": 1325,
      "24": 1326,
      "ants": 1327,
      "ouse": 1328,
      "Ġ$": 1329,
      "eg": 1330,
      "Ġfriend": 1331,
      "Ġput": 1332,
      "Ġinterest": 1333,
      "ient": 1334,
      "Ġseem": 1335,
      "ĠThey": 1336,
      "Ġav": 1337,
      "cer": 1338,
      "ody": 1339,
      "to": 1340,
      "Ġloc": 1341,
      "ute": 1342,
      "ax": 1343,
      "Ġweek": 1344,
      "chool": 1345,
      "uc": 1346,
      "Ġref": 1347,
      "ng": 1348,
      "ork": 1349,
      "Ġcount": 1350,
      "Ġcomple": 1351,
      "Ġprog": 1352,
      "Ġmonth": 1353,
      "Ġeas": 1354,
      "19": 1355,
      "Ġob": 1356,
      "'re": 1357,
      "Ġquest": 1358,
      "Ġval": 1359,
      "Ġusing": 1360,
      "omm": 1361,
      "Ġmat": 1362,
      "Ġcle": 1363,
      "ution": 1364,
      "Ġcur": 1365,
      "Ġthing": 1366,
      "!!": 1367,
      "ner": 1368,
      "Ġmem": 1369,
      "Ġchar": 1370,
      "Ġmark": 1371,
      "'ve": 1372,
      "ention": 1373,
      "ope": 1374,
      "Ġboth": 1375,
      "16": 1376,
      "Ġconf": 1377,
      "stand": 1378,
      "ize": 1379,
      "Ġide": 1380,
      ",âĢĿ": 1381,
      "Ġtri": 1382,
      "Ġlear": 1383,
      "Ġimport": 1384,
      "uth": 1385,
      "Ġlist": 1386,
      "Ġold": 1387,
      "iss": 1388,
      "line": 1389,
      "hy": 1390,
      "Ġca": 1391,
      "Ġposs": 1392,
      "Ġwithout": 1393,
      "Ġcor": 1394,
      "Ġgrou": 1395,
      "Ġblog": 1396,
      "Ġgive": 1397,
      "Ġwrit": 1398,
      "30": 1399,
      "Ġdevelop": 1400,
      "ric": 1401,
      "Ġnext": 1402,
      "ather": 1403,
      "ages": 1404,
      "Ġappro": 1405,
      "Ġcoll": 1406,
      "Ġsl": 1407,
      ".,": 1408,
      "ically": 1409,
      "cept": 1410,
      "Ġpartic": 1411,
      "Ġanother": 1412,
      "chn": 1413,
      "18": 1414,
      "less": 1415,
      "cc": 1416,
      "Ġ200": 1417,
      "Ġproble": 1418,
      "io": 1419,
      "Ġed": 1420,
      "ized": 1421,
      "Ġbo": 1422,
      "ĠThere": 1423,
      "nce": 1424,
      "Ġ12": 1425,
      "ds": 1426,
      "17": 1427,
      "Ġplan": 1428,
      "ah": 1429,
      "ited": 1430,
      "Ġgener": 1431,
      "Ġsit": 1432,
      "Ġret": 1433,
      "Ġprocess": 1434,
      "Ġrun": 1435,
      "'ll": 1436,
      "Ġsupport": 1437,
      "Ġthree": 1438,
      "Ġsite": 1439,
      "Ġwom": 1440,
      "az": 1441,
      "Ġsk": 1442,
      "Ġdidn": 1443,
      "ime": 1444,
      "Ġwhy": 1445,
      "Ġform": 1446,
      "Ġel": 1447,
      "Ġdays": 1448,
      "Ġhard": 1449,
      "Ġtell": 1450,
      "Ġincre": 1451,
      "Ġiss": 1452,
      "Ġmed": 1453,
      "con": 1454,
      "qual": 1455,
      "li": 1456,
      "ired": 1457,
      "Ġdep": 1458,
      "ature": 1459,
      "Ġvar": 1460,
      "Ġlead": 1461,
      "Ġpur": 1462,
      "ieve": 1463,
      "ably": 1464,
      "arch": 1465,
      "ĠHow": 1466,
      "rong": 1467,
      "ense": 1468,
      "Ġ.": 1469,
      "Ġtop": 1470,
      "ead": 1471,
      "Ġbig": 1472,
      "Ġdata": 1473,
      "here": 1474,
      "ially": 1475,
      "atch": 1476,
      "Ġpay": 1477,
      "Ġsince": 1478,
      "Ġduring": 1479,
      "23": 1480,
      "Ġpoint": 1481,
      "Ġ14": 1482,
      "Ġproduct": 1483,
      "ĠPro": 1484,
      "of": 1485,
      "And": 1486,
      "Ġdist": 1487,
      "Ġext": 1488,
      "What": 1489,
      "Ġlevel": 1490,
      "ertain": 1491,
      "Ġnumber": 1492,
      "Ġopen": 1493,
      "ĠAs": 1494,
      "Ġaway": 1495,
      "ets": 1496,
      "Ġtyp": 1497,
      "ĠShe": 1498,
      "ety": 1499,
      "Ġimportant": 1500,
      "Ġfamily": 1501,
      "Ġprof": 1502,
      "ew": 1503,
      "Ġable": 1504,
      "ately": 1505,
      "Ġrest": 1506,
      "//": 1507,
      "Ġkind": 1508,
      "Ġschool": 1509,
      "Ġfree": 1510,
      "rib": 1511,
      "Ġstate": 1512,
      "Ġless": 1513,
      "000": 1514,
      "Ġlar": 1515,
      "vern": 1516,
      "view": 1517,
      "Ġtra": 1518,
      "Ġexam": 1519,
      "Ġlooking": 1520,
      "ĠFor": 1521,
      "anks": 1522,
      "Ġunderstand": 1523,
      "Ġsol": 1524,
      "erg": 1525,
      "Ġdri": 1526,
      "Ġthought": 1527,
      "Ġever": 1528,
      "ruct": 1529,
      "icle": 1530,
      "ex": 1531,
      "ĠThat": 1532,
      "ĠCon": 1533,
      "Ġdone": 1534,
      "Ġtalk": 1535,
      "ider": 1536,
      "Ġ13": 1537,
      "22": 1538,
      "Ġdesign": 1539,
      "Ġ'": 1540,
      "ĠAl": 1541,
      "ĠZ": 1542,
      "ted": 1543,
      "Ġdel": 1544,
      "pect": 1545,
      "Ġcontin": 1546,
      "Ġturn": 1547,
      "Ġmean": 1548,
      "://": 1549,
      "ins": 1550,
      "50": 1551,
      "Ġmain": 1552,
      "Ġexpl": 1553,
      "Ġwebs": 1554,
      "Ġcourse": 1555,
      "ĠSo": 1556,
      "Ġpar": 1557,
      "Ġenough": 1558,
      "ases": 1559,
      "Ġeffect": 1560,
      "Ġpri": 1561,
      "Ġhour": 1562,
      "ished": 1563,
      "âĢĶ": 1564,
      "amp": 1565,
      "Ġjob": 1566,
      "Ġavail": 1567,
      "me": 1568,
      "Ġmoney": 1569,
      "--": 1570,
      "uck": 1571,
      "rent": 1572,
      "Ġgiv": 1573,
      "Ġtechn": 1574,
      "Ġdoing": 1575,
      "cl": 1576,
      "There": 1577,
      "ale": 1578,
      "Ġpos": 1579,
      "ĠÂ": 1580,
      "Ġcr": 1581,
      "Ġsoci": 1582,
      "ustom": 1583,
      "Ġcell": 1584,
      "Ġrece": 1585,
      "bers": 1586,
      "Ġcase": 1587,
      "ash": 1588,
      "Ġallow": 1589,
      "til": 1590,
      "orts": 1591,
      "Ġteam": 1592,
      "Ġleast": 1593,
      "joy": 1594,
      "Ġprev": 1595,
      "Ġhaving": 1596,
      "ploy": 1597,
      "ural": 1598,
      "Ġanal": 1599,
      "gest": 1600,
      "Ġbit": 1601,
      "ĠWhat": 1602,
      "Ġexperience": 1603,
      "pr": 1604,
      "But": 1605,
      "Ġopp": 1606,
      "Ġchildren": 1607,
      "Ġwater": 1608,
      "Ġmarket": 1609,
      "As": 1610,
      "Ġstr": 1611,
      "Ġbuild": 1612,
      "Ġmaking": 1613,
      "Ġpublic": 1614,
      "ars": 1615,
      "Ġreport": 1616,
      "Ġchange": 1617,
      "Ġbro": 1618,
      "Ġcost": 1619,
      "ism": 1620,
      "Ġactually": 1621,
      "pec": 1622,
      "ned": 1623,
      "Ġser": 1624,
      "Ġcho": 1625,
      "osed": 1626,
      "Ġra": 1627,
      "Ġdoesn": 1628,
      "ember": 1629,
      "Ġgetting": 1630,
      "meric": 1631,
      "Ġorgan": 1632,
      "ready": 1633,
      "ration": 1634,
      "Ġbeh": 1635,
      "ĠSc": 1636,
      "Ġmind": 1637,
      "Ġhum": 1638,
      "orn": 1639,
      "ists": 1640,
      "Ġcent": 1641,
      "Ġchang": 1642,
      "Ġhappen": 1643,
      "Ġactiv": 1644,
      "Ġrese": 1645,
      "land": 1646,
      "ortun": 1647,
      "Ġavailable": 1648,
      "Ġorder": 1649,
      "Ġtoday": 1650,
      "Ġgrow": 1651,
      "Ġperform": 1652,
      "eng": 1653,
      "Ġfar": 1654,
      "ugh": 1655,
      "Ġcertain": 1656,
      "].": 1657,
      "inal": 1658,
      "Ġpass": 1659,
      "Ġwithin": 1660,
      "Ġhtt": 1661,
      "Ġsecond": 1662,
      "ote": 1663,
      "Ġcame": 1664,
      "Ġalready": 1665,
      "ision": 1666,
      "Ġanything": 1667,
      "Ġworking": 1668,
      "60": 1669,
      "Ġclass": 1670,
      "So": 1671,
      "Ġproper": 1672,
      "ids": 1673,
      "app": 1674,
      "Ġlaw": 1675,
      "Ġpa": 1676,
      "Ġuntil": 1677,
      "Ġ18": 1678,
      "Ġgroup": 1679,
      "ĠNew": 1680,
      "Ġfull": 1681,
      "Ġweb": 1682,
      "Ġwebsite": 1683,
      "Ġpresent": 1684,
      "ĠRe": 1685,
      "ights": 1686,
      "Ġfood": 1687,
      "Ġfollowing": 1688,
      "Ġey": 1689,
      "Ġenjoy": 1690,
      "ization": 1691,
      "Ġincluding": 1692,
      "man": 1693,
      "Ġpower": 1694,
      "ier": 1695,
      "oh": 1696,
      "Ġter": 1697,
      "Ġprot": 1698,
      "Ġ&": 1699,
      "vers": 1700,
      "sw": 1701,
      "Ġdem": 1702,
      "els": 1703,
      "Ġagainst": 1704,
      "99": 1705,
      "Ġleft": 1706,
      "Ġproject": 1707,
      "Ġcheck": 1708,
      "ected": 1709,
      "Ġhope": 1710,
      "Ġcompany": 1711,
      "Ġspe": 1712,
      "Ġqual": 1713,
      "Ġcustom": 1714,
      "He": 1715,
      "ĠSh": 1716,
      "Ġris": 1717,
      "Ġsuc": 1718,
      "Ġservice": 1719,
      "Ġmeet": 1720,
      "Ġtest": 1721,
      "Ġsomeone": 1722,
      "ability": 1723,
      "oot": 1724,
      "ential": 1725,
      "not": 1726,
      "Ġnight": 1727,
      "40": 1728,
      "aring": 1729,
      "ret": 1730,
      "Ġpo": 1731,
      "ivers": 1732,
      "ĠDe": 1733,
      "Ġhouse": 1734,
      "Ġmov": 1735,
      "ĠTo": 1736,
      "ĠAmeric": 1737,
      "gr": 1738,
      "28": 1739,
      "?\"": 1740,
      "igure": 1741,
      "med": 1742,
      "Ġsug": 1743,
      "Ġleg": 1744,
      "ield": 1745,
      "Ġcol": 1746,
      "rist": 1747,
      "Ġmom": 1748,
      "ĠAd": 1749,
      "Ġbelieve": 1750,
      "ĠâĢĺ": 1751,
      "ery": 1752,
      "Ġla": 1753,
      "27": 1754,
      "ww": 1755,
      "Ġes": 1756,
      "33": 1757,
      "ĠWh": 1758,
      "Ġsays": 1759,
      "reen": 1760,
      "ently": 1761,
      "Ġfil": 1762,
      "aj": 1763,
      "Ġpot": 1764,
      "Ġoften": 1765,
      "ER": 1766,
      "ither": 1767,
      "Ġname": 1768,
      "Ġreason": 1769,
      "vernment": 1770,
      "itive": 1771,
      "ĠCom": 1772,
      "aut": 1773,
      "Ġprob": 1774,
      "Ġonce": 1775,
      "illion": 1776,
      "do": 1777,
      "Ġest": 1778,
      "Ġbas": 1779,
      "Ġpossible": 1780,
      "ering": 1781,
      "How": 1782,
      "Ġtrain": 1783,
      "und": 1784,
      "Ġothers": 1785,
      "Ġmen": 1786,
      "way": 1787,
      "Ġmeans": 1788,
      "iron": 1789,
      "que": 1790,
      "Ġgame": 1791,
      "Ġmus": 1792,
      "ified": 1793,
      "Ġwent": 1794,
      "ĠIs": 1795,
      "irl": 1796,
      "Ġcurrent": 1797,
      "hod": 1798,
      "Ġpast": 1799,
      "Ġsignific": 1800,
      "90": 1801,
      "ton": 1802,
      "ression": 1803,
      "26": 1804,
      "Ġview": 1805,
      "Ġintern": 1806,
      "Ġbeg": 1807,
      "....": 1808,
      "gether": 1809,
      "Ġtogether": 1810,
      "Ġprovide": 1811,
      "ateg": 1812,
      "Ġ30": 1813,
      "80": 1814,
      "Ġpract": 1815,
      "Ġside": 1816,
      "Ġstop": 1817,
      "Ġyet": 1818,
      "ĠGod": 1819,
      "acter": 1820,
      "70": 1821,
      "ling": 1822,
      "Ġwonder": 1823,
      "ĠQ": 1824,
      "Ġsaf": 1825,
      "ĠAr": 1826,
      "Ġphot": 1827,
      "ump": 1828,
      "aps": 1829,
      "Ġmar": 1830,
      "Ġproblem": 1831,
      "75": 1832,
      "Ġarea": 1833,
      "most": 1834,
      "Ġaddit": 1835,
      "ames": 1836,
      "Ġauth": 1837,
      "Ġmonths": 1838,
      "Ġansw": 1839,
      "Ġconsider": 1840,
      "Ġyoung": 1841,
      "Ġquestion": 1842,
      "ium": 1843,
      "Ġcomplete": 1844,
      "ral": 1845,
      "'d": 1846,
      "Ġfriends": 1847,
      "ĠMy": 1848,
      "Ġemploy": 1849,
      "Ġelse": 1850,
      "min": 1851,
      "ĠAll": 1852,
      "ify": 1853,
      "Ġve": 1854,
      "Ġstory": 1855,
      "Ġpersonal": 1856,
      "Ġbuy": 1857,
      "Ġwomen": 1858,
      "Ġprogram": 1859,
      "vide": 1860,
      "utes": 1861,
      "Ġocc": 1862,
      "Ġidea": 1863,
      "Ġseen": 1864,
      "alf": 1865,
      "Ġant": 1866,
      "45": 1867,
      "ger": 1868,
      "uture": 1869,
      "Ġlarge": 1870,
      "Ġeverything": 1871,
      "Ġ=": 1872,
      "ior": 1873,
      "ries": 1874,
      "Ġnon": 1875,
      "Ġsing": 1876,
      "Ġmakes": 1877,
      "uff": 1878,
      "Ġdefin": 1879,
      "imes": 1880,
      "Ġwhole": 1881,
      "Ġeng": 1882,
      "ysis": 1883,
      "Ġeasy": 1884,
      "Ġsignificant": 1885,
      "Ġreview": 1886,
      "Ġlive": 1887,
      "29": 1888,
      "urther": 1889,
      "Ġclear": 1890,
      "38": 1891,
      "Ġcountry": 1892,
      "Ġaccess": 1893,
      "ĠDo": 1894,
      "Ġfac": 1895,
      "Ġsw": 1896,
      "Ġneeds": 1897,
      "Ġconst": 1898,
      "for": 1899,
      "Ġtook": 1900,
      "ĠâĢĶ": 1901,
      "Ġsuccess": 1902,
      "Ġbody": 1903,
      "35": 1904,
      "Ġonline": 1905,
      "Ġbecome": 1906,
      "Ġwin": 1907,
      "Ġresearch": 1908,
      "ency": 1909,
      "ĠNo": 1910,
      "Ġshall": 1911,
      "ream": 1912,
      "Ġpret": 1913,
      "When": 1914,
      "Ġsever": 1915,
      "Ġshare": 1916,
      "Ġdeal": 1917,
      "Ġnothing": 1918,
      "ĠGo": 1919,
      "ĠTr": 1920,
      "elf": 1921,
      "Ġmor": 1922,
      "Ġapplic": 1923,
      "used": 1924,
      "Ġtrying": 1925,
      "Ġservices": 1926,
      "Ġindu": 1927,
      "aken": 1928,
      "work": 1929,
      "Ġshort": 1930,
      "ĠĠĠĠ": 1931,
      "ording": 1932,
      "Ġcreat": 1933,
      "Ġbad": 1934,
      "uss": 1935,
      "Ġmove": 1936,
      "Ġlow": 1937,
      "aterial": 1938,
      "65": 1939,
      "Ġquite": 1940,
      "Ġtold": 1941,
      "Ġlink": 1942,
      "fect": 1943,
      "Ġnear": 1944,
      "ats": 1945,
      "Ġcou": 1946,
      "na": 1947,
      "Ġfav": 1948,
      "Ġpretty": 1949,
      "lo": 1950,
      "aim": 1951,
      "Ġfour": 1952,
      "Ġresults": 1953,
      "Ġprobably": 1954,
      "Ġlocal": 1955,
      "ĠEx": 1956,
      "Ġstay": 1957,
      "Ġalong": 1958,
      "Ġquick": 1959,
      "Ġbased": 1960,
      "ode": 1961,
      "Ġhig": 1962,
      "ĠX": 1963,
      "by": 1964,
      "Ġopt": 1965,
      "21": 1966,
      "Ġspecial": 1967,
      "Ġago": 1968,
      "ĠBe": 1969,
      "ending": 1970,
      "Ġbenef": 1971,
      "That": 1972,
      "Ġelect": 1973,
      "ories": 1974,
      "port": 1975,
      "Ġacross": 1976,
      "ived": 1977,
      "Ġâ": 1978,
      "sh": 1979,
      "Ġvisit": 1980,
      "Ġmatter": 1981,
      "urance": 1982,
      "Ġasked": 1983,
      "org": 1984,
      "Ġann": 1985,
      "Ġ:": 1986,
      "Ġface": 1987,
      "ives": 1988,
      "Ġeveryone": 1989,
      "95": 1990,
      "Ġcard": 1991,
      "Ġlight": 1992,
      "Ġhours": 1993,
      "ĠWhen": 1994,
      "Ġsocial": 1995,
      "48": 1996,
      "Ġhist": 1997,
      "Ġparticular": 1998,
      "Ġwalk": 1999,
      "Ġresult": 2000,
      "Ġair": 2001,
      "Ġfuture": 2002,
      "Ġarticle": 2003,
      "Ġdetail": 2004,
      "ox": 2005,
      "ĠSe": 2006,
      "Ġvide": 2007,
      "br": 2008,
      "Ġseveral": 2009,
      "Ġsoon": 2010,
      "ands": 2011,
      "viron": 2012,
      "Ġident": 2013,
      "ird": 2014,
      "Ġprofess": 2015,
      "Ġhuman": 2016,
      "inc": 2017,
      "Ġexc": 2018,
      "over": 2019,
      "Ġheart": 2020,
      "Ġprom": 2021,
      "Ġplease": 2022,
      "ounds": 2023,
      "ances": 2024,
      "78": 2025,
      "Ġcontent": 2026,
      "Ġgiven": 2027,
      "ajor": 2028,
      "tend": 2029,
      "eral": 2030,
      "Ġstarted": 2031,
      "atic": 2032,
      "Ġbreak": 2033,
      "Ġhold": 2034,
      "ert": 2035,
      "Ġmethod": 2036,
      "side": 2037,
      "Ġisn": 2038,
      "pri": 2039,
      "68": 2040,
      "98": 2041,
      "Ġcomes": 2042,
      "ole": 2043,
      "Ġwar": 2044,
      "Ġgirl": 2045,
      "Ġdev": 2046,
      "Ġfoc": 2047,
      "Ġcalled": 2048,
      "acy": 2049,
      "pro": 2050,
      "Ġstep": 2051,
      "Ġbeaut": 2052,
      "ane": 2053,
      "iously": 2054,
      "ĠChrist": 2055,
      "Ġevent": 2056,
      "ĠSp": 2057,
      "Ġtotal": 2058,
      "pecially": 2059,
      "Ġlater": 2060,
      "Ġseems": 2061,
      "Ġwanted": 2062,
      "ott": 2063,
      "Ġlearn": 2064,
      "Ġstudents": 2065,
      "att": 2066,
      "ury": 2067,
      "ains": 2068,
      "Ġexample": 2069,
      "ina": 2070,
      "par": 2071,
      "wh": 2072,
      "ĠUS": 2073,
      "iod": 2074,
      "Ġtem": 2075,
      "Ġtaking": 2076,
      "Ġgovernment": 2077,
      "conom": 2078,
      "ourn": 2079,
      "ĠPl": 2080,
      "Ġline": 2081,
      "Ġnews": 2082,
      "Ġwhether": 2083,
      "int": 2084,
      "Ġeduc": 2085,
      "Ġnice": 2086,
      "?âĢĿ": 2087,
      "34": 2088,
      "Ġaut": 2089,
      "Ġdr": 2090,
      "Ġexce": 2091,
      "Ġmult": 2092,
      "Ġ11": 2093,
      "Ġyourself": 2094,
      "ured": 2095,
      "Ġrisk": 2096,
      "Ġele": 2097,
      "Ġhear": 2098,
      "por": 2099,
      "ills": 2100,
      "Ġsubject": 2101,
      "ĠOr": 2102,
      "Ġclose": 2103,
      "outh": 2104,
      "ĠOn": 2105,
      "Ġemail": 2106,
      "ilar": 2107,
      "ply": 2108,
      "36": 2109,
      "Ġfore": 2110,
      "Ġquality": 2111,
      "Ġconcer": 2112,
      "raph": 2113,
      "ried": 2114,
      "ĠCan": 2115,
      "Ġabove": 2116,
      "though": 2117,
      "Ġvari": 2118,
      "Ġopportun": 2119,
      "My": 2120,
      "Ġdue": 2121,
      "Ġwriting": 2122,
      "uation": 2123,
      "Ġage": 2124,
      "Ġeither": 2125,
      "Ġbi": 2126,
      "AT": 2127,
      "Ġabs": 2128,
      "Ref": 2129,
      "ĠHowever": 2130,
      "Ġcal": 2131,
      "Ġbring": 2132,
      "ommend": 2133,
      "Ġmanage": 2134,
      "Ġreturn": 2135,
      "selves": 2136,
      "idd": 2137,
      "Ġmajor": 2138,
      "Ġanyone": 2139,
      "Ġoffer": 2140,
      "Ġaccount": 2141,
      "Ġcontact": 2142,
      "Ġmil": 2143,
      "37": 2144,
      "ubl": 2145,
      "Ġpage": 2146,
      "ĠYour": 2147,
      "Ġalmost": 2148,
      "Ġstrong": 2149,
      "ĠNot": 2150,
      "agn": 2151,
      "IN": 2152,
      "Ġhappy": 2153,
      "Ġmeas": 2154,
      "Ġquestions": 2155,
      "Ġearly": 2156,
      "iful": 2157,
      "ator": 2158,
      "Ġenc": 2159,
      "ined": 2160,
      "Ġappear": 2161,
      "Ġnet": 2162,
      "Ġvalue": 2163,
      "aff": 2164,
      "Ġrespons": 2165,
      "Ġdevelopment": 2166,
      "Ġperfect": 2167,
      "duct": 2168,
      "Ġrather": 2169,
      "ĠMay": 2170,
      "Ġwatch": 2171,
      "now": 2172,
      "Ġsuggest": 2173,
      "St": 2174,
      "Ġoffic": 2175,
      "Ġmess": 2176,
      "Ġhttps": 2177,
      "Cross": 2178,
      "Ġmembers": 2179,
      "44": 2180,
      "vironment": 2181,
      "Ġkey": 2182,
      "Ġrecommend": 2183,
      "Ġbegin": 2184,
      "fer": 2185,
      "Ġwords": 2186,
      "ests": 2187,
      "oid": 2188,
      "lick": 2189,
      "Ġmaterial": 2190,
      "Ġrelations": 2191,
      "cle": 2192,
      "Ġcoming": 2193,
      "Ġhot": 2194,
      "Ġ25": 2195,
      "CrossRef": 2196,
      "Ġpolic": 2197,
      "Ġauthor": 2198,
      "Ġ16": 2199,
      "ĠAt": 2200,
      "aren": 2201,
      "Ġindust": 2202,
      "fully": 2203,
      "ively": 2204,
      "Ġagree": 2205,
      "pos": 2206,
      "ising": 2207,
      "Ġminutes": 2208,
      "ĠFr": 2209,
      "mm": 2210,
      "Ġsuper": 2211,
      "Ġvers": 2212,
      "iate": 2213,
      "rite": 2214,
      "Ġtaken": 2215,
      "ĠTH": 2216,
      "ides": 2217,
      "Ġhalf": 2218,
      "Ġphys": 2219,
      "Ġpict": 2220,
      "77": 2221,
      "Ġconn": 2222,
      "rop": 2223,
      "Ġrecord": 2224,
      "where": 2225,
      "ched": 2226,
      "Ġhowever": 2227,
      "uly": 2228,
      "Ġmoment": 2229,
      "Ġfurther": 2230,
      "fficult": 2231,
      "Ġself": 2232,
      "ON": 2233,
      "Ġreading": 2234,
      "Ġissues": 2235,
      "apt": 2236,
      "de": 2237,
      "ĠThese": 2238,
      "ergy": 2239,
      "Ġmyself": 2240,
      "verage": 2241,
      "Ġmillion": 2242,
      "Ġpress": 2243,
      "Ġchall": 2244,
      "39": 2245,
      "Ġamong": 2246,
      "une": 2247,
      "ĠCl": 2248,
      "Ġrequire": 2249,
      "Ġnecess": 2250,
      "Ġmodel": 2251,
      "Ġproducts": 2252,
      "Ġanalysis": 2253,
      "Ġperiod": 2254,
      "Ġlikely": 2255,
      "Ġeconom": 2256,
      "ledge": 2257,
      "ored": 2258,
      "Ġcommon": 2259,
      "Ġcut": 2260,
      "iversity": 2261,
      "RE": 2262,
      "Ġespecially": 2263,
      "Ġcreate": 2264,
      "Ġdise": 2265,
      "Ġinsurance": 2266,
      "To": 2267,
      "ann": 2268,
      "Ġtrue": 2269,
      "iol": 2270,
      "66": 2271,
      "Ġregard": 2272,
      "Ġforward": 2273,
      "aces": 2274,
      "Ġdifficult": 2275,
      "Ġleave": 2276,
      "__": 2277,
      "Ġaddress": 2278,
      "Ġmiss": 2279,
      "Ġupon": 2280,
      "pped": 2281,
      "elt": 2282,
      "rec": 2283,
      "Ġtype": 2284,
      "Ġeyes": 2285,
      "Ġfall": 2286,
      "artment": 2287,
      "Ġsingle": 2288,
      "Ġ17": 2289,
      "ged": 2290,
      "Ġ...": 2291,
      "Ġobs": 2292,
      "raw": 2293,
      "Ġpick": 2294,
      "ogn": 2295,
      "icro": 2296,
      "ots": 2297,
      "Ġfail": 2298,
      "Ġpie": 2299,
      ".)": 2300,
      "Ġequ": 2301,
      "cid": 2302,
      "Ġbelow": 2303,
      "resent": 2304,
      "Ġsearch": 2305,
      "Ġill": 2306,
      "Ġsimply": 2307,
      "Wh": 2308,
      "Ġorig": 2309,
      "Ġlooks": 2310,
      "ĠPh": 2311,
      "pers": 2312,
      "Ġweeks": 2313,
      "Ġtax": 2314,
      "Ġinclude": 2315,
      "Ġexpect": 2316,
      "urs": 2317,
      "ĠLi": 2318,
      "Ġworth": 2319,
      "Ġpriv": 2320,
      "go": 2321,
      "ources": 2322,
      "Ġ--": 2323,
      "urity": 2324,
      "Ġsent": 2325,
      "Ġentire": 2326,
      "Ġissue": 2327,
      "Ġcharacter": 2328,
      "Ġfive": 2329,
      "unch": 2330,
      "ibility": 2331,
      "Ġknown": 2332,
      "ips": 2333,
      "Ġfavor": 2334,
      "Ġspecific": 2335,
      "Ġclaim": 2336,
      "ians": 2337,
      "Ġneeded": 2338,
      "Ġremember": 2339,
      "ĠEng": 2340,
      "Ġcrit": 2341,
      "ush": 2342,
      "Ġcity": 2343,
      "Ġdou": 2344,
      "Ġap": 2345,
      "Ġbeautiful": 2346,
      "ĠBl": 2347,
      "Ġparticip": 2348,
      "Ġcomb": 2349,
      "Ġfre": 2350,
      "Ġinterv": 2351,
      "ained": 2352,
      "Ġrelationship": 2353,
      "ison": 2354,
      "ĠThanks": 2355,
      "ĠWith": 2356,
      "Ġwind": 2357,
      "room": 2358,
      "book": 2359,
      "Ġperc": 2360,
      "Ġrespect": 2361,
      "Ġens": 2362,
      "erence": 2363,
      "Ġsaw": 2364,
      "Ġstuff": 2365,
      "Ġhigher": 2366,
      "Ġmot": 2367,
      "No": 2368,
      "ware": 2369,
      "ique": 2370,
      "Ġcop": 2371,
      "Ġdeterm": 2372,
      "Ġrele": 2373,
      "Ġvideo": 2374,
      "Ġdam": 2375,
      "Ġ24": 2376,
      "ource": 2377,
      "Ġeff": 2378,
      "wards": 2379,
      "ĠAm": 2380,
      "Ġamaz": 2381,
      "Ġpolit": 2382,
      "ilities": 2383,
      "Ġwrong": 2384,
      "ĠRep": 2385,
      "Ġheard": 2386,
      "Ġproblems": 2387,
      "Ġpotential": 2388,
      "Ġple": 2389,
      "Ġenergy": 2390,
      "Ġconc": 2391,
      "ĠGr": 2392,
      "Ġwasn": 2393,
      "Ġdeath": 2394,
      "Ġcouple": 2395,
      "ĠComm": 2396,
      "Ġcells": 2397,
      "ĠEn": 2398,
      "Ġseason": 2399,
      "ister": 2400,
      "Ġways": 2401,
      "Ġamount": 2402,
      "leep": 2403,
      "Ġsimple": 2404,
      "AN": 2405,
      "illed": 2406,
      "Ġfunction": 2407,
      "ental": 2408,
      "Ġmorning": 2409,
      "Ġbar": 2410,
      "Ġstat": 2411,
      "sc": 2412,
      "Ġbed": 2413,
      "Ġpercent": 2414,
      "ĠTe": 2415,
      "come": 2416,
      "Ġcannot": 2417,
      "ern": 2418,
      "Ġfinanc": 2419,
      "Ġsex": 2420,
      "Ġkids": 2421,
      "47": 2422,
      "Ġmis": 2423,
      "97": 2424,
      "sy": 2425,
      "ene": 2426,
      "Ġsimilar": 2427,
      "atory": 2428,
      "Ġtraining": 2429,
      "Ġchanges": 2430,
      "AR": 2431,
      "ring": 2432,
      "ik": 2433,
      "Ġcompan": 2434,
      "Ġcamp": 2435,
      "Ġliving": 2436,
      "iting": 2437,
      "Ġexact": 2438,
      "asing": 2439,
      "Ġenvironment": 2440,
      "Ġwrite": 2441,
      "body": 2442,
      "af": 2443,
      "iver": 2444,
      "They": 2445,
      "Ġrepl": 2446,
      "irc": 2447,
      "67": 2448,
      "Ġlooked": 2449,
      "orth": 2450,
      "Ġlonger": 2451,
      "Ġmedia": 2452,
      "Ġrate": 2453,
      "Ġfield": 2454,
      "utions": 2455,
      "ĠOne": 2456,
      "oints": 2457,
      "Ġcompet": 2458,
      "ĠInd": 2459,
      "ift": 2460,
      "Ġetc": 2461,
      "onse": 2462,
      "ological": 2463,
      "fort": 2464,
      "Ġfocus": 2465,
      "ued": 2466,
      "Ġmusic": 2467,
      "Ġprice": 2468,
      "Ġvol": 2469,
      "Ġimm": 2470,
      "Ġstrateg": 2471,
      "arget": 2472,
      "itted": 2473,
      "ows": 2474,
      "Ġcult": 2475,
      "ones": 2476,
      "isc": 2477,
      "Ġtool": 2478,
      "roll": 2479,
      "ung": 2480,
      "rel": 2481,
      "Ġincrease": 2482,
      "Ġhon": 2483,
      "Ġspace": 2484,
      "bt": 2485,
      "oon": 2486,
      "55": 2487,
      "ĪĴ": 2488,
      "Ġthinking": 2489,
      "!\"": 2490,
      "hem": 2491,
      "Ġclean": 2492,
      "rew": 2493,
      "Ġcap": 2494,
      "ital": 2495,
      "ding": 2496,
      "Ġworks": 2497,
      "Ġfront": 2498,
      "ST": 2499,
      "Ġpath": 2500,
      "Ġwoman": 2501,
      "):": 2502,
      "Ġtrad": 2503,
      "itely": 2504,
      "Ġinteresting": 2505,
      "Ġaff": 2506,
      "Ġpubl": 2507,
      "ification": 2508,
      "Ġnorm": 2509,
      "Ġsoft": 2510,
      "Ġlevels": 2511,
      "OR": 2512,
      "Ġsense": 2513,
      "Ġ2018": 2514,
      "ume": 2515,
      "She": 2516,
      "Ġmother": 2517,
      "ging": 2518,
      "88": 2519,
      "Ġsaying": 2520,
      "overed": 2521,
      "Ġboy": 2522,
      "Ġer": 2523,
      "Ġpack": 2524,
      "atural": 2525,
      "Ġdoor": 2526,
      "lish": 2527,
      "imate": 2528,
      "Ġcomput": 2529,
      "Ġfr": 2530,
      "Ġach": 2531,
      "Ġexist": 2532,
      "Ġblood": 2533,
      "Al": 2534,
      "Ġsat": 2535,
      "Ġimpact": 2536,
      "ape": 2537,
      "Ġpurch": 2538,
      "atures": 2539,
      "mit": 2540,
      "Ġwish": 2541,
      "Ġcy": 2542,
      "ĠMan": 2543,
      "Ġrequired": 2544,
      "49": 2545,
      "ocu": 2546,
      "Ġthank": 2547,
      "ites": 2548,
      "46": 2549,
      "Do": 2550,
      "yle": 2551,
      "Ġvarious": 2552,
      "Ġword": 2553,
      "Ġmention": 2554,
      "Ġhistory": 2555,
      "oud": 2556,
      "Ġknew": 2557,
      "pe": 2558,
      "Ġbuilding": 2559,
      "Ġaccept": 2560,
      "ĠMed": 2561,
      "Ġbehind": 2562,
      "Ġanswer": 2563,
      "On": 2564,
      "Ġoffice": 2565,
      "astic": 2566,
      "haps": 2567,
      "Ġgeneral": 2568,
      "ided": 2569,
      "ees": 2570,
      "ym": 2571,
      "ogle": 2572,
      "Well": 2573,
      "ror": 2574,
      "Ġprep": 2575,
      "Ġhands": 2576,
      "ters": 2577,
      "oo": 2578,
      "hers": 2579,
      "ought": 2580,
      "Ġcomment": 2581,
      "Ġð": 2582,
      "val": 2583,
      "arents": 2584,
      "Ġz": 2585,
      "ĠDi": 2586,
      "ules": 2587,
      "Ġstruct": 2588,
      "Ġneg": 2589,
      "Ġpat": 2590,
      "Ġsell": 2591,
      "let": 2592,
      "Ġland": 2593,
      "ĠApp": 2594,
      "Ġready": 2595,
      "iday": 2596,
      "Ġtravel": 2597,
      "Ġsumm": 2598,
      "ĠJust": 2599,
      "ĠMr": 2600,
      "ples": 2601,
      "action": 2602,
      "Ġknowledge": 2603,
      "Ġess": 2604,
      "ny": 2605,
      "Ġphone": 2606,
      "Ġitem": 2607,
      "str": 2608,
      "ĠUnited": 2609,
      "Ġcause": 2610,
      "Ġcontrib": 2611,
      "Ġshop": 2612,
      "Ġchance": 2613,
      "ilt": 2614,
      "Ġrole": 2615,
      "Ġadded": 2616,
      "Ġextra": 2617,
      "aster": 2618,
      "Ġ#": 2619,
      "Ġamazing": 2620,
      "rodu": 2621,
      "ĠLe": 2622,
      "oke": 2623,
      "that": 2624,
      "Ġusually": 2625,
      "Ġyes": 2626,
      "Ġevid": 2627,
      "Ġcompanies": 2628,
      "omes": 2629,
      "Ġterm": 2630,
      "Ġcontinue": 2631,
      "Ġsam": 2632,
      "Ġparty": 2633,
      "ĠIntern": 2634,
      "ients": 2635,
      "Ġposition": 2636,
      "Ġspeak": 2637,
      "Ġrange": 2638,
      "reg": 2639,
      "den": 2640,
      "reet": 2641,
      "ressed": 2642,
      "irm": 2643,
      "icles": 2644,
      "Ġapproach": 2645,
      "Ġstaff": 2646,
      "ĠMar": 2647,
      "oice": 2648,
      "ohn": 2649,
      "Ġlearning": 2650,
      "Ġsurpr": 2651,
      "acks": 2652,
      "Ġinit": 2653,
      "reme": 2654,
      "arent": 2655,
      "Ġsix": 2656,
      "ler": 2657,
      "head": 2658,
      "Ġgroups": 2659,
      "Ġprovided": 2660,
      "ude": 2661,
      "Ġce": 2662,
      "Ġoutside": 2663,
      "ĠAmerican": 2664,
      "Ġones": 2665,
      "Ġaddition": 2666,
      "Ġareas": 2667,
      "Ġcancer": 2668,
      "Ġmanagement": 2669,
      "aged": 2670,
      "96": 2671,
      "Ġindustry": 2672,
      "Ġfelt": 2673,
      "Ġsound": 2674,
      "put": 2675,
      "ards": 2676,
      "Ġste": 2677,
      "Ġsize": 2678,
      "usion": 2679,
      "rown": 2680,
      "Ġstudies": 2681,
      "Ġdisease": 2682,
      "load": 2683,
      "ĠThank": 2684,
      "Ġred": 2685,
      "aging": 2686,
      "Ġrunning": 2687,
      "Ġaccording": 2688,
      "Ġfinancial": 2689,
      "ication": 2690,
      "Ġpred": 2691,
      "NA": 2692,
      "amm": 2693,
      "Ġloss": 2694,
      "osis": 2695,
      "urch": 2696,
      "Ġpoints": 2697,
      "Ġlost": 2698,
      "Ġsens": 2699,
      "Ġdog": 2700,
      "Ġhimself": 2701,
      "ĠCent": 2702,
      "ĠNow": 2703,
      "ĠMe": 2704,
      "Ġlab": 2705,
      "Ġtakes": 2706,
      "but": 2707,
      "85": 2708,
      "sive": 2709,
      "orld": 2710,
      "Ġcoun": 2711,
      "Ġmaybe": 2712,
      "Ġdrug": 2713,
      "Ġthemselves": 2714,
      "Ġtarget": 2715,
      "Ġattention": 2716,
      "Ġaction": 2717,
      "ĠÂ±": 2718,
      "aving": 2719,
      "Ġrepresent": 2720,
      "Ġdate": 2721,
      "ires": 2722,
      "Ġdefinitely": 2723,
      "Ġcases": 2724,
      "Ġroad": 2725,
      "Yes": 2726,
      "time": 2727,
      "Ġfire": 2728,
      "Ġaud": 2729,
      "ners": 2730,
      "Ġtalking": 2731,
      "Ġdocu": 2732,
      "iple": 2733,
      "Ġturned": 2734,
      "Ġbir": 2735,
      "Ġperformance": 2736,
      "Ġgoes": 2737,
      "ĠAfter": 2738,
      "Ġguess": 2739,
      "Ġmedical": 2740,
      "Ġanim": 2741,
      "aining": 2742,
      "EN": 2743,
      "uge": 2744,
      "Ġsafe": 2745,
      "Ġrelated": 2746,
      "urope": 2747,
      "Ġtable": 2748,
      "Ġpositive": 2749,
      "Ch": 2750,
      "Ġobject": 2751,
      "minist": 2752,
      "Ġaffect": 2753,
      "OU": 2754,
      "like": 2755,
      "ĠDon": 2756,
      "Ġnecessary": 2757,
      "ĠSu": 2758,
      "iter": 2759,
      "Now": 2760,
      "Ġjoin": 2761,
      "gu": 2762,
      "Ġweight": 2763,
      "Ġrad": 2764,
      "Ġopportunity": 2765,
      "Ġlives": 2766,
      "Ġfamil": 2767,
      "Ġsleep": 2768,
      "olution": 2769,
      "Ġterms": 2770,
      "Ġcover": 2771,
      "Ġ2017": 2772,
      "AL": 2773,
      "Ġwritten": 2774,
      "Ġeducation": 2775,
      "Ġinstead": 2776,
      "Ġsend": 2777,
      "ĠStates": 2778,
      "ĠUniversity": 2779,
      "Oh": 2780,
      "Ġproperty": 2781,
      "Ġhaven": 2782,
      "Ġfa": 2783,
      "Ġdig": 2784,
      "Ġprofessional": 2785,
      "Ġhit": 2786,
      "aced": 2787,
      "ches": 2788,
      "resh": 2789,
      "llent": 2790,
      "Ġlower": 2791,
      "Ġcirc": 2792,
      "Ġport": 2793,
      "Ġcool": 2794,
      "Ġideas": 2795,
      "gen": 2796,
      "Ġtou": 2797,
      "yn": 2798,
      "ĠCar": 2799,
      "ators": 2800,
      "Ġparents": 2801,
      "umb": 2802,
      "Ġcouldn": 2803,
      "Ġdetails": 2804,
      "At": 2805,
      "Ġep": 2806,
      "Ġinvolved": 2807,
      "Ġreceived": 2808,
      "Ġobserv": 2809,
      "Ġcertainly": 2810,
      "Ġassess": 2811,
      "chan": 2812,
      "Ġwouldn": 2813,
      "ĠSome": 2814,
      "Ġpolicy": 2815,
      "Ġpaper": 2816,
      "Ġwhite": 2817,
      "Ġtried": 2818,
      "ĠAg": 2819,
      "Ġcredit": 2820,
      "Ġlate": 2821,
      "Ġgrowth": 2822,
      "obal": 2823,
      "Ġfit": 2824,
      "istic": 2825,
      "iet": 2826,
      "All": 2827,
      "Ġbooks": 2828,
      "Ġconsum": 2829,
      "Ġdeep": 2830,
      "Ġlay": 2831,
      "Ġrecogn": 2832,
      "ishing": 2833,
      "Ġsort": 2834,
      "Ġcook": 2835,
      "Ġfast": 2836,
      "Ġsym": 2837,
      "osing": 2838,
      "angu": 2839,
      "face": 2840,
      "Ġresponse": 2841,
      "100": 2842,
      "Ġgave": 2843,
      "orry": 2844,
      "Ġeffects": 2845,
      "ĠInst": 2846,
      "ĠPr": 2847,
      "Ġten": 2848,
      "Ġwonderful": 2849,
      "ĠHis": 2850,
      "enty": 2851,
      "Ġswe": 2852,
      "ai": 2853,
      "ES": 2854,
      "just": 2855,
      "ores": 2856,
      "ĠCont": 2857,
      "ables": 2858,
      "Ġselect": 2859,
      "doi": 2860,
      "olute": 2861,
      "eed": 2862,
      "Ġbab": 2863,
      "bo": 2864,
      "43": 2865,
      "Ġfeed": 2866,
      "Ġactivity": 2867,
      "iation": 2868,
      "Ġseries": 2869,
      "oor": 2870,
      "Ġevents": 2871,
      "Ġjourn": 2872,
      "Ġri": 2873,
      "more": 2874,
      "Ġlisten": 2875,
      "aching": 2876,
      "ĠOur": 2877,
      "Ġcorrect": 2878,
      "Ġthanks": 2879,
      "Ġconv": 2880,
      "ĠEurope": 2881,
      "olic": 2882,
      "imum": 2883,
      "Ġsil": 2884,
      "Ġfeeling": 2885,
      "asons": 2886,
      "Ġcustomers": 2887,
      "Ġexactly": 2888,
      "anced": 2889,
      "Ġestab": 2890,
      "ege": 2891,
      "Ġassist": 2892,
      "vert": 2893,
      "Ġability": 2894,
      "Ġcomfort": 2895,
      "ĠHere": 2896,
      "Ġful": 2897,
      "One": 2898,
      "pose": 2899,
      "Ġprote": 2900,
      "Ġapprec": 2901,
      "Ġrecent": 2902,
      "Ġchoose": 2903,
      "Ġtechnology": 2904,
      "Ġdecision": 2905,
      "Ġdecided": 2906,
      "Ġquickly": 2907,
      "Ġhappened": 2908,
      "ster": 2909,
      "ying": 2910,
      "Ġfight": 2911,
      "Ġwide": 2912,
      "Ġensure": 2913,
      "Ġdifference": 2914,
      "ha": 2915,
      "Ġfair": 2916,
      "Ġdiscuss": 2917,
      "ley": 2918,
      "Ġfoot": 2919,
      "Ġversion": 2920,
      "ont": 2921,
      "epend": 2922,
      "ĠAct": 2923,
      "Ġnatural": 2924,
      "Ġbott": 2925,
      "Ġinsp": 2926,
      "With": 2927,
      "asc": 2928,
      "OT": 2929,
      "Ġwear": 2930,
      "Ġgames": 2931,
      "Ġeffective": 2932,
      "idered": 2933,
      "Ġshown": 2934,
      "Ġthird": 2935,
      "Ġtown": 2936,
      "Ġsituation": 2937,
      "Ġdrink": 2938,
      "Ġinterested": 2939,
      "Ġdest": 2940,
      "Ġ/": 2941,
      "Ġ2025": 2942,
      "iction": 2943,
      "Ġprim": 2944,
      "cing": 2945,
      "Ġut": 2946,
      "Ġfather": 2947,
      "nces": 2948,
      "Thanks": 2949,
      "Ġobtain": 2950,
      "Ġblack": 2951,
      "yl": 2952,
      "Thank": 2953,
      "ober": 2954,
      "Ġoil": 2955,
      "Ġprior": 2956,
      "Ġcra": 2957,
      "Ġfine": 2958,
      "Ġfavorite": 2959,
      "Ġeat": 2960,
      "Ġstress": 2961,
      "Ġsecurity": 2962,
      "Ġconduct": 2963,
      "Ġcompletely": 2964,
      "Ġhor": 2965,
      "%)": 2966,
      "Ġevidence": 2967,
      "200": 2968,
      "Ġsection": 2969,
      "69": 2970,
      "Ġ,": 2971,
      "Ġ*": 2972,
      "AS": 2973,
      "Ġspend": 2974,
      "Ġgets": 2975,
      "oring": 2976,
      "Ġsus": 2977,
      "Ġhop": 2978,
      "iddle": 2979,
      "ĠJan": 2980,
      "you": 2981,
      "Ġarri": 2982,
      "reng": 2983,
      "Ġhost": 2984,
      "play": 2985,
      "Ġpractice": 2986,
      "ival": 2987,
      "rought": 2988,
      "Ġalone": 2989,
      "ached": 2990,
      "Ġprotect": 2991,
      "Ġbehav": 2992,
      "ruction": 2993,
      "eb": 2994,
      "Ġsun": 2995,
      "Ġfinal": 2996,
      "Ġfix": 2997,
      "Ġsn": 2998,
      "Ġmaintain": 2999,
      "Ġreported": 3000,
      "cript": 3001,
      "band": 3002,
      "ĠInt": 3003,
      "izing": 3004,
      "based": 3005,
      "Ġinj": 3006,
      "irt": 3007,
      "Ġdoct": 3008,
      "Ġactivities": 3009,
      "my": 3010,
      "Ġdead": 3011,
      "Ġinside": 3012,
      "empt": 3013,
      "Ġglad": 3014,
      "Ġgiving": 3015,
      "Ġtrust": 3016,
      "ping": 3017,
      "Ġbox": 3018,
      "Ġheld": 3019,
      "Ġconsidered": 3020,
      "Ġ2016": 3021,
      "ĠGen": 3022,
      "32": 3023,
      "Ġtour": 3024,
      "Ġavoid": 3025,
      "05": 3026,
      "aur": 3027,
      "Ġgone": 3028,
      "Ġsometimes": 3029,
      "eah": 3030,
      "reed": 3031,
      "Ġfigure": 3032,
      "Ġpull": 3033,
      "Ġhol": 3034,
      "Here": 3035,
      "pping": 3036,
      "Ġapplication": 3037,
      "Ġaren": 3038,
      "back": 3039,
      "Ġx": 3040,
      "ĠAb": 3041,
      "pite": 3042,
      "ĠState": 3043,
      "sequ": 3044,
      "ĠMore": 3045,
      "king": 3046,
      "Ġopin": 3047,
      "ED": 3048,
      "vision": 3049,
      "Ġincluded": 3050,
      "Ġskills": 3051,
      "ze": 3052,
      "atever": 3053,
      "ĠTHE": 3054,
      "ĠOf": 3055,
      "Ġreceive": 3056,
      "Ġfeatures": 3057,
      "87": 3058,
      "Ġvoice": 3059,
      "ĠAss": 3060,
      "atur": 3061,
      "Ġ21": 3062,
      "rams": 3063,
      "Ġsystems": 3064,
      "Ġguys": 3065,
      "Ġaware": 3066,
      "ony": 3067,
      "ĠðŁ": 3068,
      "fact": 3069,
      "ĠJohn": 3070,
      "Ġground": 3071,
      "ĠThen": 3072,
      "Ġincreased": 3073,
      "Ġslow": 3074,
      "anger": 3075,
      "Ġnetwork": 3076,
      "Ġimmed": 3077,
      "co": 3078,
      "atter": 3079,
      "nd": 3080,
      "Ġoriginal": 3081,
      "Ġlic": 3082,
      "orrow": 3083,
      "Ġdom": 3084,
      "Ġindividuals": 3085,
      "Ġapply": 3086,
      "wise": 3087,
      "Ġworked": 3088,
      "Ġchoice": 3089,
      "erve": 3090,
      "Ġcountries": 3091,
      "ges": 3092,
      "Ġhuge": 3093,
      "ike": 3094,
      "ĠWell": 3095,
      "Ġsharing": 3096,
      "ĠâĢ¦": 3097,
      "Ġimag": 3098,
      "Ġinternet": 3099,
      "Ġvia": 3100,
      "ughter": 3101,
      "Ġtre": 3102,
      "Ġmarketing": 3103,
      "ĠGu": 3104,
      "Ġbur": 3105,
      "Ġstar": 3106,
      "Ġdrive": 3107,
      "Ġbal": 3108,
      "Ġcomplex": 3109,
      "Ġmeeting": 3110,
      "Ġsong": 3111,
      "Ġchalleng": 3112,
      "ulations": 3113,
      "itch": 3114,
      "ibly": 3115,
      "Ġhttp": 3116,
      "ns": 3117,
      "uses": 3118,
      "aling": 3119,
      "Ġclick": 3120,
      "Ġlog": 3121,
      "64": 3122,
      "cy": 3123,
      "Ġdemon": 3124,
      "verse": 3125,
      "Ġviol": 3126,
      "Ġitself": 3127,
      "Ġnormal": 3128,
      "ĠIm": 3129,
      "ĠAc": 3130,
      "ID": 3131,
      "Ġ60": 3132,
      "Ġguy": 3133,
      "Ġskin": 3134,
      "Ġsave": 3135,
      "Ġexcellent": 3136,
      "su": 3137,
      "itc": 3138,
      "Ġabsolute": 3139,
      "31": 3140,
      "airs": 3141,
      "Ġeasily": 3142,
      "vis": 3143,
      "ĠSec": 3144,
      "ended": 3145,
      "94": 3146,
      "Ġreve": 3147,
      "iving": 3148,
      "After": 3149,
      "ught": 3150,
      "Ġattend": 3151,
      "mark": 3152,
      "Ġlangu": 3153,
      "Ġextreme": 3154,
      "Ġprivate": 3155,
      "Ġcross": 3156,
      "CT": 3157,
      "ĠDep": 3158,
      "oms": 3159,
      "right": 3160,
      "Ġveh": 3161,
      "ball": 3162,
      "ĠPe": 3163,
      "Ġcam": 3164,
      "Ġtrack": 3165,
      "ĠTw": 3166,
      "uary": 3167,
      "IT": 3168,
      "Ġupd": 3169,
      "hood": 3170,
      "Ġscreen": 3171,
      "Ġmicro": 3172,
      "ped": 3173,
      "Ġwife": 3174,
      "Ġson": 3175,
      "ining": 3176,
      "Ġ2015": 3177,
      "eter": 3178,
      "Ġfactors": 3179,
      "Ġrecently": 3180,
      "ussion": 3181,
      "Not": 3182,
      "Ġfinally": 3183,
      "www": 3184,
      "ĠSun": 3185,
      "Ġstreng": 3186,
      "mas": 3187,
      "Ġcontract": 3188,
      "Ġfell": 3189,
      "Ġencour": 3190,
      "Ġdream": 3191,
      "Ġtext": 3192,
      "Ġwall": 3193,
      "Ġaverage": 3194,
      "ulated": 3195,
      "Ġjud": 3196,
      "Ġbirth": 3197,
      "ĠWorld": 3198,
      "off": 3199,
      "Ġpoor": 3200,
      "Ġcosts": 3201,
      "oph": 3202,
      "Ġstore": 3203,
      "ĠYork": 3204,
      "Ġplaying": 3205,
      "sych": 3206,
      "ecause": 3207,
      "Ġsett": 3208,
      "Ġuseful": 3209,
      "Ġpiece": 3210,
      "Is": 3211,
      "Ġmach": 3212,
      "Ġoptions": 3213,
      "lor": 3214,
      "Ġeval": 3215,
      "Ġadditional": 3216,
      "Ġdark": 3217,
      "Ġcomments": 3218,
      "Ġdeg": 3219,
      "Ġnote": 3220,
      "ensive": 3221,
      "Ġhair": 3222,
      "arr": 3223,
      "ĠSy": 3224,
      "Ġprevent": 3225,
      "Ġoption": 3226,
      "ograp": 3227,
      "Ġbank": 3228,
      "ocr": 3229,
      "how": 3230,
      "Ġcommit": 3231,
      "Ġ26": 3232,
      "rote": 3233,
      "vant": 3234,
      "ĠLet": 3235,
      "Ġconvers": 3236,
      "lex": 3237,
      "atives": 3238,
      "lier": 3239,
      "Ġlegal": 3240,
      "Ġunique": 3241,
      "ask": 3242,
      "irit": 3243,
      "Ġang": 3244,
      "ĠPer": 3245,
      "ades": 3246,
      "uted": 3247,
      "Ġcomputer": 3248,
      "Ġphysical": 3249,
      "fl": 3250,
      "Ġstarting": 3251,
      "Ġord": 3252,
      "IS": 3253,
      "Ġposts": 3254,
      "Ġpaid": 3255,
      "Ġmessage": 3256,
      "Ġu": 3257,
      "ama": 3258,
      "Ġsummer": 3259,
      "Ġtruth": 3260,
      "86": 3261,
      "Ġwarm": 3262,
      "Ġcreated": 3263,
      "Ġbud": 3264,
      "Ġprevious": 3265,
      "ev": 3266,
      "Ġwants": 3267,
      "Ġhur": 3268,
      "Ġkill": 3269,
      "Ġ<": 3270,
      "ĠComp": 3271,
      "with": 3272,
      "Ġengine": 3273,
      "Ġluck": 3274,
      "Ġinstall": 3275,
      "Ġ+": 3276,
      "Ġpopular": 3277,
      "Ġsubst": 3278,
      "Ġgra": 3279,
      "Ġpicture": 3280,
      "Ġcarry": 3281,
      "Ġbegan": 3282,
      "Ġfear": 3283,
      "Be": 3284,
      "Ġnational": 3285,
      "ibr": 3286,
      "Ġhus": 3287,
      "Ġtypes": 3288,
      "Ġoffers": 3289,
      "Ġcompl": 3290,
      "Ġmechan": 3291,
      "Ġmember": 3292,
      "ĠPart": 3293,
      "Ġloved": 3294,
      "Ġsolution": 3295,
      "Ġstri": 3296,
      "Ġspent": 3297,
      "Ġexpected": 3298,
      "Ġprec": 3299,
      "Ġadvice": 3300,
      "Ġweekend": 3301,
      "Ġdistrib": 3302,
      "Ġbrought": 3303,
      "ĠBr": 3304,
      "Ġsales": 3305,
      "ĠGoogle": 3306,
      "ĠPres": 3307,
      "ule": 3308,
      "ĠAN": 3309,
      "Ġbenefits": 3310,
      "57": 3311,
      "Ġprovides": 3312,
      "Don": 3313,
      "Ġsource": 3314,
      "Ġprop": 3315,
      "Ġpolitical": 3316,
      "Ġcustomer": 3317,
      "Ġlif": 3318,
      "Ġsoftware": 3319,
      "Ġteac": 3320,
      "Ġdraw": 3321,
      "tr": 3322,
      "Ġtemper": 3323,
      "Ġappe": 3324,
      "Ġcondition": 3325,
      "bl": 3326,
      "Ġexpression": 3327,
      "Ġtend": 3328,
      "ĠWill": 3329,
      "Ġtruly": 3330,
      "Ġlik": 3331,
      "Ġoccur": 3332,
      "lement": 3333,
      "Ġ22": 3334,
      "Ġpen": 3335,
      "ĠPlease": 3336,
      "Ġsafety": 3337,
      "Ġlack": 3338,
      "cember": 3339,
      "Ġtowards": 3340,
      "Ġrequest": 3341,
      "Ġtrip": 3342,
      "Ġcopy": 3343,
      "Ġfund": 3344,
      "Ġpolice": 3345,
      "Ġsepar": 3346,
      "Ġsites": 3347,
      "Ġunderstanding": 3348,
      "itions": 3349,
      "ivity": 3350,
      "Ġadminist": 3351,
      "rict": 3352,
      "Ġitems": 3353,
      "zy": 3354,
      "93": 3355,
      "ancy": 3356,
      "Ġ28": 3357,
      "Ġfeet": 3358,
      "Ġparticularly": 3359,
      "Ġenh": 3360,
      "Ġflow": 3361,
      "ĠServ": 3362,
      "Ġfilm": 3363,
      "Ġboard": 3364,
      "ĠAmerica": 3365,
      "ma": 3366,
      "ceed": 3367,
      "Ġresources": 3368,
      "Ġproduction": 3369,
      "Ġnature": 3370,
      "Ġintrodu": 3371,
      "ĠNational": 3372,
      "rill": 3373,
      "Ġlimited": 3374,
      "ties": 3375,
      "Ġrecip": 3376,
      "\".": 3377,
      "Ġcat": 3378,
      "etic": 3379,
      "Ġofficial": 3380,
      "hold": 3381,
      "ĠReg": 3382,
      "Our": 3383,
      "Ġdesigned": 3384,
      "Ġcand": 3385,
      "Ġreasons": 3386,
      "oly": 3387,
      "ession": 3388,
      "Ġrefer": 3389,
      "ograph": 3390,
      "ĠMin": 3391,
      "ĠMet": 3392,
      "Ġrights": 3393,
      "Ġshowed": 3394,
      "Ġfrequ": 3395,
      "Ġserious": 3396,
      "what": 3397,
      "Ġbase": 3398,
      "idence": 3399,
      "undred": 3400,
      "ĠFigure": 3401,
      "Ġtopic": 3402,
      "au": 3403,
      "Ġdepend": 3404,
      "Ġhealthy": 3405,
      "Ġsurv": 3406,
      "dd": 3407,
      "Ġcurrently": 3408,
      "oe": 3409,
      "Ġinteg": 3410,
      "ences": 3411,
      "Ġmag": 3412,
      "Ġvalues": 3413,
      "Ġleaders": 3414,
      "Ġtit": 3415,
      "Ġhighly": 3416,
      "imately": 3417,
      "Ġ27": 3418,
      "ĠQu": 3419,
      "mitted": 3420,
      "Ġmultiple": 3421,
      "Ġload": 3422,
      "priate": 3423,
      "aign": 3424,
      "oul": 3425,
      "Ġ2024": 3426,
      "light": 3427,
      "Ġstudent": 3428,
      "Ġmass": 3429,
      "enn": 3430,
      "58": 3431,
      "iring": 3432,
      "Ġseeing": 3433,
      "Ġimplement": 3434,
      "Ġseemed": 3435,
      "Ġtouch": 3436,
      "Ġobv": 3437,
      "obile": 3438,
      "Ġinterview": 3439,
      "ĠAf": 3440,
      "Hi": 3441,
      "Why": 3442,
      "ounts": 3443,
      "Ġusers": 3444,
      "Ġhusband": 3445,
      "set": 3446,
      "Ġeye": 3447,
      "Ġren": 3448,
      "Ġpurpose": 3449,
      "Ġdirectly": 3450,
      "Ġrespond": 3451,
      "Ġthroughout": 3452,
      "istics": 3453,
      "Ġreach": 3454,
      "ĠStud": 3455,
      "Ġcalc": 3456,
      "Ġdro": 3457,
      "arily": 3458,
      "Ġknows": 3459,
      "ales": 3460,
      "ĠWhy": 3461,
      "Ġsect": 3462,
      "Ġplaces": 3463,
      "Ġplanning": 3464,
      "ises": 3465,
      "Ġpressure": 3466,
      "Ġperhaps": 3467,
      "antly": 3468,
      "Ġ23": 3469,
      "ari": 3470,
      "Ġimage": 3471,
      "Ġbrand": 3472,
      "ighb": 3473,
      "Ġcourt": 3474,
      "Ġgrad": 3475,
      "ney": 3476,
      "Ġtrou": 3477,
      "ĠDr": 3478,
      "42": 3479,
      "Ġenter": 3480,
      "ING": 3481,
      "Ġbaby": 3482,
      "Ġinfo": 3483,
      "arc": 3484,
      "Ġmix": 3485,
      "ĠCal": 3486,
      "LL": 3487,
      "Ġbeginning": 3488,
      "esome": 3489,
      "Ġlots": 3490,
      "ĠÎ": 3491,
      "Ġtom": 3492,
      "Ġparts": 3493,
      "ĠAre": 3494,
      "Med": 3495,
      "Ġdiagn": 3496,
      "term": 3497,
      "Ġexperim": 3498,
      "Ġeffort": 3499,
      "uk": 3500,
      "Ġappl": 3501,
      "Ġsold": 3502,
      ")(": 3503,
      "Ġrates": 3504,
      "Ġcold": 3505,
      "Ġemerg": 3506,
      "Ġemot": 3507,
      "Ġalthough": 3508,
      "which": 3509,
      "ĠAny": 3510,
      "Ġchanged": 3511,
      "Ġgoal": 3512,
      "Ġannoun": 3513,
      "mon": 3514,
      "ĠCity": 3515,
      "isf": 3516,
      "Ġrid": 3517,
      "Ġ2014": 3518,
      "Ġcolor": 3519,
      "Ġthous": 3520,
      "Ġcode": 3521,
      "enge": 3522,
      "Ġspeed": 3523,
      "Ġattack": 3524,
      "ĠJanuary": 3525,
      "Ġphotos": 3526,
      "ĠEvery": 3527,
      "ĠBy": 3528,
      "cil": 3529,
      "iot": 3530,
      "Ġ:)": 3531,
      "Ġplans": 3532,
      "Ġfeature": 3533,
      "iqu": 3534,
      "itary": 3535,
      "son": 3536,
      "Ġdemonstr": 3537,
      "ĠFace": 3538,
      "mail": 3539,
      "Ġpan": 3540,
      "ĠChristmas": 3541,
      "Ġhelpful": 3542,
      "eth": 3543,
      "ese": 3544,
      "76": 3545,
      "Ġgives": 3546,
      "oper": 3547,
      "Ġbelie": 3548,
      "Just": 3549,
      "urg": 3550,
      "Ġachieve": 3551,
      "Ġmeasure": 3552,
      "Ġrout": 3553,
      "ino": 3554,
      "Ġlocation": 3555,
      "Ġpark": 3556,
      "Ġglobal": 3557,
      "Ġstories": 3558,
      "Ġprojects": 3559,
      "mber": 3560,
      "Ġproced": 3561,
      "Ġwrote": 3562,
      "Ġattempt": 3563,
      "Ġstra": 3564,
      "Ġpromot": 3565,
      "ĠChina": 3566,
      "hel": 3567,
      "âĢ¢": 3568,
      "rep": 3569,
      "!âĢĿ": 3570,
      "vey": 3571,
      "Ġmethods": 3572,
      "iced": 3573,
      "Ġcele": 3574,
      "Ġadvant": 3575,
      "ek": 3576,
      "imin": 3577,
      "ground": 3578,
      "Ġnotice": 3579,
      "OS": 3580,
      "tee": 3581,
      "Ġclients": 3582,
      "Ġnearly": 3583,
      "ÂŃ": 3584,
      "ops": 3585,
      "Ġdamage": 3586,
      "ĠCo": 3587,
      "sec": 3588,
      "??": 3589,
      "Ġnut": 3590,
      "Ġwaiting": 3591,
      "Ġbasis": 3592,
      "ederal": 3593,
      "ĠOct": 3594,
      "ĠAust": 3595,
      "Ġprogress": 3596,
      "aled": 3597,
      "Ġuser": 3598,
      "Ġbecame": 3599,
      "Ġball": 3600,
      "Ġdocument": 3601,
      "oes": 3602,
      "Ġclinical": 3603,
      "Ġchem": 3604,
      "Ġanaly": 3605,
      "Ġaccur": 3606,
      "Ġeasier": 3607,
      "Ġtradition": 3608,
      "Ġlanguage": 3609,
      "ĠPar": 3610,
      "ming": 3611,
      "Ġaim": 3612,
      "IC": 3613,
      "ĠWhile": 3614,
      "89": 3615,
      "Ġwhatever": 3616,
      "iven": 3617,
      "abor": 3618,
      "Ġroll": 3619,
      "Ġgreen": 3620,
      "Ġpleas": 3621,
      "rs": 3622,
      "yond": 3623,
      "ii": 3624,
      "56": 3625,
      "ĠDay": 3626,
      "ĠOb": 3627,
      "Ġautom": 3628,
      "lying": 3629,
      "Ġincludes": 3630,
      "These": 3631,
      "Ġcareer": 3632,
      "lection": 3633,
      "Ġcampaign": 3634,
      "Ġeconomic": 3635,
      "omp": 3636,
      "vent": 3637,
      "Ġconcent": 3638,
      "ada": 3639,
      "rest": 3640,
      "Ġdoll": 3641,
      "AM": 3642,
      "Ġclos": 3643,
      "Ġforce": 3644,
      "ength": 3645,
      "era": 3646,
      "Ġkept": 3647,
      "atform": 3648,
      "oup": 3649,
      "Ġhundred": 3650,
      "Ġincreasing": 3651,
      "Ġconnect": 3652,
      "Ġgreater": 3653,
      "ana": 3654,
      "Ġneighb": 3655,
      "ivil": 3656,
      "!!!": 3657,
      "Ġcollect": 3658,
      "Ġliter": 3659,
      "Ġfully": 3660,
      "Ġprograms": 3661,
      "Ġarr": 3662,
      "Ġfem": 3663,
      "Ġrelease": 3664,
      "ĠSouth": 3665,
      "ovember": 3666,
      "Ġallowed": 3667,
      "Ġhappens": 3668,
      "Ġsuccessful": 3669,
      "Ġfresh": 3670,
      "agement": 3671,
      "Ġthoughts": 3672,
      "inner": 3673,
      "pril": 3674,
      "Ġround": 3675,
      "Ġdiscussion": 3676,
      "iately": 3677,
      "lation": 3678,
      "pen": 3679,
      "itude": 3680,
      "Ġstage": 3681,
      "Ġanti": 3682,
      "Ġtast": 3683,
      "Ġmiddle": 3684,
      "Ġproviding": 3685,
      "adem": 3686,
      "AC": 3687,
      "Ġbeyond": 3688,
      "Ġhonest": 3689,
      "ality": 3690,
      "Ġmovie": 3691,
      "hest": 3692,
      "kay": 3693,
      "Ġinternational": 3694,
      "Ġheav": 3695,
      "unt": 3696,
      "Ġforget": 3697,
      "ĠDecember": 3698,
      "Ġplant": 3699,
      "Ġfile": 3700,
      "Ġvariety": 3701,
      "Ġmoving": 3702,
      "Ġlad": 3703,
      "Ġbenefit": 3704,
      "Ġvict": 3705,
      "79": 3706,
      "ĠEven": 3707,
      "ĠSept": 3708,
      "Ġtal": 3709,
      "no": 3710,
      "Ġbrother": 3711,
      "Ġlearned": 3712,
      "Ġpattern": 3713,
      "ufact": 3714,
      "ĠBar": 3715,
      "Un": 3716,
      "ionally": 3717,
      "Ġthreat": 3718,
      "Ġbuilt": 3719,
      "ĠĠĠĠĠĠĠĠ": 3720,
      "Ġbag": 3721,
      "Ġmid": 3722,
      "unk": 3723,
      "Ġrelig": 3724,
      "Ġcapt": 3725,
      "Ġahead": 3726,
      "Ġstyle": 3727,
      "Ġsqu": 3728,
      "Ġbreat": 3729,
      "Ġsteps": 3730,
      "Ġimages": 3731,
      "dom": 3732,
      "iar": 3733,
      "Ġdiet": 3734,
      "OM": 3735,
      "Ġtools": 3736,
      "ext": 3737,
      "itation": 3738,
      "Ġdoubt": 3739,
      "Ġmax": 3740,
      "ĠFacebook": 3741,
      "ender": 3742,
      "Ġwel": 3743,
      "Ġpublished": 3744,
      "Ġflu": 3745,
      "Ġgrowing": 3746,
      "oming": 3747,
      "Ġtips": 3748,
      "Ġvot": 3749,
      "Ġsignificantly": 3750,
      "Ġmist": 3751,
      "ĠPresident": 3752,
      "formation": 3753,
      "Some": 3754,
      "raft": 3755,
      "oday": 3756,
      "itter": 3757,
      "ĠMarch": 3758,
      "Your": 3759,
      "Ġfloor": 3760,
      "iber": 3761,
      "Ġpurchase": 3762,
      "Ġleading": 3763,
      "74": 3764,
      "attle": 3765,
      "Ġ80": 3766,
      "âĢĿ.": 3767,
      "Ġhelps": 3768,
      "Ġmeant": 3769,
      "Ġrelative": 3770,
      "ĠCol": 3771,
      "ĠTable": 3772,
      "amed": 3773,
      "ĠâĪĴ": 3774,
      "Ġorganization": 3775,
      "inally": 3776,
      "iated": 3777,
      "Ġnumbers": 3778,
      "âĢ¦]": 3779,
      "Ġfarm": 3780,
      "Ġpeace": 3781,
      "ĠRead": 3782,
      "ĠGl": 3783,
      "ipment": 3784,
      "Ġcompar": 3785,
      "assion": 3786,
      "Ġappropriate": 3787,
      "Ġfant": 3788,
      "ĠJune": 3789,
      "Ġrules": 3790,
      "Ġpictures": 3791,
      "pective": 3792,
      "Ġsche": 3793,
      "Ġdaughter": 3794,
      "pa": 3795,
      "Ġcharge": 3796,
      "ĠHouse": 3797,
      "Ġprotein": 3798,
      "bed": 3799,
      "atest": 3800,
      "Ġopinion": 3801,
      "Ġ90": 3802,
      "Ġstrength": 3803,
      "ĠCor": 3804,
      "Ġexec": 3805,
      "Ġ2013": 3806,
      "ĠChe": 3807,
      "Ġcry": 3808,
      "Ġfram": 3809,
      "Ġindepend": 3810,
      "Ġearlier": 3811,
      "gn": 3812,
      "Ġmaterials": 3813,
      "Ġstructure": 3814,
      "Ġregist": 3815,
      "esus": 3816,
      "Ġfinding": 3817,
      "Ġexcept": 3818,
      "Ġmeaning": 3819,
      "rast": 3820,
      "Ġdisplay": 3821,
      "Ġ2012": 3822,
      "Ġmentioned": 3823,
      "ĠUK": 3824,
      "Ġir": 3825,
      "Ġprinc": 3826,
      "Ġimmediately": 3827,
      "Ġintell": 3828,
      "ĠMark": 3829,
      "Ġtele": 3830,
      "Ġplayers": 3831,
      "Ġabsolutely": 3832,
      "Ġworry": 3833,
      "Ġkid": 3834,
      "vere": 3835,
      "Ġshoot": 3836,
      "dule": 3837,
      "Ġaltern": 3838,
      "Ġblock": 3839,
      "59": 3840,
      "lig": 3841,
      "Ġremind": 3842,
      "ĠAug": 3843,
      "Ġprefer": 3844,
      "word": 3845,
      "ĠBo": 3846,
      "olec": 3847,
      "Ġacqu": 3848,
      "ĠDes": 3849,
      "idents": 3850,
      "Ġextremely": 3851,
      "Ġspot": 3852,
      "ogen": 3853,
      "63": 3854,
      "rif": 3855,
      "ĠTV": 3856,
      "Ġpray": 3857,
      "Ex": 3858,
      "itable": 3859,
      "gy": 3860,
      "ously": 3861,
      "**": 3862,
      "ubMed": 3863,
      "rial": 3864,
      "Ġrap": 3865,
      "Ġmo": 3866,
      "ĠNorth": 3867,
      "order": 3868,
      "Ġplatform": 3869,
      "Ġsatisf": 3870,
      "round": 3871,
      "Ġremain": 3872,
      "73": 3873,
      "Ġstraight": 3874,
      "ĠEnglish": 3875,
      "Ġsounds": 3876,
      ".'": 3877,
      "AP": 3878,
      "Ġcollege": 3879,
      "ĠGood": 3880,
      "Ġoptim": 3881,
      "Ġhelped": 3882,
      "Ġcru": 3883,
      "Ġlatest": 3884,
      "84": 3885,
      "using": 3886,
      "ĠSm": 3887,
      "Ġstates": 3888,
      "Ġfamilies": 3889,
      "urning": 3890,
      "rief": 3891,
      "ĠBrit": 3892,
      "Ġdisapp": 3893,
      "Ġdemand": 3894,
      "Ġresist": 3895,
      "ĠYes": 3896,
      "Ġbudget": 3897,
      "Ġmodels": 3898,
      "Ġscient": 3899,
      "Ġnegative": 3900,
      "ĠDepartment": 3901,
      "elling": 3902,
      "ĠApril": 3903,
      "Ġstatement": 3904,
      "Ġoverall": 3905,
      "ĠRE": 3906,
      "CC": 3907,
      "fortun": 3908,
      "ĠHer": 3909,
      "Ġactive": 3910,
      "ĠUs": 3911,
      "resp": 3912,
      "ĠColl": 3913,
      "Ġrepe": 3914,
      "ĠSoci": 3915,
      "rugg": 3916,
      "Ġinstit": 3917,
      "sp": 3918,
      "54": 3919,
      "icine": 3920,
      "Ġbroad": 3921,
      "iles": 3922,
      "ĠNovember": 3923,
      "ti": 3924,
      "Ġshot": 3925,
      "Ġunless": 3926,
      "Ġidentify": 3927,
      "ctions": 3928,
      "Ġpassed": 3929,
      "Ġletter": 3930,
      "Ġallows": 3931,
      "Ġfol": 3932,
      "Ġsurface": 3933,
      "Ġwilling": 3934,
      "ĠZh": 3935,
      "rupt": 3936,
      "Ġlose": 3937,
      "Ġemployees": 3938,
      "inary": 3939,
      "andom": 3940,
      "Ġessential": 3941,
      "ĠMost": 3942,
      "Ġobserved": 3943,
      "Ġgirls": 3944,
      "Ġawesome": 3945,
      "Ġexpert": 3946,
      "ĠDa": 3947,
      "01": 3948,
      "Ġult": 3949,
      "ucle": 3950,
      "Ġfill": 3951,
      "arter": 3952,
      "orks": 3953,
      "rows": 3954,
      "Ġolder": 3955,
      "arden": 3956,
      "Ġslight": 3957,
      "53": 3958,
      "Sh": 3959,
      "Ġdeveloped": 3960,
      "Please": 3961,
      "Ġrequirements": 3962,
      "Ġden": 3963,
      "Ġregarding": 3964,
      "LE": 3965,
      "Ġded": 3966,
      "AD": 3967,
      "ĠMc": 3968,
      "Ġperformed": 3969,
      "Ġclot": 3970,
      "Pro": 3971,
      "idge": 3972,
      "udden": 3973,
      "Ġappreciate": 3974,
      "ulate": 3975,
      "osp": 3976,
      "ĠCons": 3977,
      "dro": 3978,
      "Ġsweet": 3979,
      "Ġdeb": 3980,
      "ercial": 3981,
      "Ġincome": 3982,
      "ague": 3983,
      "ĠGe": 3984,
      "Ġchallenge": 3985,
      "Ġlines": 3986,
      "ĠOctober": 3987,
      "overy": 3988,
      "eep": 3989,
      "Ġdoctor": 3990,
      "nes": 3991,
      "Ġhotel": 3992,
      "Ġdanger": 3993,
      "âĪĴ": 3994,
      "ĠDis": 3995,
      "ocol": 3996,
      "Ġ29": 3997,
      "ĠArt": 3998,
      "ĠPre": 3999,
      "Ġargu": 4000,
      "Ġgoals": 4001,
      "While": 4002,
      "mb": 4003,
      "Ġsorry": 4004,
      "ĠWas": 4005,
      "Ġaspect": 4006,
      "Ġbasic": 4007,
      "Ġmanufact": 4008,
      "Ġ2011": 4009,
      "Ġwatching": 4010,
      "Ġmoved": 4011,
      "Ġspirit": 4012,
      "pts": 4013,
      "ĠSeptember": 4014,
      "Ġver": 4015,
      "ĠJuly": 4016,
      "Let": 4017,
      "Ġculture": 4018,
      "Ġmine": 4019,
      "PubMed": 4020,
      "Ġplayed": 4021,
      "Then": 4022,
      "Ġgas": 4023,
      "Ġscience": 4024,
      "Ġ70": 4025,
      "Ġforg": 4026,
      "Ġdecre": 4027,
      "____": 4028,
      "Ġpsych": 4029,
      "ĠOF": 4030,
      "Ġheat": 4031,
      "Ġstrugg": 4032,
      "Ġcreating": 4033,
      "ĠBi": 4034,
      "Ġsubs": 4035,
      "ĠFrom": 4036,
      "ĠGerm": 4037,
      "Ġarticles": 4038,
      "Ġbre": 4039,
      "Ġestabl": 4040,
      "Ġtherefore": 4041,
      "Ġstrategy": 4042,
      "rated": 4043,
      "Ġdat": 4044,
      "itchen": 4045,
      "ĠÃ": 4046,
      "Ġsympt": 4047,
      "Ġmodern": 4048,
      "Ġgun": 4049,
      "Ġcateg": 4050,
      "ĠSchool": 4051,
      "Ġattract": 4052,
      "Ġled": 4053,
      "fficient": 4054,
      "erson": 4055,
      "Ġrev": 4056,
      "ta": 4057,
      "Ġsecret": 4058,
      "Ġhous": 4059,
      "Ġprimary": 4060,
      "see": 4061,
      "Ġlocated": 4062,
      "Ġformer": 4063,
      "Ġsuff": 4064,
      "Ġign": 4065,
      "ĠWar": 4066,
      "ĠPa": 4067,
      "ĠRec": 4068,
      "Ġsad": 4069,
      "Ġenjoyed": 4070,
      "ĠAfric": 4071,
      "Ġreality": 4072,
      "Ġweather": 4073,
      "Ġwhose": 4074,
      "Ġresponsible": 4075,
      "rehen": 4076,
      "Ġnation": 4077,
      "Ġgrand": 4078,
      "ography": 4079,
      "Ġconsult": 4080,
      "uate": 4081,
      "OL": 4082,
      "gg": 4083,
      "ris": 4084,
      "ĠOh": 4085,
      "Ġearth": 4086,
      "Ġstock": 4087,
      "Ġclearly": 4088,
      "Ġton": 4089,
      "uel": 4090,
      "ĠÂ£": 4091,
      "ears": 4092,
      "Ġvalid": 4093,
      "Ġmental": 4094,
      "ET": 4095,
      "ĠCount": 4096,
      "Ġaf": 4097,
      "Ġblue": 4098,
      "Ġacid": 4099,
      "Ġmatch": 4100,
      "Ġopportunities": 4101,
      "II": 4102,
      "Ġchurch": 4103,
      "Ġtick": 4104,
      "Ġing": 4105,
      "iling": 4106,
      "Ġfaith": 4107,
      "PS": 4108,
      "omen": 4109,
      "Ġ_": 4110,
      "Ġappears": 4111,
      "Ġequipment": 4112,
      "Ġafford": 4113,
      "Ġphoto": 4114,
      "orge": 4115,
      "Ġsociety": 4116,
      "41": 4117,
      "Ġstatus": 4118,
      "itiz": 4119,
      "Ġtransfer": 4120,
      "Ġdegree": 4121,
      "bon": 4122,
      "Ġrestaur": 4123,
      "ĠSim": 4124,
      "Ġposted": 4125,
      "Ġdied": 4126,
      "ĠAlso": 4127,
      "Ġdownload": 4128,
      "Ġinteract": 4129,
      "Ġinvestment": 4130,
      "Ġincred": 4131,
      "ĠEl": 4132,
      "apan": 4133,
      "oma": 4134,
      "aves": 4135,
      "Ġasking": 4136,
      "mar": 4137,
      "ournal": 4138,
      "Ġwat": 4139,
      "ruit": 4140,
      "Ġtrade": 4141,
      "OV": 4142,
      "Ġlength": 4143,
      "Ġreflect": 4144,
      "Ġdevice": 4145,
      "ĠChar": 4146,
      "ĠJesus": 4147,
      "Ġvehicle": 4148,
      "Ġdrop": 4149,
      "ĠHigh": 4150,
      "Ġschools": 4151,
      "Ġevening": 4152,
      "Ġpredict": 4153,
      "Ġpresident": 4154,
      "Ġguid": 4155,
      "Ġbusinesses": 4156,
      "ccording": 4157,
      "Ġpresence": 4158,
      "Ġglass": 4159,
      "Ġcollection": 4160,
      "ĠAugust": 4161,
      "Ġwood": 4162,
      "Ġbill": 4163,
      "Ġbottom": 4164,
      "Ġoccas": 4165,
      "92": 4166,
      "pm": 4167,
      "Ġsetting": 4168,
      "ĠSte": 4169,
      "Ġactual": 4170,
      "ocks": 4171,
      "Ġdigital": 4172,
      "new": 4173,
      "Ġspread": 4174,
      "ĠFirst": 4175,
      "Ġcoff": 4176,
      "anging": 4177,
      "Ġtren": 4178,
      "Ġdescribed": 4179,
      "Ġbehavior": 4180,
      "Ġprepared": 4181,
      "Ġexplain": 4182,
      "Ġserve": 4183,
      "iled": 4184,
      "Ġdriving": 4185,
      "ĠHar": 4186,
      "Ġgold": 4187,
      "Ġcaused": 4188,
      "ĠLord": 4189,
      "cast": 4190,
      "Ġrace": 4191,
      "Ġsupposed": 4192,
      "Ġsmart": 4193,
      "83": 4194,
      "Ġepis": 4195,
      "Ġcritical": 4196,
      "Ġotherwise": 4197,
      "ĠðŁĻ": 4198,
      "Any": 4199,
      "Ġclub": 4200,
      "ĠVal": 4201,
      "Ġcash": 4202,
      "Ġharm": 4203,
      "Ġgenerally": 4204,
      "ĠInternational": 4205,
      "Ġkeeping": 4206,
      "friend": 4207,
      "Ġmachine": 4208,
      "Ġadop": 4209,
      "Ġrealize": 4210,
      "Ġshared": 4211,
      "ĠKing": 4212,
      "la": 4213,
      "Ġcenter": 4214,
      "ĠTO": 4215,
      "Ġdry": 4216,
      "Ġ2010": 4217,
      "Ġtotally": 4218,
      "ros": 4219,
      "Ġund": 4220,
      "Ġguide": 4221,
      "iant": 4222,
      "Ġpowerful": 4223,
      "down": 4224,
      "terday": 4225,
      "Every": 4226,
      "Ġexhib": 4227,
      "\",": 4228,
      "ken": 4229,
      "ION": 4230,
      "Ġprices": 4231,
      "Ġworse": 4232,
      "Ġrain": 4233,
      "clus": 4234,
      "Ġox": 4235,
      "Ġrelevant": 4236,
      "Ġ31": 4237,
      "Ġreports": 4238,
      "Ġmiles": 4239,
      "Ġinstruct": 4240,
      "ĠEar": 4241,
      "Ġcomfortable": 4242,
      "Ġorganiz": 4243,
      "Ġoffered": 4244,
      "force": 4245,
      "ĠHave": 4246,
      "icip": 4247,
      "Ġprin": 4248,
      "Ġcontinu": 4249,
      "Ġstick": 4250,
      "Ġefforts": 4251,
      "ĠFriday": 4252,
      "Ġmobile": 4253,
      "Ġwindow": 4254,
      "Ġhelping": 4255,
      "key": 4256,
      "Ġmilitary": 4257,
      "Ġdecide": 4258,
      "Ġtemperature": 4259,
      "ĠMany": 4260,
      "ĠGreat": 4261,
      "Ġfirm": 4262,
      "Ġtraffic": 4263,
      "Ġcommunic": 4264,
      "Ġbath": 4265,
      "Ġjobs": 4266,
      "Ġcompon": 4267,
      "osure": 4268,
      "Ġscen": 4269,
      "ĠAustral": 4270,
      "acity": 4271,
      "aven": 4272,
      "Ġowners": 4273,
      "62": 4274,
      "Ġband": 4275,
      "istry": 4276,
      "Ġcapital": 4277,
      "Ġwhom": 4278,
      "ĠTrans": 4279,
      "ube": 4280,
      "Ġreleased": 4281,
      "acing": 4282,
      "well": 4283,
      "Ġtransport": 4284,
      "Ġexcited": 4285,
      "ault": 4286,
      "Re": 4287,
      "Ġadvantage": 4288,
      "However": 4289,
      "Ġcelebr": 4290,
      "cribe": 4291,
      "71": 4292,
      "Ġmount": 4293,
      "ĠIN": 4294,
      "Ġregion": 4295,
      "Ġdinner": 4296,
      "Ġputting": 4297,
      "Ġ|": 4298,
      "iques": 4299,
      "ĠOffic": 4300,
      "Ġspect": 4301,
      "Ġeating": 4302,
      "related": 4303,
      "ressive": 4304,
      "was": 4305,
      "Ġadjust": 4306,
      "apter": 4307,
      "Ġcandid": 4308,
      "ĠMon": 4309,
      "Ġfinished": 4310,
      "Ġrock": 4311,
      "Ġshowing": 4312,
      "Ġcatch": 4313,
      "ica": 4314,
      "Ġdress": 4315,
      "ĠCour": 4316,
      "Ġgift": 4317,
      "Ġtoward": 4318,
      "Ġdirection": 4319,
      "encies": 4320,
      "Ġquiet": 4321,
      "ĠFeb": 4322,
      "Ġthus": 4323,
      "Of": 4324,
      "riage": 4325,
      "ĠEm": 4326,
      "Ġsudden": 4327,
      "Ġpros": 4328,
      "Ġdeliver": 4329,
      "ded": 4330,
      "],": 4331,
      "Ġminute": 4332,
      "Ġeth": 4333,
      "enses": 4334,
      "Ġtrouble": 4335,
      "ae": 4336,
      "Ġpresented": 4337,
      "aries": 4338,
      "Ġarch": 4339,
      "ĠðŁĻĤ": 4340,
      "Ġexperienced": 4341,
      "ĠPark": 4342,
      "Ġdiscovered": 4343,
      "dy": 4344,
      "Ġmut": 4345,
      "place": 4346,
      "Ġsitting": 4347,
      "Ġbusy": 4348,
      "izes": 4349,
      "Ġchallenges": 4350,
      "Ġestim": 4351,
      "Can": 4352,
      "Ġrare": 4353,
      "Ġproperties": 4354,
      "Ġrelax": 4355,
      "ooking": 4356,
      "Ġbillion": 4357,
      "ĠSci": 4358,
      "icks": 4359,
      "ivery": 4360,
      "Ġtherapy": 4361,
      "ils": 4362,
      "MS": 4363,
      "Ġlovely": 4364,
      "Ġcircum": 4365,
      "Ġemb": 4366,
      "Ġadvert": 4367,
      "ĠYOU": 4368,
      "72": 4369,
      "ĠSunday": 4370,
      "Ġfactor": 4371,
      "Ġcontinued": 4372,
      "entially": 4373,
      "change": 4374,
      "Ġhom": 4375,
      "Ġsust": 4376,
      "Ġjourney": 4377,
      "Ġplenty": 4378,
      "Ġfan": 4379,
      "Ġwild": 4380,
      "Ġworkers": 4381,
      "ux": 4382,
      "Ġimagine": 4383,
      "Ġinfluence": 4384,
      "Ġbought": 4385,
      "hern": 4386,
      "Ġspecies": 4387,
      "rate": 4388,
      "ĠJapan": 4389,
      "coh": 4390,
      "isions": 4391,
      "Ġkitchen": 4392,
      "Ġdetermine": 4393,
      "Ġwed": 4394,
      "Ġmort": 4395,
      "aturday": 4396,
      "ĠTrump": 4397,
      "arant": 4398,
      "Ġsequ": 4399,
      "Ġcoffee": 4400,
      "ara": 4401,
      "Ġtiss": 4402,
      "Ġapplications": 4403,
      "oles": 4404,
      "82": 4405,
      "Ġcorpor": 4406,
      "Ġcert": 4407,
      "iny": 4408,
      "ran": 4409,
      "ĠCommun": 4410,
      "ray": 4411,
      "Ġeight": 4412,
      "Ġbalance": 4413,
      "Ġcivil": 4414,
      "cent": 4415,
      "Ġquant": 4416,
      "anted": 4417,
      "Ġpages": 4418,
      "Ġeconomy": 4419,
      "TH": 4420,
      "Ġvote": 4421,
      "ĠInternet": 4422,
      "Ġmouth": 4423,
      "comes": 4424,
      "By": 4425,
      "52": 4426,
      "Ġproduce": 4427,
      "ĠRo": 4428,
      "Ġesc": 4429,
      "ondon": 4430,
      "Ġgar": 4431,
      "eration": 4432,
      "Ġsymptoms": 4433,
      "Ġpet": 4434,
      "âĢĺ": 4435,
      "Ġparticipants": 4436,
      "ĠMaybe": 4437,
      "yt": 4438,
      "Ġdie": 4439,
      "part": 4440,
      "Ġpoly": 4441,
      "omb": 4442,
      "Ã©": 4443,
      "Ġcovered": 4444,
      "ĠRepublic": 4445,
      "ams": 4446,
      "ĠWest": 4447,
      "Ġleaving": 4448,
      "Ġauthors": 4449,
      "Ġvac": 4450,
      "iable": 4451,
      "Ġdecl": 4452,
      "Ġsolutions": 4453,
      "ĠDem": 4454,
      "Ġrob": 4455,
      "Ġscore": 4456,
      "ĠPeople": 4457,
      "che": 4458,
      "ĠGet": 4459,
      "Ġsale": 4460,
      "ager": 4461,
      "usiness": 4462,
      "icious": 4463,
      "Ġsamples": 4464,
      "Ġwalking": 4465,
      "Ġarm": 4466,
      "onday": 4467,
      "Ġlarger": 4468,
      "ĠResearch": 4469,
      "Ġpartners": 4470,
      "Ġ2020": 4471,
      "acters": 4472,
      "Ġmission": 4473,
      "ĠPol": 4474,
      "ĠData": 4475,
      "Ġborn": 4476,
      "Ġhighest": 4477,
      "Ġpayment": 4478,
      "Ġexisting": 4479,
      "ĠCD": 4480,
      "ky": 4481,
      "ruary": 4482,
      "Ġaudience": 4483,
      "Ġrandom": 4484,
      "Ġtrial": 4485,
      "ancing": 4486,
      "ĠRed": 4487,
      "Ġthrow": 4488,
      "Ġtraditional": 4489,
      "amic": 4490,
      "Ġpregn": 4491,
      "ologies": 4492,
      "fortunately": 4493,
      "amin": 4494,
      "ancer": 4495,
      "itute": 4496,
      "Ġmajority": 4497,
      "Ġextend": 4498,
      "Ġmanner": 4499,
      "Ġconsistent": 4500,
      "IV": 4501,
      "Ġseven": 4502,
      "Ġpool": 4503,
      "Ġwaste": 4504,
      "Ġfing": 4505,
      "Ġstreet": 4506,
      "ipped": 4507,
      "raid": 4508,
      "Ġdifferences": 4509,
      "uman": 4510,
      "ĠBecause": 4511,
      "Ġcreative": 4512,
      "Ġclient": 4513,
      "Ġcontain": 4514,
      "Ġpromis": 4515,
      "Ġ2019": 4516,
      "ĠCenter": 4517,
      "inct": 4518,
      "Ġcommunication": 4519,
      "Ġanimals": 4520,
      "Ġmemory": 4521,
      "Ġappoint": 4522,
      "SS": 4523,
      "Ġsupply": 4524,
      "03": 4525,
      "Ġspending": 4526,
      "osition": 4527,
      "Ġ2022": 4528,
      "ums": 4529,
      "Ġsample": 4530,
      "uable": 4531,
      "Ġwelcome": 4532,
      "Ġconversation": 4533,
      "Ġfantastic": 4534,
      "ĠCoun": 4535,
      "Ġsmile": 4536,
      "ĠEuropean": 4537,
      "Ġfab": 4538,
      "ifically": 4539,
      "Ġforeign": 4540,
      "Ġcommercial": 4541,
      "Ġfriendly": 4542,
      "Ġplayer": 4543,
      "Ġcomplic": 4544,
      "Ġanyway": 4545,
      "Ġfeels": 4546,
      "Ġtitle": 4547,
      "fast": 4548,
      "ĠSw": 4549,
      "Ġinitial": 4550,
      "Ġreached": 4551,
      "aint": 4552,
      "Ġcharacters": 4553,
      "bit": 4554,
      "OW": 4555,
      "Ġopened": 4556,
      "Ġmill": 4557,
      "ĠOther": 4558,
      "ĠFig": 4559,
      "Ġjump": 4560,
      "Ġ2023": 4561,
      "ours": 4562,
      "ĠST": 4563,
      "Ġlinks": 4564,
      "board": 4565,
      "ij": 4566,
      "respond": 4567,
      "Ġtreated": 4568,
      "gers": 4569,
      "Ġmur": 4570,
      "Ġremains": 4571,
      "Ġtelling": 4572,
      "Ġpow": 4573,
      "Ġhearing": 4574,
      "ĠRuss": 4575,
      "Ġparties": 4576,
      "Ġfinish": 4577,
      "Ġachie": 4578,
      "di": 4579,
      "Ġended": 4580,
      "uild": 4581,
      "Ġ45": 4582,
      "Ġcards": 4583,
      "Ġidentified": 4584,
      "61": 4585,
      "ossible": 4586,
      "Figure": 4587,
      "ĠClin": 4588,
      "cell": 4589,
      "Ġpartner": 4590,
      "Ġestablished": 4591,
      "this": 4592,
      "Ġaccident": 4593,
      "Ġsen": 4594,
      "utive": 4595,
      "unction": 4596,
      "under": 4597,
      "Ġdouble": 4598,
      "fe": 4599,
      "Ġplaced": 4600,
      "Are": 4601,
      "Ġinjury": 4602,
      "Ġvir": 4603,
      "ĠAng": 4604,
      "ĠSaturday": 4605,
      "Ġ2021": 4606,
      "ĠAM": 4607,
      "Ġrequires": 4608,
      "Ġkilled": 4609,
      "Ġholiday": 4610,
      "Ġprotection": 4611,
      "Ġreplace": 4612,
      "asts": 4613,
      "iding": 4614,
      "Ġdoi": 4615,
      "Ġfish": 4616,
      "Ġdistance": 4617,
      "men": 4618,
      "ometimes": 4619,
      "Ġupdate": 4620,
      "Ġcamera": 4621,
      "Ġapprox": 4622,
      "91": 4623,
      "âĢ¦.": 4624,
      "ĠSE": 4625,
      "Ġpossibly": 4626,
      "Ġsem": 4627,
      "Ġnor": 4628,
      "Ġreduced": 4629,
      "Ġdetermined": 4630,
      "Ġdut": 4631,
      "Ġonto": 4632,
      "Ġsexual": 4633,
      "Ġrule": 4634,
      "Ġtesting": 4635,
      "Ġconducted": 4636,
      "aker": 4637,
      "rolled": 4638,
      "Ġstopped": 4639,
      "ĠLondon": 4640,
      "Ġuses": 4641,
      "know": 4642,
      "ĠAND": 4643,
      "Ġrelationships": 4644,
      "Ġgain": 4645,
      "Ġconcept": 4646,
      "kn": 4647,
      "Ġmetab": 4648,
      "Ġcitiz": 4649,
      "Ġlaws": 4650,
      "Ġtask": 4651,
      "Ġutil": 4652,
      "ibrary": 4653,
      "Ġcomprehen": 4654,
      "Ġsurround": 4655,
      "ĠEd": 4656,
      "Ġprofession": 4657,
      "ste": 4658,
      "Ġobtained": 4659,
      "Ġbiggest": 4660,
      "ĠWho": 4661,
      "001": 4662,
      "Ġhistor": 4663,
      "Ġfolks": 4664,
      "Ġmanaged": 4665,
      "Ġprincip": 4666,
      "Ġhell": 4667,
      "orage": 4668,
      "Ġmagn": 4669,
      "Ġnames": 4670,
      "duc": 4671,
      "Ġcrow": 4672,
      "Ġpassion": 4673,
      "Ġfindings": 4674,
      "Ġheavy": 4675,
      "onna": 4676,
      "Ġefficient": 4677,
      "Ġtechniques": 4678,
      "Ġassum": 4679,
      "Ġwww": 4680,
      "going": 4681,
      "ĠMus": 4682,
      "night": 4683,
      "ĠCong": 4684,
      "Ġstrategies": 4685,
      "standing": 4686,
      "coming": 4687,
      "Ġequal": 4688,
      "ĠMonday": 4689,
      "Ġtomorrow": 4690,
      "Ġmovement": 4691,
      "Ġdelivery": 4692,
      "ero": 4693,
      "appy": 4694,
      "Ġgarden": 4695,
      "Ġdevices": 4696,
      "Ġcast": 4697,
      "uthor": 4698,
      "Ġpieces": 4699,
      "ĠTechn": 4700,
      "rench": 4701,
      "Ġlived": 4702,
      "Ġconnection": 4703,
      "iforn": 4704,
      "Ġbuying": 4705,
      "Ġannual": 4706,
      "ĠFl": 4707,
      "Ġ2009": 4708,
      "Ġcalls": 4709,
      "Ġcompleted": 4710,
      "Ġherself": 4711,
      "she": 4712,
      "ĠFebruary": 4713,
      "Ġreaders": 4714,
      "Ġactions": 4715,
      "ĠUSA": 4716,
      "Ġvictim": 4717,
      "Ġclaims": 4718,
      "ĠInc": 4719,
      "Ġyesterday": 4720,
      "ashion": 4721,
      "ani": 4722,
      "Ġsurgery": 4723,
      "Ġdecisions": 4724,
      "alysis": 4725,
      "Ġafraid": 4726,
      "Ġinfl": 4727,
      "Ġsurprised": 4728,
      "May": 4729,
      "ĠON": 4730,
      "Ġcup": 4731,
      "house": 4732,
      "Ġparam": 4733,
      "Ġboys": 4734,
      "Ġexpensive": 4735,
      "Ġsources": 4736,
      "wide": 4737,
      "Ġtree": 4738,
      "Ġyours": 4739,
      "Ġhab": 4740,
      "oney": 4741,
      "ael": 4742,
      "roph": 4743,
      "Ġplus": 4744,
      "Ġindeed": 4745,
      "Ġminimum": 4746,
      "Ġhate": 4747,
      "Ġdiscover": 4748,
      "IP": 4749,
      "eds": 4750,
      "iat": 4751,
      "Ġbecoming": 4752,
      "Ġprem": 4753,
      "ensity": 4754,
      "Ġcaught": 4755,
      "Ġ2008": 4756,
      "Ġscene": 4757,
      "Ġfederal": 4758,
      "Ġcapacity": 4759,
      "Ġgovern": 4760,
      "Ġknowing": 4761,
      "Ġfailure": 4762,
      "rim": 4763,
      "Ġwinter": 4764,
      "ses": 4765,
      "ament": 4766,
      "Ġintellig": 4767,
      "Ġvill": 4768,
      "Ġreact": 4769,
      "Ġbow": 4770,
      "Ġsea": 4771,
      "Ġadding": 4772,
      "eline": 4773,
      "ĠWang": 4774,
      "isation": 4775,
      "Ġpm": 4776,
      "eters": 4777,
      "Ġstanding": 4778,
      "Ġalb": 4779,
      "unte": 4780,
      "ĠIS": 4781,
      "Ġforms": 4782,
      "51": 4783,
      "estern": 4784,
      "Ġder": 4785,
      "ĠMich": 4786,
      "ĠNOT": 4787,
      "ĠLove": 4788,
      "!)": 4789,
      "Ġclosed": 4790,
      "Ġdeveloping": 4791,
      "alt": 4792,
      "imen": 4793,
      "Ġmostly": 4794,
      "Ġcarried": 4795,
      "Ġagreement": 4796,
      "amb": 4797,
      "Ġadvance": 4798,
      "rible": 4799,
      "Ġviews": 4800,
      "ĠUp": 4801,
      "ĠSupp": 4802,
      "ference": 4803,
      "ĠPM": 4804,
      "Ph": 4805,
      "isms": 4806,
      "anch": 4807,
      "ifornia": 4808,
      "ĠFood": 4809,
      "Ġcircumst": 4810,
      "Ġdespite": 4811,
      "Ġnucle": 4812,
      "rael": 4813,
      "Ġbecomes": 4814,
      "Ġdrugs": 4815,
      "Fig": 4816,
      "Ġopening": 4817,
      "Ġmissing": 4818,
      "CA": 4819,
      "Ġapplied": 4820,
      "can": 4821,
      "Ġlicense": 4822,
      "Ġur": 4823,
      "Ġourselves": 4824,
      "Ġguarant": 4825,
      "fit": 4826,
      "Ġresponsibility": 4827,
      "Ġimportance": 4828,
      "Hey": 4829,
      "Ġice": 4830,
      "Ġexpress": 4831,
      "Ġreference": 4832,
      "ĠOut": 4833,
      "Ġsoul": 4834,
      "ĠCanada": 4835,
      "Ġthousands": 4836,
      "Ġdebt": 4837,
      "Ġshut": 4838,
      "Ġindependent": 4839,
      "poses": 4840,
      "ĠIT": 4841,
      "Have": 4842,
      "ĠSch": 4843,
      "Ġsitu": 4844,
      "free": 4845,
      "ĠAssoci": 4846,
      "ĠSub": 4847,
      "ĠNet": 4848,
      "Ġmail": 4849,
      "upp": 4850,
      "ĠBro": 4851,
      "Ġban": 4852,
      "ĠSan": 4853,
      "Ġstandards": 4854,
      "Ġnumer": 4855,
      "log": 4856,
      "ello": 4857,
      "ront": 4858,
      "CH": 4859,
      "cont": 4860,
      "Ġbrief": 4861,
      "Ġhandle": 4862,
      "Ġteaching": 4863,
      "Ġcoverage": 4864,
      "Ġhar": 4865,
      "Ġvisual": 4866,
      "Ġta": 4867,
      "Ġcars": 4868,
      "iff": 4869,
      "imb": 4870,
      "Ġsick": 4871,
      "Ġanx": 4872,
      "Ġpolicies": 4873,
      "char": 4874,
      "ipping": 4875,
      "odes": 4876,
      "Ġchanging": 4877,
      "atio": 4878,
      "erences": 4879,
      "roy": 4880,
      "Ġpun": 4881,
      "Ġ;": 4882,
      "igned": 4883,
      "inated": 4884,
      "uration": 4885,
      "Ġteams": 4886,
      "Ġconcerned": 4887,
      "venue": 4888,
      "Ġplants": 4889,
      "Ġsnow": 4890,
      "Ġsolid": 4891,
      "Ġoffering": 4892,
      "Ġnone": 4893,
      "Ġ@": 4894,
      "hether": 4895,
      "ĠLife": 4896,
      "ula": 4897,
      "Ġrich": 4898,
      "Ġreturned": 4899,
      "Ġtechnical": 4900,
      "Ġconstruction": 4901,
      "cohol": 4902,
      "Ġcentury": 4903,
      "ĠSam": 4904,
      "ĠSee": 4905,
      "Ġowner": 4906,
      "OD": 4907,
      "Ġentertain": 4908,
      "ternal": 4909,
      "Ġadministration": 4910,
      "rees": 4911,
      "omy": 4912,
      "ĠAlthough": 4913,
      "Ġhomes": 4914,
      "Ġcheap": 4915,
      "Ġadults": 4916,
      "eria": 4917,
      "Ġproud": 4918,
      "ĠMod": 4919,
      "atically": 4920,
      "Ġsister": 4921,
      "Ġunit": 4922,
      "Ġfunny": 4923,
      "noon": 4924,
      "eech": 4925,
      "Ġfilled": 4926,
      "Ġexciting": 4927,
      "Ġserved": 4928,
      "ht": 4929,
      "........": 4930,
      "Ġbackground": 4931,
      "Ġmeasures": 4932,
      "Ġselection": 4933,
      "Ġseek": 4934,
      "Ġraised": 4935,
      "tion": 4936,
      "Ġsession": 4937,
      "Ġfemale": 4938,
      "Ġhappening": 4939,
      "ĠLike": 4940,
      "rad": 4941,
      "gin": 4942,
      ".-": 4943,
      "Ġwis": 4944,
      "ulous": 4945,
      "Ġdistribution": 4946,
      "Ġconsequ": 4947,
      "iveness": 4948,
      "Ġmarried": 4949,
      "imal": 4950,
      "Ġpaying": 4951,
      "Ġsevere": 4952,
      "ĠScience": 4953,
      "ĠMake": 4954,
      "Ġnoticed": 4955,
      "ĠChild": 4956,
      "ĠSen": 4957,
      "ait": 4958,
      "Ġpoll": 4959,
      "Ġmaster": 4960,
      "ico": 4961,
      "Ġship": 4962,
      "Ġfans": 4963,
      "Ġoutcomes": 4964,
      "02": 4965,
      "Ġvideos": 4966,
      "ham": 4967,
      "Ġprocesses": 4968,
      "Ġconflic": 4969,
      "Ġdollars": 4970,
      "Ġhurt": 4971,
      "Ġride": 4972,
      "mg": 4973,
      ",'": 4974,
      "Ġapparent": 4975,
      "Ġsmaller": 4976,
      "Ġelectric": 4977,
      "Ġcounter": 4978,
      "Ġanimal": 4979,
      "hington": 4980,
      "ompl": 4981,
      "inn": 4982,
      "Ġweap": 4983,
      "Ġproposed": 4984,
      "Ġideal": 4985,
      "Ġfreed": 4986,
      "phone": 4987,
      "olf": 4988,
      "ĠLaw": 4989,
      "IG": 4990,
      "odies": 4991,
      "Ġchann": 4992,
      "Ġalternative": 4993,
      "BC": 4994,
      "04": 4995,
      "Ġincor": 4996,
      "ighten": 4997,
      "Ġexpand": 4998,
      "Ġvirt": 4999,
      "Ġusual": 5000,
      "itness": 5001,
      "Ġdesire": 5002,
      "Also": 5003,
      "Ġwedding": 5004,
      "Ġrecipe": 5005,
      "Ġmotiv": 5006,
      "Ġcombination": 5007,
      "Me": 5008,
      "Ġcommand": 5009,
      "Ġschedule": 5010,
      "Ġvaluable": 5011,
      "ĠWhite": 5012,
      "works": 5013,
      "Ġexplore": 5014,
      "lies": 5015,
      "eut": 5016,
      "ĠSince": 5017,
      "rant": 5018,
      "Ġteacher": 5019,
      "ĠPC": 5020,
      "rd": 5021,
      "Ġthread": 5022,
      "Ġobvious": 5023,
      "Ġlunch": 5024,
      "Ġenvironmental": 5025,
      "Ġadapt": 5026,
      "ĠSystem": 5027,
      "Ġspeaking": 5028,
      "Ġslightly": 5029,
      "Ġmi": 5030,
      "Ġarms": 5031,
      "Ġ>": 5032,
      "Ġwalked": 5033,
      "rab": 5034,
      "ĠCouncil": 5035,
      "ald": 5036,
      "Ġconfidence": 5037,
      "ĠObama": 5038,
      "icated": 5039,
      "ĠJournal": 5040,
      "ĠOver": 5041,
      "Ġcontext": 5042,
      "ĠCalifornia": 5043,
      "eting": 5044,
      "Ġapart": 5045,
      "Ġagg": 5046,
      "Ġanywhere": 5047,
      "500": 5048,
      "Ġproperly": 5049,
      "Ġholding": 5050,
      "OP": 5051,
      "they": 5052,
      "81": 5053,
      "ented": 5054,
      "Ġweak": 5055,
      "Ġpractices": 5056,
      "Ġscale": 5057,
      "aid": 5058,
      "Ġpreviously": 5059,
      "Ġcorner": 5060,
      "arian": 5061,
      "ĠGovernment": 5062,
      "Ġearn": 5063,
      "Ġtaste": 5064,
      "Ġremove": 5065,
      "Ġcentral": 5066,
      "Ġenem": 5067,
      "osen": 5068,
      "ooth": 5069,
      "Ġhoping": 5070,
      "rig": 5071,
      "Ġrevealed": 5072,
      "clusion": 5073,
      "Ġliked": 5074,
      "Ġshopping": 5075,
      "Ġcalling": 5076,
      "Ġjournal": 5077,
      "Ad": 5078,
      "Ġcrazy": 5079,
      "Ġshape": 5080,
      "Ġagreed": 5081,
      "rt": 5082,
      "ĠCourt": 5083,
      "Ġbutton": 5084,
      "Ġdriver": 5085,
      "âĢĿ,": 5086,
      "Ġseparate": 5087,
      "Ġtests": 5088,
      "Ġconsidering": 5089,
      "ission": 5090,
      "Ġorganizations": 5091,
      "Ġcommunities": 5092,
      "Ġfuck": 5093,
      "Ġproduced": 5094,
      "Ġclasses": 5095,
      "Ġrise": 5096,
      "Ġchemical": 5097,
      "Ġfamiliar": 5098,
      "Ġstation": 5099,
      "Ġclimate": 5100,
      "Once": 5101,
      "Ġdear": 5102,
      "Ġselected": 5103,
      "Ġseriously": 5104,
      "agon": 5105,
      "ĠMicro": 5106,
      "Ġlegis": 5107,
      "Ġran": 5108,
      "Ġinterests": 5109,
      "Ġ33": 5110,
      "Ġconce": 5111,
      "ype": 5112,
      "ĠDirect": 5113,
      "ĠCell": 5114,
      "Ġimpossible": 5115,
      "Ġgene": 5116,
      "Ġelements": 5117,
      "isted": 5118,
      "Ġassessment": 5119,
      "Ġvisiting": 5120,
      "gment": 5121,
      "Ġeventually": 5122,
      "ĠProg": 5123,
      "Ġreplied": 5124,
      "Ġfocused": 5125,
      "Ġepisode": 5126,
      "Ġconven": 5127,
      "IR": 5128,
      "ĠCre": 5129,
      "AY": 5130,
      "Ġaccompl": 5131,
      "Ġbless": 5132,
      "inese": 5133,
      "inding": 5134,
      "Ġteach": 5135,
      "known": 5136,
      "ĠPost": 5137,
      "Ġsurvey": 5138,
      "Ġfollows": 5139,
      "Ġ32": 5140,
      "Ġstood": 5141,
      "roid": 5142,
      "Ġstarts": 5143,
      "Ġprison": 5144,
      "ĠTime": 5145,
      "Ġpus": 5146,
      "Ġafternoon": 5147,
      "ipp": 5148,
      "ĠWhere": 5149,
      "Ġproceed": 5150,
      "Ġconcerns": 5151,
      "ĠBoard": 5152,
      "raction": 5153,
      "iration": 5154,
      "Ġsector": 5155,
      "Ġsuspect": 5156,
      "Ġfunds": 5157,
      "oking": 5158,
      "Ġcauses": 5159,
      "iers": 5160,
      "Ġstorage": 5161,
      "ĠInter": 5162,
      "Good": 5163,
      "Ġmolec": 5164,
      "EE": 5165,
      "Ġdefined": 5166,
      "Ġfunding": 5167,
      "ĠIsrael": 5168,
      "ĠIndia": 5169,
      "Ġenhance": 5170,
      "Ġsomewhere": 5171,
      "Ġfiles": 5172,
      "Ġmaximum": 5173,
      "Ġbeat": 5174,
      "Ġassistance": 5175,
      "Cl": 5176,
      "Ġarrived": 5177,
      "Ġmotor": 5178,
      "ĠGeneral": 5179,
      "Ġrapid": 5180,
      "Ġacadem": 5181,
      "Ġbroken": 5182,
      "Ġmal": 5183,
      "ĠOnce": 5184,
      "Ġphase": 5185,
      "Ġfeedback": 5186,
      "Ġvisitors": 5187,
      "Ġestablish": 5188,
      "Ġreviews": 5189,
      "IM": 5190,
      "Ġbelief": 5191,
      "Ġmedium": 5192,
      "Ġparent": 5193,
      "Ġsustain": 5194,
      "From": 5195,
      "Ġ95": 5196,
      "ĠMor": 5197,
      "Ġge": 5198,
      "US": 5199,
      "Ġgonna": 5200,
      "Ġpurposes": 5201,
      "Ġmatters": 5202,
      "Ġanswered": 5203,
      "Ġpropos": 5204,
      "Ġconfident": 5205,
      "ca": 5206,
      "abilities": 5207,
      "Ġteachers": 5208,
      "Ġment": 5209,
      "oses": 5210,
      "Ġfacilities": 5211,
      "Ġgenes": 5212,
      "Ġmarriage": 5213,
      "08": 5214,
      "Ġinstance": 5215,
      "Ġtea": 5216,
      "Ġrecords": 5217,
      "Ġraise": 5218,
      "Ġbound": 5219,
      "Ġinvestigation": 5220,
      "Ġ37": 5221,
      "tenance": 5222,
      "ĠChem": 5223,
      "velopment": 5224,
      "Ġgeneration": 5225,
      "Ġcircumstances": 5226,
      "Ġbrows": 5227,
      "Ġreaction": 5228,
      "Ġerror": 5229,
      "ĠWashington": 5230,
      "ĠBlack": 5231,
      "Ġjoy": 5232,
      "ett": 5233,
      "Ġlargest": 5234,
      "Ġleaves": 5235,
      "Ġmissed": 5236,
      "Ġlisted": 5237,
      "Ġselling": 5238,
      "Ġsecure": 5239,
      "ĠTake": 5240,
      "Ġlabor": 5241,
      "Ġstated": 5242,
      "Ġflex": 5243,
      "Ġvision": 5244,
      "Ġmale": 5245,
      "orney": 5246,
      "Ġprint": 5247,
      "Ġast": 5248,
      "Ġlock": 5249,
      "Ġdyn": 5250,
      "ĠWed": 5251,
      "Ġshouldn": 5252,
      "Ġ36": 5253,
      "Ġentry": 5254,
      "rapy": 5255,
      "Ġannounced": 5256,
      "ĠBen": 5257,
      "EM": 5258,
      "ĠRem": 5259,
      "ĠRef": 5260,
      "Ġtwice": 5261,
      "othe": 5262,
      "icians": 5263,
      "UT": 5264,
      "Ġpair": 5265,
      "Ġgraph": 5266,
      "Ġvit": 5267,
      "cks": 5268,
      "ida": 5269,
      "ĠAddit": 5270,
      "icing": 5271,
      "Ġvent": 5272,
      "Ġfixed": 5273,
      "Ġinterp": 5274,
      "Ġbirthday": 5275,
      "iment": 5276,
      "Ġapproximately": 5277,
      "uries": 5278,
      "icken": 5279,
      "Ġspl": 5280,
      "Ġresol": 5281,
      "Ġrecommended": 5282,
      "htt": 5283,
      "Ġbattle": 5284,
      "ocal": 5285,
      "umn": 5286,
      "Ġbookmark": 5287,
      "ĠWork": 5288,
      "Ġsurprise": 5289,
      "cious": 5290,
      "cons": 5291,
      "Ġappeared": 5292,
      "Ġvolunte": 5293,
      "onn": 5294,
      "Ġdepartment": 5295,
      "Ġrespectively": 5296,
      "Ġvolume": 5297,
      "!!!!": 5298,
      "Ġemp": 5299,
      "asy": 5300,
      "state": 5301,
      "ĠService": 5302,
      "Ġphen": 5303,
      "Ġcris": 5304,
      "Ġreasonable": 5305,
      "Ġwondering": 5306,
      "Ġminor": 5307,
      "ĠCounty": 5308,
      "Ġconference": 5309,
      "ĠBritish": 5310,
      "ilit": 5311,
      "Ġleader": 5312,
      "Ġspring": 5313,
      "Ġquarter": 5314,
      "ĠHol": 5315,
      "Ġimproved": 5316,
      "Ġelection": 5317,
      "Ġhydro": 5318,
      "wood": 5319,
      "Ġentirely": 5320,
      "Ġleads": 5321,
      "Ġ48": 5322,
      "Ġadvent": 5323,
      "Even": 5324,
      "Ġrooms": 5325,
      "Ġbond": 5326,
      "oman": 5327,
      "Ġsports": 5328,
      "Ġinflamm": 5329,
      "hips": 5330,
      "ĠSpec": 5331,
      "Ġkick": 5332,
      "Ġchair": 5333,
      "ĠFOR": 5334,
      "Ġtough": 5335,
      "ille": 5336,
      "Ġcompetition": 5337,
      "Ġconcern": 5338,
      "ĠCommit": 5339,
      "ĠCare": 5340,
      "Ġforced": 5341,
      "asis": 5342,
      "ĠAnn": 5343,
      "rm": 5344,
      "zen": 5345,
      "ĠAv": 5346,
      "06": 5347,
      "ĠCa": 5348,
      "Ġfavour": 5349,
      "Ġ?": 5350,
      "Ġsigns": 5351,
      "Ġagency": 5352,
      "Ġremoved": 5353,
      "Ġshock": 5354,
      "there": 5355,
      "utor": 5356,
      "ĠAir": 5357,
      "Ġsearching": 5358,
      "Ġencourage": 5359,
      "Se": 5360,
      "ĠEast": 5361,
      "Ġgreatest": 5362,
      ");": 5363,
      "Yeah": 5364,
      "Ġworst": 5365,
      "ĠDec": 5366,
      "Ġdram": 5367,
      "itis": 5368,
      "ĠPat": 5369,
      "Ġresistance": 5370,
      "AG": 5371,
      "%,": 5372,
      "Ġpromote": 5373,
      "Ġaffected": 5374,
      "grad": 5375,
      "orough": 5376,
      "estic": 5377,
      "ructure": 5378,
      "overs": 5379,
      "Ġexception": 5380,
      "Ġoblig": 5381,
      "Ġremark": 5382,
      "Ġvs": 5383,
      "Ġregul": 5384,
      "zed": 5385,
      "Ġguests": 5386,
      "Ġfort": 5387,
      "bi": 5388,
      "alm": 5389,
      "LY": 5390,
      "Ġantib": 5391,
      "Ġid": 5392,
      "Ġwebsites": 5393,
      "ĠZhang": 5394,
      "Ġbeach": 5395,
      "Ġestate": 5396,
      "BS": 5397,
      "Ġaward": 5398,
      "ĠAmericans": 5399,
      "Ġneighbor": 5400,
      "ĠEduc": 5401,
      "Ġdogs": 5402,
      "Ġinternal": 5403,
      "ya": 5404,
      "Ġviolence": 5405,
      "ascular": 5406,
      "Ġspeech": 5407,
      "osite": 5408,
      "ĠItal": 5409,
      "Ġbull": 5410,
      "eless": 5411,
      "upid": 5412,
      "Ġpersonally": 5413,
      "Ġdetailed": 5414,
      "erry": 5415,
      "Ġfee": 5416,
      "Ġsand": 5417,
      "wo": 5418,
      "Ġforgot": 5419,
      "ĠEach": 5420,
      "Ġmulti": 5421,
      "Ġperspective": 5422,
      "Ġtheme": 5423,
      "Ġsubmit": 5424,
      "from": 5425,
      "Ġeffectively": 5426,
      "Ġstream": 5427,
      "Ġfacts": 5428,
      "Ġbreast": 5429,
      "Ġemergency": 5430,
      "Ġspecifically": 5431,
      "Ġfig": 5432,
      "Ġwine": 5433,
      "Ġmere": 5434,
      "ares": 5435,
      "Ġcruc": 5436,
      "Ġturns": 5437,
      "Ġpleasure": 5438,
      "Ġbatter": 5439,
      "Go": 5440,
      "First": 5441,
      "kin": 5442,
      "ĠChinese": 5443,
      "Ġanswers": 5444,
      "egal": 5445,
      "Ġoccup": 5446,
      "Ġcrime": 5447,
      "ĠFe": 5448,
      "Ġquot": 5449,
      "Ġsuppose": 5450,
      "ĠFurther": 5451,
      "Ġdocuments": 5452,
      "Ġadvanced": 5453,
      "Ġalcohol": 5454,
      "[âĢ¦]": 5455,
      "icial": 5456,
      "Ġpicked": 5457,
      "Ġfailed": 5458,
      "Ġexchange": 5459,
      "07": 5460,
      "Ġrank": 5461,
      "ĠChen": 5462,
      "Ġarrest": 5463,
      "Ġclothes": 5464,
      "Ġauto": 5465,
      "uesday": 5466,
      "ĠFrench": 5467,
      "Ġjudge": 5468,
      "urrent": 5469,
      "ursday": 5470,
      "Pl": 5471,
      "aked": 5472,
      "ato": 5473,
      "ĠStreet": 5474,
      "Ġveget": 5475,
      "Ġstrange": 5476,
      "Ġintended": 5477,
      "Ġbright": 5478,
      "hesis": 5479,
      "ENT": 5480,
      "ĠPlan": 5481,
      "Ġconfirm": 5482,
      "Ġadult": 5483,
      "ĠSuper": 5484,
      "while": 5485,
      "Ġdepending": 5486,
      "ĠDid": 5487,
      "ĠHope": 5488,
      "2024": 5489,
      "ĠFin": 5490,
      "Ġsight": 5491,
      "Ġlaug": 5492,
      "Since": 5493,
      "Ġexten": 5494,
      "Ġcorrespond": 5495,
      "Ġcloser": 5496,
      "Ġbelong": 5497,
      "Ġexplained": 5498,
      "Ġsav": 5499,
      "Ġtrees": 5500,
      "Ġseconds": 5501,
      "ĠII": 5502,
      "Ġnumerous": 5503,
      "iences": 5504,
      "Ġtissue": 5505,
      "box": 5506,
      "alse": 5507,
      "Hello": 5508,
      "Ġlaugh": 5509,
      "Ġpractical": 5510,
      "Ġgod": 5511,
      "Ġfreedom": 5512,
      "ĠChurch": 5513,
      "Ġillust": 5514,
      "Ġbehavi": 5515,
      "Ġking": 5516,
      "Ġdesk": 5517,
      "Ġbreakfast": 5518,
      "ĠPri": 5519,
      "2025": 5520,
      "Ġrent": 5521,
      "ĠRev": 5522,
      "Ġanymore": 5523,
      "Because": 5524,
      "lines": 5525,
      "Ġexposure": 5526,
      "09": 5527,
      "ĠAustralia": 5528,
      "lined": 5529,
      "ening": 5530,
      "Ġseat": 5531,
      "opy": 5532,
      "Where": 5533,
      "Ġingred": 5534,
      "Ġrelatively": 5535,
      "ĠEngland": 5536,
      "asm": 5537,
      "Many": 5538,
      "ĠBest": 5539,
      "Ġalbum": 5540,
      "alog": 5541,
      "ĠChristian": 5542,
      "Ġdangerous": 5543,
      "Ġtheory": 5544,
      "Ġmap": 5545,
      "ĠPaul": 5546,
      "ache": 5547,
      "Ġconnected": 5548,
      "Who": 5549,
      "Ġegg": 5550,
      "idden": 5551,
      "iety": 5552,
      "och": 5553,
      "Ġburn": 5554,
      "Ġsuggested": 5555,
      "Ġbreath": 5556,
      "Ġagent": 5557,
      "Ġbacter": 5558,
      "Ġcas": 5559,
      "Ġcontains": 5560,
      "amily": 5561,
      "Ġ2007": 5562,
      "ĠDO": 5563,
      "Ġcore": 5564,
      "eal": 5565,
      "ĠBusiness": 5566,
      "ĠBook": 5567,
      "ĠTheir": 5568,
      "Ġfoods": 5569,
      "athy": 5570,
      "Ġbigger": 5571,
      "Ġmeal": 5572,
      "Ġbeauty": 5573,
      "otic": 5574,
      "hetic": 5575,
      "Ġaspects": 5576,
      "ĠMac": 5577,
      "Ġkinds": 5578,
      "orders": 5579,
      "Ġapproved": 5580,
      "ĠYear": 5581,
      "Ġ34": 5582,
      "entle": 5583,
      "Ġfashion": 5584,
      "Ġstim": 5585,
      "Ġnotes": 5586,
      "Ġpackage": 5587,
      "itect": 5588,
      "Ġloan": 5589,
      "Or": 5590,
      "Ġcardi": 5591,
      "ĠPL": 5592,
      "Most": 5593,
      "ien": 5594,
      "Ġpersons": 5595,
      "Tr": 5596,
      "Ġcollabor": 5597,
      "ĠCommittee": 5598,
      "ĠKeep": 5599,
      "ails": 5600,
      "essions": 5601,
      "Ġfunctions": 5602,
      "Ġmanager": 5603,
      "Ġtonight": 5604,
      "RA": 5605,
      "PA": 5606,
      "Ġokay": 5607,
      "vity": 5608,
      "Ġfellow": 5609,
      "Ġlawy": 5610,
      "Ġblin": 5611,
      "ĠRel": 5612,
      "Ġsugar": 5613,
      "Ġarrange": 5614,
      "Ġtill": 5615,
      "Ġlands": 5616,
      "Ġcontinues": 5617,
      "Ġdiseases": 5618,
      "ĠIns": 5619,
      "ĠCommission": 5620,
      "Ġradio": 5621,
      "Ġfif": 5622,
      "ĠServices": 5623,
      "omic": 5624,
      "alled": 5625,
      "Ġnamed": 5626,
      "ĠGroup": 5627,
      "Ġauthority": 5628,
      "ĠCompany": 5629,
      "Ġimmune": 5630,
      "Ġforth": 5631,
      "Ġmir": 5632,
      "ĠTherefore": 5633,
      "Ġisland": 5634,
      "Ġthick": 5635,
      "life": 5636,
      "pet": 5637,
      "Ġcitizens": 5638,
      "Ġiron": 5639,
      "Ġcharacteristics": 5640,
      "Ġpaint": 5641,
      "Ġabuse": 5642,
      "Ġpleased": 5643,
      "Ġuns": 5644,
      "rier": 5645,
      "Ġextract": 5646,
      "Ġcommitted": 5647,
      "rence": 5648,
      "Ġterror": 5649,
      "Ġoperation": 5650,
      "Ġdad": 5651,
      "top": 5652,
      "Ġhorse": 5653,
      "Ġexperts": 5654,
      "ĠHome": 5655,
      "ĠLa": 5656,
      "Ġinformed": 5657,
      "Ġgrab": 5658,
      "Ġprocedure": 5659,
      "Ġflat": 5660,
      "Ġexamples": 5661,
      "ĠReview": 5662,
      "Ġspoke": 5663,
      "Ġresulting": 5664,
      "Ġtypically": 5665,
      "Ġprocedures": 5666,
      "ĠOffice": 5667,
      "ĠSur": 5668,
      "agraph": 5669,
      "Ġsusp": 5670,
      "Ġslowly": 5671,
      "net": 5672,
      "Ġturning": 5673,
      "Ġwearing": 5674,
      "urt": 5675,
      "esides": 5676,
      "110": 5677,
      "Ġofficer": 5678,
      "Ġarg": 5679,
      "Ġrealized": 5680,
      "Ġrestaurant": 5681,
      "Ġrepair": 5682,
      "Ġprofessionals": 5683,
      "nel": 5684,
      "ĠIts": 5685,
      "ĠEarth": 5686,
      "Ġfeelings": 5687,
      "Ġobviously": 5688,
      "erved": 5689,
      "rome": 5690,
      "Ġelectronic": 5691,
      "ĠMiss": 5692,
      "Ġmice": 5693,
      "nesday": 5694,
      "Ġperce": 5695,
      "ĠPhil": 5696,
      "IL": 5697,
      "Ġcab": 5698,
      "ĠAfrica": 5699,
      "rey": 5700,
      "Ġoperations": 5701,
      "Ġlucky": 5702,
      "Ġinvolve": 5703,
      "Ġadmit": 5704,
      "Ġposting": 5705,
      "ĠOpen": 5706,
      "Ġhighlight": 5707,
      "Ġcombined": 5708,
      "Ġtells": 5709,
      "hab": 5710,
      "Ġfees": 5711,
      "Ġdatab": 5712,
      "semb": 5713,
      "Ġmilk": 5714,
      "aming": 5715,
      "ĠDemocr": 5716,
      "Ġnoted": 5717,
      "Ġcomprehensive": 5718,
      "Ġperfectly": 5719,
      "Ġlady": 5720,
      "Ġmeat": 5721,
      "Ġemotional": 5722,
      "Ġprove": 5723,
      "porary": 5724,
      "ĠUse": 5725,
      "IF": 5726,
      "Ġec": 5727,
      "ĠHall": 5728,
      "Ġmuscle": 5729,
      "PC": 5730,
      "Ġfurn": 5731,
      "Ġneck": 5732,
      "Ġprofile": 5733,
      "De": 5734,
      "Ġsuddenly": 5735,
      "Ġdestroy": 5736,
      "Ġflav": 5737,
      "ĠCancer": 5738,
      "Ġpush": 5739,
      "Ġdiff": 5740,
      "Ġaid": 5741,
      "SC": 5742,
      "Ġreduction": 5743,
      "da": 5744,
      "ios": 5745,
      "ifts": 5746,
      "Ġ75": 5747,
      "stit": 5748,
      "uated": 5749,
      "Ps": 5750,
      "Ġedge": 5751,
      "âĢĳ": 5752,
      "ems": 5753,
      "Ġreligious": 5754,
      "Pe": 5755,
      "Ġinfection": 5756,
      "Ġaccord": 5757,
      "Ġrecovery": 5758,
      "Ġimmun": 5759,
      ".âĢĻ": 5760,
      "Ġresidents": 5761,
      "ĠDavid": 5762,
      "Ġfrust": 5763,
      "ĠPublic": 5764,
      "ĠAT": 5765,
      "Ġmit": 5766,
      "luding": 5767,
      "Ġsigned": 5768,
      "rem": 5769,
      "ki": 5770,
      "ĠTwitter": 5771,
      "akers": 5772,
      "ĠBet": 5773,
      "Â°": 5774,
      "missions": 5775,
      "Ġcollected": 5776,
      "Ġcute": 5777,
      "Ġdecades": 5778,
      "Ġfaster": 5779,
      "Ġyouth": 5780,
      "Ġaccounts": 5781,
      "Ġtired": 5782,
      "Ġshel": 5783,
      "rene": 5784,
      "ingly": 5785,
      "rie": 5786,
      "ĠTom": 5787,
      "ĠSocial": 5788,
      "Ġhasn": 5789,
      "Ġargument": 5790,
      "bal": 5791,
      "ommod": 5792,
      "Ġpromise": 5793,
      "Ġ38": 5794,
      "imension": 5795,
      "Ġunable": 5796,
      "ĠOnly": 5797,
      "Ġprepare": 5798,
      "Ġprocessing": 5799,
      "ĠToday": 5800,
      "ĠBig": 5801,
      "ĠJew": 5802,
      "Ġchoices": 5803,
      "ĠMol": 5804,
      "Ġunf": 5805,
      "Ġpulled": 5806,
      "ĠWeb": 5807,
      "Ŀĳ": 5808,
      "Ġmanufacture": 5809,
      "Ġallowing": 5810,
      "Ġratio": 5811,
      "atin": 5812,
      "ĠDNA": 5813,
      "hand": 5814,
      "enced": 5815,
      "cles": 5816,
      "ĠThursday": 5817,
      "Ġstret": 5818,
      "Ġassume": 5819,
      "gl": 5820,
      "Ġsufficient": 5821,
      "Ġsynt": 5822,
      "Ġlie": 5823,
      "Ġpatterns": 5824,
      "Ġstupid": 5825,
      "ellow": 5826,
      "Ġruns": 5827,
      "Ġwriter": 5828,
      "equ": 5829,
      "ĠTuesday": 5830,
      "Ġincreases": 5831,
      "Ġhun": 5832,
      "ĠTra": 5833,
      "ĠGreen": 5834,
      "osh": 5835,
      "stood": 5836,
      "Ġleadership": 5837,
      "Ġweren": 5838,
      "Ġinstructions": 5839,
      "ka": 5840,
      "Ġsmooth": 5841,
      "ĠLook": 5842,
      "umber": 5843,
      "section": 5844,
      "Ġcarbon": 5845,
      "ĠBE": 5846,
      "anged": 5847,
      "Ġfruit": 5848,
      "Ġdirector": 5849,
      "Ġwatched": 5850,
      "Ġbunch": 5851,
      "Ġmaintenance": 5852,
      "Ġcrucial": 5853,
      "aly": 5854,
      "Ġring": 5855,
      "field": 5856,
      "Ġexcess": 5857,
      "Ġsuit": 5858,
      "Ġmetal": 5859,
      "Ġaccommod": 5860,
      "Ġdele": 5861,
      "Ġcrim": 5862,
      "ford": 5863,
      "comm": 5864,
      "ira": 5865,
      "SA": 5866,
      "Ġofficials": 5867,
      "ened": 5868,
      "ĠHuman": 5869,
      "Ġrough": 5870,
      "ĠPR": 5871,
      "antic": 5872,
      "Ġcolors": 5873,
      "Ġnan": 5874,
      "Great": 5875,
      "uh": 5876,
      "ĠAD": 5877,
      "bel": 5878,
      "Ġswim": 5879,
      "cel": 5880,
      "gage": 5881,
      "iest": 5882,
      "Ġsupported": 5883,
      "Ġfib": 5884,
      "ĠPhys": 5885,
      "ĠUnder": 5886,
      "Ġwitness": 5887,
      "then": 5888,
      "ĠWind": 5889,
      "irmed": 5890,
      "point": 5891,
      "oster": 5892,
      "Ġhadn": 5893,
      "Ġmoments": 5894,
      "Ġfootball": 5895,
      "orter": 5896,
      "Ġelement": 5897,
      "Get": 5898,
      "ricult": 5899,
      "Ġsin": 5900,
      "who": 5901,
      "Ġaccepted": 5902,
      "Ġcities": 5903,
      "have": 5904,
      "will": 5905,
      "Ġcycle": 5906,
      "Ġlistening": 5907,
      "Ġconcentration": 5908,
      "ĠWord": 5909,
      "Ġdisp": 5910,
      "Ġcream": 5911,
      "Ġhall": 5912,
      "ĠMedical": 5913,
      "Ġemph": 5914,
      "Ġsubsequ": 5915,
      "Ġcomparison": 5916,
      "lling": 5917,
      "road": 5918,
      "Ġdetect": 5919,
      "Ġindex": 5920,
      "Ġtalked": 5921,
      "Ġfold": 5922,
      "Ġsides": 5923,
      "Ġempt": 5924,
      "ifying": 5925,
      "met": 5926,
      "Ġvary": 5927,
      "look": 5928,
      "Ġwealth": 5929,
      "Ġscientific": 5930,
      "Ġanc": 5931,
      "ship": 5932,
      "Ġchecking": 5933,
      "ĠAssociation": 5934,
      "ĠTwo": 5935,
      "Ġconstruct": 5936,
      "EW": 5937,
      "Ġgoods": 5938,
      "Ġlip": 5939,
      "ĠBel": 5940,
      "Ġpresentation": 5941,
      "Ġ2000": 5942,
      "Ġsupporting": 5943,
      "ĠCongress": 5944,
      "More": 5945,
      "ĠAmaz": 5946,
      "Ġinstru": 5947,
      "Ġalt": 5948,
      "erves": 5949,
      "Ġbringing": 5950,
      "uce": 5951,
      "Ġaccurate": 5952,
      "Ġgrown": 5953,
      "Ġ55": 5954,
      "Ġcomponents": 5955,
      "Ġgather": 5956,
      "Ġmovies": 5957,
      "Ġemployee": 5958,
      "Ġbio": 5959,
      "Ġscr": 5960,
      "Ġlibrary": 5961,
      "ĠDist": 5962,
      "Ġtrick": 5963,
      "ĠDel": 5964,
      "Ġdelay": 5965,
      "Ġexpressed": 5966,
      "Ġforces": 5967,
      "Ġlaunch": 5968,
      "Ġformat": 5969,
      "Ġrisks": 5970,
      "Ġmarkets": 5971,
      "ih": 5972,
      "Ġfrequently": 5973,
      "Ġsch": 5974,
      "Ġtwenty": 5975,
      "igration": 5976,
      "ĠDoes": 5977,
      "ius": 5978,
      "Ġillness": 5979,
      "ĠAtt": 5980,
      "Ġdiagnosis": 5981,
      "des": 5982,
      "Ġlinked": 5983,
      "Ġsets": 5984,
      "Ġconstit": 5985,
      "Ġfairly": 5986,
      "Ġsubstant": 5987,
      "Ġbrings": 5988,
      ".[": 5989,
      "Ġmac": 5990,
      "Ġtow": 5991,
      "Ġupdated": 5992,
      "inter": 5993,
      "yal": 5994,
      "Ġmer": 5995,
      "Ġeducational": 5996,
      "Ġhumans": 5997,
      "Ġfighting": 5998,
      "ographic": 5999
    },
    "merges": [
      [
        "Ġ",
        "t"
      ],
      [
        "i",
        "n"
      ],
      [
        "Ġ",
        "a"
      ],
      [
        "h",
        "e"
      ],
      [
        "r",
        "e"
      ],
      [
        "o",
        "n"
      ],
      [
        "a",
        "t"
      ],
      [
        "Ġ",
        "s"
      ],
      [
        "e",
        "s"
      ],
      [
        "e",
        "n"
      ],
      [
        "e",
        "r"
      ],
      [
        "Ġt",
        "he"
      ],
      [
        "a",
        "l"
      ],
      [
        "i",
        "t"
      ],
      [
        "Ġ",
        "w"
      ],
      [
        "o",
        "r"
      ],
      [
        "Ġ",
        "p"
      ],
      [
        "Ġ",
        "c"
      ],
      [
        "Ġ",
        "b"
      ],
      [
        "a",
        "n"
      ],
      [
        "Ġ",
        "in"
      ],
      [
        "o",
        "u"
      ],
      [
        "i",
        "s"
      ],
      [
        "Ġ",
        "m"
      ],
      [
        "e",
        "d"
      ],
      [
        "Ġ",
        "f"
      ],
      [
        "in",
        "g"
      ],
      [
        "i",
        "c"
      ],
      [
        "Ġa",
        "n"
      ],
      [
        "a",
        "r"
      ],
      [
        "Ġ",
        "o"
      ],
      [
        "i",
        "on"
      ],
      [
        "Ġt",
        "o"
      ],
      [
        "Ġ",
        "d"
      ],
      [
        "r",
        "o"
      ],
      [
        "Ġan",
        "d"
      ],
      [
        "en",
        "t"
      ],
      [
        "Ġ",
        "h"
      ],
      [
        "Ġo",
        "f"
      ],
      [
        "Ġ",
        "re"
      ],
      [
        "Ġ",
        "l"
      ],
      [
        "a",
        "s"
      ],
      [
        "Ġ",
        "n"
      ],
      [
        "Ġt",
        "h"
      ],
      [
        "o",
        "m"
      ],
      [
        "Ġ",
        "e"
      ],
      [
        "i",
        "m"
      ],
      [
        "l",
        "y"
      ],
      [
        "v",
        "e"
      ],
      [
        "i",
        "d"
      ],
      [
        "l",
        "l"
      ],
      [
        "c",
        "t"
      ],
      [
        "l",
        "e"
      ],
      [
        "Ġ",
        "y"
      ],
      [
        "u",
        "l"
      ],
      [
        "at",
        "ion"
      ],
      [
        "Ġ",
        "g"
      ],
      [
        "â",
        "Ģ"
      ],
      [
        "s",
        "t"
      ],
      [
        "Ġ",
        "I"
      ],
      [
        "i",
        "g"
      ],
      [
        "o",
        "w"
      ],
      [
        "Ġf",
        "or"
      ],
      [
        "e",
        "t"
      ],
      [
        "Ġy",
        "ou"
      ],
      [
        "a",
        "c"
      ],
      [
        "o",
        "t"
      ],
      [
        "Ġ",
        "T"
      ],
      [
        "m",
        "ent"
      ],
      [
        "u",
        "r"
      ],
      [
        "o",
        "l"
      ],
      [
        "Ġ",
        "he"
      ],
      [
        "Ġ",
        "on"
      ],
      [
        "Ġs",
        "t"
      ],
      [
        "Ġb",
        "e"
      ],
      [
        "Ġb",
        "y"
      ],
      [
        "s",
        "e"
      ],
      [
        "t",
        "h"
      ],
      [
        "Ġ",
        "A"
      ],
      [
        "a",
        "k"
      ],
      [
        "p",
        "er"
      ],
      [
        "c",
        "e"
      ],
      [
        "r",
        "i"
      ],
      [
        "a",
        "g"
      ],
      [
        "Ġa",
        "s"
      ],
      [
        "ic",
        "al"
      ],
      [
        "a",
        "d"
      ],
      [
        "Ġ",
        "is"
      ],
      [
        "it",
        "h"
      ],
      [
        "f",
        "f"
      ],
      [
        "er",
        "s"
      ],
      [
        "a",
        "y"
      ],
      [
        "Ġ",
        "1"
      ],
      [
        "Ġth",
        "at"
      ],
      [
        "r",
        "a"
      ],
      [
        "Ġ",
        "M"
      ],
      [
        "l",
        "d"
      ],
      [
        "Ġw",
        "ith"
      ],
      [
        "Ġc",
        "on"
      ],
      [
        "Ġ",
        "S"
      ],
      [
        "a",
        "re"
      ],
      [
        "u",
        "n"
      ],
      [
        "Ġc",
        "om"
      ],
      [
        "Ġd",
        "i"
      ],
      [
        "Ġ",
        "it"
      ],
      [
        "Ġe",
        "x"
      ],
      [
        "Ġ",
        "im"
      ],
      [
        "u",
        "t"
      ],
      [
        "Ġm",
        "an"
      ],
      [
        "Ġ",
        "C"
      ],
      [
        "c",
        "h"
      ],
      [
        "e",
        "ct"
      ],
      [
        "a",
        "m"
      ],
      [
        "e",
        "l"
      ],
      [
        "at",
        "i"
      ],
      [
        "v",
        "es"
      ],
      [
        "ou",
        "t"
      ],
      [
        "e",
        "ar"
      ],
      [
        "re",
        "s"
      ],
      [
        "Ġim",
        "p"
      ],
      [
        "o",
        "s"
      ],
      [
        "Ġa",
        "re"
      ],
      [
        "u",
        "m"
      ],
      [
        "v",
        "er"
      ],
      [
        "Ġp",
        "ro"
      ],
      [
        "Ġw",
        "e"
      ],
      [
        "i",
        "es"
      ],
      [
        "âĢ",
        "Ļ"
      ],
      [
        "al",
        "th"
      ],
      [
        "Ġ",
        "N"
      ],
      [
        "c",
        "ri"
      ],
      [
        "ati",
        "ent"
      ],
      [
        "Ġw",
        "h"
      ],
      [
        "Ġp",
        "atient"
      ],
      [
        "0",
        "0"
      ],
      [
        "es",
        "s"
      ],
      [
        "ak",
        "e"
      ],
      [
        "o",
        "p"
      ],
      [
        "at",
        "e"
      ],
      [
        "Ġn",
        "e"
      ],
      [
        "u",
        "s"
      ],
      [
        "i",
        "r"
      ],
      [
        "Ġ",
        "P"
      ],
      [
        "a",
        "b"
      ],
      [
        "re",
        "at"
      ],
      [
        "Ġh",
        "a"
      ],
      [
        "d",
        "u"
      ],
      [
        "Ġ",
        "H"
      ],
      [
        "an",
        "d"
      ],
      [
        "ĠT",
        "he"
      ],
      [
        "Ġs",
        "h"
      ],
      [
        "e",
        "m"
      ],
      [
        "is",
        "t"
      ],
      [
        "v",
        "id"
      ],
      [
        "a",
        "in"
      ],
      [
        "it",
        "y"
      ],
      [
        "i",
        "ll"
      ],
      [
        "Ġ",
        "5"
      ],
      [
        "Ġs",
        "c"
      ],
      [
        "i",
        "l"
      ],
      [
        "Ġl",
        "o"
      ],
      [
        "Ġc",
        "h"
      ],
      [
        "en",
        "c"
      ],
      [
        "s",
        "ion"
      ],
      [
        "t",
        "s"
      ],
      [
        "r",
        "on"
      ],
      [
        "Ġin",
        "t"
      ],
      [
        "at",
        "es"
      ],
      [
        "o",
        "v"
      ],
      [
        "Ġ",
        "R"
      ],
      [
        "Ġre",
        "g"
      ],
      [
        "i",
        "f"
      ],
      [
        "ul",
        "ar"
      ],
      [
        "Ġin",
        "d"
      ],
      [
        "ff",
        "ect"
      ],
      [
        "Ġw",
        "as"
      ],
      [
        "he",
        "r"
      ],
      [
        "Ġs",
        "ur"
      ],
      [
        "o",
        "d"
      ],
      [
        "al",
        "l"
      ],
      [
        "ar",
        "d"
      ],
      [
        "Ġ",
        "("
      ],
      [
        "u",
        "d"
      ],
      [
        "Ġ",
        "G"
      ],
      [
        "Ġha",
        "ve"
      ],
      [
        "Ġ",
        "or"
      ],
      [
        "i",
        "e"
      ],
      [
        "Ġ",
        "E"
      ],
      [
        "Ġ",
        "out"
      ],
      [
        "Ġt",
        "reat"
      ],
      [
        "Ġman",
        "ag"
      ],
      [
        "it",
        "or"
      ],
      [
        "Ġimp",
        "ro"
      ],
      [
        "Ġa",
        "t"
      ],
      [
        "i",
        "enc"
      ],
      [
        "o",
        "c"
      ],
      [
        "Ġth",
        "is"
      ],
      [
        "u",
        "ro"
      ],
      [
        "Ġpatient",
        "s"
      ],
      [
        "Ġre",
        "du"
      ],
      [
        "Ġtreat",
        "ment"
      ],
      [
        "cri",
        "b"
      ],
      [
        "Ġh",
        "y"
      ],
      [
        "ffect",
        "s"
      ],
      [
        "p",
        "t"
      ],
      [
        "o",
        "g"
      ],
      [
        "e",
        "alth"
      ],
      [
        "ou",
        "r"
      ],
      [
        "Ġreg",
        "ular"
      ],
      [
        "o",
        "re"
      ],
      [
        "Ġsur",
        "g"
      ],
      [
        "crib",
        "ed"
      ],
      [
        "u",
        "se"
      ],
      [
        "c",
        "are"
      ],
      [
        "Ġ",
        "O"
      ],
      [
        "Ġn",
        "ot"
      ],
      [
        "Ġyou",
        "r"
      ],
      [
        "Ġt",
        "r"
      ],
      [
        "Ġt",
        "im"
      ],
      [
        "Ġmanag",
        "ing"
      ],
      [
        "res",
        "cribed"
      ],
      [
        "Ġa",
        "d"
      ],
      [
        "Ġ",
        "2"
      ],
      [
        "Ġcom",
        "p"
      ],
      [
        "p",
        "p"
      ],
      [
        "ig",
        "h"
      ],
      [
        "u",
        "b"
      ],
      [
        "u",
        "al"
      ],
      [
        "ou",
        "ld"
      ],
      [
        "id",
        "e"
      ],
      [
        "ag",
        "e"
      ],
      [
        "ion",
        "s"
      ],
      [
        "Ġ",
        "B"
      ],
      [
        "Ġs",
        "e"
      ],
      [
        "ĠT",
        "h"
      ],
      [
        "u",
        "e"
      ],
      [
        "t",
        "er"
      ],
      [
        "Ġ",
        "r"
      ],
      [
        "Ġ",
        "k"
      ],
      [
        "Ġ",
        "W"
      ],
      [
        "at",
        "ed"
      ],
      [
        "Ġcon",
        "t"
      ],
      [
        "i",
        "b"
      ],
      [
        "Ġ",
        "3"
      ],
      [
        "as",
        "e"
      ],
      [
        "am",
        "e"
      ],
      [
        "an",
        "s"
      ],
      [
        "Ġc",
        "an"
      ],
      [
        "ou",
        "n"
      ],
      [
        "Ġn",
        "o"
      ],
      [
        "ro",
        "m"
      ],
      [
        "ation",
        "s"
      ],
      [
        "u",
        "st"
      ],
      [
        "ig",
        "n"
      ],
      [
        "u",
        "g"
      ],
      [
        "Ġd",
        "e"
      ],
      [
        "o",
        "ll"
      ],
      [
        "Ġ",
        "v"
      ],
      [
        "an",
        "t"
      ],
      [
        "ar",
        "y"
      ],
      [
        "om",
        "e"
      ],
      [
        "Ġa",
        "l"
      ],
      [
        "Ġm",
        "e"
      ],
      [
        "ve",
        "l"
      ],
      [
        "Ġd",
        "o"
      ],
      [
        "l",
        "ic"
      ],
      [
        "Ġa",
        "b"
      ],
      [
        "es",
        "t"
      ],
      [
        "Ġ",
        "4"
      ],
      [
        "Ġin",
        "f"
      ],
      [
        "Ġ",
        "D"
      ],
      [
        "ĠA",
        "n"
      ],
      [
        "i",
        "ld"
      ],
      [
        "a",
        "use"
      ],
      [
        "Ġ",
        "ro"
      ],
      [
        "u",
        "re"
      ],
      [
        "Ġg",
        "o"
      ],
      [
        "Ġf",
        "rom"
      ],
      [
        "is",
        "e"
      ],
      [
        "t",
        "en"
      ],
      [
        ".",
        "."
      ],
      [
        "Ġm",
        "on"
      ],
      [
        "Ġ",
        "F"
      ],
      [
        "Ġa",
        "ll"
      ],
      [
        "Ġm",
        "y"
      ],
      [
        "l",
        "in"
      ],
      [
        "u",
        "p"
      ],
      [
        "Ġcom",
        "m"
      ],
      [
        "he",
        "d"
      ],
      [
        "ol",
        "d"
      ],
      [
        "o",
        "k"
      ],
      [
        "Ġ",
        "V"
      ],
      [
        "ar",
        "t"
      ],
      [
        "Ġw",
        "ill"
      ],
      [
        "Ġ",
        "6"
      ],
      [
        "Ġst",
        "ud"
      ],
      [
        "'",
        "s"
      ],
      [
        "ĠTh",
        "is"
      ],
      [
        "Ġw",
        "or"
      ],
      [
        "Ġ",
        "âĢ"
      ],
      [
        "i",
        "ly"
      ],
      [
        "igh",
        "t"
      ],
      [
        "ment",
        "s"
      ],
      [
        "at",
        "ing"
      ],
      [
        "Ġp",
        "ers"
      ],
      [
        "Ġ",
        "j"
      ],
      [
        "i",
        "ve"
      ],
      [
        "q",
        "u"
      ],
      [
        "Ġb",
        "ut"
      ],
      [
        "d",
        "it"
      ],
      [
        "Ġas",
        "s"
      ],
      [
        "or",
        "t"
      ],
      [
        "Ġre",
        "m"
      ],
      [
        "Ġsh",
        "ow"
      ],
      [
        "Ġt",
        "ake"
      ],
      [
        "Ġs",
        "m"
      ],
      [
        "Ġs",
        "y"
      ],
      [
        "en",
        "d"
      ],
      [
        "at",
        "h"
      ],
      [
        "c",
        "es"
      ],
      [
        "oc",
        "i"
      ],
      [
        "ol",
        "og"
      ],
      [
        "ra",
        "p"
      ],
      [
        "Ġex",
        "per"
      ],
      [
        "ra",
        "in"
      ],
      [
        "oll",
        "ow"
      ],
      [
        "Ġpro",
        "vid"
      ],
      [
        "in",
        "ess"
      ],
      [
        "b",
        "e"
      ],
      [
        "re",
        "ct"
      ],
      [
        "o",
        "st"
      ],
      [
        "A",
        "n"
      ],
      [
        "Ġf",
        "ollow"
      ],
      [
        "Ġs",
        "o"
      ],
      [
        "g",
        "h"
      ],
      [
        "st",
        "em"
      ],
      [
        "ff",
        "ic"
      ],
      [
        "he",
        "s"
      ],
      [
        "Ġ",
        "un"
      ],
      [
        "Ġ",
        "L"
      ],
      [
        "Ġtr",
        "ans"
      ],
      [
        "ĠN",
        "e"
      ],
      [
        "ou",
        "gh"
      ],
      [
        "Ġsy",
        "stem"
      ],
      [
        "Ġl",
        "i"
      ],
      [
        "ar",
        "m"
      ],
      [
        "Ġhe",
        "alth"
      ],
      [
        "er",
        "c"
      ],
      [
        "Ġw",
        "he"
      ],
      [
        "Ġad",
        "v"
      ],
      [
        "k",
        "e"
      ],
      [
        "are",
        "d"
      ],
      [
        "Ġthe",
        "y"
      ],
      [
        "ub",
        "lic"
      ],
      [
        "pt",
        "ion"
      ],
      [
        "Ġin",
        "v"
      ],
      [
        "ves",
        "t"
      ],
      [
        "p",
        "it"
      ],
      [
        "Ġcomm",
        "un"
      ],
      [
        "Ġhe",
        "ad"
      ],
      [
        "Ġ1",
        "5"
      ],
      [
        "t",
        "al"
      ],
      [
        "l",
        "u"
      ],
      [
        "in",
        "es"
      ],
      [
        "Ġsm",
        "all"
      ],
      [
        "T",
        "he"
      ],
      [
        "olog",
        "y"
      ],
      [
        "Ġstud",
        "y"
      ],
      [
        "Ġw",
        "a"
      ],
      [
        "Ġst",
        "and"
      ],
      [
        "Ġdi",
        "rect"
      ],
      [
        "ro",
        "l"
      ],
      [
        "ul",
        "ts"
      ],
      [
        "Ġ",
        "up"
      ],
      [
        "m",
        "is"
      ],
      [
        "ver",
        "y"
      ],
      [
        "Ġ",
        "us"
      ],
      [
        "e",
        "re"
      ],
      [
        "Ġtim",
        "es"
      ],
      [
        "Ġin",
        "vest"
      ],
      [
        "Ġro",
        "om"
      ],
      [
        "as",
        "t"
      ],
      [
        "re",
        "ak"
      ],
      [
        "Ġs",
        "al"
      ],
      [
        "i",
        "vid"
      ],
      [
        "Ġp",
        "op"
      ],
      [
        "is",
        "ed"
      ],
      [
        "Ġb",
        "en"
      ],
      [
        "ivid",
        "ual"
      ],
      [
        "ear",
        "ch"
      ],
      [
        "ul",
        "ation"
      ],
      [
        "r",
        "ug"
      ],
      [
        "Ġs",
        "p"
      ],
      [
        "Ġind",
        "ividual"
      ],
      [
        "im",
        "it"
      ],
      [
        "um",
        "m"
      ],
      [
        "Ġwa",
        "it"
      ],
      [
        "in",
        "ation"
      ],
      [
        "Ġp",
        "l"
      ],
      [
        "Ġcont",
        "rol"
      ],
      [
        "Ġcon",
        "dit"
      ],
      [
        "Ġp",
        "ain"
      ],
      [
        "Ġd",
        "a"
      ],
      [
        "F",
        "or"
      ],
      [
        "Ġf",
        "at"
      ],
      [
        "ĠR",
        "es"
      ],
      [
        "Ġinv",
        "ol"
      ],
      [
        "Ġo",
        "per"
      ],
      [
        "Ġm",
        "as"
      ],
      [
        "pit",
        "al"
      ],
      [
        "Ġl",
        "imit"
      ],
      [
        "Ġ1",
        "00"
      ],
      [
        "t",
        "her"
      ],
      [
        "Ġcommun",
        "ity"
      ],
      [
        "mis",
        "sion"
      ],
      [
        "âĢ",
        "Ŀ"
      ],
      [
        "Ġind",
        "ic"
      ],
      [
        "ed",
        "ical"
      ],
      [
        "Ġ5",
        "0"
      ],
      [
        "er",
        "ies"
      ],
      [
        "Ġass",
        "oci"
      ],
      [
        "Ġimpro",
        "ve"
      ],
      [
        "h",
        "ib"
      ],
      [
        "ie",
        "f"
      ],
      [
        "Ġf",
        "ron"
      ],
      [
        "Ġstand",
        "ard"
      ],
      [
        "uro",
        "p"
      ],
      [
        "y",
        "ear"
      ],
      [
        "Ġexper",
        "ienc"
      ],
      [
        "Ġ4",
        "0"
      ],
      [
        "z",
        "z"
      ],
      [
        "Ġcondit",
        "ions"
      ],
      [
        "os",
        "pital"
      ],
      [
        "u",
        "id"
      ],
      [
        "Ġin",
        "n"
      ],
      [
        "ac",
        "k"
      ],
      [
        "Ġshow",
        "s"
      ],
      [
        "Ġinvest",
        "ig"
      ],
      [
        "Ġinf",
        "lu"
      ],
      [
        "ac",
        "c"
      ],
      [
        "ĠH",
        "ealth"
      ],
      [
        "lin",
        "ical"
      ],
      [
        "Ġthe",
        "rap"
      ],
      [
        "Ġe",
        "ffic"
      ],
      [
        "R",
        "I"
      ],
      [
        "Ġcomp",
        "ared"
      ],
      [
        "itor",
        "s"
      ],
      [
        "Ġassoci",
        "ated"
      ],
      [
        "ce",
        "m"
      ],
      [
        "ron",
        "ic"
      ],
      [
        "um",
        "or"
      ],
      [
        "Ġb",
        "rain"
      ],
      [
        "ur",
        "b"
      ],
      [
        "Ġs",
        "u"
      ],
      [
        "he",
        "t"
      ],
      [
        "cri",
        "ption"
      ],
      [
        "Ġex",
        "erc"
      ],
      [
        "Ġh",
        "ospital"
      ],
      [
        "Ġimp",
        "le"
      ],
      [
        "Ġda",
        "ily"
      ],
      [
        "ac",
        "hes"
      ],
      [
        "Ġ3",
        "5"
      ],
      [
        "C",
        "E"
      ],
      [
        "ist",
        "ent"
      ],
      [
        "Ġpop",
        "ulation"
      ],
      [
        "Ġrem",
        "ov"
      ],
      [
        "ab",
        "et"
      ],
      [
        "Ġfollow",
        "ed"
      ],
      [
        "Ġredu",
        "ce"
      ],
      [
        "h",
        "arm"
      ],
      [
        "p",
        "ot"
      ],
      [
        "Ġab",
        "out"
      ],
      [
        "Ġon",
        "e"
      ],
      [
        "Ġexerc",
        "ise"
      ],
      [
        "Ġinflu",
        "en"
      ],
      [
        "ienc",
        "y"
      ],
      [
        "Ġno",
        "vel"
      ],
      [
        "Ġinn",
        "ov"
      ],
      [
        "Ġin",
        "hib"
      ],
      [
        "Ġt",
        "umor"
      ],
      [
        "z",
        "a"
      ],
      [
        "Ġmon",
        "itor"
      ],
      [
        "Ġexperienc",
        "es"
      ],
      [
        "harm",
        "ac"
      ],
      [
        "Ġ6",
        "5"
      ],
      [
        "Ġhy",
        "per"
      ],
      [
        "el",
        "ines"
      ],
      [
        "abet",
        "es"
      ],
      [
        "es",
        "cription"
      ],
      [
        "ten",
        "sion"
      ],
      [
        "hed",
        "ul"
      ],
      [
        "Ġ5",
        "00"
      ],
      [
        "uid",
        "elines"
      ],
      [
        "Ġoper",
        "ating"
      ],
      [
        "R",
        "es"
      ],
      [
        "Ġsal",
        "t"
      ],
      [
        "urb",
        "an"
      ],
      [
        "Ġsc",
        "hedul"
      ],
      [
        "d",
        "ates"
      ],
      [
        "Ġimprove",
        "ment"
      ],
      [
        "Ġindic",
        "ate"
      ],
      [
        "Ġch",
        "ronic"
      ],
      [
        "Ġeffic",
        "iency"
      ],
      [
        "Ġhealth",
        "care"
      ],
      [
        "Ġregular",
        "ly"
      ],
      [
        "Ġdi",
        "abetes"
      ],
      [
        "%",
        "."
      ],
      [
        "Ġm",
        "ore"
      ],
      [
        "Ġsc",
        "an"
      ],
      [
        "Ġmonitor",
        "ing"
      ],
      [
        "Ġprovid",
        "ers"
      ],
      [
        "umm",
        "ary"
      ],
      [
        "b",
        "reak"
      ],
      [
        "in",
        "d"
      ],
      [
        "Ġinvol",
        "ves"
      ],
      [
        "Ġhy",
        "pot"
      ],
      [
        "ĠNe",
        "uro"
      ],
      [
        "Ġm",
        "g"
      ],
      [
        "Ġ",
        "urban"
      ],
      [
        "Ġinnov",
        "ation"
      ],
      [
        "Ġremov",
        "al"
      ],
      [
        "Ġsurg",
        "ical"
      ],
      [
        "Ġdirect",
        "ed"
      ],
      [
        "ig",
        "ue"
      ],
      [
        "ĠRes",
        "ults"
      ],
      [
        "Ġint",
        "ake"
      ],
      [
        "Ġtrans",
        "mission"
      ],
      [
        "Ġa",
        "ffects"
      ],
      [
        "ĠO",
        "per"
      ],
      [
        "ĠC",
        "ase"
      ],
      [
        "Ġmas",
        "k"
      ],
      [
        "Ġg",
        "ly"
      ],
      [
        "Ġredu",
        "ces"
      ],
      [
        "Ġadv",
        "ised"
      ],
      [
        "Ġp",
        "rescribed"
      ],
      [
        "ĠE",
        "ffects"
      ],
      [
        "Ġfat",
        "igue"
      ],
      [
        "R",
        "el"
      ],
      [
        "ĠN",
        "ame"
      ],
      [
        "Ġhyper",
        "tension"
      ],
      [
        "Ġtherap",
        "ies"
      ],
      [
        "Ġimpro",
        "ves"
      ],
      [
        "Ġinhib",
        "itors"
      ],
      [
        "H",
        "ealth"
      ],
      [
        "Ġpers",
        "istent"
      ],
      [
        "ĠM",
        "RI"
      ],
      [
        "ath",
        "ic"
      ],
      [
        "acc",
        "ination"
      ],
      [
        "Ġout",
        "break"
      ],
      [
        "os",
        "age"
      ],
      [
        "Ġn",
        "ause"
      ],
      [
        "het",
        "ical"
      ],
      [
        "Ġne",
        "urop"
      ],
      [
        "Res",
        "earch"
      ],
      [
        "ĠG",
        "uidelines"
      ],
      [
        "Ġschedul",
        "ing"
      ],
      [
        "Ġhead",
        "aches"
      ],
      [
        "Ġnause",
        "a"
      ],
      [
        "P",
        "ublic"
      ],
      [
        "D",
        "escription"
      ],
      [
        "Ġdi",
        "zz"
      ],
      [
        "ĠOper",
        "ations"
      ],
      [
        "ĠS",
        "ummary"
      ],
      [
        "Ġinfluen",
        "za"
      ],
      [
        "Ġben",
        "ign"
      ],
      [
        "Ġsurg",
        "eries"
      ],
      [
        "cem",
        "ic"
      ],
      [
        "ĠA",
        "CE"
      ],
      [
        "harmac",
        "ology"
      ],
      [
        "Ġhypot",
        "hetical"
      ],
      [
        "M",
        "edical"
      ],
      [
        "Ġfron",
        "tal"
      ],
      [
        "Ġdizz",
        "iness"
      ],
      [
        "S",
        "ide"
      ],
      [
        "Ġlo",
        "be"
      ],
      [
        "D",
        "rug"
      ],
      [
        "ĠM",
        "ild"
      ],
      [
        "Ġman",
        "dates"
      ],
      [
        "Ġgly",
        "cemic"
      ],
      [
        "C",
        "linical"
      ],
      [
        "Ġimple",
        "ments"
      ],
      [
        "Ġinvestig",
        "ates"
      ],
      [
        "Ġneurop",
        "athic"
      ],
      [
        "Health",
        "care"
      ],
      [
        "ĠV",
        "accination"
      ],
      [
        "Rel",
        "ief"
      ],
      [
        "ĠP",
        "rescribed"
      ],
      [
        "D",
        "osage"
      ],
      [
        "P",
        "harmacology"
      ],
      [
        "ĠNeuro",
        "Relief"
      ],
      [
        "Ġh",
        "as"
      ],
      [
        "Ġl",
        "e"
      ],
      [
        "on",
        "e"
      ],
      [
        "i",
        "al"
      ],
      [
        "g",
        "e"
      ],
      [
        "ic",
        "h"
      ],
      [
        "ic",
        "e"
      ],
      [
        "oun",
        "d"
      ],
      [
        "a",
        "ct"
      ],
      [
        "Ġk",
        "n"
      ],
      [
        "Ġ",
        "J"
      ],
      [
        "i",
        "v"
      ],
      [
        "Ġs",
        "a"
      ],
      [
        "Ġli",
        "ke"
      ],
      [
        "Ġwh",
        "o"
      ],
      [
        "Ġthe",
        "ir"
      ],
      [
        "Ġh",
        "is"
      ],
      [
        "it",
        "e"
      ],
      [
        "'",
        "t"
      ],
      [
        "ou",
        "s"
      ],
      [
        "Ġan",
        "y"
      ],
      [
        "Ġs",
        "ome"
      ],
      [
        "d",
        "er"
      ],
      [
        "Ġg",
        "et"
      ],
      [
        "Ġf",
        "e"
      ],
      [
        "Ġ",
        "en"
      ],
      [
        "ab",
        "le"
      ],
      [
        "Ġtim",
        "e"
      ],
      [
        "i",
        "p"
      ],
      [
        "Ġthe",
        "re"
      ],
      [
        "Ġwh",
        "at"
      ],
      [
        "Ġ",
        "\""
      ],
      [
        "Ġ",
        "if"
      ],
      [
        "Ġw",
        "ould"
      ],
      [
        "Ġ",
        "Y"
      ],
      [
        "e",
        "p"
      ],
      [
        "Ġh",
        "ad"
      ],
      [
        "Ġa",
        "r"
      ],
      [
        "Ġa",
        "c"
      ],
      [
        "Ġwe",
        "re"
      ],
      [
        "Ġthe",
        "m"
      ],
      [
        "Ġ",
        "our"
      ],
      [
        "Ġkn",
        "ow"
      ],
      [
        "in",
        "k"
      ],
      [
        "or",
        "m"
      ],
      [
        "an",
        "ce"
      ],
      [
        "Ġj",
        "ust"
      ],
      [
        "Ġ2",
        "0"
      ],
      [
        "Ġbe",
        "en"
      ],
      [
        "Ġre",
        "s"
      ],
      [
        "Ġwh",
        "ich"
      ],
      [
        "Ġo",
        "ther"
      ],
      [
        "e",
        "ll"
      ],
      [
        "ay",
        "s"
      ],
      [
        "on",
        "g"
      ],
      [
        "in",
        "e"
      ],
      [
        "Ġwor",
        "k"
      ],
      [
        "ĠI",
        "n"
      ],
      [
        "al",
        "ly"
      ],
      [
        "i",
        "z"
      ],
      [
        "Ġhe",
        "r"
      ],
      [
        "ac",
        "e"
      ],
      [
        "v",
        "en"
      ],
      [
        "e",
        "c"
      ],
      [
        "Ġa",
        "g"
      ],
      [
        "Ġp",
        "e"
      ],
      [
        "Ġwhe",
        "n"
      ],
      [
        "p",
        "l"
      ],
      [
        "o",
        "se"
      ],
      [
        "Ġa",
        "pp"
      ],
      [
        "Ġy",
        "ear"
      ],
      [
        "Ġth",
        "an"
      ],
      [
        "ĠâĢ",
        "ľ"
      ],
      [
        "r",
        "y"
      ],
      [
        "Ġc",
        "l"
      ],
      [
        "Ġa",
        "m"
      ],
      [
        "Ġin",
        "c"
      ],
      [
        "s",
        "o"
      ],
      [
        "Ġp",
        "re"
      ],
      [
        "Ġof",
        "f"
      ],
      [
        "op",
        "le"
      ],
      [
        "ĠI",
        "t"
      ],
      [
        "en",
        "ce"
      ],
      [
        "ac",
        "h"
      ],
      [
        "a",
        "il"
      ],
      [
        "re",
        "e"
      ],
      [
        "Ġh",
        "ow"
      ],
      [
        "n",
        "t"
      ],
      [
        "ing",
        "s"
      ],
      [
        "k",
        "s"
      ],
      [
        "Ġ",
        "U"
      ],
      [
        "Ġs",
        "he"
      ],
      [
        "Ġp",
        "er"
      ],
      [
        "b",
        "er"
      ],
      [
        "Ġpe",
        "ople"
      ],
      [
        "a",
        "p"
      ],
      [
        "Ġ",
        "qu"
      ],
      [
        "Ġne",
        "ed"
      ],
      [
        "Ġd",
        "is"
      ],
      [
        "re",
        "d"
      ],
      [
        "Ġo",
        "ver"
      ],
      [
        "i",
        "le"
      ],
      [
        "ul",
        "t"
      ],
      [
        "er",
        "v"
      ],
      [
        "Ġt",
        "e"
      ],
      [
        "Ġsa",
        "id"
      ],
      [
        "Ġlo",
        "ok"
      ],
      [
        "h",
        "ing"
      ],
      [
        "i",
        "a"
      ],
      [
        "Ġp",
        "art"
      ],
      [
        "Ġbe",
        "c"
      ],
      [
        "Ġne",
        "w"
      ],
      [
        "c",
        "ess"
      ],
      [
        "Ġb",
        "l"
      ],
      [
        "Ġal",
        "so"
      ],
      [
        "T",
        "h"
      ],
      [
        "Ġ",
        "K"
      ],
      [
        "Ġd",
        "on"
      ],
      [
        "t",
        "e"
      ],
      [
        "Ġa",
        "ct"
      ],
      [
        "Ġse",
        "e"
      ],
      [
        "Ġint",
        "o"
      ],
      [
        "res",
        "s"
      ],
      [
        "Ġre",
        "c"
      ],
      [
        "Ġth",
        "ink"
      ],
      [
        "an",
        "g"
      ],
      [
        "o",
        "ok"
      ],
      [
        "Ġm",
        "ay"
      ],
      [
        "Ġc",
        "ould"
      ],
      [
        "f",
        "ter"
      ],
      [
        "w",
        "n"
      ],
      [
        "o",
        "od"
      ],
      [
        "Ġh",
        "im"
      ],
      [
        "oun",
        "t"
      ],
      [
        "Ġm",
        "ake"
      ],
      [
        "Ġgo",
        "od"
      ],
      [
        "as",
        "s"
      ],
      [
        "Ġ",
        "very"
      ],
      [
        "u",
        "ch"
      ],
      [
        "..",
        "."
      ],
      [
        "f",
        "ul"
      ],
      [
        "Ġg",
        "r"
      ],
      [
        "ar",
        "k"
      ],
      [
        "Ġb",
        "et"
      ],
      [
        "Ġw",
        "ant"
      ],
      [
        ")",
        "."
      ],
      [
        "Ġd",
        "id"
      ],
      [
        "Ġon",
        "ly"
      ],
      [
        "Ġ",
        "-"
      ],
      [
        "or",
        "d"
      ],
      [
        "Ġe",
        "very"
      ],
      [
        "o",
        "y"
      ],
      [
        "ic",
        "k"
      ],
      [
        "ir",
        "st"
      ],
      [
        "1",
        "0"
      ],
      [
        "t",
        "ing"
      ],
      [
        "Ġb",
        "ack"
      ],
      [
        "Ġt",
        "w"
      ],
      [
        "c",
        "k"
      ],
      [
        "ow",
        "n"
      ],
      [
        "ad",
        "e"
      ],
      [
        ".",
        ";"
      ],
      [
        "i",
        "ous"
      ],
      [
        "n",
        "ing"
      ],
      [
        "r",
        "u"
      ],
      [
        "se",
        "l"
      ],
      [
        "o",
        "in"
      ],
      [
        "l",
        "p"
      ],
      [
        "ent",
        "s"
      ],
      [
        "Ġ",
        "["
      ],
      [
        "r",
        "ough"
      ],
      [
        "or",
        "s"
      ],
      [
        "Ġm",
        "uch"
      ],
      [
        "Ġn",
        "ow"
      ],
      [
        "ĠS",
        "t"
      ],
      [
        "at",
        "er"
      ],
      [
        "Ġthe",
        "se"
      ],
      [
        "Ġun",
        "der"
      ],
      [
        "Ġsh",
        "ould"
      ],
      [
        "Ġw",
        "ay"
      ],
      [
        "Ġhe",
        "lp"
      ],
      [
        "on",
        "d"
      ],
      [
        "or",
        "y"
      ],
      [
        "v",
        "ing"
      ],
      [
        "e",
        "y"
      ],
      [
        "en",
        "s"
      ],
      [
        "o",
        "b"
      ],
      [
        "f",
        "ore"
      ],
      [
        "Ġwe",
        "ll"
      ],
      [
        "ĠC",
        "h"
      ],
      [
        "2",
        "0"
      ],
      [
        "on",
        "s"
      ],
      [
        "Ġ",
        "use"
      ],
      [
        "Ġm",
        "ost"
      ],
      [
        "Ġe",
        "m"
      ],
      [
        "r",
        "it"
      ],
      [
        "âĢ",
        "ľ"
      ],
      [
        "Ġhe",
        "re"
      ],
      [
        "Ġre",
        "p"
      ],
      [
        "Ġf",
        "irst"
      ],
      [
        "Ġe",
        "ven"
      ],
      [
        "ĠW",
        "e"
      ],
      [
        ".",
        "\""
      ],
      [
        "Ġg",
        "reat"
      ],
      [
        "o",
        "ve"
      ],
      [
        "w",
        "e"
      ],
      [
        "Ġ20",
        "1"
      ],
      [
        "Ġcon",
        "s"
      ],
      [
        "Ġthe",
        "n"
      ],
      [
        "i",
        "re"
      ],
      [
        "om",
        "et"
      ],
      [
        "is",
        "h"
      ],
      [
        "he",
        "n"
      ],
      [
        "if",
        "e"
      ],
      [
        "ĠY",
        "ou"
      ],
      [
        "ct",
        "ion"
      ],
      [
        "it",
        "t"
      ],
      [
        "Ġa",
        "fter"
      ],
      [
        "re",
        "n"
      ],
      [
        "Ġyear",
        "s"
      ],
      [
        "Ġre",
        "ally"
      ],
      [
        "Ġex",
        "p"
      ],
      [
        "if",
        "ic"
      ],
      [
        "Ġd",
        "es"
      ],
      [
        "Ġit",
        "s"
      ],
      [
        "Ġre",
        "ad"
      ],
      [
        "Ġp",
        "r"
      ],
      [
        "h",
        "at"
      ],
      [
        "s",
        "s"
      ],
      [
        "Ġtw",
        "o"
      ],
      [
        "Ġman",
        "y"
      ],
      [
        "Ġ",
        "0"
      ],
      [
        ".",
        "âĢĿ"
      ],
      [
        "Ġth",
        "rough"
      ],
      [
        "Ġbec",
        "ause"
      ],
      [
        "a",
        "v"
      ],
      [
        "d",
        "ay"
      ],
      [
        "Ġwhe",
        "re"
      ],
      [
        "y",
        "s"
      ],
      [
        "Ġre",
        "l"
      ],
      [
        "Ġac",
        "c"
      ],
      [
        "Ġp",
        "h"
      ],
      [
        "ff",
        "ere"
      ],
      [
        "l",
        "ud"
      ],
      [
        "Ġl",
        "ong"
      ],
      [
        "ĠâĢ",
        "ĵ"
      ],
      [
        "j",
        "ect"
      ],
      [
        "Ġf",
        "ind"
      ],
      [
        "o",
        "ol"
      ],
      [
        "os",
        "s"
      ],
      [
        "p",
        "le"
      ],
      [
        "Ġth",
        "ough"
      ],
      [
        "t",
        "y"
      ],
      [
        "Ġs",
        "ay"
      ],
      [
        "ati",
        "ve"
      ],
      [
        "Ġb",
        "u"
      ],
      [
        "Ġ1",
        "0"
      ],
      [
        "b",
        "le"
      ],
      [
        "Ġd",
        "ay"
      ],
      [
        "Ġdo",
        "es"
      ],
      [
        "ĠH",
        "e"
      ],
      [
        "Ġde",
        "c"
      ],
      [
        "ro",
        "w"
      ],
      [
        "âĢ",
        "¦"
      ],
      [
        "l",
        "es"
      ],
      [
        "Ġag",
        "ain"
      ],
      [
        "ot",
        "her"
      ],
      [
        "Ġsu",
        "ch"
      ],
      [
        "Ġr",
        "ight"
      ],
      [
        "ie",
        "w"
      ],
      [
        "t",
        "ain"
      ],
      [
        "x",
        "t"
      ],
      [
        "Ġgo",
        "ing"
      ],
      [
        "Ġsu",
        "pp"
      ],
      [
        "ak",
        "ing"
      ],
      [
        "ic",
        "t"
      ],
      [
        "I",
        "t"
      ],
      [
        "Ġo",
        "wn"
      ],
      [
        "Ġ",
        "7"
      ],
      [
        "Ġd",
        "own"
      ],
      [
        "Ġth",
        "ose"
      ],
      [
        "âĢ",
        "ĵ"
      ],
      [
        "e",
        "f"
      ],
      [
        "Ġbe",
        "fore"
      ],
      [
        "Ġdi",
        "ffere"
      ],
      [
        "sel",
        "f"
      ],
      [
        "ur",
        "n"
      ],
      [
        "m",
        "s"
      ],
      [
        "Ġs",
        "omet"
      ],
      [
        "as",
        "ed"
      ],
      [
        "it",
        "ies"
      ],
      [
        "Ġa",
        "w"
      ],
      [
        "1",
        "1"
      ],
      [
        "t",
        "he"
      ],
      [
        "Ġbe",
        "ing"
      ],
      [
        "ib",
        "le"
      ],
      [
        "g",
        "et"
      ],
      [
        "Ġf",
        "un"
      ],
      [
        "il",
        "ity"
      ],
      [
        "ual",
        "ly"
      ],
      [
        "Ġs",
        "ub"
      ],
      [
        "Ġto",
        "o"
      ],
      [
        "Ġp",
        "ost"
      ],
      [
        "an",
        "c"
      ],
      [
        "an",
        "ge"
      ],
      [
        "Ġ",
        "8"
      ],
      [
        "f",
        "t"
      ],
      [
        ")",
        ","
      ],
      [
        "Ġbe",
        "l"
      ],
      [
        "Ġinf",
        "orm"
      ],
      [
        "Ġg",
        "u"
      ],
      [
        "Ġin",
        "s"
      ],
      [
        "b",
        "s"
      ],
      [
        "v",
        "ed"
      ],
      [
        "Ġst",
        "art"
      ],
      [
        "Ġinc",
        "lud"
      ],
      [
        "al",
        "k"
      ],
      [
        "it",
        "ion"
      ],
      [
        "Ġ",
        "9"
      ],
      [
        "Ġg",
        "en"
      ],
      [
        "Ġpers",
        "on"
      ],
      [
        "Ġf",
        "l"
      ],
      [
        "Ġc",
        "ar"
      ],
      [
        "f",
        "orm"
      ],
      [
        "Ġm",
        "ade"
      ],
      [
        "Ġwe",
        "e"
      ],
      [
        "ra",
        "ct"
      ],
      [
        "Ġs",
        "erv"
      ],
      [
        "I",
        "n"
      ],
      [
        "Ġpro",
        "du"
      ],
      [
        "ĠAn",
        "d"
      ],
      [
        "Ġlo",
        "ve"
      ],
      [
        "ot",
        "h"
      ],
      [
        "Ġha",
        "pp"
      ],
      [
        "n",
        "e"
      ],
      [
        "Ġc",
        "o"
      ],
      [
        "i",
        "ed"
      ],
      [
        "itt",
        "le"
      ],
      [
        "i",
        "an"
      ],
      [
        "Ġst",
        "ill"
      ],
      [
        "an",
        "k"
      ],
      [
        "Ġl",
        "ife"
      ],
      [
        "Ġb",
        "us"
      ],
      [
        "a",
        "w"
      ],
      [
        "Ġfe",
        "el"
      ],
      [
        "Ġat",
        "t"
      ],
      [
        "Ġ",
        "i"
      ],
      [
        "Ġc",
        "he"
      ],
      [
        "W",
        "e"
      ],
      [
        "'",
        "m"
      ],
      [
        "Ġ",
        "end"
      ],
      [
        "Ġint",
        "er"
      ],
      [
        "p",
        "s"
      ],
      [
        "Ġth",
        "ings"
      ],
      [
        "Ġb",
        "r"
      ],
      [
        "Ġ",
        "ent"
      ],
      [
        "Ġh",
        "igh"
      ],
      [
        "Ġres",
        "p"
      ],
      [
        "th",
        "ing"
      ],
      [
        "1",
        "2"
      ],
      [
        "c",
        "om"
      ],
      [
        "Ġk",
        "e"
      ],
      [
        "a",
        "ve"
      ],
      [
        "Ġse",
        "c"
      ],
      [
        "ur",
        "ing"
      ],
      [
        "ic",
        "es"
      ],
      [
        "ra",
        "m"
      ],
      [
        "Ġ1",
        "9"
      ],
      [
        "Ġsp",
        "ec"
      ],
      [
        "Ġl",
        "ittle"
      ],
      [
        "ic",
        "s"
      ],
      [
        "id",
        "ent"
      ],
      [
        "Ġl",
        "ot"
      ],
      [
        "Ġs",
        "im"
      ],
      [
        "w",
        "ays"
      ],
      [
        "Ġf",
        "in"
      ],
      [
        "u",
        "res"
      ],
      [
        "i",
        "ence"
      ],
      [
        "e",
        "ver"
      ],
      [
        "ĠB",
        "ut"
      ],
      [
        "Ġh",
        "and"
      ],
      [
        "Ġus",
        "ed"
      ],
      [
        "Y",
        "ou"
      ],
      [
        "Ġad",
        "d"
      ],
      [
        "Ġsomet",
        "hing"
      ],
      [
        "1",
        "3"
      ],
      [
        "oin",
        "t"
      ],
      [
        "ro",
        "ss"
      ],
      [
        "Ġl",
        "ast"
      ],
      [
        "Ġb",
        "est"
      ],
      [
        "Th",
        "is"
      ],
      [
        "Ġs",
        "et"
      ],
      [
        "Ġs",
        "ign"
      ],
      [
        "Ġs",
        "ame"
      ],
      [
        "Ġfe",
        "w"
      ],
      [
        "ri",
        "end"
      ],
      [
        "Ġpl",
        "ay"
      ],
      [
        "Ġ",
        "Ġ"
      ],
      [
        "Ġm",
        "in"
      ],
      [
        "al",
        "s"
      ],
      [
        "ĠI",
        "f"
      ],
      [
        "1",
        "4"
      ],
      [
        "Ġdis",
        "c"
      ],
      [
        "Ġe",
        "v"
      ],
      [
        "Ġm",
        "et"
      ],
      [
        "Ġc",
        "all"
      ],
      [
        "Ġp",
        "res"
      ],
      [
        "Ġg",
        "ot"
      ],
      [
        "Ġinform",
        "ation"
      ],
      [
        "Ġch",
        "ild"
      ],
      [
        "an",
        "y"
      ],
      [
        "Ġin",
        "st"
      ],
      [
        "ow",
        "er"
      ],
      [
        "Ġcom",
        "e"
      ],
      [
        ",",
        "\""
      ],
      [
        "2",
        "5"
      ],
      [
        "re",
        "ad"
      ],
      [
        "w",
        "ard"
      ],
      [
        "ation",
        "al"
      ],
      [
        "in",
        "ce"
      ],
      [
        "Ġd",
        "et"
      ],
      [
        "Ġre",
        "al"
      ],
      [
        "ere",
        "st"
      ],
      [
        "Ġf",
        "am"
      ],
      [
        "Ġwor",
        "ld"
      ],
      [
        "Ġar",
        "ound"
      ],
      [
        "Ġtr",
        "y"
      ],
      [
        "Ġdiffere",
        "nt"
      ],
      [
        "Ġs",
        "ure"
      ],
      [
        "I",
        "f"
      ],
      [
        "le",
        "ct"
      ],
      [
        "we",
        "en"
      ],
      [
        "Ġh",
        "ome"
      ],
      [
        "Ġl",
        "et"
      ],
      [
        "Ġm",
        "od"
      ],
      [
        "Ġwh",
        "ile"
      ],
      [
        "Ġo",
        "p"
      ],
      [
        "Ġne",
        "ver"
      ],
      [
        "1",
        "5"
      ],
      [
        "u",
        "ll"
      ],
      [
        "Ġe",
        "ach"
      ],
      [
        "Ġre",
        "qu"
      ],
      [
        "Ġb",
        "ook"
      ],
      [
        "oc",
        "k"
      ],
      [
        "Ġc",
        "re"
      ],
      [
        "Ġc",
        "are"
      ],
      [
        "Ġf",
        "ound"
      ],
      [
        "a",
        "ir"
      ],
      [
        "as",
        "on"
      ],
      [
        "Ġc",
        "our"
      ],
      [
        "Ġn",
        "um"
      ],
      [
        "ere",
        "d"
      ],
      [
        "Ġde",
        "f"
      ],
      [
        "it",
        "s"
      ],
      [
        "u",
        "es"
      ],
      [
        "g",
        "an"
      ],
      [
        "l",
        "ed"
      ],
      [
        "Ġar",
        "t"
      ],
      [
        "Ġf",
        "act"
      ],
      [
        "vel",
        "op"
      ],
      [
        "Ġbet",
        "ween"
      ],
      [
        "er",
        "m"
      ],
      [
        "n",
        "ess"
      ],
      [
        "Ġv",
        "is"
      ],
      [
        "h",
        "ip"
      ],
      [
        "Ġw",
        "on"
      ],
      [
        "m",
        "er"
      ],
      [
        "Ġas",
        "k"
      ],
      [
        "Ġbus",
        "iness"
      ],
      [
        "Ġal",
        "ways"
      ],
      [
        "Ġp",
        "ol"
      ],
      [
        "ion",
        "al"
      ],
      [
        "c",
        "ed"
      ],
      [
        "t",
        "t"
      ],
      [
        "ter",
        "n"
      ],
      [
        "Ġm",
        "ight"
      ],
      [
        "Ġbet",
        "ter"
      ],
      [
        "Ġe",
        "t"
      ],
      [
        "Ġe",
        "ar"
      ],
      [
        "at",
        "a"
      ],
      [
        "y",
        "p"
      ],
      [
        "ect",
        "ion"
      ],
      [
        "Ġke",
        "ep"
      ],
      [
        "Ġm",
        "ust"
      ],
      [
        "i",
        "x"
      ],
      [
        "Ġpl",
        "ace"
      ],
      [
        "le",
        "ase"
      ],
      [
        "ak",
        "es"
      ],
      [
        "ĠU",
        "n"
      ],
      [
        "Ġg",
        "l"
      ],
      [
        "p",
        "h"
      ],
      [
        "e",
        "e"
      ],
      [
        "2",
        "4"
      ],
      [
        "an",
        "ts"
      ],
      [
        "ou",
        "se"
      ],
      [
        "Ġ",
        "$"
      ],
      [
        "e",
        "g"
      ],
      [
        "Ġf",
        "riend"
      ],
      [
        "Ġp",
        "ut"
      ],
      [
        "Ġint",
        "erest"
      ],
      [
        "i",
        "ent"
      ],
      [
        "Ġse",
        "em"
      ],
      [
        "ĠThe",
        "y"
      ],
      [
        "Ġa",
        "v"
      ],
      [
        "c",
        "er"
      ],
      [
        "od",
        "y"
      ],
      [
        "t",
        "o"
      ],
      [
        "Ġlo",
        "c"
      ],
      [
        "ut",
        "e"
      ],
      [
        "a",
        "x"
      ],
      [
        "Ġwee",
        "k"
      ],
      [
        "ch",
        "ool"
      ],
      [
        "u",
        "c"
      ],
      [
        "Ġre",
        "f"
      ],
      [
        "n",
        "g"
      ],
      [
        "or",
        "k"
      ],
      [
        "Ġc",
        "ount"
      ],
      [
        "Ġcomp",
        "le"
      ],
      [
        "Ġpro",
        "g"
      ],
      [
        "Ġmon",
        "th"
      ],
      [
        "Ġe",
        "as"
      ],
      [
        "1",
        "9"
      ],
      [
        "Ġo",
        "b"
      ],
      [
        "'",
        "re"
      ],
      [
        "Ġqu",
        "est"
      ],
      [
        "Ġv",
        "al"
      ],
      [
        "Ġus",
        "ing"
      ],
      [
        "om",
        "m"
      ],
      [
        "Ġm",
        "at"
      ],
      [
        "Ġc",
        "le"
      ],
      [
        "ut",
        "ion"
      ],
      [
        "Ġc",
        "ur"
      ],
      [
        "Ġth",
        "ing"
      ],
      [
        "!",
        "!"
      ],
      [
        "n",
        "er"
      ],
      [
        "Ġm",
        "em"
      ],
      [
        "Ġch",
        "ar"
      ],
      [
        "Ġm",
        "ark"
      ],
      [
        "'",
        "ve"
      ],
      [
        "ent",
        "ion"
      ],
      [
        "op",
        "e"
      ],
      [
        "Ġb",
        "oth"
      ],
      [
        "1",
        "6"
      ],
      [
        "Ġcon",
        "f"
      ],
      [
        "st",
        "and"
      ],
      [
        "iz",
        "e"
      ],
      [
        "Ġ",
        "ide"
      ],
      [
        ",",
        "âĢĿ"
      ],
      [
        "Ġt",
        "ri"
      ],
      [
        "Ġl",
        "ear"
      ],
      [
        "Ġimp",
        "ort"
      ],
      [
        "u",
        "th"
      ],
      [
        "Ġl",
        "ist"
      ],
      [
        "Ġo",
        "ld"
      ],
      [
        "is",
        "s"
      ],
      [
        "lin",
        "e"
      ],
      [
        "h",
        "y"
      ],
      [
        "Ġc",
        "a"
      ],
      [
        "Ġp",
        "oss"
      ],
      [
        "Ġwith",
        "out"
      ],
      [
        "Ġc",
        "or"
      ],
      [
        "Ġgr",
        "ou"
      ],
      [
        "Ġbl",
        "og"
      ],
      [
        "Ġg",
        "ive"
      ],
      [
        "Ġw",
        "rit"
      ],
      [
        "3",
        "0"
      ],
      [
        "Ġde",
        "velop"
      ],
      [
        "r",
        "ic"
      ],
      [
        "Ġne",
        "xt"
      ],
      [
        "at",
        "her"
      ],
      [
        "ag",
        "es"
      ],
      [
        "Ġapp",
        "ro"
      ],
      [
        "Ġc",
        "oll"
      ],
      [
        "Ġs",
        "l"
      ],
      [
        ".",
        ","
      ],
      [
        "ical",
        "ly"
      ],
      [
        "ce",
        "pt"
      ],
      [
        "Ġpart",
        "ic"
      ],
      [
        "Ġan",
        "other"
      ],
      [
        "ch",
        "n"
      ],
      [
        "1",
        "8"
      ],
      [
        "l",
        "ess"
      ],
      [
        "c",
        "c"
      ],
      [
        "Ġ2",
        "00"
      ],
      [
        "Ġpro",
        "ble"
      ],
      [
        "i",
        "o"
      ],
      [
        "Ġ",
        "ed"
      ],
      [
        "iz",
        "ed"
      ],
      [
        "Ġb",
        "o"
      ],
      [
        "ĠThe",
        "re"
      ],
      [
        "n",
        "ce"
      ],
      [
        "Ġ1",
        "2"
      ],
      [
        "d",
        "s"
      ],
      [
        "1",
        "7"
      ],
      [
        "Ġpl",
        "an"
      ],
      [
        "a",
        "h"
      ],
      [
        "it",
        "ed"
      ],
      [
        "Ġgen",
        "er"
      ],
      [
        "Ġs",
        "it"
      ],
      [
        "Ġre",
        "t"
      ],
      [
        "Ġpro",
        "cess"
      ],
      [
        "Ġr",
        "un"
      ],
      [
        "'",
        "ll"
      ],
      [
        "Ġsupp",
        "ort"
      ],
      [
        "Ġth",
        "ree"
      ],
      [
        "Ġs",
        "ite"
      ],
      [
        "Ġw",
        "om"
      ],
      [
        "a",
        "z"
      ],
      [
        "Ġs",
        "k"
      ],
      [
        "Ġdid",
        "n"
      ],
      [
        "im",
        "e"
      ],
      [
        "Ġwh",
        "y"
      ],
      [
        "Ġfor",
        "m"
      ],
      [
        "Ġe",
        "l"
      ],
      [
        "Ġd",
        "ays"
      ],
      [
        "Ġh",
        "ard"
      ],
      [
        "Ġt",
        "ell"
      ],
      [
        "Ġinc",
        "re"
      ],
      [
        "Ġis",
        "s"
      ],
      [
        "Ġm",
        "ed"
      ],
      [
        "c",
        "on"
      ],
      [
        "q",
        "ual"
      ],
      [
        "l",
        "i"
      ],
      [
        "i",
        "red"
      ],
      [
        "Ġde",
        "p"
      ],
      [
        "at",
        "ure"
      ],
      [
        "Ġv",
        "ar"
      ],
      [
        "Ġle",
        "ad"
      ],
      [
        "Ġp",
        "ur"
      ],
      [
        "ie",
        "ve"
      ],
      [
        "ab",
        "ly"
      ],
      [
        "ar",
        "ch"
      ],
      [
        "ĠH",
        "ow"
      ],
      [
        "ron",
        "g"
      ],
      [
        "en",
        "se"
      ],
      [
        "Ġ",
        "."
      ],
      [
        "Ġto",
        "p"
      ],
      [
        "e",
        "ad"
      ],
      [
        "Ġb",
        "ig"
      ],
      [
        "Ġd",
        "ata"
      ],
      [
        "he",
        "re"
      ],
      [
        "ial",
        "ly"
      ],
      [
        "at",
        "ch"
      ],
      [
        "Ġp",
        "ay"
      ],
      [
        "Ġs",
        "ince"
      ],
      [
        "Ġd",
        "uring"
      ],
      [
        "2",
        "3"
      ],
      [
        "Ġp",
        "oint"
      ],
      [
        "Ġ1",
        "4"
      ],
      [
        "Ġprodu",
        "ct"
      ],
      [
        "ĠP",
        "ro"
      ],
      [
        "o",
        "f"
      ],
      [
        "An",
        "d"
      ],
      [
        "Ġd",
        "ist"
      ],
      [
        "Ġex",
        "t"
      ],
      [
        "W",
        "hat"
      ],
      [
        "Ġle",
        "vel"
      ],
      [
        "er",
        "tain"
      ],
      [
        "Ġnum",
        "ber"
      ],
      [
        "Ġop",
        "en"
      ],
      [
        "ĠA",
        "s"
      ],
      [
        "Ġaw",
        "ay"
      ],
      [
        "et",
        "s"
      ],
      [
        "Ġt",
        "yp"
      ],
      [
        "ĠS",
        "he"
      ],
      [
        "et",
        "y"
      ],
      [
        "Ġimport",
        "ant"
      ],
      [
        "Ġfam",
        "ily"
      ],
      [
        "Ġpro",
        "f"
      ],
      [
        "e",
        "w"
      ],
      [
        "Ġab",
        "le"
      ],
      [
        "ate",
        "ly"
      ],
      [
        "Ġre",
        "st"
      ],
      [
        "/",
        "/"
      ],
      [
        "Ġk",
        "ind"
      ],
      [
        "Ġs",
        "chool"
      ],
      [
        "Ġf",
        "ree"
      ],
      [
        "ri",
        "b"
      ],
      [
        "Ġst",
        "ate"
      ],
      [
        "Ġl",
        "ess"
      ],
      [
        "00",
        "0"
      ],
      [
        "Ġl",
        "ar"
      ],
      [
        "ver",
        "n"
      ],
      [
        "v",
        "iew"
      ],
      [
        "Ġt",
        "ra"
      ],
      [
        "Ġex",
        "am"
      ],
      [
        "Ġlook",
        "ing"
      ],
      [
        "ĠF",
        "or"
      ],
      [
        "an",
        "ks"
      ],
      [
        "Ġunder",
        "stand"
      ],
      [
        "Ġs",
        "ol"
      ],
      [
        "er",
        "g"
      ],
      [
        "Ġd",
        "ri"
      ],
      [
        "Ġthough",
        "t"
      ],
      [
        "Ġe",
        "ver"
      ],
      [
        "ru",
        "ct"
      ],
      [
        "ic",
        "le"
      ],
      [
        "e",
        "x"
      ],
      [
        "ĠTh",
        "at"
      ],
      [
        "ĠC",
        "on"
      ],
      [
        "Ġd",
        "one"
      ],
      [
        "Ġt",
        "alk"
      ],
      [
        "id",
        "er"
      ],
      [
        "Ġ1",
        "3"
      ],
      [
        "2",
        "2"
      ],
      [
        "Ġdes",
        "ign"
      ],
      [
        "Ġ",
        "'"
      ],
      [
        "ĠA",
        "l"
      ],
      [
        "Ġ",
        "Z"
      ],
      [
        "t",
        "ed"
      ],
      [
        "Ġd",
        "el"
      ],
      [
        "p",
        "ect"
      ],
      [
        "Ġcont",
        "in"
      ],
      [
        "Ġt",
        "urn"
      ],
      [
        "Ġme",
        "an"
      ],
      [
        ":",
        "//"
      ],
      [
        "in",
        "s"
      ],
      [
        "5",
        "0"
      ],
      [
        "Ġm",
        "ain"
      ],
      [
        "Ġex",
        "pl"
      ],
      [
        "Ġwe",
        "bs"
      ],
      [
        "Ġcour",
        "se"
      ],
      [
        "ĠS",
        "o"
      ],
      [
        "Ġp",
        "ar"
      ],
      [
        "Ġen",
        "ough"
      ],
      [
        "as",
        "es"
      ],
      [
        "Ġe",
        "ffect"
      ],
      [
        "Ġp",
        "ri"
      ],
      [
        "Ġh",
        "our"
      ],
      [
        "is",
        "hed"
      ],
      [
        "âĢ",
        "Ķ"
      ],
      [
        "am",
        "p"
      ],
      [
        "Ġj",
        "ob"
      ],
      [
        "Ġav",
        "ail"
      ],
      [
        "m",
        "e"
      ],
      [
        "Ġmon",
        "ey"
      ],
      [
        "-",
        "-"
      ],
      [
        "u",
        "ck"
      ],
      [
        "re",
        "nt"
      ],
      [
        "Ġg",
        "iv"
      ],
      [
        "Ġte",
        "chn"
      ],
      [
        "Ġdo",
        "ing"
      ],
      [
        "c",
        "l"
      ],
      [
        "The",
        "re"
      ],
      [
        "al",
        "e"
      ],
      [
        "Ġp",
        "os"
      ],
      [
        "Ġ",
        "Â"
      ],
      [
        "Ġc",
        "r"
      ],
      [
        "Ġs",
        "oci"
      ],
      [
        "ust",
        "om"
      ],
      [
        "Ġc",
        "ell"
      ],
      [
        "Ġre",
        "ce"
      ],
      [
        "b",
        "ers"
      ],
      [
        "Ġc",
        "ase"
      ],
      [
        "as",
        "h"
      ],
      [
        "Ġall",
        "ow"
      ],
      [
        "t",
        "il"
      ],
      [
        "or",
        "ts"
      ],
      [
        "Ġte",
        "am"
      ],
      [
        "Ġle",
        "ast"
      ],
      [
        "j",
        "oy"
      ],
      [
        "Ġpre",
        "v"
      ],
      [
        "Ġha",
        "ving"
      ],
      [
        "pl",
        "oy"
      ],
      [
        "ur",
        "al"
      ],
      [
        "Ġan",
        "al"
      ],
      [
        "g",
        "est"
      ],
      [
        "Ġb",
        "it"
      ],
      [
        "ĠW",
        "hat"
      ],
      [
        "Ġexper",
        "ience"
      ],
      [
        "p",
        "r"
      ],
      [
        "B",
        "ut"
      ],
      [
        "Ġo",
        "pp"
      ],
      [
        "Ġchild",
        "ren"
      ],
      [
        "Ġw",
        "ater"
      ],
      [
        "Ġmark",
        "et"
      ],
      [
        "A",
        "s"
      ],
      [
        "Ġst",
        "r"
      ],
      [
        "Ġbu",
        "ild"
      ],
      [
        "Ġm",
        "aking"
      ],
      [
        "Ġp",
        "ublic"
      ],
      [
        "ar",
        "s"
      ],
      [
        "Ġrep",
        "ort"
      ],
      [
        "Ġch",
        "ange"
      ],
      [
        "Ġb",
        "ro"
      ],
      [
        "Ġc",
        "ost"
      ],
      [
        "is",
        "m"
      ],
      [
        "Ġact",
        "ually"
      ],
      [
        "p",
        "ec"
      ],
      [
        "n",
        "ed"
      ],
      [
        "Ġs",
        "er"
      ],
      [
        "Ġch",
        "o"
      ],
      [
        "os",
        "ed"
      ],
      [
        "Ġ",
        "ra"
      ],
      [
        "Ġdoes",
        "n"
      ],
      [
        "em",
        "ber"
      ],
      [
        "Ġget",
        "ting"
      ],
      [
        "mer",
        "ic"
      ],
      [
        "Ġor",
        "gan"
      ],
      [
        "read",
        "y"
      ],
      [
        "r",
        "ation"
      ],
      [
        "Ġbe",
        "h"
      ],
      [
        "ĠS",
        "c"
      ],
      [
        "Ġm",
        "ind"
      ],
      [
        "Ġh",
        "um"
      ],
      [
        "or",
        "n"
      ],
      [
        "ist",
        "s"
      ],
      [
        "Ġc",
        "ent"
      ],
      [
        "Ġch",
        "ang"
      ],
      [
        "Ġhapp",
        "en"
      ],
      [
        "Ġact",
        "iv"
      ],
      [
        "Ġre",
        "se"
      ],
      [
        "l",
        "and"
      ],
      [
        "ort",
        "un"
      ],
      [
        "Ġavail",
        "able"
      ],
      [
        "Ġor",
        "der"
      ],
      [
        "Ġto",
        "day"
      ],
      [
        "Ġg",
        "row"
      ],
      [
        "Ġper",
        "form"
      ],
      [
        "en",
        "g"
      ],
      [
        "Ġf",
        "ar"
      ],
      [
        "ug",
        "h"
      ],
      [
        "Ġc",
        "ertain"
      ],
      [
        "]",
        "."
      ],
      [
        "in",
        "al"
      ],
      [
        "Ġp",
        "ass"
      ],
      [
        "Ġwith",
        "in"
      ],
      [
        "Ġh",
        "tt"
      ],
      [
        "Ġsec",
        "ond"
      ],
      [
        "ot",
        "e"
      ],
      [
        "Ġc",
        "ame"
      ],
      [
        "Ġal",
        "ready"
      ],
      [
        "is",
        "ion"
      ],
      [
        "Ġany",
        "thing"
      ],
      [
        "Ġwork",
        "ing"
      ],
      [
        "6",
        "0"
      ],
      [
        "Ġcl",
        "ass"
      ],
      [
        "S",
        "o"
      ],
      [
        "Ġpro",
        "per"
      ],
      [
        "id",
        "s"
      ],
      [
        "a",
        "pp"
      ],
      [
        "Ġl",
        "aw"
      ],
      [
        "Ġp",
        "a"
      ],
      [
        "Ġun",
        "til"
      ],
      [
        "Ġ1",
        "8"
      ],
      [
        "Ġgrou",
        "p"
      ],
      [
        "ĠNe",
        "w"
      ],
      [
        "Ġf",
        "ull"
      ],
      [
        "Ġwe",
        "b"
      ],
      [
        "Ġwebs",
        "ite"
      ],
      [
        "Ġpres",
        "ent"
      ],
      [
        "ĠR",
        "e"
      ],
      [
        "igh",
        "ts"
      ],
      [
        "Ġf",
        "ood"
      ],
      [
        "Ġfollow",
        "ing"
      ],
      [
        "Ġe",
        "y"
      ],
      [
        "Ġen",
        "joy"
      ],
      [
        "iz",
        "ation"
      ],
      [
        "Ġinclud",
        "ing"
      ],
      [
        "m",
        "an"
      ],
      [
        "Ġp",
        "ower"
      ],
      [
        "i",
        "er"
      ],
      [
        "o",
        "h"
      ],
      [
        "Ġt",
        "er"
      ],
      [
        "Ġpro",
        "t"
      ],
      [
        "Ġ",
        "&"
      ],
      [
        "v",
        "ers"
      ],
      [
        "s",
        "w"
      ],
      [
        "Ġd",
        "em"
      ],
      [
        "el",
        "s"
      ],
      [
        "Ġagain",
        "st"
      ],
      [
        "9",
        "9"
      ],
      [
        "Ġle",
        "ft"
      ],
      [
        "Ġpro",
        "ject"
      ],
      [
        "Ġche",
        "ck"
      ],
      [
        "ect",
        "ed"
      ],
      [
        "Ġh",
        "ope"
      ],
      [
        "Ġcomp",
        "any"
      ],
      [
        "Ġsp",
        "e"
      ],
      [
        "Ġ",
        "qual"
      ],
      [
        "Ġc",
        "ustom"
      ],
      [
        "H",
        "e"
      ],
      [
        "ĠS",
        "h"
      ],
      [
        "Ġr",
        "is"
      ],
      [
        "Ġsu",
        "c"
      ],
      [
        "Ġserv",
        "ice"
      ],
      [
        "Ġme",
        "et"
      ],
      [
        "Ġt",
        "est"
      ],
      [
        "Ġsome",
        "one"
      ],
      [
        "ab",
        "ility"
      ],
      [
        "o",
        "ot"
      ],
      [
        "ent",
        "ial"
      ],
      [
        "n",
        "ot"
      ],
      [
        "Ġn",
        "ight"
      ],
      [
        "4",
        "0"
      ],
      [
        "ar",
        "ing"
      ],
      [
        "re",
        "t"
      ],
      [
        "Ġp",
        "o"
      ],
      [
        "iv",
        "ers"
      ],
      [
        "ĠD",
        "e"
      ],
      [
        "Ġh",
        "ouse"
      ],
      [
        "Ġm",
        "ov"
      ],
      [
        "ĠT",
        "o"
      ],
      [
        "ĠA",
        "meric"
      ],
      [
        "g",
        "r"
      ],
      [
        "2",
        "8"
      ],
      [
        "?",
        "\""
      ],
      [
        "ig",
        "ure"
      ],
      [
        "m",
        "ed"
      ],
      [
        "Ġs",
        "ug"
      ],
      [
        "Ġle",
        "g"
      ],
      [
        "ie",
        "ld"
      ],
      [
        "Ġc",
        "ol"
      ],
      [
        "r",
        "ist"
      ],
      [
        "Ġm",
        "om"
      ],
      [
        "ĠA",
        "d"
      ],
      [
        "Ġbel",
        "ieve"
      ],
      [
        "ĠâĢ",
        "ĺ"
      ],
      [
        "er",
        "y"
      ],
      [
        "Ġl",
        "a"
      ],
      [
        "2",
        "7"
      ],
      [
        "w",
        "w"
      ],
      [
        "Ġ",
        "es"
      ],
      [
        "3",
        "3"
      ],
      [
        "ĠW",
        "h"
      ],
      [
        "Ġs",
        "ays"
      ],
      [
        "re",
        "en"
      ],
      [
        "ent",
        "ly"
      ],
      [
        "Ġf",
        "il"
      ],
      [
        "a",
        "j"
      ],
      [
        "Ġp",
        "ot"
      ],
      [
        "Ġof",
        "ten"
      ],
      [
        "E",
        "R"
      ],
      [
        "it",
        "her"
      ],
      [
        "Ġn",
        "ame"
      ],
      [
        "Ġre",
        "ason"
      ],
      [
        "vern",
        "ment"
      ],
      [
        "it",
        "ive"
      ],
      [
        "ĠC",
        "om"
      ],
      [
        "a",
        "ut"
      ],
      [
        "Ġpro",
        "b"
      ],
      [
        "Ġon",
        "ce"
      ],
      [
        "ill",
        "ion"
      ],
      [
        "d",
        "o"
      ],
      [
        "Ġ",
        "est"
      ],
      [
        "Ġb",
        "as"
      ],
      [
        "Ġposs",
        "ible"
      ],
      [
        "er",
        "ing"
      ],
      [
        "H",
        "ow"
      ],
      [
        "Ġt",
        "rain"
      ],
      [
        "un",
        "d"
      ],
      [
        "Ġother",
        "s"
      ],
      [
        "Ġm",
        "en"
      ],
      [
        "w",
        "ay"
      ],
      [
        "Ġme",
        "ans"
      ],
      [
        "ir",
        "on"
      ],
      [
        "q",
        "ue"
      ],
      [
        "Ġg",
        "ame"
      ],
      [
        "Ġm",
        "us"
      ],
      [
        "if",
        "ied"
      ],
      [
        "Ġw",
        "ent"
      ],
      [
        "ĠI",
        "s"
      ],
      [
        "ir",
        "l"
      ],
      [
        "Ġcur",
        "rent"
      ],
      [
        "h",
        "od"
      ],
      [
        "Ġp",
        "ast"
      ],
      [
        "Ġsign",
        "ific"
      ],
      [
        "9",
        "0"
      ],
      [
        "t",
        "on"
      ],
      [
        "res",
        "sion"
      ],
      [
        "2",
        "6"
      ],
      [
        "Ġv",
        "iew"
      ],
      [
        "Ġinter",
        "n"
      ],
      [
        "Ġbe",
        "g"
      ],
      [
        "..",
        ".."
      ],
      [
        "get",
        "her"
      ],
      [
        "Ġto",
        "gether"
      ],
      [
        "Ġprovid",
        "e"
      ],
      [
        "ate",
        "g"
      ],
      [
        "Ġ3",
        "0"
      ],
      [
        "8",
        "0"
      ],
      [
        "Ġp",
        "ract"
      ],
      [
        "Ġs",
        "ide"
      ],
      [
        "Ġst",
        "op"
      ],
      [
        "Ġy",
        "et"
      ],
      [
        "ĠG",
        "od"
      ],
      [
        "act",
        "er"
      ],
      [
        "7",
        "0"
      ],
      [
        "l",
        "ing"
      ],
      [
        "Ġwon",
        "der"
      ],
      [
        "Ġ",
        "Q"
      ],
      [
        "Ġsa",
        "f"
      ],
      [
        "ĠA",
        "r"
      ],
      [
        "Ġph",
        "ot"
      ],
      [
        "um",
        "p"
      ],
      [
        "ap",
        "s"
      ],
      [
        "Ġm",
        "ar"
      ],
      [
        "Ġproble",
        "m"
      ],
      [
        "7",
        "5"
      ],
      [
        "Ġare",
        "a"
      ],
      [
        "m",
        "ost"
      ],
      [
        "Ġad",
        "dit"
      ],
      [
        "am",
        "es"
      ],
      [
        "Ġa",
        "uth"
      ],
      [
        "Ġmonth",
        "s"
      ],
      [
        "Ġan",
        "sw"
      ],
      [
        "Ġcons",
        "ider"
      ],
      [
        "Ġyou",
        "ng"
      ],
      [
        "Ġquest",
        "ion"
      ],
      [
        "i",
        "um"
      ],
      [
        "Ġcomple",
        "te"
      ],
      [
        "r",
        "al"
      ],
      [
        "'",
        "d"
      ],
      [
        "Ġfriend",
        "s"
      ],
      [
        "ĠM",
        "y"
      ],
      [
        "Ġem",
        "ploy"
      ],
      [
        "Ġel",
        "se"
      ],
      [
        "m",
        "in"
      ],
      [
        "ĠA",
        "ll"
      ],
      [
        "if",
        "y"
      ],
      [
        "Ġ",
        "ve"
      ],
      [
        "Ġst",
        "ory"
      ],
      [
        "Ġperson",
        "al"
      ],
      [
        "Ġbu",
        "y"
      ],
      [
        "Ġwom",
        "en"
      ],
      [
        "Ġprog",
        "ram"
      ],
      [
        "vid",
        "e"
      ],
      [
        "ut",
        "es"
      ],
      [
        "Ġo",
        "cc"
      ],
      [
        "Ġide",
        "a"
      ],
      [
        "Ġse",
        "en"
      ],
      [
        "al",
        "f"
      ],
      [
        "Ġan",
        "t"
      ],
      [
        "4",
        "5"
      ],
      [
        "g",
        "er"
      ],
      [
        "ut",
        "ure"
      ],
      [
        "Ġlar",
        "ge"
      ],
      [
        "Ġevery",
        "thing"
      ],
      [
        "Ġ",
        "="
      ],
      [
        "i",
        "or"
      ],
      [
        "ri",
        "es"
      ],
      [
        "Ġn",
        "on"
      ],
      [
        "Ġs",
        "ing"
      ],
      [
        "Ġm",
        "akes"
      ],
      [
        "u",
        "ff"
      ],
      [
        "Ġdef",
        "in"
      ],
      [
        "im",
        "es"
      ],
      [
        "Ġwho",
        "le"
      ],
      [
        "Ġen",
        "g"
      ],
      [
        "ys",
        "is"
[...]
