{
  "version": "1.0",
  "truncation": null,
  "padding": null,
  "added_tokens": [
    {
      "id": 0,
      "content": "[PAD]",
      "single_word": false,
      "lstrip": false,
      "rstrip": false,
      "normalized": false,
      "special": true
    },
    {
      "id": 1,
      "content": "[UNK]",
      "single_word": false,
      "lstrip": false,
      "rstrip": false,
      "normalized": false,
      "special": true
    },
    {
      "id": 2,
      "content": "[CLS]",
      "single_word": false,
      "lstrip": false,
      "rstrip": false,
      "normalized": false,
      "special": true
    },
    {
      "id": 3,
      "content": "[SEP]",
      "single_word": false,
      "lstrip": false,
      "rstrip": false,
      "normalized": false,
      "special": true
    },
    {
      "id": 4,
      "content": "[MASK]",
      "single_word": false,
      "lstrip": false,
      "rstrip": false,
      "normalized": false,
      "special": true
    },
    {
      "id": 5,
      "content": "[BOS]",
      "single_word": false,
      "lstrip": false,
      "rstrip": false,
      "normalized": false,
      "special": true
    },
    {
      "id": 6,
      "content": "[EOS]",
      "single_word": false,
      "lstrip": false,
      "rstrip": false,
      "normalized": false,
      "special": true
    }
  ],
  "normalizer": null,
  "pre_tokenizer": {
    "type": "ByteLevel",
    "add_prefix_space": true,
    "trim_offsets": true,
    "use_regex": true
  },
  "post_processor": null,
  "decoder": null,
  "model": {
    "type": "BPE",
    "dropout": null,
    "unk_token": null,
    "continuing_subword_prefix": null,
    "end_of_word_suffix": null,
    "fuse_unk": false,
    "byte_fallback": false,
    "ignore_merges": false,
    "vocab": {
      "[PAD]": 0,
      "[UNK]": 1,
      "[CLS]": 2,
      "[SEP]": 3,
      "[MASK]": 4,
      "[BOS]": 5,
      "[EOS]": 6,
      "!": 7,
      "\"": 8,
      "#": 9,
      "$": 10,
      "%": 11,
      "&": 12,
      "'": 13,
      "(": 14,
      ")": 15,
      "*": 16,
      "+": 17,
      ",": 18,
      "-": 19,
      ".": 20,
      "/": 21,
      "0": 22,
      "1": 23,
      "2": 24,
      "3": 25,
      "4": 26,
      "5": 27,
      "6": 28,
      "7": 29,
      "8": 30,
      "9": 31,
      ":": 32,
      ";": 33,
      "<": 34,
      "=": 35,
      ">": 36,
      "?": 37,
      "@": 38,
      "A": 39,
      "B": 40,
      "C": 41,
      "D": 42,
      "E": 43,
      "F": 44,
      "G": 45,
      "H": 46,
      "I": 47,
      "J": 48,
      "K": 49,
      "L": 50,
      "M": 51,
      "N": 52,
      "O": 53,
      "P": 54,
      "Q": 55,
      "R": 56,
      "S": 57,
      "T": 58,
      "U": 59,
      "V": 60,
      "W": 61,
      "X": 62,
      "Y": 63,
      "Z": 64,
      "[": 65,
      "\\": 66,
      "]": 67,
      "^": 68,
      "_": 69,
      "`": 70,
      "a": 71,
      "b": 72,
      "c": 73,
      "d": 74,
      "e": 75,
      "f": 76,
      "g": 77,
      "h": 78,
      "i": 79,
      "j": 80,
      "k": 81,
      "l": 82,
      "m": 83,
      "n": 84,
      "o": 85,
      "p": 86,
      "q": 87,
      "r": 88,
      "s": 89,
      "t": 90,
      "u": 91,
      "v": 92,
      "w": 93,
      "x": 94,
      "y": 95,
      "z": 96,
      "{": 97,
      "|": 98,
      "}": 99,
      "~": 100,
      "¡": 101,
      "¢": 102,
      "£": 103,
      "¤": 104,
      "¥": 105,
      "¦": 106,
      "§": 107,
      "¨": 108,
      "©": 109,
      "ª": 110,
      "«": 111,
      "¬": 112,
      "®": 113,
      "¯": 114,
      "°": 115,
      "±": 116,
      "²": 117,
      "³": 118,
      "´": 119,
      "µ": 120,
      "¶": 121,
      "·": 122,
      "¸": 123,
      "¹": 124,
      "º": 125,
      "»": 126,
      "¼": 127,
      "½": 128,
      "¾": 129,
      "¿": 130,
      "Â": 131,
      "Ã": 132,
      "Ä": 133,
      "Å": 134,
      "Æ": 135,
      "Ç": 136,
      "È": 137,
      "É": 138,
      "Ê": 139,
      "Ë": 140,
      "Ì": 141,
      "Í": 142,
      "Î": 143,
      "Ï": 144,
      "Ð": 145,
      "Ñ": 146,
      "Ó": 147,
      "Õ": 148,
      "Ö": 149,
      "×": 150,
      "Ø": 151,
      "Ù": 152,
      "Ú": 153,
      "Û": 154,
      "à": 155,
      "á": 156,
      "â": 157,
      "ã": 158,
      "ä": 159,
      "å": 160,
      "æ": 161,
      "ç": 162,
      "è": 163,
      "é": 164,
      "ê": 165,
      "ë": 166,
      "ì": 167,
      "í": 168,
      "î": 169,
      "ï": 170,
      "ð": 171,
      "ā": 172,
      "ă": 173,
      "Ą": 174,
      "Ć": 175,
      "Ċ": 176,
      "Ĕ": 177,
      "Ġ": 178,
      "ġ": 179,
      "Ģ": 180,
      "ģ": 181,
      "Ĥ": 182,
      "ĥ": 183,
      "Ħ": 184,
      "ħ": 185,
      "Ĩ": 186,
      "ĩ": 187,
      "Ī": 188,
      "ī": 189,
      "Ĭ": 190,
      "ĭ": 191,
      "Į": 192,
      "į": 193,
      "İ": 194,
      "ı": 195,
      "Ĳ": 196,
      "ĳ": 197,
      "Ĵ": 198,
      "ĵ": 199,
      "Ķ": 200,
      "ķ": 201,
      "ĸ": 202,
      "Ĺ": 203,
      "ĺ": 204,
      "Ļ": 205,
      "ļ": 206,
      "Ľ": 207,
      "ľ": 208,
      "Ŀ": 209,
      "ŀ": 210,
      "Ł": 211,
      "ł": 212,
      "Ń": 213,
      "Ġt": 214,
      "Ġa": 215,
      "in": 216,
      "he": 217,
      "re": 218,
      "on": 219,
      "at": 220,
      "Ġs": 221,
      "Ġc": 222,
      "er": 223,
      "Ġthe": 224,
      "en": 225,
      "Ġo": 226,
      "Ġp": 227,
      "Ġ.": 228,
      "al": 229,
      "ed": 230,
      "Ġw": 231,
      "it": 232,
      "Ġin": 233,
      "Ġm": 234,
      "or": 235,
      "es": 236,
      "an": 237,
      "Ġan": 238,
      "is": 239,
      "Ġf": 240,
      "ic": 241,
      "ion": 242,
      "Ġd": 243,
      "Ġof": 244,
      "Ġb": 245,
      "ro": 246,
      "ar": 247,
      "ing": 248,
      "Ġand": 249,
      "as": 250,
      "ent": 251,
      "le": 252,
      "ct": 253,
      "Ġre": 254,
      "Ġe": 255,
      "Ġto": 256,
      "Ġn": 257,
      "Ġh": 258,
      "Ġl": 259,
      "om": 260,
      "Ġ,": 261,
      "us": 262,
      "Ġth": 263,
      "ation": 264,
      "el": 265,
      "ol": 266,
      "iv": 267,
      "et": 268,
      "Ġg": 269,
      "ur": 270,
      "ul": 271,
      "im": 272,
      "id": 273,
      "ig": 274,
      "ut": 275,
      "un": 276,
      "il": 277,
      "os": 278,
      "ra": 279,
      "Ġst": 280,
      "ce": 281,
      "ot": 282,
      "ith": 283,
      "Ġfor": 284,
      "Ġwith": 285,
      "ly": 286,
      "Ġv": 287,
      "ch": 288,
      "Ġcon": 289,
      "st": 290,
      "ere": 291,
      "ow": 292,
      "Ġon": 293,
      "Ġal": 294,
      "ter": 295,
      "Ġis": 296,
      "Ġpro": 297,
      "Ġ-": 298,
      "if": 299,
      "Ġas": 300,
      "am": 301,
      "res": 302,
      "od": 303,
      "Ġk": 304,
      "ect": 305,
      "um": 306,
      "Ġbe": 307,
      "em": 308,
      "ab": 309,
      "Ġr": 310,
      "ag": 311,
      "ir": 312,
      "ity": 313,
      "op": 314,
      "Ġcom": 315,
      "Ġthat": 316,
      "Ġex": 317,
      "ad": 318,
      "ive": 319,
      "Ġde": 320,
      "ers": 321,
      "Ġwas": 322,
      "oc": 323,
      "up": 324,
      "ay": 325,
      "Ġhe": 326,
      "ant": 327,
      "ial": 328,
      "ment": 329,
      "ate": 330,
      "ical": 331,
      "Ġor": 332,
      "ated": 333,
      "ure": 334,
      "ac": 335,
      "ist": 336,
      "Ġres": 337,
      "ud": 338,
      "qu": 339,
      "Ġch": 340,
      "Ġy": 341,
      "og": 342,
      "rom": 343,
      "ess": 344,
      "ib": 345,
      "Ġat": 346,
      "her": 347,
      "est": 348,
      "ve": 349,
      "âĢ": 350,
      "Ġby": 351,
      "th": 352,
      "ell": 353,
      "Ġwh": 354,
      "ient": 355,
      "ver": 356,
      "Ġse": 357,
      "Ġpat": 358,
      "ort": 359,
      "Ġwere": 360,
      "ain": 361,
      "ies": 362,
      "pt": 363,
      "pl": 364,
      "Ġus": 365,
      "Ġare": 366,
      "Ġne": 367,
      "ore": 368,
      "se": 369,
      "und": 370,
      "act": 371,
      "Ġim": 372,
      "igh": 373,
      "Ġit": 374,
      "Ġad": 375,
      "ine": 376,
      "iz": 377,
      "Ġfrom": 378,
      "Ġac": 379,
      "Ġen": 380,
      "and": 381,
      "Ġle": 382,
      "Ġsu": 383,
      "Ġsh": 384,
      "Ġthis": 385,
      "ult": 386,
      "Ġcomp": 387,
      "pe": 388,
      "ff": 389,
      "art": 390,
      "ase": 391,
      "Ġpatient": 392,
      "Ġco": 393,
      "ip": 394,
      "Ġwe": 395,
      "per": 396,
      "ia": 397,
      "Ġinc": 398,
      "Ġdis": 399,
      "Ġint": 400,
      "Ġper": 401,
      "orm": 402,
      "du": 403,
      "Ġtr": 404,
      "ions": 405,
      "ys": 406,
      "Ġpre": 407,
      "ph": 408,
      "ign": 409,
      "ang": 410,
      "ations": 411,
      "ous": 412,
      "Ġsc": 413,
      "Ġi": 414,
      "Ġso": 415,
      "Ġcont": 416,
      "ug": 417,
      "Ġnot": 418,
      "ary": 419,
      "ill": 420,
      "ress": 421,
      "Ġcan": 422,
      "ast": 423,
      "Ġha": 424,
      "ence": 425,
      "Ġcl": 426,
      "ans": 427,
      "are": 428,
      "Ġj": 429,
      "ction": 430,
      "Ġme": 431,
      "port": 432,
      "Ġpatients": 433,
      "Ġz": 434,
      "nt": 435,
      "Ġstud": 436,
      "ak": 437,
      "ard": 438,
      "Ġpl": 439,
      "ens": 440,
      "able": 441,
      "Ġab": 442,
      "Ġcell": 443,
      "ost": 444,
      "Ġap": 445,
      "Ġsy": 446,
      "ĠT": 447,
      "ight": 448,
      "age": 449,
      "ap": 450,
      "Ġun": 451,
      "ich": 452,
      "Ġet": 453,
      "ĠI": 454,
      "ance": 455,
      "reat": 456,
      "all": 457,
      "ific": 458,
      "ear": 459,
      "vel": 460,
      "ie": 461,
      "Ġinf": 462,
      "ther": 463,
      "Ġph": 464,
      "Ġar": 465,
      "Ġmet": 466,
      "ong": 467,
      "Ġgen": 468,
      "Ġhave": 469,
      "olog": 470,
      "ors": 471,
      "ĠS": 472,
      "Ġass": 473,
      "ely": 474,
      "Ġind": 475,
      "ri": 476,
      "our": 477,
      "Ġall": 478,
      "Ġdi": 479,
      "âĢĻ": 480,
      "hen": 481,
      "ub": 482,
      "ition": 483,
      "Ġgro": 484,
      "pro": 485,
      "ue": 486,
      "te": 487,
      "end": 488,
      "Ġag": 489,
      "Ġmod": 490,
      "ĠA": 491,
      "ide": 492,
      "Ġro": 493,
      "Ġinter": 494,
      "Ġfig": 495,
      "Ġno": 496,
      "ular": 497,
      "Ġsp": 498,
      "Ġdo": 499,
      "fere": 500,
      "Ġev": 501,
      "uld": 502,
      "Ġwhich": 503,
      "Ġsign": 504,
      "Ġam": 505,
      "ome": 506,
      "Ġeff": 507,
      "Ġmed": 508,
      "ĠC": 509,
      "cl": 510,
      "Ġbet": 511,
      "Ġsup": 512,
      "ugh": 513,
      "Ġdif": 514,
      "ased": 515,
      "we": 516,
      "Ġanal": 517,
      "Ġ.,": 518,
      "ater": 519,
      "one": 520,
      "Ġsur": 521,
      "ach": 522,
      "wo": 523,
      "lect": 524,
      "ass": 525,
      "Ġdat": 526,
      "Ġrec": 527,
      "ust": 528,
      "ced": 529,
      "ual": 530,
      "Ġob": 531,
      "Ġyo": 532,
      "ric": 533,
      "ative": 534,
      "ose": 535,
      "cess": 536,
      "Ġstudy": 537,
      "ord": 538,
      "Ġaf": 539,
      "ru": 540,
      "Ġtrans": 541,
      "Ġbi": 542,
      "Ġthan": 543,
      "ory": 544,
      "ates": 545,
      "Ġpart": 546,
      "out": 547,
      "ces": 548,
      "ari": 549,
      "Ġreg": 550,
      "so": 551,
      "Ġra": 552,
      "Ġhas": 553,
      "Ġsub": 554,
      "erv": 555,
      "ĠM": 556,
      "Ġmore": 557,
      "Ġthese": 558,
      "Ġact": 559,
      "ind": 560,
      "ms": 561,
      "ents": 562,
      "ov": 563,
      "ond": 564,
      "Ġtz": 565,
      "ple": 566,
      "ail": 567,
      "ility": 568,
      "form": 569,
      "Ġout": 570,
      "Ġqu": 571,
      "ep": 572,
      "uc": 573,
      "av": 574,
      "ween": 575,
      "Ġund": 576,
      "hem": 577,
      "Ġman": 578,
      "low": 579,
      "Ġgroup": 580,
      "lo": 581,
      "Ġresult": 582,
      "ros": 583,
      "rol": 584,
      "rib": 585,
      "Ġbetween": 586,
      "Ġexp": 587,
      "Ġdiffere": 588,
      "Ġtheir": 589,
      "Ġresp": 590,
      "Ġeffect": 591,
      "Ġafter": 592,
      "ry": 593,
      "Ġhy": 594,
      "arg": 595,
      "ork": 596,
      "Ġshow": 597,
      "Ġrel": 598,
      "mun": 599,
      "ĠB": 600,
      "Ġdata": 601,
      "Ġother": 602,
      "Ġtim": 603,
      "cer": 604,
      "ree": 605,
      "ik": 606,
      "ysis": 607,
      "ice": 608,
      "pec": 609,
      "Ġone": 610,
      "Ġcol": 611,
      "Ġbut": 612,
      "Ġusing": 613,
      "Ġant": 614,
      "Ġte": 615,
      "ack": 616,
      "Ġunder": 617,
      "ber": 618,
      "ace": 619,
      "Ġcor": 620,
      "Ġkz": 621,
      "Ġdet": 622,
      "int": 623,
      "Ġhad": 624,
      "Ġhigh": 625,
      "ating": 626,
      "cy": 627,
      "ons": 628,
      "Ġcons": 629,
      "ile": 630,
      "ound": 631,
      "Ġcells": 632,
      "inal": 633,
      "ution": 634,
      "Ġincre": 635,
      "ould": 636,
      "ics": 637,
      "Ġem": 638,
      "Ġtreat": 639,
      "Ġthere": 640,
      "iss": 641,
      "oci": 642,
      "ĠP": 643,
      "Ġtwo": 644,
      "ren": 645,
      "Ġincl": 646,
      "Ġup": 647,
      "ok": 648,
      "Ġalso": 649,
      "aus": 650,
      "ron": 651,
      "Ġfe": 652,
      "Ġadd": 653,
      "Ġpres": 654,
      "Ġinv": 655,
      "ĠâĢ": 656,
      "Ġover": 657,
      "Ġmodel": 658,
      "Ġval": 659,
      "red": 660,
      "ite": 661,
      "Ġmay": 662,
      "Ġsam": 663,
      "Ġpos": 664,
      "ection": 665,
      "Ġpe": 666,
      "Ġdes": 667,
      "Ġtra": 668,
      "Ġpol": 669,
      "Ġsa": 670,
      "Ġwho": 671,
      "Ġbeen": 672,
      "na": 673,
      "Ġinclud": 674,
      "Ġmeth": 675,
      "ized": 676,
      "ied": 677,
      "uring": 678,
      "Ġdise": 679,
      "ases": 680,
      "ures": 681,
      "stem": 682,
      "Ġacc": 683,
      "Ġreport": 684,
      "ym": 685,
      "Ġtreatment": 686,
      "yt": 687,
      "Ġanalysis": 688,
      "Ġq": 689,
      "Ġyou": 690,
      "ĠR": 691,
      "Ġrev": 692,
      "erm": 693,
      "Ġgo": 694,
      "yl": 695,
      "Ġthey": 696,
      "ft": 697,
      "alth": 698,
      "Ġsignific": 699,
      "iew": 700,
      "Ġmo": 701,
      "Ġ(": 702,
      "Ġpr": 703,
      "ĠW": 704,
      "ression": 705,
      "Ġtime": 706,
      "ĠThe": 707,
      "Ġvari": 708,
      "Ġused": 709,
      "Ġlow": 710,
      "ĠH": 711,
      "ature": 712,
      "oth": 713,
      "Ġaut": 714,
      "Ġyear": 715,
      "unt": 716,
      "ization": 717,
      "Ġclin": 718,
      "ology": 719,
      "ict": 720,
      "ne": 721,
      "Ġsystem": 722,
      "ident": 723,
      "Ġfol": 724,
      "ulation": 725,
      "Ġty": 726,
      "Ġhow": 727,
      "ĠD": 728,
      "Ġits": 729,
      "ally": 730,
      "Ġmon": 731,
      "Ġcar": 732,
      "hes": 733,
      "Ġspec": 734,
      "ays": 735,
      "osis": 736,
      "Ġsim": 737,
      "Ġsignificant": 738,
      "Ġdist": 739,
      "ruct": 740,
      "rit": 741,
      "ld": 742,
      "ian": 743,
      "Ġmin": 744,
      "Ġlevel": 745,
      "Ġhealth": 746,
      "Ġ1": 747,
      "Ġinto": 748,
      "hed": 749,
      "erg": 750,
      "kw": 751,
      "tain": 752,
      "velop": 753,
      "ively": 754,
      "cent": 755,
      "ark": 756,
      "Ġresults": 757,
      "Ġ2": 758,
      "Ġour": 759,
      "plic": 760,
      "here": 761,
      "ared": 762,
      "Ġed": 763,
      "Ġuse": 764,
      "agn": 765,
      "cept": 766,
      "Ġfun": 767,
      "Ġdifferent": 768,
      "Ġdr": 769,
      "Ġwill": 770,
      "ement": 771,
      "Ġdep": 772,
      "Ġdisease": 773,
      "ĠF": 774,
      "com": 775,
      "ings": 776,
      "ild": 777,
      "Ġwhen": 778,
      "rap": 779,
      "Ġtest": 780,
      "ered": 781,
      "Ġcontrol": 782,
      "Ġprev": 783,
      "Ġmethod": 784,
      "Ġactiv": 785,
      "Ġduring": 786,
      "Ġprov": 787,
      "ox": 788,
      "Ġexper": 789,
      "ath": 790,
      "Ġassoci": 791,
      "Ġfact": 792,
      "ery": 793,
      "Ġdevelop": 794,
      "..": 795,
      "âĢĿ": 796,
      "cc": 797,
      "Ġform": 798,
      "tic": 799,
      "Ġfollow": 800,
      "Ġext": 801,
      "acter": 802,
      "Ġperform": 803,
      "tz": 804,
      "Ġappro": 805,
      "ins": 806,
      "Ġma": 807,
      "Ġsuch": 808,
      "rough": 809,
      "Ġbl": 810,
      "ject": 811,
      "les": 812,
      "Ġrem": 813,
      "Ġpartic": 814,
      "ues": 815,
      "Ġcomm": 816,
      "ants": 817,
      "kz": 818,
      "Ġsm": 819,
      "ĠN": 820,
      "ĠG": 821,
      "Ġhis": 822,
      "Ġend": 823,
      "ract": 824,
      "ability": 825,
      "ix": 826,
      "atic": 827,
      "Ġresear": 828,
      "ex": 829,
      "Ġrep": 830,
      "Ġdec": 831,
      "Ġelect": 832,
      "ational": 833,
      "Ġlo": 834,
      "Ġmic": 835,
      "ically": 836,
      "Ġris": 837,
      "ential": 838,
      "Ġprote": 839,
      "Ġnon": 840,
      "ge": 841,
      "ubl": 842,
      "ran": 843,
      "Ġcancer": 844,
      "Ġkn": 845,
      "Ġindic": 846,
      "ious": 847,
      "Ġmy": 848,
      "'s": 849,
      "Ġboth": 850,
      "ities": 851,
      "Ġatt": 852,
      "Ġchang": 853,
      "ium": 854,
      "io": 855,
      "ration": 856,
      "Ġop": 857,
      "Ġmater": 858,
      "Ġif": 859,
      "ivers": 860,
      "Ġwork": 861,
      "ined": 862,
      "Ġpo": 863,
      "old": 864,
      "Ġkzn": 865,
      "ior": 866,
      "Ġmeas": 867,
      "Ġnew": 868,
      "Ġtum": 869,
      "chn": 870,
      "ency": 871,
      "raph": 872,
      "duct": 873,
      "co": 874,
      "ĠL": 875,
      "own": 876,
      "Ġprog": 877,
      "ake": 878,
      "Ġstr": 879,
      "Ġlik": 880,
      "lu": 881,
      "Ġcur": 882,
      "rel": 883,
      "Ġmost": 884,
      "ause": 885,
      "Ġonly": 886,
      "ited": 887,
      "ps": 888,
      "Ġthrough": 889,
      "ram": 890,
      "Ġoz": 891,
      "duced": 892,
      "Ġimmun": 893,
      "Ġresearch": 894,
      "ute": 895,
      "fore": 896,
      "Ġchem": 897,
      "ale": 898,
      "Ġsome": 899,
      "ved": 900,
      "Ġmult": 901,
      "ks": 902,
      "Ġnum": 903,
      "ral": 904,
      "Ġeach": 905,
      "cular": 906,
      "hib": 907,
      "Ġstat": 908,
      "Ġthree": 909,
      "Ġabout": 910,
      "nd": 911,
      "Ġcomple": 912,
      "Ġsol": 913,
      "tern": 914,
      "ible": 915,
      "ough": 916,
      "Ġdoi": 917,
      "Ġpot": 918,
      "ality": 919,
      "Ġsk": 920,
      "Ġclinical": 921,
      "Ġgener": 922,
      "gen": 923,
      "The": 924,
      "irst": 925,
      "Ġsec": 926,
      "ning": 927,
      "Ġyears": 928,
      "ĠE": 929,
      "rapy": 930,
      "duction": 931,
      "ital": 932,
      "ire": 933,
      "mo": 934,
      "ever": 935,
      "str": 936,
      "Ġident": 937,
      "Ġpar": 938,
      "fer": 939,
      "ĠâĢľ": 940,
      "Ġav": 941,
      "ments": 942,
      "Ġauth": 943,
      "its": 944,
      "ected": 945,
      "Ġobs": 946,
      "Ġfunction": 947,
      "Ġfound": 948,
      "itive": 949,
      "Ġser": 950,
      "Ġbec": 951,
      "Ġsci": 952,
      "Ġany": 953,
      "ines": 954,
      "Ġimp": 955,
      "Ġhig": 956,
      "ism": 957,
      "Ġkw": 958,
      "ize": 959,
      "ĠJ": 960,
      "Ġhum": 961,
      "Ġsaid": 962,
      "Ġstudies": 963,
      "Ġorg": 964,
      "Ġpath": 965,
      "ish": 966,
      "gg": 967,
      "ink": 968,
      "ages": 969,
      "Ġpubl": 970,
      "Ġtechn": 971,
      "led": 972,
      "ural": 973,
      "ted": 974,
      "Ġless": 975,
      "tal": 976,
      "Ġpred": 977,
      "to": 978,
      "Ġcent": 979,
      "eng": 980,
      "Ġwhere": 981,
      "Ġreview": 982,
      "Ġfirst": 983,
      "Ġrisk": 984,
      "Ġprocess": 985,
      "Ġaddition": 986,
      "ty": 987,
      "ise": 988,
      "Ġfur": 989,
      "rad": 990,
      "Ġdem": 991,
      "Ġadv": 992,
      "Ġlong": 993,
      "atory": 994,
      "Ġwould": 995,
      "Ġpresent": 996,
      "ĠO": 997,
      "plement": 998,
      "Ġcould": 999,
      "als": 1000,
      "Ġchar": 1001,
      "Ġins": 1002,
      "ological": 1003,
      "Ġcal": 1004,
      "ogen": 1005,
      "Ġinform": 1006,
      "Ġstruct": 1007,
      "ock": 1008,
      "Ġphys": 1009,
      "00": 1010,
      "Ġwhile": 1011,
      "ob": 1012,
      "Ġthose": 1013,
      "ma": 1014,
      "Ġdef": 1015,
      "Ġmaterial": 1016,
      "Ġobserv": 1017,
      "ention": 1018,
      "Ġrat": 1019,
      "Ġwell": 1020,
      "ination": 1021,
      "oid": 1022,
      "Ġmm": 1023,
      "Ġow": 1024,
      "Ġsurg": 1025,
      "Ġdiagn": 1026,
      "alu": 1027,
      "Ġcompared": 1028,
      "Ġfurther": 1029,
      "Ġgl": 1030,
      "con": 1031,
      "cul": 1032,
      "ormal": 1033,
      "ick": 1034,
      "Ġmean": 1035,
      "Ġloc": 1036,
      "ograph": 1037,
      "Ġassociated": 1038,
      "nal": 1039,
      "Ġep": 1040,
      "ived": 1041,
      "Ġfigure": 1042,
      "ody": 1043,
      "Ġlevels": 1044,
      "ck": 1045,
      "Ġimpro": 1046,
      "ful": 1047,
      "Ġinst": 1048,
      "rect": 1049,
      "Ġhowever": 1050,
      "pos": 1051,
      "iqu": 1052,
      "oma": 1053,
      "emb": 1054,
      "lood": 1055,
      "Ġexam": 1056,
      "Ġtable": 1057,
      "Ġmeasure": 1058,
      "Ġca": 1059,
      "Ġpotential": 1060,
      ".,": 1061,
      "ross": 1062,
      "oph": 1063,
      "Ġu": 1064,
      "Ġneed": 1065,
      "med": 1066,
      "Ġpost": 1067,
      "Ġher": 1068,
      "Ġassess": 1069,
      "Ġx": 1070,
      "arly": 1071,
      "nce": 1072,
      "Ġevalu": 1073,
      "usion": 1074,
      "onse": 1075,
      "ified": 1076,
      "ness": 1077,
      "ople": 1078,
      "Ġbased": 1079,
      "Ġshould": 1080,
      "ts": 1081,
      "ane": 1082,
      "Ġocc": 1083,
      "Ġrad": 1084,
      "Ġsupport": 1085,
      "Ġopt": 1086,
      "rent": 1087,
      "oz": 1088,
      "Ġest": 1089,
      "Ġmicro": 1090,
      "der": 1091,
      "ung": 1092,
      "Ġcharacter": 1093,
      "Ġcond": 1094,
      "ivid": 1095,
      "etic": 1096,
      "Ġel": 1097,
      "Ġartic": 1098,
      "chan": 1099,
      "Ġset": 1100,
      "Ġnumber": 1101,
      "idence": 1102,
      "eg": 1103,
      "Ġvis": 1104,
      "ĠU": 1105,
      "iron": 1106,
      "arm": 1107,
      "Ġhigher": 1108,
      "Ġprob": 1109,
      "iversity": 1110,
      "Ġblood": 1111,
      "Ġrequ": 1112,
      "ade": 1113,
      "Ġgu": 1114,
      "Ġthem": 1115,
      "Ġ\"": 1116,
      "Ġneu": 1117,
      "Ġoff": 1118,
      "Ġamong": 1119,
      "Ġage": 1120,
      "ting": 1121,
      "Ġdrug": 1122,
      "ardi": 1123,
      "pert": 1124,
      "Ġthen": 1125,
      "Ġtem": 1126,
      "hip": 1127,
      "ript": 1128,
      "Ġwithin": 1129,
      "anc": 1130,
      "rain": 1131,
      "Ġpredict": 1132,
      "Ġpeople": 1133,
      "Ġcommun": 1134,
      "Ġrate": 1135,
      "Ġlim": 1136,
      "Ġke": 1137,
      "Ġconf": 1138,
      "Ġincreased": 1139,
      "Ġsym": 1140,
      "Ġinvest": 1141,
      "omet": 1142,
      "Ġsugg": 1143,
      "Ġsuggest": 1144,
      "Ġes": 1145,
      "Ġprim": 1146,
      "Ġdid": 1147,
      "Ġhuman": 1148,
      "osp": 1149,
      "the": 1150,
      "Ġinformation": 1151,
      "Ġlarg": 1152,
      "oy": 1153,
      "air": 1154,
      "Ġprotein": 1155,
      "very": 1156,
      "Ġchild": 1157,
      "Ġexperim": 1158,
      "Ġret": 1159,
      "Ġpop": 1160,
      "ood": 1161,
      "Ġcy": 1162,
      "Ġpers": 1163,
      "Ġmain": 1164,
      "ina": 1165,
      "Ġmat": 1166,
      "Ġincluding": 1167,
      "sc": 1168,
      "ily": 1169,
      "ame": 1170,
      "Ġlead": 1171,
      "Ġcases": 1172,
      "Ġaff": 1173,
      "Ġexpression": 1174,
      "Ġent": 1175,
      "Ġmechan": 1176,
      "aw": 1177,
      "Ġdeterm": 1178,
      "iel": 1179,
      "Ġeffects": 1180,
      "Ġli": 1181,
      "Ġfind": 1182,
      "pect": 1183,
      "Ġarticle": 1184,
      "Ġlike": 1185,
      "Ġgroups": 1186,
      "sy": 1187,
      "Ġprovid": 1188,
      "cript": 1189,
      "Ġsupplement": 1190,
      "Ġshe": 1191,
      "##": 1192,
      "!!": 1193,
      "Ġcase": 1194,
      "omen": 1195,
      "amet": 1196,
      "Ġcd": 1197,
      "ĠIn": 1198,
      "of": 1199,
      "Ġcare": 1200,
      "Ġdisc": 1201,
      "par": 1202,
      "Ġtumor": 1203,
      "Ġtm": 1204,
      "Ġinterv": 1205,
      "elf": 1206,
      "Ġdue": 1207,
      "ene": 1208,
      "Ġactivity": 1209,
      "iven": 1210,
      "Ġtotal": 1211,
      "Ġsing": 1212,
      "ples": 1213,
      "Ġavail": 1214,
      "Ġfactors": 1215,
      "cop": 1216,
      "Ġtzr": 1217,
      "Ġbas": 1218,
      "Ġgreat": 1219,
      "Ġbecause": 1220,
      "Ġconsid": 1221,
      "ired": 1222,
      "ou": 1223,
      "itions": 1224,
      "ional": 1225,
      "Ġimport": 1226,
      "ten": 1227,
      "Ġprot": 1228,
      "ribut": 1229,
      "Ġmonth": 1230,
      "org": 1231,
      "Ġsimil": 1232,
      "min": 1233,
      "Ġwhat": 1234,
      "Ġhist": 1235,
      "omy": 1236,
      "Ġclass": 1237,
      "ently": 1238,
      "Ġhel": 1239,
      "tm": 1240,
      "itis": 1241,
      "work": 1242,
      "xim": 1243,
      "Ġbr": 1244,
      "Ġbefore": 1245,
      "Ġwithout": 1246,
      "reated": 1247,
      "Ġmole": 1248,
      "ividual": 1249,
      "ange": 1250,
      "Ġdel": 1251,
      "Ġvol": 1252,
      "Ġrespect": 1253,
      "Ġobserved": 1254,
      "Ġox": 1255,
      "ribution": 1256,
      "Ġfre": 1257,
      "Ġinvestig": 1258,
      "Ġpress": 1259,
      "Ġml": 1260,
      "Ġsecond": 1261,
      "Ġparticip": 1262,
      "ateg": 1263,
      "de": 1264,
      "no": 1265,
      "arget": 1266,
      "uk": 1267,
      "Ġzh": 1268,
      "iver": 1269,
      "ental": 1270,
      "acy": 1271,
      "viron": 1272,
      "tr": 1273,
      "Ġacid": 1274,
      "ergy": 1275,
      "man": 1276,
      "ptom": 1277,
      "Ġtherapy": 1278,
      "Ġagain": 1279,
      "aging": 1280,
      "Ġperformed": 1281,
      "Ġindividual": 1282,
      "Ġcat": 1283,
      "Ġfour": 1284,
      "Ġer": 1285,
      "Ġinhib": 1286,
      "round": 1287,
      "Ġequ": 1288,
      "Ġsens": 1289,
      "ars": 1290,
      "cin": 1291,
      "Ġconcent": 1292,
      "Ġreported": 1293,
      "dro": 1294,
      "action": 1295,
      "ife": 1296,
      "Ġrepres": 1297,
      "Ġarter": 1298,
      "Ġwor": 1299,
      "Ġorgan": 1300,
      "mon": 1301,
      "Ġnan": 1302,
      "Ġdesign": 1303,
      "Ġcomb": 1304,
      "face": 1305,
      "cle": 1306,
      "Ġinvol": 1307,
      "Ġrece": 1308,
      "ield": 1309,
      "Ġgrow": 1310,
      "Ġexpl": 1311,
      "ished": 1312,
      "Ġoccur": 1313,
      "ward": 1314,
      "Ġbeh": 1315,
      "other": 1316,
      "iation": 1317,
      "ivity": 1318,
      "Ġstand": 1319,
      "Ġcompar": 1320,
      "Ġnormal": 1321,
      "Ġmg": 1322,
      "Ġsmall": 1323,
      "Ġcap": 1324,
      "Ġdirect": 1325,
      "Ġinit": 1326,
      "Ġobtain": 1327,
      "Ġdevelopment": 1328,
      "Ġresponse": 1329,
      "Ġyour": 1330,
      "han": 1331,
      "put": 1332,
      "Ġshowed": 1333,
      "ĠK": 1334,
      "ving": 1335,
      "Ġprevious": 1336,
      "Ġtiss": 1337,
      "Ġsch": 1338,
      "hy": 1339,
      "Ġdemon": 1340,
      "Ġlower": 1341,
      "Ġprom": 1342,
      "Ġmedic": 1343,
      "Ġcount": 1344,
      "Ġ20": 1345,
      "Ġsl": 1346,
      "Ġele": 1347,
      "Ġmethods": 1348,
      "Ġgene": 1349,
      "way": 1350,
      "Ġdecre": 1351,
      "rop": 1352,
      "Ġuniversity": 1353,
      "ull": 1354,
      "Ġlic": 1355,
      "Ġvir": 1356,
      "ission": 1357,
      "ety": 1358,
      "Ġref": 1359,
      "Ġpoint": 1360,
      "oper": 1361,
      "Ġcurrent": 1362,
      "ately": 1363,
      "Ġcorrel": 1364,
      "Ġconst": 1365,
      "ify": 1366,
      "Ġsame": 1367,
      "Ġsequ": 1368,
      "cing": 1369,
      "reen": 1370,
      "Ġnat": 1371,
      "Ġshown": 1372,
      "ores": 1373,
      "Ġopen": 1374,
      "row": 1375,
      "Ġmedical": 1376,
      "ially": 1377,
      "ains": 1378,
      "Ġsingle": 1379,
      "Ġsignificantly": 1380,
      "Ġback": 1381,
      "cell": 1382,
      "ining": 1383,
      "Ġcardi": 1384,
      "Ġline": 1385,
      "Ġanti": 1386,
      "oss": 1387,
      "Ġms": 1388,
      "Ġtarget": 1389,
      "Ġang": 1390,
      "Ġsupplementary": 1391,
      "uss": 1392,
      "Ġsymptom": 1393,
      "Ġsev": 1394,
      "Ġenviron": 1395,
      "ax": 1396,
      "ĠTh": 1397,
      "plications": 1398,
      "nces": 1399,
      "Ġfl": 1400,
      "Ġright": 1401,
      "Ġmal": 1402,
      "ucle": 1403,
      "Ġwee": 1404,
      "Ġpain": 1405,
      "Ġchanges": 1406,
      "ision": 1407,
      "ier": 1408,
      "Ġsee": 1409,
      "eric": 1410,
      "Ġcontin": 1411,
      "ns": 1412,
      "Ġmus": 1413,
      "Ġrole": 1414,
      "amm": 1415,
      "Ġmark": 1416,
      "Ġelectro": 1417,
      "Ġdemonstr": 1418,
      "ification": 1419,
      "Ġbeing": 1420,
      "Ġsimilar": 1421,
      "Ġjust": 1422,
      "ount": 1423,
      "ke": 1424,
      "uch": 1425,
      "Ġkm": 1426,
      "ival": 1427,
      "Ġposs": 1428,
      "othe": 1429,
      "Ġdev": 1430,
      "ives": 1431,
      "iple": 1432,
      "Ġbel": 1433,
      "Ġcrit": 1434,
      "pat": 1435,
      "Ġnet": 1436,
      "Ġwater": 1437,
      "Ġeng": 1438,
      "Ġfac": 1439,
      "erest": 1440,
      "Ġincrease": 1441,
      "Ġok": 1442,
      "Ġhyp": 1443,
      "ences": 1444,
      "Ġbre": 1445,
      "Ġmany": 1446,
      "ices": 1447,
      "Ġeven": 1448,
      "Ġauthor": 1449,
      "Ġvers": 1450,
      "Ġcommon": 1451,
      "ospital": 1452,
      "Ġperm": 1453,
      "Ġbu": 1454,
      "ci": 1455,
      "based": 1456,
      "Ġhem": 1457,
      "Ġvalues": 1458,
      "Ġom": 1459,
      "Ġperi": 1460,
      "por": 1461,
      "Ġaccess": 1462,
      "ters": 1463,
      "Ġwomen": 1464,
      "az": 1465,
      "Ġcr": 1466,
      "Ġavailable": 1467,
      "Ġlab": 1468,
      "ner": 1469,
      "Ġscient": 1470,
      "Ġreports": 1471,
      "Ġtyp": 1472,
      "Ġfollowing": 1473,
      "crib": 1474,
      "Ġfrequ": 1475,
      "Ġsever": 1476,
      "Ġtype": 1477,
      "Ġknow": 1478,
      "aking": 1479,
      "Ġorig": 1480,
      "Ġcle": 1481,
      "ret": 1482,
      "Ġenergy": 1483,
      "Ġplay": 1484,
      "Ġoper": 1485,
      "Ġsamples": 1486,
      "Ġabs": 1487,
      "be": 1488,
      "Ġhim": 1489,
      "Ġpublic": 1490,
      "Ġpa": 1491,
      "Ġrespectively": 1492,
      "Ġcaus": 1493,
      "Ġantib": 1494,
      "Ġleft": 1495,
      "Ġpow": 1496,
      "Ġsin": 1497,
      "ert": 1498,
      "ves": 1499,
      "Ġlit": 1500,
      "Ġcomplex": 1501,
      "ator": 1502,
      "ensity": 1503,
      "Ġcir": 1504,
      "nam": 1505,
      "Ġintra": 1506,
      "....": 1507,
      "Ġrele": 1508,
      "amp": 1509,
      "xt": 1510,
      "Ġinj": 1511,
      "ronic": 1512,
      "Ġfam": 1513,
      "Ġbo": 1514,
      "ah": 1515,
      "Ġnow": 1516,
      "ets": 1517,
      "Ġvalue": 1518,
      "Ġincluded": 1519,
      "ode": 1520,
      "ici": 1521,
      "reg": 1522,
      "abol": 1523,
      "Ġimpact": 1524,
      "line": 1525,
      "Ġstate": 1526,
      "Ġreve": 1527,
      "resp": 1528,
      "Ġspect": 1529,
      "ides": 1530,
      "Ġconduct": 1531,
      "pr": 1532,
      "ension": 1533,
      "els": 1534,
      "Ġhospital": 1535,
      "ording": 1536,
      "Ġmonths": 1537,
      "aining": 1538,
      "Ġdays": 1539,
      "Ġearly": 1540,
      "Ġchildren": 1541,
      "Ġnature": 1542,
      "olution": 1543,
      "ll": 1544,
      "epend": 1545,
      "Ġgr": 1546,
      "Ġday": 1547,
      "Ġinterest": 1548,
      "Ġrelations": 1549,
      "Ġmemb": 1550,
      "Ġdna": 1551,
      "ascular": 1552,
      "ists": 1553,
      "Ġpressure": 1554,
      "ote": 1555,
      "Ġdon": 1556,
      "lob": 1557,
      "Ġagainst": 1558,
      "Ġserv": 1559,
      "erc": 1560,
      "Ġimportant": 1561,
      "ites": 1562,
      "Ġquant": 1563,
      "Ġsize": 1564,
      "Ġphot": 1565,
      "Ġgenes": 1566,
      "Ġstatist": 1567,
      "ering": 1568,
      "Ġmor": 1569,
      "Ġsour": 1570,
      "Ġstandard": 1571,
      "ogn": 1572,
      "Ġnm": 1573,
      "Ġut": 1574,
      "Ġbehav": 1575,
      "Ġrepresent": 1576,
      "Ġexperi": 1577,
      "Ġsurface": 1578,
      "Ġstructure": 1579,
      "Ġperiod": 1580,
      "Ġperformance": 1581,
      "onal": 1582,
      "Ġ201": 1583,
      "Ġstress": 1584,
      "Ġsurv": 1585,
      "atures": 1586,
      "ole": 1587,
      "Ġconditions": 1588,
      "itor": 1589,
      "ually": 1590,
      "lected": 1591,
      "Ġconv": 1592,
      "Ġprimary": 1593,
      "Ġgra": 1594,
      "Ġsynt": 1595,
      "Ġmen": 1596,
      "verage": 1597,
      "Ġsurgery": 1598,
      "Ġlife": 1599,
      "let": 1600,
      "Ġsoc": 1601,
      "Ġtemper": 1602,
      "jor": 1603,
      "iving": 1604,
      "sequ": 1605,
      "artment": 1606,
      "Ġneg": 1607,
      "ds": 1608,
      "ained": 1609,
      "Ġmut": 1610,
      "Ġdown": 1611,
      "ling": 1612,
      "Ġcreat": 1613,
      "yz": 1614,
      "Ġmanag": 1615,
      "Ġsw": 1616,
      "Ġlear": 1617,
      "Ġmetabol": 1618,
      "Ġheart": 1619,
      "Ġdiagnosis": 1620,
      "Ġget": 1621,
      "Ġhydro": 1622,
      "Ġauthors": 1623,
      "Ġdoes": 1624,
      "Ġmodels": 1625,
      "Ġcm": 1626,
      "Ġspecific": 1627,
      "Ġrelationship": 1628,
      "Ġmade": 1629,
      "roph": 1630,
      "ee": 1631,
      "Ġter": 1632,
      "Ġpur": 1633,
      "Ġscientific": 1634,
      "ĠSt": 1635,
      "Ġapproach": 1636,
      "ave": 1637,
      "ouse": 1638,
      "Ġcomput": 1639,
      "Ġlocal": 1640,
      "ised": 1641,
      "Ġzo": 1642,
      "iting": 1643,
      "Ġdeg": 1644,
      "bo": 1645,
      "Ġci": 1646,
      "Ġcop": 1647,
      "Ġcyt": 1648,
      "ool": 1649,
      "Ġflu": 1650,
      "Ġgrowth": 1651,
      "Ġpercent": 1652,
      "Ġrest": 1653,
      "hesis": 1654,
      "ids": 1655,
      "Ġacross": 1656,
      "duce": 1657,
      "Ġarea": 1658,
      "Ġtissue": 1659,
      "Ġrange": 1660,
      "Ġmajor": 1661,
      "tn": 1662,
      "ront": 1663,
      "ason": 1664,
      "Ġvery": 1665,
      "ography": 1666,
      "cr": 1667,
      "Ġpositive": 1668,
      "ĠY": 1669,
      "hing": 1670,
      "imal": 1671,
      "ands": 1672,
      "Ġmultiple": 1673,
      "Ġsymptoms": 1674,
      "Ġii": 1675,
      "Ġdistribution": 1676,
      "oh": 1677,
      "Ġ3": 1678,
      "ended": 1679,
      "Ġdescrib": 1680,
      "Ġrespons": 1681,
      "ĠIt": 1682,
      "Ġobtained": 1683,
      ".âĢĿ": 1684,
      "Ġsample": 1685,
      "ison": 1686,
      "omic": 1687,
      "Ġsignal": 1688,
      "bs": 1689,
      "Ġlarge": 1690,
      "Ġaccur": 1691,
      "Ġmass": 1692,
      "Ġapp": 1693,
      "Ġtrial": 1694,
      "hat": 1695,
      "Ġfail": 1696,
      "Ġtop": 1697,
      "ann": 1698,
      "Ġdy": 1699,
      "Ġfib": 1700,
      "Ġmice": 1701,
      "bi": 1702,
      "val": 1703,
      "ec": 1704,
      "Ġreveal": 1705,
      "af": 1706,
      "Ġdisord": 1707,
      "Ġchange": 1708,
      "Ġcult": 1709,
      "ĠCh": 1710,
      "Ġpopulation": 1711,
      "stand": 1712,
      "Ġappe": 1713,
      "ressed": 1714,
      "ense": 1715,
      "though": 1716,
      "Ġestim": 1717,
      "ĠV": 1718,
      "urn": 1719,
      "Ġparamet": 1720,
      "osed": 1721,
      "Ġevery": 1722,
      "aps": 1723,
      "Ġacute": 1724,
      "Ġtw": 1725,
      "sych": 1726,
      "Ġcharacterist": 1727,
      "respond": 1728,
      "oint": 1729,
      "comes": 1730,
      "Ġsal": 1731,
      "Ġnetwork": 1732,
      "Ġprof": 1733,
      "Ġgood": 1734,
      "Ġnucle": 1735,
      "Ġvarious": 1736,
      "Ġsubject": 1737,
      "Ġfindings": 1738,
      "ont": 1739,
      "chem": 1740,
      "Ġmar": 1741,
      "Ġtechniqu": 1742,
      "ption": 1743,
      "Ġbrain": 1744,
      "Ġdom": 1745,
      "Ġkey": 1746,
      "Ġir": 1747,
      "Ġconsist": 1748,
      "Ġfactor": 1749,
      "Ġimaging": 1750,
      "Ġworld": 1751,
      "Ġpolym": 1752,
      "Ġche": 1753,
      "Ġallow": 1754,
      "Ġfem": 1755,
      "Ġrelated": 1756,
      "ew": 1757,
      "ca": 1758,
      "Ġur": 1759,
      "ler": 1760,
      "asing": 1761,
      "minist": 1762,
      "Ġdeath": 1763,
      "Ġeth": 1764,
      "ither": 1765,
      "ables": 1766,
      "Ġresist": 1767,
      "Ġsuper": 1768,
      "Ġvent": 1769,
      "Ġconcl": 1770,
      "Ġpul": 1771,
      "Ġhead": 1772,
      "Ġplas": 1773,
      "Ġparticipants": 1774,
      "Ġpattern": 1775,
      "otic": 1776,
      "Ġles": 1777,
      "ton": 1778,
      "Ġinstit": 1779,
      "andom": 1780,
      "Ġphase": 1781,
      "Ġlast": 1782,
      "Ġpsych": 1783,
      "Ġweight": 1784,
      "Ġfil": 1785,
      "Ġsuc": 1786,
      "Ġtreated": 1787,
      "ibility": 1788,
      "Ġgreater": 1789,
      "last": 1790,
      "Ġinflu": 1791,
      "Ġcorrespond": 1792,
      "Ġbody": 1793,
      "Ġwk": 1794,
      "Ġread": 1795,
      "day": 1796,
      "Ġenvironment": 1797,
      "Ġach": 1798,
      "Ġstrateg": 1799,
      "Ġfront": 1800,
      "au": 1801,
      "Ġwhe": 1802,
      "less": 1803,
      "Ġsex": 1804,
      "rome": 1805,
      "ury": 1806,
      "Ġflow": 1807,
      "Ġdiff": 1808,
      "ime": 1809,
      "Ġpract": 1810,
      "read": 1811,
      "Ġevidence": 1812,
      "operative": 1813,
      "br": 1814,
      "Ġchronic": 1815,
      "Ġcall": 1816,
      "Ġquest": 1817,
      "term": 1818,
      "vern": 1819,
      "Ġmake": 1820,
      "Ġaccording": 1821,
      "Ġfat": 1822,
      "ependent": 1823,
      "Ġinfection": 1824,
      "Ġcalcul": 1825,
      "Ġmot": 1826,
      "Ġfoc": 1827,
      "tle": 1828,
      "Ġsynd": 1829,
      "ove": 1830,
      "terior": 1831,
      "Ġsubst": 1832,
      "ping": 1833,
      "ference": 1834,
      "ably": 1835,
      "aneous": 1836,
      "oty": 1837,
      "itation": 1838,
      "Ġalthough": 1839,
      "Ġtemperature": 1840,
      "Ġwrit": 1841,
      "Ġstill": 1842,
      "Ġbar": 1843,
      "Ġseveral": 1844,
      "icient": 1845,
      "Ġlym": 1846,
      "Ġpoly": 1847,
      "Ġrandom": 1848,
      "sh": 1849,
      "Ġpower": 1850,
      "Ġhypert": 1851,
      "plication": 1852,
      "Ġadminist": 1853,
      "Ġimages": 1854,
      "Ġdifferences": 1855,
      "Ġther": 1856,
      "Ġnt": 1857,
      "ike": 1858,
      "iat": 1859,
      "omm": 1860,
      "Ġprovide": 1861,
      "Ġpresence": 1862,
      "osph": 1863,
      "ude": 1864,
      "Ġcarcin": 1865,
      "Ġloss": 1866,
      "ploy": 1867,
      "Ġway": 1868,
      "ss": 1869,
      "ai": 1870,
      "Ġve": 1871,
      "Ġcarb": 1872,
      "Ġstart": 1873,
      "Ġproduct": 1874,
      "Ġmaterials": 1875,
      "eration": 1876,
      "Ġparticular": 1877,
      "Ġoften": 1878,
      "Ġliver": 1879,
      "Ġcontinu": 1880,
      "kn": 1881,
      "yr": 1882,
      "Ġquality": 1883,
      "Ġgast": 1884,
      "roscop": 1885,
      "Ġgeneral": 1886,
      "Ġlater": 1887,
      "ocyt": 1888,
      "tzr": 1889,
      "Ġcontribut": 1890,
      ",âĢĿ": 1891,
      "ances": 1892,
      "Ġpharm": 1893,
      "ule": 1894,
      "Ġinteg": 1895,
      "Ġmov": 1896,
      "Ġdecl": 1897,
      "Ġder": 1898,
      "ored": 1899,
      "Ġbm": 1900,
      "Ġcost": 1901,
      "Ġmuch": 1902,
      "Ġanalyz": 1903,
      "Ġfive": 1904,
      "Ġult": 1905,
      "Ġachie": 1906,
      "go": 1907,
      "Ġfra": 1908,
      "Ġproble": 1909,
      "Ġec": 1910,
      "ulated": 1911,
      "Ġil": 1912,
      "Ġlay": 1913,
      "Ġhiv": 1914,
      "Ġtherefore": 1915,
      "Ġwt": 1916,
      "Ġwang": 1917,
      "Ġintern": 1918,
      "Ġill": 1919,
      "Ġgiven": 1920,
      "Ġimmune": 1921,
      "eth": 1922,
      "izing": 1923,
      "Ġsince": 1924,
      "Ġlip": 1925,
      "Ġlymph": 1926,
      "Ġbind": 1927,
      "erve": 1928,
      "lamm": 1929,
      "Ġfund": 1930,
      "otherapy": 1931,
      "Ġsum": 1932,
      "pp": 1933,
      "Ġappl": 1934,
      "Ġexhib": 1935,
      "Ġfeatures": 1936,
      "Ġpd": 1937,
      "Ġsurvival": 1938,
      "Ġvs": 1939,
      "ways": 1940,
      "Ġvia": 1941,
      "Ġoverall": 1942,
      "ank": 1943,
      "Ġmolecular": 1944,
      "medi": 1945,
      "Ġrecept": 1946,
      "Ġdiscuss": 1947,
      "ste": 1948,
      "Ġhelp": 1949,
      "Ġcross": 1950,
      "Ġsix": 1951,
      "Ġlight": 1952,
      "iol": 1953,
      "Ġrates": 1954,
      "Ġchina": 1955,
      "Ġscience": 1956,
      "tt": 1957,
      "ume": 1958,
      "uration": 1959,
      "Ġproced": 1960,
      "Ġreal": 1961,
      "Ġreduced": 1962,
      "Ġfinal": 1963,
      "uture": 1964,
      "ots": 1965,
      "ring": 1966,
      "Ġthough": 1967,
      "isms": 1968,
      "ensive": 1969,
      "Ġreceived": 1970,
      "Ġadj": 1971,
      "dr": 1972,
      "Ġmit": 1973,
      "Ġspe": 1974,
      "Ġoriginal": 1975,
      "Ġmort": 1976,
      "Ġmanagement": 1977,
      "Ġeffective": 1978,
      "Ġaverage": 1979,
      "Ġcour": 1980,
      "Ġconducted": 1981,
      "Ġred": 1982,
      "Ġplace": 1983,
      "Ġregion": 1984,
      "itted": 1985,
      "Ġadult": 1986,
      "actions": 1987,
      "Ġcoron": 1988,
      "Ġartery": 1989,
      "artic": 1990,
      "lection": 1991,
      "###": 1992,
      "Ġfree": 1993,
      "Ġbetter": 1994,
      "Ġhere": 1995,
      "Ġhand": 1996,
      "land": 1997,
      "Ġunderstand": 1998,
      "rence": 1999,
      "ven": 2000,
      "by": 2001,
      "Ġmight": 2002,
      ").": 2003,
      "Ġdepartment": 2004,
      "Ġratio": 2005,
      "Ġvalid": 2006,
      "rum": 2007,
      "Ġshort": 2008,
      "'t": 2009,
      "Ġold": 2010,
      "for": 2011,
      "Ġbro": 2012,
      "Ġanother": 2013,
      "Ġsyndrome": 2014,
      "lex": 2015,
      "Ġcry": 2016,
      "Ġconcentration": 2017,
      "any": 2018,
      "Ġstrong": 2019,
      "!!!!": 2020,
      "ware": 2021,
      "Ġsevere": 2022,
      "Ġct": 2023,
      "Ġcommunic": 2024,
      "Ġphysical": 2025,
      "Ġtn": 2026,
      "ured": 2027,
      "ĠHe": 2028,
      "Ġpage": 2029,
      "Ġmagn": 2030,
      "cs": 2031,
      "Ġphen": 2032,
      "Ġiss": 2033,
      "Ġglob": 2034,
      "Ġsuccess": 2035,
      "Ġself": 2036,
      "ength": 2037,
      "Ġmr": 2038,
      "Ġbiom": 2039,
      "Ġeduc": 2040,
      "itro": 2041,
      "Ġsaf": 2042,
      "rast": 2043,
      "ours": 2044,
      "posed": 2045,
      "Ġdys": 2046,
      "Ġrecord": 2047,
      "atively": 2048,
      "ae": 2049,
      "Ġzkw": 2050,
      "Ġoutcomes": 2051,
      "Ġchall": 2052,
      "Ġaround": 2053,
      "Ġsource": 2054,
      "Ġpossible": 2055,
      "och": 2056,
      "erse": 2057,
      "inc": 2058,
      "Ġbone": 2059,
      "Ġstates": 2060,
      "Ġeither": 2061,
      "Ġfew": 2062,
      "apt": 2063,
      "ologic": 2064,
      "ections": 2065,
      "Ġindex": 2066,
      "Ġfocus": 2067,
      "Ġprogram": 2068,
      "âĢľ": 2069,
      "ostic": 2070,
      "perties": 2071,
      "Ġmeasured": 2072,
      "Ġthus": 2073,
      "ash": 2074,
      "Ġcant": 2075,
      "Ġdeveloped": 2076,
      "Ġmid": 2077,
      "Ġ19": 2078,
      "Ġcharacteristics": 2079,
      "Ġassociation": 2080,
      "Ġrevealed": 2081,
      "Ġneuro": 2082,
      "Ġtraining": 2083,
      "Ġinclude": 2084,
      ".\"": 2085,
      "Ġnational": 2086,
      "Ġsocial": 2087,
      "Ġregard": 2088,
      "icity": 2089,
      "Ġwo": 2090,
      "Ġtimes": 2091,
      "Ġlearning": 2092,
      "ones": 2093,
      "Ġ4": 2094,
      "Ġcov": 2095,
      "Ġindividuals": 2096,
      "oles": 2097,
      "Ġvac": 2098,
      "ancy": 2099,
      "Ġbacter": 2100,
      "Ġdiab": 2101,
      "Ġdemonstrated": 2102,
      "Ġproperties": 2103,
      "Ġprovided": 2104,
      "imens": 2105,
      "Ġhyper": 2106,
      "Ġschool": 2107,
      "Ġscreen": 2108,
      "Ġmac": 2109,
      "year": 2110,
      "Ġdepend": 2111,
      "Ġfuture": 2112,
      "ulations": 2113,
      "Ġtak": 2114,
      "Ġthir": 2115,
      "itu": 2116,
      "Ġsus": 2117,
      "Ġbene": 2118,
      "Ġwhether": 2119,
      "Ġprec": 2120,
      "Ġge": 2121,
      "Ġpass": 2122,
      "Ġevaluation": 2123,
      "related": 2124,
      "Ġadditional": 2125,
      "Ġgovern": 2126,
      "Ġmill": 2127,
      "Ġsn": 2128,
      "Ġzhang": 2129,
      "Ġfunctional": 2130,
      "Ġdifference": 2131,
      "Ġair": 2132,
      "Ġing": 2133,
      "Ġconsidered": 2134,
      "Ġsystems": 2135,
      "rial": 2136,
      "alk": 2137,
      "Ġfood": 2138,
      "Ġemerg": 2139,
      "Ġjour": 2140,
      "Ġlink": 2141,
      "Ġmt": 2142,
      "Ġnegative": 2143,
      "Ġmix": 2144,
      "Ġdetection": 2145,
      "Ġmembran": 2146,
      "Ġmortality": 2147,
      "Ġmem": 2148,
      "Ġview": 2149,
      "Ġaffect": 2150,
      "gn": 2151,
      "Ġresistance": 2152,
      "arent": 2153,
      "abl": 2154,
      "Ġlikely": 2155,
      "Ġcoronary": 2156,
      "abil": 2157,
      "Ġacs": 2158,
      "Ġmedicine": 2159,
      "Ġfamily": 2160,
      "me": 2161,
      "Ġlook": 2162,
      "Ġenh": 2163,
      "Ġsoft": 2164,
      "Ġproduction": 2165,
      "Ġsurgical": 2166,
      "Ġstep": 2167,
      "Ġemploy": 2168,
      "Ġtumors": 2169,
      "Ġcontent": 2170,
      "Ġproteins": 2171,
      "pa": 2172,
      "Ġinitial": 2173,
      "sk": 2174,
      "uth": 2175,
      "Ġsay": 2176,
      "pective": 2177,
      "Ġproject": 2178,
      "Ġknown": 2179,
      "Ġsite": 2180,
      "Ġextra": 2181,
      "Ġparameters": 2182,
      "Ġsolution": 2183,
      "Ġcreative": 2184,
      "osure": 2185,
      "Ġserum": 2186,
      "Ġpri": 2187,
      "Ġcause": 2188,
      "Ġleast": 2189,
      "Ġstim": 2190,
      "emia": 2191,
      "Ġcompon": 2192,
      "Ġvirus": 2193,
      "Ġov": 2194,
      "Ġresid": 2195,
      "Ġ_": 2196,
      "tw": 2197,
      "Ġside": 2198,
      "Ġsigni": 2199,
      "Ġisol": 2200,
      "Ġcompet": 2201,
      "Ġscore": 2202,
      "Ġ5": 2203,
      "Ġoptim": 2204,
      "Ġdynam": 2205,
      "Ġthink": 2206,
      "Ġspecies": 2207,
      "Ġradi": 2208,
      "olic": 2209,
      "Ġvisual": 2210,
      "Ġutil": 2211,
      "Ġidentified": 2212,
      "Ġcorrelation": 2213,
      "Ġcatal": 2214,
      "Ġchen": 2215,
      "Ġmol": 2216,
      "ocard": 2217,
      "rh": 2218,
      "tion": 2219,
      "Ġindicated": 2220,
      "ney": 2221,
      "omes": 2222,
      "Ġdetail": 2223,
      "Ġassessment": 2224,
      "ising": 2225,
      "Ġbehavior": 2226,
      "ators": 2227,
      "come": 2228,
      "Ġinflamm": 2229,
      "Ġwant": 2230,
      "opath": 2231,
      "Ġ$": 2232,
      "uro": 2233,
      "Ġexperimental": 2234,
      "emic": 2235,
      "Ġmetast": 2236,
      "Ġdam": 2237,
      "Ġpeak": 2238,
      "Ġyk": 2239,
      "Ġdescribed": 2240,
      "ta": 2241,
      "Ġcoll": 2242,
      "Ġgrad": 2243,
      "Ġreaction": 2244,
      "Ġpresented": 2245,
      "igg": 2246,
      "ruction": 2247,
      "Ġsat": 2248,
      "Ġfull": 2249,
      "Ġdra": 2250,
      "ochem": 2251,
      "Ġfollowed": 2252,
      "Ġpublished": 2253,
      "Ġic": 2254,
      "vement": 2255,
      "hel": 2256,
      "Ġchrom": 2257,
      "Ġbio": 2258,
      "ĠâĢĵ": 2259,
      "iciency": 2260,
      "Ġcompound": 2261,
      "Ġexc": 2262,
      "tnum": 2263,
      "urs": 2264,
      "Ġformation": 2265,
      "Ġann": 2266,
      "ped": 2267,
      "Ġshows": 2268,
      "Ġventric": 2269,
      "ries": 2270,
      "Ġkl": 2271,
      "Ġpan": 2272,
      "over": 2273,
      "Ġmuscle": 2274,
      "Ġcer": 2275,
      "orn": 2276,
      "Ġmaxim": 2277,
      "Ġreduction": 2278,
      "Ġindicate": 2279,
      "Ġidentify": 2280,
      "Ġdatas": 2281,
      "Ġalong": 2282,
      "atal": 2283,
      "ief": 2284,
      "zo": 2285,
      "Ġrecent": 2286,
      "In": 2287,
      "Ġweeks": 2288,
      "Ġsle": 2289,
      "zym": 2290,
      "Ġcenter": 2291,
      "Ġrun": 2292,
      "Ġtypes": 2293,
      "ographic": 2294,
      "Ġtake": 2295,
      "aff": 2296,
      "Ġhepat": 2297,
      "eff": 2298,
      "Ġstage": 2299,
      "Ġstatus": 2300,
      "ray": 2301,
      "Ġweek": 2302,
      "yro": 2303,
      "Ġlicence": 2304,
      "Ġlung": 2305,
      "Ġtranscript": 2306,
      "Ġconcentr": 2307,
      "Ġla": 2308,
      "Ġown": 2309,
      "Ġcomparison": 2310,
      "Ġcommons": 2311,
      "ilit": 2312,
      "Ġintro": 2313,
      "Ġplan": 2314,
      "istry": 2315,
      "ili": 2316,
      "ĠâĢĶ": 2317,
      "Ġdiseases": 2318,
      "Ġtion": 2319,
      "Ġincreasing": 2320,
      "Ġhistory": 2321,
      "Ġcere": 2322,
      "Ġseen": 2323,
      "eline": 2324,
      "Ġrna": 2325,
      "ii": 2326,
      "Ġfin": 2327,
      "gment": 2328,
      "istic": 2329,
      "Ġprol": 2330,
      "Ġchemical": 2331,
      "Ġbest": 2332,
      "Ġfore": 2333,
      "ried": 2334,
      ",\"": 2335,
      "arch": 2336,
      "pri": 2337,
      "Ġanalys": 2338,
      "Ġbinding": 2339,
      "ino": 2340,
      "unction": 2341,
      "Ġcontrast": 2342,
      "more": 2343,
      "aring": 2344,
      "Ġrecur": 2345,
      "Ġsubsequ": 2346,
      "Ġart": 2347,
      "light": 2348,
      "Ġunt": 2349,
      "Ġfrequency": 2350,
      "Ġcarcinoma": 2351,
      "plant": 2352,
      "Ġposition": 2353,
      "Ġear": 2354,
      "Ġsil": 2355,
      "Ġscale": 2356,
      "Ġplant": 2357,
      "sp": 2358,
      "use": 2359,
      "Ġnext": 2360,
      "Ġconfir": 2361,
      "inary": 2362,
      "Ġdiss": 2363,
      "pid": 2364,
      "Ġsupp": 2365,
      "Ġbeg": 2366,
      "Ġyoung": 2367,
      "Ġemb": 2368,
      "Ġjournal": 2369,
      "den": 2370,
      "monary": 2371,
      "arr": 2372,
      "Ġver": 2373,
      "Ġplasma": 2374,
      "Ġabove": 2375,
      "Ġnor": 2376,
      "eding": 2377,
      "Ġens": 2378,
      "Ġteam": 2379,
      "Ġaccept": 2380,
      "Ġbreast": 2381,
      "Ġclus": 2382,
      "Ġglobal": 2383,
      "Ġfield": 2384,
      "Ġtool": 2385,
      "Ġorder": 2386,
      "Ġcirc": 2387,
      "Ġregul": 2388,
      "Ġfailure": 2389,
      "Ġestabl": 2390,
      "Ġsynthesis": 2391,
      "ducing": 2392,
      "Ġmk": 2393,
      "Ġprior": 2394,
      "Ġcre": 2395,
      "Ġimage": 2396,
      "get": 2397,
      "Ġactive": 2398,
      "fact": 2399,
      "Ġpromot": 2400,
      "Ġrequired": 2401,
      "Ġdose": 2402,
      "Ġlat": 2403,
      "ao": 2404,
      "omas": 2405,
      "Ġexample": 2406,
      "Ġexperiments": 2407,
      "Ġpregn": 2408,
      "Ġcarbon": 2409,
      "Ġobject": 2410,
      "Ġterm": 2411,
      "Ġvariables": 2412,
      "Ġinternational": 2413,
      "son": 2414,
      "Ġky": 2415,
      "Ġmedium": 2416,
      "ĠAm": 2417,
      "iers": 2418,
      "Ġvolume": 2419,
      "Ġtechnology": 2420,
      "Ġsepar": 2421,
      "Ġalg": 2422,
      "Ġphosph": 2423,
      "asis": 2424,
      "ern": 2425,
      "Ġgenetic": 2426,
      "Ġtk": 2427,
      "Ġremov": 2428,
      "Ġey": 2429,
      "Ġdecreased": 2430,
      "Ġbenef": 2431,
      "Ġleg": 2432,
      "Ġabn": 2433,
      "Ġinvolved": 2434,
      "Ġpreval": 2435,
      "sa": 2436,
      "itivity": 2437,
      "Ġareas": 2438,
      "Ġpreviously": 2439,
      "Ġprevent": 2440,
      "Ġdeep": 2441,
      "rape": 2442,
      "Ġna": 2443,
      "Ġkg": 2444,
      "Ġenzym": 2445,
      "Ġrecomm": 2446,
      "Ġsumm": 2447,
      "Ġmap": 2448,
      "Ġneur": 2449,
      "ror": 2450,
      "odes": 2451,
      "Ġhal": 2452,
      "Ġsurve": 2453,
      "lying": 2454,
      "ĠWe": 2455,
      "Ġsd": 2456,
      "Ġcho": 2457,
      "Ġlabor": 2458,
      "Ġblock": 2459,
      "Ġthrom": 2460,
      "Ġbur": 2461,
      "Ġconn": 2462,
      "Ġrob": 2463,
      "Ġliter": 2464,
      "Ġrecogn": 2465,
      "odies": 2466,
      "ĠUn": 2467,
      "ĠThis": 2468,
      "arge": 2469,
      "hold": 2470,
      "utr": 2471,
      "ressive": 2472,
      "Ġquestion": 2473,
      "Ġdetermined": 2474,
      "Ġintegr": 2475,
      "rapeut": 2476,
      "Ġthird": 2477,
      "Ġlength": 2478,
      "Ġcardiac": 2479,
      "qq": 2480,
      "Ġaccuracy": 2481,
      "Ġangi": 2482,
      "Ġlaw": 2483,
      "ĠBut": 2484,
      "induced": 2485,
      "Ġincidence": 2486,
      "Ġelev": 2487,
      "inf": 2488,
      "ĠAnd": 2489,
      "Ġselect": 2490,
      "orb": 2491,
      "Ġcalc": 2492,
      "cem": 2493,
      "Ġregions": 2494,
      "Ġhome": 2495,
      "Ġexperience": 2496,
      "Ġnd": 2497,
      "erican": 2498,
      "Ġdu": 2499,
      "gf": 2500,
      "Ġguid": 2501,
      "Ġlog": 2502,
      "Ġpept": 2503,
      "cher": 2504,
      "km": 2505,
      "Ġmechanisms": 2506,
      "Ġnerve": 2507,
      "enced": 2508,
      "Ġability": 2509,
      "Ġmyocard": 2510,
      "Ġinjury": 2511,
      "Ġport": 2512,
      "bl": 2513,
      "Ġenhan": 2514,
      "Ġdispl": 2515,
      "Ġtesting": 2516,
      "set": 2517,
      "Ġmust": 2518,
      "etes": 2519,
      "),": 2520,
      "Ġrelative": 2521,
      "Ġcut": 2522,
      "ims": 2523,
      "Ġresponses": 2524,
      "Ġess": 2525,
      "Ġcycl": 2526,
      "lor": 2527,
      "ements": 2528,
      "Ġnecess": 2529,
      "eral": 2530,
      "eria": 2531,
      "utes": 2532,
      "Ġadapt": 2533,
      "Ġhours": 2534,
      "Ġmedian": 2535,
      "dom": 2536,
      "ope": 2537,
      "Ġhu": 2538,
      "cal": 2539,
      "wh": 2540,
      "Ġgovernment": 2541,
      "Ġdetermine": 2542,
      "met": 2543,
      "Ġcondition": 2544,
      "Ġcereb": 2545,
      "reng": 2546,
      "Ġtoward": 2547,
      "Ġwriting": 2548,
      "Ġliu": 2549,
      "Ġdensity": 2550,
      "Ġsem": 2551,
      "ott": 2552,
      "Ġben": 2553,
      "ead": 2554,
      "ember": 2555,
      "........": 2556,
      "Ġeas": 2557,
      "Ġanalyzed": 2558,
      "Ġacqu": 2559,
      "Ġprep": 2560,
      "Ġlimited": 2561,
      "Ġcalculated": 2562,
      "Ġadministration": 2563,
      "Ġneut": 2564,
      "Ġapplied": 2565,
      "gl": 2566,
      "Ġzn": 2567,
      "Ġcomplications": 2568,
      "uble": 2569,
      "rolog": 2570,
      "Ġadditionally": 2571,
      "igen": 2572,
      "Ġversion": 2573,
      "hort": 2574,
      "ygen": 2575,
      "Ġcompos": 2576,
      "Ġmechanism": 2577,
      "yst": 2578,
      "Ġhypertension": 2579,
      "Ġcommunity": 2580,
      "oot": 2581,
      "cence": 2582,
      "Ġheter": 2583,
      "Ġresulting": 2584,
      "uscript": 2585,
      "rams": 2586,
      "Ġprogn": 2587,
      "anced": 2588,
      "encing": 2589,
      "ument": 2590,
      "cut": 2591,
      "da": 2592,
      "Ġstatistical": 2593,
      "Ġsyn": 2594,
      "Ġchalleng": 2595,
      "Ġimproved": 2596,
      "Ġsomet": 2597,
      "Ġdig": 2598,
      "orith": 2599,
      "Ġcorresponding": 2600,
      "esp": 2601,
      "ortic": 2602,
      "Ġpolymer": 2603,
      "Ġamount": 2604,
      "Ġclear": 2605,
      "Ġoy": 2606,
      "Ġremains": 2607,
      "Ġparticularly": 2608,
      "Ġload": 2609,
      "Ġreceptor": 2610,
      "like": 2611,
      "Ġhom": 2612,
      "Ġnever": 2613,
      "Ġspace": 2614,
      "hest": 2615,
      "Ġsubjects": 2616,
      "Ġrenal": 2617,
      "Ġexcl": 2618,
      "inant": 2619,
      "âĢĶ": 2620,
      "Ġstreng": 2621,
      "Ġoxid": 2622,
      "Ġ[": 2623,
      "Ġmanuscript": 2624,
      "icial": 2625,
      "Ġhaving": 2626,
      "Ġevents": 2627,
      "Ġdiabetes": 2628,
      "Ġhighly": 2629,
      "Ġgoing": 2630,
      "Ġconcentrations": 2631,
      "Ġventricular": 2632,
      "ulin": 2633,
      "Ġactivation": 2634,
      "Ġtox": 2635,
      "Ġfar": 2636,
      "Ġdirectly": 2637,
      "inct": 2638,
      "Ġmaintain": 2639,
      "ytic": 2640,
      "Ġimprove": 2641,
      "Ġrepro": 2642,
      "Ġaccount": 2643,
      "Ġtransfer": 2644,
      "amin": 2645,
      "Ġcateg": 2646,
      "Ġtests": 2647,
      "ext": 2648,
      "Ġfram": 2649,
      "Ġpharmac": 2650,
      "spec": 2651,
      "Ġsoci": 2652,
      "Ġinhibit": 2653,
      "Ġalgorith": 2654,
      "Ġperson": 2655,
      "Ġcomplete": 2656,
      "Ġlack": 2657,
      "vant": 2658,
      "Ġpulmonary": 2659,
      "Ġenc": 2660,
      "Ġsleep": 2661,
      "Ġtherapeut": 2662,
      "Ġdetect": 2663,
      "Ġterms": 2664,
      "Ġstudied": 2665,
      "atin": 2666,
      "Ġconcept": 2667,
      "coh": 2668,
      "Ġresour": 2669,
      "Ġyield": 2670,
      "Ġevaluated": 2671,
      "Ġdrugs": 2672,
      "Ġoutcome": 2673,
      "Ġpp": 2674,
      "Ġstructures": 2675,
      "Ġpathway": 2676,
      "Ġbuild": 2677,
      "Ġmembrane": 2678,
      "ems": 2679,
      "Ġlesions": 2680,
      "ories": 2681,
      "Ġmale": 2682,
      "Ġau": 2683,
      "yroid": 2684,
      "Ġsites": 2685,
      "Ġtl": 2686,
      "Ġabnormal": 2687,
      "Ġwall": 2688,
      "Ġversus": 2689,
      "ocr": 2690,
      "Ġtransl": 2691,
      "Ġpoor": 2692,
      "ledge": 2693,
      "Ġce": 2694,
      "Ġrapid": 2695,
      "Ġlig": 2696,
      "Ġlet": 2697,
      "ched": 2698,
      "Ġdisorders": 2699,
      "esis": 2700,
      "col": 2701,
      "ending": 2702,
      "Ġlimit": 2703,
      "Ġstro": 2704,
      "rot": 2705,
      "Ġfurthermore": 2706,
      "Ġide": 2707,
      "Ġgluc": 2708,
      "Ġcentral": 2709,
      "Ġcation": 2710,
      "Ġoral": 2711,
      "Ġseries": 2712,
      "Ġproposed": 2713,
      "ask": 2714,
      "pecially": 2715,
      "aches": 2716,
      "Ġnovel": 2717,
      "Ġapplications": 2718,
      "Ġappropri": 2719,
      "Ġnatural": 2720,
      "Ġcolon": 2721,
      "pes": 2722,
      "rem": 2723,
      "ha": 2724,
      "Ġconcer": 2725,
      "Ġcohort": 2726,
      "ream": 2727,
      "Ġexist": 2728,
      "urg": 2729,
      "Ġgenome": 2730,
      "Ġol": 2731,
      "Ġcertain": 2732,
      "Ġ6": 2733,
      "itional": 2734,
      "Ġthromb": 2735,
      "Ġrequire": 2736,
      "ends": 2737,
      "oses": 2738,
      "Ġspat": 2739,
      "Ġanalyses": 2740,
      "--": 2741,
      "Ġtub": 2742,
      "Ġbal": 2743,
      "Ġable": 2744,
      "Ġmonitor": 2745,
      "Ġinfar": 2746,
      "Ġapproxim": 2747,
      "Ġsection": 2748,
      "Ġ200": 2749,
      "dle": 2750,
      "Ġexposure": 2751,
      "Ġextract": 2752,
      "Ġcombined": 2753,
      "Ġeducation": 2754,
      "Ġskin": 2755,
      "ky": 2756,
      "Ġcs": 2757,
      "ĠNew": 2758,
      "Ġcritical": 2759,
      "Ġput": 2760,
      "orption": 2761,
      "Ġef": 2762,
      "iness": 2763,
      "Ġcoun": 2764,
      "active": 2765,
      "Ġtren": 2766,
      "Ġden": 2767,
      "Ġprevalence": 2768,
      "Ġprost": 2769,
      "Ġdiet": 2770,
      "Ġid": 2771,
      "Ġpm": 2772,
      "isher": 2773,
      "Ġdesp": 2774,
      "Ġleading": 2775,
      "Ġespecially": 2776,
      "Ġcapac": 2777,
      "Ġagg": 2778,
      "Ġland": 2779,
      "Ġtherm": 2780,
      "Ġadded": 2781,
      "Ġgame": 2782,
      "Ġusa": 2783,
      "ley": 2784,
      "Ġvacc": 2785,
      "Ġax": 2786,
      "Ġenhance": 2787,
      "Ġmulti": 2788,
      "oe": 2789,
      "iated": 2790,
      "las": 2791,
      "Ġelectron": 2792,
      "Ġpoints": 2793,
      "Ġmyocardial": 2794,
      "Ġnutr": 2795,
      "Ġengine": 2796,
      "Ġcaused": 2797,
      "ama": 2798,
      "Ġecon": 2799,
      "Ġoxygen": 2800,
      "Ġselected": 2801,
      "Ġapplication": 2802,
      "ients": 2803,
      "Ġrelease": 2804,
      "Ġrepl": 2805,
      "ords": 2806,
      "Ġcla": 2807,
      "Ġminim": 2808,
      "Ġcombination": 2809,
      "Ġsuccessful": 2810,
      "cules": 2811,
      "Ġscreening": 2812,
      "Ġdecrease": 2813,
      "urope": 2814,
      "Ġmc": 2815,
      "Ġscores": 2816,
      "cont": 2817,
      "enc": 2818,
      "rote": 2819,
      "mission": 2820,
      "Ġindependent": 2821,
      "Ġgam": 2822,
      "ras": 2823,
      "Ġnk": 2824,
      "aged": 2825,
      "Ġadjust": 2826,
      "anal": 2827,
      "Ġmalign": 2828,
      "Ġsequence": 2829,
      "Ġtechnique": 2830,
      "ocytes": 2831,
      "Ġunderstanding": 2832,
      "Ġbat": 2833,
      "Ġplate": 2834,
      "Ġconsum": 2835,
      "hens": 2836,
      "Ġcoup": 2837,
      "Ġlt": 2838,
      "ocy": 2839,
      "Ġinteraction": 2840,
      "ocol": 2841,
      "Ġepid": 2842,
      "Ġul": 2843,
      "Ġtry": 2844,
      "Ġischem": 2845,
      "Ġcred": 2846,
      "Ġdamage": 2847,
      "Ġlayer": 2848,
      "Ġessential": 2849,
      "Ġexerc": 2850,
      "Ġcommunications": 2851,
      "Ġwid": 2852,
      "ev": 2853,
      "Ġdespite": 2854,
      "Ġpolic": 2855,
      "Ġfemale": 2856,
      "Ġinvestigation": 2857,
      "Ġconsistent": 2858,
      "Ġwhereas": 2859,
      "Ġps": 2860,
      "Ġpatterns": 2861,
      "Ġmeta": 2862,
      "Ġuntil": 2863,
      "Ġexpressed": 2864,
      "Ġpast": 2865,
      "ogene": 2866,
      "Ġreduce": 2867,
      "Ġincreases": 2868,
      "Ġhighlight": 2869,
      "Ġtechniques": 2870,
      "eds": 2871,
      "Ġeight": 2872,
      "Ġadults": 2873,
      "la": 2874,
      "care": 2875,
      "Ġcru": 2876,
      "Ġassay": 2877,
      "Ġsensitivity": 2878,
      "Ġgive": 2879,
      "Ġng": 2880,
      "Ġonline": 2881,
      "estinal": 2882,
      "Ġmaking": 2883,
      "Ġhard": 2884,
      "erate": 2885,
      "Ġobst": 2886,
      "Ġwhite": 2887,
      "icult": 2888,
      "uff": 2889,
      "iveness": 2890,
      "Ġrepe": 2891,
      "Ġimplement": 2892,
      "oring": 2893,
      "Ġupon": 2894,
      "Ġmeans": 2895,
      "Ġmel": 2896,
      "Ġbelie": 2897,
      "Ġsqu": 2898,
      "Ġwa": 2899,
      "Ġeld": 2900,
      "Ġiv": 2901,
      "Ġlas": 2902,
      "Ġinfluence": 2903,
      "Ġped": 2904,
      "Ġaddress": 2905,
      "Ġdoc": 2906,
      "Ġnote": 2907,
      "Ġcure": 2908,
      "Ġlittle": 2909,
      "Ġinteractions": 2910,
      "Ġinduced": 2911,
      "Ġhold": 2912,
      "Ġlines": 2913,
      "Ġpros": 2914,
      "Ġliterature": 2915,
      "ris": 2916,
      "Ġgly": 2917,
      "Ġ'": 2918,
      "imes": 2919,
      "not": 2920,
      "Ġask": 2921,
      "Ġmedia": 2922,
      "Ġcollected": 2923,
      "tering": 2924,
      "Ġfa": 2925,
      "Ġlist": 2926,
      "rosis": 2927,
      "Ġtransform": 2928,
      "Ġhapp": 2929,
      "Ġtrad": 2930,
      "rup": 2931,
      "pha": 2932,
      "Ġoste": 2933,
      "Ġcalled": 2934,
      "ening": 2935,
      "ights": 2936,
      "Ġcriteria": 2937,
      "ula": 2938,
      "ats": 2939,
      "Ġanim": 2940,
      "Ġdetected": 2941,
      "umb": 2942,
      "Ġcryst": 2943,
      "Ġdm": 2944,
      "Ġmeasurements": 2945,
      "Ġtherapeutic": 2946,
      "Ġcourse": 2947,
      "ching": 2948,
      "ales": 2949,
      "Ġstudents": 2950,
      "aling": 2951,
      "ctions": 2952,
      "It": 2953,
      "astic": 2954,
      "Ġpc": 2955,
      "ules": 2956,
      "Ġalcoh": 2957,
      "cial": 2958,
      "Ġdifficult": 2959,
      "Ġappropriate": 2960,
      "Ġmig": 2961,
      "Ġregulation": 2962,
      "Ġaden": 2963,
      "Ġsitu": 2964,
      "ibr": 2965,
      "Ġstra": 2966,
      "Ġ.-": 2967,
      "Ġdeliv": 2968,
      "Ġstability": 2969,
      "Ġenvironmental": 2970,
      "Ġkin": 2971,
      "wise": 2972,
      "Ġbiol": 2973,
      "ilt": 2974,
      "Ġgreen": 2975,
      "itative": 2976,
      "Ġindicating": 2977,
      "Ġmorph": 2978,
      "ift": 2979,
      "Ġblack": 2980,
      "pan": 2981,
      "arily": 2982,
      "Ġvascular": 2983,
      "Ġdiagnostic": 2984,
      "Ġconsider": 2985,
      "omb": 2986,
      "Ġcolle": 2987,
      "ributed": 2988,
      "Ġpet": 2989,
      "Ġsecondary": 2990,
      "Ġintensity": 2991,
      "Ġstroke": 2992,
      "rs": 2993,
      "Ġevent": 2994,
      "Ġduration": 2995,
      "Ġaltern": 2996,
      "Ġdim": 2997,
      "Ġven": 2998,
      "off": 2999,
      "Ġarch": 3000,
      "Ġ8": 3001,
      "Ġmach": 3002,
      "Ġrs": 3003,
      "Ġtaken": 3004,
      "Ġstrategies": 3005,
      "Ġcamp": 3006,
      "Ġoccurred": 3007,
      "Ġassessed": 3008,
      "Ġbiop": 3009,
      "amine": 3010,
      "Ġcompre": 3011,
      "ero": 3012,
      "Ġmicroscop": 3013,
      "Ġtoo": 3014,
      "hetic": 3015,
      "Ġneeded": 3016,
      "Ġreference": 3017,
      "Ġothers": 3018,
      "Ġfeature": 3019,
      "Ġrang": 3020,
      "Ġsays": 3021,
      "Ġintervention": 3022,
      "back": 3023,
      "uded": 3024,
      "arb": 3025,
      "Ġstrength": 3026,
      "Ġple": 3027,
      "Ġservices": 3028,
      "sw": 3029,
      "aces": 3030,
      "ateral": 3031,
      "Ġsignaling": 3032,
      "Ġsoftware": 3033,
      "ogenic": 3034,
      "fusion": 3035,
      "Ġsafety": 3036,
      "Ġleuk": 3037,
      "izes": 3038,
      "Ġframe": 3039,
      "Ġsoil": 3040,
      "Ġpt": 3041,
      "ih": 3042,
      "Ġmaximum": 3043,
      "Ġos": 3044,
      "Ġinterp": 3045,
      "ires": 3046,
      "aster": 3047,
      "ique": 3048,
      "Ġcapt": 3049,
      "Ġviv": 3050,
      "Ġsom": 3051,
      "Ġcontrols": 3052,
      "Ġbaseline": 3053,
      "most": 3054,
      "ls": 3055,
      "Ġprocedure": 3056,
      "rection": 3057,
      "Ġantibody": 3058,
      "Ġbelow": 3059,
      "iang": 3060,
      "ches": 3061,
      "Ġbecome": 3062,
      "Ġlaboratory": 3063,
      "Ġappear": 3064,
      "Ġderived": 3065,
      "Ġreally": 3066,
      "itude": 3067,
      "Ġcontaining": 3068,
      "Ġprop": 3069,
      "Ġcontact": 3070,
      "Ġ7": 3071,
      "akes": 3072,
      "Ġproblem": 3073,
      "ij": 3074,
      "Ġfract": 3075,
      "oscop": 3076,
      "elling": 3077,
      "Ġacad": 3078,
      "ovascular": 3079,
      "aced": 3080,
      "iology": 3081,
      "Ġns": 3082,
      "Ġgas": 3083,
      "Ġhighest": 3084,
      "Ġast": 3085,
      "fs": 3086,
      "Ġregression": 3087,
      "Ġpanc": 3088,
      "Ġmillion": 3089,
      "Ġcogn": 3090,
      "Ġanterior": 3091,
      "Ġtur": 3092,
      "eling": 3093,
      "Ġcovid": 3094,
      "utions": 3095,
      "Ġnear": 3096,
      "Ġson": 3097,
      "Ġinternal": 3098,
      "rump": 3099,
      "Ġsust": 3100,
      "Ġbra": 3101,
      "Ġrespond": 3102,
      "Ġfrontiers": 3103,
      "Ġinn": 3104,
      "Ġeffic": 3105,
      "ferences": 3106,
      "Ġbus": 3107,
      "Ġdone": 3108,
      "Ġprotocol": 3109,
      "Ġreason": 3110,
      "aily": 3111,
      "Ġrats": 3112,
      "Ġhalf": 3113,
      "imate": 3114,
      "onst": 3115,
      "Ġattack": 3116,
      "Ġtoget": 3117,
      "Ġunderw": 3118,
      "Ġstructural": 3119,
      "Ġparent": 3120,
      "Ġseven": 3121,
      "Ġtogether": 3122,
      "iatric": 3123,
      "Ġvitro": 3124,
      "Ġbiological": 3125,
      "function": 3126,
      "000": 3127,
      "che": 3128,
      "Ġexercise": 3129,
      "Ġmolecules": 3130,
      "Ġpub": 3131,
      "Th": 3132,
      "Ġvo": 3133,
      "Ġknowledge": 3134,
      "orph": 3135,
      "Ġfer": 3136,
      "ercial": 3137,
      "article": 3138,
      "Ġpolit": 3139,
      "Ġcountries": 3140,
      "ective": 3141,
      "ctal": 3142,
      "type": 3143,
      "rob": 3144,
      "Ġwar": 3145,
      "Ġarr": 3146,
      "ĠAl": 3147,
      "Ġcome": 3148,
      "atives": 3149,
      "Ġrare": 3150,
      "Ġcomprehens": 3151,
      "Ġreli": 3152,
      "ersion": 3153,
      "Ġwhole": 3154,
      "omal": 3155,
      "Ġcontinuous": 3156,
      "Ġyoz": 3157,
      "Ġcity": 3158,
      "ape": 3159,
      "Ġhypot": 3160,
      "Ġtom": 3161,
      "Ġproport": 3162,
      "Ġkid": 3163,
      "ground": 3164,
      "pass": 3165,
      "Ġworking": 3166,
      "ĠResp": 3167,
      "Ġmicrobi": 3168,
      "Ġlate": 3169,
      "Ġapproximately": 3170,
      "Ġproblems": 3171,
      "Ġcand": 3172,
      "Ġmes": 3173,
      "Ġprocesses": 3174,
      "Ġroom": 3175,
      "Ġlot": 3176,
      "Ġrather": 3177,
      "Ġpostoperative": 3178,
      "rix": 3179,
      "Ġculture": 3180,
      "Ġspecial": 3181,
      "Ġsystematic": 3182,
      "Ġupper": 3183,
      "Ġalcohol": 3184,
      "Ġmental": 3185,
      "Ġod": 3186,
      "Ġonce": 3187,
      "ayed": 3188,
      "Ġrespir": 3189,
      "side": 3190,
      "ada": 3191,
      "point": 3192,
      "Ġtrials": 3193,
      "Ġsolid": 3194,
      "Ġcompounds": 3195,
      "ĠResponse": 3196,
      "cember": 3197,
      "zr": 3198,
      "etal": 3199,
      "Ġdistinct": 3200,
      "Ġadvanced": 3201,
      "ĠInput": 3202,
      "Ġefficacy": 3203,
      "usions": 3204,
      "Ġprogression": 3205,
      "Ġelevated": 3206,
      "Ġpaper": 3207,
      "Ġfast": 3208,
      "Ġtold": 3209,
      "Ġful": 3210,
      "We": 3211,
      "ened": 3212,
      "Ġmembers": 3213,
      "roup": 3214,
      "Ġbond": 3215,
      "Ġ###": 3216,
      "duces": 3217,
      "Ġlarger": 3218,
      "Ġspatial": 3219,
      "Ġscan": 3220,
      "Ġmeasures": 3221,
      "Ġprovides": 3222,
      "Ġdisorder": 3223,
      "Ġion": 3224,
      "rest": 3225,
      "Ġexperiment": 3226,
      "Ġstrategy": 3227,
      "Ġmetabolic": 3228,
      "ira": 3229,
      "pir": 3230,
      "Ġsuff": 3231,
      "Ġlaser": 3232,
      "oplast": 3233,
      "Ġzr": 3234,
      "Ġminutes": 3235,
      "Ġvan": 3236,
      "Ġste": 3237,
      "Ġvas": 3238,
      "Ġsmok": 3239,
      "Ġvivo": 3240,
      "Ġrt": 3241,
      "Ġexamination": 3242,
      "Ġolder": 3243,
      "Ġmetal": 3244,
      "Ġmoreover": 3245,
      "Ġusually": 3246,
      "brid": 3247,
      "Ġpregnancy": 3248,
      "Ġchann": 3249,
      "iles": 3250,
      "oral": 3251,
      "Ġsusp": 3252,
      "rist": 3253,
      "Ġunited": 3254,
      "!!!!!!!!": 3255,
      "Ġproducts": 3256,
      "Ġcomponents": 3257,
      "Ġlang": 3258,
      "Ġunderwent": 3259,
      "cers": 3260,
      "Ġment": 3261,
      "Ġturn": 3262,
      "Ġvi": 3263,
      "Ġenhanced": 3264,
      "Ġwind": 3265,
      "Ġfav": 3266,
      "Ġexamined": 3267,
      "Ġaction": 3268,
      "Ġcu": 3269,
      "Ġanimals": 3270,
      "Ġalle": 3271,
      "Ġdecision": 3272,
      "Ġgenerated": 3273,
      "Ġinstitute": 3274,
      "mic": 3275,
      "Ġpack": 3276,
      "ustr": 3277,
      "Ġww": 3278,
      "Ġjoint": 3279,
      "Ġpractice": 3280,
      "Ġmouse": 3281,
      "Ġbir": 3282,
      "Ġequal": 3283,
      "bb": 3284,
      "Ġlu": 3285,
      "Ġactivities": 3286,
      "Ġproduced": 3287,
      "Ġdop": 3288,
      "Ġhealthy": 3289,
      "Ġgraph": 3290,
      "rict": 3291,
      "Ġprediction": 3292,
      "ned": 3293,
      "ided": 3294,
      "ached": 3295,
      "Ġtax": 3296,
      "Ġmonitoring": 3297,
      "Ġcycle": 3298,
      "Ġincub": 3299,
      "rov": 3300,
      "Ġbase": 3301,
      "Ġmiddle": 3302,
      "Ġsuggests": 3303,
      "ges": 3304,
      "ects": 3305,
      "ĠThey": 3306,
      "Ġepit": 3307,
      "ata": 3308,
      "thing": 3309,
      "can": 3310,
      "Ġpair": 3311,
      "Ġgastro": 3312,
      "Ġneurolog": 3313,
      "nas": 3314,
      "Ġdepression": 3315,
      "Ġmagnetic": 3316,
      "Ġarg": 3317,
      "Ġprepar": 3318,
      "Ġcheck": 3319,
      "Ġshowing": 3320,
      "Ġthings": 3321,
      "Ġpark": 3322,
      "Ġindust": 3323,
      "Ġbroad": 3324,
      "Ġmd": 3325,
      "Ġfu": 3326,
      "Ġvess": 3327,
      "Ġcapacity": 3328,
      "ancial": 3329,
      "Ġdevice": 3330,
      "onic": 3331,
      "Ġglucose": 3332,
      "Ġalways": 3333,
      "Ġheat": 3334,
      "Ġfacilit": 3335,
      "Ġdatab": 3336,
      "que": 3337,
      "used": 3338,
      "empt": 3339,
      "Ġschem": 3340,
      "Ġthick": 3341,
      "Ġble": 3342,
      "cellular": 3343,
      "Ġavoid": 3344,
      "Ġsurvey": 3345,
      "Ġmeasurement": 3346,
      "Ġcc": 3347,
      "Ġmiss": 3348,
      "ready": 3349,
      "Ġevaluate": 3350,
      "Ġdil": 3351,
      "Ġfunding": 3352,
      "time": 3353,
      "Ġforce": 3354,
      "Ġsegment": 3355,
      "ogenesis": 3356,
      "Ġcauses": 3357,
      "Ġinfarction": 3358,
      "opt": 3359,
      "Ġcountry": 3360,
      "gr": 3361,
      "Ġprint": 3362,
      "orrh": 3363,
      "Ġdataset": 3364,
      "ĠTrump": 3365,
      "Ġexpected": 3366,
      "Ġreco": 3367,
      "otype": 3368,
      "Ġcellular": 3369,
      "Ġsan": 3370,
      "di": 3371,
      "Ġnanop": 3372,
      "Ġimprovement": 3373,
      "Ġantibodies": 3374,
      "ĠAn": 3375,
      "Ġincor": 3376,
      "Ġconsequ": 3377,
      "li": 3378,
      "Ġpen": 3379,
      "Ġspeci": 3380,
      "Ġindicates": 3381,
      "Ġstable": 3382,
      "Ġmw": 3383,
      "Ġcam": 3384,
      "Ġcandid": 3385,
      "Ġtempor": 3386,
      "Ġ10": 3387,
      "Ġot": 3388,
      "Ġaffected": 3389,
      "Ġdegrad": 3390,
      "ochemical": 3391,
      "ĠYou": 3392,
      "Ġentire": 3393,
      "Ġyet": 3394,
      "ocyte": 3395,
      "Ġattention": 3396,
      "Ġrefer": 3397,
      "Ġsuperior": 3398,
      "Ġalone": 3399,
      "Ġtissues": 3400,
      "with": 3401,
      "Ġmatrix": 3402,
      "Ġdaily": 3403,
      "urity": 3404,
      "Ġprofess": 3405,
      "Ġlonger": 3406,
      "Ġoutput": 3407,
      "rev": 3408,
      "encies": 3409,
      "Ġta": 3410,
      "Ġgot": 3411,
      "know": 3412,
      "Ġoc": 3413,
      "Ġimportance": 3414,
      "Ġcureus": 3415,
      "osome": 3416,
      "going": 3417,
      "Ġpay": 3418,
      "Ġdouble": 3419,
      "ga": 3420,
      "load": 3421,
      "Ġga": 3422,
      "une": 3423,
      "Ġconstruct": 3424,
      "iot": 3425,
      "Ġda": 3426,
      "Ġposterior": 3427,
      "Ġalready": 3428,
      "Ġupd": 3429,
      "Ġobes": 3430,
      "Ġcrucial": 3431,
      "what": 3432,
      "Ġpathways": 3433,
      "ublic": 3434,
      "Ġplos": 3435,
      "orescence": 3436,
      "zt": 3437,
      "hydro": 3438,
      "Ġexhibited": 3439,
      "att": 3440,
      "Ġmir": 3441,
      "Ġradiation": 3442,
      "Ġdesigned": 3443,
      "Ġled": 3444,
      "Ġaim": 3445,
      "ban": 3446,
      "Ġinput": 3447,
      "Ġachieved": 3448,
      "Ġinvestigated": 3449,
      "Ġdiscussion": 3450,
      "Ġcredit": 3451,
      "Ġinhibition": 3452,
      "Ġchallenges": 3453,
      "Ġcort": 3454,
      "Ġsomething": 3455,
      "Ġprolif": 3456,
      "Ġnecessary": 3457,
      "Ġvide": 3458,
      "Ġlicens": 3459,
      "rich": 3460,
      "ged": 3461,
      "Ġjo": 3462,
      "Ġten": 3463,
      "Ġdiv": 3464,
      "Ġaspect": 3465,
      "Ġrelatively": 3466,
      "Ġinfections": 3467,
      "Ġefficiency": 3468,
      "Ġhost": 3469,
      "Ġuseful": 3470,
      "idity": 3471,
      "Ġinvas": 3472,
      "Ġbound": 3473,
      "Ġtzm": 3474,
      "Ġkeep": 3475,
      "ector": 3476,
      "Ġtc": 3477,
      "Ġfit": 3478,
      "Ġrecovery": 3479,
      "lation": 3480,
      "Ġagre": 3481,
      "elines": 3482,
      "Ġfinally": 3483,
      "ectomy": 3484,
      "Ġdegree": 3485,
      "Ġunit": 3486,
      "aries": 3487,
      "trans": 3488,
      "Ġclos": 3489,
      "ĠIs": 3490,
      "Ġemployed": 3491,
      "Ġinflammatory": 3492,
      "Ġinterests": 3493,
      "Ġkill": 3494,
      "oids": 3495,
      "apan": 3496,
      "Ġediting": 3497,
      "Ġblue": 3498,
      "Ġneural": 3499,
      "Ġalgorithm": 3500,
      "Ġproper": 3501,
      "Ġrepresents": 3502,
      "qtm": 3503,
      "Ġrh": 3504,
      "Ġtested": 3505,
      "Ġak": 3506,
      "Ġconfirmed": 3507,
      "Ġcontrolled": 3508,
      "Ġhr": 3509,
      "mit": 3510,
      "Ġampl": 3511,
      "Ġanimal": 3512,
      "ĠAr": 3513,
      "Ġimmedi": 3514,
      "Ġagents": 3515,
      "ori": 3516,
      "Ġcommit": 3517,
      "Ġdefined": 3518,
      "Ġcomprehensive": 3519,
      "ethyl": 3520,
      "Ġwhy": 3521,
      "Ġalmost": 3522,
      "fe": 3523,
      "Ġband": 3524,
      "Ġabsence": 3525,
      "ĠRe": 3526,
      "Ġnam": 3527,
      "omics": 3528,
      "Ġmuc": 3529,
      "Ġinstitution": 3530,
      "Ġprocedures": 3531,
      "Ġbeta": 3532,
      "agen": 3533,
      "Ġselection": 3534,
      "Ġclassification": 3535,
      "Ġtend": 3536,
      "Ġdomain": 3537,
      "Ġrot": 3538,
      "Ġlinear": 3539,
      "ameter": 3540,
      "Ġevolution": 3541,
      "kl": 3542,
      "Ġestimated": 3543,
      "Ġsot": 3544,
      "oxid": 3545,
      "ulf": 3546,
      "Ġhorm": 3547,
      "ipher": 3548,
      "Ġfall": 3549,
      "Ġbran": 3550,
      "rin": 3551,
      "Ġclose": 3552,
      "free": 3553,
      "Ġrelationships": 3554,
      "Ġfunctions": 3555,
      "Ġassist": 3556,
      "Ġgastric": 3557,
      "Ġhep": 3558,
      "Ġprocessing": 3559,
      "Ġstimul": 3560,
      "self": 3561,
      "Ġmeet": 3562,
      "Ġorigin": 3563,
      "cho": 3564,
      "Ġcontext": 3565,
      "Ġcardiovascular": 3566,
      "oney": 3567,
      "Ġvariable": 3568,
      "Ġacknow": 3569,
      "entions": 3570,
      "Ġvalidation": 3571,
      "Ġcompeting": 3572,
      "ifest": 3573,
      "Ġengineering": 3574,
      "Ġpermitted": 3575,
      "Ġground": 3576,
      "bers": 3577,
      "ĠDe": 3578,
      "Ġliving": 3579,
      "imer": 3580,
      "Ġrepair": 3581,
      "Ġdc": 3582,
      "Ġcorrect": 3583,
      "Ġsystemic": 3584,
      "Ġcognitive": 3585,
      "Ġerror": 3586,
      "Ġsod": 3587,
      "Ġdistance": 3588,
      "Ġestablished": 3589,
      "Ġmis": 3590,
      "icians": 3591,
      "ĠCl": 3592,
      "Ġrespiratory": 3593,
      "Ġsuggesting": 3594,
      "ternal": 3595,
      "ani": 3596,
      "Ġkind": 3597,
      "xi": 3598,
      "Ġoffer": 3599,
      "Ġdl": 3600,
      "Ġparts": 3601,
      "Ġorganic": 3602,
      "Ġbill": 3603,
      "Ġdelivery": 3604,
      "Ġresources": 3605,
      "ancing": 3606,
      "Ġnoted": 3607,
      "Ġdepos": 3608,
      "Ġfeed": 3609,
      "Ġfraction": 3610,
      "Ġ9": 3611,
      "group": 3612,
      "fort": 3613,
      "Ġsequences": 3614,
      "Ġzt": 3615,
      "Ġwin": 3616,
      "Ġsubstr": 3617,
      "ĠIf": 3618,
      "Ġface": 3619,
      "Ġviral": 3620,
      "Ġmoderate": 3621,
      "Ġbehavi": 3622,
      "Ġwat": 3623,
      "Ġalpha": 3624,
      "Ġenzyme": 3625,
      "Ġoperation": 3626,
      "Ġbiomark": 3627,
      "Ġiii": 3628,
      "Ġissues": 3629,
      "ana": 3630,
      "lic": 3631,
      "Ġmetabolism": 3632,
      "Ġenter": 3633,
      "Ġsciences": 3634,
      "olar": 3635,
      "Ġkne": 3636,
      "Ġmanu": 3637,
      "Ġhealthcare": 3638,
      "Ġweak": 3639,
      "ritis": 3640,
      "Ġcerebral": 3641,
      "Ġtransition": 3642,
      "Ġneeds": 3643,
      "Ġtext": 3644,
      "__": 3645,
      "Ġball": 3646,
      "Ġmechanical": 3647,
      "Ġtransport": 3648,
      "Ġwto": 3649,
      "Ġidenti": 3650,
      "dependent": 3651,
      "Ġexcept": 3652,
      "Ġsimple": 3653,
      "Ġstem": 3654,
      "Ġattempt": 3655,
      "Ġbackground": 3656,
      "erior": 3657,
      "dominal": 3658,
      "Ġws": 3659,
      "Ġcharge": 3660,
      "equ": 3661,
      "Ġts": 3662,
      "Ġcarried": 3663,
      "Ġsimulation": 3664,
      "Ġstatistically": 3665,
      "Ġissue": 3666,
      "Ġalter": 3667,
      "Ġtraum": 3668,
      "Ġpercentage": 3669,
      "oman": 3670,
      "Ġconver": 3671,
      "Ġsupported": 3672,
      "Ġhb": 3673,
      "ture": 3674,
      "ologies": 3675,
      "reshold": 3676,
      "Ġfluid": 3677,
      "Ġoil": 3678,
      "Ġpancreat": 3679,
      "Ġeffort": 3680,
      "Ġisolated": 3681,
      "Ġsuggested": 3682,
      "Ġalt": 3683,
      "Ġaccepted": 3684,
      "entional": 3685,
      "Ġip": 3686,
      "Ġsubsequent": 3687,
      "cles": 3688,
      "Ġlateral": 3689,
      "efficient": 3690,
      "Ġyes": 3691,
      "oration": 3692,
      "Ġcontributions": 3693,
      "Ġnine": 3694,
      "Ġreturn": 3695,
      "Ġfri": 3696,
      "Ġvolt": 3697,
      "Ġsecret": 3698,
      "Ġslow": 3699,
      "Ġalign": 3700,
      "Ġrecorded": 3701,
      "terol": 3702,
      "Ġwr": 3703,
      "Ġthor": 3704,
      "Ġjob": 3705,
      "oon": 3706,
      "Ġvit": 3707,
      "oplas": 3708,
      "Ġmethyl": 3709,
      "wn": 3710,
      "lim": 3711,
      "Ġcas": 3712,
      "Ġframework": 3713,
      "berg": 3714,
      "Ġregarding": 3715,
      "Ġlin": 3716,
      "Ġinsulin": 3717,
      "Ġcollection": 3718,
      "Ġsr": 3719,
      "Ġchemotherapy": 3720,
      "Ġadvant": 3721,
      "Ġaway": 3722,
      "Ġsi": 3723,
      "Ġenough": 3724,
      "Ġwild": 3725,
      "Ġpopulations": 3726,
      "Ġsubstant": 3727,
      "opathy": 3728,
      "Ġdisco": 3729,
      "ribute": 3730,
      ".[": 3731,
      "Ġseverity": 3732,
      "ara": 3733,
      "Ġtypically": 3734,
      "cur": 3735,
      "Ġreson": 3736,
      "Ġspl": 3737,
      "Ġbreak": 3738,
      "Ġfix": 3739,
      "Ġwu": 3740,
      "etics": 3741,
      "Ġnerv": 3742,
      "gal": 3743,
      "Ġacet": 3744,
      "Ġprepared": 3745,
      "estern": 3746,
      "Ġtransplant": 3747,
      "Ġgerm": 3748,
      "pd": 3749,
      "Ġgender": 3750,
      "Ġtit": 3751,
      "yle": 3752,
      "Ġheav": 3753,
      "ios": 3754,
      "Ġperipher": 3755,
      "Ġroot": 3756,
      "Ġsatis": 3757,
      "Ġtaking": 3758,
      "Ġbasis": 3759,
      "Ġdeveloping": 3760,
      "Ġcollege": 3761,
      "20": 3762,
      "olved": 3763,
      "Ġinterview": 3764,
      "eter": 3765,
      "Ġaortic": 3766,
      "illary": 3767,
      "Ġspinal": 3768,
      "Ġmachine": 3769,
      "itud": 3770,
      "analysis": 3771,
      "Ġarth": 3772,
      "Ġonset": 3773,
      "Ġcollect": 3774,
      "Ġrandomized": 3775,
      "Ġss": 3776,
      "Ġresolution": 3777,
      "Ġstop": 3778,
      "Ġinjection": 3779,
      "Ġplat": 3780,
      "Ġsun": 3781,
      "Ġrecently": 3782,
      "hi": 3783,
      "Ġcav": 3784,
      "uck": 3785,
      "Ġreducing": 3786,
      "Ġslight": 3787,
      "inese": 3788,
      "Ġthought": 3789,
      "Ġgeneration": 3790,
      "uly": 3791,
      "anu": 3792,
      "Ġconserv": 3793,
      "Ġ--": 3794,
      "Ġrequest": 3795,
      "otox": 3796,
      "Ġpeptide": 3797,
      "ĠAs": 3798,
      "Ġdynamic": 3799,
      "Ġlangu": 3800,
      "phal": 3801,
      "imensional": 3802,
      "Ġmild": 3803,
      "Ġavailability": 3804,
      "Ġprevention": 3805,
      "Ġacids": 3806,
      "Ġincorpor": 3807,
      "ards": 3808,
      "Ġsupporting": 3809,
      "Ġtun": 3810,
      "Ġillustr": 3811,
      "Ġdynamics": 3812,
      "Ġarterial": 3813,
      "ister": 3814,
      "Ġradical": 3815,
      "Ġpotentially": 3816,
      "Ġreferences": 3817,
      "tzo": 3818,
      "Ġgraft": 3819,
      "ochond": 3820,
      "organ": 3821,
      "Ġbacterial": 3822,
      "Ġguidelines": 3823,
      "Ġoptimal": 3824,
      "Ġfed": 3825,
      "uted": 3826,
      "ming": 3827,
      "Ġbook": 3828,
      "osy": 3829,
      "Ġcantly": 3830,
      "Ġpermission": 3831,
      "Ġepis": 3832,
      "Ġconclusion": 3833,
      "Ġwtoj": 3834,
      "Ġthreshold": 3835,
      "Ġdraft": 3836,
      "Ġplants": 3837,
      "osa": 3838,
      "rim": 3839,
      "omer": 3840,
      "ocal": 3841,
      "ĠWh": 3842,
      "Ġfeel": 3843,
      "Ġoo": 3844,
      "Ġdivers": 3845,
      "Ġdiagnosed": 3846,
      "Ġthyroid": 3847,
      "Ġgenerally": 3848,
      "Ġdecember": 3849,
      "ometry": 3850,
      "gments": 3851,
      "Ġdysfunction": 3852,
      "Ġpal": 3853,
      "kzmo": 3854,
      "rew": 3855,
      "Ġcannot": 3856,
      "arian": 3857,
      "ishing": 3858,
      "iological": 3859,
      "Ġcompl": 3860,
      "Ġmob": 3861,
      "Ġinterval": 3862,
      "mitted": 3863,
      "Ġapproaches": 3864,
      "Ġsubsequently": 3865,
      "Ġni": 3866,
      "Ġvisit": 3867,
      "Ġbuff": 3868,
      "cule": 3869,
      "Ġstrain": 3870,
      "Ġcharacterized": 3871,
      "Ġnetworks": 3872,
      "Ġdatabase": 3873,
      "Ġelectr": 3874,
      "Ġmutations": 3875,
      "Ġpolicy": 3876,
      "ini": 3877,
      "rier": 3878,
      "oms": 3879,
      "value": 3880,
      "Ġmalignant": 3881,
      "Ġneutral": 3882,
      "va": 3883,
      "cov": 3884,
      "Ġcompany": 3885,
      "Ġcomponent": 3886,
      "Ġadverse": 3887,
      "Ġcurve": 3888,
      "Ġdeb": 3889,
      "tee": 3890,
      "Ġcolor": 3891,
      "Ġmarkers": 3892,
      "Ġdevices": 3893,
      "Ġhepatitis": 3894,
      "Ġiron": 3895,
      "Ġseason": 3896,
      "wide": 3897,
      "Ġcorrelated": 3898,
      "Ġunique": 3899,
      "Ġantigen": 3900,
      "Fig": 3901,
      "ico": 3902,
      "Ġsearch": 3903,
      "Ġlm": 3904,
      "Ġviol": 3905,
      "ush": 3906,
      "ober": 3907,
      "ĠUS": 3908,
      "Ġinflammation": 3909,
      "Ġgh": 3910,
      "Ġfully": 3911,
      "Ġswit": 3912,
      "ams": 3913,
      "ociated": 3914,
      "Ġhouse": 3915,
      "Ġexpress": 3916,
      "my": 3917,
      "Ġreconst": 3918,
      "Ġever": 3919,
      "aryn": 3920,
      "Ġmacroph": 3921,
      "lier": 3922,
      "Ġmb": 3923,
      "Ġnorm": 3924,
      "acement": 3925,
      "Ġlipid": 3926,
      "comm": 3927,
      "Ġlocation": 3928,
      "Ġaccum": 3929,
      "Ġstre": 3930,
      "Ġorth": 3931,
      "Ġye": 3932,
      "Ġconstant": 3933,
      "Ġpersist": 3934,
      "Ġconsent": 3935,
      "Ġhemorrh": 3936,
      "Ġmemory": 3937,
      "Ġkidney": 3938,
      "Ġneck": 3939,
      "Ġsouth": 3940,
      "Ġpel": 3941,
      "Ġtraditional": 3942,
      "rab": 3943,
      "Ġcoefficient": 3944,
      "Ġhydrogen": 3945,
      "Ġdiameter": 3946,
      "vent": 3947,
      "enter": 3948,
      "ica": 3949,
      "Ġsources": 3950,
      "Ġtook": 3951,
      "hern": 3952,
      "Ġpolice": 3953,
      "Ġstaining": 3954,
      "Ġeurope": 3955,
      "Ġtreatments": 3956,
      "ãģ": 3957,
      "Ġorganization": 3958,
      "Ġshare": 3959,
      "This": 3960,
      "rid": 3961,
      "Ġamerican": 3962,
      "Ġrst": 3963,
      "aves": 3964,
      "Ġreflect": 3965,
      "Ġrelevant": 3966,
      "Ġensure": 3967,
      "Ġpriv": 3968,
      "Ġsent": 3969,
      "Ġmil": 3970,
      "Ġneuros": 3971,
      "Ġcerv": 3972,
      "Ġnec": 3973,
      "Ġbil": 3974,
      "Ġmyel": 3975,
      "Ġbmc": 3976,
      "Ġbow": 3977,
      "ĠThat": 3978,
      "Ġparty": 3979,
      "Ġqual": 3980,
      "Ġdocument": 3981,
      "Ġtheory": 3982,
      "Ġinfect": 3983,
      "era": 3984,
      "Ġreact": 3985,
      "kzn": 3986,
      "yright": 3987,
      "Ġmixed": 3988,
      "Ġproviding": 3989,
      "aching": 3990,
      "Ġcommonly": 3991,
      "Ġdefin": 3992,
      "ulate": 3993,
      "Ġib": 3994,
      "Ġvary": 3995,
      "articles": 3996,
      "Ġexce": 3997,
      "Ġyu": 3998,
      "ĠSh": 3999,
      "Ġcame": 4000,
      "Ġyang": 4001,
      "ptic": 4002,
      "Ġinterventions": 4003,
      "portun": 4004,
      "Ġamm": 4005,
      "Ġfinancial": 4006,
      "ifically": 4007,
      "Ġcatalyst": 4008,
      "osing": 4009,
      "Ġmanufact": 4010,
      "Ġpersonal": 4011,
      "Ġsar": 4012,
      "Ġlicense": 4013,
      "Ġresulted": 4014,
      "Ġquestions": 4015,
      "Ġrecommend": 4016,
      "za": 4017,
      "Ġservice": 4018,
      "Ġspring": 4019,
      "Ġremain": 4020,
      "raft": 4021,
      "erous": 4022,
      "Ġeffectively": 4023,
      "Ġspeed": 4024,
      "Ġmatter": 4025,
      "Ġperipheral": 4026,
      "Ġcluster": 4027,
      "Ġscen": 4028,
      "itable": 4029,
      "Ġoptical": 4030,
      "Ġhip": 4031,
      "Ġapproved": 4032,
      "Ġafric": 4033,
      "Ġdetails": 4034,
      "Ġnuclear": 4035,
      "Ġreactions": 4036,
      "Ġbirth": 4037,
      "net": 4038,
      "Ġmedi": 4039,
      "pose": 4040,
      "Ġbul": 4041,
      "Ġcore": 4042,
      "Ġpolar": 4043,
      "ey": 4044,
      "Ġhar": 4045,
      "orth": 4046,
      "inate": 4047,
      "Ġreviewed": 4048,
      "Ġmitochond": 4049,
      "Ġlimitations": 4050,
      "Ġliqu": 4051,
      "Ġcurrently": 4052,
      "Ġthroughout": 4053,
      "do": 4054,
      "Ġsetting": 4055,
      "Ġchain": 4056,
      "Ġgrade": 4057,
      "nn": 4058,
      "Ġoh": 4059,
      "Ġpoll": 4060,
      "Ġnews": 4061,
      "Ġbig": 4062,
      "ias": 4063,
      "ĠâĢĺ": 4064,
      "Ġcontinued": 4065,
      "Ġcyst": 4066,
      "Ġsig": 4067,
      "ingu": 4068,
      "Ġmakes": 4069,
      "Ġeye": 4070,
      "oll": 4071,
      "Ġrecurrence": 4072,
      "Ġepithel": 4073,
      "pm": 4074,
      "ophil": 4075,
      "Ġinhibitors": 4076,
      "issions": 4077,
      "Ġhz": 4078,
      "Ġhemat": 4079,
      "immun": 4080,
      "Ġmodified": 4081,
      "Ġneurons": 4082,
      "iform": 4083,
      "Ġads": 4084,
      "Ġsequencing": 4085,
      "Ġhor": 4086,
      "Ġcharacterization": 4087,
      "Ġpredicted": 4088,
      "iral": 4089,
      "inated": 4090,
      "specific": 4091,
      "Ġintr": 4092,
      "Ġrobust": 4093,
      "Ġsociety": 4094,
      "Ġwon": 4095,
      "Ġsignificance": 4096,
      "Ġmovement": 4097,
      "Ġcode": 4098,
      "Ġwave": 4099,
      "Ġplatform": 4100,
      "Ġfrequently": 4101,
      "Ġfoot": 4102,
      "Ġopportun": 4103,
      "Ġeffectiveness": 4104,
      "ĠFor": 4105,
      "adder": 4106,
      "Ġvein": 4107,
      "ham": 4108,
      "enty": 4109,
      "Ġnumbers": 4110,
      "Ġwide": 4111,
      "Ġbey": 4112,
      "ĠThere": 4113,
      "Ġchemistry": 4114,
      "ze": 4115,
      "rees": 4116,
      "rog": 4117,
      "olesterol": 4118,
      "Ġemot": 4119,
      "Ġtrue": 4120,
      "Ġaids": 4121,
      "Ġpi": 4122,
      "Ġig": 4123,
      "icle": 4124,
      "Ġplot": 4125,
      "Ġfab": 4126,
      "Ġqkz": 4127,
      "Ġopio": 4128,
      "Ġcomposition": 4129,
      "ops": 4130,
      "Ġconventional": 4131,
      "Ġincludes": 4132,
      "Ġflex": 4133,
      "Ġabdominal": 4134,
      "rep": 4135,
      "Ġtoler": 4136,
      "Ġmajority": 4137,
      "ament": 4138,
      "Ġlicensed": 4139,
      "Ġname": 4140,
      "ivation": 4141,
      "Ġdatasets": 4142,
      "osomes": 4143,
      "ophage": 4144,
      "Ġbusiness": 4145,
      "Ġnight": 4146,
      "Ġpreparation": 4147,
      "Ġmrna": 4148,
      "ova": 4149,
      "Ġcalcium": 4150,
      "Ġzk": 4151,
      "Ġprogress": 4152,
      "Ġotherwise": 4153,
      "Ġinsights": 4154,
      "Ġdegradation": 4155,
      "ivari": 4156,
      "Ġoccurs": 4157,
      "ayer": 4158,
      "Ġunderlying": 4159,
      "ises": 4160,
      "Ġinvestigate": 4161,
      "Ġbacteria": 4162,
      "level": 4163,
      "Ġseem": 4164,
      "irus": 4165,
      "hood": 4166,
      "oto": 4167,
      "acs": 4168,
      "hyth": 4169,
      "Ġpy": 4170,
      "Ġnone": 4171,
      "Ġvariation": 4172,
      "Ġhybrid": 4173,
      "urb": 4174,
      "Ġformer": 4175,
      "vo": 4176,
      "Ġheterogene": 4177,
      "thal": 4178,
      "Ġvel": 4179,
      "Ġamino": 4180,
      "Ġtransmission": 4181,
      "Ġauto": 4182,
      "Ġcathe": 4183,
      "Ġlinked": 4184,
      "Ġproportion": 4185,
      "Ġtalk": 4186,
      "twt": 4187,
      "fa": 4188,
      "aria": 4189,
      "Ġlanguage": 4190,
      "Ġmode": 4191,
      "Ġemergency": 4192,
      "oster": 4193,
      "Ġbegin": 4194,
      "fl": 4195,
      "Ġpap": 4196,
      "Ġproduce": 4197,
      "Ġsexual": 4198,
      "des": 4199,
      "part": 4200,
      "Ġrhe": 4201,
      "Ġresection": 4202,
      "Ġnh": 4203,
      "rown": 4204,
      "Ġmotor": 4205,
      "Ġmethodology": 4206,
      "Ġclinic": 4207,
      "Ġcv": 4208,
      "ills": 4209,
      "Ġimpair": 4210,
      "oding": 4211,
      "Ġexternal": 4212,
      "mod": 4213,
      "Ġprognosis": 4214,
      "Ġquantum": 4215,
      "ese": 4216,
      "ota": 4217,
      "Ġcopyright": 4218,
      "aign": 4219,
      "Ġfr": 4220,
      "Ġtoz": 4221,
      "Ġrecurrent": 4222,
      "Ġconsumption": 4223,
      "formation": 4224,
      "Ġmur": 4225,
      "Ġkr": 4226,
      "Ġsodium": 4227,
      "take": 4228,
      "Ġtowards": 4229,
      "Ġretros": 4230,
      "anuary": 4231,
      "Ġdivid": 4232,
      "Ġstimulation": 4233,
      "Ġmedication": 4234,
      "Ġzero": 4235,
      "Ġstaff": 4236,
      "Ġdidn": 4237,
      "Ġvideo": 4238,
      "Ġbleeding": 4239,
      "Ġkim": 4240,
      "Ġsten": 4241,
      "ĠEn": 4242,
      "Ġbasic": 4243,
      "fold": 4244,
      "Ġamb": 4245,
      "Ġspecifically": 4246,
      "iy": 4247,
      "Ġresearcher": 4248,
      "Ġmax": 4249,
      "Ġnurs": 4250,
      "Ġleads": 4251,
      "Ġinhibitor": 4252,
      "Ġinject": 4253,
      "raction": 4254,
      "Ġofficial": 4255,
      "odynam": 4256,
      "Ġappears": 4257,
      "Ġasked": 4258,
      "ĠAf": 4259,
      "ura": 4260,
      "Ġreceiving": 4261,
      "Ġischemia": 4262,
      "associated": 4263,
      "But": 4264,
      "Ġgran": 4265,
      "Ġuk": 4266,
      "Ġthing": 4267,
      "Ġdigital": 4268,
      "Ġidentification": 4269,
      "Ġremoval": 4270,
      "Ġgradu": 4271,
      "Ġcient": 4272,
      "Ġeq": 4273,
      "Ġcontribute": 4274,
      "elect": 4275,
      "Ġsmaller": 4276,
      "Ġanat": 4277,
      "Ġmarked": 4278,
      "Ġoptimization": 4279,
      "Ġforms": 4280,
      "Ġinstitutional": 4281,
      "Ġlys": 4282,
      "Ġsignals": 4283,
      "Ġdetailed": 4284,
      "pc": 4285,
      "Ġba": 4286,
      "idine": 4287,
      "Ġcontains": 4288,
      "Ġpanel": 4289,
      "Ġimm": 4290,
      "Ġdied": 4291,
      "Ġelements": 4292,
      "Ġprospective": 4293,
      "Ġacknowled": 4294,
      "mark": 4295,
      "Ġeconomic": 4296,
      "Ġtask": 4297,
      "Ġhepatic": 4298,
      "Ġoct": 4299,
      "Ġemph": 4300,
      "iction": 4301,
      "Ġprimarily": 4302,
      "Ġobesity": 4303,
      "Ġasym": 4304,
      "10": 4305,
      "Ġktz": 4306,
      "Ġbox": 4307,
      "exp": 4308,
      "Ġhg": 4309,
      "Ġabst": 4310,
      "Ġbp": 4311,
      "Ġlee": 4312,
      "Ġcord": 4313,
      "ips": 4314,
      "Ġtmkw": 4315,
      "Ġintroduction": 4316,
      "Ġbelieve": 4317,
      "Ġmainly": 4318,
      "Ġmarket": 4319,
      "irect": 4320,
      "neum": 4321,
      "Ġcholesterol": 4322,
      "aren": 4323,
      "Ġmother": 4324,
      "Ġinstead": 4325,
      "eed": 4326,
      "Ġhs": 4327,
      "Ġaug": 4328,
      "Ġnano": 4329,
      "ohn": 4330,
      "Ġalternative": 4331,
      "Ġdirection": 4332,
      "Ġsampl": 4333,
      "Ġquantitative": 4334,
      "Ġbiopsy": 4335,
      "Ġfavor": 4336,
      "Ġnom": 4337,
      "outh": 4338,
      "Ġnanoparticles": 4339,
      "Ġproliferation": 4340,
      "Ġacquis": 4341,
      "yn": 4342,
      "agon": 4343,
      "enge": 4344,
      "Ġremained": 4345,
      "Ġdemonstrate": 4346,
      "ceived": 4347,
      "Ġspectra": 4348,
      "itr": 4349,
      "Ġmom": 4350,
      "Ġansw": 4351,
      "Ġvoltage": 4352,
      "ellow": 4353,
      "Ġbias": 4354,
      "Ġautom": 4355,
      "Ġspectrum": 4356,
      "Ġpolitical": 4357,
      "anol": 4358,
      "yg": 4359,
      "Ġgel": 4360,
      "Ġtract": 4361,
      "Ġbit": 4362,
      "Ġprognostic": 4363,
      "Ġserious": 4364,
      "Ġdeclare": 4365,
      "bal": 4366,
      "lam": 4367,
      "Ġexcess": 4368,
      "vi": 4369,
      "Ġbeyond": 4370,
      "down": 4371,
      "eled": 4372,
      "Ġtranscription": 4373,
      "Ġconclusions": 4374,
      "Ġlesion": 4375,
      "Ġsubstance": 4376,
      "Ġdest": 4377,
      "Ġ0": 4378,
      "Ġlive": 4379,
      "Ġsuperv": 4380,
      "Ġextrem": 4381,
      "eb": 4382,
      "umin": 4383,
      "Ġqt": 4384,
      "sm": 4385,
      "Ġunits": 4386,
      "Ġparticles": 4387,
      "Ġaggreg": 4388,
      "Ġregular": 4389,
      "Ġminor": 4390,
      "Ġaccurate": 4391,
      "Ġmri": 4392,
      "Ġplacebo": 4393,
      "Ġtemporal": 4394,
      "Ġwalk": 4395,
      "mat": 4396,
      "Ġmicrob": 4397,
      "Ġdisp": 4398,
      "ĠInd": 4399,
      "Ġxu": 4400,
      "Ġwhose": 4401,
      "Ġregional": 4402,
      "ometric": 4403,
      "Ġspread": 4404,
      "Ġpredictive": 4405,
      "Ġsen": 4406,
      "Ġpartial": 4407,
      "Ġsoy": 4408,
      "bp": 4409,
      "Ġfollows": 4410,
      "ophageal": 4411,
      "Ġallows": 4412,
      "bor": 4413,
      "itone": 4414,
      "Ġpric": 4415,
      "Ġstatement": 4416,
      "ued": 4417,
      "Ġpcr": 4418,
      "ades": 4419,
      "oplasty": 4420,
      "ĠQ": 4421,
      "Ġquestionna": 4422,
      "Ġstages": 4423,
      "ince": 4424,
      "Ġmolecule": 4425,
      "Ġbuffer": 4426,
      "Ġnitro": 4427,
      "Ġprobably": 4428,
      "king": 4429,
      "tings": 4430,
      "zz": 4431,
      "Ġcoord": 4432,
      "Ġthermal": 4433,
      "arc": 4434,
      "Ġclimate": 4435,
      "Ġassemb": 4436,
      "ef": 4437,
      "Ġabnormalities": 4438,
      "Ġpret": 4439,
      "Ġtkw": 4440,
      "Ġcomputer": 4441,
      "asia": 4442,
      "inson": 4443,
      "ranial": 4444,
      "Ġrib": 4445,
      "Ġcontract": 4446,
      "Ġunivers": 4447,
      "ĠRep": 4448,
      "Ġinterpret": 4449,
      "Ġmutation": 4450,
      "Ġobjective": 4451,
      "Ġresonance": 4452,
      "Ġsigns": 4453,
      "Ġpublisher": 4454,
      "qqom": 4455,
      "Ġformed": 4456,
      "Ġutilized": 4457,
      "dra": 4458,
      "Ġstarted": 4459,
      "Ġcreate": 4460,
      "Ġcampaign": 4461,
      "Ġsatisf": 4462,
      "Ġcopy": 4463,
      "asons": 4464,
      "Ġooz": 4465,
      "Ġfal": 4466,
      "ump": 4467,
      "Ġinvolving": 4468,
      "ellig": 4469,
      "Ġadoles": 4470,
      "apter": 4471,
      "Ġpresident": 4472,
      "elves": 4473,
      "cutaneous": 4474,
      "Ġinstr": 4475,
      "order": 4476,
      "seud": 4477,
      "Ġtrends": 4478,
      "Ġpg": 4479,
      "Ġaged": 4480,
      "Ġimproving": 4481,
      "Ġcomputed": 4482,
      "Ġfamil": 4483,
      "Ġrm": 4484,
      "Ġprograms": 4485,
      "Ġfm": 4486,
      "Ġstory": 4487,
      "Ġaccom": 4488,
      "faces": 4489,
      "Ġrecommended": 4490,
      "Ġmaps": 4491,
      "Ġachieve": 4492,
      "Ġwhom": 4493,
      "Ġconsidering": 4494,
      "Ġsimilarly": 4495,
      "ather": 4496,
      "venous": 4497,
      "Ġmetastatic": 4498,
      "inity": 4499,
      "Ġearlier": 4500,
      "Ġulcer": 4501,
      "Ġemail": 4502,
      "Ġquick": 4503,
      "uls": 4504,
      "Ġozmo": 4505,
      "................": 4506,
      "Ġmoney": 4507,
      "oww": 4508,
      "chemical": 4509,
      "orectal": 4510,
      "Ġdisch": 4511,
      "Ġoccl": 4512,
      "ners": 4513,
      "Ġcreated": 4514,
      "nes": 4515,
      "Ġcosts": 4516,
      "xy": 4517,
      "Ġrout": 4518,
      "Ġcancers": 4519,
      "onia": 4520,
      "Ġsustain": 4521,
      "Ġdiverse": 4522,
      "Ġclaims": 4523,
      "iff": 4524,
      "Ġpneum": 4525,
      "section": 4526,
      "Ġcharg": 4527,
      "ĠSe": 4528,
      "rade": 4529,
      "Ġwound": 4530,
      "Ġord": 4531,
      "Ġdifferentiation": 4532,
      "head": 4533,
      "Ġtrack": 4534,
      "ida": 4535,
      "Ġinvolvement": 4536,
      "Ġtet": 4537,
      "Ġdescript": 4538,
      "Ġgold": 4539,
      "Ġonc": 4540,
      "Ġspont": 4541,
      "Ġnotably": 4542,
      "Ġacquisition": 4543,
      "apse": 4544,
      "Ġexhibit": 4545,
      "Ġcf": 4546,
      "Ġinfants": 4547,
      "othel": 4548,
      "Ġcust": 4549,
      "ema": 4550,
      "Ġassign": 4551,
      "Ġremaining": 4552,
      "Ġthereby": 4553,
      "cd": 4554,
      "Ġtoday": 4555,
      "Ġsynthes": 4556,
      "Ġrecognition": 4557,
      "Ġtargeting": 4558,
      "Ġurban": 4559,
      "hd": 4560,
      "iotic": 4561,
      "Ġultras": 4562,
      "Ġgrant": 4563,
      "Ġintestinal": 4564,
      "Ġ18": 4565,
      "Ġtargeted": 4566,
      "Ġparameter": 4567,
      "imic": 4568,
      "ella": 4569,
      "Ġoutside": 4570,
      "Ġkwt": 4571,
      "ĠSo": 4572,
      "ophys": 4573,
      "Ġconfidence": 4574,
      "known": 4575,
      "Ġcolum": 4576,
      "Ġdoing": 4577,
      "Ġrevers": 4578,
      "ba": 4579,
      "dis": 4580,
      "Ġai": 4581,
      "Ġabuse": 4582,
      "Ġscenari": 4583,
      "Ġepidem": 4584,
      "Ġbott": 4585,
      "rec": 4586,
      "Ġech": 4587,
      "Ġliquid": 4588,
      "inter": 4589,
      "Ġatrial": 4590,
      "ĠZ": 4591,
      "Ġvaccine": 4592,
      "position": 4593,
      "Ġcover": 4594,
      "Ġrepeated": 4595,
      "Ġwoman": 4596,
      "Ġring": 4597,
      "ifying": 4598,
      "'re": 4599,
      "gu": 4600,
      "Ġdoses": 4601,
      "Ġalz": 4602,
      "Ġmv": 4603,
      "Ġdifferential": 4604,
      "ports": 4605,
      "Ġpor": 4606,
      "Ġassum": 4607,
      "Ġcervical": 4608,
      "Ġft": 4609,
      "Ġremoved": 4610,
      "Ġster": 4611,
      "Ġrequires": 4612,
      "Ġnode": 4613,
      "otypes": 4614,
      "mediated": 4615,
      "qo": 4616,
      "secut": 4617,
      "Ġsyst": 4618,
      "Ġefficient": 4619,
      "Ġmention": 4620,
      "Ġplaced": 4621,
      "weight": 4622,
      "Ġresponsible": 4623,
      "uit": 4624,
      "Ġsure": 4625,
      "add": 4626,
      "ĠMay": 4627,
      "Ġformal": 4628,
      "Ġeyes": 4629,
      "Ġpv": 4630,
      "Ġoccup": 4631,
      "Ġimplant": 4632,
      "control": 4633,
      "Ġko": 4634,
      "Ġzno": 4635,
      "Ġspontaneous": 4636,
      "certain": 4637,
      "Ġlocated": 4638,
      "Ġwidely": 4639,
      "Ġgap": 4640,
      "Ġana": 4641,
      "Ġane": 4642,
      "ĠLe": 4643,
      "Ġtools": 4644,
      "Ġdepth": 4645,
      "jection": 4646,
      "ilities": 4647,
      "Ġcra": 4648,
      "Ġgir": 4649,
      "Ġtell": 4650,
      "Ġwent": 4651,
      "Ġdoesn": 4652,
      "Ġka": 4653,
      "Ġdeaths": 4654,
      "Ġuptake": 4655,
      "Ġreceptors": 4656,
      "Ġpseud": 4657,
      "nel": 4658,
      "tely": 4659,
      "wt": 4660,
      "Ġeg": 4661,
      "Ġinteresting": 4662,
      "Ġethics": 4663,
      "Ġmind": 4664,
      "Ġplus": 4665,
      "Ġgi": 4666,
      "phyl": 4667,
      "Ġgut": 4668,
      "Ġforward": 4669,
      "Ġitself": 4670,
      "Ġchannel": 4671,
      "Ġalk": 4672,
      "Ġlk": 4673,
      "Ġintravenous": 4674,
      "Ġcytok": 4675,
      "Ġkzkw": 4676,
      "ĠHow": 4677,
      "xiety": 4678,
      "Ġdiscussed": 4679,
      "Ġconj": 4680,
      "Ġexpect": 4681,
      "Ġexperienced": 4682,
      "oun": 4683,
      "Ġsess": 4684,
      "Ġcontributed": 4685,
      "Ġderm": 4686,
      "Ġaud": 4687,
      "Ġthin": 4688,
      "Ġextent": 4689,
      "Ġheight": 4690,
      "duc": 4691,
      "Ġelement": 4692,
      "Ġanest": 4693,
      "Ġdog": 4694,
      "Ġdrop": 4695,
      "arter": 4696,
      "Ġexact": 4697,
      "Ġchinese": 4698,
      "ntzr": 4699,
      "ĠAmeric": 4700,
      "herence": 4701,
      "ĠShe": 4702,
      "ught": 4703,
      "umab": 4704,
      "Ġparal": 4705,
      "Ġvalve": 4706,
      "Ġelse": 4707,
      "Ġros": 4708,
      "Ġhumans": 4709,
      "Ġallowed": 4710,
      "Ġchoice": 4711,
      "otes": 4712,
      "Ġseems": 4713,
      "itting": 4714,
      "Ġtrend": 4715,
      "was": 4716,
      "Ġhd": 4717,
      "Ġrecomb": 4718,
      "Ġmelan": 4719,
      "Ġgall": 4720,
      "Ġfocused": 4721,
      "ek": 4722,
      "orld": 4723,
      "Ġmarker": 4724,
      "Ġultrasound": 4725,
      "ergic": 4726,
      "ĠAmerican": 4727,
      "Ġzm": 4728,
      "Ġmanifest": 4729,
      "ĠPh": 4730,
      "rics": 4731,
      "Ġsummary": 4732,
      "ble": 4733,
      "Ġunless": 4734,
      "Ġrestric": 4735,
      "Ġthickness": 4736,
      "edd": 4737,
      "Ġthreat": 4738,
      "dimensional": 4739,
      "non": 4740,
      "Ġcomes": 4741,
      "test": 4742,
      "Ġect": 4743,
      "Ġprostate": 4744,
      "Ġchest": 4745,
      "Ġfill": 4746,
      "He": 4747,
      "Ġanxiety": 4748,
      "ache": 4749,
      "Ġbuilding": 4750,
      "Ġactually": 4751,
      "Ġattribution": 4752,
      "Ġhc": 4753,
      "Ġdiffer": 4754,
      "Ġtzq": 4755,
      "riers": 4756,
      "change": 4757,
      "Ġelim": 4758,
      "ĠCan": 4759,
      "Ġreproduction": 4760,
      "Ġexisting": 4761,
      "Ġnearly": 4762,
      "uge": 4763,
      "Ġtno": 4764,
      "Ġlact": 4765,
      "stream": 4766,
      "Ġresearchers": 4767,
      "Ġtro": 4768,
      "Ġsound": 4769,
      "Ġpediatric": 4770,
      "book": 4771,
      "Ġabsorption": 4772,
      "Ġqk": 4773,
      "Ġaccel": 4774,
      "wk": 4775,
      "lict": 4776,
      "Ġadministered": 4777,
      "Ġaer": 4778,
      "Ġbiology": 4779,
      "erative": 4780,
      "axis": 4781,
      "Ġinitially": 4782,
      "Ġgain": 4783,
      "Ġexcell": 4784,
      "Ġcommittee": 4785,
      "Ġmess": 4786,
      "Ġfinding": 4787,
      "Ġpand": 4788,
      "erson": 4789,
      "Ġly": 4790,
      "ocl": 4791,
      "reatment": 4792,
      "Ġsuscept": 4793,
      "edic": 4794,
      "Ġdeal": 4795,
      "ano": 4796,
      "Ġalzhe": 4797,
      "Ġarm": 4798,
      "Ġcontinue": 4799,
      "Ġreleased": 4800,
      "ĠUnited": 4801,
      "Ġsmoking": 4802,
      "unct": 4803,
      "Ġimplications": 4804,
      "Ġbc": 4805,
      "Ġhuang": 4806,
      "Ġnic": 4807,
      "inations": 4808,
      "ato": 4809,
      "ĠOb": 4810,
      "Ġapplic": 4811,
      "Ġhol": 4812,
      "Ġlayers": 4813,
      "Ġsimult": 4814,
      "Ġprolong": 4815,
      "Ġ12": 4816,
      "Ġchlor": 4817,
      "Ġbenefits": 4818,
      "Ġcommunication": 4819,
      "Ġhp": 4820,
      "Ġsubstrate": 4821,
      "Ġmarg": 4822,
      "Ġanalog": 4823,
      "Ġelectrode": 4824,
      "Ġbad": 4825,
      "Ġadjusted": 4826,
      "Ġbecame": 4827,
      "commercial": 4828,
      "ford": 4829,
      "Ġalb": 4830,
      "ster": 4831,
      "Ġnas": 4832,
      "Ġbmi": 4833,
      "Ġglut": 4834,
      "Ġabund": 4835,
      "Ġreceive": 4836,
      "Ġintegrated": 4837,
      "Ġveh": 4838,
      "Ġshift": 4839,
      "Ġjapan": 4840,
      "intestinal": 4841,
      "men": 4842,
      "yoz": 4843,
      "Ġminimum": 4844,
      "Ġtargets": 4845,
      "Ġsecurity": 4846,
      "ococ": 4847,
      "Ġcounter": 4848,
      "Ġroad": 4849,
      "ko": 4850,
      "comp": 4851,
      "Ġure": 4852,
      "ony": 4853,
      "Ġmand": 4854,
      "Ġopioid": 4855,
      "gi": 4856,
      "Ġspin": 4857,
      "arth": 4858,
      "Ġprotection": 4859,
      "xp": 4860,
      "Ġho": 4861,
      "stit": 4862,
      "cus": 4863,
      "ball": 4864,
      "ocar": 4865,
      "Ġcompletely": 4866,
      "Ġveloc": 4867,
      "vis": 4868,
      "Ġcb": 4869,
      "imen": 4870,
      "Ġadop": 4871,
      "izations": 4872,
      "Ġprinc": 4873,
      "ril": 4874,
      "Ġcurves": 4875,
      "scale": 4876,
      "Ġselective": 4877,
      "Ġfoundation": 4878,
      "Ġstrains": 4879,
      "Ġpublication": 4880,
      "Ġkro": 4881,
      "plicated": 4882,
      "Ġ15": 4883,
      "overed": 4884,
      "Ġnorth": 4885,
      "Ġzone": 4886,
      "Ġpresentation": 4887,
      "Ġtomography": 4888,
      "athy": 4889,
      "tl": 4890,
      "Ġgc": 4891,
      "Ġbegan": 4892,
      "Ġveg": 4893,
      "Ġmuscles": 4894,
      "Ġchallenge": 4895,
      "iaz": 4896,
      "Ġah": 4897,
      "Ġsimultaneous": 4898,
      "positive": 4899,
      "Ġexplore": 4900,
      "Ġpie": 4901,
      "Ġvariety": 4902,
      "erly": 4903,
      "ibly": 4904,
      "Ġarrest": 4905,
      "ints": 4906,
      "Ġbehind": 4907,
      "Ġbalance": 4908,
      "Ġmicroscopy": 4909,
      "itter": 4910,
      "Ġdp": 4911,
      "Ġwindow": 4912,
      "iring": 4913,
      "Ġintellig": 4914,
      "Ġpredom": 4915,
      "Ġkit": 4916,
      "Ġorient": 4917,
      "oret": 4918,
      "Ġendoscop": 4919,
      "Ġgoal": 4920,
      "Ġintended": 4921,
      "Ġtail": 4922,
      "Ġsurround": 4923,
      "Ġsafe": 4924,
      "well": 4925,
      "Ġsensitive": 4926,
      "words": 4927,
      "Ġformat": 4928,
      "Ġvenous": 4929,
      "Ġbenefit": 4930,
      "Ġincubated": 4931,
      "Ġsulf": 4932,
      "orage": 4933,
      "Ġnodes": 4934,
      "Ġcolorectal": 4935,
      "Ġtoxicity": 4936,
      "Ġburden": 4937,
      "inv": 4938,
      "Ġproxim": 4939,
      "rans": 4940,
      "resh": 4941,
      "Ġrecru": 4942,
      "cor": 4943,
      "Ġshock": 4944,
      "hal": 4945,
      "ka": 4946,
      "Ġseiz": 4947,
      "Ġaspects": 4948,
      "Ġaware": 4949,
      "orter": 4950,
      "ustral": 4951,
      "Ġprobability": 4952,
      "wal": 4953,
      "roscopy": 4954,
      "Ġtrauma": 4955,
      "Ġidea": 4956,
      "fp": 4957,
      "Ġmer": 4958,
      "ĠAd": 4959,
      "Ġextraction": 4960,
      "uf": 4961,
      "uries": 4962,
      "Ġdisrup": 4963,
      "ivariate": 4964,
      "Ġwestern": 4965,
      "Ġneon": 4966,
      "Ġapproval": 4967,
      "Ġdeviation": 4968,
      "Ġjud": 4969,
      "Ġcatheter": 4970,
      "urys": 4971,
      "Ġsolutions": 4972,
      "Ġedit": 4973,
      "Ġinnov": 4974,
      "Ġparticle": 4975,
      "Ġpb": 4976,
      "Ġendothel": 4977,
      "Ġhypox": 4978,
      "Ġmart": 4979,
      "Ġdiversity": 4980,
      "Ġfilm": 4981,
      "Ġundergoing": 4982,
      "hythm": 4983,
      "Ġsharing": 4984,
      "Ġconceptual": 4985,
      "Ġslightly": 4986,
      "uments": 4987,
      "ophag": 4988,
      "Ġaz": 4989,
      "Ġmodeling": 4990,
      "Ġmove": 4991,
      "Ġsensor": 4992,
      "Ġvessels": 4993,
      "Ġgames": 4994,
      "loid": 4995,
      "Ġld": 4996,
      "Ġsept": 4997,
      "Ġexpand": 4998,
      "Ġdry": 4999,
      "Ġpreoperative": 5000,
      "Ġattributed": 5001,
      "Ġagric": 5002,
      "Ġvariability": 5003,
      "Ġmedications": 5004,
      "Ġspecimens": 5005,
      "Ġactivated": 5006,
      "Ġfrontiersin": 5007,
      "Ġnc": 5008,
      "Ġpurpose": 5009,
      "Ġklwo": 5010,
      "Ġshape": 5011,
      "Ġangle": 5012,
      "ĠGo": 5013,
      "Ġwn": 5014,
      "osomal": 5015,
      "Ġbypass": 5016,
      "Ġlibr": 5017,
      "Ġoxidation": 5018,
      "ĠBl": 5019,
      "Ġreporting": 5020,
      "Ġpancreatic": 5021,
      "Ġrank": 5022,
      "Ġitems": 5023,
      "Ġhormone": 5024,
      "Ġbowel": 5025,
      "Ġcis": 5026,
      "Ġpermits": 5027,
      "kin": 5028,
      "psy": 5029,
      "resident": 5030,
      "Ġleaders": 5031,
      "Ġdistributed": 5032,
      "Ġrise": 5033,
      "ki": 5034,
      "Ġabstract": 5035,
      "isions": 5036,
      "Ġaa": 5037,
      "link": 5038,
      "Ġinfected": 5039,
      "Ġplays": 5040,
      "Ġischemic": 5041,
      "Ġowk": 5042,
      "Ġexposed": 5043,
      "Ġinduction": 5044,
      "Ġcoli": 5045,
      "derived": 5046,
      "aceut": 5047,
      "ogram": 5048,
      "Ġll": 5049,
      "Ġoffic": 5050,
      "Ġinteract": 5051,
      "Ġapparent": 5052,
      "fully": 5053,
      "Ġpip": 5054,
      "Ġzhou": 5055,
      "Ġrelation": 5056,
      "Ġminimal": 5057,
      "Ġtrigg": 5058,
      "otechn": 5059,
      "Ġsolar": 5060,
      "bet": 5061,
      "Ġmh": 5062,
      "Ġreh": 5063,
      "Ġykz": 5064,
      "rophy": 5065,
      "Ġcharacteristic": 5066,
      "Ġinferior": 5067,
      "ju": 5068,
      "Ġnar": 5069,
      "elt": 5070,
      "Ġgastrointestinal": 5071,
      "Ġimmediately": 5072,
      "Ġusers": 5073,
      "Ġvalu": 5074,
      "ply": 5075,
      "Ġelderly": 5076,
      "Ġarteries": 5077,
      "Ġplayers": 5078,
      "Ġlum": 5079,
      "aving": 5080,
      "ele": 5081,
      "Ġmitochondrial": 5082,
      "Ġrepresentative": 5083,
      "Ġmilit": 5084,
      "mann": 5085,
      "Ġmigration": 5086,
      "Ġclinically": 5087,
      "Ġsteps": 5088,
      "Ġneigh": 5089,
      "Ġsettings": 5090,
      "Ġcomparing": 5091,
      "Ġwsv": 5092,
      "Ġagent": 5093,
      "Ġtypical": 5094,
      "Ġconvers": 5095,
      "Ġlost": 5096,
      "Ġltr": 5097,
      "Ġinvolves": 5098,
      "ocks": 5099,
      "Ġsections": 5100,
      "Ġvariants": 5101,
      "Ġmales": 5102,
      "Ġclearly": 5103,
      "Ġpeaks": 5104,
      "rotein": 5105,
      "tes": 5106,
      "Ġlove": 5107,
      "Ġdivided": 5108,
      "Ġchapter": 5109,
      "Ġbiomarkers": 5110,
      "ials": 5111,
      "Ġwritten": 5112,
      "Ġimplementation": 5113,
      "Ġstenosis": 5114,
      "As": 5115,
      "Ġcro": 5116,
      "Ġoccurrence": 5117,
      "Ġextracted": 5118,
      "Ġdietary": 5119,
      "ocation": 5120,
      "Ġsampling": 5121,
      "Ġmetastasis": 5122,
      "Ġbottom": 5123,
      "Ġconc": 5124,
      "Ġequip": 5125,
      "Ġdt": 5126,
      "Ġreach": 5127,
      "Ġvict": 5128,
      "Ġround": 5129,
      "Ġzhao": 5130,
      "tmkw": 5131,
      "Ġcategor": 5132,
      "cos": 5133,
      "Ġvuk": 5134,
      "Ġconflict": 5135,
      "Ġtb": 5136,
      "Ġwords": 5137,
      "Ġdate": 5138,
      "Ġvector": 5139,
      "rought": 5140,
      "Ġgy": 5141,
      "mselves": 5142,
      "Ġsubstantial": 5143,
      "asc": 5144,
      "otide": 5145,
      "ĠBe": 5146,
      "aine": 5147,
      "ancies": 5148,
      "Ġpercept": 5149,
      "Ġmaternal": 5150,
      "Ġacquired": 5151,
      "Ġpubs": 5152,
      "Ġcarry": 5153,
      "abilities": 5154,
      "Ġlif": 5155,
      "Ġaccumulation": 5156,
      "iance": 5157,
      "Ġinformed": 5158,
      "Ġelectrochemical": 5159,
      "erated": 5160,
      "Ġalzheimer": 5161,
      "Ġchol": 5162,
      "Ġrisks": 5163,
      "Ġcris": 5164,
      "yc": 5165,
      "Ġkww": 5166,
      "ocardi": 5167,
      "Ġlett": 5168,
      "Ġthemselves": 5169,
      "Ġvul": 5170,
      "Ġtoxic": 5171,
      "Ġti": 5172,
      "risk": 5173,
      "Ġexec": 5174,
      "Ġsubgroup": 5175,
      "Ġleukemia": 5176,
      "lab": 5177,
      "seq": 5178,
      "Ġfeedback": 5179,
      "ĠRepublic": 5180,
      "Ġperf": 5181,
      "Ġsoz": 5182,
      "Ġboard": 5183,
      "Ġestablish": 5184,
      "Ġretrospective": 5185,
      "aut": 5186,
      "âĢ¦": 5187,
      "Ġcircum": 5188,
      "ww": 5189,
      "Ġintermedi": 5190,
      "Ġdependent": 5191,
      "Ġdiscovery": 5192,
      "If": 5193,
      "Ġposit": 5194,
      "Ġneurosci": 5195,
      "Ġphenomen": 5196,
      "Ġcp": 5197,
      "Ġuns": 5198,
      "Ġroles": 5199,
      "Ġoverl": 5200,
      "Ġextensive": 5201,
      "Ġtnf": 5202,
      "igue": 5203,
      "rotid": 5204,
      "inol": 5205,
      "isation": 5206,
      "Ġaspir": 5207,
      "Ġobservation": 5208,
      "Ġtherap": 5209,
      "Ġrock": 5210,
      "Ġmixture": 5211,
      "body": 5212,
      "Ġstri": 5213,
      "acent": 5214,
      "Ġwaste": 5215,
      "acing": 5216,
      "ugg": 5217,
      "Ġparents": 5218,
      "Ġquestionnaire": 5219,
      "Ġbrief": 5220,
      "Ġthermo": 5221,
      "Ġrb": 5222,
      "adi": 5223,
      "Ġindustry": 5224,
      "ils": 5225,
      "Ġtransf": 5226,
      "Ġsense": 5227,
      "Ġaw": 5228,
      "Ġstorage": 5229,
      "Ġinside": 5230,
      "Ġoxidative": 5231,
      "Ġwrote": 5232,
      "Ġsud": 5233,
      "Ġknock": 5234,
      "rogen": 5235,
      "Ġgenomes": 5236,
      "Ġabsol": 5237,
      "Ġhimself": 5238,
      "teb": 5239,
      "Ġelectronic": 5240,
      "Ġclaim": 5241,
      "ulating": 5242,
      "Ġconfirm": 5243,
      "mp": 5244,
      "Ġkeywords": 5245,
      "Ġsars": 5246,
      "Ġfabric": 5247,
      "Ġindia": 5248,
      "Ġstabil": 5249,
      "Ġepithelial": 5250,
      "Ġago": 5251,
      "Ġchromosome": 5252,
      "Ġsac": 5253,
      "Ġtransplantation": 5254,
      "Ġfight": 5255,
      "iet": 5256,
      "Ġdark": 5257,
      "undred": 5258,
      "Ġpla": 5259,
      "clin": 5260,
      "Ġnitrogen": 5261,
      "Ġnp": 5262,
      "Ġbring": 5263,
      "rine": 5264,
      "Ġpbs": 5265,
      "Ġvariations": 5266,
      "Ġspringer": 5267,
      "Ġciency": 5268,
      "Ġrace": 5269,
      "Ġclusters": 5270,
      "Ġpromising": 5271,
      "Ġcorrespondence": 5272,
      "Ġfemales": 5273,
      "Ġstarting": 5274,
      "oxide": 5275,
      "Ġcart": 5276,
      "tenance": 5277,
      "Ġgetting": 5278,
      "Ġsuccessfully": 5279,
      "Ġagreement": 5280,
      "Ġhemorrhage": 5281,
      "rt": 5282,
      "Ġsed": 5283,
      "Ġdistingu": 5284,
      "Ġworkers": 5285,
      "Ġber": 5286,
      "Ġpromote": 5287,
      "ĠYork": 5288,
      "Ġenhancing": 5289,
      "bre": 5290,
      "Ġeur": 5291,
      "ĠDem": 5292,
      "Ġstatistics": 5293,
      "force": 5294,
      "Ġechocardi": 5295,
      "Ġndings": 5296,
      "!!!!!!!!!!!!!!!!": 5297,
      "izon": 5298,
      "Ġregulatory": 5299,
      "Ġdiag": 5300,
      "ws": 5301,
      "Ġcold": 5302,
      "Ġpsychological": 5303,
      "Ġshar": 5304,
      "Ġcontain": 5305,
      "Ġresidual": 5306,
      "Ġdiscl": 5307,
      "Ġions": 5308,
      "Ġexcellent": 5309,
      "rag": 5310,
      "Ġscler": 5311,
      "Ġestimate": 5312,
      "Ġqm": 5313,
      "itoneal": 5314,
      "ech": 5315,
      "Ġways": 5316,
      "Ġprefer": 5317,
      "50": 5318,
      "ille": 5319,
      "Ġconsecut": 5320,
      "ivalent": 5321,
      "Ġmoment": 5322,
      "Ġdescribe": 5323,
      "dose": 5324,
      "view": 5325,
      "ares": 5326,
      "ati": 5327,
      "Ġenrich": 5328,
      "Ġresidents": 5329,
      "Ġgt": 5330,
      "hu": 5331,
      "ulty": 5332,
      "Ġ199": 5333,
      "Ġmacrophages": 5334,
      "mal": 5335,
      "Ġmp": 5336,
      "Ġcolumn": 5337,
      "Ġcoverage": 5338,
      "yk": 5339,
      "Ġlv": 5340,
      "Ġmag": 5341,
      "Ġglass": 5342,
      "Ġoperating": 5343,
      "Ġeuropean": 5344,
      "treated": 5345,
      "rael": 5346,
      "Ġeasy": 5347,
      "Ġnov": 5348,
      "Ġdemand": 5349,
      "ferent": 5350,
      "Ġelectric": 5351,
      "ogenous": 5352,
      "lin": 5353,
      "Ġtan": 5354,
      "Ġhot": 5355,
      "Ġtele": 5356,
      "Ġemission": 5357,
      "rd": 5358,
      "flow": 5359,
      "ivatives": 5360,
      "Ġhypothesis": 5361,
      "odynamic": 5362,
      "Ġfo": 5363,
      "ocom": 5364,
      "Ġduct": 5365,
      "Ġefforts": 5366,
      "oglob": 5367,
      "Ġcollagen": 5368,
      "Ġuv": 5369,
      "Ġaneurys": 5370,
      "Ġdual": 5371,
      "Ġcompare": 5372,
      "Ġzhu": 5373,
      "Ġaccessed": 5374,
      "Ġidentifying": 5375,
      "Ġtions": 5376,
      "Ġexcluded": 5377,
      "Ġreached": 5378,
      "Ġextended": 5379,
      "Ġfailed": 5380,
      "ensus": 5381,
      "Ġintegration": 5382,
      "ocarcin": 5383,
      "Ġpig": 5384,
      "Ġcomputational": 5385,
      "Ġreliability": 5386,
      "Ġrheum": 5387,
      "mer": 5388,
      "sis": 5389,
      "ĠRuss": 5390,
      "ylation": 5391,
      "Ġintroduced": 5392,
      "Ġsaw": 5393,
      "And": 5394,
      "Ġtwenty": 5395,
      "Ġpeptides": 5396,
      "Ġvaluable": 5397,
      "There": 5398,
      "vert": 5399,
      "Ġprofile": 5400,
      "Ġtal": 5401,
      "Ġmi": 5402,
      "Ġaging": 5403,
      "Ġendocr": 5404,
      "band": 5405,
      "Ġfatty": 5406,
      "illation": 5407,
      "ender": 5408,
      "...": 5409,
      "itect": 5410,
      "Ġspecificity": 5411,
      "ĠWhen": 5412,
      "Ġinstance": 5413,
      "Ġban": 5414,
      "Ġquix": 5415,
      "Ġinfusion": 5416,
      "Ġtheoret": 5417,
      "Ġrich": 5418,
      "11": 5419,
      "Ġillness": 5420,
      "Ġcn": 5421,
      "Ġdos": 5422,
      "Ġstrongly": 5423,
      "isons": 5424,
      "Ġtp": 5425,
      "ologically": 5426,
      "Ġnod": 5427,
      "Ġcontribution": 5428,
      "Ġgm": 5429,
      "Ġqkm": 5430,
      "Ġappeared": 5431,
      "Ġvelocity": 5432,
      "Ġplanning": 5433,
      "atically": 5434,
      "Ġenzymes": 5435,
      "Ġsurge": 5436,
      "oxy": 5437,
      "Ġinjuries": 5438,
      "Ġguide": 5439,
      "Ġoxide": 5440,
      "Ġgal": 5441,
      "how": 5442,
      "Ġren": 5443,
      "Ġuses": 5444,
      "Ġcompan": 5445,
      "struct": 5446,
      "heng": 5447,
      "Ġranging": 5448,
      "Ġfetal": 5449,
      "Ġstay": 5450,
      "Ġenab": 5451,
      "Ġcrystall": 5452,
      "Ġscheme": 5453,
      "Ġprinting": 5454,
      "Ġadequ": 5455,
      "Ġru": 5456,
      "Ġvirt": 5457,
      "Ġsong": 5458,
      "ague": 5459,
      "Ġovarian": 5460,
      "Ġrd": 5461,
      "hn": 5462,
      "ĠObama": 5463,
      "Ġperme": 5464,
      "iotics": 5465,
      "Ġstudent": 5466,
      "Ġgrowing": 5467,
      "Ġconstruction": 5468,
      "Ġclean": 5469,
      "Ġpractical": 5470,
      "Ġquixote": 5471,
      "Ġendomet": 5472,
      "Ġurinary": 5473,
      "Ġhab": 5474,
      "Ġtumour": 5475,
      "Ġtechnologies": 5476,
      "Ġemphas": 5477,
      "coming": 5478,
      "Ġassociations": 5479,
      "hington": 5480,
      "Ġimpairment": 5481,
      "Ġ=": 5482,
      "etry": 5483,
      "ads": 5484,
      "Ġdegrees": 5485,
      "Ġhundred": 5486,
      "Ġimag": 5487,
      "Ġdomains": 5488,
      "Ġreplacement": 5489,
      "Ġsow": 5490,
      "Ġmn": 5491,
      "Ġprobe": 5492,
      "Ġlam": 5493,
      "Ġerr": 5494,
      "cil": 5495,
      "Ġds": 5496,
      "ĠPl": 5497,
      "Ġbladder": 5498,
      "Ġworks": 5499,
      "Ġmetastases": 5500,
      "Ġconference": 5501,
      "ipal": 5502,
      "Ġfigures": 5503,
      "Ġadvance": 5504,
      "Ġcard": 5505,
      "ĠOr": 5506,
      "RE": 5507,
      "cycl": 5508,
      "Ġharm": 5509,
      "inding": 5510,
      "Ġatm": 5511,
      "Ġtravel": 5512,
      "Ġfamilies": 5513,
      "reme": 5514,
      "Ġcast": 5515,
      "Ġdeposition": 5516,
      "Ġelectrical": 5517,
      "Ġuncertain": 5518,
      "noun": 5519,
      "Ġunknown": 5520,
      "Ġfixed": 5521,
      "gs": 5522,
      "Ġfish": 5523,
      "Ġmaintenance": 5524,
      "Ġinvasive": 5525,
      "Ġsets": 5526,
      "Ġaj": 5527,
      "Ġangioplasty": 5528,
      "Ġdup": 5529,
      "sec": 5530,
      "Ġbehavioral": 5531,
      "Ġafrica": 5532,
      "Ġsort": 5533,
      "Ġclosely": 5534,
      "ya": 5535,
      "Ġantic": 5536,
      "Ġyt": 5537,
      "Ġobservations": 5538,
      "Ġprotect": 5539,
      "iao": 5540,
      "Ġcoal": 5541,
      "Ġantioxid": 5542,
      "kro": 5543,
      "Ġreasons": 5544,
      "iment": 5545,
      "Ġje": 5546,
      "Ġratios": 5547,
      "aceutical": 5548,
      "urance": 5549,
      "Ġdistal": 5550,
      "Ġdefects": 5551,
      "Ġrecords": 5552,
      "Ġnac": 5553,
      "Ġhit": 5554,
      "aker": 5555,
      "ĠAll": 5556,
      "bit": 5557,
      "regulated": 5558,
      "Ġpredominant": 5559,
      "Ġperspective": 5560,
      "Ġexplained": 5561,
      "Ġcomparable": 5562,
      "Ġreconstruction": 5563,
      "Ġrehabil": 5564,
      "Ġpackage": 5565,
      "Ġiee": 5566,
      "Ġseparate": 5567,
      "inton": 5568,
      "Ġmorb": 5569,
      "Ġprolonged": 5570,
      "ĠCom": 5571,
      "Ġnal": 5572,
      "Ġdead": 5573,
      "Ġconsecutive": 5574,
      "Ġcommercial": 5575,
      "Ġdepict": 5576,
      "ging": 5577,
      "asks": 5578,
      "abor": 5579,
      "Ġoffers": 5580,
      "omers": 5581,
      "ĠSte": 5582,
      "Ġieee": 5583,
      "Ġsaying": 5584,
      "angl": 5585,
      "Ġpredicting": 5586,
      "Ġgave": 5587,
      "Ġestimates": 5588,
      "Ġdoct": 5589,
      "Ġheavy": 5590,
      "Ġactual": 5591,
      "Ġlowest": 5592,
      "where": 5593,
      "Ġdement": 5594,
      "Ġonto": 5595,
      "Ġdisplay": 5596,
      "Ġnecrosis": 5597,
      "Ġinterface": 5598,
      "Ġpeer": 5599,
      "Ġanything": 5600,
      "Ġirrad": 5601,
      "Ġphysic": 5602,
      "itary": 5603,
      "Ġparas": 5604,
      "iations": 5605,
      "inger": 5606,
      "Ġtechnical": 5607,
      "Ġtrying": 5608,
      "Ġagricult": 5609,
      "usive": 5610,
      "Ġbenign": 5611,
      "atch": 5612,
      "Ġincome": 5613,
      "Ġauc": 5614,
      "Ġcsf": 5615,
      "Ġtree": 5616,
      "cast": 5617,
      "Ġpool": 5618,
      "Ġlooking": 5619,
      "zk": 5620,
      "Ġannual": 5621,
      "ĠCol": 5622,
      "ovsk": 5623,
      "Ġaddressed": 5624,
      "Ġconclude": 5625,
      "Ġultra": 5626,
      "Ġcrystal": 5627,
      "vious": 5628,
      "Ġadvantage": 5629,
      "Ġadhes": 5630,
      "ĠPresident": 5631,
      "Ġmapping": 5632,
      "lt": 5633,
      "ported": 5634,
      "Ġexplain": 5635,
      "cons": 5636,
      "chang": 5637,
      "awa": 5638,
      "Ġdelayed": 5639,
      "Ġplatelet": 5640,
      "Ġasc": 5641,
      "plasia": 5642,
      "Ġuser": 5643,
      "Ġcycles": 5644,
      "icular": 5645,
      "hs": 5646,
      "Ġfresh": 5647,
      "Ġlc": 5648,
      "Ġsancho": 5649,
      "ĠOn": 5650,
      "hesia": 5651,
      "Ġmmol": 5652,
      "vic": 5653,
      "Ġmamm": 5654,
      "print": 5655,
      "Ġtrzt": 5656,
      "Ġcapture": 5657,
      "Ġfederal": 5658,
      "Ġrunning": 5659,
      "Ġdie": 5660,
      "Ġgenerate": 5661,
      "Ġmembranes": 5662,
      "Ġconversion": 5663,
      "Ġfire": 5664,
      "Ġnumerous": 5665,
      "Ġbehaviors": 5666,
      "Ġskills": 5667,
      "Ġpurch": 5668,
      "gel": 5669,
      "Ġsuitable": 5670,
      "Ġlegal": 5671,
      "Ġfn": 5672,
      "Ġham": 5673,
      "Ġln": 5674,
      "Ġfrequent": 5675,
      "Ġpossibility": 5676,
      "Ġhour": 5677,
      "Ġsinus": 5678,
      "Ġcourt": 5679,
      "imately": 5680,
      "Ġindepend": 5681,
      "ĠMc": 5682,
      "Ġlap": 5683,
      "Ġathe": 5684,
      "Ġcarotid": 5685,
      "erb": 5686,
      "Ġsoon": 5687,
      "Ġworth": 5688,
      "iliary": 5689,
      "Ġmotion": 5690,
      "Ġgradient": 5691,
      "enn": 5692,
      "Ġsomeone": 5693,
      "Ġsometimes": 5694,
      "aired": 5695,
      "Ġnf": 5696,
      "Ġreplic": 5697,
      "Ġhands": 5698,
      "Ġjur": 5699,
      "Ġforest": 5700,
      "Ġexpert": 5701,
      "Ġcomplement": 5702,
      "Ġsupply": 5703,
      "Ġcategories": 5704,
      "Ġls": 5705,
      "osin": 5706,
      "Ġassays": 5707,
      "Ġmount": 5708,
      "Ġexperiences": 5709,
      "Ġ2015": 5710,
      "icles": 5711,
      "Ġreferred": 5712,
      "Ġprem": 5713,
      "Ġallowing": 5714,
      "Ġvitamin": 5715,
      "Ġfif": 5716,
      "Ġnoise": 5717,
      "Ġserve": 5718,
      "month": 5719,
      "iate": 5720,
      "Ġinitiation": 5721,
      "Ġbiomed": 5722,
      "Ġfracture": 5723,
      "Ġvarying": 5724,
      "Ġpresents": 5725,
      "Ġ11": 5726,
      "Ġsmart": 5727,
      "Ġsatisfaction": 5728,
      "Ġaffili": 5729,
      "generation": 5730,
      "Ġfaculty": 5731,
      "Ġmicrobial": 5732,
      "atics": 5733,
      "umar": 5734,
      "Ġmentioned": 5735,
      "pler": 5736,
      "Ġaxis": 5737,
      "Ġcompleted": 5738,
      "Ġvisualization": 5739,
      "Ġthorac": 5740,
      "Ġheld": 5741,
      "Ġmos": 5742,
      "Ġfine": 5743,
      "het": 5744,
      "anned": 5745,
      "Ġtq": 5746,
      "Ġjanuary": 5747,
      "Ġiq": 5748,
      "Ġrepresented": 5749,
      "Ġreverse": 5750,
      "pol": 5751,
      "Ġabd": 5752,
      "ĠStates": 5753,
      "Ġvert": 5754,
      "taining": 5755,
      "Ġmaintained": 5756,
      "Ġannoun": 5757,
      "Ġgest": 5758,
      "Ġproc": 5759,
      "Ġseed": 5760,
      "Ġja": 5761,
      "aks": 5762,
      "Ġligand": 5763,
      "Ġwanted": 5764,
      "ault": 5765,
      "nat": 5766,
      "Ġuniform": 5767,
      "hea": 5768,
      "ita": 5769,
      "Ġnothing": 5770,
      "Ġarchitect": 5771,
      "Ġgon": 5772,
      "Ġpathology": 5773,
      "Ġoffice": 5774,
      "key": 5775,
      "field": 5776,
      "imicrob": 5777,
      "right": 5778,
      "zh": 5779,
      "Ġimmunotherapy": 5780,
      "Ġextracellular": 5781,
      "Ġpick": 5782,
      "Ġbed": 5783,
      "yo": 5784,
      "Ġconcerns": 5785,
      "Ġshared": 5786,
      "ĠSen": 5787,
      "Ġmodule": 5788,
      "Ġsimulations": 5789,
      "Ġpf": 5790,
      "ooth": 5791,
      "Ġcoc": 5792,
      "Ġhope": 5793,
      "Ġsubs": 5794,
      "Ġphoto": 5795,
      "Ġforces": 5796,
      "Ġdecreases": 5797,
      "Ġpositions": 5798,
      "19": 5799,
      "Ġger": 5800,
      "Ġintake": 5801,
      "requ": 5802,
      "ordance": 5803,
      "Ġradio": 5804,
      "ication": 5805,
      "Ġmodern": 5806,
      "Ġdetermination": 5807,
      "Ġdeclar": 5808,
      "Ġpil": 5809,
      "ado": 5810,
      "Ġtransient": 5811,
      "Ġclassified": 5812,
      "from": 5813,
      "iforn": 5814,
      "Ġvision": 5815,
      "Ġcorrelations": 5816,
      "Ġmening": 5817,
      "ĠNo": 5818,
      "Ġplasm": 5819,
      "Ġcortex": 5820,
      "Ġtor": 5821,
      "Ġopin": 5822,
      "Ġpreserv": 5823,
      "Ġtakes": 5824,
      "Ġreduces": 5825,
      "Ġned": 5826,
      "omat": 5827,
      "ami": 5828,
      "Ġeasily": 5829,
      "Ġacademic": 5830,
      "Ġpure": 5831,
      "Ġknee": 5832,
      "Ġoptions": 5833,
      "Ġpractices": 5834,
      "Ġparen": 5835,
      "Ġfarm": 5836,
      "Ġapopt": 5837,
      "Ġinterpretation": 5838,
      "Ġdermat": 5839,
      "ying": 5840,
      "Ġresource": 5841,
      "amous": 5842,
      "hene": 5843,
      "Ġantimicrob": 5844,
      "Ġcausing": 5845,
      "Ġkinase": 5846,
      "renal": 5847,
      "Ġneutroph": 5848,
      "Ġ&": 5849,
      "Ġadherence": 5850,
      "Ġcirrh": 5851,
      "Ġrr": 5852,
      "Ġloading": 5853,
      "Ġreserv": 5854,
      "Ġassessing": 5855,
      "AT": 5856,
      "oder": 5857,
      "perform": 5858,
      "Ġflo": 5859,
      "lets": 5860,
      "Ġethn": 5861,
      "Ġalgorithms": 5862,
      "Ġmedial": 5863,
      "Ġcham": 5864,
      "ĠOne": 5865,
      "Ġdischarge": 5866,
      "hl": 5867,
      "Ġsv": 5868,
      "Ġraw": 5869,
      "Ġfold": 5870,
      "Ġpolymers": 5871,
      "rant": 5872,
      "Ġestimation": 5873,
      "Ġcavity": 5874,
      "neg": 5875,
      "Ġigg": 5876,
      "ĠPro": 5877,
      "Ġepisodes": 5878,
      "Ġmeaning": 5879,
      "Ġsand": 5880,
      "Ġmorphology": 5881,
      "Ġarthritis": 5882,
      "Ġ#": 5883,
      "raine": 5884,
      "erman": 5885,
      "ames": 5886,
      "ho": 5887,
      "sectional": 5888,
      "Ġimpl": 5889,
      "Ġcg": 5890,
      "Ġchanged": 5891,
      "Ġconsequently": 5892,
      "Ġprogressive": 5893,
      "Ġtf": 5894,
      "Ġfluor": 5895,
      "St": 5896,
      "but": 5897,
      "Ġlimb": 5898,
      "Ġenrichment": 5899,
      "rocy": 5900,
      "Ġsimply": 5901,
      "ker": 5902,
      "Ġvessel": 5903,
      "onucle": 5904,
      "Ġfear": 5905,
      "cephal": 5906,
      "Ġsuppress": 5907,
      "Ġdisplayed": 5908,
      "Ġfisher": 5909,
      "Ġfair": 5910,
      "Ġhaem": 5911,
      "Ġantagon": 5912,
      "ifornia": 5913,
      "Ġparalle": 5914,
      "Ġoverlap": 5915,
      "Ġcoming": 5916,
      "stein": 5917,
      "Ġcomparisons": 5918,
      "Ġtmt": 5919,
      "Ġreveals": 5920,
      "ider": 5921,
      "Ġtri": 5922,
      "Ġjiang": 5923,
      "Ġbarrier": 5924,
      "Ġsynthesized": 5925,
      "pcr": 5926,
      "Ġvot": 5927,
      "ER": 5928,
      "Ġsf": 5929,
      "Ġifn": 5930,
      "Ġgun": 5931,
      "Ġij": 5932,
      "ĠComm": 5933,
      "ĠMr": 5934,
      "Ġphysicians": 5935,
      "while": 5936,
      "//": 5937,
      "30": 5938,
      "Ġvar": 5939,
      "Ġdro": 5940,
      "Ġobstruction": 5941,
      "Ġfist": 5942,
      "Ġemp": 5943,
      "Ġmilitary": 5944,
      "Ġtherapies": 5945,
      "Ġtrztqtm": 5946,
      "Ġcool": 5947,
      "Ġcytotox": 5948,
      "Ġtube": 5949,
      "Ġpathogenesis": 5950,
      "Ġsituation": 5951,
      "agement": 5952,
      "Ġadapted": 5953,
      "ĠDemocr": 5954,
      "Ġhf": 5955,
      "Ġquite": 5956,
      "Ġbecomes": 5957,
      "Ġwet": 5958,
      "Ġcompanies": 5959,
      "Ġseps": 5960,
      "Ġarrow": 5961,
      "ceed": 5962,
      "Ġrights": 5963,
      "Ġscanning": 5964,
      "Ġalterations": 5965,
      "Ġemotional": 5966,
      "health": 5967,
      "Ġforeign": 5968,
      "Ġnervous": 5969,
      "qqo": 5970,
      "Ġdiabetic": 5971,
      "Ġpandemic": 5972,
      "Ġ]": 5973,
      "Ġdrain": 5974,
      "itudinal": 5975,
      "Ġice": 5976,
      "Ġ2016": 5977,
      "Ġsynthetic": 5978,
      "Ġappearance": 5979,
      "Ġaimed": 5980,
      "Ġnation": 5981,
      "Ġtheoretical": 5982,
      "Ġadolesc": 5983,
      "ola": 5984,
      "Ġadvances": 5985,
      "Ġneph": 5986,
      "zen": 5987,
      "osen": 5988,
      "Ġrg": 5989,
      "Ġsurpr": 5990,
      "Ġnr": 5991,
      "cha": 5992,
      "Ġdepending": 5993,
      "mk": 5994,
      "Ġsout": 5995,
      "rosp": 5996,
      "Ġequation": 5997,
      "Ġmarrow": 5998,
      "Ġfragment": 5999,
      "Ġprecip": 6000,
      "Ġaffecting": 6001,
      "Ġfz": 6002,
      "Ġmediated": 6003,
      "Ġsufficient": 6004,
      "Ġfro": 6005,
      "Ġantibiotics": 6006,
      "regulation": 6007,
      "Ġsizes": 6008,
      "kzr": 6009,
      "Ġcomparative": 6010,
      "state": 6011,
      "Ġexpans": 6012,
      "toz": 6013,
      "Ġsudden": 6014,
      "ĠEurope": 6015,
      "Ġmissing": 6016,
      "Ġmorbidity": 6017,
      "Ġinduce": 6018,
      "Ġfc": 6019,
      "Ġelectroc": 6020,
      "Ġconnect": 6021,
      "12": 6022,
      "vest": 6023,
      "Ġisn": 6024,
      "Ġbor": 6025,
      "umor": 6026,
      "Ġfibrosis": 6027,
      "Ġcoupling": 6028,
      "opic": 6029,
      "Ġfriends": 6030,
      "Ġreplication": 6031,
      "Ġkh": 6032,
      "Ġqtz": 6033,
      "Ġrelig": 6034,
      "Ġperiods": 6035,
      "Ġdecline": 6036,
      "Ġaffects": 6037,
      "Ġarab": 6038,
      "Ġhm": 6039,
      "Ġfluorescence": 6040,
      "Ġmetabolites": 6041,
      "Ġprin": 6042,
      "Ã©": 6043,
      "Ġchi": 6044,
      "Ġbile": 6045,
      "oked": 6046,
      "Ġantibiotic": 6047,
      "ken": 6048,
      "emy": 6049,
      "pic": 6050,
      "Ġdiscrim": 6051,
      "Ġsokw": 6052,
      "Ġnmr": 6053,
      "Ġprecision": 6054,
      "aled": 6055,
      "Ġgenomic": 6056,
      "dict": 6057,
      "Ġfusion": 6058,
      "Ġdb": 6059,
      "Ġleave": 6060,
      "Ġshap": 6061,
      "Ġvariant": 6062,
      "Ġlymphoma": 6063,
      "Ġfalse": 6064,
      "cler": 6065,
      "'ve": 6066,
      "Ġperceived": 6067,
      "Ġevaluating": 6068,
      "Ġventil": 6069,
      "Ġtolerance": 6070,
      "Ġhall": 6071,
      "Ġfeas": 6072,
      "ĠX": 6073,
      "idal": 6074,
      "Ġbios": 6075,
      "Ġdisturb": 6076,
      "Ġappend": 6077,
      "Ġbatter": 6078,
      "Ġbranch": 6079,
      "You": 6080,
      "Ġton": 6081,
      "ocial": 6082,
      "Ġhence": 6083,
      "Ġedge": 6084,
      "iph": 6085,
      "azole": 6086,
      "ower": 6087,
      "Ġones": 6088,
      "Ġcomplication": 6089,
      "Ġperfusion": 6090,
      "Ġconsensus": 6091,
      "Ġ:": 6092,
      "Ġhop": 6093,
      "Ġstms": 6094,
      "ĠUniversity": 6095,
      "Ġtach": 6096,
      "Ġtznt": 6097,
      "Ġspectroscopy": 6098,
      "Ġaltered": 6099,
      "Ġheterogeneity": 6100,
      "ĠWhat": 6101,
      "Ġtt": 6102,
      "ĠSc": 6103,
      "erexp": 6104,
      "Ġpotent": 6105,
      "Ġlearn": 6106,
      "po": 6107,
      "Ġencour": 6108,
      "scs": 6109,
      "patient": 6110,
      "Ġethical": 6111,
      "Ġexchange": 6112,
      "cranial": 6113,
      "Ġcong": 6114,
      "acet": 6115,
      "Ġdriving": 6116,
      "Ġoperations": 6117,
      "Ġcircul": 6118,
      "itus": 6119,
      "Ġ30": 6120,
      "tra": 6121,
      "15": 6122,
      "rif": 6123,
      "Ġvill": 6124,
      "coma": 6125,
      "Ġmeasuring": 6126,
      "Ġelectroly": 6127,
      "unch": 6128,
      "Ġrequirements": 6129,
      "Ġthank": 6130,
      "ience": 6131,
      "Ġultimately": 6132,
      "Ġpopular": 6133,
      "Ġrapidly": 6134,
      "Ġadenocarcin": 6135,
      "Ġbron": 6136,
      "Ġrural": 6137,
      "ĠHouse": 6138,
      "Ġexamine": 6139,
      "Ġendothelial": 6140,
      "Ġinclusion": 6141,
      "Ġlargest": 6142,
      "Ġran": 6143,
      "Ġsalt": 6144,
      "Ġsmooth": 6145,
      "Ġidentity": 6146,
      "Ġmember": 6147,
      "Ġinvasion": 6148,
      "cks": 6149,
      "ĠJohn": 6150,
      "Ġeverything": 6151,
      "ĠNational": 6152,
      "Ġsepsis": 6153,
      "Ġmanner": 6154,
      "mm": 6155,
      "atur": 6156,
      "Ġsb": 6157,
      "amide": 6158,
      "Ġpict": 6159,
      "Ġadsorption": 6160,
      "Ġintelligence": 6161,
      "Ġwarm": 6162,
      "Ġcomment": 6163,
      "ocatal": 6164,
      "Ġmetrics": 6165,
      "ians": 6166,
      "Ġfile": 6167,
      "Ġclosed": 6168,
      "Ġembol": 6169,
      "Ġprivate": 6170,
      "Ġfran": 6171,
      "isted": 6172,
      "Ġshif": 6173,
      "Ġcompr": 6174,
      "Ġplane": 6175,
      "Ġroutine": 6176,
      "Ġhcc": 6177,
      "Ġciv": 6178,
      "Ġsok": 6179,
      "Ġgenet": 6180,
      "Ġfever": 6181,
      "Ġconstructed": 6182,
      "Ġswe": 6183,
      "rium": 6184,
      "Ġprice": 6185,
      "Ġassembly": 6186,
      "Ġpairs": 6187,
      "Ġrf": 6188,
      "ellular": 6189,
      "Ġ16": 6190,
      "otrop": 6191,
      "ardia": 6192,
      "Ġbuilt": 6193,
      "Ġdocumented": 6194,
      "Ġoq": 6195,
      "Ġmitig": 6196,
      "aa": 6197,
      "Ġimmunity": 6198,
      "Ġtransformation": 6199,
      "Ġintervals": 6200,
      "Ġreliable": 6201,
      "Ġbeginning": 6202,
      "Ġrein": 6203,
      "gar": 6204,
      "kd": 6205,
      "Ġmkz": 6206,
      "plate": 6207,
      "Ġub": 6208,
      "Ġcos": 6209,
      "Ġphysiological": 6210,
      "Ġconstit": 6211,
      "oblast": 6212,
      "roscopic": 6213,
      "For": 6214,
      "Ġcod": 6215,
      "Ġcapital": 6216,
      "Ġeating": 6217,
      "Ġanc": 6218,
      "Ġammatory": 6219,
      "Ġprompt": 6220,
      "Ġvag": 6221,
      "Ġregen": 6222,
      "Ġrecognized": 6223,
      "iop": 6224,
      "Ġrig": 6225,
      "Ġstar": 6226,
      "Ġrefract": 6227,
      "Ġstandards": 6228,
      "burg": 6229,
      "Ġinfectious": 6230,
      "Ġsurfaces": 6231,
      "herent": 6232,
      "inflamm": 6233,
      "Ġpolymerase": 6234,
      "Ġbillion": 6235,
      "iber": 6236,
      "Ġsubstit": 6237,
      "rete": 6238,
      "Ġutilizing": 6239,
      "Ġtreating": 6240,
      "Ġbasal": 6241,
      "haps": 6242,
      "Ġsoq": 6243,
      "Ġaort": 6244,
      "Ġbic": 6245,
      "Ġsurrounding": 6246,
      "car": 6247,
      "Ġbreat": 6248,
      "Ġegf": 6249,
      "otomy": 6250,
      "ĠAt": 6251,
      "ĠState": 6252,
      "ihood": 6253,
      "Ġsummar": 6254,
      "Ġnort": 6255,
      "Ġdelay": 6256,
      "Ġolig": 6257,
      "Ġaver": 6258,
      "Ġpartners": 6259,
      "Ġesophageal": 6260,
      "Ġassigned": 6261,
      "ĠAss": 6262,
      "ochemistry": 6263,
      "rane": 6264,
      "Ġtechnol": 6265,
      "Ġcouns": 6266,
      "An": 6267,
      "ivated": 6268,
      "Ġadjacent": 6269,
      "Ġsupervision": 6270,
      "yp": 6271,
      "Ġbud": 6272,
      "elihood": 6273,
      "Ġobvious": 6274,
      "Ġmobile": 6275,
      "Ġproximal": 6276,
      "Ġexceeds": 6277,
      "Ġconceptualization": 6278,
      "ibular": 6279,
      "Ġadolescents": 6280,
      "estic": 6281,
      "illance": 6282,
      "okin": 6283,
      "Ġpneumonia": 6284,
      "Ġsuspected": 6285,
      "Ġdd": 6286,
      "Ġdiffusion": 6287,
      "ĠIsrael": 6288,
      "Ġfelt": 6289,
      "Ġattacks": 6290,
      "immune": 6291,
      "Ġintermediate": 6292,
      "oprotein": 6293,
      "alled": 6294,
      "iro": 6295,
      "Ġrecommendations": 6296,
      "class": 6297,
      "Ġimpacts": 6298,
      "Ġpersistent": 6299,
      "Ġprotective": 6300,
      "Ġholder": 6301,
      "oden": 6302,
      "Ġenrol": 6303,
      "Ġvisible": 6304,
      "Ġchallenging": 6305,
      "osynt": 6306,
      "icit": 6307,
      "Ġking": 6308,
      "Ġspok": 6309,
      "Ġdemographic": 6310,
      "Ġyounger": 6311,
      "Ġenhances": 6312,
      "Ġresidues": 6313,
      "Ġfacilitate": 6314,
      "ĠChrist": 6315,
      "Ġcandidate": 6316,
      "Ġfriend": 6317,
      "Ġword": 6318,
      "Ġhealing": 6319,
      "Ġlibrary": 6320,
      "Ġmast": 6321,
      "ĠTo": 6322,
      "ructive": 6323,
      "Ġimpaired": 6324,
      "Ġenhancement": 6325,
      "Ġaims": 6326,
      "ĠPol": 6327,
      "gly": 6328,
      "osal": 6329,
      "ohns": 6330,
      "Ġphenotype": 6331,
      "grade": 6332,
      "Ġnl": 6333,
      "ĠCo": 6334,
      "ifications": 6335,
      "Ġsaline": 6336,
      "wards": 6337,
      "Ġrk": 6338,
      "Ġhistor": 6339,
      "ago": 6340,
      "Ġcorrection": 6341,
      "Ġdementia": 6342,
      "Ġconfig": 6343,
      "Ġtwice": 6344,
      "Ġconcluded": 6345,
      "Ġquickly": 6346,
      "resist": 6347,
      "Ġneoplas": 6348,
      "Ġvariance": 6349,
      "Ġtuber": 6350,
      "Ġparticipate": 6351,
      "Ġtraits": 6352,
      "What": 6353,
      "Ġcit": 6354,
      "iling": 6355,
      "otal": 6356,
      "Ġlongitudinal": 6357,
      "Ġequivalent": 6358,
      "Ġprofessional": 6359,
      "nan": 6360,
      "Ġtasks": 6361,
      "Ġreper": 6362,
      "avid": 6363,
      "Ġuorescence": 6364,
      "Ġsymptomatic": 6365,
      "rie": 6366,
      "olysis": 6367,
      "Ġphil": 6368,
      "Ġsystolic": 6369,
      "Ġeb": 6370,
      "night": 6371,
      "ondon": 6372,
      "Ġsensory": 6373,
      "Ġneurological": 6374,
      "water": 6375,
      "Ġrepresentation": 6376,
      "Ġparkinson": 6377,
      "clinical": 6378,
      "Ġunders": 6379,
      "Ġpossess": 6380,
      "Ġtens": 6381,
      "Ġfir": 6382,
      "Ġinfluenced": 6383,
      "Ġdrink": 6384,
      "Ġphosphory": 6385,
      "Ġocclusion": 6386,
      "Ġtib": 6387,
      "ĠCon": 6388,
      "obic": 6389,
      "Ġsustained": 6390,
      "Ġ|": 6391,
      "Ġwors": 6392,
      "Ġram": 6393,
      "Ġtrained": 6394,
      "Ġepile": 6395,
      "Ġcontained": 6396,
      "Ġseparation": 6397,
      "Ġtip": 6398,
      "Ġcenters": 6399,
      "vironment": 6400,
      "Ġspectrom": 6401,
      "Ġtemperatures": 6402,
      "hr": 6403,
      "iac": 6404,
      "Ġleaf": 6405,
      "Ġimmunol": 6406,
      "Ġwil": 6407,
      "gt": 6408,
      "Ġengl": 6409,
      "Ġpromoting": 6410,
      "ĠMin": 6411,
      "Ġembry": 6412,
      "Ġabsolute": 6413,
      "Ġbrid": 6414,
      "Ġpregnant": 6415,
      "Ġviolence": 6416,
      "Ġmanufacture": 6417,
      "Ġabb": 6418,
      "new": 6419,
      "Ġfatigue": 6420,
      "resent": 6421,
      "estion": 6422,
      "Ġopening": 6423,
      "Ġplaying": 6424,
      "Ġsuppression": 6425,
      "Ġsuppl": 6426,
      "Ġtyo": 6427,
      "itudes": 6428,
      "acc": 6429,
      "ococcus": 6430,
      "Ġoncol": 6431,
      "Ġinternet": 6432,
      "Ġvaccination": 6433,
      "Ġbab": 6434,
      "Ġwebs": 6435,
      "ductive": 6436,
      "Ġchildhood": 6437,
      "Ġelectroph": 6438,
      "Ġbilateral": 6439,
      "Ġtrztqtmkz": 6440,
      "phthal": 6441,
      "Ġodds": 6442,
      "Ġdogs": 6443,
      "Ġvehicle": 6444,
      "oxyl": 6445,
      "Ġcentre": 6446,
      "Ġneonatal": 6447,
      "upp": 6448,
      "Ġmutant": 6449,
      "Ġanalyt": 6450,
      "Ġhypertensive": 6451,
      "ora": 6452,
      "kww": 6453,
      "Ġmitral": 6454,
      "Ġpromotes": 6455,
      "Ġparallel": 6456,
      "Ġcategory": 6457,
      "Ġfigs": 6458,
      "Ġprofiles": 6459,
      "ĠClinton": 6460,
      "Ġsubjected": 6461,
      "Ġexpansion": 6462,
      "Ġmu": 6463,
      "Ġparticipant": 6464,
      "cribed": 6465,
      "ĠDep": 6466,
      "Ġplayed": 6467,
      "Ġlocalization": 6468,
      "Ġcomplexes": 6469,
      "Ġfather": 6470,
      "Ġchance": 6471,
      "olytic": 6472,
      "ruary": 6473,
      "Ġpit": 6474,
      "using": 6475,
      "Ġkar": 6476,
      "Ġpsychiat": 6477,
      "'m": 6478,
      "lands": 6479,
      "Ġsole": 6480,
      "Ġremove": 6481,
      "Ġum": 6482,
      "ĠNorth": 6483,
      "anti": 6484,
      "On": 6485,
      "ĠSp": 6486,
      "Ġcommunities": 6487,
      "Ġverteb": 6488,
      "isp": 6489,
      "illa": 6490,
      "akers": 6491,
      "ĠBrit": 6492,
      "Ġindicators": 6493,
      "Ġtrust": 6494,
      "Ġcounts": 6495,
      "Ġplans": 6496,
      "Ġbiotechn": 6497,
      "Ġpowder": 6498,
      "Ġproperty": 6499,
      "Ġmeeting": 6500,
      "Ġindustrial": 6501,
      "adone": 6502,
      "Ġadding": 6503,
      "Ġsegmentation": 6504,
      "Ġsolvent": 6505,
      "inu": 6506,
      "utory": 6507,
      "Ġspent": 6508,
      "Ġreading": 6509,
      "Ġextension": 6510,
      "Ġbrown": 6511,
      "Ġ2014": 6512,
      "Ġchannels": 6513,
      "ethe": 6514,
      "Ġbeam": 6515,
      "Ġnormalized": 6516,
      "Ġbank": 6517,
      "Ġwithdra": 6518,
      "14": 6519,
      "Ġcomposite": 6520,
      "Ġsecretion": 6521,
      "Ġoccurring": 6522,
      "speci": 6523,
      "ĠSec": 6524,
      "ni": 6525,
      "Ġfan": 6526,
      "Ġexplored": 6527,
      "Ġprecise": 6528,
      "Ġpelvic": 6529,
      "Ġoqqom": 6530,
      "ohist": 6531,
      "Ġdivision": 6532,
      "Ġrheumat": 6533,
      "oud": 6534,
      "Ġthous": 6535,
      "ibration": 6536,
      "âĢĵ": 6537,
      "Ġpyl": 6538,
      "orea": 6539,
      "Ġmultic": 6540,
      "Ġdeficiency": 6541,
      "astolic": 6542,
      "Ġpossibly": 6543,
      "dm": 6544,
      "activity": 6545,
      "Ġmaintaining": 6546,
      "Ġetc": 6547,
      "Ġozn": 6548,
      "enia": 6549,
      "Ġplots": 6550,
      "Ġrandomly": 6551,
      "reet": 6552,
      "Ġmonit": 6553,
      "Ġferro": 6554,
      "Ġballoon": 6555,
      "enu": 6556,
      "Ġsports": 6557,
      "ez": 6558,
      "yal": 6559,
      "inform": 6560,
      "Ġdial": 6561,
      "Ġnad": 6562,
      "Ġatoms": 6563,
      "Ġaccurately": 6564,
      "Ġlaws": 6565,
      "Ġtau": 6566,
      "Ġerrors": 6567,
      "Ġfewer": 6568,
      "yan": 6569,
      "ycardia": 6570,
      "Ġlw": 6571,
      "Ġrice": 6572,
      "cyst": 6573,
      "Ġcaps": 6574,
      "Ġdemonstrates": 6575,
      "Ġveget": 6576,
      "Ġnarrow": 6577,
      "ON": 6578,
      "ĠWas": 6579,
      "Ġadvantages": 6580,
      "Ġactions": 6581,
      "Ġoverexp": 6582,
      "Ġartific": 6583,
      "Ġsurveillance": 6584,
      "AN": 6585,
      "ols": 6586,
      "Ġmostly": 6587,
      "Ġpathological": 6588,
      "gia": 6589,
      "Ġmoww": 6590,
      "Ġweb": 6591,
      "____": 6592,
      "itz": 6593,
      "Ġrect": 6594,
      "ĠWar": 6595,
      "Ġdrive": 6596,
      "Ġremark": 6597,
      "Ġemerging": 6598,
      "Ġabsorb": 6599,
      "Ġrehabilitation": 6600,
      "raz": 6601,
      "Ġrp": 6602,
      "Ġsquamous": 6603,
      "Ġofficials": 6604,
      "Ġchromat": 6605,
      "iter": 6606,
      "Ġrecip": 6607,
      "Ġthrombosis": 6608,
      "Ġbars": 6609,
      "osh": 6610,
      "Ġroz": 6611,
      "then": 6612,
      "Ġurine": 6613,
      "Ġdraw": 6614,
      "Ġconjug": 6615,
      "ser": 6616,
      "operatively": 6617,
      "Ġmodi": 6618,
      "Ġmelanoma": 6619,
      "IS": 6620,
      "Ġregist": 6621,
      "Ġozm": 6622,
      "Ġinsuff": 6623,
      "play": 6624,
      "Ġinsert": 6625,
      "16": 6626,
      "Ġstatutory": 6627,
      "Ġoperative": 6628,
      "Ġfb": 6629,
      "Ġhla": 6630,
      "Ġqi": 6631,
      "Ġcatalytic": 6632,
      "Ġantioxidant": 6633,
      "mia": 6634,
      "obacter": 6635,
      "Ġantimicrobial": 6636,
      "Ġjt": 6637,
      "Ġanswer": 6638,
      "pet": 6639,
      "iding": 6640,
      "Ġyellow": 6641,
      "Ġdefect": 6642,
      "ptomatic": 6643,
      "linear": 6644,
      "Ġgrid": 6645,
      "That": 6646,
      "Ġorientation": 6647,
      "vers": 6648,
      "Ġtmo": 6649,
      "Ġscr": 6650,
      "empor": 6651,
      "Ġreactive": 6652,
      "vs": 6653,
      "Ġanemia": 6654,
      "Ġtranslation": 6655,
      "Ġtag": 6656,
      "Ġaddiction": 6657,
      "types": 6658,
      "Ġimmediate": 6659,
      "Ġconcern": 6660,
      "Ġpulse": 6661,
      "Ġnons": 6662,
      "Ġarray": 6663,
      "max": 6664,
      "clear": 6665,
      "teen": 6666,
      "Ġrc": 6667,
      "uding": 6668,
      "Ġhaz": 6669,
      "ĠAmerica": 6670,
      "Ġcomorb": 6671,
      "Ġiqr": 6672,
      "ria": 6673,
      "Ġequally": 6674,
      "blast": 6675,
      "Ġatmosp": 6676,
      ".)": 6677,
      "Ġwest": 6678,
      "unk": 6679,
      "Ġdisap": 6680,
      "Ġlocations": 6681,
      "poses": 6682,
      "Ġmicrog": 6683,
      "Ġhous": 6684,
      "ĠWith": 6685,
      "were": 6686,
      "Ġhon": 6687,
      "Ġcrypt": 6688,
      "Ġprophyl": 6689,
      "amic": 6690,
      "velength": 6691,
      "riched": 6692,
      "Ġprospect": 6693,
      "17": 6694,
      "Ġundergo": 6695,
      "Ġqualitative": 6696,
      "Ġextremely": 6697,
      "illed": 6698,
      "Ġenvironments": 6699,
      "hum": 6700,
      "Ġkt": 6701,
      "Ġmodul": 6702,
      "Ġpartner": 6703,
      "ĠThese": 6704,
      "Ġfractures": 6705,
      "flu": 6706,
      "ĠSup": 6707,
      "Ġretention": 6708,
      "urch": 6709,
      "Ġves": 6710,
      "acher": 6711,
      "ĠCity": 6712,
      "Ġtrain": 6713,
      "ael": 6714,
      "Ġju": 6715,
      "Ġ14": 6716,
      "Ġneurop": 6717,
      "hydr": 6718,
      "Ġindeed": 6719,
      "posite": 6720,
      "negative": 6721,
      "Ġchosen": 6722,
      "Ġrepeat": 6723,
      "Ġopportunity": 6724,
      "Ġapoptosis": 6725,
      "Ġmf": 6726,
      "Ġsupple": 6727,
      "Ġcultures": 6728,
      "Ġyeast": 6729,
      "dy": 6730,
      "bert": 6731,
      "ciples": 6732,
      "Ġclon": 6733,
      "Ġnanos": 6734,
      "Ġisolates": 6735,
      "Ġgermany": 6736,
      "Ġhan": 6737,
      "rian": 6738,
      "Ġfemoral": 6739,
      "Ġnutrition": 6740,
      "Ġtob": 6741,
      "ustralia": 6742,
      "Ġdang": 6743,
      "Ġexamples": 6744,
      "Ġhair": 6745,
      "Ġsimulated": 6746,
      "Ġanalyze": 6747,
      "Ġasth": 6748,
      "Ġbol": 6749,
      "Ġintracellular": 6750,
      "Ġdf": 6751,
      "Ġea": 6752,
      "iltration": 6753,
      "Ġsir": 6754,
      "chol": 6755,
      "Ġoption": 6756,
      "Ġze": 6757,
      "Ġtrade": 6758,
      "IN": 6759,
      "osystem": 6760,
      "Ġhydrox": 6761,
      "onald": 6762,
      "Ġlikelihood": 6763,
      "iologic": 6764,
      "amental": 6765,
      "Ġborder": 6766,
      "Ġcomplexity": 6767,
      "aki": 6768,
      "Ġphyl": 6769,
      "Ġlargely": 6770,
      "Ġbodies": 6771,
      "Ġendoscopic": 6772,
      "has": 6773,
      "Ġlev": 6774,
      "ja": 6775,
      "Ġdur": 6776,
      "Ġpresenting": 6777,
      "Ġkept": 6778,
      "Ġmusic": 6779,
      "Ġheadache": 6780,
      "life": 6781,
      "ione": 6782,
      "Ġsea": 6783,
      "itin": 6784,
      "Ġmas": 6785,
      "Ġimmunohist": 6786,
      "Ġclassi": 6787,
      "stud": 6788,
      "Ġkzmo": 6789,
      "Ġbonds": 6790,
      "py": 6791,
      "Ġdominant": 6792,
      "Ġadmission": 6793,
      "ima": 6794,
      "this": 6795,
      "Ġcompression": 6796,
      "Ġworse": 6797,
      "ees": 6798,
      "adian": 6799,
      "Ġrabb": 6800,
      "Ġwtm": 6801,
      "Ġdex": 6802,
      "nea": 6803,
      "trs": 6804,
      "Ġwrong": 6805,
      "Ġoccas": 6806,
      "Ġpharmaceutical": 6807,
      "Ġtang": 6808,
      "ĠTw": 6809,
      "ogle": 6810,
      "Ġdoub": 6811,
      "Ġ13": 6812,
      "Ġpersons": 6813,
      "Ġwasn": 6814,
      "geal": 6815,
      "Ġcentrif": 6816,
      "Ġstret": 6817,
      "Ġamounts": 6818,
      "Ġbrought": 6819,
      "Ġnative": 6820,
      "Ġrules": 6821,
      "Ġplayer": 6822,
      "Ġhospitals": 6823,
      "oft": 6824,
      "Ġpercutaneous": 6825,
      "mail": 6826,
      "Ġlives": 6827,
      "Ġshot": 6828,
      "ocking": 6829,
      "Ġfacial": 6830,
      "Ġasymptomatic": 6831,
      "Ġpositively": 6832,
      "cn": 6833,
      "isa": 6834,
      "Ġdent": 6835,
      "Ġbiochemical": 6836,
      "Ġattenu": 6837,
      "Ġvalidated": 6838,
      "Ġpromoter": 6839,
      "Ġgiving": 6840,
      "Ġadip": 6841,
      "Ġisolation": 6842,
      "Ġportion": 6843,
      "Ġhorizon": 6844,
      "dna": 6845,
      "phase": 6846,
      "Ġlatter": 6847,
      "insic": 6848,
      "Ġdetermining": 6849,
      "phen": 6850,
      "vements": 6851,
      "Ġcongen": 6852,
      "stage": 6853,
      "Ġscans": 6854,
      "ĠJust": 6855,
      "AR": 6856,
      "Ġbac": 6857,
      "Ġdelet": 6858,
      "Ġbehaviour": 6859,
      "Ġvulner": 6860,
      "Ġpac": 6861,
      "Ġbigg": 6862,
      "ulum": 6863,
      "Ġperovsk": 6864,
      "Ġsold": 6865,
      "Ġrup": 6866,
      "Ġclar": 6867,
      "Ġcontinues": 6868,
      "Ġpn": 6869,
      "Ġcalculations": 6870,
      "cu": 6871,
      "rick": 6872,
      "Ġultr": 6873,
      "Ġworldwide": 6874,
      "Ġfoss": 6875,
      "asive": 6876,
      "Ġnu": 6877,
      "Ġincom": 6878,
      "Ġ17": 6879,
      "Ġconstra": 6880,
      "enz": 6881,
      "Ġcultured": 6882,
      "Ġshoot": 6883,
      "ously": 6884,
      "Ġadequate": 6885,
      "When": 6886,
      "Ġenco": 6887,
      "Ġwashed": 6888,
      "Ġamy": 6889,
      "Ġsusceptibility": 6890,
      "Ġembedd": 6891,
      "dictional": 6892,
      "char": 6893,
      "ows": 6894,
      "Ġportal": 6895,
      "cat": 6896,
      "Ġwit": 6897,
      "Ġhl": 6898,
      "etric": 6899,
      "Ġsta": 6900,
      "tained": 6901,
      "Ġimproves": 6902,
      "Ġretinal": 6903,
      "Ġlapa": 6904,
      "Ġmaster": 6905,
      "Ġintensive": 6906,
      "Ġlimits": 6907,
      "Ġwidth": 6908,
      "ĠCal": 6909,
      "Ġartificial": 6910,
      "Ad": 6911,
      "Ġincident": 6912,
      "Ġcorpor": 6913,
      "Ġprecurs": 6914,
      "ski": 6915,
      "Ġeventually": 6916,
      "Ġcum": 6917,
      "Ġrule": 6918,
      "Ġeveryone": 6919,
      "Ġmoving": 6920,
      "Ġcalculation": 6921,
      "Ġhearing": 6922,
      "Ġshr": 6923,
      "Ġacta": 6924,
      "ĠEd": 6925,
      "Ġbd": 6926,
      "Ġearth": 6927,
      "Ġturned": 6928,
      "Ġphenomenon": 6929,
      "Ġfields": 6930,
      "Ġmatch": 6931,
      "affold": 6932,
      "nk": 6933,
      "ti": 6934,
      "wa": 6935,
      "reas": 6936,
      "chym": 6937,
      "Ġmell": 6938,
      "ĠWorld": 6939,
      "Ġongoing": 6940,
      "Ġexhibits": 6941,
      "Ġupdate": 6942,
      "roscler": 6943,
      "fol": 6944,
      "oidal": 6945,
      "25": 6946,
      "abs": 6947,
      "ĠHowever": 6948,
      "Ġadenocarcinoma": 6949,
      "Ġfourth": 6950,
      "Ġuc": 6951,
      "Ġphases": 6952,
      "ãĤ": 6953,
      "Ġhousehold": 6954,
      "Ġhighlights": 6955,
      "Ġstrept": 6956,
      "sub": 6957,
      "Ġraised": 6958,
      "Ġvertical": 6959,
      "cap": 6960,
      "rose": 6961,
      "Ġmtk": 6962,
      "inflammatory": 6963,
      "Ġtg": 6964,
      "Ġdeple": 6965,
      "gements": 6966,
      "hai": 6967,
      "Ġrelax": 6968,
      "ogenetic": 6969,
      "Ġspeech": 6970,
      "Ġdirector": 6971,
      "Ġperfect": 6972,
      "Ġbis": 6973,
      "Ġwkz": 6974,
      "ometer": 6975,
      "Ġinjected": 6976,
      "Ġinstrument": 6977,
      "Ġbes": 6978,
      "astom": 6979,
      "ĠSch": 6980,
      "ĠMan": 6981,
      "Ġkb": 6982,
      "agg": 6983,
      "imensions": 6984,
      "Ġath": 6985,
      "Ġrequests": 6986,
      "atus": 6987,
      "Ġscaffold": 6988,
      "Ġsustainable": 6989,
      "Ġkq": 6990,
      "Ġatp": 6991,
      "Ġphone": 6992,
      "aryngeal": 6993,
      "Ġtrop": 6994,
      "Ġmethylation": 6995,
      "imm": 6996,
      "Ġvaried": 6997,
      "Ġconsequences": 6998,
      "Ġseizures": 6999,
      "reted": 7000,
      "Ġreviews": 7001,
      "Ġabundance": 7002,
      "Ġjuris": 7003,
      "Ġquad": 7004,
      "Ġpredictors": 7005,
      "Ġfert": 7006,
      "Ġstream": 7007,
      "Ġtd": 7008,
      "Ġconnected": 7009,
      "://": 7010,
      "alt": 7011,
      "ogens": 7012,
      "Ġshang": 7013,
      "Ġqo": 7014,
      "Ġmonocl": 7015,
      "Ġgland": 7016,
      "hemat": 7017,
      "Ġutilization": 7018,
      "Ġcirculation": 7019,
      "igible": 7020,
      "Ġattract": 7021,
      "Ġapplicable": 7022,
      "binding": 7023,
      "Ġplastic": 7024,
      "Ġexplan": 7025,
      "Ġamplitude": 7026,
      "hc": 7027,
      "Ġsor": 7028,
      "Ġrating": 7029,
      "Ġinterfer": 7030,
      "Ġmicrobiol": 7031,
      "Ġdoppler": 7032,
      "Ġphosphate": 7033,
      "iton": 7034,
      "Ġdn": 7035,
      "Ġdistress": 7036,
      "Ġblot": 7037,
      "Ġrecombinant": 7038,
      "Ġconsists": 7039,
      "Ġdecades": 7040,
      "Ġsilic": 7041,
      "Ġfault": 7042,
      "So": 7043,
      "ji": 7044,
      "Ġlumb": 7045,
      "Ġrequiring": 7046,
      "Ġlabeled": 7047,
      "treatment": 7048,
      "Ġlith": 7049,
      "olip": 7050,
      "Ġsuic": 7051,
      "Ġunclear": 7052,
      "that": 7053,
      "Ġplates": 7054,
      "Ġcreating": 7055,
      "Ġstead": 7056,
      "ocellular": 7057,
      "antic": 7058,
      "Ġtnoz": 7059,
      "bc": 7060,
      "wave": 7061,
      "Ġscat": 7062,
      "Ġdiscovered": 7063,
      "Ġpassed": 7064,
      "Ġcheng": 7065,
      "Ġviability": 7066,
      "Ġasthma": 7067,
      "environment": 7068,
      "aka": 7069,
      "Ġsymmet": 7070,
      "Ġconsistently": 7071,
      "Ġpolarization": 7072,
      "Ġsimultaneously": 7073,
      "dep": 7074,
      "ycl": 7075,
      "Ġterminal": 7076,
      "Ġdiagram": 7077,
      "acco": 7078,
      "Ġconvolution": 7079,
      "rous": 7080,
      "ohnson": 7081,
      "ucid": 7082,
      "Ġhypoxia": 7083,
      "Ġphysician": 7084,
      "Ġindirect": 7085,
      "Ġirradiation": 7086,
      "Ġfibers": 7087,
      "Ġmultid": 7088,
      "Ġnursing": 7089,
      "Ġleak": 7090,
      "angi": 7091,
      "Ġstrat": 7092,
      "nia": 7093,
      "Ġcally": 7094,
      "Ġytz": 7095,
      "Ġmoz": 7096,
      "Ġcited": 7097,
      "Ġmalaria": 7098,
      "Ġseparated": 7099,
      "Ġwavelength": 7100,
      "ologous": 7101,
      "Ġanten": 7102,
      "Ġclasses": 7103,
      "which": 7104,
      "Ġatheroscler": 7105,
      "ĠEx": 7106,
      "ancet": 7107,
      "Ġbelieved": 7108,
      "queous": 7109,
      "Ġcirrhosis": 7110,
      "alian": 7111,
      "ellar": 7112,
      "Ġelectrodes": 7113,
      "patients": 7114,
      "'ll": 7115,
      "Ġblind": 7116,
      "Ġranged": 7117,
      "==": 7118,
      "ses": 7119,
      "leuk": 7120,
      "Ġzw": 7121,
      "Ġfundamental": 7122,
      "Ġacknowledgements": 7123,
      "ĠWashington": 7124,
      "Ġtown": 7125,
      "Ġstrict": 7126,
      "Ġsquare": 7127,
      "high": 7128,
      "Ġrevised": 7129,
      "Ġserved": 7130,
      "Ġprinciples": 7131,
      "ociation": 7132,
      "Ġmilk": 7133,
      "Ġoi": 7134,
      "Ġtrig": 7135,
      "Ġupdated": 7136,
      "Ġscenarios": 7137,
      "Ġneither": 7138,
      "Ġarrhythm": 7139,
      "Ġtour": 7140,
      "Ġheard": 7141,
      "Ġbronch": 7142,
      "ito": 7143,
      "Ġrepresenting": 7144,
      "Ġfibr": 7145,
      "Ġmicroscope": 7146,
      "Ġincubation": 7147,
      "Ġ/": 7148,
      "Ġcx": 7149,
      "Ġrough": 7150,
      "Ġinstruct": 7151,
      "18": 7152,
      "Ġrelief": 7153,
      "Ġextreme": 7154,
      "Ġanyone": 7155,
      "lik": 7156,
      "Ġlr": 7157,
      "Ġoptimized": 7158,
      "Ġlogistic": 7159,
      "Ġevident": 7160,
      "Ġdip": 7161,
      "ctu": 7162,
      "ester": 7163,
      "anine": 7164,
      "Ġzheng": 7165,
      "ccording": 7166,
      "osity": 7167,
      "Ġaccordance": 7168,
      "Ġchanging": 7169,
      "theless": 7170,
      "Ġstraight": 7171,
      "bil": 7172,
      "Ġpin": 7173,
      "Ġwok": 7174,
      "ologists": 7175,
      "Ġdiarr": 7176,
      "Ġspot": 7177,
      "Ġoutl": 7178,
      "Ġ2012": 7179,
      "Ġtransferred": 7180,
      "Ġkilled": 7181,
      "ycin": 7182,
      "ĠÂ": 7183,
      "Ġgrap": 7184,
      "Ġpromin": 7185,
      "Ġinvestigations": 7186,
      "Ġfrequencies": 7187,
      "Ġclearance": 7188,
      "Ġnotch": 7189,
      "orescent": 7190,
      "fig": 7191,
      "har": 7192,
      "Ġwi": 7193,
      "Ġdimensions": 7194,
      "opathic": 7195,
      "current": 7196,
      "Ġwalking": 7197,
      "Ġcoupled": 7198,
      "Ġinsurance": 7199,
      "ius": 7200,
      "Ġriver": 7201,
      "cm": 7202,
      "Ġregardless": 7203,
      "Ġnerves": 7204,
      "cious": 7205,
      "Ġdecided": 7206,
      "Ġanastom": 7207,
      "values": 7208,
      "Ġcircuit": 7209,
      "Ġpermeability": 7210,
      "Ġcha": 7211,
      "Ġarchitecture": 7212,
      "azine": 7213,
      "Ġsav": 7214,
      "Ġpolicies": 7215,
      "Ġexcessive": 7216,
      "Ġnto": 7217,
      "utive": 7218,
      "actic": 7219,
      "Ġhypoth": 7220,
      "Ġachieving": 7221,
      "Ġpreventing": 7222,
      "inine": 7223,
      "Ġanomal": 7224,
      "Ġ25": 7225,
      "Ġentry": 7226,
      "Ġideal": 7227,
      "gra": 7228,
      "Ġpron": 7229,
      "ĠBar": 7230,
      "Ġdemonstrating": 7231,
      "Ġbarriers": 7232,
      "Wh": 7233,
      "Ġlos": 7234,
      "umber": 7235,
      "phrine": 7236,
      "omical": 7237,
      "appro": 7238,
      "def": 7239,
      "Ġkyo": 7240,
      "Ġechocardiography": 7241,
      "Ġprovince": 7242,
      "Ġmultivariate": 7243,
      "mitt": 7244,
      "Ġophthal": 7245,
      "Ġsubtypes": 7246,
      "ĠMar": 7247,
      "Ġdecisions": 7248,
      "Ġ2013": 7249,
      "ĠAfter": 7250,
      "Ġpredominantly": 7251,
      "Ġ100": 7252,
      "Ġformula": 7253,
      "Ġtzmw": 7254,
      "Ġnav": 7255,
      "Ġrn": 7256,
      "Ġresus": 7257,
      "Ġsoo": 7258,
      "Ġloop": 7259,
      "aly": 7260,
      "Ġenable": 7261,
      "Ġguo": 7262,
      "Ġviruses": 7263,
      "Ġbeneficial": 7264,
      "Ġtruth": 7265,
      "Ġrelapse": 7266,
      "Ġparticipation": 7267,
      "ijing": 7268,
      "Ġunderst": 7269,
      "Ġnewly": 7270,
      "Ġexploration": 7271,
      "Ġflag": 7272,
      "Ġnucleus": 7273,
      "controlled": 7274,
      "Ġyork": 7275,
      "ĠMus": 7276,
      "Ġreb": 7277,
      "Ġleaves": 7278,
      "Ġconsult": 7279,
      "13": 7280,
      "Ġcontributing": 7281,
      "Ġhypothes": 7282,
      "Ġworked": 7283,
      "lip": 7284,
      "Ġreality": 7285,
      "Ġsegments": 7286,
      "Ġjun": 7287,
      "Ġmigraine": 7288,
      "Ġdimension": 7289,
      "ook": 7290,
      "oted": 7291,
      "fered": 7292,
      "joy": 7293,
      "ifi": 7294,
      "Ġrub": 7295,
      "Ġequipment": 7296,
      "Ġery": 7297,
      "riage": 7298,
      "Ġprojects": 7299,
      "Ġaid": 7300,
      "Ġjm": 7301,
      "Ġensuring": 7302,
      "Ġcongenital": 7303,
      "Ġidentical": 7304,
      "Ġprotocols": 7305,
      "Ġprofession": 7306,
      "ref": 7307,
      "Ġotz": 7308,
      "being": 7309,
      "rophic": 7310,
      "Ġbulk": 7311,
      "ĠIm": 7312,
      "Ġmethadone": 7313,
      "Ġcuration": 7314,
      "rig": 7315,
      "Ġmun": 7316,
      "Ġht": 7317,
      "Ġcapable": 7318,
      "Ġneuronal": 7319,
      "Ġbenz": 7320,
      "pen": 7321,
      "ichael": 7322,
      "Ġspine": 7323,
      "Ġvalidity": 7324,
      "Ġlegis": 7325,
      "ĠDepartment": 7326,
      "Ġaqueous": 7327,
      "ĠPart": 7328,
      "Ġclustering": 7329,
      "Ġont": 7330,
      "Ġeducational": 7331,
      "Ġcentrifug": 7332,
      "nc": 7333,
      "Ġcrow": 7334,
      "alities": 7335,
      "Ġangiography": 7336,
      "Ġpollution": 7337,
      "Ġrozo": 7338,
      "Ġagreed": 7339,
      "Ġcytokines": 7340,
      "Ġyy": 7341,
      "ander": 7342,
      "Ġcurr": 7343,
      "Ġunus": 7344,
      "Ġmodulation": 7345,
      "Ġinvolve": 7346,
      "factory": 7347,
      "Ġaggressive": 7348,
      "Ġcamera": 7349,
      "Ġenables": 7350,
      "Ġmorning": 7351,
      "yroidism": 7352,
      "Ġgives": 7353,
      "Ġproviders": 7354,
      "Ġcouple": 7355,
      "Ġgradually": 7356,
      "Ġcompens": 7357,
      "Ġagon": 7358,
      "Ġethanol": 7359,
      "rastruct": 7360,
      "Ġthoracic": 7361,
      "Ġchamber": 7362,
      "uy": 7363,
      "Ġstored": 7364,
      "aint": 7365,
      "Ġmovements": 7366,
      "Ġsouthern": 7367,
      "rey": 7368,
      "Ġorb": 7369,
      "Ġbiomarker": 7370,
      "Ġfw": 7371,
      "Ġnotable": 7372,
      "ĠFran": 7373,
      "Ġannot": 7374,
      "BC": 7375,
      "Ġket": 7376,
      "Ġprelim": 7377,
      "illi": 7378,
      "ressing": 7379,
      "Ġdistribut": 7380,
      "Ġhepatocellular": 7381,
      "anda": 7382,
      "Ġspectral": 7383,
      "Ġviews": 7384,
      "Ġgar": 7385,
      "izer": 7386,
      "ĠHis": 7387,
      "Ġarticles": 7388,
      "Ġlandsc": 7389,
      "asm": 7390,
      "Ġtraject": 7391,
      "Ġautoimmune": 7392,
      "ectors": 7393,
      "Ġblocks": 7394,
      "Ġproceed": 7395,
      "Ġinhibitory": 7396,
      "pi": 7397,
      "Ġfru": 7398,
      "icard": 7399,
      "osine": 7400,
      "ptosis": 7401,
      "Ġemissions": 7402,
      "Ġmagnitude": 7403,
      "Ġvz": 7404,
      "Ġmanage": 7405,
      "Ġhistological": 7406,
      "Ġdependence": 7407,
      "Ġreasonable": 7408,
      "Ġprincipal": 7409,
      "Ġtel": 7410,
      "opo": 7411,
      "Ġletter": 7412,
      "ifies": 7413,
      "oped": 7414,
      "Ġjuly": 7415,
      "Ġadaptive": 7416,
      "Ġcab": 7417,
      "process": 7418,
      "Ġregimen": 7419,
      "ega": 7420,
      "Ġpylori": 7421,
      "AS": 7422,
      "Ġauton": 7423,
      "Ġbelong": 7424,
      "Ġfragments": 7425,
      "Ġiniti": 7426,
      "Ġboost": 7427,
      "Ġadaptation": 7428,
      "Ġmys": 7429,
      "Ġsubun": 7430,
      "Ġvolum": 7431,
      "Ġsimilarity": 7432,
      "Ġ...": 7433,
      "Ġrectal": 7434,
      "Ġdiastolic": 7435,
      "How": 7436,
      "ograms": 7437,
      "Ġperhaps": 7438,
      "Ġdriven": 7439,
      "Ġpretty": 7440,
      "target": 7441,
      "Ġnn": 7442,
      "cience": 7443,
      "Ġphotocatal": 7444,
      "Ġpropag": 7445,
      "Ġsigma": 7446,
      "Ġaccompan": 7447,
      "pot": 7448,
      "Ġshorter": 7449,
      "Ġpathophys": 7450,
      "Ġresistant": 7451,
      "Ġnamed": 7452,
      "poc": 7453,
      "uan": 7454,
      "ensities": 7455,
      "Ġanalges": 7456,
      "urally": 7457,
      "Ġscenario": 7458,
      "Ġsession": 7459,
      "Ġdia": 7460,
      "Ġhepar": 7461,
      "Ġort": 7462,
      "Ġpreferred": 7463,
      "Ġlancet": 7464,
      "illus": 7465,
      "Ġbiof": 7466,
      "Ġoctober": 7467,
      "Ġawareness": 7468,
      "oo": 7469,
      "elled": 7470,
      "pril": 7471,
      "Ġdimin": 7472,
      "istan": 7473,
      "achment": 7474,
      "Ġhistologic": 7475,
      "Ġaugust": 7476,
      "Ġomt": 7477,
      "ocytic": 7478,
      "tail": 7479,
      "Ġburn": 7480,
      "Ġntzr": 7481,
      "Ġvital": 7482,
      "dehy": 7483,
      "Ġ50": 7484,
      "resistant": 7485,
      "Ġfaster": 7486,
      "Ġinsp": 7487,
      "Ġsupports": 7488,
      "Ġskz": 7489,
      "Ġnps": 7490,
      "Ġammation": 7491,
      "iva": 7492,
      "Ġpowerful": 7493,
      "Ġteams": 7494,
      "Ġsummer": 7495,
      "Ġtachycardia": 7496,
      "Ġstere": 7497,
      "een": 7498,
      "rance": 7499,
      "Ġmanip": 7500,
      "Ġaggregation": 7501,
      "Ġrecruit": 7502,
      "Ġstom": 7503,
      "Ġgb": 7504,
      "Ġrepr": 7505,
      "Ġelucid": 7506,
      "Ġradiotherapy": 7507,
      "Ġcad": 7508,
      "Ġwol": 7509,
      "Ġlag": 7510,
      "Ġlocalized": 7511,
      "Ġultrason": 7512,
      "Ġpu": 7513,
      "Ġlib": 7514,
      "Ġresident": 7515,
      "Ġgoals": 7516,
      "Ġhydroph": 7517,
      "Ġwear": 7518,
      "Ġnovember": 7519,
      "Ġmonoclonal": 7520,
      "tem": 7521,
      "Ġmarch": 7522,
      "Ġdepends": 7523,
      "roblast": 7524,
      "Ġadhesion": 7525,
      "Ġgranul": 7526,
      "ala": 7527,
      "uled": 7528,
      "ricular": 7529,
      "Ġreag": 7530,
      "Ġhind": 7531,
      "ulative": 7532,
      "Ġki": 7533,
      "Ġperman": 7534,
      "Ġsubt": 7535,
      "Ġdosage": 7536,
      "larg": 7537,
      "Ġkap": 7538,
      "Ġsion": 7539,
      "Ġdas": 7540,
      "Ġlar": 7541,
      "Ġdescription": 7542,
      "Ġgoes": 7543,
      "Ġopportunities": 7544,
      "just": 7545,
      "Ġdram": 7546,
      "ĠDo": 7547,
      "ĠGe": 7548,
      "Ġselectivity": 7549,
      "uz": 7550,
      "Ġplex": 7551,
      "Ġhole": 7552,
      "Ġfocal": 7553,
      "Ġcovered": 7554,
      "riday": 7555,
      "ĠWest": 7556,
      "Ġcareer": 7557,
      "hg": 7558,
      "Ġveter": 7559,
      "Ġevol": 7560,
      "Ġfavorable": 7561,
      "Ġvl": 7562,
      "Ġpolymorph": 7563,
      "Ġreperfusion": 7564,
      "Ġcities": 7565,
      "edom": 7566,
      "Ġhelps": 7567,
      "Ġderivatives": 7568,
      "Ġlob": 7569,
      "Ġindices": 7570,
      "Ġimplemented": 7571,
      "Ġindependently": 7572,
      "phosph": 7573,
      "oustic": 7574,
      "ĠOct": 7575,
      "Ġgrown": 7576,
      "itory": 7577,
      "Ġpubmed": 7578,
      "mt": 7579,
      "Ġjr": 7580,
      "ĠJune": 7581,
      "Ġfilms": 7582,
      "pre": 7583,
      "ulatory": 7584,
      "Ġcomposed": 7585,
      "Ġsuperf": 7586,
      "Ġheparin": 7587,
      "map": 7588,
      "Ġhus": 7589,
      "acebook": 7590,
      "Ġseptember": 7591,
      "kr": 7592,
      "Ġteaching": 7593,
      "Ġmanaged": 7594,
      "oglobin": 7595,
      "ube": 7596,
      "Ġshen": 7597,
      "Ġenriched": 7598,
      "Ġanch": 7599,
      "through": 7600,
      "Ġmodes": 7601,
      "Ġmicros": 7602,
      "Ġuntreated": 7603,
      "Ġbag": 7604,
      "acial": 7605,
      "Ġbrand": 7606,
      "Ġelection": 7607,
      "Ġconnection": 7608,
      "Ġtert": 7609,
      "Ġdors": 7610,
      "avage": 7611,
      "Ġhorizontal": 7612,
      "Ġoffered": 7613,
      "Ġoverview": 7614,
      "Ġhappened": 7615,
      "Ġpilot": 7616,
      "ĠNews": 7617,
      "Ġmicrobiota": 7618,
      "Ġcortical": 7619,
      "eper": 7620,
      "Ġtyt": 7621,
      "igu": 7622,
      "Ġneuron": 7623,
      "invasive": 7624,
      "ilateral": 7625,
      "Ġdeliver": 7626,
      "Ġcivil": 7627,
      "ĠChina": 7628,
      "Ġhelped": 7629,
      "Ġltd": 7630,
      "Ġcandidates": 7631,
      "ger": 7632,
      "Ġsubmitted": 7633,
      "Ġmaximal": 7634,
      "Ġgli": 7635,
      "Ġdirected": 7636,
      "Ġreturned": 7637,
      "dh": 7638,
      "Ġhur": 7639,
      "Ġedema": 7640,
      "Al": 7641,
      "olym": 7642,
      "Ġinfiltration": 7643,
      "Ġdissection": 7644,
      "mar": 7645,
      "Ġcentury": 7646,
      "Ġcombining": 7647,
      "Ġlatest": 7648,
      "ny": 7649,
      "uria": 7650,
      "Ġcanal": 7651,
      "Ġuncom": 7652,
      "ughter": 7653,
      "ht": 7654,
      "rate": 7655,
      "asticity": 7656,
      "Ġfacility": 7657,
      "Ġlisted": 7658,
      "Ġiran": 7659,
      "Ġcarcinomas": 7660,
      "Ġknew": 7661,
      "Ġperovskite": 7662,
      "Ġsj": 7663,
      "Ġntqqo": 7664,
      "Ġlens": 7665,
      "Ġameric": 7666,
      "Ġthinking": 7667,
      "vol": 7668,
      "Ġ24": 7669,
      "roid": 7670,
      "Ġpenet": 7671,
      "Ġdiarrhea": 7672,
      "ĠTe": 7673,
      "Ġutility": 7674,
      "Ġpsychiatry": 7675,
      "Ġfs": 7676,
      "Ġeast": 7677,
      "pept": 7678,
      "Ġovernight": 7679,
      "Ġfilter": 7680,
      "Ġneurology": 7681,
      "Ġexpressing": 7682,
      "Ġdox": 7683,
      "Ġshoulder": 7684,
      "Ġstandardized": 7685,
      "Ġswitch": 7686,
      "onym": 7687,
      "Ġmst": 7688,
      "Ġmist": 7689,
      "Ġstated": 7690,
      "Ġanalysed": 7691,
      "Ġillustrated": 7692,
      "carb": 7693,
      "Ġshall": 7694,
      "Ġfiber": 7695,
      "Ġredox": 7696,
      "Ġdetecting": 7697,
      "Ġgamma": 7698,
      "Ġiso": 7699,
      "sch": 7700,
      "Ġdesc": 7701,
      "Ġintracranial": 7702,
      "Ġmotif": 7703,
      "Ġprinted": 7704,
      "mental": 7705,
      "illin": 7706,
      "Ġny": 7707,
      "Ġnasal": 7708,
      "cis": 7709,
      "Ġgram": 7710,
      "Ġmodification": 7711,
      "Ġorganizations": 7712,
      "jo": 7713,
      "Ġadmitted": 7714,
      "Ġalkal": 7715,
      "aken": 7716,
      "zhou": 7717,
      "ĠApril": 7718,
      "Ġalignment": 7719,
      "Ġanesthesia": 7720,
      "Ġboy": 7721,
      "Ġstock": 7722,
      "Ġkmm": 7723,
      "yer": 7724,
      "Ġbon": 7725,
      "Ġbay": 7726,
      "amb": 7727,
      "Ġapply": 7728,
      "forcement": 7729,
      "Ġpts": 7730,
      "ĠMarch": 7731,
      "Ġduoden": 7732,
      "Ġhighlighted": 7733,
      "Ġpreliminary": 7734,
      "Ġstained": 7735,
      "Ġker": 7736,
      "Ġimmunos": 7737,
      "Ġesophag": 7738,
      "Ġmucosal": 7739,
      "Ġbranches": 7740,
      "Ġmad": 7741,
      "Ġnoz": 7742,
      "Ġasymmet": 7743,
      "udi": 7744,
      "onday": 7745,
      "Ġconsisted": 7746,
      "wood": 7747,
      "rovers": 7748,
      "ville": 7749,
      "Ġnucleotide": 7750,
      "ĠWhite": 7751,
      "Ġwebsite": 7752,
      "sup": 7753,
      "kzt": 7754,
      "gc": 7755,
      "anes": 7756,
      "cean": 7757,
      "Ġassessments": 7758,
      "pathetic": 7759,
      "Ġweights": 7760,
      "rex": 7761,
      "anth": 7762,
      "Ġcox": 7763,
      "Ġnumer": 7764,
      "Ġorgans": 7765,
      "Ġsensing": 7766,
      "ĠSouth": 7767,
      "Ġpartially": 7768,
      "Ġimprovements": 7769,
      "Ġchromatin": 7770,
      "Ġincreasingly": 7771,
      "vascular": 7772,
      "ests": 7773,
      "Ġmyc": 7774,
      "Ġcrim": 7775,
      "Ġmanufacturing": 7776,
      "Ġmellitus": 7777,
      "ostasis": 7778,
      "Ġapplying": 7779,
      "II": 7780,
      "sen": 7781,
      "ourt": 7782,
      "ĠSept": 7783,
      "methyl": 7784,
      "Ġcath": 7785,
      "Ġgao": 7786,
      "ogly": 7787,
      "Ġinfarct": 7788,
      "Ġign": 7789,
      "Ġvote": 7790,
      "Ġfungal": 7791,
      "Ġrespondents": 7792,
      "Ġmonitored": 7793,
      "Ġchip": 7794,
      "lux": 7795,
      "Ġelevation": 7796,
      "Ġsemi": 7797,
      "Ġhighlighting": 7798,
      "ding": 7799,
      "zer": 7800,
      "Ġoutbre": 7801,
      "Ġcontrolling": 7802,
      "Ġbioinform": 7803,
      "Ġwood": 7804,
      "chlor": 7805,
      "Ġprocessed": 7806,
      "Ġregulating": 7807,
      "oscopy": 7808,
      "Ġcirculating": 7809,
      "Ġroute": 7810,
      "avirus": 7811,
      "Ġcompliance": 7812,
      "Ġdefinition": 7813,
      "Ġsick": 7814,
      "ologist": 7815,
      "Ġobl": 7816,
      "Ġmassive": 7817,
      "Ġoffering": 7818,
      "pon": 7819,
      "Ġrpm": 7820,
      "Ġamyloid": 7821,
      "ĠPa": 7822,
      "exist": 7823,
      "Ġdrainage": 7824,
      "Ġtong": 7825,
      "Ġanova": 7826,
      "aden": 7827,
      "Ġsched": 7828,
      "Ġile": 7829,
      "Ġoncology": 7830,
      "Ġpredictions": 7831,
      "Ġdeclared": 7832,
      "oir": 7833,
      "Ġperfor": 7834,
      "Ġsel": 7835,
      "week": 7836,
      "Ġdiffuse": 7837,
      "Ġstation": 7838,
      "earing": 7839,
      "Ġagency": 7840,
      "ozyg": 7841,
      "Ġaccompanied": 7842,
      "kes": 7843,
      "press": 7844,
      "inephrine": 7845,
      "Ġtried": 7846,
      "Ġjk": 7847,
      "ukary": 7848,
      "sens": 7849,
      "Ġosc": 7850,
      "Ġdh": 7851,
      "Ġinfant": 7852,
      "ubic": 7853,
      "Ġdefense": 7854,
      "Ġcopper": 7855,
      "Ġanalytical": 7856,
      "van": 7857,
      "Ġrom": 7858,
      "Ġras": 7859,
      "ĠNov": 7860,
      "Ġsubstances": 7861,
      "Ġarrang": 7862,
      "Ġcontributes": 7863,
      "Ġschools": 7864,
      "linked": 7865,
      "layer": 7866,
      "Ġunable": 7867,
      "Ġages": 7868,
      "Ġinterleuk": 7869,
      "Ġattached": 7870,
      "conomic": 7871,
      "containing": 7872,
      "Ġaneurysm": 7873,
      "making": 7874,
      "ifferent": 7875,
      "cemia": 7876,
      "Ġvirtual": 7877,
      "Ġbiliary": 7878,
      "Ġindicator": 7879,
      "Ġstrugg": 7880,
      "Ġcharged": 7881,
      "Ġinhibited": 7882,
      "Ġ2017": 7883,
      "40": 7884,
      "Ġnb": 7885,
      "Ġperitoneal": 7886,
      "Ġnevertheless": 7887,
      "Ġaddressing": 7888,
      "Ġfibrillation": 7889,
      "Ġoms": 7890,
      "izumab": 7891,
      "Ġenjoy": 7892,
      "Ġneurode": 7893,
      "Ġcontra": 7894,
      "Ġintegrity": 7895,
      "ĠTwitter": 7896,
      "Ġmj": 7897,
      "Ġextens": 7898,
      "Ġfd": 7899,
      "Ġattribut": 7900,
      "Ġperspect": 7901,
      "Ġ2011": 7902,
      "Ġsotz": 7903,
      "gin": 7904,
      "phone": 7905,
      "Ġik": 7906,
      "ĠSy": 7907,
      "ĠGu": 7908,
      "Ġpaid": 7909,
      "Ġpsychiatric": 7910,
      "Ġnutritional": 7911,
      "Ġasian": 7912,
      "Ġunf": 7913,
      "Ġretrie": 7914,
      "Ġlymphocytes": 7915,
      "Ġheterogeneous": 7916,
      "Ġwel": 7917,
      "Ġcomments": 7918,
      "rench": 7919,
      "ĠGod": 7920,
      "Ġnutrient": 7921,
      "Ġsteel": 7922,
      "Ġeukary": 7923,
      "Ġgd": 7924,
      "ĠStreet": 7925,
      "Ġinduces": 7926,
      "Ġcatalysts": 7927,
      "osynthesis": 7928,
      "Ġbru": 7929,
      "Ġinterestingly": 7930,
      "Ġnorthern": 7931,
      "**": 7932,
      "icks": 7933,
      "Ġthou": 7934,
      "Ġsche": 7935,
      "ĠAct": 7936,
      "ĠPe": 7937,
      "Ġcausal": 7938,
      "Ġeconomy": 7939,
      "Ġcartil": 7940,
      "Ġenabling": 7941,
      "stable": 7942,
      "ĠIntern": 7943,
      "Ġassistance": 7944,
      "cine": 7945,
      "igare": 7946,
      "Ġexac": 7947,
      "Ġpert": 7948,
      "Ġcloud": 7949,
      "Ġdevelopmental": 7950,
      "Ġslope": 7951,
      "Ġcomputing": 7952,
      "panic": 7953,
      "Ġgirl": 7954,
      "Ġchole": 7955,
      "ropy": 7956,
      "Ġairway": 7957,
      "Ġitem": 7958,
      "ĠCong": 7959,
      "Ġsurviv": 7960,
      "Ġgp": 7961,
      "Ġnotes": 7962,
      "aterials": 7963,
      "Ġremission": 7964,
      "Ġproducing": 7965,
      "Ġcontrovers": 7966,
      "Ġjurisdictional": 7967,
      "Ġroll": 7968,
      "Ġfollic": 7969,
      "Ġnatl": 7970,
      "Ġmoral": 7971,
      "pocamp": 7972,
      "after": 7973,
      "driven": 7974,
      "Ġhappen": 7975,
      "Ġsessions": 7976,
      "ilic": 7977,
      "Ġshell": 7978,
      "Ġia": 7979,
      "Ġdw": 7980,
      "Ġenerg": 7981,
      "Ġfasting": 7982,
      "atum": 7983,
      "Ġclim": 7984,
      "Ġboundary": 7985,
      "Ġcomprom": 7986,
      "noncommercial": 7987,
      "ÂŃ": 7988,
      "Ġbands": 7989,
      "ificant": 7990,
      "Ġcalculate": 7991,
      "Ġ198": 7992,
      "Ġtubercul": 7993,
      "lwo": 7994,
      "ird": 7995,
      "Ġcustom": 7996,
      "Ġcardiomy": 7997,
      "Ġquanti": 7998,
      "Ġgyne": 7999,
      "Ġperforming": 8000,
      "Ġimmunology": 8001,
      "Ġexploring": 8002,
      "box": 8003,
      "nis": 8004,
      "Ġpara": 8005,
      "Ġabbrev": 8006,
      "mb": 8007,
      "Ġdiscont": 8008,
      "Ġkinetics": 8009,
      "Ġcacy": 8010,
      "ulose": 8011,
      "iled": 8012,
      "Ġyon": 8013,
      "Ġremote": 8014,
      "Ġskele": 8015,
      "Ġleader": 8016,
      "Ġhemodynamic": 8017,
      "Ġagricultural": 8018,
      "Ġunusual": 8019,
      "Ġborn": 8020,
      "uty": 8021,
      "Ġidi": 8022,
      "Ġperception": 8023,
      "Ġcrisis": 8024,
      "arant": 8025,
      "Ġlov": 8026,
      "Ġadrenal": 8027,
      "Ġintact": 8028,
      "Ġagree": 8029,
      "ĠFriday": 8030,
      "orial": 8031,
      "Ġdeng": 8032,
      "Ġveins": 8033,
      "Ġmanufacturer": 8034,
      "Ġskeletal": 8035,
      "Ġadvoc": 8036,
      "Ġcutaneous": 8037,
      "Ġneighb": 8038,
      "ctomy": 8039,
      "Ġempt": 8040,
      "Ġproved": 8041,
      "Ġwatch": 8042,
      "Ġtitle": 8043,
      "Ġeryth": 8044,
      "oli": 8045,
      "Ġdelta": 8046,
      "Ġpharmacol": 8047,
      "squ": 8048,
      "Ġae": 8049,
      "Ġremod": 8050,
      "Ġrespective": 8051,
      "Ġcaptured": 8052,
      "pin": 8053,
      "Ġpeg": 8054,
      "Ġabscess": 8055,
      "hydroxy": 8056,
      "Ġaorta": 8057,
      "oad": 8058,
      "Ġeditor": 8059,
      "yzed": 8060,
      "ypt": 8061,
      "reported": 8062,
      "Ġfeeding": 8063,
      "Ġseconds": 8064,
      "Ġmacrophage": 8065,
      "Ġexacerb": 8066,
      "They": 8067,
      "Ġfocusing": 8068,
      "organic": 8069,
      "aur": 8070,
      "ryst": 8071,
      "Ġsensors": 8072,
      "Ġguidance": 8073,
      "Ġligament": 8074,
      "Ġhex": 8075,
      "ource": 8076,
      "ĠGen": 8077,
      "Ġdetermin": 8078,
      "qt": 8079,
      "wan": 8080,
      "ears": 8081,
      "Ġsynerg": 8082,
      "Ġexclusion": 8083,
      "Ġmanifestations": 8084,
      "Ġannounced": 8085,
      "resolution": 8086,
      "ĠAp": 8087,
      "ĠAug": 8088,
      "Ġquarter": 8089,
      "ĠPr": 8090,
      "Ġregulate": 8091,
      "Ġmouth": 8092,
      "Ġhuge": 8093,
      "Ġconform": 8094,
      "vance": 8095,
      "Ġtight": 8096,
      "Ġcomfort": 8097,
      "ested": 8098,
      "ean": 8099,
      "Ġtension": 8100,
      "Ġpore": 8101,
      "Ġscal": 8102,
      "Ġcann": 8103,
      "ĠJuly": 8104,
      "Ġcultural": 8105,
      "Ġgraphene": 8106,
      "Ġgse": 8107,
      "Ġchief": 8108,
      "Ġfacilities": 8109,
      "loaded": 8110,
      "Ġinterleukin": 8111,
      ">>": 8112,
      "house": 8113,
      "Ġpix": 8114,
      "aped": 8115,
      "Ġarms": 8116,
      "Ġfeb": 8117,
      "Ġtyk": 8118,
      "Ġmatched": 8119,
      "mc": 8120,
      "pread": 8121,
      "urface": 8122,
      "igens": 8123,
      "Ġclub": 8124,
      "Ġhistopath": 8125,
      "Ġfort": 8126,
      "ĠRepublican": 8127,
      "dehyde": 8128,
      "Ġstomach": 8129,
      "Ġarom": 8130,
      "earch": 8131,
      "Ġdonor": 8132,
      "Ġconservative": 8133,
      "electric": 8134,
      "Ġaffiliations": 8135,
      "ĠMonday": 8136,
      "Ġflav": 8137,
      "eto": 8138,
      "Ġhyd": 8139,
      "ytm": 8140,
      "Ġthirty": 8141,
      "Ġlumbar": 8142,
      "Ġdistributions": 8143,
      "99": 8144,
      "fc": 8145,
      "Ġegg": 8146,
      "Ġtracking": 8147,
      "mut": 8148,
      "Ġwal": 8149,
      "compass": 8150,
      "Ġprobes": 8151,
      "Ġtetra": 8152,
      "Ġinner": 8153,
      "Ġnegatively": 8154,
      "Ġsubstrates": 8155,
      "Ġreligious": 8156,
      "Ġofthe": 8157,
      "Ġresol": 8158,
      "Ġanth": 8159,
      "Ġangina": 8160,
      "Ġemerged": 8161,
      "itant": 8162,
      "ounced": 8163,
      "Ġconversely": 8164,
      "Ġvin": 8165,
      "Ġstronger": 8166,
      "Ġtobacco": 8167,
      "Ġcup": 8168,
      "ilar": 8169,
      "Ġshi": 8170,
      "Ġacts": 8171,
      "Ġxi": 8172,
      "ilm": 8173,
      "Ġadm": 8174,
      "Ġshunt": 8175,
      "Ġrecall": 8176,
      "Ġafford": 8177,
      "Ġamin": 8178,
      "Ġclinicians": 8179,
      "ĠDr": 8180,
      "Ġlooked": 8181,
      "Ġendometri": 8182,
      "Ġcial": 8183,
      "tzk": 8184,
      "Ġbuy": 8185,
      "Ġaqu": 8186,
      "Ġjune": 8187,
      "ĠOff": 8188,
      "inates": 8189,
      "agulation": 8190,
      "Ġsequential": 8191,
      "................................": 8192,
      "Ġfirm": 8193,
      "woz": 8194,
      "Ġdelivered": 8195,
      "Ġranges": 8196,
      "Ġdepicted": 8197,
      "Ġkumar": 8198,
      "angle": 8199,
      "ĠSm": 8200,
      "ava": 8201,
      "Ġcyp": 8202,
      "Ġrestriction": 8203,
      "Ġship": 8204,
      "Ġdecreasing": 8205,
      "orous": 8206,
      "Ġhear": 8207,
      "Ġintrinsic": 8208,
      "Ġepidemiology": 8209,
      "meth": 8210,
      "Ġcumulative": 8211,
      "Ġprominent": 8212,
      "Ġcolitis": 8213,
      "idespread": 8214,
      "Ġgod": 8215,
      "Ġgab": 8216,
      "Ġcomplicated": 8217,
      "Ġegfr": 8218,
      "Ġowo": 8219,
      "Ġpump": 8220,
      "esophageal": 8221,
      "Ġbeijing": 8222,
      "Ġcanada": 8223,
      "Ġobjects": 8224,
      "Ġtive": 8225,
      "Ġwond": 8226,
      "prof": 8227,
      "Ġconsisting": 8228,
      "Ġafrican": 8229,
      "Ġunderstood": 8230,
      "Ġtrib": 8231,
      "Ġammon": 8232,
      "\".": 8233,
      "Ġjc": 8234,
      "Ġsupernat": 8235,
      "Ġrarely": 8236,
      "oplastic": 8237,
      "Ġstimuli": 8238,
      "Ġdele": 8239,
      "Ġspan": 8240,
      "Ġinstitutions": 8241,
      "oton": 8242,
      "agues": 8243,
      "Ġresolved": 8244,
      "Ġdisplacement": 8245,
      "Ġneurologic": 8246,
      "70": 8247,
      "Ġ)": 8248,
      "Ġmtkw": 8249,
      "Ġseemed": 8250,
      "inating": 8251,
      "Ġunlike": 8252,
      "iley": 8253,
      "Ġlandscape": 8254,
      "Ġminute": 8255,
      "Ġdental": 8256,
      "ĠRes": 8257,
      "ĠCanada": 8258,
      "Ġsteady": 8259,
      "Ġrid": 8260,
      "Ġatom": 8261,
      "Ġcoating": 8262,
      "Ġvaccines": 8263,
      "Ġreactivity": 8264,
      "Ch": 8265,
      "Ġtgf": 8266,
      "Ġpus": 8267,
      "ortion": 8268,
      "blind": 8269,
      "Ġpear": 8270,
      "Ġeosin": 8271,
      "Ġlifest": 8272,
      "rontal": 8273,
      "Ġmucosa": 8274,
      "Ġtables": 8275,
      "Ġoa": 8276,
      "Ġdisability": 8277,
      "Ġnucleic": 8278,
      "iny": 8279,
      "Ġsad": 8280,
      "Ġbelief": 8281,
      "Ġcriminal": 8282,
      "Ġtumours": 8283,
      "genic": 8284,
      "gluc": 8285,
      "Ġrestricted": 8286,
      "uses": 8287,
      "Ġlatt": 8288,
      "Ġretin": 8289,
      "Ġvacu": 8290,
      "Ġfet": 8291,
      "rost": 8292,
      "soft": 8293,
      "ĠFacebook": 8294,
      "Ġmoved": 8295,
      "Ġmalignancy": 8296,
      "vertis": 8297,
      "det": 8298,
      "Ġsant": 8299,
      "otrans": 8300,
      "estive": 8301,
      "illing": 8302,
      "Ġmeat": 8303,
      "Ġintraoperative": 8304,
      "unday": 8305,
      "Ġsid": 8306,
      "Ġthanks": 8307,
      "Ġpathogens": 8308,
      "Ġdye": 8309,
      "erine": 8310,
      "Ġmkw": 8311,
      "Ġrational": 8312,
      "Ġcarrier": 8313,
      "Ġphosphat": 8314,
      "ĠWhile": 8315,
      "Ġwidespread": 8316,
      "quality": 8317,
      "Ġcollabor": 8318,
      "Ġaffinity": 8319,
      "Ġgreatest": 8320,
      "Ġgray": 8321,
      "22": 8322,
      "bar": 8323,
      "cale": 8324,
      "Ġgets": 8325,
      "Ġbeat": 8326,
      "Ġvoice": 8327,
      "Ġchains": 8328,
      "api": 8329,
      "ĠFeb": 8330,
      "Ġhippocamp": 8331,
      "orge": 8332,
      "Ġfibroblast": 8333,
      "Ġrotation": 8334,
      "Ġepisode": 8335,
      "Ġgfp": 8336,
      "Ġstack": 8337,
      "Ġroc": 8338,
      "Ġecosystem": 8339,
      "Ġanne": 8340,
      "chron": 8341,
      "Ġorthop": 8342,
      "Ġtam": 8343,
      "ena": 8344,
      "Ġykw": 8345,
      "âĢĤ": 8346,
      "Ġtiming": 8347,
      "uesday": 8348,
      "Ġthorough": 8349,
      "Ġpicture": 8350,
      "Ġwants": 8351,
      "Ġpressures": 8352,
      "Ġobstructive": 8353,
      "Ġsplit": 8354,
      "Ġcytokine": 8355,
      "Ġforced": 8356,
      "Ġpharmacology": 8357,
      "naptic": 8358,
      "Ġlimitation": 8359,
      "60": 8360,
      "noder": 8361,
      "Ġwaves": 8362,
      "Ġexactly": 8363,
      "Ġalbumin": 8364,
      "OR": 8365,
      "Ġcement": 8366,
      "erted": 8367,
      "ĠSome": 8368,
      "Ġcombinations": 8369,
      "Ġchim": 8370,
      "nder": 8371,
      "Ġlattice": 8372,
      "Ġog": 8373,
      "Ġnir": 8374,
      "Ġacoustic": 8375,
      "Ġcoast": 8376,
      "Ġanatomical": 8377,
      "auc": 8378,
      "Ġcortic": 8379,
      "Ġinsight": 8380,
      "Ġrobot": 8381,
      "chymal": 8382,
      "Ġrw": 8383,
      "Ġnotice": 8384,
      "Ġnacl": 8385,
      "Ġfistula": 8386,
      "hour": 8387,
      "Ġsph": 8388,
      "!!!!!!!!!!!!!!!!!!!!!!!!!!!!!!!!": 8389,
      "Ġdeclarations": 8390,
      "Ġchromatography": 8391,
      "Ġpyr": 8392,
      "amps": 8393,
      "ĠCount": 8394,
      "born": 8395,
      "iod": 8396,
      "atile": 8397,
      "Ġsper": 8398,
      "Ġdin": 8399,
      "iltr": 8400,
      "otypic": 8401,
      "Ġnurses": 8402,
      "EN": 8403,
      "ady": 8404,
      "prote": 8405,
      "Ġlearned": 8406,
      "Ġfiles": 8407,
      "Ġwithdrawal": 8408,
      "Ġunion": 8409,
      "Ġrecording": 8410,
      "Ġmyeloid": 8411,
      "Ġencompass": 8412,
      "Ġtran": 8413,
      "Ġplanned": 8414,
      "Ġneighbor": 8415,
      "Ġdeletion": 8416,
      "Ġchor": 8417,
      "under": 8418,
      "Ġwei": 8419,
      "Ġyouth": 8420,
      "Ġpermissions": 8421,
      "Ġexistence": 8422,
      "hydrogen": 8423,
      "Ġmultim": 8424,
      "Ġpathogenic": 8425,
      "airs": 8426,
      "Ġgeneralized": 8427,
      "Ġorbital": 8428,
      "ĠJapan": 8429,
      "Ġprevalent": 8430,
      "itt": 8431,
      "Ġsigned": 8432,
      "Ġraman": 8433,
      "Ġready": 8434,
      "Ġinterviews": 8435,
      "Ġstanding": 8436,
      "raq": 8437,
      "Ġstimulus": 8438,
      "enic": 8439,
      "Ġlms": 8440,
      "Ġleaving": 8441,
      "Ġmetall": 8442,
      "Ġmessage": 8443,
      "Ġprecipitation": 8444,
      "Ġbot": 8445,
      "Ġencephal": 8446,
      "Ġpotentials": 8447,
      "Ġsetup": 8448,
      "Ġtalking": 8449,
      "Ġmargin": 8450,
      "Ġshanghai": 8451,
      "vtzr": 8452,
      "Ġejection": 8453,
      "plan": 8454,
      "avail": 8455,
      "ermal": 8456,
      "Ġinhibiting": 8457,
      "standing": 8458,
      "Ġadopted": 8459,
      "Ġnit": 8460,
      "oske": 8461,
      "Ġku": 8462,
      "Ġytm": 8463,
      "Ġfunctioning": 8464,
      "Ġadju": 8465,
      "Ġphosphorylation": 8466,
      "ferase": 8467,
      "Ġpurposes": 8468,
      "Ġcytometry": 8469,
      "Ġanalyzing": 8470,
      "block": 8471,
      "Ġtkz": 8472,
      "Ġstir": 8473,
      "Ġteacher": 8474,
      "Ġneedle": 8475,
      "Ġmutants": 8476,
      "Ġpurchased": 8477,
      "At": 8478,
      "verse": 8479,
      "Ġpra": 8480,
      "Ġtriple": 8481,
      "Ġconsistency": 8482,
      "Ġpsychol": 8483,
      "Ġelectrocardi": 8484,
      "je": 8485,
      "esh": 8486,
      "Ġstyle": 8487,
      "amen": 8488,
      "amination": 8489,
      "Ġabsent": 8490,
      "Ġug": 8491,
      "Ġfus": 8492,
      "Ġbecoming": 8493,
      "Ġatomic": 8494,
      "Ġcalls": 8495,
      "Ġacetate": 8496,
      "Ġrip": 8497,
      "infected": 8498,
      "Ġcrack": 8499,
      "alling": 8500,
      "Ġorganisms": 8501,
      "Ġillum": 8502,
      "cancer": 8503,
      "Ġcns": 8504,
      "Ġbip": 8505,
      "Ġdesired": 8506,
      "Ġblast": 8507,
      "Ġimportantly": 8508,
      "Ġreads": 8509,
      "Ġreproductive": 8510,
      "Ġofficers": 8511,
      "Ġreplicates": 8512,
      "\",": 8513,
      "Ġhier": 8514,
      "Ġsimpl": 8515,
      "Ġinnovation": 8516,
      "Ġfle": 8517,
      "Ġchart": 8518,
      "Ġenlarg": 8519,
      "Ġgastroenter": 8520,
      "ĠAfric": 8521,
      "ĠGoogle": 8522,
      "mr": 8523,
      "uel": 8524,
      "stone": 8525,
      "icking": 8526,
      "Ġsingh": 8527,
      "Ġinvestigating": 8528,
      "Ġcovari": 8529,
      "Ġsilver": 8530,
      "np": 8531,
      "Ġcontents": 8532,
      "Ġnormally": 8533,
      "Ġmyself": 8534,
      "Ġhub": 8535,
      "ulmonary": 8536,
      "ĠAb": 8537,
      "Ġobserve": 8538,
      "ocket": 8539,
      "fortun": 8540,
      "Ġscales": 8541,
      "uncture": 8542,
      "iana": 8543,
      "Ġcele": 8544,
      "Ġoverexpression": 8545,
      "citation": 8546,
      "ipl": 8547,
      "Ġsymb": 8548,
      "Ġengagement": 8549,
      "Ġfuel": 8550,
      "Ġflood": 8551,
      "Ġrenew": 8552,
      "Ġphyt": 8553,
      "Ġmanaging": 8554,
      "Ġtraff": 8555,
      "ception": 8556,
      "Ġmicroenvironment": 8557,
      "Ġera": 8558,
      "Ġpall": 8559,
      "chain": 8560,
      "Ġschematic": 8561,
      "Ġpermanent": 8562,
      "itic": 8563,
      "Ġroots": 8564,
      "Ġsubcutaneous": 8565,
      "Ġpredictor": 8566,
      "Ġ40": 8567,
      "Ġdispers": 8568,
      "bul": 8569,
      "Ġdot": 8570,
      "Ġmineral": 8571,
      "Ġcapability": 8572,
      "Ġstz": 8573,
      "elli": 8574,
      "ragm": 8575,
      "Ġuncertainty": 8576,
      "Ġpronounced": 8577,
      "Ġtow": 8578,
      "unter": 8579,
      "Ġkern": 8580,
      "mentation": 8581,
      "Ġecological": 8582,
      "Ġpiece": 8583,
      "Ġck": 8584,
      "ĠTuesday": 8585,
      "Ġterror": 8586,
      "ocytosis": 8587,
      "ituitary": 8588,
      "lear": 8589,
      "odal": 8590,
      "Ġserial": 8591,
      "Ġphysiol": 8592,
      "changed": 8593,
      "Ġdoll": 8594,
      "lycer": 8595,
      "Ġpoorly": 8596,
      "Ġio": 8597,
      "Ġiod": 8598,
      "ursday": 8599,
      "athe": 8600,
      "ashi": 8601,
      "Ġophthalm": 8602,
      "ien": 8603,
      "Ġhong": 8604,
      "Ġgs": 8605,
      "To": 8606,
      "Ġity": 8607,
      "Ġmpa": 8608,
      "rile": 8609,
      "cid": 8610,
      "Ġbraz": 8611,
      "Ġproperly": 8612,
      "Ġlifet": 8613,
      "Ġreservoir": 8614,
      "Ġfans": 8615,
      "Ġdistinguish": 8616,
      "Ġfellow": 8617,
      "unte": 8618,
      "Ġphoton": 8619,
      "Ġpharmacokin": 8620,
      "Ġprofessionals": 8621,
      "Ġreprints": 8622,
      "fter": 8623,
      "iary": 8624,
      "stim": 8625,
      "Ġmann": 8626,
      "ĠNow": 8627,
      "Ġpaired": 8628,
      "Ġwrite": 8629,
      "Ġwarr": 8630,
      "Ġpropos": 8631,
      "Ġsolub": 8632,
      "Ġserves": 8633,
      "Ġ<": 8634,
      "Ġkd": 8635,
      "Ġintegrating": 8636,
      "Ġsuperficial": 8637,
      "pop": 8638,
      "Ġinhibits": 8639,
      "Ġtklwo": 8640,
      "Ġreplaced": 8641,
      "hand": 8642,
      "plast": 8643,
      "Ġspir": 8644,
      "Ġforming": 8645,
      "ĠJanuary": 8646,
      "Ġkltwt": 8647,
      "Ġconsiderable": 8648,
      "pers": 8649,
      "Ġthr": 8650,
      "Ġweighted": 8651,
      "ĠOctober": 8652,
      "Ġperspectives": 8653,
      "Ġsides": 8654,
      "room": 8655,
      "ĠPal": 8656,
      "Ġrestrict": 8657,
      "frequ": 8658,
      "Ġtransfusion": 8659,
      "ĠUK": 8660,
      "Ġethyl": 8661,
      "Ġpasses": 8662,
      "Ġdisappe": 8663,
      "Ġdeformation": 8664,
      "Ġdispar": 8665,
      "Ġconfiguration": 8666,
      "ishes": 8667,
      "ques": 8668,
      "Ġmicrograms": 8669,
      "Ġfp": 8670,
      "Ġktw": 8671,
      "Ġflat": 8672,
      "Ġventilation": 8673,
      "table": 8674,
      "heric": 8675,
      "Ġdescribes": 8676,
      "path": 8677,
      "plicit": 8678,
      "Ġluc": 8679,
      "Ġentirely": 8680,
      "Ġinsertion": 8681,
      "icago": 8682,
      "Ġals": 8683,
      "Ġwilling": 8684,
      "Ġdecade": 8685,
      "Ġregulates": 8686,
      "Ġubiqu": 8687,
      "One": 8688,
      "pal": 8689,
      "assisted": 8690,
      "Ġharvest": 8691,
      "Ph": 8692,
      "sign": 8693,
      "Ġpun": 8694,
      "Ġpod": 8695,
      "Ġee": 8696,
      "Ġqw": 8697,
      "Ġimmunode": 8698,
      "ĠSeptember": 8699,
      "Ġgreatly": 8700,
      "Ġbench": 8701,
      "Ġcoefficients": 8702,
      "ducible": 8703,
      "Ġempir": 8704,
      "Ġends": 8705,
      "Ġmovie": 8706,
      "Ġvascul": 8707,
      "ĠAmericans": 8708,
      "ST": 8709,
      "ĠPar": 8710,
      "Ġdissolved": 8711,
      "Ġregeneration": 8712,
      "Ġcitiz": 8713,
      "vin": 8714,
      "Ġou": 8715,
      "osan": 8716,
      "Ġfeeling": 8717,
      "ĠNot": 8718,
      "Ġanaest": 8719,
      "Ġank": 8720,
      "ionic": 8721,
      "ĠMy": 8722,
      "mole": 8723,
      "Ġclassical": 8724,
      "Ġcapabilities": 8725,
      "Ġgirls": 8726,
      "Ġhpv": 8727,
      "gent": 8728,
      "ednes": 8729,
      "istics": 8730,
      "prot": 8731,
      "Ġcircular": 8732,
      "Ġnecessarily": 8733,
      "zon": 8734,
      "Ġlies": 8735,
      "Ġobservational": 8736,
      "ĠIslam": 8737,
      "Ġleadership": 8738,
      "hab": 8739,
      "Ġstig": 8740,
      "ĠSunday": 8741,
      "Ġdispersion": 8742,
      "Ġmim": 8743,
      "iced": 8744,
      "Ġgid": 8745,
      "Ġcoach": 8746,
      "Ġbiochem": 8747,
      "emble": 8748,
      "Ġencoding": 8749,
      "Ġacademy": 8750,
      "Ġfell": 8751,
      "Ġcritic": 8752,
      "Ġ2010": 8753,
      "Ġsclerosis": 8754,
      "Ġprotease": 8755,
      "Ġbooks": 8756,
      "Ġnumerical": 8757,
      "Ġcartilage": 8758,
      "Ġadhd": 8759,
      "Ġsought": 8760,
      "Ġrecovered": 8761,
      "Ġdepart": 8762,
      "Ġallele": 8763,
      "Ġcrohn": 8764,
      "rical": 8765,
      "Ġbin": 8766,
      "Ġcytoplas": 8767,
      "Ġplacement": 8768,
      "Ġglycol": 8769,
      "Ġappendix": 8770,
      "Ġtzntmk": 8771,
      "su": 8772,
      "ux": 8773,
      "cipl": 8774,
      "Ġlifestyle": 8775,
      "Ġendogenous": 8776,
      "Ġrelevance": 8777,
      "eries": 8778,
      "Ġocean": 8779,
      "otin": 8780,
      "Ġweap": 8781,
      "Ġtranscriptional": 8782,
      "ĠCongress": 8783,
      "Ġpull": 8784,
      "rays": 8785,
      "Ġoyoz": 8786,
      "Ġsenior": 8787,
      "Re": 8788,
      "Ġcoding": 8789,
      "Ġpk": 8790,
      "Ġdg": 8791,
      "activation": 8792,
      "ĠBy": 8793,
      "Ġexcit": 8794,
      "Ġdepletion": 8795,
      "igan": 8796,
      "cells": 8797,
      "Ġlabel": 8798,
      "jun": 8799,
      "incl": 8800,
      "Ġinfra": 8801,
      "Ġpathogen": 8802,
      "Ġfilt": 8803,
      "cult": 8804,
      "Ġmature": 8805,
      "Ġbeaut": 8806,
      "rene": 8807,
      "Ġrupture": 8808,
      "Ġisland": 8809,
      "ĠThursday": 8810,
      "Ġcomorbid": 8811,
      "Ġprophylaxis": 8812,
      "ednesday": 8813,
      "Ġlac": 8814,
      "Ġchoose": 8815,
      "Ġyielded": 8816,
      "Ġlps": 8817,
      "Ġplaces": 8818,
      "Ġantigens": 8819,
      "Ġfeet": 8820,
      "Ġextr": 8821,
      "Ġattend": 8822,
      "Ġdownstream": 8823,
      "Ġdifficulty": 8824,
      "Ġhabit": 8825,
      "Ġepilepsy": 8826,
      "ionally": 8827,
      "Ġash": 8828,
      "Ġpreced": 8829,
      "Ġparad": 8830,
      "Ġpromise": 8831,
      "Ġexcision": 8832,
      "gfp": 8833,
      "?âĢĿ": 8834,
      "bed": 8835,
      "wing": 8836,
      "Ġdong": 8837,
      "Ġrv": 8838,
      "Ġlect": 8839,
      "Ġended": 8840,
      "Ġattitudes": 8841,
      "Ġminimize": 8842,
      "itrate": 8843,
      "Ġadjuvant": 8844,
      "Ġfasc": 8845,
      "Ġbinary": 8846,
      "roy": 8847,
      "olid": 8848,
      "Ġpatch": 8849,
      "Ġyields": 8850,
      "world": 8851,
      "rele": 8852,
      "arcoma": 8853,
      "ilis": 8854,
      "Ġri": 8855,
      "Ġintermitt": 8856,
      "Ġexamining": 8857,
      "Ġdirections": 8858,
      "lated": 8859,
      "rp": 8860,
      "Ġfinger": 8861,
      "Ġstrom": 8862,
      "ĠCourt": 8863,
      "Ġregulated": 8864,
      "Ġduplic": 8865,
      "Ġfloor": 8866,
      "Ġusage": 8867,
      "Ġcyclic": 8868,
      "Ġpancreatitis": 8869,
      "Ġcac": 8870,
      "Ġstore": 8871,
      "oded": 8872,
      "Ġmetab": 8873,
      "iii": 8874,
      "Ġstone": 8875,
      "retion": 8876,
      "Ġbattery": 8877,
      "Ġcranial": 8878,
      "ifer": 8879,
      "Ġhero": 8880,
      "Ġchir": 8881,
      "Ġzinc": 8882,
      "Ġtransp": 8883,
      "operation": 8884,
      "Ġsubset": 8885,
      "Ġtzo": 8886,
      "Ġillustrates": 8887,
      "mented": 8888,
      "ĠCont": 8889,
      "assium": 8890,
      "Ġsaturation": 8891,
      "Ġnamely": 8892,
      "lc": 8893,
      "oys": 8894,
      "step": 8895,
      "Ġremember": 8896,
      "Ġlooks": 8897,
      "Ġattempts": 8898,
      "Ġreform": 8899,
      "Ġspike": 8900,
      "Ġfreedom": 8901,
      "Ġlosses": 8902,
      "Ġrefractory": 8903,
      "Ġthousands": 8904,
      "Ġendometriosis": 8905,
      "tk": 8906,
      "Ġtand": 8907,
      "heres": 8908,
      "Ġpca": 8909,
      "Ġmultif": 8910,
      "Ġvisits": 8911,
      "Ġligands": 8912,
      "Ġstreet": 8913,
      "Ġ@": 8914,
      "Ġtouch": 8915,
      "gene": 8916,
      "Ġvolunte": 8917,
      "effective": 8918,
      "gender": 8919,
      "zi": 8920,
      "Ġnak": 8921,
      "ĠTimes": 8922,
      "conn": 8923,
      "Ġcategorized": 8924,
      "Ġtriang": 8925,
      "Ġprison": 8926,
      "Ġincorporating": 8927,
      "Ġuniversal": 8928,
      "rc": 8929,
      "Ġjunction": 8930,
      "Ġexperts": 8931,
      "Ġsurvivors": 8932,
      "enza": 8933,
      "Ġgenotype": 8934,
      "Ġformulation": 8935,
      "Ġopposite": 8936,
      "Ġmarkedly": 8937,
      "Ġsusceptible": 8938,
      "Ġapril": 8939,
      "Ġconsideration": 8940,
      "Ġidiopathic": 8941,
      "Ġreaching": 8942,
      "Ġgk": 8943,
      "ĠPer": 8944,
      "Ġdomestic": 8945,
      "Ġhtt": 8946,
      "otor": 8947,
      "Ġimper": 8948,
      "dem": 8949,
      "Ġwnt": 8950,
      "agic": 8951,
      "Ġscene": 8952,
      "qqtm": 8953,
      "idden": 8954,
      "Ġatyp": 8955,
      "Ġmeant": 8956,
      "Ġnuclei": 8957,
      "Ġreversible": 8958,
      "Ġneutrophil": 8959,
      "atever": 8960,
      "Ġhomogene": 8961,
      "ĠBritish": 8962,
      "fri": 8963,
      "Ġhospitalization": 8964,
      "iliar": 8965,
      "Ġconcerning": 8966,
      "Ġbroader": 8967,
      "Ġtendon": 8968,
      "dist": 8969,
      "Ġdend": 8970,
      "Ġling": 8971,
      "Ġouter": 8972,
      "Ġstrengthen": 8973,
      "rupt": 8974,
      "Ġrmed": 8975,
      "Ġgenetics": 8976,
      "Ġallergy": 8977,
      "ricted": 8978,
      "Ġconductivity": 8979,
      "Ġdissolution": 8980,
      "Ġspectrometry": 8981,
      "Ġoj": 8982,
      "Ġbs": 8983,
      "Ġgw": 8984,
      "Ġpathologic": 8985,
      "Ġcareg": 8986,
      "Ġvalidate": 8987,
      "ĠCor": 8988,
      "rastructure": 8989,
      "cre": 8990,
      "Ġstories": 8991,
      "Ġfossa": 8992,
      "rav": 8993,
      "Ġmining": 8994,
      "Ġrefers": 8995,
      "Ġtis": 8996,
      "Ġjin": 8997,
      "Ġaber": 8998,
      "Ġdeterior": 8999,
      "Ġconscious": 9000,
      "Ġfluctu": 9001,
      "Ġmobility": 9002,
      "edge": 9003,
      "ario": 9004,
      "ĠMed": 9005,
      "Ġppm": 9006,
      "Ġtraumatic": 9007,
      "Ġconservation": 9008,
      "Ġinherent": 9009,
      "Ġtzn": 9010,
      "ĠRussia": 9011,
      "Ġtransm": 9012,
      "ĠBro": 9013,
      "Ġcertainly": 9014,
      "Ġfabrication": 9015,
      "nucle": 9016,
      "Ġwife": 9017,
      "Ġalex": 9018,
      "Ġreduct": 9019,
      "Ġconduction": 9020,
      "Ġcarriers": 9021,
      "Ġfatal": 9022,
      "Ġlup": 9023,
      "respons": 9024,
      "Ġrow": 9025,
      "Ġproven": 9026,
      "Ġsituations": 9027,
      "Ġseizure": 9028,
      "ĠDis": 9029,
      "mobil": 9030,
      "Ġacceptable": 9031,
      "Ġcreation": 9032,
      "Ġexpanded": 9033,
      "Ġhazard": 9034,
      "Ġrecruitment": 9035,
      "Ġtuberculosis": 9036,
      "erent": 9037,
      "Ġchick": 9038,
      "Ġguarant": 9039,
      "ilib": 9040,
      "Ġfeasibility": 9041,
      "Ġpiv": 9042,
      "idents": 9043,
      "ĠPost": 9044,
      "Ġporous": 9045,
      "Ġrecombination": 9046,
      "Ġscattering": 9047,
      "Ġeeg": 9048,
      "Ġplasmid": 9049,
      "rat": 9050,
      "Ġantico": 9051,
      "Ġimmuno": 9052,
      "ĠSenate": 9053,
      "tte": 9054,
      "Ġcigare": 9055,
      "ilty": 9056,
      "Ġscar": 9057,
      "Ġscoring": 9058,
      "Ġcommission": 9059,
      "Ġruns": 9060,
      "pred": 9061,
      "amer": 9062,
      "Ġexplo": 9063,
      "Ġshut": 9064,
      "olecular": 9065,
      "Ġmda": 9066,
      "ingle": 9067,
      "ĠAg": 9068,
      "Ġbright": 9069,
      "Ġhelpful": 9070,
      "Ġletters": 9071,
      "Ġplease": 9072,
      "Ġgrafts": 9073,
      "Ġgent": 9074,
      "Ġsha": 9075,
      "Ġunstable": 9076,
      "Ġmetals": 9077,
      "Ġexcitation": 9078,
      "emporal": 9079,
      "Ġlie": 9080,
      "Ġclosure": 9081,
      "Ġapart": 9082,
      "Ġretro": 9083,
      "cape": 9084,
      "Ġinfluencing": 9085,
      "west": 9086,
      "Ġmethanol": 9087,
      "Ġradiol": 9088,
      "Ġbiomedical": 9089,
      "likely": 9090,
      "ĠEl": 9091,
      "Ġprotected": 9092,
      "Ġfibrin": 9093,
      "Ġaspirin": 9094,
      "Ġgf": 9095,
      "Ġphysics": 9096,
      "Ġuence": 9097,
      "hips": 9098,
      "Ġresting": 9099,
      "Ġpituitary": 9100,
      "Ġnih": 9101,
      "acters": 9102,
      "oke": 9103,
      "ĠWednesday": 9104,
      "Ġdocuments": 9105,
[...]
