{
  "version": "1.0",
  "truncation": null,
  "padding": null,
  "added_tokens": [
    {
      "id": 0,
      "content": "[PAD]",
      "single_word": false,
      "lstrip": false,
      "rstrip": false,
      "normalized": false,
      "special": true
    },
    {
      "id": 1,
      "content": "[UNK]",
      "single_word": false,
      "lstrip": false,
      "rstrip": false,
      "normalized": false,
      "special": true
    },
    {
      "id": 2,
      "content": "[CLS]",
      "single_word": false,
      "lstrip": false,
      "rstrip": false,
      "normalized": false,
      "special": true
    },
    {
      "id": 3,
      "content": "[SEP]",
      "single_word": false,
      "lstrip": false,
      "rstrip": false,
      "normalized": false,
      "special": true
    },
    {
      "id": 4,
      "content": "[MASK]",
      "single_word": false,
      "lstrip": false,
      "rstrip": false,
      "normalized": false,
      "special": true
    },
    {
      "id": 5,
      "content": "[BOS]",
      "single_word": false,
      "lstrip": false,
      "rstrip": false,
      "normalized": false,
      "special": true
    },
    {
      "id": 6,
      "content": "[EOS]",
      "single_word": false,
      "lstrip": false,
      "rstrip": false,
      "normalized": false,
      "special": true
    }
  ],
  "normalizer": null,
  "pre_tokenizer": {
    "type": "ByteLevel",
    "add_prefix_space": true,
    "trim_offsets": true,
    "use_regex": true
  },
  "post_processor": null,
  "decoder": null,
  "model": {
    "type": "BPE",
    "dropout": null,
    "unk_token": null,
    "continuing_subword_prefix": null,
    "end_of_word_suffix": null,
    "fuse_unk": false,
    "byte_fallback": false,
    "ignore_merges": false,
    "vocab": {
      "[PAD]": 0,
      "[UNK]": 1,
      "[CLS]": 2,
      "[SEP]": 3,
      "[MASK]": 4,
      "[BOS]": 5,
      "[EOS]": 6,
      "!": 7,
      "\"": 8,
      "#": 9,
      "$": 10,
      "%": 11,
      "&": 12,
      "'": 13,
      "(": 14,
      ")": 15,
      "*": 16,
      "+": 17,
      ",": 18,
      "-": 19,
      ".": 20,
      "/": 21,
      "0": 22,
      "1": 23,
      "2": 24,
      "3": 25,
      "4": 26,
      "5": 27,
      "6": 28,
      "7": 29,
      "8": 30,
      "9": 31,
      ":": 32,
      ";": 33,
      "<": 34,
      "=": 35,
      ">": 36,
      "?": 37,
      "@": 38,
      "A": 39,
      "B": 40,
      "C": 41,
      "D": 42,
      "E": 43,
      "F": 44,
      "G": 45,
      "H": 46,
      "I": 47,
      "J": 48,
      "K": 49,
      "L": 50,
      "M": 51,
      "N": 52,
      "O": 53,
      "P": 54,
      "Q": 55,
      "R": 56,
      "S": 57,
      "T": 58,
      "U": 59,
      "V": 60,
      "W": 61,
      "X": 62,
      "Y": 63,
      "Z": 64,
      "[": 65,
      "\\": 66,
      "]": 67,
      "^": 68,
      "_": 69,
      "`": 70,
      "a": 71,
      "b": 72,
      "c": 73,
      "d": 74,
      "e": 75,
      "f": 76,
      "g": 77,
      "h": 78,
      "i": 79,
      "j": 80,
      "k": 81,
      "l": 82,
      "m": 83,
      "n": 84,
      "o": 85,
      "p": 86,
      "q": 87,
      "r": 88,
      "s": 89,
      "t": 90,
      "u": 91,
      "v": 92,
      "w": 93,
      "x": 94,
      "y": 95,
      "z": 96,
      "{": 97,
      "|": 98,
      "}": 99,
      "~": 100,
      "¡": 101,
      "¢": 102,
      "£": 103,
      "¤": 104,
      "¥": 105,
      "¦": 106,
      "§": 107,
      "¨": 108,
      "©": 109,
      "ª": 110,
      "«": 111,
      "¬": 112,
      "®": 113,
      "¯": 114,
      "°": 115,
      "±": 116,
      "²": 117,
      "³": 118,
      "´": 119,
      "µ": 120,
      "¶": 121,
      "·": 122,
      "¸": 123,
      "¹": 124,
      "º": 125,
      "»": 126,
      "¼": 127,
      "½": 128,
      "¾": 129,
      "¿": 130,
      "Â": 131,
      "Ã": 132,
      "Ä": 133,
      "Å": 134,
      "Æ": 135,
      "Ç": 136,
      "È": 137,
      "É": 138,
      "Ê": 139,
      "Ë": 140,
      "Ì": 141,
      "Í": 142,
      "Î": 143,
      "Ï": 144,
      "Ð": 145,
      "Ñ": 146,
      "Ò": 147,
      "Ó": 148,
      "Õ": 149,
      "Ö": 150,
      "×": 151,
      "Ø": 152,
      "Ù": 153,
      "Ú": 154,
      "Û": 155,
      "à": 156,
      "á": 157,
      "â": 158,
      "ã": 159,
      "ä": 160,
      "å": 161,
      "æ": 162,
      "ç": 163,
      "è": 164,
      "é": 165,
      "ê": 166,
      "ë": 167,
      "ì": 168,
      "í": 169,
      "î": 170,
      "ï": 171,
      "ð": 172,
      "ô": 173,
      "ā": 174,
      "ă": 175,
      "Ą": 176,
      "Ć": 177,
      "Ċ": 178,
      "Ĕ": 179,
      "Ġ": 180,
      "ġ": 181,
      "Ģ": 182,
      "ģ": 183,
      "Ĥ": 184,
      "ĥ": 185,
      "Ħ": 186,
      "ħ": 187,
      "Ĩ": 188,
      "ĩ": 189,
      "Ī": 190,
      "ī": 191,
      "Ĭ": 192,
      "ĭ": 193,
      "Į": 194,
      "į": 195,
      "İ": 196,
      "ı": 197,
      "Ĳ": 198,
      "ĳ": 199,
      "Ĵ": 200,
      "ĵ": 201,
      "Ķ": 202,
      "ķ": 203,
      "ĸ": 204,
      "Ĺ": 205,
      "ĺ": 206,
      "Ļ": 207,
      "ļ": 208,
      "Ľ": 209,
      "ľ": 210,
      "Ŀ": 211,
      "ŀ": 212,
      "Ł": 213,
      "ł": 214,
      "Ń": 215,
      "in": 216,
      "es": 217,
      "at": 218,
      "Ġa": 219,
      "on": 220,
      "re": 221,
      "en": 222,
      "al": 223,
      "Ġt": 224,
      "Ġs": 225,
      "ic": 226,
      "Ġin": 227,
      "er": 228,
      "ed": 229,
      "it": 230,
      "Ġp": 231,
      "ion": 232,
      "ent": 233,
      "an": 234,
      "ro": 235,
      "ar": 236,
      "or": 237,
      "Ġm": 238,
      "Ġb": 239,
      "he": 240,
      "Ġc": 241,
      "is": 242,
      "Ġf": 243,
      "ing": 244,
      "ul": 245,
      "Ġre": 246,
      "im": 247,
      "Ġan": 248,
      "Ġd": 249,
      "Ġand": 250,
      "ol": 251,
      "ation": 252,
      "id": 253,
      "em": 254,
      "ical": 255,
      "Ġby": 256,
      "per": 257,
      "ati": 258,
      "alt": 259,
      "Ġo": 260,
      "ct": 261,
      "el": 262,
      "Ġe": 263,
      "Ġh": 264,
      "om": 265,
      "ur": 266,
      "Ġn": 267,
      "ch": 268,
      "ly": 269,
      "ri": 270,
      "ff": 271,
      "ag": 272,
      "Ġdi": 273,
      "ents": 274,
      "ov": 275,
      "ak": 276,
      "Ġim": 277,
      "are": 278,
      "Ġimp": 279,
      "rov": 280,
      "Ġman": 281,
      "alth": 282,
      "Ġpati": 283,
      "esc": 284,
      "escri": 285,
      "Ġ1": 286,
      "Ġw": 287,
      "as": 288,
      "Ġto": 289,
      "ĠT": 290,
      "Ġl": 291,
      "ĠA": 292,
      "ĠM": 293,
      "ig": 294,
      "os": 295,
      "00": 296,
      "Ġfor": 297,
      "Ġst": 298,
      "ect": 299,
      "ow": 300,
      "Ġcon": 301,
      "ac": 302,
      "ers": 303,
      "Ġ5": 304,
      "Ġas": 305,
      "um": 306,
      "ĠN": 307,
      "ain": 308,
      "Ġex": 309,
      "Ġcom": 310,
      "ies": 311,
      "enc": 312,
      "ear": 313,
      "Ġhe": 314,
      "du": 315,
      "ment": 316,
      "sion": 317,
      "ron": 318,
      "reat": 319,
      "ffect": 320,
      "ves": 321,
      "ates": 322,
      "Ġind": 323,
      "ular": 324,
      "duc": 325,
      "eu": 326,
      "Ġreg": 327,
      "He": 328,
      "Ġsur": 329,
      "be": 330,
      "Res": 331,
      "ienc": 332,
      "ake": 333,
      "Ġtreat": 334,
      "Ġhy": 335,
      "Ġpatients": 336,
      "ines": 337,
      "itor": 338,
      "Ġtreatment": 339,
      "Ġimprov": 340,
      "ffects": 341,
      "Ġreduc": 342,
      "Health": 343,
      "euro": 344,
      "bed": 345,
      "aging": 346,
      "Ġsurg": 347,
      "escribed": 348,
      "care": 349,
      "Ġregular": 350,
      "Ġmanaging": 351,
      "rescribed": 352,
      "Ġthe": 353,
      "Ġof": 354,
      "Ġth": 355,
      "ĠS": 356,
      "ĠC": 357,
      "us": 358,
      "il": 359,
      "ut": 360,
      "un": 361,
      "ĠP": 362,
      "Ġg": 363,
      "ot": 364,
      "Ġ3": 365,
      "iv": 366,
      "am": 367,
      "ith": 368,
      "Ġwith": 369,
      "Ġ4": 370,
      "Ġon": 371,
      "ad": 372,
      "st": 373,
      "ity": 374,
      "ĠThe": 375,
      "bl": 376,
      "Ġ6": 377,
      "ts": 378,
      "ĠE": 379,
      "ĠG": 380,
      "op": 381,
      "oc": 382,
      "ate": 383,
      "ist": 384,
      "ud": 385,
      "ap": 386,
      "ef": 387,
      "Ġint": 388,
      "Ġare": 389,
      "og": 390,
      "ated": 391,
      "ĠO": 392,
      "ran": 393,
      "pt": 394,
      "Ġch": 395,
      "Ġcomp": 396,
      "ug": 397,
      "and": 398,
      "Ġsh": 399,
      "ign": 400,
      "Ġad": 401,
      "ition": 402,
      "ase": 403,
      "Ġ15": 404,
      "ĠTh": 405,
      "Ġcont": 406,
      "ations": 407,
      "all": 408,
      "ue": 409,
      "hic": 410,
      "ib": 411,
      "ard": 412,
      "ary": 413,
      "ĠV": 414,
      "age": 415,
      "ide": 416,
      "ach": 417,
      "ual": 418,
      "Ġstud": 419,
      "oll": 420,
      "olog": 421,
      "use": 422,
      "ement": 423,
      "Ġsy": 424,
      "rol": 425,
      "ame": 426,
      "Ġinf": 427,
      "rans": 428,
      "Ġsc": 429,
      "lin": 430,
      "lu": 431,
      "Ġass": 432,
      "ĠAn": 433,
      "ai": 434,
      "Ġout": 435,
      "Ġshow": 436,
      "ating": 437,
      "old": 438,
      "ise": 439,
      "Ġtim": 440,
      "ĠThis": 441,
      "oci": 442,
      "dition": 443,
      "Ġstudy": 444,
      "Ġtrans": 445,
      "ffic": 446,
      "Ġro": 447,
      "stem": 448,
      "ten": 449,
      "rain": 450,
      "ubl": 451,
      "tal": 452,
      "ults": 453,
      "earch": 454,
      "vol": 455,
      "ĠRes": 456,
      "erc": 457,
      "year": 458,
      "ology": 459,
      "Ġsystem": 460,
      "mun": 461,
      "ared": 462,
      "ption": 463,
      "vis": 464,
      "ild": 465,
      "ulation": 466,
      "Ġprov": 467,
      "Ġ100": 468,
      "rect": 469,
      "For": 470,
      "ollow": 471,
      "Ġmon": 472,
      "Ġ50": 473,
      "Ġexper": 474,
      "Ġindic": 475,
      "Ġfollow": 476,
      "Ġrem": 477,
      "hib": 478,
      "Ġcontrol": 479,
      "Ġ40": 480,
      "Ġsm": 481,
      "Ġhealth": 482,
      "Ġlo": 483,
      "tes": 484,
      "Ġ35": 485,
      "ause": 486,
      "Ġwa": 487,
      "vest": 488,
      "har": 489,
      "Med": 490,
      "Ġcondition": 491,
      "osp": 492,
      "ublic": 493,
      "Ġassoci": 494,
      "ital": 495,
      "het": 496,
      "idual": 497,
      "Ġther": 498,
      "Ġ65": 499,
      "ination": 500,
      "mis": 501,
      "Ġcompared": 502,
      "rug": 503,
      "Ġdirect": 504,
      "imit": 505,
      "Ġprovid": 506,
      "ividual": 507,
      "linical": 508,
      "Ġconditions": 509,
      "Ġinvest": 510,
      "Ġindividual": 511,
      "Ġpers": 512,
      "Ġpop": 513,
      "Ġstand": 514,
      "eli": 515,
      "Ġlimit": 516,
      "Ġsmall": 517,
      "ements": 518,
      "Ġassociated": 519,
      "Ġeffic": 520,
      "Ġinvol": 521,
      "Ġinvestig": 522,
      "ĠHealth": 523,
      "Ġcommun": 524,
      "Ġben": 525,
      "Ġinflu": 526,
      "acc": 527,
      "Ġmas": 528,
      "Ġinhib": 529,
      "uid": 530,
      "abe": 531,
      "cem": 532,
      "Ġimpl": 533,
      "Ġstandard": 534,
      "ronic": 535,
      "umm": 536,
      "Ġtherap": 537,
      "eries": 538,
      "enz": 539,
      "Ġpatient": 540,
      "iency": 541,
      "harm": 542,
      "RI": 543,
      "Ġoper": 544,
      "pat": 545,
      "umor": 546,
      "An": 547,
      "Ġsch": 548,
      "Ġexperienc": 549,
      "mission": 550,
      "Ġshows": 551,
      "istent": 552,
      "ospital": 553,
      "Ġtimes": 554,
      "pot": 555,
      "Ġhead": 556,
      "Ġtake": 557,
      "ĠAC": 558,
      "Ġpopulation": 559,
      "zz": 560,
      "Ġhyper": 561,
      "ban": 562,
      "Ġtumor": 563,
      "reak": 564,
      "harmac": 565,
      "Ġur": 566,
      "iness": 567,
      "Ġremov": 568,
      "Ġpain": 569,
      "Ġinn": 570,
      "Ġneuro": 571,
      "ovel": 572,
      "abetes": 573,
      "Ġcommunity": 574,
      "Ġefficiency": 575,
      "ĠNeuro": 576,
      "Ġbrain": 577,
      "aches": 578,
      "Ġfollowed": 579,
      "Ġmonitor": 580,
      "Ġindicate": 581,
      "Ġreduce": 582,
      "Ġinhibitor": 583,
      "gue": 584,
      "Ġroom": 585,
      "Ġ500": 586,
      "ĠResults": 587,
      "Ġnovel": 588,
      "tension": 589,
      "Ġhospital": 590,
      "Ġgly": 591,
      "%.": 592,
      "Ġintake": 593,
      "Ġmonitoring": 594,
      "Ġdiabetes": 595,
      "Ġchronic": 596,
      "vised": 597,
      "aily": 598,
      "Ġscan": 599,
      "uidel": 600,
      "Ġhypot": 601,
      "ĠEffects": 602,
      "Ġfron": 603,
      "Ġsalt": 604,
      "ercise": 605,
      "Drug": 606,
      "Ġimprovement": 607,
      "Ġdaily": 608,
      "uidelines": 609,
      "Ġtransmission": 610,
      "Ġhealthcare": 611,
      "Ġexercise": 612,
      "ummary": 613,
      "edul": 614,
      "escription": 615,
      "Ġsurgical": 616,
      "Ġinvolves": 617,
      "Ġreduces": 618,
      "Ġhypertension": 619,
      "atigue": 620,
      "Ġwait": 621,
      "Ġinnov": 622,
      "Ġinhibitors": 623,
      "Ġremoval": 624,
      "Ġexperiences": 625,
      "Ġoperating": 626,
      "Ġschedul": 627,
      "Ġaffects": 628,
      "Ġimproves": 629,
      "Ġfatigue": 630,
      "Ġmg": 631,
      "Ġurban": 632,
      "ĠCase": 633,
      "elief": 634,
      "break": 635,
      "Ġmand": 636,
      "Ġproviders": 637,
      "enza": 638,
      "ĠMRI": 639,
      "Ġmask": 640,
      "osage": 641,
      "Ġdirected": 642,
      "Ġtherapies": 643,
      "ĠOper": 644,
      "Ġpersistent": 645,
      "cemic": 646,
      "Ġinfluenza": 647,
      "ĠACE": 648,
      "Ġinnovation": 649,
      "harmacology": 650,
      "Ġoutbreak": 651,
      "accination": 652,
      "Ġfrontal": 653,
      "ĠSummary": 654,
      "Ġregularly": 655,
      "ĠGuidelines": 656,
      "Research": 657,
      "Ġprescribed": 658,
      "Description": 659,
      "Ġglycemic": 660,
      "Ġbenign": 661,
      "Ġneuropat": 662,
      "ĠName": 663,
      "Ġlobe": 664,
      "Ġadvised": 665,
      "hetical": 666,
      "Ġsurgeries": 667,
      "Ġnause": 668,
      "Clinical": 669,
      "Ġnausea": 670,
      "ĠMild": 671,
      "Ġscheduling": 672,
      "Ġinvestigates": 673,
      "ĠOperations": 674,
      "Public": 675,
      "Ġhypothetical": 676,
      "Ġneuropathic": 677,
      "Ġheadaches": 678,
      "Ġdizz": 679,
      "Ġimplements": 680,
      "Ġdizziness": 681,
      "Ġmandates": 682,
      "Dosage": 683,
      "ĠVaccination": 684,
      "Relief": 685,
      "Side": 686,
      "Healthcare": 687,
      "ĠPrescribed": 688,
      "Pharmacology": 689,
      "ĠNeuroRelief": 690,
      "Medical": 691,
      "Ġ2": 692,
      "Ġ(": 693,
      "et": 694,
      "âĢ": 695,
      "10": 696,
      "ĠI": 697,
      "12": 698,
      "res": 699,
      "13": 700,
      "14": 701,
      ".;": 702,
      "02": 703,
      "Ġis": 704,
      "15": 705,
      "ĠD": 706,
      "ĠB": 707,
      "od": 708,
      "ĠF": 709,
      "ĠR": 710,
      "le": 711,
      "th": 712,
      "ec": 713,
      "ere": 714,
      "Ġv": 715,
      "Ġal": 716,
      "Ġ[": 717,
      "16": 718,
      "ĠL": 719,
      "19": 720,
      "17": 721,
      "18": 722,
      "Ġthat": 723,
      "ure": 724,
      "Ġpro": 725,
      "ĠH": 726,
      "if": 727,
      "ay": 728,
      "ce": 729,
      "Ġ7": 730,
      "ve": 731,
      "Ġ8": 732,
      "Ġbe": 733,
      "ter": 734,
      "act": 735,
      "Ġ9": 736,
      "ĠJ": 737,
      "ir": 738,
      "Ġwas": 739,
      "Ġr": 740,
      "ĠW": 741,
      "âĢĵ": 742,
      "33": 743,
      "ev": 744,
      "Ġ10": 745,
      "22": 746,
      "Ġ0": 747,
      "45": 748,
      "99": 749,
      "47": 750,
      "46": 751,
      "48": 752,
      "ess": 753,
      "rom": 754,
      "20": 755,
      "35": 756,
      "up": 757,
      "25": 758,
      "Ġat": 759,
      "ĠIn": 760,
      "38": 761,
      "ant": 762,
      "36": 763,
      "Ġres": 764,
      "37": 765,
      "igh": 766,
      "und": 767,
      "28": 768,
      "pl": 769,
      "30": 770,
      "ial": 771,
      "49": 772,
      "27": 773,
      "26": 774,
      "40": 775,
      "Ġit": 776,
      "39": 777,
      "est": 778,
      "29": 779,
      "ore": 780,
      "Ġor": 781,
      "ble": 782,
      "ell": 783,
      "iz": 784,
      "Ġ202": 785,
      ").": 786,
      "ens": 787,
      "qu": 788,
      "ab": 789,
      "ss": 790,
      "Ġfrom": 791,
      "ive": 792,
      "ĠK": 793,
      "Ġwh": 794,
      "Ġ20": 795,
      "Ġwere": 796,
      "11": 797,
      "66": 798,
      "75": 799,
      "88": 800,
      "art": 801,
      "ang": 802,
      "ia": 803,
      "ill": 804,
      "ep": 805,
      "ort": 806,
      "65": 807,
      "Ġus": 808,
      "ew": 809,
      "77": 810,
      "85": 811,
      "95": 812,
      "Ġsu": 813,
      "io": 814,
      "Ġac": 815,
      "ip": 816,
      "ine": 817,
      "orm": 818,
      "Ġsp": 819,
      "ĠU": 820,
      "),": 821,
      "Ġinc": 822,
      "âĢĻ": 823,
      "ys": 824,
      "Ġpre": 825,
      "Ġy": 826,
      "Ġthis": 827,
      "ra": 828,
      "our": 829,
      "05": 830,
      "44": 831,
      "able": 832,
      "Ġen": 833,
      "te": 834,
      "Ġnot": 835,
      "67": 836,
      "98": 837,
      "97": 838,
      "68": 839,
      "ĠY": 840,
      "ver": 841,
      "Ġwe": 842,
      "ross": 843,
      "90": 844,
      "Ġcan": 845,
      "60": 846,
      "ance": 847,
      "Ġme": 848,
      "ave": 849,
      "Ġco": 850,
      "ific": 851,
      "nt": 852,
      "Ġpl": 853,
      "34": 854,
      "ult": 855,
      "ast": 856,
      "ru": 857,
      "24": 858,
      "eg": 859,
      "Ġk": 860,
      "ost": 861,
      "].": 862,
      "se": 863,
      "hich": 864,
      "78": 865,
      "Ġ14": 866,
      "Ġap": 867,
      "Ġper": 868,
      "ge": 869,
      "ely": 870,
      "ions": 871,
      "55": 872,
      "Ġhave": 873,
      "32": 874,
      "70": 875,
      "ater": 876,
      "ou": 877,
      "Ġab": 878,
      "ors": 879,
      "69": 880,
      "Ġmod": 881,
      "..": 882,
      "Ġwhich": 883,
      "ugh": 884,
      "tt": 885,
      "eth": 886,
      "80": 887,
      "ust": 888,
      "ong": 889,
      "'s": 890,
      "uld": 891,
      "end": 892,
      "ry": 893,
      "ĠZ": 894,
      "âĪ": 895,
      "etw": 896,
      "Ġet": 897,
      "vi": 898,
      "Ġ12": 899,
      "ased": 900,
      "ther": 901,
      "ight": 902,
      "ome": 903,
      "ack": 904,
      "Ġinter": 905,
      "Ġhigh": 906,
      "ence": 907,
      "Ref": 908,
      ".,": 909,
      "ress": 910,
      "Cross": 911,
      "ĠSt": 912,
      "CrossRef": 913,
      "ric": 914,
      "Ġdis": 915,
      "een": 916,
      "out": 917,
      "ber": 918,
      "ork": 919,
      "ction": 920,
      "evel": 921,
      "50": 922,
      "Ġall": 923,
      "Ġ=": 924,
      "Ġhas": 925,
      "Ġsign": 926,
      "ĠCh": 927,
      "87": 928,
      "ata": 929,
      "Ġgro": 930,
      "so": 931,
      "ord": 932,
      "ĠâĢ": 933,
      "Ġi": 934,
      "ee": 935,
      "96": 936,
      "ese": 937,
      "Ġcl": 938,
      "Ġgen": 939,
      "Ġel": 940,
      "one": 941,
      "ps": 942,
      "Ġph": 943,
      "23": 944,
      "ility": 945,
      "Ġun": 946,
      "form": 947,
      "Ġ13": 948,
      "port": 949,
      "Ġtheir": 950,
      "Ġdiff": 951,
      "cess": 952,
      "ond": 953,
      "igure": 954,
      "ail": 955,
      "ik": 956,
      "ass": 957,
      "oi": 958,
      "oth": 959,
      "ub": 960,
      "ind": 961,
      "64": 962,
      "ree": 963,
      "âĪĴ": 964,
      "anc": 965,
      "ood": 966,
      "ose": 967,
      "Ġar": 968,
      "ace": 969,
      "Ġund": 970,
      "ph": 971,
      "89": 972,
      "ile": 973,
      "79": 974,
      "Ġob": 975,
      "av": 976,
      "ex": 977,
      "ative": 978,
      "Ġanal": 979,
      "Ġact": 980,
      "Ġcell": 981,
      "31": 982,
      "ite": 983,
      "erm": 984,
      "ath": 985,
      "int": 986,
      "Ġev": 987,
      "Ġpart": 988,
      "etween": 989,
      "Ġj": 990,
      "Ġdiffere": 991,
      "42": 992,
      "ĠÂ": 993,
      "ice": 994,
      "Ġmore": 995,
      "ection": 996,
      "ound": 997,
      "76": 998,
      "86": 999,
      "Ġbetween": 1000,
      "//": 1001,
      "Ġag": 1002,
      "ian": 1003,
      "pe": 1004,
      "ract": 1005,
      "Ġrec": 1006,
      "red": 1007,
      "ish": 1008,
      "yl": 1009,
      "cid": 1010,
      "Ġ-": 1011,
      "ied": 1012,
      "erv": 1013,
      "Ġ2025": 1014,
      "43": 1015,
      "hem": 1016,
      "://": 1017,
      "ever": 1018,
      "ould": 1019,
      "ons": 1020,
      "Ġusing": 1021,
      "org": 1022,
      "Ġalso": 1023,
      "ruct": 1024,
      "ory": 1025,
      "Ġdata": 1026,
      "Ġcons": 1027,
      "Ġbut": 1028,
      "ĠX": 1029,
      "cl": 1030,
      "57": 1031,
      "ok": 1032,
      "ne": 1033,
      "Ġdet": 1034,
      "58": 1035,
      "ution": 1036,
      "Ġ\"": 1037,
      "ysis": 1038,
      "rib": 1039,
      "âĢĿ": 1040,
      "Ġde": 1041,
      "ics": 1042,
      "Ġmodel": 1043,
      "eed": 1044,
      "Ġyou": 1045,
      "21": 1046,
      "ous": 1047,
      "Ġle": 1048,
      "Ġsa": 1049,
      "ttps": 1050,
      "Ġapp": 1051,
      "ob": 1052,
      "Ġrel": 1053,
      "Ġsub": 1054,
      "ren": 1055,
      "ĠAl": 1056,
      "59": 1057,
      "Ġpe": 1058,
      "Ġresp": 1059,
      "Ġexp": 1060,
      "Ġam": 1061,
      "ally": 1062,
      "Ġdo": 1063,
      "Ġits": 1064,
      "Ġincre": 1065,
      "fter": 1066,
      "ures": 1067,
      "56": 1068,
      "Ġval": 1069,
      "Ġthey": 1070,
      "Ġtw": 1071,
      "Ġup": 1072,
      "ym": 1073,
      "Ġso": 1074,
      "Ġunder": 1075,
      "uring": 1076,
      "Ġsignific": 1077,
      "Ġgroup": 1078,
      "Ġacc": 1079,
      "Ġno": 1080,
      "Ġthan": 1081,
      "Ġpol": 1082,
      "ized": 1083,
      "202": 1084,
      "100": 1085,
      "Ġpos": 1086,
      "ethod": 1087,
      "The": 1088,
      "Ġbeen": 1089,
      "Ġvar": 1090,
      "Ġdec": 1091,
      "tain": 1092,
      "ti": 1093,
      "ious": 1094,
      "Ġtime": 1095,
      "Ġte": 1096,
      "rough": 1097,
      "Ġused": 1098,
      "Ġinto": 1099,
      "ĠSc": 1100,
      "Ġother": 1101,
      "Ġover": 1102,
      "ization": 1103,
      "lud": 1104,
      "74": 1105,
      "Ġ200": 1106,
      "Ġinclud": 1107,
      "tern": 1108,
      "uth": 1109,
      "Ġwill": 1110,
      "Ġem": 1111,
      "Ġone": 1112,
      "ĠFigure": 1113,
      "ational": 1114,
      "84": 1115,
      "ings": 1116,
      "ature": 1117,
      "Ġsignificant": 1118,
      "ĠCon": 1119,
      "ha": 1120,
      "94": 1121,
      "Ġthese": 1122,
      "Ġ11": 1123,
      "Ġhttps": 1124,
      "Ġ30": 1125,
      "Ġwho": 1126,
      "Ġpres": 1127,
      "rit": 1128,
      "ĠCom": 1129,
      "oun": 1130,
      "Ġspec": 1131,
      "rig": 1132,
      "doi": 1133,
      "ants": 1134,
      "Ġse": 1135,
      "duct": 1136,
      "Ġ17": 1137,
      "ues": 1138,
      "ays": 1139,
      "Ġ25": 1140,
      "63": 1141,
      "amp": 1142,
      "ict": 1143,
      "Ġsup": 1144,
      "here": 1145,
      "inal": 1146,
      "uc": 1147,
      "Ġmed": 1148,
      "ident": 1149,
      "Ġcor": 1150,
      "ark": 1151,
      "Ġlow": 1152,
      "ht": 1153,
      "Ġform": 1154,
      "ĠâĢľ": 1155,
      "Ġtwo": 1156,
      "ability": 1157,
      "Ġhad": 1158,
      "Ġhis": 1159,
      "62": 1160,
      "ĠUn": 1161,
      "acter": 1162,
      "erg": 1163,
      "Ġqu": 1164,
      "ĠPro": 1165,
      "Ġdifferent": 1166,
      "ĠIt": 1167,
      "eng": 1168,
      "over": 1169,
      "ox": 1170,
      "ected": 1171,
      "Ġthere": 1172,
      "71": 1173,
      "08": 1174,
      "Ġbl": 1175,
      "93": 1176,
      "Ġ18": 1177,
      "ism": 1178,
      "Ġdist": 1179,
      "Ġwork": 1180,
      "ivity": 1181,
      "aterial": 1182,
      "Ġsuch": 1183,
      "icro": 1184,
      "73": 1185,
      "Ġafter": 1186,
      "tic": 1187,
      "ann": 1188,
      "54": 1189,
      "Ġanalysis": 1190,
      "Ġmay": 1191,
      "72": 1192,
      "Ġperform": 1193,
      "ike": 1194,
      "):": 1195,
      "92": 1196,
      "cc": 1197,
      "Ġeffect": 1198,
      "03": 1199,
      "ĠQ": 1200,
      "pr": 1201,
      "Ġmethod": 1202,
      "ential": 1203,
      "Ġlevel": 1204,
      "ade": 1205,
      "ix": 1206,
      "ĠÂ±": 1207,
      "own": 1208,
      "Ġabout": 1209,
      "ĠAd": 1210,
      "Ġrep": 1211,
      "ie": 1212,
      "evelop": 1213,
      "01": 1214,
      "Ġpartic": 1215,
      "Ġwhen": 1216,
      "ities": 1217,
      "ey": 1218,
      "Ġyear": 1219,
      "of": 1220,
      "ases": 1221,
      "arg": 1222,
      "Ġprocess": 1223,
      "41": 1224,
      "Ġsaid": 1225,
      "ium": 1226,
      "ression": 1227,
      "83": 1228,
      "ient": 1229,
      "ĠLi": 1230,
      "Ġtr": 1231,
      "Ġthrough": 1232,
      "82": 1233,
      "Ġsim": 1234,
      "chn": 1235,
      "Ġsol": 1236,
      "ax": 1237,
      "ces": 1238,
      "Ġmin": 1239,
      "ins": 1240,
      "ration": 1241,
      "Ġpo": 1242,
      "ans": 1243,
      "als": 1244,
      "06": 1245,
      "ject": 1246,
      "ĠWe": 1247,
      "53": 1248,
      "Ġresults": 1249,
      "Ġfun": 1250,
      "view": 1251,
      "Ġpar": 1252,
      "Ġconc": 1253,
      "09": 1254,
      "Ġour": 1255,
      "ning": 1256,
      "ural": 1257,
      "Ġfact": 1258,
      "Ġmet": 1259,
      "irst": 1260,
      "ks": 1261,
      "ĠEn": 1262,
      "aw": 1263,
      "yn": 1264,
      "ified": 1265,
      "pos": 1266,
      "Ġcells": 1267,
      "eld": 1268,
      "07": 1269,
      "rap": 1270,
      "Ġ19": 1271,
      "110": 1272,
      "52": 1273,
      "Ġfl": 1274,
      "its": 1275,
      "ted": 1276,
      "plic": 1277,
      "ĠÎ": 1278,
      "Ġstruct": 1279,
      "to": 1280,
      "Ġkn": 1281,
      "Ġelect": 1282,
      "ram": 1283,
      "Ġatt": 1284,
      "Ġfe": 1285,
      "Ġ16": 1286,
      "Ġcar": 1287,
      "sc": 1288,
      "Ġnew": 1289,
      "Ġchang": 1290,
      "Ġdef": 1291,
      "ery": 1292,
      "ĠFor": 1293,
      "Ġeach": 1294,
      "ah": 1295,
      "ments": 1296,
      "Ġnum": 1297,
      "ale": 1298,
      "ll": 1299,
      "nal": 1300,
      "Ġed": 1301,
      "NA": 1302,
      "Ġwould": 1303,
      "Ġduring": 1304,
      "Ġdevelop": 1305,
      "Ġbec": 1306,
      "Ġtest": 1307,
      "Ġwhere": 1308,
      "olec": 1309,
      "Ġop": 1310,
      "oy": 1311,
      "ically": 1312,
      "Ġsome": 1313,
      "Ġonly": 1314,
      "ty": 1315,
      "de": 1316,
      "ĠZh": 1317,
      "ting": 1318,
      "Ġmeas": 1319,
      "04": 1320,
      "hy": 1321,
      "ĠâĪĴ": 1322,
      "ĠAm": 1323,
      "vent": 1324,
      "Ġboth": 1325,
      "lex": 1326,
      "Ġ2024": 1327,
      "fl": 1328,
      "rim": 1329,
      "ribut": 1330,
      "ively": 1331,
      "ize": 1332,
      "com": 1333,
      "Ġran": 1334,
      "ick": 1335,
      "Ġany": 1336,
      "ered": 1337,
      "Ġcur": 1338,
      "iss": 1339,
      "Ġuse": 1340,
      "Ġbi": 1341,
      "Ġmost": 1342,
      "Ġpot": 1343,
      "ĠMed": 1344,
      "ible": 1345,
      "ough": 1346,
      "Ġext": 1347,
      "Ġcould": 1348,
      "Ġchar": 1349,
      "âĢĶ": 1350,
      "##": 1351,
      "61": 1352,
      "agn": 1353,
      "ages": 1354,
      "ock": 1355,
      "Ġdes": 1356,
      "right": 1357,
      "!!": 1358,
      "ness": 1359,
      "vers": 1360,
      "atic": 1361,
      "Ġty": 1362,
      "duction": 1363,
      "Ġgener": 1364,
      "Ġthem": 1365,
      "co": 1366,
      "ense": 1367,
      "Ġappro": 1368,
      "Ġsec": 1369,
      "Ġwhile": 1370,
      "rate": 1371,
      "nce": 1372,
      "Ġâ": 1373,
      "ĠHe": 1374,
      "Ġtem": 1375,
      "owever": 1376,
      "ĠÃ": 1377,
      "....": 1378,
      "ink": 1379,
      "ined": 1380,
      "put": 1381,
      "118": 1382,
      "chan": 1383,
      "Ġresearch": 1384,
      "ield": 1385,
      "112": 1386,
      "EE": 1387,
      "Ġauth": 1388,
      "Ġav": 1389,
      "Ġfirst": 1390,
      "ire": 1391,
      "115": 1392,
      "113": 1393,
      "face": 1394,
      "Ġcap": 1395,
      "ople": 1396,
      "Ġobs": 1397,
      "117": 1398,
      "114": 1399,
      "ĠPh": 1400,
      "mm": 1401,
      "116": 1402,
      "Ġsel": 1403,
      "urther": 1404,
      "der": 1405,
      "ivers": 1406,
      "ðĿ": 1407,
      "119": 1408,
      "ert": 1409,
      "Ġins": 1410,
      "Ġif": 1411,
      "ological": 1412,
      "les": 1413,
      "Ġadd": 1414,
      "ĠEx": 1415,
      "ene": 1416,
      "led": 1417,
      "oid": 1418,
      "Ġident": 1419,
      "000": 1420,
      "ample": 1421,
      "ld": 1422,
      "ĠWh": 1423,
      "Ġreport": 1424,
      "Ġwell": 1425,
      "Ġlike": 1426,
      "Ġdep": 1427,
      "aterials": 1428,
      "ral": 1429,
      "ĠTable": 1430,
      "Ġgo": 1431,
      "Ġmicro": 1432,
      "ĠAs": 1433,
      "Ġdem": 1434,
      "ampl": 1435,
      "Ġsens": 1436,
      "cept": 1437,
      "Ġstudies": 1438,
      "Ġobserv": 1439,
      "lo": 1440,
      "Ġ24": 1441,
      "Ġcoll": 1442,
      "Ġfound": 1443,
      "Ġ+": 1444,
      "dro": 1445,
      "Ġoff": 1446,
      "Ġx": 1447,
      "Ġend": 1448,
      "Ġher": 1449,
      "Ġprote": 1450,
      "ubMed": 1451,
      "Ġdise": 1452,
      "ited": 1453,
      "Ġmult": 1454,
      "Ġpotential": 1455,
      "Ġneed": 1456,
      "Ġpeople": 1457,
      "wn": 1458,
      "ĠBi": 1459,
      "Ġfunction": 1460,
      "Ġreview": 1461,
      "Ġcy": 1462,
      "amm": 1463,
      "itive": 1464,
      "ina": 1465,
      "Ġthree": 1466,
      "the": 1467,
      "rel": 1468,
      "gen": 1469,
      "Ġmain": 1470,
      "ior": 1471,
      "con": 1472,
      "Ġcal": 1473,
      "SA": 1474,
      "isk": 1475,
      "Ġproper": 1476,
      "ĠAr": 1477,
      "Ġbased": 1478,
      "Ġmeasure": 1479,
      "ft": 1480,
      "ĠSh": 1481,
      "ters": 1482,
      "ĠPl": 1483,
      "PubMed": 1484,
      "Ġnumber": 1485,
      "Ġcoun": 1486,
      "cer": 1487,
      "Ġresult": 1488,
      "viron": 1489,
      "%)": 1490,
      "atory": 1491,
      "Ġhigher": 1492,
      "qual": 1493,
      "],": 1494,
      "81": 1495,
      "Ġpred": 1496,
      "osis": 1497,
      "ĠâĢĵ": 1498,
      "ext": 1499,
      "Ġnon": 1500,
      "Ġshould": 1501,
      "alu": 1502,
      "Ġlong": 1503,
      "mon": 1504,
      "Ġthose": 1505,
      "onse": 1506,
      "Ġu": 1507,
      "ification": 1508,
      "Ġlead": 1509,
      "fer": 1510,
      "sp": 1511,
      "ergy": 1512,
      "Ġstat": 1513,
      "Ġthen": 1514,
      "51": 1515,
      "her": 1516,
      "91": 1517,
      "ari": 1518,
      "Ġset": 1519,
      "Ġacid": 1520,
      "print": 1521,
      "Ġ22": 1522,
      "air": 1523,
      "ety": 1524,
      "hip": 1525,
      "Ġpost": 1526,
      "Ġrequ": 1527,
      "Ġsupport": 1528,
      "Ġloc": 1529,
      "gan": 1530,
      "Ġmy": 1531,
      "Ġyears": 1532,
      "Ġconf": 1533,
      "ID": 1534,
      "Ġpresent": 1535,
      "etic": 1536,
      "ailable": 1537,
      "Ġlevels": 1538,
      "etwork": 1539,
      "Ġinform": 1540,
      "Ġprog": 1541,
      "rop": 1542,
      "rent": 1543,
      "In": 1544,
      "ules": 1545,
      "Ġmechan": 1546,
      "uch": 1547,
      "acy": 1548,
      "oh": 1549,
      "Ġincluding": 1550,
      "Ġopt": 1551,
      "Ġshe": 1552,
      "OS": 1553,
      "Ġca": 1554,
      "Ġwhat": 1555,
      "Ġne": 1556,
      "oss": 1557,
      "Ġ28": 1558,
      "Ġcharacter": 1559,
      "az": 1560,
      "opy": 1561,
      "other": 1562,
      "ĠSp": 1563,
      "Ġgl": 1564,
      "Ġmem": 1565,
      "Ġshown": 1566,
      "Ġsl": 1567,
      "action": 1568,
      "ency": 1569,
      "Ġinst": 1570,
      "Ġpath": 1571,
      "ĠAp": 1572,
      "round": 1573,
      "CC": 1574,
      "ental": 1575,
      "Ġtemper": 1576,
      "Ġest": 1577,
      "Ġfind": 1578,
      "Ġagain": 1579,
      "Ġjust": 1580,
      "ward": 1581,
      "ĠHowever": 1582,
      "Ġwithin": 1583,
      "Ġant": 1584,
      "ute": 1585,
      "ĠWang": 1586,
      "ties": 1587,
      "usc": 1588,
      "amples": 1589,
      "Ġapplic": 1590,
      "Ġmade": 1591,
      "dd": 1592,
      "med": 1593,
      "Ġtechn": 1594,
      "els": 1595,
      "esis": 1596,
      "ĠThese": 1597,
      "Ġmat": 1598,
      "ering": 1599,
      "Ġrepres": 1600,
      "ĠPol": 1601,
      "Ġcompl": 1602,
      "onst": 1603,
      "uman": 1604,
      "app": 1605,
      "ites": 1606,
      "Ġ27": 1607,
      "Ġdid": 1608,
      "Ġpreprint": 1609,
      "Ġactivity": 1610,
      "ĠDi": 1611,
      ")(": 1612,
      "af": 1613,
      "rad": 1614,
      "ern": 1615,
      "Ġvis": 1616,
      "ices": 1617,
      "min": 1618,
      "Ġenh": 1619,
      "ĠTo": 1620,
      "ull": 1621,
      "Ġsyn": 1622,
      "Ġexperim": 1623,
      "ta": 1624,
      "Ġback": 1625,
      "inn": 1626,
      "Ġsug": 1627,
      "Ġprev": 1628,
      "Ġ2023": 1629,
      "Ġyour": 1630,
      "ĠIm": 1631,
      "II": 1632,
      "ilar": 1633,
      "iversity": 1634,
      "ii": 1635,
      "Ġdue": 1636,
      "Ġ2022": 1637,
      "eric": 1638,
      "abl": 1639,
      "Ġsurface": 1640,
      "Ġfil": 1641,
      "Ġaddition": 1642,
      "ournal": 1643,
      "ier": 1644,
      "ĠPL": 1645,
      "sy": 1646,
      "ĠChem": 1647,
      "ived": 1648,
      "Figure": 1649,
      "Ġplay": 1650,
      "Ġtri": 1651,
      "arge": 1652,
      "duced": 1653,
      "Ġent": 1654,
      "Ġvalues": 1655,
      "aj": 1656,
      "Ġrol": 1657,
      "Ġcol": 1658,
      "Ġhow": 1659,
      "Ġ2021": 1660,
      "ower": 1661,
      "rid": 1662,
      "me": 1663,
      "Ġ26": 1664,
      "Ġgroups": 1665,
      "Ġobserved": 1666,
      "ished": 1667,
      "based": 1668,
      "ulated": 1669,
      "Ġ*": 1670,
      "Ġperformance": 1671,
      "reen": 1672,
      "Ġ23": 1673,
      "Ġwater": 1674,
      "Ġeffects": 1675,
      "Ġ102": 1676,
      "Ġgrow": 1677,
      "Ġconcent": 1678,
      "iew": 1679,
      "por": 1680,
      "Ġdisc": 1681,
      "efore": 1682,
      "Ġstress": 1683,
      "ĠMe": 1684,
      "Ġcompos": 1685,
      "Ġvers": 1686,
      "urn": 1687,
      "Fig": 1688,
      "ife": 1689,
      "ody": 1690,
      "Ġ112": 1691,
      "Ġ60": 1692,
      "AT": 1693,
      "Ġear": 1694,
      "105": 1695,
      "ane": 1696,
      "Ġconduct": 1697,
      "Ġdeterm": 1698,
      "Ġ115": 1699,
      "Ġsame": 1700,
      "anu": 1701,
      "Ġ125": 1702,
      "Ġrisk": 1703,
      "Ġbecause": 1704,
      "OR": 1705,
      "Th": 1706,
      "ove": 1707,
      "Ġ113": 1708,
      "Ġexpl": 1709,
      "ww": 1710,
      "Ġimport": 1711,
      "Ġever": 1712,
      "rum": 1713,
      "Ġcent": 1714,
      "riv": 1715,
      "Ġobtain": 1716,
      "Ġ118": 1717,
      "Ġ128": 1718,
      "ĠDe": 1719,
      "iation": 1720,
      "Ġ114": 1721,
      "Ġ29": 1722,
      "ae": 1723,
      "Ġ116": 1724,
      "Ġ117": 1725,
      "Ġ2020": 1726,
      "Ġevalu": 1727,
      "Ġincreased": 1728,
      "par": 1729,
      "Ġdisease": 1730,
      "Ġrespect": 1731,
      "001": 1732,
      "Ġ127": 1733,
      "Ġ<": 1734,
      "Ġ119": 1735,
      "Ġ122": 1736,
      "Ġeven": 1737,
      "gest": 1738,
      ".-": 1739,
      "ful": 1740,
      "Ġ126": 1741,
      "Ġstructure": 1742,
      "Ġdesign": 1743,
      "Ġ135": 1744,
      "Ġavailable": 1745,
      "Ġlic": 1746,
      ".âĢĿ": 1747,
      "ced": 1748,
      "bi": 1749,
      "Ġwor": 1750,
      "sh": 1751,
      "ording": 1752,
      "atal": 1753,
      "Ġassess": 1754,
      "Ġcalc": 1755,
      "nces": 1756,
      "Ġnetwork": 1757,
      "Ġ133": 1758,
      "ĠRe": 1759,
      "way": 1760,
      "Ġsignificantly": 1761,
      "Ġclass": 1762,
      "Ġ136": 1763,
      "Ġinformation": 1764,
      "125": 1765,
      "Ġ137": 1766,
      "ately": 1767,
      "Ġconst": 1768,
      "ĠInt": 1769,
      "man": 1770,
      "que": 1771,
      "ĠEl": 1772,
      "Ġbeing": 1773,
      "ests": 1774,
      "Ġprot": 1775,
      "rated": 1776,
      "aking": 1777,
      "Ġ21": 1778,
      "Ġpredict": 1779,
      "Ġrate": 1780,
      "Ġ138": 1781,
      "Ġdev": 1782,
      "Ġ145": 1783,
      "reg": 1784,
      "Ġknow": 1785,
      "ribution": 1786,
      "ĠAc": 1787,
      "Ġ146": 1788,
      "Ġox": 1789,
      "ĠThere": 1790,
      "Ġ147": 1791,
      "abol": 1792,
      "Ġ148": 1793,
      "Ġbefore": 1794,
      "ĠZhang": 1795,
      "ify": 1796,
      "oph": 1797,
      "Ġget": 1798,
      "ogen": 1799,
      "ole": 1800,
      "Ġsamples": 1801,
      "200": 1802,
      "ote": 1803,
      "ms": 1804,
      "ĠSens": 1805,
      "onn": 1806,
      "Ġhel": 1807,
      "erence": 1808,
      "135": 1809,
      "bo": 1810,
      "Ġ95": 1811,
      "Ġproperties": 1812,
      "Ġparame": 1813,
      "108": 1814,
      "145": 1815,
      "Ġactiv": 1816,
      "Ġ120": 1817,
      "Ġenviron": 1818,
      "Ġfactors": 1819,
      "Ġchild": 1820,
      "Ġz": 1821,
      "iven": 1822,
      "Ġer": 1823,
      "Ġtotal": 1824,
      "mit": 1825,
      "Ġfurther": 1826,
      "ret": 1827,
      "Ġ129": 1828,
      "ĠSci": 1829,
      "ience": 1830,
      "ĠUniversity": 1831,
      "Ġparticip": 1832,
      "ash": 1833,
      "Ġ37": 1834,
      "Ġref": 1835,
      "day": 1836,
      "Ġ45": 1837,
      "line": 1838,
      "Ġmany": 1839,
      "Ġdoi": 1840,
      "Ġcomplex": 1841,
      "Ġret": 1842,
      "Ġphys": 1843,
      "ĠTe": 1844,
      "Ġlower": 1845,
      "NE": 1846,
      "107": 1847,
      "Ġenergy": 1848,
      "att": 1849,
      "ially": 1850,
      "Ġdevelopment": 1851,
      "omet": 1852,
      "Ġtemperature": 1853,
      "Ġocc": 1854,
      "ool": 1855,
      "Ġgreat": 1856,
      "omen": 1857,
      "Ġextract": 1858,
      "by": 1859,
      "ason": 1860,
      "140": 1861,
      "idence": 1862,
      "Ġspect": 1863,
      "120": 1864,
      "ently": 1865,
      "Ġprotein": 1866,
      "Ġ|": 1867,
      "Ġbio": 1868,
      "Ġcomb": 1869,
      "ma": 1870,
      "Ġdecre": 1871,
      "Ġincrease": 1872,
      "ime": 1873,
      "ists": 1874,
      "Ġperc": 1875,
      "Ġamong": 1876,
      "Ġvalue": 1877,
      "ðĿĳ": 1878,
      "requ": 1879,
      "Ġ199": 1880,
      "147": 1881,
      "150": 1882,
      "Ġreported": 1883,
      "Ġep": 1884,
      "Ġlay": 1885,
      "ator": 1886,
      "sor": 1887,
      "Ġdemonst": 1888,
      "ĠAll": 1889,
      "Ġ/": 1890,
      "ince": 1891,
      "ily": 1892,
      "atures": 1893,
      "Ġ139": 1894,
      "Ġagainst": 1895,
      "ĠAb": 1896,
      "Ġ149": 1897,
      "Ġser": 1898,
      "Ġmolec": 1899,
      "Ġreal": 1900,
      "Ġsubst": 1901,
      "Ġdown": 1902,
      "land": 1903,
      "Ġbu": 1904,
      "Ġdel": 1905,
      "ograp": 1906,
      "Ġprim": 1907,
      "109": 1908,
      "Ġes": 1909,
      "Ġshowed": 1910,
      "anuary": 1911,
      "Ġposs": 1912,
      "128": 1913,
      "ton": 1914,
      "130": 1915,
      "Ġsecond": 1916,
      ".\"": 1917,
      "Ġcontain": 1918,
      "oo": 1919,
      "Ġhydro": 1920,
      "uss": 1921,
      "129": 1922,
      "138": 1923,
      "Ġpublic": 1924,
      "Ġlear": 1925,
      "Ġexpression": 1926,
      "ances": 1927,
      "148": 1928,
      "Ġacross": 1929,
      "106": 1930,
      "ĠInd": 1931,
      "Ġcrit": 1932,
      "Ġwithout": 1933,
      "any": 1934,
      "127": 1935,
      "ich": 1936,
      "ensity": 1937,
      "'t": 1938,
      "gor": 1939,
      "137": 1940,
      "ĠNew": 1941,
      "Ġimpact": 1942,
      "Ġ36": 1943,
      "ĠGen": 1944,
      "ormal": 1945,
      "Ġ38": 1946,
      "ogn": 1947,
      ",âĢĿ": 1948,
      "Ġauthor": 1949,
      "Ġfib": 1950,
      "Ġtrain": 1951,
      "asc": 1952,
      "Ġhuman": 1953,
      "imal": 1954,
      "resp": 1955,
      "Ġqual": 1956,
      "Ġcurrent": 1957,
      "Ĺ¦": 1958,
      "Ġallow": 1959,
      "Ġ55": 1960,
      "Ġadv": 1961,
      "chi": 1962,
      "Ġhim": 1963,
      "Ġbas": 1964,
      "ĠRev": 1965,
      "hemical": 1966,
      "Ġ140": 1967,
      "Ġ80": 1968,
      "mg": 1969,
      "MS": 1970,
      "Ġtyp": 1971,
      "Ġ130": 1972,
      "we": 1973,
      "Ġchanges": 1974,
      ",\"": 1975,
      "ĠIntern": 1976,
      "ĠÃĹ": 1977,
      "Ġhand": 1978,
      "omm": 1979,
      "ention": 1980,
      "Ġcare": 1981,
      "Ġmethods": 1982,
      "ision": 1983,
      "Ġelectro": 1984,
      "Ġpr": 1985,
      "Ġsee": 1986,
      "Ġmean": 1987,
      "dom": 1988,
      "row": 1989,
      "Ġ2019": 1990,
      "Ġdoes": 1991,
      "Ġproduct": 1992,
      "Ġrele": 1993,
      "Ġtra": 1994,
      "ĠJanuary": 1995,
      "Ġcontin": 1996,
      "Ġ48": 1997,
      "Ġsoci": 1998,
      "Ġvol": 1999,
      "overn": 2000,
      "tr": 2001,
      "Ġstate": 2002,
      "Ġlicense": 2003,
      "Ġwee": 2004,
      "ĠDis": 2005,
      "ount": 2006,
      "Ġdat": 2007,
      "###": 2008,
      "for": 2009,
      "yz": 2010,
      "126": 2011,
      "Ġsuper": 2012,
      "ats": 2013,
      "Ġrole": 2014,
      "Ġrepresent": 2015,
      "ho": 2016,
      "ingle": 2017,
      "arget": 2018,
      "ode": 2019,
      "ides": 2020,
      "Ġcontent": 2021,
      "Ġcompar": 2022,
      "139": 2023,
      "Ġ33": 2024,
      "irc": 2025,
      "Ġpat": 2026,
      "Ġvery": 2027,
      "Ġperformed": 2028,
      "Ġspecific": 2029,
      "Ġsize": 2030,
      "Ġorgan": 2031,
      "inc": 2032,
      "ĠâĢĶ": 2033,
      "Ġrespectively": 2034,
      "ĠRep": 2035,
      "Ġcount": 2036,
      "Ġmodels": 2037,
      "pro": 2038,
      "Ġmark": 2039,
      "na": 2040,
      "!!!!": 2041,
      "istics": 2042,
      "Ġterm": 2043,
      "Ġsimilar": 2044,
      "sions": 2045,
      "iod": 2046,
      "Ġgrowth": 2047,
      "ually": 2048,
      "149": 2049,
      "gth": 2050,
      "erst": 2051,
      "ired": 2052,
      "Ġlit": 2053,
      "Ġevery": 2054,
      "Ġdispl": 2055,
      "Ġbo": 2056,
      "Ġphot": 2057,
      "Ġaccur": 2058,
      "ars": 2059,
      "ison": 2060,
      "ĠAg": 2061,
      "Ġfollowing": 2062,
      "Ġmake": 2063,
      "havi": 2064,
      "Ġsk": 2065,
      "Ġremain": 2066,
      "ective": 2067,
      "Ġcall": 2068,
      "Ġclinical": 2069,
      "146": 2070,
      "Ġcancer": 2071,
      "Ġ&": 2072,
      "Ġinit": 2073,
      "136": 2074,
      "Ġ70": 2075,
      "2024": 2076,
      "Ġ90": 2077,
      "ĠNut": 2078,
      "rong": 2079,
      "Ġcase": 2080,
      "Ġrad": 2081,
      "Ġread": 2082,
      "Ġcontribut": 2083,
      "Ġ39": 2084,
      "etter": 2085,
      "Ġobtained": 2086,
      "Ġfam": 2087,
      "Ġ34": 2088,
      "Ġmor": 2089,
      "ung": 2090,
      "ems": 2091,
      "la": 2092,
      "104": 2093,
      "ns": 2094,
      "Rx": 2095,
      "Ġvari": 2096,
      ");": 2097,
      "ploy": 2098,
      "Ġ75": 2099,
      "ĠCo": 2100,
      "read": 2101,
      "âĢľ": 2102,
      "bon": 2103,
      "Ġless": 2104,
      "vention": 2105,
      "Ġmechanism": 2106,
      "Ġapproach": 2107,
      "Rxiv": 2108,
      "Ġprevious": 2109,
      "Ġmemb": 2110,
      "AR": 2111,
      "Ġdon": 2112,
      "Ġway": 2113,
      "ĠAnd": 2114,
      "rength": 2115,
      "onal": 2116,
      "Ġut": 2117,
      "Ġresponse": 2118,
      "Ġimportant": 2119,
      "Ġnan": 2120,
      "ao": 2121,
      "ĠFig": 2122,
      "Ġsample": 2123,
      "Ġserv": 2124,
      "plement": 2125,
      "Ġvarious": 2126,
      "Ġ32": 2127,
      "Ġfour": 2128,
      "ĠRE": 2129,
      "ck": 2130,
      "ĠRec": 2131,
      ",,": 2132,
      "asing": 2133,
      "orts": 2134,
      "ativ": 2135,
      "Ġfac": 2136,
      "SC": 2137,
      "Ġnow": 2138,
      "Ġpoint": 2139,
      "Ġ$": 2140,
      "Ġprom": 2141,
      "Ġexhib": 2142,
      "iol": 2143,
      "Ġrati": 2144,
      "Ġmetabol": 2145,
      "Ġmonth": 2146,
      "alk": 2147,
      "Ġgood": 2148,
      "Ġdrug": 2149,
      "anced": 2150,
      "Ġprof": 2151,
      "no": 2152,
      "ĠCO": 2153,
      "ĠLiu": 2154,
      "rateg": 2155,
      "ĠAmeric": 2156,
      "ner": 2157,
      "âĢĳ": 2158,
      "Ġ2018": 2159,
      "ationship": 2160,
      "Ġarea": 2161,
      "respond": 2162,
      "Ġ47": 2163,
      "omic": 2164,
      "Ġversion": 2165,
      "Ġfrequ": 2166,
      "fore": 2167,
      "ĠCont": 2168,
      "Ġsignal": 2169,
      "posed": 2170,
      "Ġchange": 2171,
      "ĠTrans": 2172,
      "hee": 2173,
      "used": 2174,
      "Ġenvironment": 2175,
      "Ġsequ": 2176,
      "Ġsever": 2177,
      "Ġsuggest": 2178,
      "Ġdiagn": 2179,
      "urs": 2180,
      "........": 2181,
      "Ġpolym": 2182,
      "Ġlarge": 2183,
      "elf": 2184,
      "ĠSy": 2185,
      "Ġpress": 2186,
      "Ġage": 2187,
      "Ġ2017": 2188,
      "Ġlight": 2189,
      "AS": 2190,
      "ĠAss": 2191,
      "ĠSch": 2192,
      "Â±": 2193,
      "iple": 2194,
      "Ġ2016": 2195,
      "Ġright": 2196,
      "Ġlast": 2197,
      "Ġrange": 2198,
      "Ġcreat": 2199,
      "Ġ110": 2200,
      "Ġartic": 2201,
      "less": 2202,
      "ĠMar": 2203,
      "ved": 2204,
      "ĠPLOS": 2205,
      "Ġweight": 2206,
      "Ġhelp": 2207,
      "ĠCl": 2208,
      "ĠSensors": 2209,
      "Ġfr": 2210,
      "Ġrespons": 2211,
      "sequ": 2212,
      "Ġstill": 2213,
      "Ġpower": 2214,
      "ror": 2215,
      "ots": 2216,
      "aa": 2217,
      "artment": 2218,
      "VI": 2219,
      "Ġ46": 2220,
      "Ġsingle": 2221,
      "gg": 2222,
      "Ġdeg": 2223,
      "ĠPre": 2224,
      "Ġpa": 2225,
      "Ġrece": 2226,
      "Ġmuch": 2227,
      "opyright": 2228,
      "ilit": 2229,
      "ĠMaterials": 2230,
      "Ġfoc": 2231,
      "Ġparticular": 2232,
      "Ġaver": 2233,
      "di": 2234,
      "Ġparameters": 2235,
      "istance": 2236,
      "epend": 2237,
      "ĠEng": 2238,
      "Ġcorrel": 2239,
      "ynam": 2240,
      "ware": 2241,
      "pp": 2242,
      "124": 2243,
      "alysis": 2244,
      "ds": 2245,
      "Ġspecies": 2246,
      "--": 2247,
      "artic": 2248,
      "ĠONE": 2249,
      "Ġ58": 2250,
      "amin": 2251,
      "Ġreve": 2252,
      "ca": 2253,
      "ones": 2254,
      "Ġ85": 2255,
      "Ġ105": 2256,
      "ĠData": 2257,
      "Ġmov": 2258,
      "orn": 2259,
      "ĠNo": 2260,
      "izing": 2261,
      "Ġday": 2262,
      "ript": 2263,
      "CT": 2264,
      "Ġdetection": 2265,
      "CA": 2266,
      "eft": 2267,
      "ring": 2268,
      "Ġ57": 2269,
      "Ġ44": 2270,
      "ule": 2271,
      "ibility": 2272,
      "134": 2273,
      "Ġ49": 2274,
      "actions": 2275,
      "Ġtype": 2276,
      "ling": 2277,
      "ĠSe": 2278,
      "144": 2279,
      "li": 2280,
      "ĠChen": 2281,
      "ĠOn": 2282,
      "Ġstart": 2283,
      "Ġequ": 2284,
      "Ġ2015": 2285,
      "ĠChina": 2286,
      "thesis": 2287,
      "ĠInst": 2288,
      "Ġgran": 2289,
      "Ġlik": 2290,
      "Ġopen": 2291,
      "Ġimmun": 2292,
      "older": 2293,
      "Ġneg": 2294,
      "ajor": 2295,
      "Ġquality": 2296,
      "Ġmaterial": 2297,
      "Ġhist": 2298,
      "off": 2299,
      "oms": 2300,
      "Ġlife": 2301,
      "Ġ'": 2302,
      "Ġbehavi": 2303,
      "rr": 2304,
      "uture": 2305,
      "Ġiss": 2306,
      "ource": 2307,
      "Ġaround": 2308,
      "ored": 2309,
      "ints": 2310,
      "Ġrelationship": 2311,
      "ĠGu": 2312,
      "istic": 2313,
      "ĠBut": 2314,
      "Ġtarget": 2315,
      "ST": 2316,
      "ouse": 2317,
      "au": 2318,
      "ĠMod": 2319,
      "MA": 2320,
      "ĠAt": 2321,
      "Ġposition": 2322,
      "ably": 2323,
      "ĠMolec": 2324,
      "Ġown": 2325,
      "overnment": 2326,
      "aps": 2327,
      "ounds": 2328,
      "Ġdiet": 2329,
      "300": 2330,
      "Ġstrength": 2331,
      "Ġcommon": 2332,
      "Ġgene": 2333,
      "Ġblood": 2334,
      "Ġorig": 2335,
      "Ġprogram": 2336,
      "ights": 2337,
      "Ġ56": 2338,
      "Ġaffect": 2339,
      "Ġoffic": 2340,
      "Ġcr": 2341,
      "ĠInternational": 2342,
      "102": 2343,
      "ĠBl": 2344,
      "ores": 2345,
      "ĠIs": 2346,
      "Ġstrateg": 2347,
      "erstand": 2348,
      "Ġfood": 2349,
      "ries": 2350,
      "oty": 2351,
      "Ġpur": 2352,
      "Ġenc": 2353,
      "Ġmot": 2354,
      "agement": 2355,
      "Ġ99": 2356,
      "oint": 2357,
      "sk": 2358,
      "ways": 2359,
      "Ġmax": 2360,
      "eral": 2361,
      "ER": 2362,
      "Ġgenes": 2363,
      "ives": 2364,
      "Ġchildren": 2365,
      "ĠLe": 2366,
      "Ġtop": 2367,
      "ocy": 2368,
      "abor": 2369,
      "atch": 2370,
      "103": 2371,
      "Ġdom": 2372,
      "ĠPM": 2373,
      "hat": 2374,
      "val": 2375,
      "ros": 2376,
      "Ġpass": 2377,
      "Ġdifferences": 2378,
      "Ġtion": 2379,
      "Ġsolution": 2380,
      "Ġcross": 2381,
      "Ġinteg": 2382,
      "ĠStud": 2383,
      "ĠResearch": 2384,
      "imum": 2385,
      "Ġvia": 2386,
      "Ġlook": 2387,
      "Ġcomplet": 2388,
      "Ġwant": 2389,
      "Ġplant": 2390,
      "Ġauthors": 2391,
      "Ġflu": 2392,
      "Ġbetter": 2393,
      "Ġ59": 2394,
      "Ġperiod": 2395,
      "Ġ88": 2396,
      "Ġ77": 2397,
      "Ġ67": 2398,
      "Ġprobl": 2399,
      "ĠMan": 2400,
      "Ġ68": 2401,
      "Â°": 2402,
      "Ġchall": 2403,
      "iver": 2404,
      "Ġconducted": 2405,
      "ĠUSA": 2406,
      "Ġwomen": 2407,
      "Ġmaterials": 2408,
      "Ġdays": 2409,
      "Ġestim": 2410,
      "ope": 2411,
      "Ġfield": 2412,
      "ulations": 2413,
      "Ġens": 2414,
      "Ġthink": 2415,
      "Ġmix": 2416,
      "Ġpract": 2417,
      "ĠInter": 2418,
      "PS": 2419,
      "ublished": 2420,
      "Ġlocal": 2421,
      "ources": 2422,
      "Ġ66": 2423,
      "ardi": 2424,
      "imen": 2425,
      "ke": 2426,
      "Ġaut": 2427,
      "Ġworld": 2428,
      "Ġsym": 2429,
      "ethyl": 2430,
      "Ġlearning": 2431,
      "Ġfindings": 2432,
      "ured": 2433,
      "journal": 2434,
      "Ġkey": 2435,
      "%,": 2436,
      "Ġbro": 2437,
      "Ġbody": 2438,
      "Ġanalyz": 2439,
      "iting": 2440,
      "Ġ78": 2441,
      "Ġpercent": 2442,
      "PA": 2443,
      "ĠHu": 2444,
      "Ġcult": 2445,
      "ength": 2446,
      "Ġaccording": 2447,
      "cy": 2448,
      "**": 2449,
      "ember": 2450,
      "eration": 2451,
      "Ġder": 2452,
      "ication": 2453,
      "Ġtraining": 2454,
      "ĠâĪ": 2455,
      "ino": 2456,
      "Ġaccess": 2457,
      "Ġpattern": 2458,
      "Ġsystems": 2459,
      "Ġmice": 2460,
      "cember": 2461,
      "ury": 2462,
      "EM": 2463,
      "ĠBe": 2464,
      "ĠâĢ¢": 2465,
      "ĠTechn": 2466,
      ".[": 2467,
      "Ġpoly": 2468,
      "ather": 2469,
      "though": 2470,
      "123": 2471,
      "Ġ31": 2472,
      "Ġ42": 2473,
      "Ġtiss": 2474,
      "Ġinj": 2475,
      "Ġdisplay": 2476,
      "Ġincluded": 2477,
      "Ġ98": 2478,
      "ni": 2479,
      "Ġmajor": 2480,
      "ume": 2481,
      "Ġ150": 2482,
      "Ġgu": 2483,
      "Ġcompon": 2484,
      "Ġfin": 2485,
      "ĠComp": 2486,
      "do": 2487,
      "Ġnec": 2488,
      "Ġnormal": 2489,
      "ĠCD": 2490,
      "133": 2491,
      "Ġmass": 2492,
      "Ġinterest": 2493,
      "1371": 2494,
      "Ġdistribution": 2495,
      "ĠStat": 2496,
      "Ġexc": 2497,
      "Ġaverage": 2498,
      "ele": 2499,
      "122": 2500,
      "Ġrelated": 2501,
      "oot": 2502,
      "Ġcomput": 2503,
      "ĠÂµ": 2504,
      "icine": 2505,
      "Ġsay": 2506,
      "Ġparticipants": 2507,
      "omy": 2508,
      "fe": 2509,
      "ĠPEE": 2510,
      "Ġratio": 2511,
      "ĠOr": 2512,
      "Ġseveral": 2513,
      "ĠbioRxiv": 2514,
      "143": 2515,
      "gu": 2516,
      "Ġline": 2517,
      "Ġstrong": 2518,
      "ĠThey": 2519,
      "Ġemploy": 2520,
      "ects": 2521,
      "Ġthough": 2522,
      "Ġ87": 2523,
      "142": 2524,
      "Ġfeatures": 2525,
      "bs": 2526,
      "ĠPhys": 2527,
      "ols": 2528,
      "Ġquest": 2529,
      "Ġrecord": 2530,
      "Ġtth": 2531,
      "err": 2532,
      "verse": 2533,
      "Ġsuc": 2534,
      "arm": 2535,
      "ĠResp": 2536,
      "roph": 2537,
      "Ġloss": 2538,
      "Ġoften": 2539,
      "Ġlater": 2540,
      "Ġdatase": 2541,
      "132": 2542,
      "Ġprovide": 2543,
      "akes": 2544,
      "Ġregion": 2545,
      "terior": 2546,
      "Ġ97": 2547,
      "Ġ43": 2548,
      "Ġquant": 2549,
      "vel": 2550,
      "Ġcour": 2551,
      "Ġconcentration": 2552,
      "Ġpeak": 2553,
      "minist": 2554,
      "Ġ69": 2555,
      "Ġpp": 2556,
      "Ps": 2557,
      "152": 2558,
      "Ġfew": 2559,
      "oma": 2560,
      "ĠAuth": 2561,
      "ĠCell": 2562,
      "Ġrun": 2563,
      "ank": 2564,
      "AA": 2565,
      "Ġreveal": 2566,
      "hel": 2567,
      "Ġprec": 2568,
      "Ġunderstand": 2569,
      "EW": 2570,
      "PI": 2571,
      "Ġalong": 2572,
      "154": 2573,
      "Ġphase": 2574,
      "Ġanti": 2575,
      "153": 2576,
      "Ġinfl": 2577,
      "Ġill": 2578,
      "nd": 2579,
      "dust": 2580,
      "PE": 2581,
      "Ġreduced": 2582,
      "Ġ96": 2583,
      "Ġ54": 2584,
      "go": 2585,
      "Ġ2014": 2586,
      "170": 2587,
      "ĠÏ": 2588,
      "Ġvir": 2589,
      "Ġcorrespond": 2590,
      "ators": 2591,
      "ried": 2592,
      "itud": 2593,
      "tle": 2594,
      "ye": 2595,
      "Ġteam": 2596,
      "itu": 2597,
      "ensive": 2598,
      "aim": 2599,
      "Ġ79": 2600,
      "ĠFurther": 2601,
      "ĠAddition": 2602,
      "ĠFOR": 2603,
      "astic": 2604,
      "ĠAct": 2605,
      "Ġearly": 2606,
      "Ġconsid": 2607,
      "Ġbehavior": 2608,
      "Ġmight": 2609,
      "gorith": 2610,
      "idation": 2611,
      "hi": 2612,
      "Ġimages": 2613,
      "ĠâĹ¦": 2614,
      "Ġfund": 2615,
      "Ġsocial": 2616,
      "plied": 2617,
      "1111": 2618,
      "Ġvaria": 2619,
      "ĠMicro": 2620,
      "Ġ76": 2621,
      "ĠAdv": 2622,
      "Ġphen": 2623,
      "ets": 2624,
      "Ġmultiple": 2625,
      "ĠCar": 2626,
      "Ġoptim": 2627,
      "NT": 2628,
      "ique": 2629,
      "Ġ89": 2630,
      "apt": 2631,
      "ĠFe": 2632,
      "Ġdam": 2633,
      "ste": 2634,
      "ple": 2635,
      "otic": 2636,
      "Ġresulting": 2637,
      "fficient": 2638,
      "Ġfree": 2639,
      "illion": 2640,
      "ven": 2641,
      "ributed": 2642,
      "ryst": 2643,
      "ĠAfter": 2644,
      "ĠCent": 2645,
      "Ġ64": 2646,
      "ĠPolym": 2647,
      "Ġrest": 2648,
      "Ġ108": 2649,
      "ray": 2650,
      "Ġwrit": 2651,
      "cm": 2652,
      "son": 2653,
      "sych": 2654,
      "rast": 2655,
      "Ġve": 2656,
      "ĠMD": 2657,
      "ĠPEER": 2658,
      "Ġexample": 2659,
      "epartment": 2660,
      "aving": 2661,
      "aff": 2662,
      "Ġtherm": 2663,
      "Ġutil": 2664,
      "wit": 2665,
      "Ġconsum": 2666,
      "emic": 2667,
      "nn": 2668,
      "Ġbest": 2669,
      "Ġ86": 2670,
      "omes": 2671,
      "Ġflow": 2672,
      "Ġproduction": 2673,
      "Ġdepend": 2674,
      "Ġinclude": 2675,
      "rial": 2676,
      "Ġsep": 2677,
      "Ġeth": 2678,
      "IR": 2679,
      "ĠREVI": 2680,
      "volution": 2681,
      "unction": 2682,
      "Ġfactor": 2683,
      "Ġlayer": 2684,
      "Ġmusc": 2685,
      "idd": 2686,
      "ressed": 2687,
      "ont": 2688,
      "not": 2689,
      "Ġidentified": 2690,
      "Ġleft": 2691,
      "Ġnear": 2692,
      "Ġpresence": 2693,
      "atural": 2694,
      "Ġreaction": 2695,
      "ĠSim": 2696,
      "1016": 2697,
      "ned": 2698,
      "Ġanother": 2699,
      "obal": 2700,
      "))": 2701,
      "ceed": 2702,
      "Ġstep": 2703,
      "ĠAuthor": 2704,
      "Ġing": 2705,
      "Ġ107": 2706,
      "Cl": 2707,
      "Ġproposed": 2708,
      "Ġpossible": 2709,
      "Ġlarg": 2710,
      "Ġorder": 2711,
      "ih": 2712,
      "Ġcases": 2713,
      "îĦ": 2714,
      "Ġnut": 2715,
      "inding": 2716,
      "ney": 2717,
      "Ġï": 2718,
      "Ġcirc": 2719,
      "itional": 2720,
      "uro": 2721,
      "ĠSup": 2722,
      "155": 2723,
      "Ġconn": 2724,
      "Ġself": 2725,
      "ĠMethod": 2726,
      "Ġpositive": 2727,
      "Ġide": 2728,
      "Ġly": 2729,
      "ataly": 2730,
      "Ġcarbon": 2731,
      "och": 2732,
      "Ġlikely": 2733,
      "Ġarticle": 2734,
      "Ġcopyright": 2735,
      "Ġsince": 2736,
      "Ġdetail": 2737,
      "Ġlaw": 2738,
      "hether": 2739,
      "ependent": 2740,
      "Ġmen": 2741,
      "ĠWhen": 2742,
      "180": 2743,
      "It": 2744,
      "atively": 2745,
      "ĠCor": 2746,
      "ither": 2747,
      "Ġapplications": 2748,
      "iving": 2749,
      "Ġpressure": 2750,
      "reed": 2751,
      "Ġ109": 2752,
      "Ġcer": 2753,
      "Ġincreasing": 2754,
      "NC": 2755,
      "Ġyield": 2756,
      "Ġhere": 2757,
      "Ġpresented": 2758,
      "uses": 2759,
      "rane": 2760,
      "rients": 2761,
      "raph": 2762,
      "ands": 2763,
      "Ġimage": 2764,
      "ĠMet": 2765,
      "Ġbenef": 2766,
      "ED": 2767,
      "Ġcharacteristics": 2768,
      "luc": 2769,
      "175": 2770,
      "Ġdifference": 2771,
      "ape": 2772,
      "RNA": 2773,
      "Ġeffective": 2774,
      "itation": 2775,
      "uration": 2776,
      "Ġadj": 2777,
      "ĠSur": 2778,
      "ĠREVIEW": 2779,
      "ining": 2780,
      "165": 2781,
      "Ġresistance": 2782,
      "tend": 2783,
      ".)": 2784,
      "Ġexpos": 2785,
      "Ġleg": 2786,
      "ĠYang": 2787,
      "bles": 2788,
      "AM": 2789,
      "uk": 2790,
      "Ġside": 2791,
      "erve": 2792,
      "ĠClin": 2793,
      "Ġgoing": 2794,
      "ris": 2795,
      "Ġknown": 2796,
      "Ġred": 2797,
      "Ġclear": 2798,
      "Ġgeneral": 2799,
      "ĠAdditionally": 2800,
      "ĠMore": 2801,
      "ĠIf": 2802,
      "pone": 2803,
      "Ġsubject": 2804,
      "Ġability": 2805,
      "Ġmut": 2806,
      "itro": 2807,
      "ze": 2808,
      "which": 2809,
      "Ġbel": 2810,
      "Ġload": 2811,
      "Ġgovernment": 2812,
      "Ġang": 2813,
      "ird": 2814,
      "idered": 2815,
      "ush": 2816,
      "Ġfamily": 2817,
      "pet": 2818,
      "Ġfail": 2819,
      "sorption": 2820,
      "ections": 2821,
      "Ġabove": 2822,
      "ĠUS": 2823,
      "comes": 2824,
      "Ġsom": 2825,
      "urity": 2826,
      "Ġmeasured": 2827,
      "Ġsuccess": 2828,
      "Ġ106": 2829,
      "abil": 2830,
      "Ġ52": 2831,
      "ĠNot": 2832,
      "Ġconsidered": 2833,
      "Ġgame": 2834,
      "185": 2835,
      "Ġaccuracy": 2836,
      "158": 2837,
      "Ġmedical": 2838,
      "ND": 2839,
      "Ġfuture": 2840,
      "Ġeng": 2841,
      "AC": 2842,
      "Ġke": 2843,
      "Ġdynam": 2844,
      "ales": 2845,
      "195": 2846,
      "160": 2847,
      "Ġhard": 2848,
      "Ġdisord": 2849,
      "AP": 2850,
      "ĠPC": 2851,
      "rt": 2852,
      "arc": 2853,
      "Ġpeer": 2854,
      "ival": 2855,
      "NN": 2856,
      "Ġsev": 2857,
      "Ġoccur": 2858,
      "190": 2859,
      "da": 2860,
      "Ġ53": 2861,
      "Ġla": 2862,
      "ĠDNA": 2863,
      "ications": 2864,
      "rations": 2865,
      "rs": 2866,
      "ĠInstit": 2867,
      "Ġ2013": 2868,
      "SS": 2869,
      "fo": 2870,
      "167": 2871,
      "ĠResponse": 2872,
      "Ġcapac": 2873,
      "188": 2874,
      "istry": 2875,
      "Ġcontinu": 2876,
      "ett": 2877,
      "medi": 2878,
      "Ġphysical": 2879,
      "Ġindividuals": 2880,
      "Ġmonths": 2881,
      "168": 2882,
      "Ġinflamm": 2883,
      "ott": 2884,
      "pec": 2885,
      "Ġweek": 2886,
      "Ġalgorith": 2887,
      "xim": 2888,
      "fact": 2889,
      "Ġrandom": 2890,
      "Ġsoft": 2891,
      "ĠQu": 2892,
      "ĠMolecules": 2893,
      "ĠNational": 2894,
      "iqu": 2895,
      "ascular": 2896,
      "Ġmolecular": 2897,
      "ĠMater": 2898,
      "aces": 2899,
      "157": 2900,
      "ĠOb": 2901,
      "Ġess": 2902,
      "enn": 2903,
      "su": 2904,
      "Ġplace": 2905,
      "Ġintro": 2906,
      "Ġobject": 2907,
      "ci": 2908,
      "250": 2909,
      "187": 2910,
      "ĠHigh": 2911,
      "Ġwhether": 2912,
      "Ġfunctional": 2913,
      "til": 2914,
      "Ġview": 2915,
      "ids": 2916,
      "Ã©": 2917,
      "Ġhome": 2918,
      "005": 2919,
      "Ġprimary": 2920,
      "ped": 2921,
      "Ġexam": 2922,
      "ences": 2923,
      "Ġexperimental": 2924,
      "Ġnm": 2925,
      "178": 2926,
      "Ġleast": 2927,
      "raction": 2928,
      "Ġplants": 2929,
      "Ġstrain": 2930,
      "osph": 2931,
      "Ġdensity": 2932,
      "Ġsepar": 2933,
      "302": 2934,
      "ĠReview": 2935,
      "ica": 2936,
      "308": 2937,
      "198": 2938,
      "Ġevidence": 2939,
      "https": 2940,
      "Ġ144": 2941,
      "more": 2942,
      "Ġconfir": 2943,
      "Ġrob": 2944,
      "Ġmaintain": 2945,
      "gn": 2946,
      "Ġgiven": 2947,
      "405": 2948,
      "ĠSo": 2949,
      "Ġvs": 2950,
      "450": 2951,
      "chiev": 2952,
      "197": 2953,
      "177": 2954,
      "ĠHy": 2955,
      "rict": 2956,
      "Ġ94": 2957,
      "ĠElect": 2958,
      "rior": 2959,
      "alf": 2960,
      "Ġsex": 2961,
      "ĠScience": 2962,
      "Ġbacter": 2963,
      "Ġadminist": 2964,
      "ocr": 2965,
      "Ġir": 2966,
      "under": 2967,
      "usion": 2968,
      "Ġ>": 2969,
      "ames": 2970,
      "elect": 2971,
      "002": 2972,
      "Ġfive": 2973,
      "PC": 2974,
      "Ġproducts": 2975,
      "Ġimprove": 2976,
      "fi": 2977,
      "ani": 2978,
      "Ġprob": 2979,
      "ĠUs": 2980,
      "Ġmuscle": 2981,
      "Ġste": 2982,
      "Ġ74": 2983,
      "Ġtypes": 2984,
      "Ġchalleng": 2985,
      "outh": 2986,
      "light": 2987,
      "159": 2988,
      "ĠSub": 2989,
      "Ġpolymer": 2990,
      "ĠCC": 2991,
      "Ġstructures": 2992,
      "ream": 2993,
      "Ġeas": 2994,
      "Ġsympt": 2995,
      "We": 2996,
      "Ġ84": 2997,
      "Ġdemonstrated": 2998,
      "199": 2999,
      "Ġnext": 3000,
      "Ġra": 3001,
      "ĠWith": 3002,
      "169": 3003,
      "kn": 3004,
      "Ġ2012": 3005,
      "Ġparticularly": 3006,
      "pen": 3007,
      "aken": 3008,
      "Ġair": 3009,
      "Ġann": 3010,
      "oung": 3011,
      "Ġshort": 3012,
      "St": 3013,
      "roup": 3014,
      "189": 3015,
      "Ġposted": 3016,
      "Ġlip": 3017,
      "Ġformation": 3018,
      "Ġreduction": 3019,
      "156": 3020,
      "ulate": 3021,
      "Ġpoints": 3022,
      "Ġclos": 3023,
      "itis": 3024,
      "Ġ72": 3025,
      "tery": 3026,
      "Ġcalculated": 3027,
      "Ġdra": 3028,
      "Ġcut": 3029,
      "ucle": 3030,
      "Ġachiev": 3031,
      "Ġattack": 3032,
      "clud": 3033,
      "Ġcert": 3034,
      "Ġterms": 3035,
      "rix": 3036,
      "Ġprovided": 3037,
      "MI": 3038,
      "Ġmaking": 3039,
      "yt": 3040,
      "kg": 3041,
      "Ġfeature": 3042,
      "ĠPer": 3043,
      "455": 3044,
      "Ġcompounds": 3045,
      "Ġtas": 3046,
      "Ġwid": 3047,
      "ĠAv": 3048,
      "sel": 3049,
      "ture": 3050,
      "196": 3051,
      "ĠTherefore": 3052,
      "orth": 3053,
      "Ġhour": 3054,
      "Ġ124": 3055,
      "Ġinfluence": 3056,
      "si": 3057,
      "179": 3058,
      "Ġche": 3059,
      "Ġpaper": 3060,
      "ĠDes": 3061,
      "ians": 3062,
      "Ġsays": 3063,
      "ĠCan": 3064,
      "166": 3065,
      "ober": 3066,
      "term": 3067,
      "Ġfrequency": 3068,
      "ĠInput": 3069,
      "work": 3070,
      "Ġlin": 3071,
      "uscript": 3072,
      "cles": 3073,
      "Ġlength": 3074,
      "Ġoutcomes": 3075,
      "resh": 3076,
      "ĠMc": 3077,
      "Ġmust": 3078,
      "rump": 3079,
      "Ġindust": 3080,
      "ler": 3081,
      "186": 3082,
      "Ġfull": 3083,
      "176": 3084,
      "rates": 3085,
      "Ġoth": 3086,
      "465": 3087,
      "Ġanalys": 3088,
      "Ġ62": 3089,
      "Ġproject": 3090,
      "495": 3091,
      "Ġult": 3092,
      "485": 3093,
      "Ġmanagement": 3094,
      "lor": 3095,
      "ĠBo": 3096,
      "475": 3097,
      "As": 3098,
      "ĠReg": 3099,
      "Ġapplication": 3100,
      "TT": 3101,
      "EG": 3102,
      "Ġbond": 3103,
      "ether": 3104,
      "ised": 3105,
      "Ġsoil": 3106,
      "Ġtissue": 3107,
      "Ġactive": 3108,
      "Ġbar": 3109,
      "ledge": 3110,
      "orr": 3111,
      "Ġadded": 3112,
      "Ġecon": 3113,
      "ruc": 3114,
      "Ġgreater": 3115,
      "1101": 3116,
      "Ġdetermined": 3117,
      "xid": 3118,
      "408": 3119,
      "305": 3120,
      "ĠII": 3121,
      "163": 3122,
      "Ġinitial": 3123,
      "480": 3124,
      "Ġreally": 3125,
      "ÃŃ": 3126,
      "BY": 3127,
      "Ġidentify": 3128,
      "ession": 3129,
      "set": 3130,
      "407": 3131,
      "Ġ134": 3132,
      "sa": 3133,
      "reh": 3134,
      "ĠOne": 3135,
      "375": 3136,
      "004": 3137,
      "Ġfem": 3138,
      "Ġinvolved": 3139,
      "ĠDepartment": 3140,
      "lusion": 3141,
      "Ġ63": 3142,
      "Ġpromot": 3143,
      "Ġturn": 3144,
      "Ġhapp": 3145,
      "ĠSu": 3146,
      "460": 3147,
      "Ġ104": 3148,
      "ĠYou": 3149,
      "Ġrates": 3150,
      "aged": 3151,
      "350": 3152,
      "Ġdescribed": 3153,
      "490": 3154,
      "ĠRef": 3155,
      "470": 3156,
      "oper": 3157,
      "355": 3158,
      "ange": 3159,
      "Ġart": 3160,
      "ference": 3161,
      "Ġsus": 3162,
      "Ġapplied": 3163,
      "Ġseen": 3164,
      "Ġdeep": 3165,
      "Ġfinal": 3166,
      "gin": 3167,
      "Ġcertain": 3168,
      "Ġerror": 3169,
      "ĠNutrients": 3170,
      "Ġsat": 3171,
      "Ġtoward": 3172,
      "ĠAcc": 3173,
      "ama": 3174,
      "Ġstatist": 3175,
      "ĠSm": 3176,
      "Ġindex": 3177,
      "Ġsite": 3178,
      "Ġchrom": 3179,
      "Ġmetal": 3180,
      "hetic": 3181,
      "385": 3182,
      "Ġnegative": 3183,
      "Ġreach": 3184,
      "Ġantib": 3185,
      "395": 3186,
      "Ġoverall": 3187,
      "ked": 3188,
      "ĠAmerican": 3189,
      "ng": 3190,
      "468": 3191,
      "Ġrequire": 3192,
      "488": 3193,
      "rich": 3194,
      "365": 3195,
      "Ġfat": 3196,
      "Ġ###": 3197,
      "Ġtoo": 3198,
      "Ġlink": 3199,
      "ĠÎ±": 3200,
      "Ġareas": 3201,
      "ruction": 3202,
      "Ġsensor": 3203,
      "390": 3204,
      "Ġproduc": 3205,
      "478": 3206,
      "307": 3207,
      "ĠMedicine": 3208,
      "urope": 3209,
      "ĠPe": 3210,
      "Ġschool": 3211,
      "335": 3212,
      "Ġput": 3213,
      "477": 3214,
      "Ġholder": 3215,
      "458": 3216,
      "Ġrefl": 3217,
      "Ġ2011": 3218,
      "rist": 3219,
      "utions": 3220,
      "457": 3221,
      "Ġ]": 3222,
      "ras": 3223,
      "360": 3224,
      "Ġeither": 3225,
      "ged": 3226,
      "rac": 3227,
      "497": 3228,
      "Ġessential": 3229,
      "220": 3230,
      "Ġaddress": 3231,
      "Ġcertified": 3232,
      "205": 3233,
      "330": 3234,
      "Ġstability": 3235,
      "odes": 3236,
      "osa": 3237,
      "498": 3238,
      "AD": 3239,
      "467": 3240,
      "Ġmit": 3241,
      "hes": 3242,
      "sol": 3243,
      "Ġcritical": 3244,
      "ĠCons": 3245,
      "like": 3246,
      "ĠAnalysis": 3247,
      "utes": 3248,
      "Ġappear": 3249,
      "ĠSystem": 3250,
      "174": 3251,
      "487": 3252,
      "255": 3253,
      "PP": 3254,
      "995": 3255,
      "Ġinteraction": 3256,
      "328": 3257,
      "Ġleading": 3258,
      "cle": 3259,
      "nh": 3260,
      "ography": 3261,
      "380": 3262,
      "370": 3263,
      "icity": 3264,
      "164": 3265,
      "Ġcost": 3266,
      "eline": 3267,
      "Ġeduc": 3268,
      "Ġrevealed": 3269,
      "406": 3270,
      "ĠCI": 3271,
      "Ġrecent": 3272,
      "Ġestabl": 3273,
      "Ġbuild": 3274,
      "Ġtransc": 3275,
      "Ġmagn": 3276,
      "409": 3277,
      "Ġnecess": 3278,
      "Ġvisual": 3279,
      "Ġcalled": 3280,
      "Ġdri": 3281,
      "Ġscore": 3282,
      "309": 3283,
      "ided": 3284,
      "ĠFurthermore": 3285,
      "ches": 3286,
      "225": 3287,
      "!!!!!!!!": 3288,
      "Ġtests": 3289,
      "367": 3290,
      "net": 3291,
      "Ġconsistent": 3292,
      "ords": 3293,
      "Ġinteractions": 3294,
      "www": 3295,
      "ĠBar": 3296,
      "Ġaim": 3297,
      "ula": 3298,
      "ĠMin": 3299,
      "Ġcomm": 3300,
      "Ġregard": 3301,
      "ply": 3302,
      "ĠDecember": 3303,
      "Ã¡": 3304,
      "ĠSoci": 3305,
      "ĠUnited": 3306,
      "Ġable": 3307,
      "184": 3308,
      "Ġchemical": 3309,
      "Ġcontrast": 3310,
      "ustain": 3311,
      "ges": 3312,
      "006": 3313,
      "olic": 3314,
      "Ġcyt": 3315,
      "Âµ": 3316,
      "Ġlimited": 3317,
      "atives": 3318,
      "Ġfocus": 3319,
      "265": 3320,
      "ended": 3321,
      "990": 3322,
      "Ġincreases": 3323,
      "ES": 3324,
      "Ġdeveloped": 3325,
      "194": 3326,
      "iff": 3327,
      "Â´": 3328,
      "tein": 3329,
      "Ġgra": 3330,
      "358": 3331,
      "PM": 3332,
      "Ġcho": 3333,
      "izes": 3334,
      "007": 3335,
      "ĠMay": 3336,
      "338": 3337,
      "test": 3338,
      "ains": 3339,
      "ĠBy": 3340,
      "Ġindicating": 3341,
      "489": 3342,
      "enzym": 3343,
      "275": 3344,
      "funder": 3345,
      "Ġli": 3346,
      "IC": 3347,
      "459": 3348,
      "orld": 3349,
      "999": 3350,
      "378": 3351,
      "uity": 3352,
      "337": 3353,
      "208": 3354,
      "tee": 3355,
      "295": 3356,
      "398": 3357,
      "active": 3358,
      "469": 3359,
      "Ġseries": 3360,
      "377": 3361,
      "Ġproteins": 3362,
      "îĦĥ": 3363,
      "998": 3364,
      "388": 3365,
      "BS": 3366,
      "side": 3367,
      "Ġden": 3368,
      "Ġbeh": 3369,
      "Ġee": 3370,
      "ana": 3371,
      "ano": 3372,
      "397": 3373,
      "260": 3374,
      "Ġwar": 3375,
      "357": 3376,
      "270": 3377,
      "Ġrecogn": 3378,
      "Ġsaf": 3379,
      "ley": 3380,
      "Ġgenetic": 3381,
      "uble": 3382,
      "Ġbig": 3383,
      "Ġperpet": 3384,
      "466": 3385,
      "Ġlist": 3386,
      "387": 3387,
      "Ġgranted": 3388,
      "404": 3389,
      "Ġtesting": 3390,
      "Ġoriginal": 3391,
      "ĠMo": 3392,
      "456": 3393,
      "Ġdamage": 3394,
      "inct": 3395,
      "umin": 3396,
      "Ġregions": 3397,
      "eut": 3398,
      "368": 3399,
      "ĠEurope": 3400,
      "479": 3401,
      "207": 3402,
      "008": 3403,
      "Ġnatural": 3404,
      "ĠChar": 3405,
      "ET": 3406,
      "related": 3407,
      "285": 3408,
      "Ġtry": 3409,
      "003": 3410,
      "Ġcardi": 3411,
      "Ġmechanisms": 3412,
      "ecting": 3413,
      "476": 3414,
      "Ġsil": 3415,
      "Ġtherapy": 3416,
      "496": 3417,
      "268": 3418,
      "ĠTrump": 3419,
      "LC": 3420,
      "ĠðĿĳ": 3421,
      "Ġ2010": 3422,
      "Ġstatus": 3423,
      "pecially": 3424,
      "Ġanalyzed": 3425,
      "ĠCH": 3426,
      "Ġfar": 3427,
      "Ġec": 3428,
      "306": 3429,
      "486": 3430,
      "oring": 3431,
      "ector": 3432,
      "ressive": 3433,
      "iles": 3434,
      "rem": 3435,
      "Ġsymptoms": 3436,
      "997": 3437,
      "escence": 3438,
      "ĠCu": 3439,
      "Ġprep": 3440,
      "ping": 3441,
      "ĠGe": 3442,
      "Ġcate": 3443,
      "359": 3444,
      "Ġsw": 3445,
      "ĠNat": 3446,
      "ĠPD": 3447,
      "Ġimproved": 3448,
      "290": 3449,
      "Table": 3450,
      "Ġbus": 3451,
      "Ġheat": 3452,
      "Ġrelative": 3453,
      "Ġprior": 3454,
      "Ġoil": 3455,
      "po": 3456,
      "aling": 3457,
      "Ġ82": 3458,
      "Ġmac": 3459,
      "riend": 3460,
      "Ġver": 3461,
      "Ġagg": 3462,
      "Ġtold": 3463,
      "tens": 3464,
      "227": 3465,
      "ĠEd": 3466,
      "2025": 3467,
      "SD": 3468,
      "ĠPar": 3469,
      "Ġlog": 3470,
      "Ġtransfer": 3471,
      "277": 3472,
      "Ġmeans": 3473,
      "Ġpolit": 3474,
      "339": 3475,
      "009": 3476,
      "ĠColl": 3477,
      "228": 3478,
      "overy": 3479,
      "Ġconcentrations": 3480,
      "AN": 3481,
      "Ġcontact": 3482,
      "ĠFF": 3483,
      "172": 3484,
      "Ġhighest": 3485,
      "Ġpolic": 3486,
      "Ġcorresponding": 3487,
      "258": 3488,
      "Ġâī": 3489,
      "379": 3490,
      "Ġselected": 3491,
      "Ġliter": 3492,
      "Ġframe": 3493,
      "ulf": 3494,
      "leep": 3495,
      "erences": 3496,
      "AG": 3497,
      "020": 3498,
      "298": 3499,
      "Ġmechanical": 3500,
      "ĠWu": 3501,
      "369": 3502,
      "Ġrequired": 3503,
      "Ġtrad": 3504,
      "ĠNa": 3505,
      "Ġquestion": 3506,
      "257": 3507,
      "pite": 3508,
      "king": 3509,
      "ada": 3510,
      "278": 3511,
      "192": 3512,
      "Ġsix": 3513,
      "Ġcryst": 3514,
      "101": 3515,
      "162": 3516,
      "389": 3517,
      "ĠPlants": 3518,
      "ulin": 3519,
      "206": 3520,
      "eph": 3521,
      "rew": 3522,
      "Ġcapacity": 3523,
      "ulating": 3524,
      "267": 3525,
      "Ġindicated": 3526,
      "lying": 3527,
      "366": 3528,
      "297": 3529,
      "Ġprevent": 3530,
      "ething": 3531,
      "Â·": 3532,
      "209": 3533,
      "Ġseg": 3534,
      "cre": 3535,
      "173": 3536,
      "376": 3537,
      "Ġblock": 3538,
      "pes": 3539,
      "Ġfore": 3540,
      "Ġexist": 3541,
      "...": 3542,
      "386": 3543,
      "Ġneur": 3544,
      "Ġion": 3545,
      "hh": 3546,
      "Ġenzym": 3547,
      "Ġ73": 3548,
      "CH": 3549,
      "ching": 3550,
      "Ġprocesses": 3551,
      "Ġhowever": 3552,
      "Ġcomponents": 3553,
      "aren": 3554,
      "ĠMa": 3555,
      "Ġmulti": 3556,
      "den": 3557,
      "ĠInf": 3558,
      "hao": 3559,
      "ucl": 3560,
      "opt": 3561,
      "182": 3562,
      "Ġstim": 3563,
      "ĠSec": 3564,
      "Ġproced": 3565,
      "ĠGl": 3566,
      "ĠRNA": 3567,
      "CO": 3568,
      "Ġuntil": 3569,
      "Ġespecially": 3570,
      "Ġeff": 3571,
      "356": 3572,
      "Ġ.": 3573,
      "280": 3574,
      "era": 3575,
      "336": 3576,
      "Ġbran": 3577,
      "ls": 3578,
      "ĠJoh": 3579,
      "Ġ41": 3580,
      "ĠEm": 3581,
      "sis": 3582,
      "arr": 3583,
      "396": 3584,
      "gr": 3585,
      "bers": 3586,
      "Ġhom": 3587,
      "ĠÎ²": 3588,
      "ili": 3589,
      "Ġpatterns": 3590,
      "Ġ92": 3591,
      "ĠOur": 3592,
      "Ġnever": 3593,
      "brid": 3594,
      "Ġlack": 3595,
      "Ġter": 3596,
      "ĠStudy": 3597,
      "Ġtthhee": 3598,
      "wo": 3599,
      "Ġmatrix": 3600,
      "ĠCal": 3601,
      "ĠmL": 3602,
      "iques": 3603,
      "Ġbeli": 3604,
      "Ġdiagnosis": 3605,
      "229": 3606,
      "imate": 3607,
      "ĠNi": 3608,
      "Ġfo": 3609,
      "Ġmach": 3610,
      "Ġscreen": 3611,
      "288": 3612,
      "sequently": 3613,
      "Ġcomposition": 3614,
      "Ġpay": 3615,
      "Ġonline": 3616,
      "193": 3617,
      "Ġmedia": 3618,
      "Ġglobal": 3619,
      "494": 3620,
      "ger": 3621,
      "Ġ198": 3622,
      "996": 3623,
      "454": 3624,
      "rence": 3625,
      "Ġbinding": 3626,
      "Ġ83": 3627,
      "Ġmillion": 3628,
      "Ġadjust": 3629,
      "Ġthings": 3630,
      "ead": 3631,
      "yro": 3632,
      "Ġcorrelation": 3633,
      "474": 3634,
      "ĠCur": 3635,
      "Ġperpetuity": 3636,
      "266": 3637,
      "296": 3638,
      "Ġstructural": 3639,
      "Ġanalyses": 3640,
      "259": 3641,
      "ising": 3642,
      "VA": 3643,
      "Ġ#": 3644,
      "Ġ103": 3645,
      "Ġsource": 3646,
      "time": 3647,
      "ĠGerm": 3648,
      "Ġhighly": 3649,
      "Ġexperiments": 3650,
      "ioxid": 3651,
      "0000": 3652,
      "Ġcoup": 3653,
      "NF": 3654,
      "ĠFran": 3655,
      "464": 3656,
      "inter": 3657,
      "Ġproblem": 3658,
      "ional": 3659,
      "isc": 3660,
      "Ġcover": 3661,
      "ĠLu": 3662,
      "Î±": 3663,
      "Ġrecept": 3664,
      "ancing": 3665,
      "Ġadditional": 3666,
      "256": 3667,
      "279": 3668,
      "Ġdiseases": 3669,
      "269": 3670,
      "Ġdataset": 3671,
      "aced": 3672,
      "ĠWhile": 3673,
      "Ġdecrease": 3674,
      "Ġvariables": 3675,
      "Ġgr": 3676,
      "286": 3677,
      "ini": 3678,
      "eh": 3679,
      "287": 3680,
      "ĠFood": 3681,
      "ĠPlant": 3682,
      "Ġ93": 3683,
      "226": 3684,
      "183": 3685,
      "ging": 3686,
      "arily": 3687,
      "CD": 3688,
      "Ġdeath": 3689,
      "va": 3690,
      "tu": 3691,
      "Ġattention": 3692,
      "eter": 3693,
      "see": 3694,
      "oler": 3695,
      "276": 3696,
      "ĠNov": 3697,
      "Ġcompet": 3698,
      "Ġcome": 3699,
      "ĠKim": 3700,
      "thing": 3701,
      "ancer": 3702,
      "Ġhistory": 3703,
      "304": 3704,
      "Ġrecomm": 3705,
      "vey": 3706,
      "Ġtax": 3707,
      "Ġbecome": 3708,
      "Ġcomparison": 3709,
      "484": 3710,
      "Ġlittle": 3711,
      "Ġmaximum": 3712,
      "Ġindicates": 3713,
      "itivity": 3714,
      "Ġrepresents": 3715,
      "Ġsomething": 3716,
      "xi": 3717,
      "111": 3718,
      "Ġpul": 3719,
      "Ġamount": 3720,
      "ĠOR": 3721,
      "ĠDet": 3722,
      "Ġmar": 3723,
      "Ġapproxim": 3724,
      "ĠPolymers": 3725,
      "Ġplas": 3726,
      "Ġthermal": 3727,
      "334": 3728,
      "Ġrap": 3729,
      "MP": 3730,
      "ĠpH": 3731,
      "oles": 3732,
      "ĠNe": 3733,
      "Ġimplement": 3734,
      "elling": 3735,
      "Ġsitu": 3736,
      "iveness": 3737,
      "Ġprovides": 3738,
      "ĠEv": 3739,
      "ructure": 3740,
      "Ġweeks": 3741,
      "289": 3742,
      "Ġspeed": 3743,
      "ĠPMID": 3744,
      "Ġge": 3745,
      "RP": 3746,
      "Ġpack": 3747,
      "Ġstage": 3748,
      "Ġlab": 3749,
      "ologies": 3750,
      "Ġhaving": 3751,
      "ĠCol": 3752,
      "MD": 3753,
      "Ġextraction": 3754,
      "ero": 3755,
      "354": 3756,
      "ygen": 3757,
      "025": 3758,
      "ancy": 3759,
      "444": 3760,
      "Ġtransform": 3761,
      "374": 3762,
      "Ġseason": 3763,
      "eria": 3764,
      "Ġ132": 3765,
      "olution": 3766,
      "Ġsurv": 3767,
      "750": 3768,
      "384": 3769,
      "edd": 3770,
      "Ġsynthesis": 3771,
      "une": 3772,
      "755": 3773,
      "243": 3774,
      "ĠDO": 3775,
      "970": 3776,
      "BC": 3777,
      "Ġenhance": 3778,
      "Ġbelow": 3779,
      "Ġax": 3780,
      "reatment": 3781,
      "ota": 3782,
      "ĠðĿ": 3783,
      "ĠFin": 3784,
      "ift": 3785,
      "Ġworking": 3786,
      "ĠMA": 3787,
      "Ġfilm": 3788,
      "ready": 3789,
      "Ġbone": 3790,
      "iat": 3791,
      "ĠPa": 3792,
      "Ġdecreased": 3793,
      "most": 3794,
      "fficult": 3795,
      "Ġexperience": 3796,
      "ba": 3797,
      "Ġacqu": 3798,
      "Ġsoftware": 3799,
      "Ġthick": 3800,
      "665": 3801,
      "MR": 3802,
      "Ġtreated": 3803,
      "Ġpast": 3804,
      "ĠBiol": 3805,
      "364": 3806,
      "403": 3807,
      "Ġpublished": 3808,
      "Ġmal": 3809,
      "ĠShe": 3810,
      "ender": 3811,
      "ĠEffect": 3812,
      "ĠIL": 3813,
      "Ġcop": 3814,
      "Ġcountry": 3815,
      "Ġcruc": 3816,
      "394": 3817,
      "Ġprop": 3818,
      "Ġcamp": 3819,
      "Ġasp": 3820,
      "atin": 3821,
      "omp": 3822,
      "ained": 3823,
      "inary": 3824,
      "pth": 3825,
      "Ġmeasurements": 3826,
      "ctions": 3827,
      "vision": 3828,
      "Ġpsych": 3829,
      "Ġevaluation": 3830,
      "Ġenvironmental": 3831,
      "load": 3832,
      "Ġcataly": 3833,
      "ault": 3834,
      "ĠThat": 3835,
      "Ġlot": 3836,
      "204": 3837,
      "ards": 3838,
      "Ġmembers": 3839,
      "Ġsafety": 3840,
      "__": 3841,
      "Ġtechnology": 3842,
      "452": 3843,
      "ĠMon": 3844,
      "ĠXu": 3845,
      "iang": 3846,
      "Ġhours": 3847,
      "ĠYu": 3848,
      "978": 3849,
      "Ġdevices": 3850,
      "Ġcontaining": 3851,
      "Ġcollected": 3852,
      "................": 3853,
      "Ġfeel": 3854,
      "994": 3855,
      "rome": 3856,
      "Ġpriv": 3857,
      "Ġrefer": 3858,
      "472": 3859,
      "Ġbreak": 3860,
      "Ġcause": 3861,
      "224": 3862,
      "Ġspace": 3863,
      "Ġmus": 3864,
      "teh": 3865,
      "Ġyoung": 3866,
      "Ġprol": 3867,
      "Ġbre": 3868,
      "ĠJournal": 3869,
      "SP": 3870,
      "OT": 3871,
      ")-": 3872,
      "492": 3873,
      "Ġsites": 3874,
      "ĠNutr": 3875,
      "Ġinfection": 3876,
      "Ġemerg": 3877,
      "ĠSpec": 3878,
      "vant": 3879,
      "Ġcountries": 3880,
      "ĠLee": 3881,
      "Ġstates": 3882,
      "Ġalready": 3883,
      "Ġreceived": 3884,
      "imes": 3885,
      "Ġforce": 3886,
      "264": 3887,
      "Ġmembrane": 3888,
      "icts": 3889,
      "ĠMult": 3890,
      "Ġdifficult": 3891,
      "Ġvolume": 3892,
      "ĠCommun": 3893,
      "EEE": 3894,
      "462": 3895,
      "Ġplan": 3896,
      "ĠModel": 3897,
      "Ġbroad": 3898,
      "ĠSun": 3899,
      "Ġalgorithm": 3900,
      "Ġsupplement": 3901,
      "ĠPati": 3902,
      "493": 3903,
      "ament": 3904,
      "Ġfit": 3905,
      "Ġreason": 3906,
      "483": 3907,
      "Ġhighlight": 3908,
      "Ġdecision": 3909,
      "473": 3910,
      "482": 3911,
      "This": 3912,
      "Ġta": 3913,
      "uster": 3914,
      "ilt": 3915,
      "Ġgot": 3916,
      "Ġissues": 3917,
      "Ġ((": 3918,
      "Ġimaging": 3919,
      "Ġillust": 3920,
      "ĠPr": 3921,
      "Ġdirectly": 3922,
      "Ġresid": 3923,
      "Ġov": 3924,
      "3390": 3925,
      "Ġland": 3926,
      "Ġgluc": 3927,
      "rees": 3928,
      "ynthesis": 3929,
      "Ġothers": 3930,
      "Ġtaken": 3931,
      "294": 3932,
      "Ġactivation": 3933,
      "ĠOct": 3934,
      "Al": 3935,
      "Ġri": 3936,
      "encing": 3937,
      "ĠStates": 3938,
      "254": 3939,
      "Ġkeep": 3940,
      "453": 3941,
      "astro": 3942,
      "Ġknowledge": 3943,
      "303": 3944,
      "ij": 3945,
      "olar": 3946,
      "333": 3947,
      "LA": 3948,
      "950": 3949,
      "758": 3950,
      "Ġtren": 3951,
      "ĠBio": 3952,
      "ĠST": 3953,
      "ĠPark": 3954,
      "222": 3955,
      "757": 3956,
      "Ġmeet": 3957,
      "ĠBased": 3958,
      "ĠComput": 3959,
      "Ġdetermine": 3960,
      "Ġcrucial": 3961,
      "ĠAf": 3962,
      "oids": 3963,
      "ĠSi": 3964,
      "463": 3965,
      "hen": 3966,
      "655": 3967,
      "Ġprocessing": 3968,
      "Ã³": 3969,
      "Ġresponses": 3970,
      "Ġincor": 3971,
      "paration": 3972,
      "itude": 3973,
      "Ġconsider": 3974,
      "Ġ2009": 3975,
      "ÃĹ": 3976,
      "ege": 3977,
      "Ġexperiment": 3978,
      "aneous": 3979,
      "back": 3980,
      "680": 3981,
      "coh": 3982,
      "Î²": 3983,
      "Ġhalf": 3984,
      "ĠFl": 3985,
      "Ġconsumption": 3986,
      "emb": 3987,
      "Ġchallenges": 3988,
      "Ġgraph": 3989,
      "650": 3990,
      "SI": 3991,
      "955": 3992,
      "885": 3993,
      "850": 3994,
      "De": 3995,
      "erate": 3996,
      "nc": 3997,
      "Ġfacilit": 3998,
      "Ġrepe": 3999,
      "Ġtrial": 4000,
      "Ġexhibited": 4001,
      "Ġheart": 4002,
      "Ġalign": 4003,
      "855": 4004,
      "RE": 4005,
      "352": 4006,
      "Ġpreviously": 4007,
      "274": 4008,
      "hood": 4009,
      "253": 4010,
      "iction": 4011,
      "Ġaction": 4012,
      "Ġadapt": 4013,
      "ĠMedical": 4014,
      "ĠMoreover": 4015,
      "ĠCa": 4016,
      "iddle": 4017,
      "Ġelectron": 4018,
      "raz": 4019,
      "ĠMethods": 4020,
      "Ġflex": 4021,
      "Ġneeded": 4022,
      "660": 4023,
      "gi": 4024,
      "Ġcombined": 4025,
      "apy": 4026,
      "028": 4027,
      "ĠIEEE": 4028,
      "illed": 4029,
      "uck": 4030,
      "Ġreducing": 4031,
      "Ġvide": 4032,
      "ams": 4033,
      "Ġwall": 4034,
      "Ġlines": 4035,
      "Ġcompreh": 4036,
      "ineering": 4037,
      "edu": 4038,
      "Ġnerve": 4039,
      "ifically": 4040,
      "Ġarch": 4041,
      "ening": 4042,
      "Ġinput": 4043,
      "670": 4044,
      "Ġevent": 4045,
      "332": 4046,
      "759": 4047,
      "Ġexposure": 4048,
      "PD": 4049,
      "Ġrelease": 4050,
      "Ġooff": 4051,
      "ully": 4052,
      "OH": 4053,
      "come": 4054,
      "362": 4055,
      "Ġactivities": 4056,
      "etics": 4057,
      "Ġalways": 4058,
      "372": 4059,
      "Ġstrategies": 4060,
      "oe": 4061,
      "121": 4062,
      "Ġpolice": 4063,
      "027": 4064,
      "Ġdevice": 4065,
      "Ġentire": 4066,
      "ĠSD": 4067,
      "Ġbiom": 4068,
      "aria": 4069,
      "ĠImp": 4070,
      "ĠAlthough": 4071,
      "Ġeffectively": 4072,
      "382": 4073,
      "Ġcomposite": 4074,
      "Ġvalid": 4075,
      "bial": 4076,
      "ĠZhao": 4077,
      "ĠInstitute": 4078,
      "888": 4079,
      "mL": 4080,
      "Ġmel": 4081,
      "lt": 4082,
      "Ġrepl": 4083,
      "ument": 4084,
      "GF": 4085,
      "aves": 4086,
      "Ġtt": 4087,
      "Ġmorph": 4088,
      "induced": 4089,
      "Ġsumm": 4090,
      "284": 4091,
      "what": 4092,
      "rous": 4093,
      "ĠAssoci": 4094,
      "orph": 4095,
      "323": 4096,
      "Ġefficient": 4097,
      "668": 4098,
      "880": 4099,
      "ending": 4100,
      "spec": 4101,
      "Ġaff": 4102,
      "ãģ": 4103,
      "029": 4104,
      "rought": 4105,
      "Ġassessment": 4106,
      "ires": 4107,
      "343": 4108,
      "Ġliver": 4109,
      "658": 4110,
      "urg": 4111,
      "ables": 4112,
      "Ġq": 4113,
      "353": 4114,
      "Ġelev": 4115,
      "ishing": 4116,
      "770": 4117,
      "Ġunderstanding": 4118,
      "392": 4119,
      "VID": 4120,
      "Ġgenerated": 4121,
      "ving": 4122,
      "Ġdisorders": 4123,
      "Ġliterature": 4124,
      "Ġservices": 4125,
      "363": 4126,
      "ka": 4127,
      "Ġvehic": 4128,
      "aster": 4129,
      "ĠEnviron": 4130,
      "373": 4131,
      "cell": 4132,
      "393": 4133,
      "âĹ¦": 4134,
      "TP": 4135,
      "667": 4136,
      "erent": 4137,
      "Ġimmune": 4138,
      "osc": 4139,
      "iences": 4140,
      "383": 4141,
      "ĠYork": 4142,
      "777": 4143,
      "Ġlet": 4144,
      "Ġperson": 4145,
      "cus": 4146,
      "Ġensure": 4147,
      "ĠMol": 4148,
      "992": 4149,
      "342": 4150,
      "608": 4151,
      "ĠUsing": 4152,
      "857": 4153,
      "Ġtechniques": 4154,
      "Ġlig": 4155,
      "Ġpan": 4156,
      "ĠDem": 4157,
      "958": 4158,
      "ĠAtt": 4159,
      "BA": 4160,
      "ayer": 4161,
      "293": 4162,
      "Ġtog": 4163,
      "chie": 4164,
      "678": 4165,
      "022": 4166,
      "203": 4167,
      "442": 4168,
      "Ġcoe": 4169,
      "ĠExper": 4170,
      "Ġbase": 4171,
      "Ġchann": 4172,
      "Ġdys": 4173,
      "Sc": 4174,
      "778": 4175,
      "858": 4176,
      "887": 4177,
      "Ġpathway": 4178,
      "uly": 4179,
      "607": 4180,
      "666": 4181,
      "Ġmeth": 4182,
      "026": 4183,
      "Ġkind": 4184,
      "443": 4185,
      "ailability": 4186,
      "889": 4187,
      "Ġmis": 4188,
      "OL": 4189,
      "Ġnucle": 4190,
      "cont": 4191,
      "Ġskin": 4192,
      "Ġemployed": 4193,
      "Ġprepared": 4194,
      "ront": 4195,
      "657": 4196,
      "ographic": 4197,
      "131": 4198,
      "024": 4199,
      "Ġdistributed": 4200,
      "pers": 4201,
      "957": 4202,
      "Ġlarger": 4203,
      "arch": 4204,
      "arent": 4205,
      "ĠLin": 4206,
      "OD": 4207,
      "han": 4208,
      "ened": 4209,
      "Co": 4210,
      "979": 4211,
      "Ġbal": 4212,
      "Ġadministration": 4213,
      "Ġlinear": 4214,
      "Ġwhy": 4215,
      "980": 4216,
      "Ġmm": 4217,
      "olds": 4218,
      "756": 4219,
      "Ġcos": 4220,
      "Ġassociation": 4221,
      "609": 4222,
      "Ġsection": 4223,
      "imension": 4224,
      "Ġtogether": 4225,
      "Ġdiv": 4226,
      "141": 4227,
      "687": 4228,
      "907": 4229,
      "Ġconcern": 4230,
      "ĠâĢĺ": 4231,
      "Ġthus": 4232,
      "242": 4233,
      "ito": 4234,
      "ĠConc": 4235,
      "Ġsn": 4236,
      "ĠVal": 4237,
      "Ġneeds": 4238,
      "Ġseed": 4239,
      "Ġ2008": 4240,
      "Ġcourse": 4241,
      "908": 4242,
      "Ġenhanced": 4243,
      "993": 4244,
      "023": 4245,
      "Ġinv": 4246,
      "976": 4247,
      "ptions": 4248,
      "Hz": 4249,
      "rating": 4250,
      "262": 4251,
      "ĠOver": 4252,
      "181": 4253,
      "Ġinvestigation": 4254,
      "Ġground": 4255,
      "Ġwriting": 4256,
      "ground": 4257,
      "252": 4258,
      "Ġapprov": 4259,
      "Ġfiber": 4260,
      "orb": 4261,
      "ĠBro": 4262,
      "Ġdesigned": 4263,
      "171": 4264,
      "Ġmeasurement": 4265,
      "Ġcaused": 4266,
      "Ġresources": 4267,
      "Ġpreval": 4268,
      "272": 4269,
      "292": 4270,
      "Ġ123": 4271,
      "pre": 4272,
      "Ġaa": 4273,
      "Ġcompany": 4274,
      "thes": 4275,
      "Ġdriv": 4276,
      "Ġtransition": 4277,
      "Ġviol": 4278,
      "223": 4279,
      "Ġmolecules": 4280,
      "rd": 4281,
      "Ġhem": 4282,
      "151": 4283,
      "273": 4284,
      "Ġhum": 4285,
      "ternal": 4286,
      "Ġ51": 4287,
      "ĠDo": 4288,
      "eived": 4289,
      "ga": 4290,
      "aboratory": 4291,
      "ioxidant": 4292,
      "Ġscale": 4293,
      "Ġnutr": 4294,
      "Ġrapid": 4295,
      "Ġcle": 4296,
      "859": 4297,
      "Ġjob": 4298,
      "atter": 4299,
      "Ġthird": 4300,
      "Ġss": 4301,
      "987": 4302,
      "Ġexpected": 4303,
      "ĠKey": 4304,
      "659": 4305,
      "ĠControl": 4306,
      "Ġsignals": 4307,
      "Ġscores": 4308,
      "Ġheter": 4309,
      "679": 4310,
      "pd": 4311,
      "Ġsal": 4312,
      "Ġstudents": 4313,
      "161": 4314,
      "Ġphosph": 4315,
      "ioonn": 4316,
      "909": 4317,
      "Ġeditor": 4318,
      "otal": 4319,
      "ellig": 4320,
      "959": 4321,
      "inant": 4322,
      "Ġreference": 4323,
      "quid": 4324,
      "oto": 4325,
      "Ġstrategy": 4326,
      "Ġoutput": 4327,
      "886": 4328,
      "263": 4329,
      "nthetic": 4330,
      "Ġdecl": 4331,
      "779": 4332,
      "689": 4333,
      "Ġsevere": 4334,
      "Ġsecurity": 4335,
      "ĠAcad": 4336,
      "opl": 4337,
      "Ġrather": 4338,
      "omal": 4339,
      "696": 4340,
      "ato": 4341,
      "Ġtend": 4342,
      "But": 4343,
      "Ġfeed": 4344,
      "Ġclose": 4345,
      "Ġdietary": 4346,
      "GA": 4347,
      "ĠEp": 4348,
      "ĠAnt": 4349,
      "radation": 4350,
      "Ġfollows": 4351,
      "606": 4352,
      "Ġcorrect": 4353,
      "iated": 4354,
      "Ġtested": 4355,
      "ĠRepublic": 4356,
      "ĠmM": 4357,
      "669": 4358,
      "191": 4359,
      "hl": 4360,
      "Ġremains": 4361,
      "Ġcomplete": 4362,
      "Ġdistinct": 4363,
      "Ġrelatively": 4364,
      "Ġinjury": 4365,
      "Ġpoor": 4366,
      "Ġnetworks": 4367,
      "Ġshowing": 4368,
      "Ġachie": 4369,
      "ulus": 4370,
      "ĠCompar": 4371,
      "Ġisol": 4372,
      "Ġproblems": 4373,
      "ĠHuang": 4374,
      "sw": 4375,
      "Ġaway": 4376,
      "oman": 4377,
      "Ġstor": 4378,
      "angu": 4379,
      "ĠZhou": 4380,
      "rin": 4381,
      "inger": 4382,
      "Ġexpressed": 4383,
      "Ġsignaling": 4384,
      "686": 4385,
      "Ġsuccessful": 4386,
      "Ġsustain": 4387,
      "Ġfav": 4388,
      "ĠPres": 4389,
      "ĠHz": 4390,
      "otype": 4391,
      "Pa": 4392,
      "676": 4393,
      "omer": 4394,
      "ria": 4395,
      "ĠFirst": 4396,
      "ĠâĨ": 4397,
      "Ġcontext": 4398,
      "Ġgreen": 4399,
      "Ġsurgery": 4400,
      "906": 4401,
      "Ġscen": 4402,
      "flamm": 4403,
      "Ġbusiness": 4404,
      "856": 4405,
      "Ġspecial": 4406,
      "roduction": 4407,
      "ĠDise": 4408,
      "Ġintervention": 4409,
      "656": 4410,
      "Ġmental": 4411,
      "ĠÎ¼": 4412,
      "yes": 4413,
      "ĠState": 4414,
      "Ġreturn": 4415,
      "ĠInform": 4416,
      "raw": 4417,
      "Ġenough": 4418,
      "Ġdefined": 4419,
      "ĠBr": 4420,
      "Ġband": 4421,
      "cin": 4422,
      "position": 4423,
      "ea": 4424,
      "Ġface": 4425,
      "atial": 4426,
      "776": 4427,
      "ients": 4428,
      "Ġsearch": 4429,
      "Ġwhole": 4430,
      "Ġbook": 4431,
      "ĠWorld": 4432,
      "Ġprotoc": 4433,
      "Ġoxygen": 4434,
      "956": 4435,
      "Ġsuperior": 4436,
      "Ġ142": 4437,
      "ttp": 4438,
      "Ġcarried": 4439,
      "ĠNan": 4440,
      "Ġbound": 4441,
      "ĠCA": 4442,
      "Ġoxid": 4443,
      "itative": 4444,
      "Ġrig": 4445,
      "Ġfix": 4446,
      "Ġsensors": 4447,
      "alm": 4448,
      "eutic": 4449,
      "Ġincorpor": 4450,
      "ĠaCC": 4451,
      "ĠClinical": 4452,
      "ĠDiff": 4453,
      "Ġplat": 4454,
      "ĠÂ©": 4455,
      "Ġframework": 4456,
      "282": 4457,
      "MC": 4458,
      "Ġ--": 4459,
      "780": 4460,
      "Ġmeasures": 4461,
      "nes": 4462,
      "Ġmakes": 4463,
      "Ġold": 4464,
      "Ġport": 4465,
      "989": 4466,
      "Ġmetabolic": 4467,
      "Ġ(%)": 4468,
      "Ġcombination": 4469,
      "Ġdig": 4470,
      "050": 4471,
      "754": 4472,
      "Ġnational": 4473,
      "Ġled": 4474,
      "Ġsleep": 4475,
      "Ġconfl": 4476,
      "Ġeducation": 4477,
      "ĠGroup": 4478,
      "Ġmanuscript": 4479,
      "Ġaltern": 4480,
      "pa": 4481,
      "Ġdistance": 4482,
      "omb": 4483,
      "Ġ143": 4484,
      "Ġabsorption": 4485,
      "Ġclaim": 4486,
      "isher": 4487,
      "iological": 4488,
      "Ġment": 4489,
      "rics": 4490,
      "anol": 4491,
      "ĠCT": 4492,
      "FA": 4493,
      "Ġtranscri": 4494,
      "Ġyet": 4495,
      "urree": 4496,
      "%),": 4497,
      "apan": 4498,
      "Ġlif": 4499,
      "IP": 4500,
      "Ġprediction": 4501,
      "pri": 4502,
      "Ġevaluated": 4503,
      "Ġwear": 4504,
      "Ġdidn": 4505,
      "ister": 4506,
      "iology": 4507,
      "igen": 4508,
      "ĠFund": 4509,
      "Ġcomposites": 4510,
      "col": 4511,
      "nu": 4512,
      "Ġchem": 4513,
      "ĠSupplement": 4514,
      "Ġparticles": 4515,
      "Ġtool": 4516,
      "Ġinternal": 4517,
      "Ġabs": 4518,
      "ostic": 4519,
      "infor": 4520,
      "ĠPP": 4521,
      "Ġproduced": 4522,
      "986": 4523,
      "Ch": 4524,
      "oz": 4525,
      "Ġdoc": 4526,
      "Ġintensity": 4527,
      "mentation": 4528,
      "283": 4529,
      "ĠOctober": 4530,
      "Ġfract": 4531,
      "Ġmale": 4532,
      "scopy": 4533,
      "Ġcolor": 4534,
      "Ġ152": 4535,
      "Ġfriend": 4536,
      "rical": 4537,
      "Ġnecessary": 4538,
      "yle": 4539,
      "Ġevents": 4540,
      "press": 4541,
      "ĠTy": 4542,
      "osy": 4543,
      "isted": 4544,
      "Ġachieved": 4545,
      "acement": 4546,
      "Ġfluor": 4547,
      "ĠFrom": 4548,
      "ched": 4549,
      "ĠPublished": 4550,
      "Ġaccept": 4551,
      "Ġglucose": 4552,
      "Ġhealthy": 4553,
      "Ġcov": 4554,
      "Ġcity": 4555,
      "Ġevaluate": 4556,
      "Ġvary": 4557,
      "ogene": 4558,
      "Ġdeliv": 4559,
      "ĠCenter": 4560,
      "heme": 4561,
      "Ġalmost": 4562,
      "fr": 4563,
      "Ġda": 4564,
      "Ġ%": 4565,
      "ĠAR": 4566,
      "Ġtalk": 4567,
      "Ġrespond": 4568,
      "974": 4569,
      "Ġdeb": 4570,
      "ny": 4571,
      "ovascular": 4572,
      "Ġdrugs": 4573,
      "Ġclassification": 4574,
      "Ġofficial": 4575,
      "451": 4576,
      "Ġadvant": 4577,
      "Ġhar": 4578,
      "Ġgive": 4579,
      "Ġoptimal": 4580,
      "Ġgas": 4581,
      "pression": 4582,
      "694": 4583,
      "Ġpric": 4584,
      "ille": 4585,
      "ĠHar": 4586,
      "Ġ300": 4587,
      "GG": 4588,
      "itable": 4589,
      "Ġpathways": 4590,
      "ĠGo": 4591,
      "ĠCR": 4592,
      "Ġmanu": 4593,
      "Ġissue": 4594,
      "Ġmedium": 4595,
      "Ġpen": 4596,
      "ĠDOI": 4597,
      "vious": 4598,
      "Ġacids": 4599,
      "Ġpersonal": 4600,
      "Ġindependent": 4601,
      "ĠOpt": 4602,
      "Ġwhite": 4603,
      "Ġapproximately": 4604,
      "ded": 4605,
      "Ġpair": 4606,
      "Ġtook": 4607,
      "iability": 4608,
      "Ġtrack": 4609,
      "ham": 4610,
      "gests": 4611,
      "Ġwind": 4612,
      "Ġtransport": 4613,
      "iec": 4614,
      "707": 4615,
      "Ġdone": 4616,
      "ĠPart": 4617,
      "Ġonce": 4618,
      "Ġblack": 4619,
      "Ġol": 4620,
      "Ġsystematic": 4621,
      "aign": 4622,
      "Ġsuggests": 4623,
      "Ġsensitivity": 4624,
      "604": 4625,
      "ĠTr": 4626,
      "ĠAD": 4627,
      "401": 4628,
      "py": 4629,
      "ĠStatement": 4630,
      "708": 4631,
      "Ġbit": 4632,
      "Ġserum": 4633,
      "ĠRuss": 4634,
      "Ġstop": 4635,
      "774": 4636,
      "Ġmiss": 4637,
      "Ġregul": 4638,
      "andid": 4639,
      "ico": 4640,
      "ientific": 4641,
      "664": 4642,
      "787": 4643,
      "674": 4644,
      "Ġroot": 4645,
      "Ġelements": 4646,
      "Ġcycl": 4647,
      "hyd": 4648,
      "drome": 4649,
      "Ġtu": 4650,
      "iig": 4651,
      "Ġemb": 4652,
      "ruit": 4653,
      "Ġcontrolled": 4654,
      "Ġpregn": 4655,
      "Ġavoid": 4656,
      "ĠAppl": 4657,
      "Ġtext": 4658,
      "Ġequal": 4659,
      "SE": 4660,
      "Ġ2007": 4661,
      "Ġbiological": 4662,
      "654": 4663,
      "esity": 4664,
      "Ġmarket": 4665,
      "'re": 4666,
      "021": 4667,
      "enced": 4668,
      "Ġspectra": 4669,
      "2022": 4670,
      "wh": 4671,
      "ĠCancer": 4672,
      "uel": 4673,
      "Ġassessed": 4674,
      "ills": 4675,
      "Ġslight": 4676,
      "Ġsequence": 4677,
      "ura": 4678,
      "mitted": 4679,
      "ochemical": 4680,
      "Ġaccum": 4681,
      "Ġlonger": 4682,
      "Ġbelie": 4683,
      "Fe": 4684,
      "ON": 4685,
      "Ġ,": 4686,
      "Ġcomprehensive": 4687,
      "article": 4688,
      "ki": 4689,
      "itamin": 4690,
      "954": 4691,
      "ĠCOVID": 4692,
      "onic": 4693,
      "471": 4694,
      "Ġ153": 4695,
      "Ġbreast": 4696,
      "hn": 4697,
      "Ġbr": 4698,
      "iao": 4699,
      "684": 4700,
      "Ġthereby": 4701,
      "berg": 4702,
      "Ġmid": 4703,
      "Ġot": 4704,
      "Ġartery": 4705,
      "2023": 4706,
      "Ġcentral": 4707,
      "ĠAI": 4708,
      "854": 4709,
      "Ġblue": 4710,
      "itect": 4711,
      "789": 4712,
      "Ġsent": 4713,
      "ibr": 4714,
      "Ġmanufact": 4715,
      "884": 4716,
      "reet": 4717,
      "Ġthing": 4718,
      "904": 4719,
      "ameter": 4720,
      "Ġdiscuss": 4721,
      "ĠAust": 4722,
      "bb": 4723,
      "Ġfailure": 4724,
      "odium": 4725,
      "Ġsolid": 4726,
      "encies": 4727,
      "Ġcategor": 4728,
      "erous": 4729,
      "ira": 4730,
      "Ġdetected": 4731,
      "Ġrobust": 4732,
      "mph": 4733,
      "cn": 4734,
      "461": 4735,
      "Ġlayers": 4736,
      "rif": 4737,
      "Ġpresident": 4738,
      "IV": 4739,
      "ĠRel": 4740,
      "ĠPat": 4741,
      "ĠAccording": 4742,
      "709": 4743,
      "Ġapproaches": 4744,
      "ecut": 4745,
      "Ġcame": 4746,
      "481": 4747,
      "Ġ2000": 4748,
      "ĠSS": 4749,
      "CS": 4750,
      "Ġaann": 4751,
      "752": 4752,
      "Ġcontinuous": 4753,
      "055": 4754,
      "Ġmeta": 4755,
      "491": 4756,
      "ĠJapan": 4757,
      "Ġposterior": 4758,
      "Ġcycle": 4759,
      "Ġincludes": 4760,
      "bor": 4761,
      "ĠCF": 4762,
      "2021": 4763,
      "Ġpoll": 4764,
      "kin": 4765,
      "Ġcm": 4766,
      "Ġjo": 4767,
      "Ġrecorded": 4768,
      "type": 4769,
      "Ġcriteria": 4770,
      "zer": 4771,
      "Ġ)": 4772,
      "Ġrot": 4773,
      "2020": 4774,
      "Ġallows": 4775,
      "evelopment": 4776,
      "ĠImmun": 4777,
      "¿½": 4778,
      "aat": 4779,
      "fort": 4780,
      "Ġalthough": 4781,
      "abric": 4782,
      "984": 4783,
      "poral": 4784,
      "rot": 4785,
      "Ġdescri": 4786,
      "Ġupon": 4787,
      "oxy": 4788,
      "ara": 4789,
      "ĠSign": 4790,
      "ognitive": 4791,
      "Ġfast": 4792,
      "ien": 4793,
      "Ġformed": 4794,
      "IN": 4795,
      "ĠNon": 4796,
      "Ġformer": 4797,
      "ball": 4798,
      "lier": 4799,
      "ceedings": 4800,
      "ĠEuropean": 4801,
      "LD": 4802,
      "asis": 4803,
      "ĠSa": 4804,
      "Ġplasma": 4805,
      "Ġdynamic": 4806,
      "ya": 4807,
      "hydro": 4808,
      "iot": 4809,
      "808": 4810,
      "IT": 4811,
      "058": 4812,
      "Ġcoh": 4813,
      "ĠPublic": 4814,
      "706": 4815,
      "eus": 4816,
      "Ġdomain": 4817,
      "RA": 4818,
      "301": 4819,
      "ĠProg": 4820,
      "Ġfunctions": 4821,
      "Ġminutes": 4822,
      "Ġtraditional": 4823,
      "Ġfed": 4824,
      "book": 4825,
      "ĠTechnology": 4826,
      "ming": 4827,
      "plant": 4828,
      "ĠUK": 4829,
      "Ġ154": 4830,
      "807": 4831,
      "ĠSimilar": 4832,
      "Ġcre": 4833,
      "Ġmicrobi": 4834,
      "Ġtrials": 4835,
      "Ġlung": 4836,
      "Ġunique": 4837,
      "Ġdr": 4838,
      "ilk": 4839,
      "753": 4840,
      "Ġcollection": 4841,
      "ellow": 4842,
      "Ġaccount": 4843,
      "BD": 4844,
      "Ġns": 4845,
      "964": 4846,
      "Ġcannot": 4847,
      "ocal": 4848,
      "Me": 4849,
      "ĠHD": 4850,
      "Ġnoise": 4851,
      "Ġsupported": 4852,
      "Ġdoesn": 4853,
      "ĠVol": 4854,
      "Ġconfirmed": 4855,
      "Ġinvestigated": 4856,
      "Ġtit": 4857,
      "lusions": 4858,
      "âĢ¦": 4859,
      "iform": 4860,
      "head": 4861,
      "ancial": 4862,
      "Ġdepth": 4863,
      "Ġmachine": 4864,
      "Ġthreat": 4865,
      "201": 4866,
      "aries": 4867,
      "Ġproviding": 4868,
      "Ġpractice": 4869,
      "pts": 4870,
      "Ġaffected": 4871,
      "Ġwhereas": 4872,
      "Ġmetabolism": 4873,
      "uff": 4874,
      "972": 4875,
      "apping": 4876,
      "ĠNorth": 4877,
      "ĠNovember": 4878,
      "NO": 4879,
      "faces": 4880,
      "Ġ00": 4881,
      "786": 4882,
      "Ġimm": 4883,
      "ĠCoun": 4884,
      "ete": 4885,
      "Ġselection": 4886,
      "itrogen": 4887,
      "Ġexternal": 4888,
      "Ġmoney": 4889,
      "381": 4890,
      "version": 4891,
      "Ã±": 4892,
      "Ġappropri": 4893,
      "Ġbur": 4894,
      "Ġimproving": 4895,
      "iro": 4896,
      "Ġpow": 4897,
      "Ġstable": 4898,
      "Ġextend": 4899,
      "Ġbaseline": 4900,
      "ĠRed": 4901,
      "oud": 4902,
      "opic": 4903,
      "Ġleaf": 4904,
      "Ġfall": 4905,
      "illing": 4906,
      "inated": 4907,
      "cr": 4908,
      "stract": 4909,
      "ĠHospital": 4910,
      "973": 4911,
      "lam": 4912,
      "inese": 4913,
      "441": 4914,
      "dh": 4915,
      "Ġreports": 4916,
      "Ġconstruct": 4917,
      "Ġmovement": 4918,
      "057": 4919,
      "phen": 4920,
      "Ġfully": 4921,
      "ĠDec": 4922,
      "251": 4923,
      "Ġspectrum": 4924,
      "umn": 4925,
      "fa": 4926,
      "met": 4927,
      "ycl": 4928,
      "my": 4929,
      "ita": 4930,
      "Ġprinc": 4931,
      "ster": 4932,
      "Ġimportance": 4933,
      "Ġnature": 4934,
      "ĠDel": 4935,
      "321": 4936,
      "Ġvideo": 4937,
      "Ġupd": 4938,
      "hing": 4939,
      "Ġstory": 4940,
      "portun": 4941,
      "âĢĲ": 4942,
      "2019": 4943,
      "Ġmode": 4944,
      "341": 4945,
      "Ġeconomic": 4946,
      "Ġdegradation": 4947,
      "Ġic": 4948,
      "Ġusually": 4949,
      "Ġkin": 4950,
      "emia": 4951,
      "241": 4952,
      "isms": 4953,
      "Ġbenefits": 4954,
      "know": 4955,
      "oses": 4956,
      "ĠThus": 4957,
      "Ġcomponent": 4958,
      "Ġfoot": 4959,
      "Ġadults": 4960,
      "ercial": 4961,
      "ĠRad": 4962,
      "Ġconstant": 4963,
      "Ġcampaign": 4964,
      "Ġhost": 4965,
      "Ġinflammatory": 4966,
      "Ġname": 4967,
      "Ġcheck": 4968,
      ".);": 4969,
      "Ġjoint": 4970,
      "arra": 4971,
      "ĠRo": 4972,
      "âĪĹ": 4973,
      "otherapy": 4974,
      "Ġnucl": 4975,
      "Ġple": 4976,
      "Ġpolicy": 4977,
      "Ġ61": 4978,
      "331": 4979,
      "PMID": 4980,
      "anguage": 4981,
      "772": 4982,
      "ĠExperim": 4983,
      "952": 4984,
      "Net": 4985,
      "umb": 4986,
      "Ġmom": 4987,
      "rier": 4988,
      "Ġparameter": 4989,
      "Ġnews": 4990,
      "Ġachieve": 4991,
      "Ġsqu": 4992,
      "Ġtreatments": 4993,
      "371": 4994,
      "FF": 4995,
      "inate": 4996,
      "Ġos": 4997,
      "Ġcreate": 4998,
      "oster": 4999,
      "ĠTreatment": 5000,
      "ĠSome": 5001,
      "Ġcharg": 5002,
      "Ġorganic": 5003,
      "Ġregression": 5004,
      "cos": 5005,
      "ĠHuman": 5006,
      "oor": 5007,
      "Ġdose": 5008,
      "991": 5009,
      "059": 5010,
      "Ġleaves": 5011,
      "Ġsimulation": 5012,
      "Ġdirection": 5013,
      "ĠProceedings": 5014,
      "Ġparen": 5015,
      "access": 5016,
      "ĠHow": 5017,
      "ĠCS": 5018,
      "iet": 5019,
      "anning": 5020,
      "ĠMart": 5021,
      "ĠFront": 5022,
      "682": 5023,
      "Ġcoord": 5024,
      "ĠSociety": 5025,
      "882": 5026,
      "ĠWhat": 5027,
      "Ġaggreg": 5028,
      "aser": 5029,
      "809": 5030,
      "ĠMy": 5031,
      "879": 5032,
      "opath": 5033,
      "des": 5034,
      "Ġpolitical": 5035,
      "LE": 5036,
      "aring": 5037,
      "693": 5038,
      "ventions": 5039,
      "Ġdatasets": 5040,
      "bit": 5041,
      "tality": 5042,
      "663": 5043,
      "683": 5044,
      "Ġ400": 5045,
      "Ġcharge": 5046,
      "TS": 5047,
      "Ġhydrogen": 5048,
      "Ġinduc": 5049,
      "Ġoptical": 5050,
      "Ġthought": 5051,
      "Ġsurvival": 5052,
      "ĠZhu": 5053,
      "Ġconver": 5054,
      "odies": 5055,
      "Ġanterior": 5056,
      "391": 5057,
      "ĠMac": 5058,
      "662": 5059,
      "351": 5060,
      "692": 5061,
      "ĠDuring": 5062,
      "852": 5063,
      "Ġantioxidant": 5064,
      "Ġmes": 5065,
      "Ġsolutions": 5066,
      "Ġthickness": 5067,
      "TA": 5068,
      "Ã¼": 5069,
      "Ġsure": 5070,
      "Ġsources": 5071,
      "Ġasked": 5072,
      "Ġampl": 5073,
      "653": 5074,
      "853": 5075,
      "xiety": 5076,
      "Cs": 5077,
      "Ġdu": 5078,
      "ĠEqu": 5079,
      "652": 5080,
      "ips": 5081,
      "603": 5082,
      "iants": 5083,
      "Ġexhibit": 5084,
      "function": 5085,
      "trans": 5086,
      "Ġpromis": 5087,
      "Ġpreparation": 5088,
      "806": 5089,
      "Ġcapt": 5090,
      "361": 5091,
      "mittee": 5092,
      "LS": 5093,
      "Ġid": 5094,
      "ĠCharacter": 5095,
      "Ġderiv": 5096,
      "Ġproport": 5097,
      "self": 5098,
      "Ġsuggesting": 5099,
      "Ġthresh": 5100,
      "osed": 5101,
      "672": 5102,
      "Ġgenome": 5103,
      "oT": 5104,
      "olym": 5105,
      "gel": 5106,
      "Se": 5107,
      "uu": 5108,
      "asm": 5109,
      "Ġfibers": 5110,
      "673": 5111,
      "ĠGermany": 5112,
      "Ġneural": 5113,
      "Ġprevalence": 5114,
      "MO": 5115,
      "Ġinflammation": 5116,
      "ril": 5117,
      "ĠEar": 5118,
      "rant": 5119,
      "Ġpercentage": 5120,
      "Ġdrop": 5121,
      "otypes": 5122,
      "Ġtoler": 5123,
      "876": 5124,
      "aut": 5125,
      "inity": 5126,
      "903": 5127,
      "enses": 5128,
      "773": 5129,
      "Ġdoing": 5130,
      "ĠBiom": 5131,
      "Ġmainly": 5132,
      "ricult": 5133,
      "articles": 5134,
      "Ġlymph": 5135,
      "Ġdegree": 5136,
      "221": 5137,
      "tiioonn": 5138,
      "Ġduration": 5139,
      "056": 5140,
      "DM": 5141,
      "Ġactually": 5142,
      "Ġcandid": 5143,
      "883": 5144,
      "Ġsimple": 5145,
      "ributions": 5146,
      "Ġwalk": 5147,
      "NP": 5148,
      "Ġtransl": 5149,
      "Ġfight": 5150,
      "Ġhouse": 5151,
      "ĠMechan": 5152,
      "Ġspatial": 5153,
      "ometric": 5154,
      "953": 5155,
      "roc": 5156,
      "Ġquick": 5157,
      "Ġparts": 5158,
      "ĠAfric": 5159,
      "Ġanim": 5160,
      "\",": 5161,
      "Ġcrim": 5162,
      "aph": 5163,
      "Ġprimarily": 5164,
      "Ġreceptor": 5165,
      "Ġcaus": 5166,
      "Ġfilms": 5167,
      "Ġdatab": 5168,
      "Ġproperty": 5169,
      "Ġ2006": 5170,
      "Ġincub": 5171,
      "550": 5172,
      "Ġcenter": 5173,
      "Ġattem": 5174,
      "ĠID": 5175,
      "Ġstatistical": 5176,
      "CE": 5177,
      "Ġfemale": 5178,
      "Ġderived": 5179,
      "Ġservice": 5180,
      "ĠChinese": 5181,
      "ĠPatients": 5182,
      "imensional": 5183,
      "ĠBas": 5184,
      "Ãŀ": 5185,
      "Ġaccel": 5186,
      "IS": 5187,
      "iter": 5188,
      "Ġflav": 5189,
      "ĠSen": 5190,
      "hu": 5191,
      "ogenic": 5192,
      "lic": 5193,
      "rete": 5194,
      "Ġinduced": 5195,
      "ĠEnergy": 5196,
      "abilities": 5197,
      "704": 5198,
      "Ġpotentially": 5199,
      "Ġrelevant": 5200,
      "specific": 5201,
      "open": 5202,
      "983": 5203,
      "Ġdefic": 5204,
      "enter": 5205,
      "Ġmob": 5206,
      "ĠSol": 5207,
      "Ġpept": 5208,
      "oking": 5209,
      "itting": 5210,
      "log": 5211,
      "ĠJune": 5212,
      "Ġsmaller": 5213,
      "555": 5214,
      "Ġcurve": 5215,
      "Ġtypically": 5216,
      "eful": 5217,
      "ĠSciences": 5218,
      "Ġplot": 5219,
      "Ġwin": 5220,
      "Ġplayers": 5221,
      "uge": 5222,
      "Ġsubstant": 5223,
      "electric": 5224,
      "Ġnight": 5225,
      "Ġcrack": 5226,
      "Ġsyndrome": 5227,
      "estern": 5228,
      "box": 5229,
      "Ġdepression": 5230,
      "ĠMal": 5231,
      "Ġtherapeutic": 5232,
      "Ġcluster": 5233,
      "Ġtowards": 5234,
      "Ġstudied": 5235,
      "Ġtemperatures": 5236,
      "cu": 5237,
      "271": 5238,
      "642": 5239,
      "atur": 5240,
      "ĠAug": 5241,
      "Ġsett": 5242,
      "weight": 5243,
      "aining": 5244,
      "ĠSouth": 5245,
      "cluded": 5246,
      "982": 5247,
      "Ġintern": 5248,
      "Ġtens": 5249,
      "ĠEach": 5250,
      "Ġenhancing": 5251,
      "elt": 5252,
      "ĠFinally": 5253,
      "Ġtherefore": 5254,
      "ades": 5255,
      "Ġindustry": 5256,
      "Ġoutside": 5257,
      "ump": 5258,
      "261": 5259,
      "MM": 5260,
      "ĠLa": 5261,
      "Ġsecondary": 5262,
      "itution": 5263,
      "Ġmo": 5264,
      "amine": 5265,
      "Ġediting": 5266,
      "ochond": 5267,
      "Ġseem": 5268,
      "BP": 5269,
      "mod": 5270,
      "If": 5271,
      "Ġpopulations": 5272,
      "784": 5273,
      "ĠAmong": 5274,
      "Ġneurons": 5275,
      "Ġcoating": 5276,
      "xy": 5277,
      "Ġcust": 5278,
      "ĠMor": 5279,
      "281": 5280,
      "291": 5281,
      "Ġproduce": 5282,
      "Ġten": 5283,
      "ĠSal": 5284,
      "643": 5285,
      "ogenesis": 5286,
      "down": 5287,
      "Ġves": 5288,
      "Ġtaking": 5289,
      "ivo": 5290,
      "Ġmilit": 5291,
      "Ġbegin": 5292,
      "Ġevolution": 5293,
      "ius": 5294,
      "Ġdetailed": 5295,
      "aching": 5296,
      "Ġvariation": 5297,
      "Ġassum": 5298,
      "Ġlimitations": 5299,
      "ĠExt": 5300,
      "Ġtrue": 5301,
      "sts": 5302,
      "500": 5303,
      "enge": 5304,
      "umber": 5305,
      "Ġmixture": 5306,
      "Ġstarted": 5307,
      "Ġestimated": 5308,
      "cohol": 5309,
      "Ġstaff": 5310,
      "ĠRam": 5311,
      "RR": 5312,
      "Ġelement": 5313,
      "Ġtox": 5314,
      "organ": 5315,
      "Ġmotor": 5316,
      "Ġattributed": 5317,
      "Ġcam": 5318,
      "ME": 5319,
      "amed": 5320,
      "And": 5321,
      "Ġgames": 5322,
      "Ġarchitect": 5323,
      "rm": 5324,
      "Ġmess": 5325,
      "Ġmatter": 5326,
      "ĠDrug": 5327,
      "Ġcurves": 5328,
      "Ġmiddle": 5329,
      "ĠPA": 5330,
      "ĠPost": 5331,
      "962": 5332,
      "ĠMDPI": 5333,
      "OP": 5334,
      "054": 5335,
      "Ġopportun": 5336,
      "ington": 5337,
      "ĠOrgan": 5338,
      "ait": 5339,
      "ediat": 5340,
      "963": 5341,
      "Ġlateral": 5342,
      "claim": 5343,
      "ĠMean": 5344,
      "Ġplatform": 5345,
      "ĠSil": 5346,
      "uit": 5347,
      "ony": 5348,
      "ĠTi": 5349,
      "Ġtoday": 5350,
      "Ġangle": 5351,
      "che": 5352,
      "osome": 5353,
      "ĠSw": 5354,
      "Ġsen": 5355,
      "Ġchain": 5356,
      "ĠAmerica": 5357,
      "Ġdivers": 5358,
      "Ġestablished": 5359,
      "Ġculture": 5360,
      "analysis": 5361,
      "Ġcharacterized": 5362,
      "DA": 5363,
      "231": 5364,
      "yroid": 5365,
      "Ġkid": 5366,
      "ĠTime": 5367,
      "ĠDevelopment": 5368,
      "Ġwild": 5369,
      "Ġsurvey": 5370,
      "ĠChrist": 5371,
      "ĠMS": 5372,
      "Ġleads": 5373,
      "Ġtub": 5374,
      "asons": 5375,
      "Ġcore": 5376,
      "Ġinsulin": 5377,
      "ios": 5378,
      "order": 5379,
      "Ġutilized": 5380,
      "Ġhepat": 5381,
      "ffer": 5382,
      "Ġ111": 5383,
      "iiggu": 5384,
      "OC": 5385,
      "Ġwent": 5386,
      "reated": 5387,
      "Ġoffer": 5388,
      "Ġgradu": 5389,
      "Ġforward": 5390,
      "iller": 5391,
      "ĠJohn": 5392,
      "Ġtranscription": 5393,
      "Ġminim": 5394,
      "car": 5395,
      "ief": 5396,
      "ounts": 5397,
      "oral": 5398,
      "Ġresearchers": 5399,
      "gl": 5400,
      "Ġinsights": 5401,
      "ĠSept": 5402,
      "imens": 5403,
      "Ġhybrid": 5404,
      "Ġsignificance": 5405,
      "Ġwon": 5406,
      "Ġ250": 5407,
      "1038": 5408,
      "rest": 5409,
      "Ġvolt": 5410,
      "Ġmixed": 5411,
      "ĠTB": 5412,
      "ĠThen": 5413,
      "ml": 5414,
      "Ġcomes": 5415,
      "Ġvot": 5416,
      "ĠApplic": 5417,
      "ĠPharmac": 5418,
      "Ġinfer": 5419,
      "Ġdest": 5420,
      "bal": 5421,
      "ding": 5422,
      "ifi": 5423,
      "illi": 5424,
      "selves": 5425,
      "Ġupper": 5426,
      "Ġnanop": 5427,
      "Ph": 5428,
      "jected": 5429,
      "ova": 5430,
      "omics": 5431,
      "irth": 5432,
      "Ġnoted": 5433,
      "Ġacute": 5434,
      "Ġgut": 5435,
      "flammatory": 5436,
      "Ġstri": 5437,
      "ĠPan": 5438,
      "ski": 5439,
      "gy": 5440,
      "lim": 5441,
      "icial": 5442,
      "ĠMat": 5443,
      "CF": 5444,
      "794": 5445,
      "ida": 5446,
      "escent": 5447,
      "iber": 5448,
      "Ġdry": 5449,
      "ibration": 5450,
      "tensive": 5451,
      "wise": 5452,
      "ises": 5453,
      "Ġeffectiveness": 5454,
      "Ġcode": 5455,
      "Ġsi": 5456,
      "idity": 5457,
      "874": 5458,
      "isition": 5459,
      "ĠChang": 5460,
      "Ġfunding": 5461,
      "ows": 5462,
      "ĠOl": 5463,
      "rote": 5464,
      "Ġhttp": 5465,
      "ĠSuper": 5466,
      "December": 5467,
      "Ġappropriate": 5468,
      "Ġdeform": 5469,
      "Ġbehind": 5470,
      "Ġcort": 5471,
      "Ġtechnique": 5472,
      "Ġcav": 5473,
      "rosis": 5474,
      "Ġliquid": 5475,
      "pi": 5476,
      "ivation": 5477,
      "yg": 5478,
      "ĠInc": 5479,
      "ellular": 5480,
      "Ġlate": 5481,
      "Ġvalidation": 5482,
      "scale": 5483,
      "neg": 5484,
      "Ġwide": 5485,
      "ĠSoc": 5486,
      "ĠPhot": 5487,
      "ĠAssociation": 5488,
      "Ġce": 5489,
      "Ġgeneration": 5490,
      "ĠAnal": 5491,
      "rh": 5492,
      "Ġmove": 5493,
      "Ġfinancial": 5494,
      "Ġrelationships": 5495,
      "let": 5496,
      "Ġweak": 5497,
      "ky": 5498,
      "Ġmap": 5499,
      "pose": 5500,
      "Ġbacteria": 5501,
      "ĠSer": 5502,
      "ĠTest": 5503,
      "Ġring": 5504,
      "ĠConference": 5505,
      "sequent": 5506,
      "ĠAA": 5507,
      "igation": 5508,
      "804": 5509,
      "Ġmention": 5510,
      "Ġquestions": 5511,
      "oS": 5512,
      "pm": 5513,
      "Ġmind": 5514,
      "ĠDef": 5515,
      "Ġemis": 5516,
      "Ġpeaks": 5517,
      "Ġinterview": 5518,
      "Ġcellular": 5519,
      "Ġcommunication": 5520,
      "Ġ2005": 5521,
      "illary": 5522,
      "Ġwidely": 5523,
      "Ġalle": 5524,
      "Ġimmedi": 5525,
      "Ġmortality": 5526,
      "Ġautom": 5527,
      "Ġoptimization": 5528,
      "!!!!!!!!!!!!!!!!": 5529,
      "Ġregarding": 5530,
      "TR": 5531,
      "Ġanimal": 5532,
      "Ġdetails": 5533,
      "894": 5534,
      "ado": 5535,
      "Ġcontained": 5536,
      "ounced": 5537,
      "ĠAu": 5538,
      "Ġcreated": 5539,
      "Ġrecommend": 5540,
      "chiat": 5541,
      "Ġpredicted": 5542,
      "Ġbox": 5543,
      "Ġsecret": 5544,
      "Ġcontribute": 5545,
      "ĠWhite": 5546,
      "ford": 5547,
      "Ġvent": 5548,
      "Ġdynamics": 5549,
      "Ġbelieve": 5550,
      "uted": 5551,
      "Ġefficacy": 5552,
      "ilities": 5553,
      "ĠDu": 5554,
      "Ġabund": 5555,
      "Ġreferred": 5556,
      "Ġunit": 5557,
      "wide": 5558,
      "ads": 5559,
      "783": 5560,
      "Ġusers": 5561,
      "ĠComm": 5562,
      "Ad": 5563,
      "pir": 5564,
      "Ġrecovery": 5565,
      "Ġmemory": 5566,
      "Ġplaced": 5567,
      "Ġuser": 5568,
      "ĠOther": 5569,
      "FC": 5570,
      "ague": 5571,
      "052": 5572,
      "Ġscreening": 5573,
      "Ġps": 5574,
      "Ġsubjects": 5575,
      "Ġspl": 5576,
      "There": 5577,
      "section": 5578,
      "Ġallowed": 5579,
      "Ġlipid": 5580,
      "Ġheight": 5581,
      "ĠTher": 5582,
      "ĠIC": 5583,
      "558": 5584,
      "Ġdefin": 5585,
      "iigguurree": 5586,
      "cement": 5587,
      "Ġliving": 5588,
      "oration": 5589,
      "Ġfir": 5590,
      "Ġprocedure": 5591,
      "rea": 5592,
      "Ġresolution": 5593,
      "eget": 5594,
      "Ġbacterial": 5595,
      "ĠNetwork": 5596,
      "Ġinterventions": 5597,
      "Ġlocation": 5598,
      "ĠEnd": 5599,
      "pon": 5600,
      "Ġregulation": 5601,
      "Ġbuilding": 5602,
      "with": 5603,
      "Ġelectronic": 5604,
      "Ġ1000": 5605,
      "ĠSchool": 5606,
      "inf": 5607,
      "Ġlive": 5608,
      "Ġitself": 5609,
      "ĠTwo": 5610,
      "mi": 5611,
      "Ġmethyl": 5612,
      "Ġgenerally": 5613,
      "get": 5614,
      "Ġolder": 5615,
      "Ġsequences": 5616,
      "Ġidea": 5617,
      "703": 5618,
      "Ġinstead": 5619,
      "ĠOut": 5620,
      "Ġcognitive": 5621,
      "ĠPress": 5622,
      "Ġthroughout": 5623,
      "Ġdeveloping": 5624,
      "ĠDisease": 5625,
      "elet": 5626,
      "782": 5627,
      "formance": 5628,
      "gal": 5629,
      "ĠJuly": 5630,
      "operative": 5631,
      "Ġcoefficient": 5632,
      "508": 5633,
      ".:": 5634,
      "Ġts": 5635,
      "Ġcosts": 5636,
      "Ġlanguage": 5637,
      "ĠAcid": 5638,
      "Ġcontinue": 5639,
      "VD": 5640,
      "Ġsusp": 5641,
      "Ġfavor": 5642,
      "Ġdeal": 5643,
      "ĠArab": 5644,
      "ĠGa": 5645,
      "Ġprobably": 5646,
      "Ġelevated": 5647,
      "hs": 5648,
      "Ġdouble": 5649,
      "Ã¶": 5650,
      "557": 5651,
      "icated": 5652,
      "Ġnumbers": 5653,
      "ĠReferences": 5654,
      "ĠED": 5655,
      "ommons": 5656,
      "Ġdigital": 5657,
      "PR": 5658,
      "mann": 5659,
      "ĠBec": 5660,
      "ĠLong": 5661,
      "ils": 5662,
      "helial": 5663,
      "Ġdiverse": 5664,
      "Ġsmart": 5665,
      "otox": 5666,
      "Ġenvironments": 5667,
      "Ġgrad": 5668,
      "Ġcauses": 5669,
      "Ġvirus": 5670,
      "isf": 5671,
      "Ġoutcome": 5672,
      "ĠHis": 5673,
      "ĠJiang": 5674,
      "ui": 5675,
      "ĠMic": 5676,
      "Ġvan": 5677,
      "ĠAvailable": 5678,
      "Ġwatch": 5679,
      "ĠObama": 5680,
      "Ġacet": 5681,
      "Ġorigin": 5682,
      "free": 5683,
      "Ġ***": 5684,
      "053": 5685,
      "Ġvariable": 5686,
      "Ġaanndd": 5687,
      "Ġhold": 5688,
      "Ġshare": 5689,
      "EC": 5690,
      "Ġcit": 5691,
      "Ġstatistically": 5692,
      "Ġinstruct": 5693,
      "raft": 5694,
      "Ġgoal": 5695,
      "ventional": 5696,
      "ĠCity": 5697,
      "ĠPsych": 5698,
      "ĠNote": 5699,
      "ĠIntroduction": 5700,
      "ĠAccept": 5701,
      "Ġexisting": 5702,
      "Ġstages": 5703,
      "793": 5704,
      "Ġpy": 5705,
      "Ġclin": 5706,
      "Ġdetect": 5707,
      "Ġedge": 5708,
      "Ġ**": 5709,
      "Ġdd": 5710,
      "ĠProcess": 5711,
      "going": 5712,
      "Ġidentification": 5713,
      "ifying": 5714,
      "Ġuses": 5715,
      "ued": 5716,
      "ivil": 5717,
      "Ġcompound": 5718,
      "Ġelectrode": 5719,
      "Ġ71": 5720,
      "Ġpolar": 5721,
      "ĠInterest": 5722,
      "TC": 5723,
      "ĠLic": 5724,
      "Ġprofession": 5725,
      "Ġrecently": 5726,
      "Ġmodule": 5727,
      "Ġfatty": 5728,
      "Ġfa": 5729,
      "oly": 5730,
      "Ġnn": 5731,
      "ĠTotal": 5732,
      "Ġisn": 5733,
      "Ġperce": 5734,
      "Ġanimals": 5735,
      "507": 5736,
      "ĠDr": 5737,
      "ella": 5738,
      "Ġrequires": 5739,
      "ĠFunding": 5740,
      "ĠEC": 5741,
      "ĠPresident": 5742,
      "Ġalone": 5743,
      "Ġprogress": 5744,
      "ĠGreen": 5745,
      "Ġtask": 5746,
      "IIII": 5747,
      "Ġshape": 5748,
      "Ġappe": 5749,
      "Ġagents": 5750,
      "ĠLD": 5751,
      "Ġdraft": 5752,
      "Ġprint": 5753,
      "yy": 5754,
      "aired": 5755,
      "rosion": 5756,
      "Ġreactions": 5757,
      "Ġsem": 5758,
      "Ġdriving": 5759,
      "ops": 5760,
      "ĠOpen": 5761,
      "spective": 5762,
      "Ġslow": 5763,
      "Ġfabric": 5764,
      "ĠPath": 5765,
      "ĠHouse": 5766,
      "Ġinvestigate": 5767,
      "Ġintroduced": 5768,
      "hed": 5769,
      "NS": 5770,
      "ĠSte": 5771,
      "Ġoxidative": 5772,
      "Ġcohort": 5773,
      "Ġsynthes": 5774,
      "Ġearlier": 5775,
      "ĠBrit": 5776,
      "Ġequip": 5777,
      "Ġtell": 5778,
      "Ġcere": 5779,
      "Ġversus": 5780,
      "Ġdiversity": 5781,
      "2018": 5782,
      "cal": 5783,
      "istant": 5784,
      "Ġbasis": 5785,
      "Ġbasic": 5786,
      "Ġintellig": 5787,
      "eta": 5788,
      "ocks": 5789,
      "ĠBen": 5790,
      "On": 5791,
      "Ġspe": 5792,
      "avy": 5793,
      "ĠMeas": 5794,
      "mer": 5795,
      "iable": 5796,
      "Ġsuggested": 5797,
      "ĠItal": 5798,
      "ĠFFiigguurree": 5799,
      "Ġstorage": 5800,
      "mark": 5801,
      "Ġnodes": 5802,
      "words": 5803,
      "Ġseems": 5804,
      "Ġlocated": 5805,
      "sychiat": 5806,
      "Ġvehicle": 5807,
      "ĠKore": 5808,
      "ĠAut": 5809,
      "Ġpharmac": 5810,
      "Ġdim": 5811,
      "ampling": 5812,
      "Ġfrag": 5813,
      "ĠDC": 5814,
      "ĠBu": 5815,
      "ĠStruct": 5816,
      "Ġbalance": 5817,
      "559": 5818,
      "Ġemph": 5819,
      "ĠUV": 5820,
      "Ġelim": 5821,
      "Ġfer": 5822,
      "Ġha": 5823,
      "ĠInvest": 5824,
      "ĠDiet": 5825,
      "Ġadvanced": 5826,
      "ĠAustral": 5827,
      "Ġrare": 5828,
      "Ġinterp": 5829,
      "ker": 5830,
      "ĠWar": 5831,
      "level": 5832,
      "Ġamino": 5833,
      "hts": 5834,
      "Ġtrig": 5835,
      "Ġreplic": 5836,
      "Ġoc": 5837,
      "Ġtools": 5838,
      "Ġ2004": 5839,
      "ochem": 5840,
      "normal": 5841,
      "reative": 5842,
      "Ġtro": 5843,
      "ĠSan": 5844,
      "Ġconserv": 5845,
      "ĠBlack": 5846,
      "BB": 5847,
      "LL": 5848,
      "Ġnitrogen": 5849,
      "Ġconsist": 5850,
      "Ġforms": 5851,
      "Ms": 5852,
      "Ġexamined": 5853,
      "lee": 5854,
      "509": 5855,
      "Ġopin": 5856,
      "Ġinstance": 5857,
      "change": 5858,
      "Ġdepos": 5859,
      "Ġfire": 5860,
      "Ġsteel": 5861,
      "Ġabsence": 5862,
      "Ġopio": 5863,
      "omas": 5864,
      "803": 5865,
      "Ġinterface": 5866,
      "mo": 5867,
      "wa": 5868,
      "ĠAP": 5869,
      "Ġii": 5870,
      "1007": 5871,
      "ĠStatist": 5872,
      "ĠDemocr": 5873,
      "ĠTC": 5874,
      "ĠMr": 5875,
      "ught": 5876,
      "Ġfocused": 5877,
      "Ġenabl": 5878,
      "ĠRob": 5879,
      "itt": 5880,
      "oret": 5881,
      "Ġresulted": 5882,
      "Ġprotocol": 5883,
      "LP": 5884,
      "ĠSince": 5885,
      "Ġpersp": 5886,
      "Ġ:": 5887,
      "Ġbias": 5888,
      "Ġthreshold": 5889,
      "ĠDist": 5890,
      "Ġagent": 5891,
      "ĠSeptember": 5892,
      "za": 5893,
      "Ġord": 5894,
      "Ġvel": 5895,
      "792": 5896,
      "Ġwt": 5897,
      "0001": 5898,
      "Ġneigh": 5899,
      "Ġreinfor": 5900,
      "892": 5901,
      "Ġtraffic": 5902,
      "ĠAM": 5903,
      "ership": 5904,
      "oding": 5905,
      "2017": 5906,
      "mail": 5907,
      "osen": 5908,
      "ĠWest": 5909,
      "nai": 5910,
      "863": 5911,
      "eb": 5912,
      "posite": 5913,
      "Ġti": 5914,
      "762": 5915,
      "ĠCare": 5916,
      "751": 5917,
      "Ġacquisition": 5918,
      "ĠZn": 5919,
      "Ġmedian": 5920,
      "Ġoste": 5921,
      "ko": 5922,
      "ĠSupplementary": 5923,
      "ĠWash": 5924,
      "Ġlinked": 5925,
      "Ġcrystall": 5926,
      "Ġassay": 5927,
      "Ġalter": 5928,
      "Ġble": 5929,
      "Ġworks": 5930,
      "Ġround": 5931,
      "Ġalk": 5932,
      "vert": 5933,
      "rupt": 5934,
      "556": 5935,
      "Ġstatement": 5936,
      "Ġexcess": 5937,
      "862": 5938,
      "Ġreleased": 5939,
      "ĠRem": 5940,
      "ocation": 5941,
      "Ġsubsequent": 5942,
      "argets": 5943,
      "RD": 5944,
      "Ġcompan": 5945,
      "Ġinside": 5946,
      "ĠNH": 5947,
      "BI": 5948,
      "Ġiron": 5949,
      "ĠAdd": 5950,
      "Ġcolumn": 5951,
      "ĠCanada": 5952,
      "pan": 5953,
      "ottom": 5954,
      "agen": 5955,
      "Ġ600": 5956,
      "ĠAccepted": 5957,
      "So": 5958,
      "unn": 5959,
      "Ġansw": 5960,
      "Ġgetting": 5961,
      "ĠTherm": 5962,
      "urrent": 5963,
      "763": 5964,
      "Ġdespite": 5965,
      "Ġbad": 5966,
      "ualization": 5967,
      "Ġclimate": 5968,
      "Ġcurrently": 5969,
      "Ġaccurate": 5970,
      "ux": 5971,
      "421": 5972,
      "ĠPot": 5973,
      "872": 5974,
      "Ġsense": 5975,
      "idem": 5976,
      "Ġrough": 5977,
      "Sh": 5978,
      "osing": 5979,
      "ĠPage": 5980,
      "Ġwaste": 5981,
      "506": 5982,
      "Ġuniform": 5983,
      "ĠReceived": 5984,
      "Ġcommonly": 5985,
      "ider": 5986,
      "abetic": 5987,
      "873": 5988,
      "ĠChemical": 5989,
      "ĠChemistry": 5990,
      "Ġchallenge": 5991,
      "ĠLow": 5992,
      "Ġvict": 5993,
      "Ġtrying": 5994,
      "pha": 5995,
      "Ġvariants": 5996,
      "ĠPoly": 5997,
      "Ġdeviation": 5998,
      "Ġintra": 5999,
      "ĠVir": 6000,
      "Ġexpect": 6001,
      "ĠTechnol": 6002,
      "Ġtrend": 6003,
      "Ġrepeated": 6004,
      "ĠmedRxiv": 6005,
      "isl": 6006,
      "Ġna": 6007,
      "rog": 6008,
      "ĠCopyright": 6009,
      "Ġvarying": 6010,
      "ju": 6011,
      "earning": 6012,
      "ĠAbstract": 6013,
      "Ġcourt": 6014,
      "Ġrunning": 6015,
      "Ġslightly": 6016,
      "Ġanxiety": 6017,
      "Ġthin": 6018,
      "Ġdemonstrate": 6019,
      "rec": 6020,
      "Ġhor": 6021,
      "rand": 6022,
      "hab": 6023,
      "ĠEth": 6024,
      "Based": 6025,
      "Ġserious": 6026,
      "ulose": 6027,
      "rief": 6028,
      "equ": 6029,
      "td": 6030,
      "Ar": 6031,
      "Ġalternative": 6032,
      "\".": 6033,
      "nat": 6034,
      "inngg": 6035,
      "Ġmajority": 6036,
      "Ġago": 6037,
      "yond": 6038,
      "ĠMarch": 6039,
      "ĠMolecular": 6040,
      "ĠMark": 6041,
      "ĠFac": 6042,
      "ometry": 6043,
      "ocytes": 6044,
      "icians": 6045,
      "Ġhab": 6046,
      "893": 6047,
      "Ġinternational": 6048,
      "ĠProper": 6049,
      "Ġexpand": 6050,
      "Ġaccumulation": 6051,
      "nr": 6052,
      "iding": 6053,
      "Ġrecognition": 6054,
      "unch": 6055,
      "ĠChild": 6056,
      "urance": 6057,
      "Ġways": 6058,
      "Ġmedi": 6059,
      "ĠDA": 6060,
      "ĠEvalu": 6061,
      "point": 6062,
      "Ġtions": 6063,
      "embly": 6064,
      "oon": 6065,
      "ĠCam": 6066,
      "ĠCap": 6067,
      "Ġpanel": 6068,
      "Ġlowest": 6069,
      "Ġobesity": 6070,
      "omers": 6071,
      "971": 6072,
      "601": 6073,
      "Ġsubstrate": 6074,
      "ĠRA": 6075,
      "Ġstar": 6076,
      "Ġcardiovascular": 6077,
      "Ġconcept": 6078,
      "ĠHere": 6079,
      "ĠDiscus": 6080,
      "FP": 6081,
      "SO": 6082,
      "awa": 6083,
      "Ġsensing": 6084,
      "CI": 6085,
      "Vs": 6086,
      "Ġsuitable": 6087,
      "Ġgrowing": 6088,
      "Ġallowing": 6089,
      "heat": 6090,
      "Ġreact": 6091,
      "Ġoral": 6092,
      "ulty": 6093,
      "tenance": 6094,
      "Ġparty": 6095,
      "Ġpresents": 6096,
      "Ġminimum": 6097,
      "ĠMicrobi": 6098,
      "Ġtasks": 6099,
      "Ġmethodology": 6100,
      "emper": 6101,
      "osomes": 6102,
      "Ġcontrols": 6103,
      "691": 6104,
      "Ġfine": 6105,
      "Ġod": 6106,
      "asts": 6107,
      "Ġexact": 6108,
      "ĠApril": 6109,
      "icted": 6110,
      "ĠIsra": 6111,
      "ĠMM": 6112,
      "ĠMost": 6113,
      "agram": 6114,
      "add": 6115,
      "antly": 6116,
      "2016": 6117,
      "ĠFound": 6118,
      "ĠYes": 6119,
      "attle": 6120,
      "Ġvul": 6121,
      "terol": 6122,
      "phth": 6123,
      "Ġeye": 6124,
      "Ġmitochond": 6125,
      "oping": 6126,
      "ĠVis": 6127,
      "Ġbecame": 6128,
      "Ġglass": 6129,
      "Ġtensile": 6130,
      "Ġmilitary": 6131,
      "ĠMR": 6132,
      "Ġincidence": 6133,
      "ateral": 6134,
      "Ġspecimens": 6135,
      "zo": 6136,
      "Ġcycles": 6137,
      "Ġconductivity": 6138,
      "riction": 6139,
      "Ġnearly": 6140,
      "Ġcco": 6141,
      "ĠServ": 6142,
      "Ġplays": 6143,
      "Ġmoderate": 6144,
      "Ġbackground": 6145,
      "ĠGuo": 6146,
      "Ġren": 6147,
      "ĠNA": 6148,
      "Ġ2003": 6149,
      "dependent": 6150,
      "Ġperf": 6151,
      "Ġvitro": 6152,
      "Ġtissues": 6153,
      "Ġenzyme": 6154,
      "nec": 6155,
      "Ġdiameter": 6156,
      "Ġmoment": 6157,
      "Ġfront": 6158,
      "Ġreconst": 6159,
      "Ġenter": 6160,
      "irect": 6161,
      "Ġsteps": 6162,
      "value": 6163,
      "ĠDifferent": 6164,
      "Ġbring": 6165,
      "Ġbeyond": 6166,
      "Ġindustrial": 6167,
      "Ġchannel": 6168,
      "iit": 6169,
      "2015": 6170,
      "ĠFu": 6171,
      "Ġiinn": 6172,
      "mol": 6173,
      "Ġconfig": 6174,
      "Ġï£": 6175,
      "tered": 6176,
      "ĠWT": 6177,
      "ĠWashington": 6178,
      "treated": 6179,
      "681": 6180,
      "Ġintroduc": 6181,
      "Ġprolif": 6182,
      "Ġpromising": 6183,
      "Ġsupply": 6184,
      "Ġexplore": 6185,
      "671": 6186,
      "Ġeight": 6187,
      "Ġinhibition": 6188,
      "ĠLo": 6189,
      "Ġcontains": 6190,
      "661": 6191,
      "ĠFeb": 6192,
      "yll": 6193,
      "Ġtal": 6194,
      "ĠDev": 6195,
      "Ġthemselves": 6196,
      "Ġbegan": 6197,
      "Ġvalu": 6198,
      "'ve": 6199,
      "ĠPal": 6200,
      "teb": 6201,
      "651": 6202,
      "Ġextracted": 6203,
      "ifications": 6204,
      "PU": 6205,
      "rep": 6206,
      "ĠRoy": 6207,
      "Ġenrich": 6208,
      "ticle": 6209,
      "Ġcred": 6210,
      "certain": 6211,
      "Ġhorm": 6212,
      "Ġveget": 6213,
      "ena": 6214,
      "imb": 6215,
      "881": 6216,
      "Ġprograms": 6217,
      "Ġinteract": 6218,
      "ĠBMI": 6219,
      "Ġoxidation": 6220,
      "ĠComparison": 6221,
      "ories": 6222,
      "ĠMT": 6223,
      "Ġball": 6224,
      "ĠTT": 6225,
      "951": 6226,
      "Ġattempt": 6227,
      "You": 6228,
      "osynthesis": 6229,
      "851": 6230,
      "901": 6231,
      "Ġmodified": 6232,
      "Ġdil": 6233,
      "ĠHan": 6234,
      "Ġplastic": 6235,
      "Ġsupporting": 6236,
      "ophil": 6237,
      "cil": 6238,
      "Ġcapture": 6239,
      "Ġtail": 6240,
      "Ġdiss": 6241,
      "ĠEngineering": 6242,
      "hm": 6243,
      "Ġworkers": 6244,
      "adone": 6245,
      "1000": 6246,
      "Ġreached": 6247,
      "urk": 6248,
      "etry": 6249,
      "Ġexcell": 6250,
      "Ġminor": 6251,
      "ĠSing": 6252,
      "Ġunits": 6253,
      "obacter": 6254,
      "Ġelectric": 6255,
      "ĠPers": 6256,
      "771": 6257,
      "Ġabsor": 6258,
      "ancement": 6259,
      "Ġprogression": 6260,
      "ĠStatistical": 6261,
      "Wh": 6262,
      "bes": 6263,
      "Ġtn": 6264,
      "iu": 6265,
      "Ġles": 6266,
      "hics": 6267,
      "Ġtolerance": 6268,
      "ĠDiscussion": 6269,
      "Ġions": 6270,
      "Ġgrain": 6271,
      "Ġdocument": 6272,
      "aker": 6273,
      "ĠCE": 6274,
      "Ġvitamin": 6275,
      "ĠUnder": 6276,
      "ĠStudies": 6277,
      "Ġom": 6278,
      "Ġadhes": 6279,
      "Ġoffers": 6280,
      "Ġcounter": 6281,
      "ĠSN": 6282,
      "Ġscience": 6283,
      "Ġdemand": 6284,
      "Ġideas": 6285,
      "ĠSecond": 6286,
      "hal": 6287,
      "Ġshift": 6288,
      "Ġspecifically": 6289,
      "Ġsupplementation": 6290,
      "Ġsin": 6291,
      "Ġseven": 6292,
      "ĠPR": 6293,
      "981": 6294,
      "Ġvariations": 6295,
      "Ġwidth": 6296,
      "Ġdatabase": 6297,
      "Ġpolymers": 6298,
      "PT": 6299,
      "ĠPred": 6300,
      "taining": 6301,
      "Ġgold": 6302,
      "Ġmorphology": 6303,
      "Ġneut": 6304,
      "ritis": 6305,
      "overed": 6306,
      "504": 6307,
      "Ġtom": 6308,
      "rient": 6309,
      "Ġprotection": 6310,
      "ingu": 6311,
      "alled": 6312,
      "ĠACS": 6313,
      "îĤ": 6314,
      "594": 6315,
      "oke": 6316,
      "Ġselect": 6317,
      "ĠEst": 6318,
      "Ġedit": 6319,
      "Ġanything": 6320,
      "ĠManuscript": 6321,
      "Ġtable": 6322,
      "Ġremoved": 6323,
      "051": 6324,
      "Ġ2002": 6325,
      "acch": 6326,
      "igned": 6327,
      "Ġagreed": 6328,
      "Ġlaser": 6329,
      "584": 6330,
      "Ġtargets": 6331,
      "Ġmuscles": 6332,
      "Ex": 6333,
      "ĠAT": 6334,
      "Ġorg": 6335,
      "Ġcomputational": 6336,
      "inflammatory": 6337,
      "Ġfamil": 6338,
      "Ġwanted": 6339,
      "Ġattach": 6340,
      "Ġeasy": 6341,
      "ipl": 6342,
      "Ġlove": 6343,
      "Ġcommercial": 6344,
      "Ġprice": 6345,
      "Ġenhances": 6346,
      "Ġstarting": 6347,
      "knowled": 6348,
      "ĠSant": 6349,
      "Ġfigure": 6350,
      "ago": 6351,
      "ĠAnn": 6352,
      "Ġoccurs": 6353,
      "erical": 6354,
      "raf": 6355,
      "ami": 6356,
      "ĠBoth": 6357,
      "HE": 6358,
      "Ġmig": 6359,
      "ĠEduc": 6360,
      "Ġchlo": 6361,
      "Ġadsorption": 6362,
      "Ġprofile": 6363,
      "anks": 6364,
      "Ġrats": 6365,
      "Ġresponsible": 6366,
      "Ġâī¥": 6367,
      "cast": 6368,
      "idal": 6369,
      "Ġhot": 6370,
      "unt": 6371,
      "Ġintest": 6372,
      "Ġuseful": 6373,
      "554": 6374,
      "574": 6375,
      "inson": 6376,
      "At": 6377,
      "ĠMus": 6378,
      "ĠDespite": 6379,
      "mental": 6380,
      "ortic": 6381,
      "Ġlooking": 6382,
      "Ġrequest": 6383,
      "Ġguidelines": 6384,
      "ĠAugust": 6385,
      "Ġsomeone": 6386,
      "cet": 6387,
      "ario": 6388,
      "Ġea": 6389,
      "Ġwhose": 6390,
      "Ġsexual": 6391,
      "ĠKn": 6392,
      "Ġdelay": 6393,
      "Ġnor": 6394,
      "ĠME": 6395,
      "ĠId": 6396,
      "Ġ81": 6397,
      "oped": 6398,
      "ĠWater": 6399,
      "Ġcloud": 6400,
      "ĠSurg": 6401,
      "GB": 6402,
      "RS": 6403,
      "Ġforces": 6404,
      "ĠEt": 6405,
      "witter": 6406,
      "Ġrights": 6407,
      "ĠDav": 6408,
      "Ġsound": 6409,
      "Ġcompletely": 6410,
      "field": 6411,
      "Ġsodium": 6412,
      "acing": 6413,
      "Ġfilter": 6414,
      "Cu": 6415,
      "Ġvac": 6416,
      "ĠForm": 6417,
      "ĠProgram": 6418,
      "MT": 6419,
      "Ġsaying": 6420,
      "bu": 6421,
      "Ġradiation": 6422,
      "herence": 6423,
      "Ġarm": 6424,
      "Ġfixed": 6425,
      "isions": 6426,
      "HA": 6427,
      "stream": 6428,
      "'m": 6429,
      "Ġefforts": 6430,
      "Si": 6431,
      "hr": 6432,
      "Ġvariety": 6433,
      "umar": 6434,
      "witzer": 6435,
      "Ġdeclare": 6436,
      "Ġdelivery": 6437,
      "ees": 6438,
      "Ġsulf": 6439,
      "Ġconfidence": 6440,
      "ĠIndia": 6441,
      "Ġsequencing": 6442,
      "sm": 6443,
      "Ġjud": 6444,
      "reement": 6445,
      "Ġchoice": 6446,
      "ĠSimilarly": 6447,
      "ylation": 6448,
      "Ġrequirements": 6449,
      "dt": 6450,
      "ĠGao": 6451,
      "ĠÂ·": 6452,
      "Ġapproved": 6453,
      "What": 6454,
      "Ġdrought": 6455,
      "Ġarchitecture": 6456,
      "Ã§": 6457,
      "imicro": 6458,
      "Ġcompanies": 6459,
      "ĠWork": 6460,
      "Ġepit": 6461,
      "Ġmicrobiota": 6462,
      "ĠIII": 6463,
      "Ġlegal": 6464,
      "Ġexcellent": 6465,
      "ĠConst": 6466,
      "ĠSection": 6467,
      "Ġderivatives": 6468,
      "Ġmouse": 6469,
      "Ġtur": 6470,
      "oft": 6471,
      "Ġmarkers": 6472,
      "Ġgir": 6473,
      "Ġris": 6474,
      "ĠAssess": 6475,
      "ometimes": 6476,
      "Ġdisorder": 6477,
      "Am": 6478,
      "Ġplate": 6479,
      "Ġlabel": 6480,
      "witzerland": 6481,
      "ima": 6482,
      "ĠPartic": 6483,
      "pin": 6484,
      "ĠSW": 6485,
      "961": 6486,
      "Ġprocedures": 6487,
      "UC": 6488,
      "Ġoo": 6489,
      "Ġincome": 6490,
      "aro": 6491,
      "ificial": 6492,
      "Ġconcrete": 6493,
      "Ġfinding": 6494,
      "ept": 6495,
      "Ġaw": 6496,
      "iratory": 6497,
      "Ġreson": 6498,
      "iance": 6499,
      "ken": 6500,
      "ĠBer": 6501,
      "Ġelectroc": 6502,
      "Ġconventional": 6503,
      "ĠSl": 6504,
      "ĠTheir": 6505,
      "ophys": 6506,
      "%).": 6507,
      "Ġactual": 6508,
      "ĠCurrent": 6509,
      "Ġvoltage": 6510,
      "ridge": 6511,
      "arter": 6512,
      "Ġpurch": 6513,
      "br": 6514,
      "Ġcat": 6515,
      "562": 6516,
      "Ġ2001": 6517,
      "gh": 6518,
      "state": 6519,
      "641": 6520,
      "Ġnuclear": 6521,
      "eo": 6522,
      "ĠJust": 6523,
      "Ġâī¤": 6524,
      "Ġpractices": 6525,
      "Pro": 6526,
      "Ġdate": 6527,
      "ĠSha": 6528,
      "Ġonto": 6529,
      "Ġaud": 6530,
      "adi": 6531,
      "ĠDesign": 6532,
      "Ġarg": 6533,
      "Ġ{": 6534,
      "Ġlost": 6535,
      "ĠProperties": 6536,
      "Ġgel": 6537,
      "ĠHo": 6538,
      "Ġhyp": 6539,
      "522": 6540,
      "arn": 6541,
      "Ġapplicable": 6542,
      "Ġtechnologies": 6543,
      "Ġradical": 6544,
      "Ġï¿½": 6545,
      "Ġnanoparticles": 6546,
      "Ġpractical": 6547,
      "IF": 6548,
      "Is": 6549,
      "ĠRu": 6550,
      "Ġestablish": 6551,
      "Ġsituation": 6552,
      "Ġstay": 6553,
      "Ġinvolving": 6554,
      "Ġdysfunction": 6555,
      "review": 6556,
      "itch": 6557,
      "Ġbirth": 6558,
      "ĠCd": 6559,
      "Ġrepro": 6560,
      "Ġcharacteristic": 6561,
      "Ġinterpret": 6562,
      "ibly": 6563,
      "iling": 6564,
      "Ġdiscus": 6565,
      "Ġdark": 6566,
      "Ġalcohol": 6567,
      "emperature": 6568,
      "Ġvaluable": 6569,
      "ĠTan": 6570,
      "very": 6571,
      "oming": 6572,
      "ude": 6573,
      "Ġwrote": 6574,
      "Ġprivate": 6575,
      "ĠEngl": 6576,
      "GT": 6577,
      "ska": 6578,
      "Ġstem": 6579,
      "Ġattacks": 6580,
      "400": 6581,
      "ĠCr": 6582,
      "Ġparents": 6583,
      "ĠNMR": 6584,
      "ĠGeneral": 6585,
      "Ġdivided": 6586,
      "inol": 6587,
      "ager": 6588,
      "Ġwords": 6589,
      "Ġvivo": 6590,
      "Ġclean": 6591,
      "unct": 6592,
      "rey": 6593,
      "Ġsizes": 6594,
      "ĠAge": 6595,
      "ĠMAT": 6596,
      "ĠNature": 6597,
      "unctional": 6598,
      "ĠSpr": 6599,
      "Ġalgorithms": 6600,
      "ĠAttribution": 6601,
      "Ġpromote": 6602,
      "eek": 6603,
      "Ġmagnetic": 6604,
      "Ġveloc": 6605,
      "ception": 6606,
      "ĠIns": 6607,
      "Ġresource": 6608,
      "arios": 6609,
      "Ġheld": 6610,
      "known": 6611,
      "Ġcoming": 6612,
      "Ġpregnancy": 6613,
      "ĠPrim": 6614,
      "Ġremaining": 6615,
      "ĠOx": 6616,
      "ĠFed": 6617,
      "Ġrice": 6618,
      "Ġresponsibility": 6619,
      "orter": 6620,
      "Ġfear": 6621,
      "ingly": 6622,
      "Ġsimply": 6623,
      "Ġtree": 6624,
      "Ġmarg": 6625,
      "acial": 6626,
      "ĠPet": 6627,
      "Ġroad": 6628,
      "opro": 6629,
      "Ġratios": 6630,
      "ĠExperimental": 6631,
      "DD": 6632,
      "OG": 6633,
      "rc": 6634,
      "Ġpick": 6635,
      "ĠDM": 6636,
      "LT": 6637,
      "otes": 6638,
      "Ġtemporal": 6639,
      "Ġcomplications": 6640,
      "testinal": 6641,
      "Ġtakes": 6642,
      "ipal": 6643,
      "ĠClinton": 6644,
      "Ġfraction": 6645,
      "ocyan": 6646,
      "mp": 6647,
      "olesterol": 6648,
      "oro": 6649,
      "ying": 6650,
      "Ġ~": 6651,
      "Ġbul": 6652,
      "ntt": 6653,
      "ĠSyn": 6654,
      "Ġrs": 6655,
      "Sup": 6656,
      "reme": 6657,
      "ali": 6658,
      "ĠNF": 6659,
      "Ġquite": 6660,
      "ares": 6661,
      "Ġexposed": 6662,
      "ffe": 6663,
      "erson": 6664,
      "Ġinterc": 6665,
      "Ġpublications": 6666,
      "ĠImprov": 6667,
      "itn": 6668,
      "Ġspread": 6669,
      "ĠMetabol": 6670,
      "No": 6671,
      "uli": 6672,
      "Ġnode": 6673,
      "Ġdiagnostic": 6674,
      "Ġnutrition": 6675,
      "group": 6676,
      "uls": 6677,
      "Ġcorrosion": 6678,
      "LI": 6679,
      "atically": 6680,
      "Ġadol": 6681,
      "uma": 6682,
      "Ġbillion": 6683,
      "Ġcolon": 6684,
      "ĠAccess": 6685,
      "atics": 6686,
      "ivated": 6687,
      "Ġcorrelated": 6688,
      "ĠCong": 6689,
      "ĠQual": 6690,
      "roke": 6691,
      "Ġremained": 6692,
      "Ġfluorescence": 6693,
      "ĠOf": 6694,
      "Ġleave": 6695,
      "Un": 6696,
      "etin": 6697,
      "Ġexpress": 6698,
      "Ġinstructions": 6699,
      "Ġ91": 6700,
      "Ġgenerate": 6701,
      "Ġproportion": 6702,
      "Ġsolely": 6703,
      "Ġhit": 6704,
      "band": 6705,
      "ĠClass": 6706,
      "Ġexceed": 6707,
      "ĠCy": 6708,
      "Ġsufficient": 6709,
      "Ġapopt": 6710,
      "control": 6711,
      "Ġbind": 6712,
      "ogle": 6713,
      "obic": 6714,
      "Ġclearly": 6715,
      "Ġconfirm": 6716,
      "Ġpiec": 6717,
      "ĠGC": 6718,
      "ends": 6719,
      "itors": 6720,
      "ĠSel": 6721,
      "ĠVan": 6722,
      "Ġdraw": 6723,
      "ĠÎ´": 6724,
      "Ġphoto": 6725,
      "Ġarticles": 6726,
      "riers": 6727,
      "Ġitems": 6728,
      "ĠZheng": 6729,
      "Ġpopular": 6730,
      "ĠHer": 6731,
      "Ġshif": 6732,
      "Ġphysiological": 6733,
      "well": 6734,
      "ask": 6735,
      "Ġjournal": 6736,
      "563": 6737,
      "ĠFoundation": 6738,
      "imicrobial": 6739,
      "Ġexplained": 6740,
      "phthalm": 6741,
      "Ġinterval": 6742,
      "Ġsurround": 6743,
      "2014": 6744,
      "Ġorient": 6745,
      "urt": 6746,
      "Ġwoman": 6747,
      "Ġetc": 6748,
      "Ġemot": 6749,
      "GC": 6750,
      "Ġsetting": 6751,
      "Ġsubstantial": 6752,
      "SM": 6753,
      "ĠSC": 6754,
      "ipp": 6755,
      "Ġconstruction": 6756,
      "Ġstrains": 6757,
      "regulated": 6758,
      "Ġkidney": 6759,
      "Ġelectrical": 6760,
      "isation": 6761,
      "ensus": 6762,
      "Ġplayer": 6763,
      "dy": 6764,
      "fold": 6765,
      "ori": 6766,
      "Ġstabil": 6767,
      "eeee": 6768,
      "Ġlearn": 6769,
      "Ġsettings": 6770,
      "Ġmaintenance": 6771,
      "ĠSH": 6772,
      "ĠProt": 6773,
      "Ġeverything": 6774,
      "Ġreflect": 6775,
      "Ġtheory": 6776,
      "ĠDa": 6777,
      "ĠWrit": 6778,
      "Ġunderlying": 6779,
      "Ġreceive": 6780,
      "Ġbonds": 6781,
      "ester": 6782,
      "Ġcro": 6783,
      "Ġplane": 6784,
      "arian": 6785,
      "Ġchlor": 6786,
      "US": 6787,
      "Ġteach": 6788,
      "ĠArticle": 6789,
      "Ġhands": 6790,
      "Ġdissol": 6791,
      "avio": 6792,
      "Ġmodeling": 6793,
      "ĠSynthesis": 6794,
      "ĠConclusions": 6795,
      "agon": 6796,
      "Ġcontract": 6797,
      "Ġgap": 6798,
      "Ġsets": 6799,
      "ĠâĪĨ": 6800,
      "ĠIts": 6801,
      "Ġnothing": 6802,
      "582": 6803,
      "Ġworth": 6804,
      "Ġintegr": 6805,
      "ĠStand": 6806,
      "ĠHR": 6807,
      "Ġsaw": 6808,
      "isn": 6809,
      "Ġinfections": 6810,
      "ĠKing": 6811,
      "oxide": 6812,
      "GS": 6813,
      "vo": 6814,
      "Ġgain": 6815,
      "Ġrr": 6816,
      "ĠInformation": 6817,
      "Re": 6818,
      "Ġcommunities": 6819,
      "701": 6820,
      "Ġanth": 6821,
      "Ġplaying": 6822,
      "Ġreliability": 6823,
      "Ġboard": 6824,
      "Ġaer": 6825,
      "ogram": 6826,
      "Ġappears": 6827,
      "ĠMach": 6828,
      "acet": 6829,
      "Ġwave": 6830,
      "ĠFollow": 6831,
      "EA": 6832,
      "Ġadvantage": 6833,
      "ĠSA": 6834,
      "Ġrise": 6835,
      "That": 6836,
      "Ġobjective": 6837,
      "ĠGlobal": 6838,
      "Ġquickly": 6839,
      "Ġcool": 6840,
      "592": 6841,
      "Ġcarry": 6842,
      "Ġoffice": 6843,
      "Ġmentioned": 6844,
      "part": 6845,
      "ĠGA": 6846,
      "Ġoperation": 6847,
      "clus": 6848,
      "Ġamb": 6849,
      "ĠEquation": 6850,
      "Â®": 6851,
      "asive": 6852,
      "ports": 6853,
      "IL": 6854,
      "ĠKar": 6855,
      "Ġoccup": 6856,
      "Ġdeformation": 6857,
      "Ġfamilies": 6858,
      "Ġmic": 6859,
      "Ġnote": 6860,
      "ibrary": 6861,
      "'-": 6862,
      "ectors": 6863,
      "Ġmutations": 6864,
      "urch": 6865,
      "ĠType": 6866,
      "Ġfal": 6867,
      "572": 6868,
      "Ġcomputer": 6869,
      "ĠCB": 6870,
      "thh": 6871,
      "ĠArch": 6872,
      "Ġmother": 6873,
      "Ġrepresented": 6874,
      "fu": 6875,
      "rill": 6876,
      "Ġwritten": 6877,
      "ĠSong": 6878,
      "ĠProv": 6879,
      "Ġpositions": 6880,
      "ĠCollege": 6881,
      "Ġfederal": 6882,
      "Ġpel": 6883,
      "Ġshoot": 6884,
      "ultaneous": 6885,
      "gov": 6886,
      "ĠLett": 6887,
      "Ġtypical": 6888,
      "Ġmaintaining": 6889,
      "552": 6890,
      "503": 6891,
      "Ġconflict": 6892,
      "Ġcoverage": 6893,
      "ona": 6894,
      "Ġprecision": 6895,
      "nl": 6896,
      "573": 6897,
      "onia": 6898,
      "Ġsampling": 6899,
      "Ġroles": 6900,
      "Ġae": 6901,
      "Ġconform": 6902,
      "ĠLC": 6903,
      "Ġdecreases": 6904,
      "Ġensuring": 6905,
      "Ġscenarios": 6906,
      "erative": 6907,
      "anth": 6908,
      "Ġstret": 6909,
      "Ġintegrated": 6910,
      "Ġrandomized": 6911,
      "ĠMass": 6912,
      "ĠSmith": 6913,
      "Ġisolated": 6914,
      "Ġ@": 6915,
      "Ġfresh": 6916,
      "ĠFact": 6917,
      "illa": 6918,
      "553": 6919,
      "ĠGovernment": 6920,
      "583": 6921,
      "Ġsensitive": 6922,
      "olymer": 6923,
      "593": 6924,
      "ĠÃ°": 6925,
      "Ġunderw": 6926,
      "Ġaspects": 6927,
      "FD": 6928,
      "Ġinfluenced": 6929,
      "ĠProtein": 6930,
      "Ġrecommended": 6931,
      "ĠRen": 6932,
      "Ġorganization": 6933,
      "Ġloading": 6934,
      "bt": 6935,
      "Ġlaboratory": 6936,
      "Ġ180": 6937,
      "STM": 6938,
      "ĠAnother": 6939,
      "Ġtumors": 6940,
      "Ġserve": 6941,
      "Ġclosely": 6942,
      "hold": 6943,
      "Ġofficials": 6944,
      "Ġemphas": 6945,
      "rat": 6946,
      "imately": 6947,
      "ĠShi": 6948,
      "Ġinferior": 6949,
      "ala": 6950,
      "Ġeyes": 6951,
      "Ġmetabolites": 6952,
      "Ġeating": 6953,
      "Ġhyd": 6954,
      "ĠPo": 6955,
      "Ġcomplexity": 6956,
      "Ġinstrum": 6957,
      "Ġenzymes": 6958,
      "iment": 6959,
      "Ġintegration": 6960,
      "ĠHam": 6961,
      "Ġtract": 6962,
      "Ġmater": 6963,
      "ĠMPa": 6964,
      "Ġconsent": 6965,
      "Ġcold": 6966,
      "Ġopioid": 6967,
      "To": 6968,
      "Ġabnormal": 6969,
      "ĠKeywords": 6970,
      "ĠSEM": 6971,
      "Ġgun": 6972,
      "resent": 6973,
      "Ġpron": 6974,
      "Ġones": 6975,
      "Ġprogn": 6976,
      "ĠCorrespond": 6977,
      "ecutive": 6978,
      "Ġbat": 6979,
      "Ġphenomen": 6980,
      "ĠHydro": 6981,
      "ĠEvaluation": 6982,
      "eved": 6983,
      "Ġextrem": 6984,
      "body": 6985,
      "aped": 6986,
      "ĠRich": 6987,
      "onald": 6988,
      "Ġgastro": 6989,
      "Ġath": 6990,
      "ondon": 6991,
      "ĠCommittee": 6992,
      "Ġswit": 6993,
      "Ġhumans": 6994,
      "Ġsmo": 6995,
      "781": 6996,
      "ĠFour": 6997,
      "usters": 6998,
      "Ġsynthesized": 6999,
      "ĠHIV": 7000,
      "ĠPE": 7001,
      "ĠJA": 7002,
      "Ġnutritional": 7003,
      "BM": 7004,
      "ĠEr": 7005,
      "Ġattend": 7006,
      "Ġranging": 7007,
      "ĠRSC": 7008,
      "Ġcrystal": 7009,
      "imer": 7010,
      "ogs": 7011,
      "Ġrace": 7012,
      "ĠYan": 7013,
      "Ġrecords": 7014,
      "dimensional": 7015,
      "Ġconsists": 7016,
      "Ġexhibits": 7017,
      "nic": 7018,
      "ĠNotably": 7019,
      "When": 7020,
      "::": 7021,
      "ĠHist": 7022,
      "Ġviolence": 7023,
      "vin": 7024,
      "ĠCNN": 7025,
      "Ġmeaning": 7026,
      "izations": 7027,
      "Ġil": 7028,
      "chain": 7029,
      "ĠCardi": 7030,
      "Ġgender": 7031,
      "Ġplayed": 7032,
      "Ġmarked": 7033,
      "Ġadjusted": 7034,
      "ĠmRNA": 7035,
      "lined": 7036,
      "Ġeasily": 7037,
      "ĠBoard": 7038,
      "ĠLearning": 7039,
      "791": 7040,
      "Ġchanged": 7041,
      "but": 7042,
      "Ġpush": 7043,
      "ĠProject": 7044,
      "ĠDirect": 7045,
      "ĠQuant": 7046,
      "ĠDD": 7047,
      "ruary": 7048,
      "Ġpurpose": 7049,
      "osan": 7050,
      "Ã°": 7051,
      "ĠLaboratory": 7052,
      "hael": 7053,
      "oretical": 7054,
      "ĠEur": 7055,
      "otechn": 7056,
      "racellular": 7057,
      "................................": 7058,
      "Ġnation": 7059,
      "Ġvo": 7060,
      "Ġrich": 7061,
      "Ġposit": 7062,
      "ctu": 7063,
      "ĠConfl": 7064,
      "ĠExp": 7065,
      "Ġconsidering": 7066,
      "iforn": 7067,
      "Ġsatisf": 7068,
      "Ġmodern": 7069,
      "Ġinjection": 7070,
      "Ġmacroph": 7071,
      "bre": 7072,
      "erated": 7073,
      "ĠSand": 7074,
      "ĠBC": 7075,
      "Ġbecomes": 7076,
      "Ġnumerous": 7077,
      "Ġhydroph": 7078,
      "opathy": 7079,
      "Ġmi": 7080,
      "emy": 7081,
      "Ġfoods": 7082,
      "how": 7083,
      "Ġreasons": 7084,
      "Ġseparate": 7085,
      "NI": 7086,
      "Ġpure": 7087,
      "Ġagreement": 7088,
      "FT": 7089,
      "Ġaware": 7090,
      "Ġgovern": 7091,
      "iring": 7092,
      "Ġaf": 7093,
      "Ġbottom": 7094,
      "Ġmitig": 7095,
      "ĠPT": 7096,
      "1093": 7097,
      "ĠIdent": 7098,
      "Ġmur": 7099,
      "Ġcardiac": 7100,
      "ocl": 7101,
      "rained": 7102,
      "ĠParticip": 7103,
      "ĠSpect": 7104,
      "eneration": 7105,
      "ady": 7106,
      "Ġbill": 7107,
      "Ġrenal": 7108,
      "Ġegg": 7109,
      "ĠML": 7110,
      "ociated": 7111,
      "raining": 7112,
      "Ġemail": 7113,
      "ĠIndones": 7114,
      "ĠîĦĥ": 7115,
      "itz": 7116,
      "Ġwebs": 7117,
      "Ġoccurred": 7118,
      "aize": 7119,
      "ĠJe": 7120,
      "Ġfluid": 7121,
      "Ag": 7122,
      "Ġhous": 7123,
      "Ġcomment": 7124,
      "allel": 7125,
      "tty": 7126,
      "Ġsubstance": 7127,
      "Ġphosphor": 7128,
      "Ġactions": 7129,
      "1002": 7130,
      "Ġcalcium": 7131,
      "ometer": 7132,
      "Ġcontributions": 7133,
      "rian": 7134,
      "Ġgave": 7135,
      "Ġembry": 7136,
      "men": 7137,
      "ãĤ": 7138,
      "Ġimag": 7139,
      "ĠSM": 7140,
      "Ġsurfaces": 7141,
      "ĠFuture": 7142,
      "Ġplans": 7143,
      "Ġoverl": 7144,
      "Ġcomplexes": 7145,
      "Ġseparation": 7146,
      "Ġmotion": 7147,
      "accessed": 7148,
      "Ġrisks": 7149,
      "avi": 7150,
      "adian": 7151,
      "Ġdead": 7152,
      "Ġfriends": 7153,
      "Ġseverity": 7154,
      "imensions": 7155,
      "Ġcontinued": 7156,
      "iy": 7157,
      "cho": 7158,
      "Ġaged": 7159,
      "Ġthyroid": 7160,
      "plet": 7161,
      "gs": 7162,
      "Ġformal": 7163,
      "lands": 7164,
      "Ġhimself": 7165,
      "Ġcivil": 7166,
      "Ġbeam": 7167,
      "Ġelastic": 7168,
      "Ġmedicine": 7169,
      "Ġlargest": 7170,
      "Ġflavon": 7171,
      "Ġvelocity": 7172,
      "cs": 7173,
      "Ġzone": 7174,
      "Ġsustainable": 7175,
      "oney": 7176,
      "Ġobvious": 7177,
      "Ġpip": 7178,
      "ĠMax": 7179,
      "Ġaxis": 7180,
      "erves": 7181,
      "Ġpromoting": 7182,
      "Ġforeign": 7183,
      "asion": 7184,
      "ĠImage": 7185,
      "ogenous": 7186,
      "Ġbuffer": 7187,
      "mediated": 7188,
      "imm": 7189,
      "ĠPos": 7190,
      "Ġsoon": 7191,
      "Ġcollabor": 7192,
      "Ġachieving": 7193,
      "Ġimplementation": 7194,
      "Ġimmediately": 7195,
      "Ġprobability": 7196,
      "Ġcement": 7197,
      "ĠNor": 7198,
      "oli": 7199,
      "Ġelse": 7200,
      "Ġfert": 7201,
      "ĠGod": 7202,
      "Ġshared": 7203,
      "etric": 7204,
      "Ġmicrosc": 7205,
      "îĦĦ": 7206,
      "yr": 7207,
      "Ġpix": 7208,
      "Ġsurve": 7209,
      "Ġstatements": 7210,
      "Ġconcerns": 7211,
      "ifornia": 7212,
      "Ġspot": 7213,
      "ĠSaf": 7214,
      "ocking": 7215,
      "ĠTra": 7216,
      "Ġsolar": 7217,
      "Ġmetrics": 7218,
      "ez": 7219,
      "otics": 7220,
      "Ġaimed": 7221,
      "Ġparticle": 7222,
      "ĠTor": 7223,
      "apl": 7224,
      "600": 7225,
      "roscopy": 7226,
      "Ġwasn": 7227,
      "Ġrules": 7228,
      "Ġavailability": 7229,
      "Ġvisible": 7230,
      "Ġdepending": 7231,
      "Ġadult": 7232,
      "Ġexpan": 7233,
      "Ġsimulations": 7234,
      "Ġiniti": 7235,
      "Ġpig": 7236,
      "ĠCour": 7237,
      "Ġtravel": 7238,
      "Ġheterogene": 7239,
      "tual": 7240,
      "bing": 7241,
      "ĠRand": 7242,
      "ĠBay": 7243,
      "Ġcytok": 7244,
      "Ġsurpr": 7245,
      "ĠSE": 7246,
      "unk": 7247,
      "ĠHa": 7248,
      "Ġraw": 7249,
      "Ġio": 7250,
      "Ġpil": 7251,
      "Ġerrors": 7252,
      "Te": 7253,
      "ogl": 7254,
      "ĠÃ¯": 7255,
      "Ġoxide": 7256,
      "ĠAng": 7257,
      "ĠBel": 7258,
      "ecct": 7259,
      "ĠKe": 7260,
      "ĠðĿľ": 7261,
      "Ġcatalytic": 7262,
      "thritis": 7263,
      "Ġaging": 7264,
      "Ġmember": 7265,
      "Ġfracture": 7266,
      "nut": 7267,
      "ĠDig": 7268,
      "Ġbuilt": 7269,
      "Ġestimation": 7270,
      "Ġbank": 7271,
      "Ġfig": 7272,
      "ĠContributions": 7273,
      "Ġdiscussed": 7274,
      "Ġcry": 7275,
      "Ġsynthetic": 7276,
      "ĠNO": 7277,
      "ander": 7278,
      "ĠUnivers": 7279,
      "ï£": 7280,
      "Ġgrap": 7281,
      "rick": 7282,
      "def": 7283,
      "opo": 7284,
      "ĠLife": 7285,
      "Ġ800": 7286,
      "aven": 7287,
      "Ġtraits": 7288,
      "while": 7289,
      "dis": 7290,
      "Ġsed": 7291,
      "Ġvascular": 7292,
      "ĠTang": 7293,
      "Ġextra": 7294,
      "1080": 7295,
      "Ġsolvent": 7296,
      "ynamic": 7297,
      "ĠGr": 7298,
      "ĠPaul": 7299,
      "Ġaden": 7300,
      "Ġswe": 7301,
      "Ġexperienced": 7302,
      "astric": 7303,
      "ĠÃħ": 7304,
      "'ll": 7305,
      "isons": 7306,
      "perm": 7307,
      "Ġequation": 7308,
      "Ġmuc": 7309,
      "ĠLab": 7310,
      "ĠApp": 7311,
      "itions": 7312,
      "Ġvariability": 7313,
      "Ġvacc": 7314,
      "Ġsafe": 7315,
      "Ġconnected": 7316,
      "Ġure": 7317,
      "ĠChe": 7318,
      "Ġassociations": 7319,
      "Ġmodulus": 7320,
      "requency": 7321,
      "Ġbenefit": 7322,
      "uh": 7323,
      "ĠIV": 7324,
      "ĠAlex": 7325,
      "quality": 7326,
      "ĠImpact": 7327,
      "Ġcandidate": 7328,
      "DP": 7329,
      "ĠBa": 7330,
      "Ġcircum": 7331,
      "Ġlat": 7332,
      "ĠCheng": 7333,
      "Ġteh": 7334,
      "Ġadding": 7335,
      "Ġsummar": 7336,
      "ĠFebruary": 7337,
      "Ġbow": 7338,
      "Ġrect": 7339,
      "Ġunders": 7340,
      "iana": 7341,
      "ĠArt": 7342,
      "Ġresidues": 7343,
      "Ġabsol": 7344,
      "ĠCentral": 7345,
      "Ġaspect": 7346,
      "];": 7347,
      "Ġww": 7348,
      "ĠInte": 7349,
      "Ġchannels": 7350,
      "acterial": 7351,
      "Pl": 7352,
      "ĠÂ¼": 7353,
      "Ġclassified": 7354,
      "Ġcontributed": 7355,
      "flu": 7356,
      "ulates": 7357,
      "struct": 7358,
      "Ġtrade": 7359,
      "Ġfault": 7360,
      "anned": 7361,
      "versely": 7362,
      "ĠMur": 7363,
      "Ġguid": 7364,
      "ocom": 7365,
      "941": 7366,
      "jection": 7367,
      "Ġproliferation": 7368,
      "icular": 7369,
      "ĠAk": 7370,
      "Ġef": 7371,
      "ĠPS": 7372,
      "-(": 7373,
      "IG": 7374,
      "ses": 7375,
      "Ġpal": 7376,
      "Ġspent": 7377,
      "Ġreporting": 7378,
      "Ġtargeted": 7379,
      "Ġsuccessfully": 7380,
      "IA": 7381,
      "ĠProf": 7382,
      "ĠIran": 7383,
      "Ġminimal": 7384,
      "ĠSpecifically": 7385,
      "escents": 7386,
      "lia": 7387,
      "Ġnt": 7388,
      "Ġsummary": 7389,
      "Ġpsychological": 7390,
      "Ġmatch": 7391,
      "Ġcharacterization": 7392,
      "fully": 7393,
      "Ġwindow": 7394,
      "ĠGastro": 7395,
      "Ġepis": 7396,
      "Ġexamination": 7397,
      "Pr": 7398,
      "iop": 7399,
      "ptake": 7400,
      "ifies": 7401,
      "ativec": 7402,
      "----": 7403,
      "Ġdiagram": 7404,
      "Ġequival": 7405,
      "lights": 7406,
      "yan": 7407,
      "ĠSocial": 7408,
      "bet": 7409,
      "Ġshot": 7410,
      "ricted": 7411,
      "Ġ1999": 7412,
      "ĠPMC": 7413,
      "HO": 7414,
      "ĠMO": 7415,
      "Ġuncertain": 7416,
      "ĠÂµM": 7417,
      "Ġchromat": 7418,
      "ĠRoyal": 7419,
      "rium": 7420,
      "ache": 7421,
      "Ġrespiratory": 7422,
      "ĠScientific": 7423,
      "Ġprofiles": 7424,
      "oin": 7425,
      "wan": 7426,
      "heum": 7427,
      "ĠNS": 7428,
      "airs": 7429,
      "ograph": 7430,
      "Ġenabling": 7431,
      "onomic": 7432,
      "Ġmilk": 7433,
      "Ġbud": 7434,
      "Ġmethadone": 7435,
      "ĠNumber": 7436,
      "apse": 7437,
      "ĠRober": 7438,
      "Ġspecimen": 7439,
      "md": 7440,
      "Ġstudent": 7441,
      "761": 7442,
      "monary": 7443,
      "ativecommons": 7444,
      "apter": 7445,
      "891": 7446,
      "ĠDavid": 7447,
      "sec": 7448,
      "uments": 7449,
      "Ġprevention": 7450,
      "Ġmedication": 7451,
      "()": 7452,
      "ĠEM": 7453,
      "Ġho": 7454,
      "Ġintermedi": 7455,
      "Ġcoron": 7456,
      "agnetic": 7457,
      "UR": 7458,
      "phalt": 7459,
      "Ġzero": 7460,
      "Ġmaintained": 7461,
      "Ġdiabetic": 7462,
      "Ġcomparing": 7463,
      "burg": 7464,
      "essions": 7465,
      "wards": 7466,
      "Ġaccurately": 7467,
      "Ġturned": 7468,
      "Ġsold": 7469,
      "erry": 7470,
      "Ġfair": 7471,
      "ĠPort": 7472,
      "Ġexchange": 7473,
      "earing": 7474,
      "Ġrout": 7475,
      "ĠIg": 7476,
      "Ġabuse": 7477,
      "801": 7478,
      "cis": 7479,
      "Ġthous": 7480,
      "871": 7481,
      "861": 7482,
      "creativecommons": 7483,
      "Ġmol": 7484,
      "Ġcompris": 7485,
      "mmol": 7486,
      "Ġdrive": 7487,
      "IM": 7488,
      "ĠLondon": 7489,
      "Ġdefense": 7490,
      "Ġinsp": 7491,
      "1037": 7492,
      "ĠStreet": 7493,
      "rip": 7494,
      "Ġatoms": 7495,
      "acebook": 7496,
      "Ġrib": 7497,
      "Ġbeginning": 7498,
      "ĠSever": 7499,
      "Ġphone": 7500,
      "ĠConcept": 7501,
      "ductive": 7502,
      "Ġpool": 7503,
      "Ġmolecule": 7504,
      "Ġeveryone": 7505,
      "ĠDetection": 7506,
      "Ġsmooth": 7507,
      "ola": 7508,
      "ĠSystems": 7509,
      "Ġdimensions": 7510,
      "ears": 7511,
      "Ġmodification": 7512,
      "ĠCalifornia": 7513,
      "rite": 7514,
      "Ġfi": 7515,
      "ega": 7516,
      "1186": 7517,
      "cluding": 7518,
      "Ġson": 7519,
      "Ġrelig": 7520,
      "ĠNatural": 7521,
      "Ġtrained": 7522,
      "Ġprivacy": 7523,
      "Ġmeeting": 7524,
      "ĠFA": 7525,
      "ĠPLA": 7526,
      "Ġconflicts": 7527,
      "Ġcategories": 7528,
      "Ġmaps": 7529,
      "Ġtown": 7530,
      "Ġtube": 7531,
      "Ġvulner": 7532,
      "Ġsigns": 7533,
      "Ġmusic": 7534,
      "ĠNow": 7535,
      "ĠDue": 7536,
      "ĠLA": 7537,
      "2012": 7538,
      "izer": 7539,
      "ĠPhysiol": 7540,
      "ĠAvailability": 7541,
      "Ã£": 7542,
      "Ġconvolution": 7543,
      "Ġencour": 7544,
      "oa": 7545,
      "range": 7546,
      "ĠIslam": 7547,
      "naire": 7548,
      ",*": 7549,
      "ĠPop": 7550,
      "istan": 7551,
      "Ġplanning": 7552,
      "Ġfrequently": 7553,
      "ĠRod": 7554,
      "Ġpredom": 7555,
      "Ġquantitative": 7556,
      "Ġbiomark": 7557,
      "Ġtah": 7558,
      "ĠCommons": 7559,
      "Ġrh": 7560,
      "eech": 7561,
      "ĠPhil": 7562,
      "ĠDiabetes": 7563,
      "Ġfundament": 7564,
      "ĠKorea": 7565,
      "Ed": 7566,
      "ĠSP": 7567,
      "Ġrt": 7568,
      "Ġregist": 7569,
      "Ġmissing": 7570,
      "izon": 7571,
      "ĠMond": 7572,
      "icc": 7573,
      "Ġ1100": 7574,
      "Ġextended": 7575,
      "ĠGene": 7576,
      "Ġprecise": 7577,
      "Ġ160": 7578,
      "Ġheavy": 7579,
      "ĠOffic": 7580,
      "yd": 7581,
      "ĠGh": 7582,
      "poses": 7583,
      "ĠFaculty": 7584,
      "Ġinfants": 7585,
      "ĠWriting": 7586,
      "Fs": 7587,
      "erd": 7588,
      "andemic": 7589,
      "Ġagricult": 7590,
      "Ġengineering": 7591,
      "Ġoptions": 7592,
      "ĠJan": 7593,
      "intestinal": 7594,
      "ĠThree": 7595,
      "ĠRecent": 7596,
      "Ġexpansion": 7597,
      "HS": 7598,
      "Ġconsequ": 7599,
      "ĠBraz": 7600,
      "ĠWilli": 7601,
      "Ġextent": 7602,
      "ĠNews": 7603,
      "ality": 7604,
      "Ġfruit": 7605,
      "Ġhope": 7606,
      "Ġdemonstrates": 7607,
      "process": 7608,
      "Ġestimate": 7609,
      "Ġantibody": 7610,
      "haps": 7611,
      "Ġsubjected": 7612,
      "ĠActivity": 7613,
      "Ġcatalyst": 7614,
      "Ġintelligence": 7615,
      "Ġintestinal": 7616,
      "Ti": 7617,
      "ĠBur": 7618,
      "Ġdual": 7619,
      "ĠGiven": 7620,
      "lysis": 7621,
      "agg": 7622,
      "queous": 7623,
      "Ġreading": 7624,
      "ĠPerformance": 7625,
      "ĠBecause": 7626,
      "ranes": 7627,
      "Ġadop": 7628,
      "Ġcapital": 7629,
      "rows": 7630,
      "Ġnom": 7631,
      "ĠMP": 7632,
      "osh": 7633,
      "eud": 7634,
      "Ġincubated": 7635,
      "ublisher": 7636,
      "axis": 7637,
      "Ġcc": 7638,
      "Ġcompleted": 7639,
      "ĠHyper": 7640,
      "Ġdecided": 7641,
      "ĠGoogle": 7642,
      "ĠFP": 7643,
      "osynthetic": 7644,
      "Ġcrop": 7645,
      "osystem": 7646,
      "reess": 7647,
      "ĠUse": 7648,
      "Ġcereb": 7649,
      "iti": 7650,
      "ela": 7651,
      "ĠAcademic": 7652,
      "Ġscientific": 7653,
      "ĠFlu": 7654,
      "iotic": 7655,
      "charge": 7656,
      "ĠTTh": 7657,
      "1097": 7658,
      "Ġvector": 7659,
      "Ġow": 7660,
      "itosan": 7661,
      "Ġgn": 7662,
      "Ġdefects": 7663,
      "Ġregulatory": 7664,
      "ĠeV": 7665,
      "omatic": 7666,
      "Ġacad": 7667,
      "Ġretro": 7668,
      "Ġcreating": 7669,
      "mt": 7670,
      "estic": 7671,
      "ĠIsrael": 7672,
      "Ġprecip": 7673,
      "GE": 7674,
      "can": 7675,
      "embl": 7676,
      "Ġwrong": 7677,
      "ipher": 7678,
      "Ġunivers": 7679,
      "Ġhydrox": 7680,
      "nson": 7681,
      "Ġaffecting": 7682,
      "ĠManagement": 7683,
      "ĠAustralia": 7684,
      "Ġapoptosis": 7685,
      "zen": 7686,
      "Ġesc": 7687,
      "rang": 7688,
      "ĠRT": 7689,
      "Ġobservation": 7690,
      "Ġinformed": 7691,
      "Ġmag": 7692,
      "ĠCells": 7693,
      "ĠAS": 7694,
      "Ġexcept": 7695,
      "Ġresidual": 7696,
      "ĠWei": 7697,
      "Ġgoals": 7698,
      "Ġprotect": 7699,
      "Ġoption": 7700,
      "CNT": 7701,
      "ĠSk": 7702,
      "ĠRisk": 7703,
      "Ġopinions": 7704,
      "DC": 7705,
      "pati": 7706,
      "ĠAir": 7707,
      "Ġadverse": 7708,
      "Ġvictim": 7709,
      "ĠSn": 7710,
      "Ġms": 7711,
      "Ġclu": 7712,
      "osk": 7713,
      "ĠHol": 7714,
      "Ġparas": 7715,
      "Ġspectral": 7716,
      "Ġster": 7717,
      "inform": 7718,
      "ĠRet": 7719,
      "Ġfields": 7720,
      "Ġfacilitate": 7721,
      "415": 7722,
      "ĠEast": 7723,
      "Ġmicrobial": 7724,
      "Ġnorm": 7725,
      "ĠMHz": 7726,
      "low": 7727,
      "elli": 7728,
      "Ġpublication": 7729,
      "Ġperspective": 7730,
      "opes": 7731,
      "ĠHP": 7732,
      "Ġpage": 7733,
      "Ġfarm": 7734,
      "ĠMn": 7735,
      "ĠPLoS": 7736,
      "ĠFil": 7737,
      "Ġye": 7738,
      "Ġpretty": 7739,
      "ĠHC": 7740,
      "itudinal": 7741,
      "Ġtor": 7742,
      "Ġct": 7743,
      "HC": 7744,
      "ĠSAR": 7745,
      "741": 7746,
      "ĠDeep": 7747,
      "Ġdomains": 7748,
      "Ġidentifying": 7749,
      "Ġappeared": 7750,
      "Ġcarcin": 7751,
      "Ġassembly": 7752,
      "Ġexplored": 7753,
      "Ġmoving": 7754,
      "Ġhistor": 7755,
      ")/": 7756,
      "Ġsort": 7757,
      "Ġstandards": 7758,
      "Ġresin": 7759,
      "Ġpict": 7760,
      "ionn": 7761,
      "Ġstiff": 7762,
      "Ġvariant": 7763,
      "Ġsegmentation": 7764,
      "ei": 7765,
      "Ġmill": 7766,
      "ĠNY": 7767,
      "Ġeffort": 7768,
      "oprotein": 7769,
      "hesis": 7770,
      "mu": 7771,
      "Ġfusion": 7772,
      "ĠIR": 7773,
      "ĠEnh": 7774,
      "Ġopening": 7775,
      "HR": 7776,
      "Ġoperations": 7777,
      "083": 7778,
      "riday": 7779,
      "Ġillustrated": 7780,
      "NOVA": 7781,
      "Ġfish": 7782,
      "aste": 7783,
      "ĠMany": 7784,
      "eart": 7785,
      "Ġsuppl": 7786,
      "Ä±": 7787,
      "Ġsometimes": 7788,
      "ema": 7789,
      "Ġchosen": 7790,
      "Ġ(âĪĴ": 7791,
      "Ġformula": 7792,
      "cher": 7793,
      "ĠNeurosc": 7794,
      "082": 7795,
      "Ġaddiction": 7796,
      "Ġdisplayed": 7797,
      "Ġinteresting": 7798,
      "ĠDay": 7799,
      "841": 7800,
      "ĠSubst": 7801,
      "Ġbranch": 7802,
      "ĠMeasure": 7803,
      "Ġextracts": 7804,
      "Ã³n": 7805,
      "ĠEnglish": 7806,
      "igma": 7807,
      "Ġdiffer": 7808,
      "Ġarray": 7809,
      "Ġcopper": 7810,
      "ĠCitation": 7811,
      "Ġmeasuring": 7812,
      "III": 7813,
      "Ġreality": 7814,
      "Ġbehaviors": 7815,
      "Ġadvantages": 7816,
      "aus": 7817,
      "bar": 7818,
      "uan": 7819,
      "ĠCreative": 7820,
      "Ġskills": 7821,
      "ĠItaly": 7822,
      "fig": 7823,
      "fil": 7824,
      "Ġ165": 7825,
      "Ġcompare": 7826,
      "Ġsimultaneous": 7827,
      "Ġexplain": 7828,
      "Ġtel": 7829,
      "Ġelection": 7830,
      "Ġanalyze": 7831,
      "ĠAdvances": 7832,
      "ĠEven": 7833,
      "play": 7834,
      "Ġeconomy": 7835,
      "ĠOverall": 7836,
      "Ġconj": 7837,
      "Ġcholesterol": 7838,
      "Ġincident": 7839,
      "2013": 7840,
      "Ġdifferentiation": 7841,
      "atest": 7842,
      "ĠCrit": 7843,
      "ĠWestern": 7844,
      "ĠRussia": 7845,
      "ĠIr": 7846,
      "Ġneck": 7847,
      "Ġstrongly": 7848,
      "Ġtrends": 7849,
      "ĠBritish": 7850,
      "aks": 7851,
      "akers": 7852,
      "Ġconversion": 7853,
      "Ġreveals": 7854,
      "Ġtd": 7855,
      "Ġcavity": 7856,
      "ĠFisher": 7857,
      "2010": 7858,
      "ĠUA": 7859,
      "Ġvisit": 7860,
      "gory": 7861,
      "Ġnit": 7862,
      "Ġdependent": 7863,
      "KD": 7864,
      "dominal": 7865,
      "ĠEducation": 7866,
      "osn": 7867,
      "Ġbehavio": 7868,
      "uo": 7869,
      "Ġ175": 7870,
      "Ġcontribution": 7871,
      "Ġanyone": 7872,
      "ĠCompared": 7873,
      "stein": 7874,
      "ĠCorrespondence": 7875,
      "aki": 7876,
      "ĠMg": 7877,
      "eletal": 7878,
      "/).": 7879,
      "ipid": 7880,
      "Ġdiscrim": 7881,
      "Ġwalking": 7882,
      "Ġdang": 7883,
      "ĠInternet": 7884,
      "Ġcutting": 7885,
      "800": 7886,
      "ĠConsequently": 7887,
      "Ġcontinues": 7888,
      "osomal": 7889,
      "Ġtto": 7890,
      "Ġni": 7891,
      "Ġexcluded": 7892,
      "ĠCross": 7893,
      "erex": 7894,
      "ĠSupport": 7895,
      "Ġlives": 7896,
      "ĠÂµm": 7897,
      "sectional": 7898,
      "ĠRh": 7899,
      "van": 7900,
      "wood": 7901,
      "Ġcard": 7902,
      "ĠAB": 7903,
      "Ġrecycl": 7904,
      "ĠElectro": 7905,
      "iant": 7906,
      "Ġextensive": 7907,
      "Ġamounts": 7908,
      "Ġclasses": 7909,
      "cd": 7910,
      "reas": 7911,
      "ĠIoT": 7912,
      "ĠRevised": 7913,
      "Ġwarm": 7914,
      "Ġworked": 7915,
      "Ġviral": 7916,
      "Ġchance": 7917,
      "Ġfalse": 7918,
      "Ġfelt": 7919,
      "ĠTwitter": 7920,
      "tss": 7921,
      "draw": 7922,
      "Ġtet": 7923,
      "ĠFT": 7924,
      "ĠWil": 7925,
      "Ġspin": 7926,
      "Ġhighlights": 7927,
      "olecular": 7928,
      "ĠAbd": 7929,
      "Ġpackage": 7930,
      "Ġmitochondrial": 7931,
      "Ġundersc": 7932,
      "arrow": 7933,
      "Ġcart": 7934,
      "occ": 7935,
      "ameters": 7936,
      "ĠÏĥ": 7937,
      "posites": 7938,
      "ocyte": 7939,
      "Ġfinally": 7940,
      "Ġoptimized": 7941,
      "Ġperfect": 7942,
      "Ġcatal": 7943,
      "Ġphases": 7944,
      "Ġmedial": 7945,
      "Ġmetast": 7946,
      "eties": 7947,
      "ĠðĿĲ": 7948,
      "icate": 7949,
      "Ġfile": 7950,
      "ĠMit": 7951,
      "amber": 7952,
      "ĠDep": 7953,
      "ĠDiagn": 7954,
      "Ġsegment": 7955,
      "osphere": 7956,
      "Ġcamera": 7957,
      "Department": 7958,
      "aled": 7959,
      "rie": 7960,
      "Ġplots": 7961,
      "Ġelectrochemical": 7962,
      "undred": 7963,
      "Ġweights": 7964,
      "associated": 7965,
      "561": 7966,
      "Ġdifferential": 7967,
      "Ġbarrier": 7968,
      "Ġmanufacturing": 7969,
      "Ġanomal": 7970,
      "Ġwood": 7971,
      "Ġcouple": 7972,
      "ĠVolume": 7973,
      "Ã£o": 7974,
      "Br": 7975,
      "Ġmostly": 7976,
      "Ġglut": 7977,
      "just": 7978,
      "okes": 7979,
      "Ġpreserv": 7980,
      "Ġbranches": 7981,
      "ĠMoh": 7982,
      "ryl": 7983,
      "itudes": 7984,
      "ĠBiomed": 7985,
      "Ġintegrity": 7986,
      "LR": 7987,
      "ĠSund": 7988,
      "Ġ155": 7989,
      "ellite": 7990,
      "Ġabundance": 7991,
      "itory": 7992,
      "Ġvote": 7993,
      "gt": 7994,
      "Ã¤": 7995,
      "inations": 7996,
      "Ġantic": 7997,
      "ĠMel": 7998,
      "ĠPract": 7999,
      "acchar": 8000,
      "Ġgerm": 8001,
      "ĠLtd": 8002,
      "ovsk": 8003,
      "ylene": 8004,
      "Ġonset": 8005,
      "stand": 8006,
      "Ġwavel": 8007,
      "ava": 8008,
      "Ġprocessed": 8009,
      "Ġprotective": 8010,
      "Ġdiagnosed": 8011,
      "Ġbeneficial": 8012,
      "ĠFrance": 8013,
      "Ġcast": 8014,
      "Ġimpacts": 8015,
      "Ġsuscept": 8016,
      "Ġvisualization": 8017,
      "Ġembed": 8018,
      "Ġcollege": 8019,
      "aet": 8020,
      "ĠDat": 8021,
      "Ġchallenging": 8022,
      "Ġgradually": 8023,
      "LU": 8024,
      "ðĿĲ": 8025,
      "rowth": 8026,
      "Ġkept": 8027,
      "630": 8028,
      "Ġadequ": 8029,
      "Ġdistingu": 8030,
      "Ġrepresentation": 8031,
      "ĠAmericans": 8032,
      "ĠPsychiat": 8033,
      "ĠThrough": 8034,
      "ĠDE": 8035,
      "Ġreliable": 8036,
      "____": 8037,
      "Ġnine": 8038,
      "ĠANOVA": 8039,
      "rusion": 8040,
      "ĠUp": 8041,
      "Ġuptake": 8042,
      "Ġhear": 8043,
      "Ġrelation": 8044,
      "bohyd": 8045,
      "Ġcausing": 8046,
      "ĠER": 8047,
      "Ġvein": 8048,
      "Ġtransplant": 8049,
      "ediatric": 8050,
      "Î»": 8051,
      "acent": 8052,
      "Ġmutation": 8053,
      "orp": 8054,
      "ags": 8055,
      "Ġdirector": 8056,
      "Ġinclusion": 8057,
      "Ġtrust": 8058,
      "feed": 8059,
      "ĠVer": 8060,
      "Ġtranscript": 8061,
      "ora": 8062,
      "ĠFriday": 8063,
      "Ġannual": 8064,
      "âĨ": 8065,
      "ĠÎ»": 8066,
      "eee": 8067,
      "Ġpenet": 8068,
      "ĠAlso": 8069,
      "Ġopportunity": 8070,
      "Pe": 8071,
      "chem": 8072,
      "ws": 8073,
      "yo": 8074,
      "isis": 8075,
      "ĠSoft": 8076,
      "Ġdecisions": 8077,
      "rus": 8078,
      "ĠTs": 8079,
      "Ġstra": 8080,
      "eva": 8081,
      "Ġrelax": 8082,
      "Ġteams": 8083,
      "iples": 8084,
      "ĠIndonesia": 8085,
      "Ġfold": 8086,
      "Âµm": 8087,
      "Ġreceptors": 8088,
      "Ġ700": 8089,
      "iaz": 8090,
      "Ġreceiving": 8091,
      "ĠEarth": 8092,
      "Ġdeficiency": 8093,
      "ĠApplications": 8094,
      "vement": 8095,
      "eps": 8096,
      "ariate": 8097,
      "Ġbuy": 8098,
      "ĠConflicts": 8099,
      "aine": 8100,
      "ĠRF": 8101,
      "ĠJin": 8102,
      "ĠIndex": 8103,
      "Ġpromotes": 8104,
      "elihood": 8105,
      "Ġsuff": 8106,
      "Ġinduction": 8107,
      "Ġeo": 8108,
      "ĠTA": 8109,
      "ĠTom": 8110,
      "amb": 8111,
      "ĠGold": 8112,
      "ĠIF": 8113,
      "seq": 8114,
      "tttt": 8115,
      "ĠAfrica": 8116,
      "uous": 8117,
      "ĠLL": 8118,
      "Ġenables": 8119,
      "ĠYe": 8120,
      "ĠStress": 8121,
      "Ġauto": 8122,
      "Ġdy": 8123,
      "Ġtheoretical": 8124,
      "Ġrepair": 8125,
      "ĠCarbon": 8126,
      "Ġperiods": 8127,
      "rag": 8128,
      "ĠPb": 8129,
      "iral": 8130,
      "Ġscient": 8131,
      "Ġsociety": 8132,
      "Ġwheat": 8133,
      "ĠScale": 8134,
      "hea": 8135,
      "Ġasphalt": 8136,
      "Ġprefer": 8137,
      "Ġidentity": 8138,
      "structure": 8139,
      "Ġouter": 8140,
      "PSS": 8141,
      "ĠRepublican": 8142,
      "-,": 8143,
      "xt": 8144,
      "ÂŃ": 8145,
      "Ġmapping": 8146,
      "lets": 8147,
      "Ġrub": 8148,
      "Ġhighlighted": 8149,
      "cel": 8150,
      "Ġenable": 8151,
      "Ġestimates": 8152,
      "pic": 8153,
      "Ġscheme": 8154,
      "ifest": 8155,
      "Ġapparent": 8156,
      "Ġlocations": 8157,
      "itus": 8158,
      "ĠIncre": 8159,
      "apped": 8160,
      "enr": 8161,
      "ĠBack": 8162,
      "Ġvert": 8163,
      "illance": 8164,
      "Ġattract": 8165,
      "Ġtraject": 8166,
      "Ġpeptide": 8167,
      "ĠFollowing": 8168,
      "oys": 8169,
      "Ġoffering": 8170,
      "Ġverteb": 8171,
      "knowledg": 8172,
      "Ġalb": 8173,
      "Ġantimicrobial": 8174,
      "Ġvehicles": 8175,
      "linear": 8176,
      "ĠFacebook": 8177,
      "Ġdiffusion": 8178,
      "ogenetic": 8179,
      "Ġguide": 8180,
      "ĠAssessment": 8181,
      "',": 8182,
      "from": 8183,
      "max": 8184,
      "Ġtun": 8185,
      "adn": 8186,
      "ĠDon": 8187,
      "Ġcoal": 8188,
      "Ġsections": 8189,
      "Ġnamed": 8190,
      "They": 8191,
      "Ġinitially": 8192,
      "Ġmoist": 8193,
      "Ġdecline": 8194,
      "Ġmild": 8195,
      "cler": 8196,
      "Ġmorning": 8197,
      "Ġapproval": 8198,
      "Ġdoses": 8199,
      "Ġmanner": 8200,
      "((": 8201,
      "Ġeg": 8202,
      "Ġstom": 8203,
      "arp": 8204,
      "orig": 8205,
      "Ġanc": 8206,
      "Ġpossibility": 8207,
      "Ġtargeting": 8208,
      "ĠPhysical": 8209,
      "Ġmaize": 8210,
      "Ġnd": 8211,
      "Ġwire": 8212,
      "Ġtho": 8213,
      "ĠInstitution": 8214,
      "Ġnet": 8215,
      "Ġethanol": 8216,
      "Ġreb": 8217,
      "Ġresidents": 8218,
      "ĠActa": 8219,
      "Ġpolicies": 8220,
      "ĠMulti": 8221,
      "Ġligand": 8222,
      "icide": 8223,
      "Ġcomposed": 8224,
      "Ġ1998": 8225,
      "ĠPeople": 8226,
      "ĠAfrican": 8227,
      "lh": 8228,
      "asp": 8229,
      "Ġcapabilities": 8230,
      "Ġcapable": 8231,
      "HB": 8232,
      "Ġign": 8233,
      "Ġia": 8234,
      "Ġvision": 8235,
      "ĠMcC": 8236,
      "700": 8237,
      "Ġbrought": 8238,
      "ĠCro": 8239,
      "ading": 8240,
      "Ġforming": 8241,
      "Ġdiscussion": 8242,
      "Ġpositively": 8243,
      "ĠMonday": 8244,
      "ners": 8245,
      "Ġreactive": 8246,
      "being": 8247,
      "Ġmembranes": 8248,
      "Ġduct": 8249,
      "Ġmaternal": 8250,
      "sch": 8251,
      "Ġheating": 8252,
      "Ġultimately": 8253,
      "ĠCongress": 8254,
      "auth": 8255,
      "pass": 8256,
      "Ġtrees": 8257,
      "ificant": 8258,
      "ĠProc": 8259,
      "derived": 8260,
      "Ġmobile": 8261,
      "iate": 8262,
      "oust": 8263,
      "neum": 8264,
      "Ġdetermination": 8265,
      "Ġsac": 8266,
      "Ġ166": 8267,
      "otn": 8268,
      "ogy": 8269,
      "Ġcontributor": 8270,
      "Ġfirm": 8271,
      "Ġperception": 8272,
      "ĠBrazil": 8273,
      "Ġhelps": 8274,
      "Ġlegisl": 8275,
      "vertis": 8276,
      "icy": 8277,
      "olf": 8278,
      "ĠDong": 8279,
      "Ġpowder": 8280,
      "Ġdna": 8281,
      "Ġpredictions": 8282,
      "Ġengine": 8283,
      "Ġprofessional": 8284,
      "joy": 8285,
      "Ġasc": 8286,
      "Ġrepresentative": 8287,
      "ĠQuality": 8288,
      "OO": 8289,
      "´ï£": 8290,
      "Ġsum": 8291,
      "allic": 8292,
      "Ġbeg": 8293,
      "Ġkilled": 8294,
      "Ġinterv": 8295,
      "1017": 8296,
      "Ġknee": 8297,
      "Ġsubstances": 8298,
      "Â´,": 8299,
      "Ġbrief": 8300,
      "Ġstr": 8301,
      "ĠPI": 8302,
      "ĠPET": 8303,
      "ĠEEG": 8304,
      "cee": 8305,
      "Ġactivated": 8306,
      "ĠÏī": 8307,
      "fit": 8308,
      "vic": 8309,
      "Ġlatest": 8310,
      "Ġship": 8311,
      "even": 8312,
      "Ġclusters": 8313,
      "Ġleader": 8314,
      "ĠKh": 8315,
      "herent": 8316,
      "Ġimplemented": 8317,
      "Ġpandemic": 8318,
      "Ġcord": 8319,
      "Ġfif": 8320,
      "Ġ170": 8321,
      "Ġll": 8322,
      "rugg": 8323,
      "enty": 8324,
      "Ġimplications": 8325,
      "Ġdrink": 8326,
      "ION": 8327,
      "EDOT": 8328,
      "ĠFer": 8329,
      "Ġresol": 8330,
      "Ġpartial": 8331,
      "Ġsubsequently": 8332,
      "Ġpark": 8333,
      "Ġ222": 8334,
      "ĠKumar": 8335,
      "ĠTransl": 8336,
      "Ġclosed": 8337,
      "ologic": 8338,
      "Ġgrown": 8339,
      "Ġdemonstrating": 8340,
      "Ġburden": 8341,
      "asn": 8342,
      "Ġinner": 8343,
      "Ġcontributing": 8344,
      "Ġpulse": 8345,
      "Ġequivalent": 8346,
      "oni": 8347,
      "chang": 8348,
      "Ġlact": 8349,
      "Ġinterests": 8350,
      "Ġgoes": 8351,
      "Ġelectrodes": 8352,
      "Ġflexible": 8353,
      "emm": 8354,
      "oside": 8355,
      "irus": 8356,
      "Ġsupports": 8357,
      "Ġemission": 8358,
      "deg": 8359,
      "ĠMi": 8360,
      "ĠUl": 8361,
      "Ġgenotypes": 8362,
      "Ġsst": 8363,
      "ĠOphthalm": 8364,
      "Ġinfected": 8365,
      "Ġundergo": 8366,
      "ja": 8367,
      "iny": 8368,
      "Ġindepend": 8369,
      "Ġscanning": 8370,
      "Ġmedications": 8371,
      "Ġchanging": 8372,
      "Ġtechnical": 8373,
      "Ġlicenses": 8374,
      "ĠParticipants": 8375,
      "Ġpassed": 8376,
      "Ġconnect": 8377,
      "oes": 8378,
      "ĠCirc": 8379,
      "OLO": 8380,
      "ione": 8381,
      "Ġbars": 8382,
      "Ġwound": 8383,
      "antic": 8384,
      "ruption": 8385,
      "Ġendot": 8386,
      "ĠInflu": 8387,
      "habilit": 8388,
      "Ns": 8389,
      "Ġequipment": 8390,
      "zh": 8391,
      "Ġimprovements": 8392,
      "Ġshock": 8393,
      "Ġyellow": 8394,
      "Ġmeat": 8395,
      "ĠÎµ": 8396,
      "Ġserved": 8397,
      "Ġpowerful": 8398,
      "ytical": 8399,
      "ĠBrown": 8400,
      "Ġstream": 8401,
      "aint": 8402,
      "heumat": 8403,
      "Ġdur": 8404,
      "Ġoe": 8405,
      "Ġradi": 8406,
      "Ġmoun": 8407,
      "Ġpredictive": 8408,
      "Ġirrad": 8409,
      "fh": 8410,
      "Ġweld": 8411,
      "Ġobservations": 8412,
      "Ġcareer": 8413,
      "ĠâĪĳ": 8414,
      "ĠJack": 8415,
      "ĠJohnson": 8416,
      "ĠPy": 8417,
      "Ġweb": 8418,
      "ĠÂµL": 8419,
      "Ġadolescents": 8420,
      "ua": 8421,
      "Ġnurs": 8422,
      "ĠAL": 8423,
      "verage": 8424,
      "ĠStructure": 8425,
      "iiii": 8426,
      "Ġyields": 8427,
      "Ġstimulation": 8428,
      "Ġwebsite": 8429,
      "Ab": 8430,
      "Hg": 8431,
      "using": 8432,
      "Ġgives": 8433,
      "âĢł": 8434,
      "ĠBP": 8435,
      "Ġannounced": 8436,
      "Ġhundred": 8437,
      "ĠTurk": 8438,
      "ĠSym": 8439,
      "Ġperme": 8440,
      "oked": 8441,
      "Ġdoct": 8442,
      "Ġclinic": 8443,
      "VV": 8444,
      "Ġconstrain": 8445,
      "Ġextremely": 8446,
      "ald": 8447,
      "Ġ185": 8448,
      "Ġtouch": 8449,
      "ĠLuo": 8450,
      "orac": 8451,
      "amide": 8452,
      "Ġartificial": 8453,
      "All": 8454,
      "Ġcomparable": 8455,
      "Ġhon": 8456,
      "Ġ=.": 8457,
      "Ġconsensus": 8458,
      "Ġhthe": 8459,
      "igm": 8460,
      "iph": 8461,
      "ĠDisord": 8462,
      "One": 8463,
      "gent": 8464,
      "olin": 8465,
      "Ġtried": 8466,
      "ĠAcknowledg": 8467,
      "Ġbelong": 8468,
      "Ġhappened": 8469,
      "ĠConceptualization": 8470,
      "Ġnth": 8471,
      "501": 8472,
      "Ġleaders": 8473,
      "Ġplacebo": 8474,
      "NPs": 8475,
      "ĠRI": 8476,
      "ĠSam": 8477,
      "ĠDen": 8478,
      "hematic": 8479,
      "Ġhighlighting": 8480,
      "onom": 8481,
      "Ġtm": 8482,
      "Ġspeech": 8483,
      "Ġthank": 8484,
      "ropy": 8485,
      "Ġfiles": 8486,
      "11111111": 8487,
      "Ġsummer": 8488,
      "inv": 8489,
      "Ġnotable": 8490,
      "Ġflat": 8491,
      "ĠBehavi": 8492,
      "Ġutilizing": 8493,
      "night": 8494,
      "Ġ177": 8495,
      "ĠMot": 8496,
      "ogens": 8497,
      "Ġodd": 8498,
      "asal": 8499,
      "opsis": 8500,
      "Ġrule": 8501,
      "Ġgiving": 8502,
      "ĠLou": 8503,
      "ĠSingh": 8504,
      "elle": 8505,
      "ĠTian": 8506,
      "ĠNano": 8507,
      "ĠSustain": 8508,
      "Ġremove": 8509,
      "1020": 8510,
      "ĠShen": 8511,
      "yc": 8512,
      "Ġcorrelations": 8513,
      "Ġfundamental": 8514,
      "Ġpref": 8515,
      "Ġpossess": 8516,
      "ublishing": 8517,
      "Ġparticipant": 8518,
      "Ġgraphene": 8519,
      "cent": 8520,
      "Ġfoss": 8521,
      "irn": 8522,
      "plate": 8523,
      "regulation": 8524,
      "rn": 8525,
      "Ġstrugg": 8526,
      "Ġvibration": 8527,
      "Ġtransformation": 8528,
      "Le": 8529,
      "ĠMad": 8530,
      "Ġimplant": 8531,
      "Ġdownload": 8532,
      "Ġindicators": 8533,
      "rav": 8534,
      "Ġeh": 8535,
      "Ġstored": 8536,
      "ĠNext": 8537,
      "ĠAppro": 8538,
      "Ġ168": 8539,
      "Ġchains": 8540,
      "Ġconnection": 8541,
      "Ġfailed": 8542,
      "ĠCharacterization": 8543,
      "Ġanswer": 8544,
      "Ġconce": 8545,
      "ĠPak": 8546,
      "ĠLaw": 8547,
      "Ne": 8548,
      "sels": 8549,
      "Ġstation": 8550,
      "ĠWell": 8551,
      "ews": 8552,
      "Ġword": 8553,
      "ĠTri": 8554,
      "ĠCamp": 8555,
      "Ġconclusion": 8556,
      "Ġknew": 8557,
      "Ġstraight": 8558,
      "arb": 8559,
      "Ġdescription": 8560,
      "Ġexclus": 8561,
      "Ġdisplacement": 8562,
      "Ġconfiguration": 8563,
      "roy": 8564,
      "oted": 8565,
      "Ġhuge": 8566,
      "âĢĤ": 8567,
      "ĠROS": 8568,
      "Ġelectroly": 8569,
      "ERS": 8570,
      "Ġhappen": 8571,
      "ĠCourt": 8572,
      "Ġmicroscopy": 8573,
      "DS": 8574,
      "ias": 8575,
      "isan": 8576,
      "Ġven": 8577,
      "591": 8578,
      "ĠSurface": 8579,
      "Ġpairs": 8580,
      "+,": 8581,
      "UT": 8582,
      "Ġ210": 8583,
      "2011": 8584,
      "Ġparallel": 8585,
      "Ġgradient": 8586,
      "Ġpredominant": 8587,
      "ĠBre": 8588,
      "Ġdecades": 8589,
      "Ġsuppress": 8590,
      "ĠCounty": 8591,
      "uer": 8592,
      "ivariate": 8593,
      "ĠBMC": 8594,
      "ĠFeng": 8595,
      "ĠRS": 8596,
      "0317": 8597,
      "Ġcuration": 8598,
      "Ġpasses": 8599,
      "ĠSubsequently": 8600,
      "Ġneutral": 8601,
      "eds": 8602,
      "aka": 8603,
      "ĠIndust": 8604,
      "exp": 8605,
      "Ġspectroscopy": 8606,
      "ĠRaman": 8607,
      "Ġul": 8608,
      "ĠTP": 8609,
      "Ġextension": 8610,
      "ĠHall": 8611,
      "uesday": 8612,
      "lind": 8613,
      "tenu": 8614,
      "ĠYoung": 8615,
      "Ġuns": 8616,
      "HP": 8617,
      "!!!!!!!!!!!!!!!!!!!!!!!!!!!!!!!!": 8618,
      "Ġ195": 8619,
      "ĠOT": 8620,
      "Ġfuel": 8621,
      "Ġmessage": 8622,
      "Ġchloride": 8623,
      "Ġunderwent": 8624,
      "Ġgastrointestinal": 8625,
      "ĠNI": 8626,
      "Ġ101": 8627,
      "Ġexamine": 8628,
      "Ġtoxicity": 8629,
      "Ġine": 8630,
      "Ġ240": 8631,
      "ĠFlor": 8632,
      "Ġatm": 8633,
      "Ġ1997": 8634,
      "Ġïĥ": 8635,
      "OA": 8636,
      "Ġask": 8637,
      "Ġfewer": 8638,
      "Ġintermediate": 8639,
      "TM": 8640,
      "onf": 8641,
      "Ġ<.": 8642,
      "Ġalignment": 8643,
      "ĠPotential": 8644,
      "ĠCV": 8645,
      "Ġsystemic": 8646,
      "Ġphyl": 8647,
      "Ġutilization": 8648,
      "BR": 8649,
      "rared": 8650,
      "Ġmer": 8651,
      "ensee": 8652,
      "Ġinsu": 8653,
      "Ġincreasingly": 8654,
      "cut": 8655,
      "esh": 8656,
      "ĠChic": 8657,
      "CR": 8658,
      "ĠTV": 8659,
      "1177": 8660,
      "Ġnormalized": 8661,
      "cat": 8662,
      "ĠPerc": 8663,
      "571": 8664,
      "Ġcomparisons": 8665,
      "Ġgrade": 8666,
      "Bas": 8667,
      "eman": 8668,
      "ĠOh": 8669,
      "ensis": 8670,
      "ported": 8671,
      "erms": 8672,
      "Ġoverc": 8673,
      "Ġphenomenon": 8674,
      "ocial": 8675,
      "ĠRR": 8676,
      "Ġinsurance": 8677,
      "Ġcentrif": 8678,
      "health": 8679,
      "Ġ220": 8680,
      "âĢ¢": 8681,
      "ĠFan": 8682,
      "Ġcalculation": 8683,
      "ĠReport": 8684,
      "ĠXie": 8685,
      "Ġvessels": 8686,
      "ĠStandard": 8687,
      "HD": 8688,
      "udi": 8689,
      "551": 8690,
      "Ġalloy": 8691,
      "peer": 8692,
      "Ġenhancement": 8693,
      "Ġevaluating": 8694,
      "pdf": 8695,
      "ĠInstitutional": 8696,
      "ĠMaterial": 8697,
      "Ġabdominal": 8698,
      "Ġrotation": 8699,
      "Ġ167": 8700,
      "Ġinvolvement": 8701,
      "oday": 8702,
      "ĠSoil": 8703,
      "Us": 8704,
      "ĠOk": 8705,
      "angl": 8706,
      "class": 8707,
      "ĠExpl": 8708,
      "ĠSports": 8709,
      "rastructure": 8710,
      "Ġcovered": 8711,
      "Ġfriction": 8712,
      "Ġdevel": 8713,
      "Ġwants": 8714,
      "urer": 8715,
      "Ġprojects": 8716,
      "oen": 8717,
      "tte": 8718,
      "Ġlabor": 8719,
      "Ġstaining": 8720,
      "abin": 8721,
      "Ġofficers": 8722,
      "ĠPCR": 8723,
      "ĠGerman": 8724,
      "Ġimpair": 8725,
      "arding": 8726,
      "Ġ213": 8727,
      "ĠWed": 8728,
      "ĠWood": 8729,
      "Ġspinal": 8730,
      "Ġdeploy": 8731,
      "tie": 8732,
      "ĠMichael": 8733,
      "Ġsperm": 8734,
      "1012": 8735,
      "Ġ235": 8736,
      "ĠBiochem": 8737,
      "Ġantibodies": 8738,
      "ĠSeveral": 8739,
      "Ġbenz": 8740,
      "eutical": 8741,
      "ĠNeural": 8742,
      "ijing": 8743,
      "Ġroots": 8744,
      "1039": 8745,
      "Ġdisper": 8746,
      "Ġclar": 8747,
      "Ġdecom": 8748,
      "ophag": 8749,
      "ĠMartin": 8750,
      "anl": 8751,
      "Ġew": 8752,
      "ompl": 8753,
      "Ġ188": 8754,
      "ĠSuch": 8755,
      "Ġconsult": 8756,
      "Ġvariance": 8757,
      "Ġchromosome": 8758,
      "Ġfocusing": 8759,
      "mic": 8760,
      "Ġip": 8761,
      "ĠNever": 8762,
      "Ġdispers": 8763,
      "Ġsimpl": 8764,
      "Ġpet": 8765,
      "atib": 8766,
      "Ġschools": 8767,
      "Ġcoupling": 8768,
      "Ġpropag": 8769,
      "Ġaqueous": 8770,
      "asi": 8771,
      "Ġsports": 8772,
      "Ġrapidly": 8773,
      "Ġwavelength": 8774,
      "inates": 8775,
      "amination": 8776,
      "Ġnumerical": 8777,
      "Ġlisted": 8778,
      "ĠOptim": 8779,
      "Ġorientation": 8780,
      "alc": 8781,
      "Ġassigned": 8782,
      "ĠWall": 8783,
      "081": 8784,
      "Ġattribut": 8785,
      "ĠComputer": 8786,
      "BN": 8787,
      "cing": 8788,
      "mid": 8789,
      "amily": 8790,
      "1100": 8791,
      "Ġretinal": 8792,
      "Ġphotoc": 8793,
      "Ġamplitude": 8794,
      "Ġcaptured": 8795,
      "olt": 8796,
      "ĠTimes": 8797,
      "Ġtruth": 8798,
      "061": 8799,
      "Ġcultural": 8800,
      "ĠCG": 8801,
      "Ġcellulose": 8802,
      "Ġcorpor": 8803,
      "ĠDeterm": 8804,
      "oplasm": 8805,
      "hai": 8806,
      "âĦ": 8807,
      "Ġlimits": 8808,
      "ĠRole": 8809,
      "oxic": 8810,
      "toh": 8811,
      "Ġinstit": 8812,
      "Ġbehavioral": 8813,
      "original": 8814,
      "ulatory": 8815,
      "ĠTuesday": 8816,
      "ĠSelf": 8817,
      "Ġhelped": 8818,
      "Ġpolymerization": 8819,
      "Ġclaims": 8820,
      "ĠGastroenter": 8821,
      "erb": 8822,
      "ĠIS": 8823,
      "illus": 8824,
      "091": 8825,
      "Ġdriven": 8826,
      "900": 8827,
      "Î³": 8828,
      "ĠTop": 8829,
      "ranial": 8830,
      "ĠFR": 8831,
      "541": 8832,
      "ĠPV": 8833,
      "ĠFar": 8834,
      "acking": 8835,
      "ails": 8836,
      "Ġsun": 8837,
      "ĠCao": 8838,
      "ĠPen": 8839,
      "Ġongoing": 8840,
      "Xiv": 8841,
      "ĠNP": 8842,
      "anda": 8843,
      "HF": 8844,
      "mar": 8845,
      "orge": 8846,
      "Ġfu": 8847,
      "Ġfans": 8848,
      "Ġexamples": 8849,
      "Ġscaff": 8850,
      "Ġie": 8851,
      "ĠBiology": 8852,
      "ursday": 8853,
      "ĠMex": 8854,
      "ĠGraph": 8855,
      "ĠIM": 8856,
      "soft": 8857,
      "ĠSyst": 8858,
      "nm": 8859,
      "sens": 8860,
      "îĤĿ": 8861,
      "vv": 8862,
      "ĠTR": 8863,
      "Ġrepresenting": 8864,
      "Ġadhesion": 8865,
      "zi": 8866,
      "ĠCe": 8867,
      "Ġillustrates": 8868,
      "ĠChildren": 8869,
      "ĠBA": 8870,
      "Ġrac": 8871,
      "romatic": 8872,
      "ruits": 8873,
      "Ġreconstruction": 8874,
      "win": 8875,
      "Ġmodifications": 8876,
      "ĠAgricult": 8877,
      "Ġvalidated": 8878,
      "Ġfeedback": 8879,
      "Ġsquare": 8880,
      "Ġintervals": 8881,
      "making": 8882,
      "Ġbodies": 8883,
      "Ġfaster": 8884,
      "ĠManu": 8885,
      "ilib": 8886,
      "aryn": 8887,
      "Ġscene": 8888,
      "romb": 8889,
      "reedom": 8890,
      "ĠSunday": 8891,
      "Ġ1500": 8892,
      "ĠLevel": 8893,
      "Ġstronger": 8894,
      "Ls": 8895,
      "aes": 8896,
      "ĠPow": 8897,
      "Ġcann": 8898,
      "Ġinterf": 8899,
      "hyth": 8900,
      "Ġfrequencies": 8901,
      "Ġlocalization": 8902,
      "Ã¡n": 8903,
      "sl": 8904,
      "ĠPeng": 8905,
      "fficients": 8906,
      "ĠHS": 8907,
      "Ġaccord": 8908,
      "claimer": 8909,
      "ville": 8910,
      "urr": 8911,
      "Ġheard": 8912,
      "ĠLiang": 8913,
      "Ġfluctu": 8914,
      "Ġconstructed": 8915,
      "ĠOrganization": 8916,
      "Ġma": 8917,
      "ĠAF": 8918,
      "Ġgets": 8919,
      "Ġchief": 8920,
      "Ġexpert": 8921,
      "ĠDR": 8922,
      "Ġmelan": 8923,
      "aper": 8924,
      "Ġcond": 8925,
      "ĠBrain": 8926,
      "Ġrat": 8927,
      "Ġstir": 8928,
      "ĠNK": 8929,
      "ilic": 8930,
      "Ġinhibitory": 8931,
      "581": 8932,
      "Ġquarter": 8933,
      "Ġneighb": 8934,
      "ĠGi": 8935,
      "Ġunl": 8936,
      "Ġlargely": 8937,
      "Ġlys": 8938,
      "nit": 8939,
      "Ġsupervision": 8940,
      "ĠBlood": 8941,
      "Ġinterpretation": 8942,
      "Ġppr": 8943,
      "rod": 8944,
      "erman": 8945,
      "Ġnutrient": 8946,
      "Ġprobe": 8947,
      "Ġweap": 8948,
      "idine": 8949,
      "ĠVR": 8950,
      "Ġ225": 8951,
      "Be": 8952,
      "tc": 8953,
      "idin": 8954,
      "ĠPU": 8955,
      "ĠMag": 8956,
      "raq": 8957,
      "assium": 8958,
      "attering": 8959,
      "ĠRussian": 8960,
      "ila": 8961,
      "ĠPt": 8962,
      "Ġinters": 8963,
      "Ġremark": 8964,
      "ĠAdminist": 8965,
      "Ġmigration": 8966,
      "Ġru": 8967,
      "teer": 8968,
      "yzed": 8969,
      "ĠPrevious": 8970,
      "Ġinduce": 8971,
      "ĠSF": 8972,
      "Ġcounsel": 8973,
      "house": 8974,
      "Ġthinking": 8975,
      "rophy": 8976,
      "Ġacquired": 8977,
      "ĠBat": 8978,
      "ĠFree": 8979,
      "Ġenjoy": 8980,
      "Ġmodulation": 8981,
      "ĠXiao": 8982,
      "Ġdeposition": 8983,
      "Supplement": 8984,
      "BL": 8985,
      "gluc": 8986,
      "ococ": 8987,
      "Ġplates": 8988,
      "Ġvaried": 8989,
      "zhe": 8990,
      "ĠCM": 8991,
      "Ġ350": 8992,
      "Ġevident": 8993,
      "Ġdesired": 8994,
      "ĠMechanical": 8995,
      "ipheral": 8996,
      "oorr": 8997,
      "Ġfol": 8998,
      "Ġorth": 8999,
      "Ġju": 9000,
      "Ġstatistics": 9001,
      "Ġmotif": 9002,
      "Ġraised": 9003,
      "Ġmoisture": 9004,
      "Ġborder": 9005,
      "Ġnanof": 9006,
      "gly": 9007,
      "room": 9008,
      "Ġstroke": 9009,
      "Ġ156": 9010,
      "Ġcontents": 9011,
      "Ġpaid": 9012,
      "ĠÎ³": 9013,
      "ĠBuild": 9014,
      "ĠND": 9015,
      "eck": 9016,
      "ĠHeart": 9017,
      "Ġ1990": 9018,
      "Ġafford": 9019,
      "1111111111": 9020,
      "Ġ178": 9021,
      "essor": 9022,
      "Ġdistur": 9023,
      "Ġintroduction": 9024,
      "ĠEpidem": 9025,
      "nesday": 9026,
      "210": 9027,
      "Ce": 9028,
      "ulum": 9029,
      "Ġcommit": 9030,
      "ĠOs": 9031,
      "âĪĨ": 9032,
      "Ġcolle": 9033,
      "Ġmoved": 9034,
      "Ġeventually": 9035,
      "rg": 9036,
      "ovic": 9037,
      "ĠCN": 9038,
      "Ġtransp": 9039,
      "euk": 9040,
      "ĠGut": 9041,
      "ĠThursday": 9042,
      "letes": 9043,
      "riven": 9044,
      "Ġcomputed": 9045,
      "atalytic": 9046,
      "VE": 9047,
      "Ġdied": 9048,
      "ĠTNF": 9049,
      "Ġdepends": 9050,
      "Ġmutant": 9051,
      "Ġlifest": 9052,
      "methyl": 9053,
      "iso": 9054,
      "Ġharm": 9055,
      "Ġindirect": 9056,
      "eting": 9057,
      "1300": 9058,
      "ĠFunctional": 9059,
      "Ġearth": 9060,
      "ĠNutrition": 9061,
      "Ġbattery": 9062,
      "ĠRM": 9063,
      "ĠPhen": 9064,
      "âĢĳâĢĳ": 9065,
      "Ġexactly": 9066,
      "Ġpi": 9067,
      "ĠGal": 9068,
      "ĠDT": 9069,
      "eeper": 9070,
      "Ġsugar": 9071,
      "Ġseeds": 9072,
      "apes": 9073,
      "mitt": 9074,
      "ĠDisclaimer": 9075,
      "ĠOnly": 9076,
      "Ġfemales": 9077,
      "ube": 9078,
      "Ġ158": 9079,
      "lease": 9080,
      "ĠPolymer": 9081,
      "?âĢĿ": 9082,
      "world": 9083,
      "ĠMB": 9084,
      "Ġ157": 9085,
      "Ġ214": 9086,
      "oder": 9087,
      "Ġreads": 9088,
      "Ġobjects": 9089,
      "Ġtalking": 9090,
      "ĠCouncil": 9091,
      "idopsis": 9092,
      "ĠMem": 9093,
      "ours": 9094,
      "Ġsolv": 9095,
      "Ġcategory": 9096,
      "Ġcation": 9097,
      "Ġ169": 9098,
      "isting": 9099,
      "ĠarXiv": 9100,
      "ĠSystematic": 9101,
      "life": 9102,
      "Ġretain": 9103,
      "Ġtoh": 9104,
      "adder": 9105,
      "aceae": 9106,
      "Ġdetermining": 9107,
      "Ġfunded": 9108,
      "Ġlesions": 9109,
      "uf": 9110,
      "Ġded": 9111,
      "Ġlever": 9112,
      "ĠPBS": 9113,
      "Ġ159": 9114,
      "teen": 9115,
      "ognition": 9116,
      "Ġreaching": 9117,
      "Ġemissions": 9118,
      "ĠCNT": 9119,
      "Ġadopt": 9120,
      "acters": 9121,
      "Ġcapability": 9122,
      "Ġcritic": 9123,
      "Ġportion": 9124,
      "'d": 9125,
      "Ġcriminal": 9126,
      "Ġcoronary": 9127,
      "Publisher": 9128,
      "emporal": 9129,
      "Ġevol": 9130,
      "ĠSwitzerland": 9131,
      "iled": 9132,
      "Ġremote": 9133,
      "ĠJos": 9134,
      "Ġdisclaim": 9135,
      "theless": 9136,
      "Ġmarker": 9137,
      "agues": 9138,
      "Ġlaws": 9139,
      "Ġnam": 9140,
      "ĠTE": 9141,
      "Ġ217": 9142,
      "ĠJones": 9143,
      "ĠKa": 9144,
      "Ġcytotox": 9145,
      "GO": 9146,
      "cine": 9147,
      "Ġast": 9148,
      "ithium": 9149,
      "aptic": 9150,
      "Ġappearance": 9151,
      "wave": 9152,
      "ĠUnion": 9153,
      "ek": 9154,
      "layer": 9155,
      "ï¿½": 9156,
      "ref": 9157,
      "Ġ190": 9158,
      "ĠPVA": 9159,
      "ĠKhan": 9160,
      "Ġunknown": 9161,
      "Ġspectrom": 9162,
      "Ġhormone": 9163,
      "ĠRandom": 9164,
      "Ġconv": 9165,
      "Ġstiffness": 9166,
      "ĠInn": 9167,
      "ĠUr": 9168,
      "Ġrecip": 9169,
      "Ġboundary": 9170,
      "Ġvertical": 9171,
      "Ass": 9172,
      "mal": 9173,
      "rins": 9174,
      "1365": 9175,
      "ĠRa": 9176,
      "Ġkg": 9177,
      "Ġlongitudinal": 9178,
      "PCR": 9179,
      "ĠExtract": 9180,
      "Ġtough": 9181,
      "ĠIss": 9182,
      "ifier": 9183,
      "Ġreviews": 9184,
      "Ġrecommendations": 9185,
      "Ġexcessive": 9186,
      "Ġnarrow": 9187,
      "Ġwww": 9188,
      "Ġ215": 9189,
      "Ġpromin": 9190,
      "Ġterror": 9191,
      "Ġsurrounding": 9192,
      "Ġasym": 9193,
      "Ġexception": 9194,
      "Ġseconds": 9195,
      "Ġillness": 9196,
      "OX": 9197,
      "Ġdye": 9198,
      "asl": 9199,
      "Ġsmoking": 9200,
      "ĠIraq": 9201,
      "Ġcircuit": 9202,
      "Ġideal": 9203,
      "ĠPatient": 9204,
      "BT": 9205,
      "zy": 9206,
      "ĠMC": 9207,
      "1200": 9208,
      "ĠLight": 9209,
      "ĠÃ¾": 9210,
      "hern": 9211,
      "inner": 9212,
      "Ġcontributes": 9213,
      "ĠVar": 9214,
      "acks": 9215,
      "ĠReal": 9216,
      "Ġconsistently": 9217,
      "Ġdescribe": 9218,
      "ĠLicensee": 9219,
      "Ġpor": 9220,
      "Ġdie": 9221,
      "ĠMut": 9222,
      "eenn": 9223,
      "Ġwilling": 9224,
      "ĠBeh": 9225,
      "grade": 9226,
      "rint": 9227,
      "Ġlc": 9228,
      "ĠMen": 9229,
      "1335": 9230,
      "vee": 9231,
      "Ġcollect": 9232,
      "anes": 9233,
      "ĠUnd": 9234,
      "Ġassessing": 9235,
      "Ġultras": 9236,
      "ĠFrancis": 9237,
      "Ġopportunities": 9238,
      "feeding": 9239,
      ")).": 9240,
      "onin": 9241,
      "Ġ900": 9242,
      "Ġphysic": 9243,
      "Ġacademic": 9244,
      "high": 9245,
      "rf": 9246,
      "Ġrevers": 9247,
      "Ġtour": 9248,
      "Ġexamin": 9249,
      "ĠCost": 9250,
      "1098": 9251,
      "Ġvirtual": 9252,
      "414": 9253,
      "prop": 9254,
      "Ġsong": 9255,
      "ĠWind": 9256,
      "235": 9257,
      "Ġcoefficients": 9258,
      "Ġmanage": 9259,
      "Ġcentrifug": 9260,
      "cap": 9261,
      "ĠMont": 9262,
      "Ġsimulated": 9263,
      "ĠBiotechn": 9264,
      "Ġneuronal": 9265,
      "ĠâĨĴ": 9266,
      "cons": 9267,
      "icit": 9268,
      "Ġhypothesis": 9269,
      "ermal": 9270,
      "olecules": 9271,
      "Ġnegatively": 9272,
      "Ġdriver": 9273,
      "habilitation": 9274,
      "212": 9275,
      "240": 9276,
      "Ġ285": 9277,
      "rench": 9278,
      "ĠIndian": 9279,
      "rophyll": 9280,
      "RNAs": 9281,
      "Ġbonding": 9282,
      "ĠWednesday": 9283,
      "Ġmales": 9284,
      "Ġ230": 9285,
      "bert": 9286,
      "Ġupdate": 9287,
      "openia": 9288,
      "ĠTai": 9289,
      "ĠRom": 9290,
      "Ġprotocols": 9291,
      "ĠSARS": 9292,
      "En": 9293,
      "Ġanat": 9294,
      "ectives": 9295,
      "Ġga": 9296,
      "aya": 9297,
      "ellitus": 9298,
      "Ġleaving": 9299,
      "Ġpulmonary": 9300,
      "eling": 9301,
      "Ġ179": 9302,
      "ĠGon": 9303,
      "Ġcompens": 9304,
      "Ġcitiz": 9305,
      "izontal": 9306,
      "213": 9307,
      "215": 9308,
      "aly": 9309,
      "rocy": 9310,
      "uries": 9311,
      "Ġnod": 9312,
      "ĠSingle": 9313,
      "static": 9314,
      "Ġaccomp": 9315,
      "Ġkinase": 9316,
      "With": 9317,
      "Ġwashed": 9318,
      "Ġdiscovered": 9319,
      "Ġharvest": 9320,
      ",.": 9321,
      "mut": 9322,
      "Ġthousands": 9323,
      "blast": 9324,
      "ĠLast": 9325,
      "Ġfeas": 9326,
      "rystall": 9327,
      "Ġemergency": 9328,
      "Ëļ": 9329,
      "Ġpanc": 9330,
      "Ġwit": 9331,
      "Ġ255": 9332,
      "Ġarres": 9333,
      "ously": 9334,
      "ĠOS": 9335,
      "Ġdiscovery": 9336,
      "Ġscenario": 9337,
      "cor": 9338,
      "orescence": 9339,
      "Ġhair": 9340,
      "Ġpermission": 9341,
      "Ġshear": 9342,
      "Îº": 9343,
      "ulture": 9344,
      "Ġtwice": 9345,
      "Ġsuspen": 9346,
      "IIIIIIII": 9347,
      "ĠSenate": 9348,
      "Ġpiece": 9349,
      "Ġwithdraw": 9350,
      "1022": 9351,
      "Ġenfor": 9352,
      "orrh": 9353,
      "Ġcompetition": 9354,
      "Ġmacrophages": 9355,
      "oustic": 9356,
      "gar": 9357,
      "Ġrock": 9358,
      "ĠJames": 9359,
      "ĠInhib": 9360,
      "ensities": 9361,
      "ĠKen": 9362,
      "Ġaims": 9363,
      "Ġsion": 9364,
      "Ġhind": 9365,
      "ĠCondition": 9366,
      "Ġdonor": 9367,
      "Ġquestionnaire": 9368,
      "ãĥ": 9369,
      "Ġ}": 9370,
      "ĠSex": 9371,
      "month": 9372,
      "Ġretention": 9373,
      "ĠDisc": 9374,
      "Ġdegrees": 9375,
      "ĠBeijing": 9376,
      "Ġmicroscope": 9377,
      "ĠNarra": 9378,
      "ĠSample": 9379,
      "ĠCat": 9380,
      "Ġphotosynthetic": 9381,
      "Ġhabit": 9382,
      "218": 9383,
      "âī": 9384,
      "Ġ187": 9385,
      "ĠMW": 9386,
      "Ġcomputing": 9387,
      "Ġcarcinoma": 9388,
      "´ï£´ï£": 9389,
      "Ġmanip": 9390,
      "Ġstore": 9391,
      "Ġcalculations": 9392,
      "Ġcharged": 9393,
      "PL": 9394,
      "orect": 9395,
      "ĠArabidopsis": 9396,
      "ĠUlt": 9397,
      "Ġviews": 9398,
[...]
