{
  "version": "1.0",
  "truncation": null,
  "padding": null,
  "added_tokens": [
    {
      "id": 0,
      "content": "[PAD]",
      "single_word": false,
      "lstrip": false,
      "rstrip": false,
      "normalized": false,
      "special": true
    },
    {
      "id": 1,
      "content": "[UNK]",
      "single_word": false,
      "lstrip": false,
      "rstrip": false,
      "normalized": false,
      "special": true
    },
    {
      "id": 2,
      "content": "[CLS]",
      "single_word": false,
      "lstrip": false,
      "rstrip": false,
      "normalized": false,
      "special": true
    },
    {
      "id": 3,
      "content": "[SEP]",
      "single_word": false,
      "lstrip": false,
      "rstrip": false,
      "normalized": false,
      "special": true
    },
    {
      "id": 4,
      "content": "[MASK]",
      "single_word": false,
      "lstrip": false,
      "rstrip": false,
      "normalized": false,
      "special": true
    },
    {
      "id": 5,
      "content": "[BOS]",
      "single_word": false,
      "lstrip": false,
      "rstrip": false,
      "normalized": false,
      "special": true
    },
    {
      "id": 6,
      "content": "[EOS]",
      "single_word": false,
      "lstrip": false,
      "rstrip": false,
      "normalized": false,
      "special": true
    }
  ],
  "normalizer": null,
  "pre_tokenizer": {
    "type": "ByteLevel",
    "add_prefix_space": true,
    "trim_offsets": true,
    "use_regex": true
  },
  "post_processor": null,
  "decoder": {
    "type": "ByteLevel",
    "add_prefix_space": true,
    "trim_offsets": true,
    "use_regex": true
  },
  "model": {
    "type": "BPE",
    "dropout": 0.1,
    "unk_token": "[UNK]",
    "continuing_subword_prefix": null,
    "end_of_word_suffix": null,
    "fuse_unk": false,
    "byte_fallback": false,
    "ignore_merges": false,
    "vocab": {
      "[PAD]": 0,
      "[UNK]": 1,
      "[CLS]": 2,
      "[SEP]": 3,
      "[MASK]": 4,
      "[BOS]": 5,
      "[EOS]": 6,
      "!": 7,
      "\"": 8,
      "#": 9,
      "$": 10,
      "%": 11,
      "&": 12,
      "'": 13,
      "(": 14,
      ")": 15,
      "*": 16,
      "+": 17,
      ",": 18,
      "-": 19,
      ".": 20,
      "/": 21,
      "0": 22,
      "1": 23,
      "2": 24,
      "3": 25,
      "4": 26,
      "5": 27,
      "6": 28,
      "7": 29,
      "8": 30,
      "9": 31,
      ":": 32,
      ";": 33,
      "<": 34,
      "=": 35,
      ">": 36,
      "?": 37,
      "@": 38,
      "A": 39,
      "B": 40,
      "C": 41,
      "D": 42,
      "E": 43,
      "F": 44,
      "G": 45,
      "H": 46,
      "I": 47,
      "J": 48,
      "K": 49,
      "L": 50,
      "M": 51,
      "N": 52,
      "O": 53,
      "P": 54,
      "Q": 55,
      "R": 56,
      "S": 57,
      "T": 58,
      "U": 59,
      "V": 60,
      "W": 61,
      "X": 62,
      "Y": 63,
      "Z": 64,
      "[": 65,
      "\\": 66,
      "]": 67,
      "^": 68,
      "_": 69,
      "`": 70,
      "a": 71,
      "b": 72,
      "c": 73,
      "d": 74,
      "e": 75,
      "f": 76,
      "g": 77,
      "h": 78,
      "i": 79,
      "j": 80,
      "k": 81,
      "l": 82,
      "m": 83,
      "n": 84,
      "o": 85,
      "p": 86,
      "q": 87,
      "r": 88,
      "s": 89,
      "t": 90,
      "u": 91,
      "v": 92,
      "w": 93,
      "x": 94,
      "y": 95,
      "z": 96,
      "{": 97,
      "|": 98,
      "}": 99,
      "~": 100,
      "¡": 101,
      "¢": 102,
      "£": 103,
      "¤": 104,
      "¥": 105,
      "¦": 106,
      "§": 107,
      "¨": 108,
      "©": 109,
      "ª": 110,
      "«": 111,
      "¬": 112,
      "®": 113,
      "¯": 114,
      "°": 115,
      "±": 116,
      "²": 117,
      "³": 118,
      "´": 119,
      "µ": 120,
      "¶": 121,
      "·": 122,
      "¸": 123,
      "¹": 124,
      "º": 125,
      "»": 126,
      "¼": 127,
      "½": 128,
      "¾": 129,
      "¿": 130,
      "À": 131,
      "Á": 132,
      "Â": 133,
      "Ã": 134,
      "Ä": 135,
      "Å": 136,
      "Æ": 137,
      "Ç": 138,
      "È": 139,
      "É": 140,
      "Ê": 141,
      "Ë": 142,
      "Ì": 143,
      "Í": 144,
      "Î": 145,
      "Ï": 146,
      "Ð": 147,
      "Ñ": 148,
      "Ò": 149,
      "Ó": 150,
      "Ô": 151,
      "Õ": 152,
      "Ö": 153,
      "×": 154,
      "Ø": 155,
      "Ù": 156,
      "Ú": 157,
      "Û": 158,
      "Ü": 159,
      "Ý": 160,
      "Þ": 161,
      "ß": 162,
      "à": 163,
      "á": 164,
      "â": 165,
      "ã": 166,
      "ä": 167,
      "å": 168,
      "æ": 169,
      "ç": 170,
      "è": 171,
      "é": 172,
      "ê": 173,
      "ë": 174,
      "ì": 175,
      "í": 176,
      "î": 177,
      "ï": 178,
      "ð": 179,
      "ñ": 180,
      "ò": 181,
      "ó": 182,
      "ô": 183,
      "õ": 184,
      "ö": 185,
      "÷": 186,
      "ø": 187,
      "ù": 188,
      "ú": 189,
      "û": 190,
      "ü": 191,
      "ý": 192,
      "þ": 193,
      "ÿ": 194,
      "Ā": 195,
      "ā": 196,
      "Ă": 197,
      "ă": 198,
      "Ą": 199,
      "ą": 200,
      "Ć": 201,
      "ć": 202,
      "Ĉ": 203,
      "ĉ": 204,
      "Ċ": 205,
      "ċ": 206,
      "Č": 207,
      "č": 208,
      "Ď": 209,
      "ď": 210,
      "Đ": 211,
      "đ": 212,
      "Ē": 213,
      "ē": 214,
      "Ĕ": 215,
      "ĕ": 216,
      "Ė": 217,
      "ė": 218,
      "Ę": 219,
      "ę": 220,
      "Ě": 221,
      "ě": 222,
      "Ĝ": 223,
      "ĝ": 224,
      "Ğ": 225,
      "ğ": 226,
      "Ġ": 227,
      "ġ": 228,
      "Ģ": 229,
      "ģ": 230,
      "Ĥ": 231,
      "ĥ": 232,
      "Ħ": 233,
      "ħ": 234,
      "Ĩ": 235,
      "ĩ": 236,
      "Ī": 237,
      "ī": 238,
      "Ĭ": 239,
      "ĭ": 240,
      "Į": 241,
      "į": 242,
      "İ": 243,
      "ı": 244,
      "Ĳ": 245,
      "ĳ": 246,
      "Ĵ": 247,
      "ĵ": 248,
      "Ķ": 249,
      "ķ": 250,
      "ĸ": 251,
      "Ĺ": 252,
      "ĺ": 253,
      "Ļ": 254,
      "ļ": 255,
      "Ľ": 256,
      "ľ": 257,
      "Ŀ": 258,
      "ŀ": 259,
      "Ł": 260,
      "ł": 261,
      "Ń": 262,
      "Ġt": 263,
      "Ġa": 264,
      "he": 265,
      "in": 266,
      "re": 267,
      "Ġthe": 268,
      "on": 269,
      "er": 270,
      "Ġs": 271,
      "Ġw": 272,
      "at": 273,
      "Ġo": 274,
      "en": 275,
      "Ġc": 276,
      "it": 277,
      "is": 278,
      "an": 279,
      "or": 280,
      "Ġb": 281,
      "ed": 282,
      "es": 283,
      "Ġf": 284,
      "ing": 285,
      "Ġp": 286,
      "ou": 287,
      "Ġan": 288,
      "al": 289,
      "Ġto": 290,
      "ar": 291,
      "Ġm": 292,
      "Ġin": 293,
      "Ġof": 294,
      "Ġd": 295,
      "Ġh": 296,
      "as": 297,
      "Ġand": 298,
      "ic": 299,
      "Ġth": 300,
      "le": 301,
      "ion": 302,
      "om": 303,
      "ll": 304,
      "ent": 305,
      "ĠT": 306,
      "Ġn": 307,
      "Ġl": 308,
      "Ġre": 309,
      "st": 310,
      "ve": 311,
      "ly": 312,
      "Ġe": 313,
      "Ġbe": 314,
      "ro": 315,
      "Ġg": 316,
      "ĠI": 317,
      "id": 318,
      "ut": 319,
      "ĠS": 320,
      "ac": 321,
      "ot": 322,
      "ĠA": 323,
      "Ġthat": 324,
      "Ġon": 325,
      "ay": 326,
      "Ġis": 327,
      "im": 328,
      "et": 329,
      "am": 330,
      "ad": 331,
      "ow": 332,
      "se": 333,
      "ig": 334,
      "Ġfor": 335,
      "ĠC": 336,
      "ver": 337,
      "'s": 338,
      "ur": 339,
      "ld": 340,
      "ct": 341,
      "Ġu": 342,
      "Ġst": 343,
      "Ġy": 344,
      "ĠM": 345,
      "Ġit": 346,
      "Ġhe": 347,
      "Ġ\"": 348,
      "ir": 349,
      "ation": 350,
      "ith": 351,
      "Ġwh": 352,
      "ĠB": 353,
      "ce": 354,
      "ĠThe": 355,
      "ter": 356,
      "Ġwe": 357,
      "ol": 358,
      "il": 359,
      "Ġwith": 360,
      "Ġas": 361,
      "ĠP": 362,
      "ch": 363,
      "ill": 364,
      "ĠW": 365,
      "nd": 366,
      "Ġwas": 367,
      "ers": 368,
      "Ġyou": 369,
      "ĠH": 370,
      "ke": 371,
      "Ġcon": 372,
      "Ġde": 373,
      "Ġr": 374,
      "her": 375,
      "ĠD": 376,
      "if": 377,
      "ate": 378,
      "Ġat": 379,
      "ag": 380,
      "ĠR": 381,
      "Ġha": 382,
      "ĠF": 383,
      "Ġse": 384,
      "Ġpro": 385,
      "ore": 386,
      "Ġ1": 387,
      "ul": 388,
      "pp": 389,
      "ment": 390,
      "Ġare": 391,
      "ri": 392,
      "est": 393,
      "ist": 394,
      "Ġcom": 395,
      "us": 396,
      "Ġ2": 397,
      "and": 398,
      "op": 399,
      "ain": 400,
      "ĠN": 401,
      "rom": 402,
      "igh": 403,
      "Ġ(": 404,
      "ort": 405,
      "Ġne": 406,
      "od": 407,
      "um": 408,
      "Ġex": 409,
      "ĠG": 410,
      "un": 411,
      "res": 412,
      "ab": 413,
      "Ġnot": 414,
      "Ġv": 415,
      "ĠL": 416,
      "Ġhave": 417,
      "ess": 418,
      "ity": 419,
      "Ġor": 420,
      "ould": 421,
      "Ġby": 422,
      "em": 423,
      "th": 424,
      "os": 425,
      "ant": 426,
      "Ġfrom": 427,
      "ive": 428,
      "Ġal": 429,
      "ĠE": 430,
      "el": 431,
      "Ġsu": 432,
      "art": 433,
      "oc": 434,
      "Ġsh": 435,
      "Ġthis": 436,
      "nt": 437,
      "ĠO": 438,
      "qu": 439,
      "ight": 440,
      "ust": 441,
      "pe": 442,
      "Ġle": 443,
      "ies": 444,
      "ĠJ": 445,
      "Ġsa": 446,
      "end": 447,
      "Ġch": 448,
      "Ġab": 449,
      "out": 450,
      "ie": 451,
      "all": 452,
      "Ġ-": 453,
      "red": 454,
      "ack": 455,
      "Ġhas": 456,
      "00": 457,
      "ally": 458,
      "Ġpl": 459,
      "Ġgo": 460,
      "Ġhis": 461,
      "ard": 462,
      "ome": 463,
      "iv": 464,
      "gh": 465,
      "ap": 466,
      "ear": 467,
      "ost": 468,
      "Ġtr": 469,
      "our": 470,
      "ast": 471,
      "Ġj": 472,
      "ĠU": 473,
      "'t": 474,
      "ak": 475,
      "ud": 476,
      "Ġdo": 477,
      "Ġthey": 478,
      "Ġwor": 479,
      "Ġbut": 480,
      "Ġsaid": 481,
      "rou": 482,
      "ge": 483,
      "Ġcan": 484,
      "Ġwhe": 485,
      "Ġwill": 486,
      "Ġk": 487,
      "ich": 488,
      "Ġall": 489,
      "ok": 490,
      "Ġwho": 491,
      "ide": 492,
      "Ġint": 493,
      "ther": 494,
      "ans": 495,
      ".\"": 496,
      "Ġtheir": 497,
      "ial": 498,
      "Ġout": 499,
      "ame": 500,
      "ĠTh": 501,
      "ff": 502,
      "ĠIn": 503,
      "ong": 504,
      "ect": 505,
      "ice": 506,
      "pl": 507,
      "ure": 508,
      "pt": 509,
      "Ġmore": 510,
      "one": 511,
      "ions": 512,
      "act": 513,
      "Ġme": 514,
      "age": 515,
      "ike": 516,
      "ous": 517,
      "Ġup": 518,
      "Ġad": 519,
      "ine": 520,
      "ĠK": 521,
      "Ġabout": 522,
      "ated": 523,
      "ra": 524,
      "Ġwere": 525,
      "Ġone": 526,
      ",\"": 527,
      "ber": 528,
      "Ġso": 529,
      "ĠSt": 530,
      "Ġus": 531,
      "ime": 532,
      "ep": 533,
      "og": 534,
      "Ġhad": 535,
      "Ġ20": 536,
      "are": 537,
      "ia": 538,
      "cc": 539,
      "Ġwould": 540,
      "Ġwhich": 541,
      "ub": 542,
      "Ġcl": 543,
      "Ġim": 544,
      "ind": 545,
      "ake": 546,
      "Ġcont": 547,
      "Ġag": 548,
      "very": 549,
      "ue": 550,
      "iz": 551,
      "Ġte": 552,
      "Ġoff": 553,
      "Ġcomp": 554,
      "Ġbeen": 555,
      "Ġun": 556,
      "Ġen": 557,
      "so": 558,
      "ign": 559,
      "per": 560,
      "au": 561,
      "Ġyear": 562,
      "ary": 563,
      "ip": 564,
      "ace": 565,
      "Ġlike": 566,
      "ew": 567,
      "ere": 568,
      "ven": 569,
      "Ġpe": 570,
      "Ġinc": 571,
      "Ġman": 572,
      "ĠIt": 573,
      "ays": 574,
      "ose": 575,
      "ook": 576,
      "ry": 577,
      "Ġres": 578,
      "Ġper": 579,
      "ite": 580,
      "able": 581,
      "Ġsp": 582,
      "Ġother": 583,
      "mer": 584,
      "ord": 585,
      "ass": 586,
      "ĠY": 587,
      "ire": 588,
      "Ġ201": 589,
      "Ġsome": 590,
      "ence": 591,
      "ople": 592,
      "ib": 593,
      "ile": 594,
      "ations": 595,
      "ical": 596,
      "Ġover": 597,
      "ks": 598,
      "Ġthere": 599,
      "Ġdis": 600,
      "ĠCh": 601,
      "ress": 602,
      "Ġalso": 603,
      "Ġar": 604,
      "Ġbec": 605,
      "ult": 606,
      "Ġthan": 607,
      "Ġnew": 608,
      "own": 609,
      "Ġthem": 610,
      "ough": 611,
      "int": 612,
      "ance": 613,
      "ru": 614,
      "Ġapp": 615,
      "ount": 616,
      "Ġpart": 617,
      "port": 618,
      "Ġwhen": 619,
      "Ġpeople": 620,
      "Ġwhat": 621,
      "ĠV": 622,
      "ree": 623,
      "Ġsc": 624,
      "Ġyour": 625,
      "orm": 626,
      "fter": 627,
      "ail": 628,
      "ond": 629,
      "Ġqu": 630,
      "Ġ3": 631,
      "av": 632,
      "Ġits": 633,
      "ase": 634,
      "Ġany": 635,
      "Ġjust": 636,
      "ach": 637,
      "Ġkn": 638,
      "Ġtime": 639,
      "ĠHe": 640,
      "Ġher": 641,
      "Ġrec": 642,
      "lic": 643,
      "ens": 644,
      "Ġmy": 645,
      "reat": 646,
      "Ġget": 647,
      "ian": 648,
      "Ġif": 649,
      "Ġwork": 650,
      "Ġinto": 651,
      "Ġtw": 652,
      "ound": 653,
      "irst": 654,
      "Ġno": 655,
      "vel": 656,
      "du": 657,
      "ction": 658,
      "ory": 659,
      "ings": 660,
      "ident": 661,
      "ition": 662,
      "ors": 663,
      "Ġour": 664,
      "ick": 665,
      "Ġpre": 666,
      "ob": 667,
      "ove": 668,
      "ause": 669,
      "wn": 670,
      "Ġplay": 671,
      "ang": 672,
      "ade": 673,
      "ink": 674,
      "ates": 675,
      "ish": 676,
      "itt": 677,
      "ark": 678,
      "Ġro": 679,
      "Ġ19": 680,
      "Ġpol": 681,
      "Ġshe": 682,
      "vers": 683,
      "Ġco": 684,
      "Ġafter": 685,
      "amp": 686,
      "Ġcould": 687,
      "Ġfirst": 688,
      "Ġhow": 689,
      "ious": 690,
      "ne": 691,
      "Ġacc": 692,
      "nder": 693,
      "Ġhim": 694,
      "aw": 695,
      "ons": 696,
      "ild": 697,
      "Ġpo": 698,
      "Ġatt": 699,
      "Ġfe": 700,
      "Ġonly": 701,
      "ĠBut": 702,
      "ict": 703,
      "hed": 704,
      "ĠWe": 705,
      "Ġpr": 706,
      "Ġtwo": 707,
      "hing": 708,
      "Ġcomm": 709,
      "form": 710,
      "Ġspe": 711,
      "Ġact": 712,
      "ov": 713,
      "Ġser": 714,
      "ĠWh": 715,
      "we": 716,
      "Ġbl": 717,
      "Ġbet": 718,
      "ft": 719,
      "Ġdec": 720,
      "ĠThis": 721,
      "ning": 722,
      "Ġback": 723,
      "Ġ4": 724,
      "Ġmost": 725,
      "ces": 726,
      "ĠAnd": 727,
      "te": 728,
      "ood": 729,
      "oy": 730,
      "ck": 731,
      "Ġam": 732,
      "Ġ'": 733,
      "Ġdid": 734,
      "iff": 735,
      "rough": 736,
      "ater": 737,
      "round": 738,
      "Ġagain": 739,
      "ual": 740,
      "Ġunder": 741,
      "ise": 742,
      "Ġwant": 743,
      "Ġdes": 744,
      "day": 745,
      "rit": 746,
      "Ġcons": 747,
      "Ġbecause": 748,
      "sel": 749,
      "Ġyears": 750,
      "Ġnow": 751,
      "lud": 752,
      "ents": 753,
      "ublic": 754,
      "tern": 755,
      "man": 756,
      "Ġ[": 757,
      "ull": 758,
      "ĠUn": 759,
      "Ġeven": 760,
      "Ġneed": 761,
      "Ġinv": 762,
      "iss": 763,
      "ec": 764,
      "ĠAs": 765,
      "Ġknow": 766,
      "Ġ5": 767,
      "ced": 768,
      "Ġsee": 769,
      "ments": 770,
      "Ġind": 771,
      "Ġadd": 772,
      "Ġ$": 773,
      "Ġsec": 774,
      "old": 775,
      "fore": 776,
      "'re": 777,
      "Ġevery": 778,
      "uch": 779,
      "ĠTr": 780,
      "Ġsupp": 781,
      "Ġmake": 782,
      "Ġem": 783,
      "pect": 784,
      "Ġthese": 785,
      "urn": 786,
      "Ġwhere": 787,
      "ational": 788,
      "vern": 789,
      "oll": 790,
      "ject": 791,
      "ock": 792,
      "ump": 793,
      "Ġdon": 794,
      "Ġlook": 795,
      "Ġbu": 796,
      "Ġev": 797,
      "ating": 798,
      "oss": 799,
      "Ġright": 800,
      "Ġway": 801,
      "xt": 802,
      "Ġrem": 803,
      "Ġmay": 804,
      "Ġbeing": 805,
      "Ġmany": 806,
      "iew": 807,
      "Ġdiff": 808,
      "Ġthen": 809,
      "Ġrel": 810,
      "ily": 811,
      "lect": 812,
      "ng": 813,
      "row": 814,
      "Ġcall": 815,
      "meric": 816,
      "Ġinclud": 817,
      "ied": 818,
      "ason": 819,
      "les": 820,
      "Ġthink": 821,
      "ased": 822,
      "Ġdef": 823,
      "ited": 824,
      "aking": 825,
      "Ġreg": 826,
      "Ġthrough": 827,
      "Ġimp": 828,
      "Ġpres": 829,
      "Ġsy": 830,
      "ath": 831,
      "Ġsay": 832,
      "Ġshould": 833,
      "rib": 834,
      "Ġfl": 835,
      "uring": 836,
      "Ġthose": 837,
      "Ġ200": 838,
      "ont": 839,
      ").": 840,
      "Ġlast": 841,
      "Ġstate": 842,
      "ower": 843,
      "Ġvery": 844,
      "ities": 845,
      "other": 846,
      "Ġmuch": 847,
      "ific": 848,
      "ĠNew": 849,
      "hen": 850,
      "Ġshow": 851,
      "ative": 852,
      "Ġbr": 853,
      "ĠRe": 854,
      "Ġph": 855,
      "ĠAmeric": 856,
      "oth": 857,
      "Ġcount": 858,
      "ty": 859,
      "ell": 860,
      "arly": 861,
      "ved": 862,
      "..": 863,
      "Ġwell": 864,
      "Ġown": 865,
      "Ġdoes": 866,
      "arg": 867,
      "als": 868,
      "Ġdown": 869,
      "Ġass": 870,
      "und": 871,
      "Ġbel": 872,
      "ting": 873,
      "The": 874,
      "ics": 875,
      "Ġend": 876,
      "Ġuse": 877,
      "ters": 878,
      "Ġgovern": 879,
      "Ġlong": 880,
      "ange": 881,
      "ince": 882,
      "omet": 883,
      "Ġbefore": 884,
      "Ġmon": 885,
      "gr": 886,
      "ward": 887,
      "ible": 888,
      "Ġreport": 889,
      "Ġke": 890,
      "ues": 891,
      "Ġstart": 892,
      "Ġfin": 893,
      "Ġmade": 894,
      "up": 895,
      "ts": 896,
      "ble": 897,
      "ife": 898,
      "Ġsuch": 899,
      "Ġteam": 900,
      "Ġ6": 901,
      "ism": 902,
      "oun": 903,
      "olog": 904,
      "ĠAl": 905,
      "ren": 906,
      "),": 907,
      "ener": 908,
      "erson": 909,
      "Ġsm": 910,
      "Ġworld": 911,
      "Ġstud": 912,
      "ists": 913,
      "ility": 914,
      "Ġhel": 915,
      "Ġac": 916,
      "ful": 917,
      "ix": 918,
      "Ġgoing": 919,
      "ually": 920,
      "ĠYou": 921,
      "tain": 922,
      "Ġsur": 923,
      "Ġgood": 924,
      "--": 925,
      "ek": 926,
      "Ġsub": 927,
      "Ġagainst": 928,
      "Ġeff": 929,
      "ork": 930,
      "its": 931,
      "Ġent": 932,
      "ĠIf": 933,
      "Ġgu": 934,
      "illion": 935,
      "Ġset": 936,
      "gan": 937,
      "Ġgame": 938,
      "Ġpoint": 939,
      "ys": 940,
      "Ġstill": 941,
      "ars": 942,
      "stem": 943,
      "Ġlead": 944,
      "ween": 945,
      "roup": 946,
      "Ġhelp": 947,
      "Ġwhile": 948,
      "ier": 949,
      "000": 950,
      "ving": 951,
      "Ġmin": 952,
      "alk": 953,
      "Ġsays": 954,
      "cy": 955,
      "ms": 956,
      "Ġgr": 957,
      "imes": 958,
      "Ġinter": 959,
      "Ġob": 960,
      "Ġprodu": 961,
      "ank": 962,
      "cess": 963,
      "Ġinst": 964,
      "Ġsim": 965,
      "Ġtake": 966,
      "ax": 967,
      "Ġstr": 968,
      "Ġed": 969,
      "Ġconf": 970,
      "self": 971,
      "Ġcol": 972,
      "Ġbetween": 973,
      "Ġdisc": 974,
      "ĠFor": 975,
      "Ġthough": 976,
      "Ġcr": 977,
      "Ġprov": 978,
      "ures": 979,
      "Ġsame": 980,
      "Ġdiffere": 981,
      "ĠAr": 982,
      "io": 983,
      "ool": 984,
      "'ve": 985,
      "Ġoffic": 986,
      "land": 987,
      "Ġlaw": 988,
      "ution": 989,
      "âĢ": 990,
      "ĠAn": 991,
      "Ġgovernment": 992,
      "hes": 993,
      "ollow": 994,
      "arch": 995,
      "ever": 996,
      "Ġop": 997,
      "Ġsign": 998,
      "Ġhigh": 999,
      "Ġnum": 1000,
      "uss": 1001,
      "ĠThey": 1002,
      "ah": 1003,
      "way": 1004,
      "hip": 1005,
      "air": 1006,
      "Ġter": 1007,
      "led": 1008,
      "ros": 1009,
      "ĠDe": 1010,
      "ĠIs": 1011,
      "read": 1012,
      "gg": 1013,
      "any": 1014,
      "ner": 1015,
      "Ġsomet": 1016,
      "Ġtrans": 1017,
      "ĠCom": 1018,
      "cent": 1019,
      "Ġref": 1020,
      "ĠSh": 1021,
      "ĠLe": 1022,
      "ames": 1023,
      "Ġ10": 1024,
      "Ġ7": 1025,
      "velop": 1026,
      "ĠTrump": 1027,
      "Ġins": 1028,
      "Ġmem": 1029,
      "Ġfound": 1030,
      "Ġthree": 1031,
      "Ġrun": 1032,
      "atch": 1033,
      "Ġmed": 1034,
      "Ġreal": 1035,
      "Ġaround": 1036,
      "ave": 1037,
      ".[": 1038,
      "ives": 1039,
      "ather": 1040,
      "ouse": 1041,
      "cept": 1042,
      "Ġhere": 1043,
      "Ġused": 1044,
      "Ġsystem": 1045,
      "Ġsupport": 1046,
      "Ġexp": 1047,
      "ves": 1048,
      "Ġgroup": 1049,
      "cer": 1050,
      "ĠCl": 1051,
      "Ġreally": 1052,
      "ĠSe": 1053,
      "oot": 1054,
      "Ġcour": 1055,
      "ĠThat": 1056,
      "Ġmod": 1057,
      "Ġpublic": 1058,
      "ci": 1059,
      "con": 1060,
      "ale": 1061,
      "az": 1062,
      "ets": 1063,
      "ying": 1064,
      "ĠThere": 1065,
      "ense": 1066,
      "Ġhand": 1067,
      "Ġ.": 1068,
      "Ġspec": 1069,
      "Ġext": 1070,
      "Ġsl": 1071,
      "Ġfam": 1072,
      "Ġret": 1073,
      "Ġgreat": 1074,
      "Ġrep": 1075,
      "ins": 1076,
      "Ġcur": 1077,
      "alth": 1078,
      "Ġfr": 1079,
      "Ġcar": 1080,
      "Ġcap": 1081,
      "Ġfact": 1082,
      "irect": 1083,
      "Ġboth": 1084,
      "Ġhapp": 1085,
      "Ġwom": 1086,
      "ton": 1087,
      "Ġ8": 1088,
      "Ġexper": 1089,
      "'m": 1090,
      "ular": 1091,
      "ph": 1092,
      "Ġday": 1093,
      "ices": 1094,
      "Ġfind": 1095,
      "Ġread": 1096,
      "ines": 1097,
      "Ġdet": 1098,
      "uth": 1099,
      "oh": 1100,
      "Ġduring": 1101,
      "ered": 1102,
      "pr": 1103,
      "ivers": 1104,
      "ision": 1105,
      "Ġcre": 1106,
      "Ġ9": 1107,
      "Ġbig": 1108,
      "Ġdevelop": 1109,
      "Ġtold": 1110,
      "Ġmonth": 1111,
      "ĠOn": 1112,
      "min": 1113,
      "Ġsince": 1114,
      "Ġperson": 1115,
      "akes": 1116,
      "ĠSo": 1117,
      "ically": 1118,
      "Ġiss": 1119,
      "ared": 1120,
      "Ġfollow": 1121,
      "Ġwar": 1122,
      "orth": 1123,
      "Ġcent": 1124,
      "ĠAd": 1125,
      "Ġleg": 1126,
      "Ġweek": 1127,
      "Ġpolit": 1128,
      "Ġfew": 1129,
      "ording": 1130,
      "aj": 1131,
      "med": 1132,
      "ages": 1133,
      "Ġexpl": 1134,
      "att": 1135,
      "Ġbelie": 1136,
      "Ġlot": 1137,
      "ĠFr": 1138,
      "ene": 1139,
      "anc": 1140,
      "iet": 1141,
      "Ġprot": 1142,
      "Ġrequ": 1143,
      "ric": 1144,
      "Ġtoo": 1145,
      "Ġgener": 1146,
      "Ġopp": 1147,
      "get": 1148,
      "Ġcontin": 1149,
      "chool": 1150,
      "ĠAt": 1151,
      "bers": 1152,
      "ized": 1153,
      "ention": 1154,
      "Ġcle": 1155,
      "der": 1156,
      "ĠPro": 1157,
      "Ġresp": 1158,
      "rent": 1159,
      "ash": 1160,
      "ĠHow": 1161,
      "Ġinf": 1162,
      "Ġput": 1163,
      "Ġfil": 1164,
      "Ġsomething": 1165,
      "Ġanother": 1166,
      "ness": 1167,
      "Ġcor": 1168,
      "Ġdifferent": 1169,
      "Ġloc": 1170,
      "ata": 1171,
      "Ġsoc": 1172,
      "Ġinvest": 1173,
      "uc": 1174,
      "ute": 1175,
      "Ġpower": 1176,
      "Ġvot": 1177,
      "Ġcommun": 1178,
      "Ġart": 1179,
      "ned": 1180,
      "ience": 1181,
      "Ġfar": 1182,
      "Ġcamp": 1183,
      "ĠRep": 1184,
      "Ġplan": 1185,
      "Ġ0": 1186,
      "ĠUS": 1187,
      "ross": 1188,
      "Ġlife": 1189,
      "Ġask": 1190,
      "Ġhead": 1191,
      "Ġrele": 1192,
      "Ġposs": 1193,
      "arge": 1194,
      "erest": 1195,
      "Ġthings": 1196,
      "thing": 1197,
      "Ġmet": 1198,
      "view": 1199,
      "Ġchild": 1200,
      "ex": 1201,
      "Ġpass": 1202,
      "Ġche": 1203,
      "ants": 1204,
      "'ll": 1205,
      "ik": 1206,
      "Ġbo": 1207,
      "ody": 1208,
      "arl": 1209,
      "Ġmight": 1210,
      "iness": 1211,
      "Ġquest": 1212,
      "ret": 1213,
      "Ġdep": 1214,
      "Ġnever": 1215,
      "Ġeach": 1216,
      "Ġdem": 1217,
      "Ġadv": 1218,
      "ient": 1219,
      "the": 1220,
      "Ġnext": 1221,
      "Ġbus": 1222,
      "ield": 1223,
      "Ġmark": 1224,
      "Ġgot": 1225,
      "Ġcome": 1226,
      "ize": 1227,
      "Ġsecond": 1228,
      "ĠBl": 1229,
      "Ġopen": 1230,
      "Ġallow": 1231,
      "ee": 1232,
      "âĢ¦": 1233,
      "Ġfeel": 1234,
      "Ġbest": 1235,
      "ittle": 1236,
      "gram": 1237,
      "Ġseem": 1238,
      "Ġpercent": 1239,
      "rat": 1240,
      "Ġpri": 1241,
      "ital": 1242,
      "orn": 1243,
      "Ġpost": 1244,
      "Ġdist": 1245,
      "ten": 1246,
      "Ġhome": 1247,
      "Ġdirect": 1248,
      "ired": 1249,
      "ple": 1250,
      "ug": 1251,
      "Ġcontro": 1252,
      "son": 1253,
      "Ġincre": 1254,
      "Ġwr": 1255,
      "Ġhum": 1256,
      "osed": 1257,
      "conom": 1258,
      "Ġhard": 1259,
      "Ġinform": 1260,
      "erv": 1261,
      "Ġmillion": 1262,
      "Ġresult": 1263,
      "ately": 1264,
      "Ġimport": 1265,
      "Ġincluding": 1266,
      "Ġcare": 1267,
      "ĠInd": 1268,
      "aim": 1269,
      "chn": 1270,
      "ling": 1271,
      "Ġplace": 1272,
      "less": 1273,
      "Ġwithout": 1274,
      "Ġcomple": 1275,
      "Ġcountry": 1276,
      "Ġav": 1277,
      "ĠShe": 1278,
      "Ġide": 1279,
      "ĠZ": 1280,
      "Ġproble": 1281,
      "ama": 1282,
      "Ġtop": 1283,
      "Ġnumber": 1284,
      "Ġbuild": 1285,
      "gy": 1286,
      "Ġstand": 1287,
      "ished": 1288,
      "Ġfour": 1289,
      "oney": 1290,
      "Ġgl": 1291,
      "Ġpartic": 1292,
      "ably": 1293,
      "ral": 1294,
      "riend": 1295,
      "Ġrecent": 1296,
      "ration": 1297,
      "ĠWhen": 1298,
      "Ġinterest": 1299,
      "Ġbetter": 1300,
      "Ġel": 1301,
      "Ġmov": 1302,
      "Ġtri": 1303,
      "Ġappro": 1304,
      "ways": 1305,
      "ract": 1306,
      "Ġless": 1307,
      "Ġturn": 1308,
      "Ġlittle": 1309,
      "Ġbeh": 1310,
      "Ġbro": 1311,
      "Ġcalled": 1312,
      "20": 1313,
      "Ġlet": 1314,
      "Ġmil": 1315,
      "ised": 1316,
      "Ġseason": 1317,
      "ĠPh": 1318,
      "Ġpop": 1319,
      "Ġcase": 1320,
      "We": 1321,
      "Ġattack": 1322,
      "line": 1323,
      "ency": 1324,
      "Ġrest": 1325,
      "Ġann": 1326,
      "Ġdr": 1327,
      "Ġleft": 1328,
      "ĠQ": 1329,
      "Ġmove": 1330,
      "ina": 1331,
      "ĠBe": 1332,
      "Ġkeep": 1333,
      "Ġprogram": 1334,
      "ajor": 1335,
      "ering": 1336,
      "leg": 1337,
      "Ġdidn": 1338,
      "inal": 1339,
      "Ġmain": 1340,
      "Ġserv": 1341,
      "cl": 1342,
      "uro": 1343,
      "Ġfull": 1344,
      "Ġprev": 1345,
      "ted": 1346,
      "ĠAmerican": 1347,
      "app": 1348,
      "Ġeconom": 1349,
      "ĠWhat": 1350,
      "Ġpay": 1351,
      "ature": 1352,
      "Ġeffect": 1353,
      "Ġfun": 1354,
      "Ġtest": 1355,
      "Ġnews": 1356,
      "rem": 1357,
      "Ġusing": 1358,
      "Ġschool": 1359,
      "Ġpos": 1360,
      "iving": 1361,
      "Ġpolice": 1362,
      "Ġform": 1363,
      "ĠOb": 1364,
      "Ġsmall": 1365,
      "Ġchar": 1366,
      "ploy": 1367,
      "ĠUnited": 1368,
      "co": 1369,
      "Ġwin": 1370,
      "ains": 1371,
      "ready": 1372,
      "Ġdata": 1373,
      "ined": 1374,
      "ĠGo": 1375,
      "Ġlevel": 1376,
      "Ġval": 1377,
      "uck": 1378,
      "be": 1379,
      "Ġlist": 1380,
      "Ġprocess": 1381,
      "ology": 1382,
      "Ġhist": 1383,
      "ided": 1384,
      "Ġpresident": 1385,
      "ians": 1386,
      "Ġeas": 1387,
      "Ġprom": 1388,
      "ode": 1389,
      "Ġwomen": 1390,
      "Ġcompany": 1391,
      "Ġchange": 1392,
      "ird": 1393,
      "nce": 1394,
      "iver": 1395,
      "used": 1396,
      "ger": 1397,
      "ĠCan": 1398,
      "Ġdri": 1399,
      "Ġcurrent": 1400,
      "ĠChr": 1401,
      "Ġrece": 1402,
      "ohn": 1403,
      "Ġalready": 1404,
      "rap": 1405,
      "Ġunt": 1406,
      "Ġclaim": 1407,
      "to": 1408,
      "Ġbre": 1409,
      "iversity": 1410,
      "Ġwhy": 1411,
      "ruct": 1412,
      "Ġtechn": 1413,
      "Ġmoney": 1414,
      "Ġlater": 1415,
      "Ġjob": 1416,
      "Ġofficial": 1417,
      "Ġproject": 1418,
      "Ġ--": 1419,
      "Ġbusiness": 1420,
      "aign": 1421,
      "Ġty": 1422,
      "stand": 1423,
      "Ġmat": 1424,
      "ĠAll": 1425,
      "Ġ18": 1426,
      "Ġbook": 1427,
      "Ġinformation": 1428,
      "Ġorgan": 1429,
      "Ġexpect": 1430,
      "Ġdesign": 1431,
      "Ġalways": 1432,
      "ases": 1433,
      "Ġmajor": 1434,
      "Ġtalk": 1435,
      "ĠSp": 1436,
      "reen": 1437,
      "ĠPres": 1438,
      "Ġthing": 1439,
      "Ġprof": 1440,
      "Ġable": 1441,
      "Ġstory": 1442,
      "Ġedit": 1443,
      "ards": 1444,
      "Ġsol": 1445,
      "aff": 1446,
      "Ġrese": 1447,
      "Ġhealth": 1448,
      "ertain": 1449,
      "Ġpast": 1450,
      "Ġvis": 1451,
      "ĠMar": 1452,
      "urity": 1453,
      "ĠMr": 1454,
      "Ġ12": 1455,
      "Ġclass": 1456,
      "acy": 1457,
      "iven": 1458,
      "lection": 1459,
      "Ġchang": 1460,
      "Ġoper": 1461,
      "It": 1462,
      "outh": 1463,
      "Ġaway": 1464,
      "urs": 1465,
      "__": 1466,
      "ior": 1467,
      "Ġcity": 1468,
      "ural": 1469,
      "Ġfree": 1470,
      "ĠOne": 1471,
      "Ġsk": 1472,
      "ĠJohn": 1473,
      "Ġmust": 1474,
      "ured": 1475,
      "ead": 1476,
      "uthor": 1477,
      "Ġimportant": 1478,
      "ury": 1479,
      "Ġest": 1480,
      "Ġkill": 1481,
      "Ġhappen": 1482,
      "ission": 1483,
      "here": 1484,
      "Ġleast": 1485,
      "ĠSc": 1486,
      "Ġgrow": 1487,
      "ending": 1488,
      "ĠTo": 1489,
      "Ġpat": 1490,
      "ption": 1491,
      "Ġdoesn": 1492,
      "ron": 1493,
      "ĠPl": 1494,
      "Ġold": 1495,
      "ney": 1496,
      "ope": 1497,
      "ained": 1498,
      "10": 1499,
      "ĠCon": 1500,
      "Ġcampaign": 1501,
      "Ġvar": 1502,
      "ides": 1503,
      "Ġ15": 1504,
      "Ġcost": 1505,
      "ample": 1506,
      "Ġaff": 1507,
      "Ġenough": 1508,
      "Ġcame": 1509,
      "Ġtell": 1510,
      "Ġdays": 1511,
      "com": 1512,
      "Ġmen": 1513,
      "ott": 1514,
      "Ġview": 1515,
      "ĠRepublic": 1516,
      "Ġlarge": 1517,
      "ider": 1518,
      "ccess": 1519,
      "Ġconst": 1520,
      "ĠTw": 1521,
      "side": 1522,
      "Ġmaking": 1523,
      "ĠComm": 1524,
      "Ġstre": 1525,
      "Ġpolic": 1526,
      "'d": 1527,
      "Ġelect": 1528,
      "Ġkind": 1529,
      "els": 1530,
      "Ġfamily": 1531,
      "ĠOr": 1532,
      "Ġfriend": 1533,
      "eral": 1534,
      "ush": 1535,
      "Ġmar": 1536,
      "Ġrecord": 1537,
      "Ġtax": 1538,
      "ĠMc": 1539,
      "ional": 1540,
      "Ġsit": 1541,
      "Ġuntil": 1542,
      "ern": 1543,
      "ising": 1544,
      "Ġpolitical": 1545,
      "ality": 1546,
      "pped": 1547,
      "Ġair": 1548,
      "Ġdeal": 1549,
      "ified": 1550,
      "ries": 1551,
      "ley": 1552,
      "ox": 1553,
      "ĠDem": 1554,
      "augh": 1555,
      "alf": 1556,
      "Ġvide": 1557,
      "ror": 1558,
      "ived": 1559,
      "ued": 1560,
      "ĠMay": 1561,
      "ocrat": 1562,
      "ĠPresident": 1563,
      "ĠNo": 1564,
      "arent": 1565,
      "Ġintern": 1566,
      "Ġtook": 1567,
      "Ġ,": 1568,
      "ister": 1569,
      "aps": 1570,
      "Ġworking": 1571,
      "Ġhuman": 1572,
      "Ġdeb": 1573,
      "Ġfore": 1574,
      "oad": 1575,
      "ator": 1576,
      "ĠEuro": 1577,
      "aining": 1578,
      "Ġfund": 1579,
      "ands": 1580,
      "Ġbecome": 1581,
      "Ġdel": 1582,
      "iol": 1583,
      "Ġes": 1584,
      "Ġve": 1585,
      "Ġmean": 1586,
      "Ġactually": 1587,
      "Ġoften": 1588,
      "ware": 1589,
      "Ġformer": 1590,
      "crib": 1591,
      "bs": 1592,
      "Ġline": 1593,
      "by": 1594,
      "work": 1595,
      "ember": 1596,
      "ĠSy": 1597,
      "Ġaccording": 1598,
      "Ġ11": 1599,
      "ony": 1600,
      "ĠRuss": 1601,
      "Ġever": 1602,
      "Ġgive": 1603,
      "year": 1604,
      "ĠWith": 1605,
      "Ġwon": 1606,
      "most": 1607,
      "oint": 1608,
      "Ġword": 1609,
      "Ġbas": 1610,
      "ization": 1611,
      "aring": 1612,
      "gin": 1613,
      "Ġdev": 1614,
      "Ġ199": 1615,
      "Ġorder": 1616,
      "ane": 1617,
      "Ġgames": 1618,
      "Ġfac": 1619,
      "ĠBr": 1620,
      "iber": 1621,
      "Ġtimes": 1622,
      "Ġsever": 1623,
      "uture": 1624,
      "ither": 1625,
      "ĠCol": 1626,
      "eng": 1627,
      "Ġcharac": 1628,
      "Ġname": 1629,
      "ĠAm": 1630,
      "let": 1631,
      "ched": 1632,
      "Ġperform": 1633,
      "raft": 1634,
      "Ġsing": 1635,
      "...": 1636,
      "Ġmarket": 1637,
      "ann": 1638,
      "Ġbit": 1639,
      "wh": 1640,
      "Ġappear": 1641,
      "Ġdoing": 1642,
      "aken": 1643,
      "Ġearly": 1644,
      "Ġlear": 1645,
      "icle": 1646,
      "Ġseen": 1647,
      "ison": 1648,
      "iqu": 1649,
      "idd": 1650,
      "Ġnight": 1651,
      "ĠAfter": 1652,
      "Ġla": 1653,
      "ĠYork": 1654,
      "Ġwhether": 1655,
      "----": 1656,
      "ĠIm": 1657,
      "**": 1658,
      "Ġhaving": 1659,
      "Ġmedia": 1660,
      "Ġra": 1661,
      "Ġchildren": 1662,
      "Ġevent": 1663,
      "Ġcrit": 1664,
      "Ġmeet": 1665,
      "Ġreturn": 1666,
      "Ġsocial": 1667,
      "Ġprop": 1668,
      "idence": 1669,
      "Ġfive": 1670,
      "Ġplayers": 1671,
      "Ġtoday": 1672,
      "ĠEurope": 1673,
      "Ġquestion": 1674,
      "Ġseveral": 1675,
      "ĠObama": 1676,
      "Ġpress": 1677,
      "Ġcontrol": 1678,
      "Ġpot": 1679,
      "ĠStates": 1680,
      "iously": 1681,
      "Ġmilit": 1682,
      "Ġwent": 1683,
      "Ġyoung": 1684,
      "Ġeng": 1685,
      "artment": 1686,
      "Ġocc": 1687,
      "Ġequ": 1688,
      "\".": 1689,
      "iam": 1690,
      "Ġmembers": 1691,
      "ĠTe": 1692,
      "Ġcertain": 1693,
      "Ġwater": 1694,
      "ories": 1695,
      "Ġlikely": 1696,
      "une": 1697,
      "mber": 1698,
      "rop": 1699,
      "for": 1700,
      "ium": 1701,
      "Ġsw": 1702,
      "enn": 1703,
      "Ġsuccess": 1704,
      "Ġinvol": 1705,
      "Ġsex": 1706,
      "Ġsure": 1707,
      "Ġarg": 1708,
      "Ġant": 1709,
      "vert": 1710,
      "Ġshort": 1711,
      "ats": 1712,
      "Th": 1713,
      "50": 1714,
      "Ġside": 1715,
      "ended": 1716,
      "Ġexample": 1717,
      "Ġwithin": 1718,
      "Ġmonths": 1719,
      "Ġalong": 1720,
      "Ġdone": 1721,
      "empt": 1722,
      "ots": 1723,
      "ially": 1724,
      "Ġ]": 1725,
      "ĠState": 1726,
      "ubl": 1727,
      "Ġhour": 1728,
      "Ġvers": 1729,
      "Ġconcer": 1730,
      "ential": 1731,
      "Ġinvestig": 1732,
      "Ġamong": 1733,
      "Ġfuture": 1734,
      "Ġfight": 1735,
      "ball": 1736,
      "ĠNot": 1737,
      "ĠEx": 1738,
      "lf": 1739,
      "Ġcourse": 1740,
      "br": 1741,
      "Ġauthor": 1742,
      "Ġpriv": 1743,
      "Ġ=": 1744,
      "Ġonce": 1745,
      "Ġunderstand": 1746,
      "ulation": 1747,
      "Ġactiv": 1748,
      "ague": 1749,
      "ones": 1750,
      "ĠCo": 1751,
      "ggest": 1752,
      "Ġviol": 1753,
      "Ġpossible": 1754,
      "itive": 1755,
      "Ġprotect": 1756,
      "ortun": 1757,
      "Ġknown": 1758,
      "Ġpur": 1759,
      "uff": 1760,
      "Ġthought": 1761,
      "oci": 1762,
      "iting": 1763,
      "imate": 1764,
      "Ġcho": 1765,
      "19": 1766,
      "ĠPol": 1767,
      "Ġmeans": 1768,
      "ER": 1769,
      "ster": 1770,
      "nect": 1771,
      "ailable": 1772,
      "Ġproblem": 1773,
      "ĠHowever": 1774,
      "Ġwrit": 1775,
      "rew": 1776,
      "ĠHouse": 1777,
      "sh": 1778,
      "Ġacross": 1779,
      "ald": 1780,
      "ivid": 1781,
      "Ġnon": 1782,
      "Ġyet": 1783,
      "Ġasked": 1784,
      "ĠChrist": 1785,
      "Ġsuggest": 1786,
      "Ġlocal": 1787,
      "Ġfail": 1788,
      "gress": 1789,
      "Ġproduct": 1790,
      "ĠSen": 1791,
      "Ġorig": 1792,
      "Ġhold": 1793,
      "verage": 1794,
      "Ġreason": 1795,
      "Ġ/": 1796,
      "Ġmakes": 1797,
      "ederal": 1798,
      "Ġmus": 1799,
      "aged": 1800,
      "ĠUniversity": 1801,
      "Ġcommunity": 1802,
      "ourn": 1803,
      "por": 1804,
      "arm": 1805,
      "Ġ30": 1806,
      "Ġ2016": 1807,
      "ĠWhile": 1808,
      "inc": 1809,
      "ler": 1810,
      "Ġreported": 1811,
      "Ġothers": 1812,
      "Ġgiven": 1813,
      "ĠMin": 1814,
      "Ġbelieve": 1815,
      "ĠDemocrat": 1816,
      "itions": 1817,
      "Ġannoun": 1818,
      "ensive": 1819,
      "ĠFl": 1820,
      "orld": 1821,
      "Ġvideo": 1822,
      "IN": 1823,
      "Ġprob": 1824,
      "Ġstrong": 1825,
      "not": 1826,
      "Ġgetting": 1827,
      "Ġcut": 1828,
      ".,": 1829,
      "ances": 1830,
      "Ġident": 1831,
      "iron": 1832,
      "Ġlight": 1833,
      "Ġlim": 1834,
      "ober": 1835,
      "ĠPr": 1836,
      "ored": 1837,
      "urther": 1838,
      "iety": 1839,
      "Ġsent": 1840,
      "back": 1841,
      "Ġcond": 1842,
      "ĠX": 1843,
      "ĠDon": 1844,
      "Ġca": 1845,
      "Ġnational": 1846,
      "Ġi": 1847,
      "Ġnet": 1848,
      "Ġemploy": 1849,
      "Ġsour": 1850,
      "Ġcreat": 1851,
      "ashing": 1852,
      "Ġindust": 1853,
      "ĠCent": 1854,
      "use": 1855,
      "Ġhig": 1856,
      "Ġdeath": 1857,
      "Ġbased": 1858,
      "Ġsaf": 1859,
      "Ġstarted": 1860,
      "Ġclose": 1861,
      "orts": 1862,
      "Ġ16": 1863,
      "rest": 1864,
      "book": 1865,
      "lement": 1866,
      "11": 1867,
      "Ġhistory": 1868,
      "Ġ2015": 1869,
      "ĠSec": 1870,
      "Ġparty": 1871,
      "aster": 1872,
      "Ġ&": 1873,
      "ĠAmerica": 1874,
      "Ġlow": 1875,
      "Ġmom": 1876,
      "Ġavailable": 1877,
      "Ġaccount": 1878,
      "Ġseries": 1879,
      "selves": 1880,
      "my": 1881,
      "Ġ|": 1882,
      "Ġcomes": 1883,
      "Ġtrying": 1884,
      "Ġfollowing": 1885,
      "Ġissue": 1886,
      "Ġidea": 1887,
      "reed": 1888,
      "Ġlove": 1889,
      "Ġaccess": 1890,
      "ination": 1891,
      "Ġtoget": 1892,
      "Ġtogether": 1893,
      "Ġago": 1894,
      "Ġalmost": 1895,
      "ief": 1896,
      "ĠGer": 1897,
      "Ġfoc": 1898,
      "Ġpar": 1899,
      "ĠNe": 1900,
      "hers": 1901,
      "uly": 1902,
      "ilar": 1903,
      "Ġpract": 1904,
      "ability": 1905,
      "resent": 1906,
      "rael": 1907,
      "Ġisn": 1908,
      "Ġclear": 1909,
      "utes": 1910,
      "Ġ13": 1911,
      "itional": 1912,
      "Ġrul": 1913,
      "Ġtrad": 1914,
      "inton": 1915,
      "though": 1916,
      "ĠNorth": 1917,
      "Ġanal": 1918,
      "ograp": 1919,
      "?\"": 1920,
      "ged": 1921,
      "Ġfilm": 1922,
      "Ġris": 1923,
      "ument": 1924,
      "minist": 1925,
      "Ġ14": 1926,
      "erence": 1927,
      "ails": 1928,
      "Ġadded": 1929,
      "ien": 1930,
      "Ġsix": 1931,
      "Ġfav": 1932,
      "Ġimpro": 1933,
      "Ġexperience": 1934,
      "ĠGr": 1935,
      "Ġhalf": 1936,
      "ĠCanad": 1937,
      "ĠEng": 1938,
      "ef": 1939,
      "Ġlive": 1940,
      "ividual": 1941,
      "unch": 1942,
      "Ġanything": 1943,
      "nes": 1944,
      "Ġmiss": 1945,
      "Ġ2014": 1946,
      "Ġarea": 1947,
      "Ġpresent": 1948,
      "Ġlooking": 1949,
      "Ġcomplete": 1950,
      "ĠWar": 1951,
      "ustom": 1952,
      "ĠBro": 1953,
      "Ġsaying": 1954,
      "Ġbill": 1955,
      "ream": 1956,
      "rict": 1957,
      "rug": 1958,
      "Ġsecurity": 1959,
      "af": 1960,
      "Ġbad": 1961,
      "Ġvict": 1962,
      "ows": 1963,
      "cially": 1964,
      "ĠBrit": 1965,
      "Ġnear": 1966,
      "itter": 1967,
      "of": 1968,
      "Ġcourt": 1969,
      "uge": 1970,
      "Ġbene": 1971,
      "Ġphot": 1972,
      "Ġ17": 1973,
      "Ġmor": 1974,
      "Ġtaken": 1975,
      "Ġcompet": 1976,
      "arr": 1977,
      "ĠClinton": 1978,
      "rodu": 1979,
      "ators": 1980,
      "ĠMan": 1981,
      "raw": 1982,
      "eb": 1983,
      "Ġmilitary": 1984,
      "Ġentire": 1985,
      "aid": 1986,
      "ĠNational": 1987,
      "Ġbehind": 1988,
      "ĠAb": 1989,
      "ai": 1990,
      "ĠIsrael": 1991,
      "AT": 1992,
      "Ġaut": 1993,
      "ĠAf": 1994,
      "ĠDep": 1995,
      "Ġpubl": 1996,
      "wards": 1997,
      "ĠNow": 1998,
      "ĠJust": 1999,
      "ĠCal": 2000,
      "ĠSu": 2001,
      "Ġtry": 2002,
      "Ġer": 2003,
      "Ġthreat": 2004,
      "sy": 2005,
      "Ġmind": 2006,
      "Ġrather": 2007,
      "aper": 2008,
      "Ġface": 2009,
      "Ġdiscuss": 2010,
      "Ġindividual": 2011,
      "Ġpolicy": 2012,
      "Ġmult": 2013,
      "Ġproper": 2014,
      "Ġsingle": 2015,
      "ĠBy": 2016,
      "osp": 2017,
      "irc": 2018,
      "Ġfall": 2019,
      "Ġwanted": 2020,
      "play": 2021,
      "ĠInst": 2022,
      "Ġsum": 2023,
      "ĠHis": 2024,
      "Ġtot": 2025,
      "Ġquick": 2026,
      "Ġcompan": 2027,
      "Ġstudy": 2028,
      "ĠRes": 2029,
      "lling": 2030,
      "Ġz": 2031,
      "ĠThese": 2032,
      "30": 2033,
      "ĠWorld": 2034,
      "\",": 2035,
      "Ġmess": 2036,
      "Ġattempt": 2037,
      "atic": 2038,
      "Ġsomeone": 2039,
      "ĠDav": 2040,
      "ĠEd": 2041,
      "Ġbring": 2042,
      "ert": 2043,
      "Ġspecial": 2044,
      "Ġcult": 2045,
      "ĠÂ": 2046,
      "off": 2047,
      "ĠSome": 2048,
      "ids": 2049,
      "12": 2050,
      "ĠApp": 2051,
      "Ġredu": 2052,
      "ales": 2053,
      "ĠAust": 2054,
      "ĠGe": 2055,
      "ĠCity": 2056,
      "Ġpret": 2057,
      "Ġcomb": 2058,
      "Ġfood": 2059,
      "Ġland": 2060,
      "ĠBar": 2061,
      "Ġblack": 2062,
      "Ġkey": 2063,
      "Ġplayer": 2064,
      "Ġfront": 2065,
      "Ġtaking": 2066,
      "ashington": 2067,
      "olution": 2068,
      "elt": 2069,
      "par": 2070,
      "ĠPart": 2071,
      "ply": 2072,
      "ĠMy": 2073,
      "arter": 2074,
      "Ġfoot": 2075,
      "amed": 2076,
      "Ġbody": 2077,
      "Ġresearch": 2078,
      "ify": 2079,
      "rote": 2080,
      "Ġnothing": 2081,
      "icult": 2082,
      "viron": 2083,
      "ĠMe": 2084,
      "Ġprobably": 2085,
      "Ġspace": 2086,
      "Ġelse": 2087,
      "ches": 2088,
      "Ġexist": 2089,
      "Ġhowever": 2090,
      "ming": 2091,
      "Ġcou": 2092,
      "Ġsimilar": 2093,
      "Ġdescrib": 2094,
      "Ġconnect": 2095,
      "ĠJan": 2096,
      "ĠWashington": 2097,
      "Ġmass": 2098,
      "Ġcoming": 2099,
      "Ġjo": 2100,
      "Ġ2013": 2101,
      "ĠDo": 2102,
      "reme": 2103,
      "Ġconv": 2104,
      "lish": 2105,
      "ĠGu": 2106,
      "Ġrights": 2107,
      "Ġsignific": 2108,
      "Ġimm": 2109,
      "Ġdecision": 2110,
      "cing": 2111,
      "hy": 2112,
      "Ġbenef": 2113,
      "Ġeither": 2114,
      "aces": 2115,
      "Ġhouse": 2116,
      "Ġfurther": 2117,
      "Ġcoun": 2118,
      "Ġsus": 2119,
      "Ġpoints": 2120,
      "Ġtarg": 2121,
      ".)": 2122,
      "Ġear": 2123,
      "ully": 2124,
      "ĠSouth": 2125,
      "ana": 2126,
      "Ġmeas": 2127,
      "Ġfire": 2128,
      "Ġwa": 2129,
      "asing": 2130,
      "Ġfeat": 2131,
      "Ġban": 2132,
      "Ġrepl": 2133,
      "Ġenc": 2134,
      "Ġchall": 2135,
      "Ġ2012": 2136,
      "Ġservice": 2137,
      "Ġthird": 2138,
      "ively": 2139,
      "Ġcompanies": 2140,
      "Ġwrote": 2141,
      "Ġfig": 2142,
      "Ġstates": 2143,
      "Ġbegin": 2144,
      "Ġcreate": 2145,
      "ĠMed": 2146,
      "Ġissues": 2147,
      "ently": 2148,
      "sw": 2149,
      "Ġinfl": 2150,
      "Ġstudents": 2151,
      "Ġrelations": 2152,
      "Ġfield": 2153,
      "sc": 2154,
      "over": 2155,
      "Ġcompl": 2156,
      "ape": 2157,
      "irl": 2158,
      "ĠIntern": 2159,
      "Ġcand": 2160,
      "ĠAcc": 2161,
      "Ġ:": 2162,
      "Ġfederal": 2163,
      "ĠIr": 2164,
      "ĠGerman": 2165,
      "now": 2166,
      "ung": 2167,
      "Ġseems": 2168,
      "Ġsound": 2169,
      "pping": 2170,
      "Ġpick": 2171,
      "ried": 2172,
      "pecially": 2173,
      "Ġstri": 2174,
      "ON": 2175,
      "Ġwhole": 2176,
      "ĠChina": 2177,
      "Ġleaders": 2178,
      "itted": 2179,
      "Ġroom": 2180,
      "Ġsuper": 2181,
      "mb": 2182,
      "Ġexec": 2183,
      "aul": 2184,
      "uation": 2185,
      "ault": 2186,
      "pite": 2187,
      "Ġdue": 2188,
      "Ġstep": 2189,
      "Ġdoc": 2190,
      "ibility": 2191,
      "Ġofficials": 2192,
      "itch": 2193,
      "iday": 2194,
      "Ġbegan": 2195,
      "Ġstop": 2196,
      "ivil": 2197,
      "Ġwatch": 2198,
      "yn": 2199,
      "Ġrole": 2200,
      "15": 2201,
      "Ġeverything": 2202,
      "Ġtre": 2203,
      "Ġtra": 2204,
      "ilt": 2205,
      "ĠDr": 2206,
      "oon": 2207,
      "Ġcharacter": 2208,
      "Ġstatement": 2209,
      "Ġreleased": 2210,
      "Ġprovide": 2211,
      "Ġoffice": 2212,
      "go": 2213,
      "Ġdam": 2214,
      "Ġ198": 2215,
      "ĠAss": 2216,
      "Ġoutside": 2217,
      "Ġhimself": 2218,
      "Ġey": 2219,
      "Ġlab": 2220,
      "obal": 2221,
      "Ġmatter": 2222,
      "Ġfinal": 2223,
      "Ġstat": 2224,
      "Ġposition": 2225,
      "ades": 2226,
      "Ġ25": 2227,
      "Ġcustom": 2228,
      "Ġself": 2229,
      "Ġbecame": 2230,
      "Ġdevelopment": 2231,
      "Ġopt": 2232,
      "Ġtreat": 2233,
      "Ġener": 2234,
      "Ġitself": 2235,
      "Ġinit": 2236,
      "iod": 2237,
      "like": 2238,
      "attle": 2239,
      "Ġdou": 2240,
      "head": 2241,
      "vironment": 2242,
      "Ġcountries": 2243,
      "Ġrepresent": 2244,
      "Ġthemselves": 2245,
      "Ġneg": 2246,
      "Ġlarg": 2247,
      "arlier": 2248,
      "IS": 2249,
      "ery": 2250,
      "ring": 2251,
      "Ġhours": 2252,
      "ender": 2253,
      "Ġamount": 2254,
      "aced": 2255,
      "Ġhit": 2256,
      "Ġcontinue": 2257,
      "Ġgeneral": 2258,
      "Ġhope": 2259,
      "Ġaddress": 2260,
      "sec": 2261,
      "Ġspecific": 2262,
      "ĠNews": 2263,
      "Ġbreak": 2264,
      "Ġ100": 2265,
      "Ġaction": 2266,
      "Ġadminist": 2267,
      "ĠWill": 2268,
      "ogn": 2269,
      "Ġ2017": 2270,
      "Ġdifficult": 2271,
      "pro": 2272,
      "Ġgun": 2273,
      "Ġinterview": 2274,
      "Ġsignificant": 2275,
      "Ġground": 2276,
      "Ġabove": 2277,
      "amer": 2278,
      "Ġevidence": 2279,
      "lim": 2280,
      "ĠEn": 2281,
      "Ġprofess": 2282,
      "Ġgroups": 2283,
      "Ġcommon": 2284,
      "Ġsimply": 2285,
      "ili": 2286,
      "lam": 2287,
      "Ġrespons": 2288,
      "Ġmusic": 2289,
      "Ġdrug": 2290,
      "Ġwasn": 2291,
      "Ġrad": 2292,
      "Ġagree": 2293,
      "ĠMus": 2294,
      "Ġtrue": 2295,
      "ĠCar": 2296,
      "Ġrunning": 2297,
      "umb": 2298,
      "Ġappe": 2299,
      "Ġneeds": 2300,
      "Ġtyp": 2301,
      "iddle": 2302,
      "Ġeveryone": 2303,
      "oid": 2304,
      "ĠWest": 2305,
      "Ġshows": 2306,
      "Ġball": 2307,
      "Ġneeded": 2308,
      "Ġdom": 2309,
      "Ġbuilding": 2310,
      "Ġlat": 2311,
      "ĠPe": 2312,
      "ĠSte": 2313,
      "ĠPer": 2314,
      "ogle": 2315,
      "ĠFace": 2316,
      "Ġwoman": 2317,
      "BC": 2318,
      "Ġinj": 2319,
      "eks": 2320,
      "Ġred": 2321,
      "Ġgen": 2322,
      "Ã©": 2323,
      "Ġdest": 2324,
      "ĠWhite": 2325,
      "reg": 2326,
      "ribut": 2327,
      "ĠCong": 2328,
      "Ġindustry": 2329,
      "Ġinclude": 2330,
      "ĠTwitter": 2331,
      "Ġdeep": 2332,
      "Ġbillion": 2333,
      "Ġversion": 2334,
      "Ġlegal": 2335,
      "Ġ50": 2336,
      "Ġtem": 2337,
      "Ġrelease": 2338,
      "Ġexc": 2339,
      "Ġsense": 2340,
      "ask": 2341,
      "Ġbelow": 2342,
      "ĠKe": 2343,
      "ournal": 2344,
      "Ġsaw": 2345,
      "Ġwhite": 2346,
      "ĠOct": 2347,
      "Ġpretty": 2348,
      "angu": 2349,
      "Ġquite": 2350,
      "Ġcandid": 2351,
      "Ġplayed": 2352,
      "Ġalleg": 2353,
      "Ġfriends": 2354,
      "istic": 2355,
      "Ġmag": 2356,
      "Ġenergy": 2357,
      "right": 2358,
      "Ġmot": 2359,
      "ival": 2360,
      "Ġphys": 2361,
      "lev": 2362,
      "Ġlate": 2363,
      "Ġhom": 2364,
      "ift": 2365,
      "epend": 2366,
      "Ġabs": 2367,
      "osing": 2368,
      "atur": 2369,
      "Ġap": 2370,
      "Ġlost": 2371,
      "ĠMich": 2372,
      "Ġplaying": 2373,
      "oring": 2374,
      "ser": 2375,
      "fully": 2376,
      "AR": 2377,
      "Ġcharg": 2378,
      "Ġespecially": 2379,
      "Ġanim": 2380,
      "Ġvote": 2381,
      "Ġtrack": 2382,
      "Ġelection": 2383,
      "Ġjud": 2384,
      "ĠAug": 2385,
      "Ġeconomic": 2386,
      "Ġrecently": 2387,
      "Ġperiod": 2388,
      "Ġ24": 2389,
      "Ġinstead": 2390,
      "isc": 2391,
      "body": 2392,
      "AN": 2393,
      "where": 2394,
      "ĠFacebook": 2395,
      "Ġhost": 2396,
      "Ġcop": 2397,
      "ĠHar": 2398,
      "Ġopportun": 2399,
      "ĠMarch": 2400,
      "Ġsuff": 2401,
      "ĠGoogle": 2402,
      "ĠSm": 2403,
      "Ġdeter": 2404,
      "ij": 2405,
      "ager": 2406,
      "Ġaccept": 2407,
      "Ġweeks": 2408,
      "Ġforward": 2409,
      "ĠSept": 2410,
      "medi": 2411,
      "ĠRepublican": 2412,
      "Ġrelig": 2413,
      "bo": 2414,
      "Ġlonger": 2415,
      "16": 2416,
      "Ġsoon": 2417,
      "Ġdecl": 2418,
      "Ġbar": 2419,
      "irt": 2420,
      "Ġchanges": 2421,
      "ental": 2422,
      "ĠDepartment": 2423,
      "ote": 2424,
      "14": 2425,
      "Ġlo": 2426,
      "Ġsite": 2427,
      "Ġeduc": 2428,
      "Ġple": 2429,
      "Ġpain": 2430,
      "Ġhigher": 2431,
      "Ġmoment": 2432,
      "Ġep": 2433,
      "ancial": 2434,
      "OR": 2435,
      "ĠEl": 2436,
      "ners": 2437,
      "Ġpie": 2438,
      "ĠAccording": 2439,
      "irm": 2440,
      "Ġshoot": 2441,
      "itting": 2442,
      "den": 2443,
      "Ġconsum": 2444,
      "ĠAct": 2445,
      "Ġonline": 2446,
      "Ġled": 2447,
      "yle": 2448,
      "ached": 2449,
      "ĠMore": 2450,
      "Ġcirc": 2451,
      "ique": 2452,
      "Ġobject": 2453,
      "me": 2454,
      "alt": 2455,
      "ights": 2456,
      "Ġwrong": 2457,
      "ĠOff": 2458,
      "cil": 2459,
      "Ġpred": 2460,
      "lege": 2461,
      "Ġwebs": 2462,
      "Ġconsider": 2463,
      "ĠHere": 2464,
      "Ġcred": 2465,
      "fer": 2466,
      "oke": 2467,
      "Ġ2011": 2468,
      "Ġfocus": 2469,
      "Ġrisk": 2470,
      "ĠJune": 2471,
      "Ġreview": 2472,
      "ularly": 2473,
      "Ġparent": 2474,
      "overed": 2475,
      "Ġtit": 2476,
      "Ġstru": 2477,
      "Ġcontract": 2478,
      ".'": 2479,
      "Ġheld": 2480,
      "Ġworks": 2481,
      "Ġshare": 2482,
      "iding": 2483,
      "Ġreve": 2484,
      "ĠEm": 2485,
      "Ġpotential": 2486,
      "Ġwords": 2487,
      "Ġrev": 2488,
      "Ġservices": 2489,
      "Ġwalk": 2490,
      "ĠApr": 2491,
      "ĠCongress": 2492,
      "Ġlaws": 2493,
      "ĠSyri": 2494,
      "ole": 2495,
      "ĠHill": 2496,
      "arc": 2497,
      "time": 2498,
      "Ġ)": 2499,
      "Ġaud": 2500,
      "ĠRed": 2501,
      "Ġdi": 2502,
      "oe": 2503,
      "Ġstay": 2504,
      "Ġvalue": 2505,
      "ĠGod": 2506,
      "Ġcheck": 2507,
      "cial": 2508,
      "Ġblock": 2509,
      "hel": 2510,
      "Ġage": 2511,
      "Ġce": 2512,
      "Ġarticle": 2513,
      "ees": 2514,
      "Ġfavor": 2515,
      "Ġste": 2516,
      "Ġpopular": 2517,
      "Ġprim": 2518,
      "ilities": 2519,
      "onse": 2520,
      "AS": 2521,
      "ript": 2522,
      "ateg": 2523,
      "ES": 2524,
      "ients": 2525,
      "itution": 2526,
      "Ġcomput": 2527,
      "lear": 2528,
      "uary": 2529,
      "apan": 2530,
      "asons": 2531,
      "Ġpersonal": 2532,
      "Ġwind": 2533,
      "val": 2534,
      "Ġapplic": 2535,
      "fect": 2536,
      "ĠJuly": 2537,
      "hod": 2538,
      "ĠDes": 2539,
      "Ġresults": 2540,
      "Ġansw": 2541,
      "ĠAustral": 2542,
      "ude": 2543,
      "lt": 2544,
      "haps": 2545,
      "17": 2546,
      "Ġtotal": 2547,
      "Ġanyone": 2548,
      "Ġsold": 2549,
      "13": 2550,
      "Ġrate": 2551,
      "Ġnecess": 2552,
      "ns": 2553,
      "Ġvol": 2554,
      "ham": 2555,
      "ĠMond": 2556,
      "Ġden": 2557,
      "ĠSw": 2558,
      "Ġminutes": 2559,
      "rel": 2560,
      "Ġtechnology": 2561,
      "Ġrespect": 2562,
      "Ġscient": 2563,
      "ĠAg": 2564,
      "Ġdead": 2565,
      "Ġexpress": 2566,
      "Ġsurpr": 2567,
      "anger": 2568,
      "Ġtarget": 2569,
      "Ġanti": 2570,
      "Ġhy": 2571,
      "Ġearlier": 2572,
      "Ġcomment": 2573,
      "iter": 2574,
      "key": 2575,
      "ule": 2576,
      "Ġcreated": 2577,
      "Ġproblems": 2578,
      "aging": 2579,
      "aut": 2580,
      "isl": 2581,
      "Ġreceived": 2582,
      "ĠPal": 2583,
      "Ġenvironment": 2584,
      "ĠFriday": 2585,
      "Ġbase": 2586,
      "Ġforce": 2587,
      "Ġexpected": 2588,
      "Ġannounced": 2589,
      "atives": 2590,
      "omm": 2591,
      "Ġport": 2592,
      "Ġprivate": 2593,
      "action": 2594,
      "na": 2595,
      "Ġquestions": 2596,
      "ends": 2597,
      "Ġimpact": 2598,
      "ĠCont": 2599,
      "Ġfunction": 2600,
      "Ġcannot": 2601,
      "Ġincrease": 2602,
      "Ġgoal": 2603,
      "Ġways": 2604,
      "Ġupd": 2605,
      "duct": 2606,
      "ires": 2607,
      "uel": 2608,
      "ittee": 2609,
      "aving": 2610,
      "Ġ197": 2611,
      "Ġeasy": 2612,
      "ĠCour": 2613,
      "ĠApril": 2614,
      "ĠTues": 2615,
      "reet": 2616,
      "Ġterror": 2617,
      "Ġshot": 2618,
      "Ġcapt": 2619,
      "aterial": 2620,
      "ĠAmericans": 2621,
      "iple": 2622,
      "Ġinvolved": 2623,
      "Ġcivil": 2624,
      "ĠJapan": 2625,
      "itten": 2626,
      "urch": 2627,
      "hern": 2628,
      "ples": 2629,
      "Ġspeak": 2630,
      "Ġexecut": 2631,
      "18": 2632,
      "Ġet": 2633,
      "ĠEven": 2634,
      "ĠTuesday": 2635,
      "ĠMonday": 2636,
      "itiz": 2637,
      "Ġnearly": 2638,
      "Ġoriginal": 2639,
      "Ġmodel": 2640,
      "Ġcases": 2641,
      "Ġcode": 2642,
      "Ġrelationship": 2643,
      "Ġlangu": 2644,
      "Ġsen": 2645,
      "Ġinternational": 2646,
      "ĠCount": 2647,
      "Ġexact": 2648,
      "okes": 2649,
      "Ġdiv": 2650,
      "lex": 2651,
      "Ġ2010": 2652,
      "Ġliving": 2653,
      "icro": 2654,
      "Ġleave": 2655,
      "eter": 2656,
      "Ġstaff": 2657,
      "ĠGeor": 2658,
      "ĠDavid": 2659,
      "ellig": 2660,
      "Ġaverage": 2661,
      "25": 2662,
      "hood": 2663,
      "ops": 2664,
      "lled": 2665,
      "____": 2666,
      "Ġkilled": 2667,
      "ĠWed": 2668,
      "onst": 2669,
      "put": 2670,
      "Ġpack": 2671,
      "Ġestab": 2672,
      "ĠPost": 2673,
      "ises": 2674,
      "Ġnation": 2675,
      "Ġbroad": 2676,
      "atural": 2677,
      "Ġbecom": 2678,
      "ĠHer": 2679,
      "Ġarrest": 2680,
      "Ġcoll": 2681,
      "che": 2682,
      "Ġresponse": 2683,
      "ctor": 2684,
      "Ġinside": 2685,
      "Ġterms": 2686,
      "Ġsoft": 2687,
      "Ġcal": 2688,
      "ĠPaul": 2689,
      "ĠSan": 2690,
      "ĠCor": 2691,
      "omb": 2692,
      "Ġur": 2693,
      "ĠGl": 2694,
      "Ġcontent": 2695,
      "Ġfans": 2696,
      "ĠFeb": 2697,
      "Ġ40": 2698,
      "Ġreports": 2699,
      "Ġassoci": 2700,
      "Ġclub": 2701,
      "Ġglobal": 2702,
      "Ġworth": 2703,
      "ĠCalif": 2704,
      "ams": 2705,
      "eed": 2706,
      "Ġworkers": 2707,
      "Ġfinancial": 2708,
      "Ġimmedi": 2709,
      "Ġtype": 2710,
      "Ġheart": 2711,
      "Ġsubject": 2712,
      "Ġworked": 2713,
      "Ġadm": 2714,
      "Ġusers": 2715,
      "ĠRussia": 2716,
      "ĠSch": 2717,
      "Ġpublished": 2718,
      "bor": 2719,
      "Ġ@": 2720,
      "rought": 2721,
      "Ġsource": 2722,
      "ĠFirst": 2723,
      "ging": 2724,
      "Ġdirector": 2725,
      "cast": 2726,
      "ites": 2727,
      "ky": 2728,
      "Ġability": 2729,
      "ests": 2730,
      "Ġroad": 2731,
      "izing": 2732,
      "ael": 2733,
      "oto": 2734,
      "joy": 2735,
      "Ġrespond": 2736,
      "Ġoil": 2737,
      "Ġphone": 2738,
      "ĠSund": 2739,
      "ech": 2740,
      "ĠIslam": 2741,
      "Ġweap": 2742,
      "Ġmother": 2743,
      "Ġprice": 2744,
      "Ġlack": 2745,
      "Ġinflu": 2746,
      "ovember": 2747,
      "ological": 2748,
      "ray": 2749,
      "Ġchance": 2750,
      "Ġtou": 2751,
      "Ġtakes": 2752,
      "This": 2753,
      "Ġcell": 2754,
      "Ġbuy": 2755,
      "ĠJanuary": 2756,
      "Ġsqu": 2757,
      "Ġcollect": 2758,
      "Ġmid": 2759,
      "Ġdefin": 2760,
      "Ġgave": 2761,
      "Ġlog": 2762,
      "Ġrequire": 2763,
      "Ġemer": 2764,
      "ips": 2765,
      "Ġfem": 2766,
      "Ġforeign": 2767,
      "Ġâ": 2768,
      "vertise": 2769,
      "ĠAugust": 2770,
      "Ġhappened": 2771,
      "ĠQu": 2772,
      "osition": 2773,
      "ino": 2774,
      "60": 2775,
      "bit": 2776,
      "ĠSpe": 2777,
      "clus": 2778,
      "Ġdecided": 2779,
      "Ġoffer": 2780,
      "ĠWednes": 2781,
      "Ġindic": 2782,
      "Ġnetwork": 2783,
      "ĠNovember": 2784,
      "Ġgoes": 2785,
      "Ġmaterial": 2786,
      "Ġbur": 2787,
      "Ġwhose": 2788,
      "ĠSeptember": 2789,
      "Ġmeeting": 2790,
      "Ġparticip": 2791,
      "Ġplans": 2792,
      "Ġarri": 2793,
      "ĠTV": 2794,
      "Ġsituation": 2795,
      "EN": 2796,
      "ĠAng": 2797,
      "Ġgirl": 2798,
      "Ġtal": 2799,
      "Ġcurrently": 2800,
      "Ġrecogn": 2801,
      "Ġill": 2802,
      "Ġmember": 2803,
      "ĠWednesday": 2804,
      "unt": 2805,
      "ĠEuropean": 2806,
      "Ġlives": 2807,
      "aur": 2808,
      "Ġaffect": 2809,
      "ought": 2810,
      "aled": 2811,
      "ese": 2812,
      "Ġpict": 2813,
      "Ġcapital": 2814,
      "Ġturned": 2815,
      "based": 2816,
      "oved": 2817,
      "Ġmis": 2818,
      "In": 2819,
      "Ġregard": 2820,
      "Ġ21": 2821,
      "Ġbank": 2822,
      "ĠCourt": 2823,
      "Ġstore": 2824,
      "Ġintrodu": 2825,
      "Ġareas": 2826,
      "rain": 2827,
      "Ġcy": 2828,
      "ills": 2829,
      "Ġteams": 2830,
      "istan": 2831,
      "Ġord": 2832,
      "Ġ22": 2833,
      "Ġevents": 2834,
      "ĠOf": 2835,
      "ĠBritish": 2836,
      "Ġ*": 2837,
      "Ġnorm": 2838,
      "Ġadministration": 2839,
      "Ġsimple": 2840,
      "ĠThurs": 2841,
      "ruction": 2842,
      "ĠOctober": 2843,
      "Ġvia": 2844,
      "Ġapproach": 2845,
      "Ġfelt": 2846,
      "Ġhuge": 2847,
      "Ġengine": 2848,
      "Ġcouple": 2849,
      "ĠAfric": 2850,
      "Ġcareer": 2851,
      "Ġnumbers": 2852,
      "Ġperformance": 2853,
      "Ġtrade": 2854,
      "ctions": 2855,
      "Ġemail": 2856,
      "ety": 2857,
      "Ġrace": 2858,
      "He": 2859,
      "ĠCaliforn": 2860,
      "ĠThursday": 2861,
      "Ġmethod": 2862,
      "Ġpage": 2863,
      "ps": 2864,
      "order": 2865,
      "Ġquickly": 2866,
      "mon": 2867,
      "Ġwebsite": 2868,
      "ĠSunday": 2869,
      "Ġeconomy": 2870,
      "oud": 2871,
      "Ġfather": 2872,
      "atory": 2873,
      "Ġpers": 2874,
      "Ġhon": 2875,
      "Ġtool": 2876,
      "Ġsecret": 2877,
      "Ġimprove": 2878,
      "Ġboy": 2879,
      "Ġround": 2880,
      "apt": 2881,
      "Ġvictim": 2882,
      "Ġlower": 2883,
      "Ġbuilt": 2884,
      "Ġthous": 2885,
      "ructure": 2886,
      "St": 2887,
      "Ġfre": 2888,
      "Ġallowed": 2889,
      "ĠCanada": 2890,
      "Ġwants": 2891,
      "Ġtext": 2892,
      "ĠBlack": 2893,
      "Ġtown": 2894,
      "Ġheard": 2895,
      "Ġloss": 2896,
      "Ġpoll": 2897,
      "Ġrepe": 2898,
      "rown": 2899,
      "ĠIS": 2900,
      "Ġdig": 2901,
      "Ġlegisl": 2902,
      "Ġ2008": 2903,
      "load": 2904,
      "chie": 2905,
      "Ġtravel": 2906,
      "Ġ+": 2907,
      "Ġenjoy": 2908,
      "Ġknew": 2909,
      "Ġincluded": 2910,
      "Ġpull": 2911,
      "Ġproduction": 2912,
      "oor": 2913,
      "Ġwide": 2914,
      "het": 2915,
      "ume": 2916,
      "avy": 2917,
      "ĠCalifornia": 2918,
      "Ġhop": 2919,
      "ĠThen": 2920,
      "ĠSenate": 2921,
      "Ġhands": 2922,
      "ĠInt": 2923,
      "estern": 2924,
      "ened": 2925,
      "Ġspent": 2926,
      "Ġbehav": 2927,
      "Ġ{": 2928,
      "ett": 2929,
      "orters": 2930,
      "ĠMark": 2931,
      "iction": 2932,
      "uses": 2933,
      "oo": 2934,
      "Ġboard": 2935,
      "Ġsepar": 2936,
      "Ġens": 2937,
      "Ġmovement": 2938,
      "Ġcover": 2939,
      "face": 2940,
      "Ġbi": 2941,
      "You": 2942,
      "Ġmatch": 2943,
      "gest": 2944,
      "Ġvisit": 2945,
      "force": 2946,
      "ĠRussian": 2947,
      "ences": 2948,
      "aily": 2949,
      "Ġgets": 2950,
      "Ġparticular": 2951,
      "Ġneigh": 2952,
      "ĠFin": 2953,
      "Ġattention": 2954,
      "Ġforces": 2955,
      "ĠUK": 2956,
      "Ġgrowth": 2957,
      "ze": 2958,
      "ĠPat": 2959,
      "ÂŃ": 2960,
      "ĠKore": 2961,
      "Ġtried": 2962,
      "de": 2963,
      "Ġperfect": 2964,
      "fl": 2965,
      "Ġfear": 2966,
      "Ġpopulation": 2967,
      "cies": 2968,
      "oph": 2969,
      "Ġbrought": 2970,
      "sequ": 2971,
      "Ġcause": 2972,
      "ceed": 2973,
      "anks": 2974,
      "cember": 2975,
      "][": 2976,
      "rect": 2977,
      "Ġbud": 2978,
      "Ġ23": 2979,
      "agement": 2980,
      "Ġvarious": 2981,
      "ĠPark": 2982,
      "ession": 2983,
      "ibly": 2984,
      "arily": 2985,
      "ĠFrom": 2986,
      "Ġreach": 2987,
      "Ġleader": 2988,
      "vil": 2989,
      "Ġlooks": 2990,
      "Ġvo": 2991,
      "raq": 2992,
      "down": 2993,
      "hic": 2994,
      "alled": 2995,
      "Ġfell": 2996,
      "Ġsett": 2997,
      "ĠIran": 2998,
      "ĠDonald": 2999,
      "yond": 3000,
      "Ġrules": 3001,
      "idents": 3002,
      "undred": 3003,
      "Ġmention": 3004,
      "idered": 3005,
      "Ġprevious": 3006,
      "hold": 3007,
      "Ġimage": 3008,
      "ening": 3009,
      "Ġfair": 3010,
      "Ġtraining": 3011,
      "field": 3012,
      "lin": 3013,
      "ĠPar": 3014,
      "Ġmorning": 3015,
      "Ġcitiz": 3016,
      "Ġmach": 3017,
      "ĠTex": 3018,
      "Ġcontact": 3019,
      "urd": 3020,
      "Ġprep": 3021,
      "cle": 3022,
      "ĠParty": 3023,
      "ledge": 3024,
      "ĠIndia": 3025,
      "!\"": 3026,
      "Wh": 3027,
      "Ġindepend": 3028,
      "ecause": 3029,
      "Ġprogress": 3030,
      "Ġexam": 3031,
      "raz": 3032,
      "Ġlink": 3033,
      "Ġdemand": 3034,
      "ĠDecember": 3035,
      "rim": 3036,
      "ĠKing": 3037,
      "ma": 3038,
      "aker": 3039,
      "Ġrac": 3040,
      "Ġess": 3041,
      "Ġlatest": 3042,
      "Ġstrugg": 3043,
      "elligence": 3044,
      "ĠIraq": 3045,
      "Ġsong": 3046,
      "Ġreb": 3047,
      "Ġhot": 3048,
      "Ġupon": 3049,
      "Ġliber": 3050,
      "ĠStreet": 3051,
      "ĠTimes": 3052,
      "ondon": 3053,
      "inks": 3054,
      "vent": 3055,
      "sych": 3056,
      "Ġaddition": 3057,
      "Ġtalking": 3058,
      "Ġhor": 3059,
      "ED": 3060,
      "40": 3061,
      "ges": 3062,
      "ification": 3063,
      "--------": 3064,
      "Ġsexual": 3065,
      "ĠMcC": 3066,
      "Ġsearch": 3067,
      "Ġcritic": 3068,
      "come": 3069,
      "Ġinvestigation": 3070,
      "imately": 3071,
      "ĠCons": 3072,
      "Ġconduct": 3073,
      "Ġ2009": 3074,
      "Ġconsidered": 3075,
      "ĠJew": 3076,
      "Ġmedical": 3077,
      "Ġfast": 3078,
      "iant": 3079,
      "ĠSatur": 3080,
      "Ġfeatures": 3081,
      "Ġsize": 3082,
      "aries": 3083,
      "ĠCenter": 3084,
      "Ġjobs": 3085,
      "Ġachie": 3086,
      "Ġsn": 3087,
      "iers": 3088,
      "Ġund": 3089,
      "ĠSand": 3090,
      "unk": 3091,
      "Ġparents": 3092,
      "Ġ...": 3093,
      "ĠUp": 3094,
      "Ġwond": 3095,
      "ĠChe": 3096,
      "asc": 3097,
      "ĠCounty": 3098,
      "ĠTur": 3099,
      "Ġdoll": 3100,
      "ĠNet": 3101,
      "Ġcoach": 3102,
      "uments": 3103,
      "Ġcard": 3104,
      "Ġslow": 3105,
      "Ġspeed": 3106,
      "Ġlevels": 3107,
      "Ġprior": 3108,
      "Ġlanguage": 3109,
      "ysis": 3110,
      "Ġpaper": 3111,
      "Ġincreasing": 3112,
      "igr": 3113,
      "bed": 3114,
      "Ġwritten": 3115,
      "Ġhear": 3116,
      "Ġpen": 3117,
      "ani": 3118,
      "pir": 3119,
      "ĠSoc": 3120,
      "Ġsort": 3121,
      "ĠPolice": 3122,
      "rast": 3123,
      "uf": 3124,
      "ament": 3125,
      "ĠGener": 3126,
      "ground": 3127,
      "Ġsafe": 3128,
      "Ġeffort": 3129,
      "ĠLab": 3130,
      "ĠRom": 3131,
      "ĠSaturday": 3132,
      "ny": 3133,
      "Ġspokes": 3134,
      "idge": 3135,
      "Ġprevent": 3136,
      "Ġseek": 3137,
      "ĠLondon": 3138,
      "Ġsystems": 3139,
      "Ġdraw": 3140,
      "Ġson": 3141,
      "ruary": 3142,
      "Ġclaims": 3143,
      "Ġextreme": 3144,
      "Ġserious": 3145,
      "ĠMuslim": 3146,
      "Ġeight": 3147,
      "uk": 3148,
      "Ġinn": 3149,
      "Ġplat": 3150,
      "Ġviolence": 3151,
      "room": 3152,
      "ĠLet": 3153,
      "Ġconserv": 3154,
      "Ġcompletely": 3155,
      "arth": 3156,
      "Ġbox": 3157,
      "ĠEast": 3158,
      "ĠOther": 3159,
      "Ġmajority": 3160,
      "Ġsurve": 3161,
      "Ġseven": 3162,
      "Ġlearn": 3163,
      "uit": 3164,
      "ico": 3165,
      "reedom": 3166,
      "ĠMor": 3167,
      "ĠSer": 3168,
      "Ġ28": 3169,
      "ĠJames": 3170,
      "Ġattacks": 3171,
      "bl": 3172,
      "ĠâĢ": 3173,
      "ĠMichael": 3174,
      "Ġsens": 3175,
      "99": 3176,
      "Ġgas": 3177,
      "ĠRead": 3178,
      "Ġrequired": 3179,
      "Ġscreen": 3180,
      "vertisement": 3181,
      "Ġregul": 3182,
      "Ġparticularly": 3183,
      "Ġjournal": 3184,
      "ining": 3185,
      "ishing": 3186,
      "Ġbott": 3187,
      "Ġconc": 3188,
      "ĠSim": 3189,
      "Ġscience": 3190,
      "Ġopportunity": 3191,
      "Ġsociety": 3192,
      "Ġdespite": 3193,
      "Ġbiggest": 3194,
      "Ġsurv": 3195,
      "IT": 3196,
      "Ġcross": 3197,
      "ĠCoun": 3198,
      "ĠFebruary": 3199,
      "AC": 3200,
      "Ġobv": 3201,
      "isions": 3202,
      "Ġrange": 3203,
      "anced": 3204,
      "Ġdoub": 3205,
      "Ġhistor": 3206,
      "ĠTH": 3207,
      "entially": 3208,
      "ĠMost": 3209,
      "Ġanswer": 3210,
      "Ġdocument": 3211,
      "aming": 3212,
      "Ġpractice": 3213,
      "oses": 3214,
      "Ġextra": 3215,
      "ĠBill": 3216,
      "Ġdefense": 3217,
      "If": 3218,
      "Ġexcept": 3219,
      "Ġremain": 3220,
      "Ġmessage": 3221,
      "Ġguy": 3222,
      "Ġexactly": 3223,
      "ĠRepublicans": 3224,
      "Ġnatural": 3225,
      "Ġcommunic": 3226,
      "ources": 3227,
      "rench": 3228,
      "erc": 3229,
      "Ġmodern": 3230,
      "Ġhundred": 3231,
      "Ġinteresting": 3232,
      "Ġcrim": 3233,
      "Ġsometimes": 3234,
      "Ġ27": 3235,
      "nces": 3236,
      "ĠâĢ¦": 3237,
      "Ġaren": 3238,
      "Ġ26": 3239,
      "Ġpaid": 3240,
      "ĠSince": 3241,
      "ibr": 3242,
      "Ġmiddle": 3243,
      "lying": 3244,
      "Ġexperien": 3245,
      "ĠPlay": 3246,
      "Ġcertainly": 3247,
      "Ġquarter": 3248,
      "hib": 3249,
      "OS": 3250,
      "Ġclimate": 3251,
      "uclear": 3252,
      "Ġblood": 3253,
      "Ġleading": 3254,
      "inese": 3255,
      "utions": 3256,
      "AL": 3257,
      "Ġcarry": 3258,
      "Ġdescribed": 3259,
      "light": 3260,
      "Ġsummer": 3261,
      "Ġfinally": 3262,
      "Ġrout": 3263,
      "ension": 3264,
      "There": 3265,
      "ĠDemocratic": 3266,
      "Ġtable": 3267,
      "Ġnamed": 3268,
      "ĠWhy": 3269,
      "ida": 3270,
      "Ġterm": 3271,
      "illed": 3272,
      "Ġlooked": 3273,
      "Ġquality": 3274,
      "ari": 3275,
      "Ġstories": 3276,
      "ha": 3277,
      "Ġstuff": 3278,
      "ĠMon": 3279,
      "Ġshowed": 3280,
      "OP": 3281,
      "Ġdemonst": 3282,
      "Ġult": 3283,
      "Ġremains": 3284,
      "Ġdro": 3285,
      "Ġoccur": 3286,
      "Ġimag": 3287,
      "akers": 3288,
      "ĠTexas": 3289,
      "ously": 3290,
      "Ġmovie": 3291,
      "ĠMany": 3292,
      "Ġones": 3293,
      "Ġeducation": 3294,
      "eth": 3295,
      "aves": 3296,
      "Ġchief": 3297,
      "Ġaw": 3298,
      "Ġpoor": 3299,
      "Ġconvers": 3300,
      "Ġprison": 3301,
      "eff": 3302,
      "Ġmob": 3303,
      "Ġstarting": 3304,
      "Ġprovided": 3305,
      "Ġregion": 3306,
      "uing": 3307,
      "Ġofficers": 3308,
      "IC": 3309,
      "icks": 3310,
      "Ġchanged": 3311,
      "ĠLast": 3312,
      "aught": 3313,
      "ago": 3314,
      "ĠDis": 3315,
      "Ġproducts": 3316,
      "200": 3317,
      "Ġcomments": 3318,
      "Ġlay": 3319,
      "Ġthinking": 3320,
      "Ġgrowing": 3321,
      "pper": 3322,
      "Ġdetails": 3323,
      "Ġpan": 3324,
      "Ġcosts": 3325,
      "ospital": 3326,
      "oul": 3327,
      "Ġcontinued": 3328,
      "atter": 3329,
      "Ġwriting": 3330,
      "ĠRec": 3331,
      "Ġstar": 3332,
      "Ġassist": 3333,
      "Ġgiving": 3334,
      "ĠEvery": 3335,
      "Ġdanger": 3336,
      "Ġmaintain": 3337,
      "enge": 3338,
      "Ġmill": 3339,
      "Ġefforts": 3340,
      "Ġparts": 3341,
      "Ġvoters": 3342,
      "Ġpurch": 3343,
      "inary": 3344,
      "ĠLeague": 3345,
      "Ġpurp": 3346,
      "ĠJack": 3347,
      "ĠChinese": 3348,
      "Ġuser": 3349,
      "Ġwouldn": 3350,
      "Ġmultiple": 3351,
      "Ġcalls": 3352,
      "Ġalone": 3353,
      "Ġpath": 3354,
      "ĠApple": 3355,
      "Ġsat": 3356,
      "Ġfix": 3357,
      "mp": 3358,
      "Ġculture": 3359,
      "ĠRich": 3360,
      "ables": 3361,
      "Ġdied": 3362,
      "anch": 3363,
      "Ġready": 3364,
      "fort": 3365,
      "Ġspeech": 3366,
      "ĠÐ": 3367,
      "Ġtowards": 3368,
      "ĠWilliam": 3369,
      "ĠMart": 3370,
      "Ġbeyond": 3371,
      "Ġincreased": 3372,
      "oper": 3373,
      "Ġperhaps": 3374,
      "ĠOver": 3375,
      "Ġalthough": 3376,
      "Ġwrite": 3377,
      "Ġreading": 3378,
      "Ġstudent": 3379,
      "Ġrequest": 3380,
      "ĠIndian": 3381,
      "ĠBo": 3382,
      "Ġkids": 3383,
      "Ġcele": 3384,
      "ĠAdd": 3385,
      "22": 3386,
      "Ġconcept": 3387,
      "arian": 3388,
      "set": 3389,
      "Ġstandard": 3390,
      "ĠGet": 3391,
      "ux": 3392,
      "Ġplatform": 3393,
      "Ġusually": 3394,
      "Ġscene": 3395,
      "Ġavoid": 3396,
      "Ġspot": 3397,
      "Ġcenter": 3398,
      "==": 3399,
      "Ġthroughout": 3400,
      "Ġconsist": 3401,
      "Ġhous": 3402,
      "Ġagency": 3403,
      "Ġdamage": 3404,
      "inated": 3405,
      "Ġdog": 3406,
      "Ġincludes": 3407,
      "aly": 3408,
      "Ġcorpor": 3409,
      "ĠDemocrats": 3410,
      "Ġreality": 3411,
      "ĠMinister": 3412,
      "ĠBel": 3413,
      "itute": 3414,
      "Ġil": 3415,
      "ban": 3416,
      "Ġimmediately": 3417,
      "Ġsubst": 3418,
      "Ġselect": 3419,
      "Ġdirectly": 3420,
      "omp": 3421,
      "icated": 3422,
      "Ġfootball": 3423,
      "Ġtur": 3424,
      "Ġguys": 3425,
      "Ġwife": 3426,
      "ĠOur": 3427,
      "Ġimplement": 3428,
      "Ġcouldn": 3429,
      "Ġeffects": 3430,
      "Ġchalleng": 3431,
      "zz": 3432,
      "Ġten": 3433,
      "Ġresearc": 3434,
      "Ġsle": 3435,
      "Ġclos": 3436,
      "coin": 3437,
      "ĠComp": 3438,
      "Ġcamer": 3439,
      "agon": 3440,
      "ilies": 3441,
      "ĠRober": 3442,
      "using": 3443,
      "Ġtro": 3444,
      "Ġsoftware": 3445,
      "Ġcomplex": 3446,
      "wise": 3447,
      "Ġrob": 3448,
      "Ġunf": 3449,
      "BI": 3450,
      "Ġadditional": 3451,
      "Ġ60": 3452,
      "ĠDay": 3453,
      "ford": 3454,
      "Ġpiece": 3455,
      "Ġsil": 3456,
      "isis": 3457,
      "ĠSuper": 3458,
      "Ġopin": 3459,
      "Ġsafety": 3460,
      "Ġgone": 3461,
      "Ġdesigned": 3462,
      "ĠWind": 3463,
      "itor": 3464,
      "Ġtoward": 3465,
      "Ġpressure": 3466,
      "Ġsell": 3467,
      "Ġrecomm": 3468,
      "Ġchoice": 3469,
      "Ġepis": 3470,
      "Ġrock": 3471,
      "hest": 3472,
      "Ġbrain": 3473,
      "omen": 3474,
      "mit": 3475,
      "ĠAssoci": 3476,
      "tr": 3477,
      "adem": 3478,
      "Ġver": 3479,
      "Ġrelative": 3480,
      "astic": 3481,
      "Ġfile": 3482,
      "chan": 3483,
      "Ġthousands": 3484,
      "rupt": 3485,
      "egr": 3486,
      "Ġofficer": 3487,
      "airs": 3488,
      "Ġfigure": 3489,
      "Ġremember": 3490,
      "Ġcast": 3491,
      "ara": 3492,
      "Ġorganization": 3493,
      "atever": 3494,
      "ĠServ": 3495,
      "ĠWell": 3496,
      "rowd": 3497,
      "icient": 3498,
      "Ġswe": 3499,
      "Ġmoved": 3500,
      "Ġblog": 3501,
      "Ġahead": 3502,
      "ĠII": 3503,
      "Ġcounter": 3504,
      "80": 3505,
      "Ġappears": 3506,
      "Ġscore": 3507,
      "ems": 3508,
      "Ġ}": 3509,
      "iment": 3510,
      "24": 3511,
      "iles": 3512,
      "ression": 3513,
      "Ġpassed": 3514,
      "aches": 3515,
      "Ġlaunch": 3516,
      "Ġpark": 3517,
      "Ġconditions": 3518,
      "ĠLike": 3519,
      "ĠEnglish": 3520,
      "Ġletter": 3521,
      "irth": 3522,
      "Ġnature": 3523,
      "bur": 3524,
      "Ġmeaning": 3525,
      "Ġdebate": 3526,
      "Ġstage": 3527,
      "****": 3528,
      "Ġprec": 3529,
      "olute": 3530,
      "imum": 3531,
      "Ġbeginning": 3532,
      "ĠAlthough": 3533,
      "Ġhelped": 3534,
      "Ġdeg": 3535,
      "Ġaim": 3536,
      ");": 3537,
      "Ġclean": 3538,
      "ĠVal": 3539,
      "ĠGovern": 3540,
      "Ġdisapp": 3541,
      "ĠHam": 3542,
      "Ġnom": 3543,
      "FL": 3544,
      "ports": 3545,
      "ĠFrench": 3546,
      "Ġalleged": 3547,
      "ĠBecause": 3548,
      "roy": 3549,
      "ĠGreen": 3550,
      "berg": 3551,
      "Ġreasons": 3552,
      "aughter": 3553,
      "Ġut": 3554,
      "Ġdate": 3555,
      "Ġreceive": 3556,
      "ocked": 3557,
      "Ġdrive": 3558,
      "Ġcomputer": 3559,
      "Ġdifference": 3560,
      "Ġtour": 3561,
      "US": 3562,
      "Ġproperty": 3563,
      "Ġdark": 3564,
      "Ġcentury": 3565,
      "Ġbudget": 3566,
      "ĠCr": 3567,
      "Ġnuclear": 3568,
      "ston": 3569,
      "Ġfailed": 3570,
      "Ġmoving": 3571,
      "itation": 3572,
      "Ġtouch": 3573,
      "ĠTor": 3574,
      "itness": 3575,
      "ĠBen": 3576,
      "Ġsuspect": 3577,
      "ivity": 3578,
      "aph": 3579,
      "ĠMex": 3580,
      "Ġschools": 3581,
      "Ġdevice": 3582,
      "men": 3583,
      "ampions": 3584,
      "Ġband": 3585,
      "Ġign": 3586,
      "ĠStar": 3587,
      "just": 3588,
      "Ġhappy": 3589,
      "Ġestim": 3590,
      "Ġencour": 3591,
      "craft": 3592,
      "ufact": 3593,
      "Ġpositive": 3594,
      "Ġcontribut": 3595,
      "Ġdisp": 3596,
      "Ġmyself": 3597,
      "Ġcharacters": 3598,
      "ĠSci": 3599,
      "Ġcitizens": 3600,
      "ĠCap": 3601,
      "Ġoption": 3602,
      "Ġlargest": 3603,
      "Ġreligious": 3604,
      "Ġcopy": 3605,
      "ĠAdvertisement": 3606,
      "Ġcompared": 3607,
      "Ġtwe": 3608,
      "Ġbal": 3609,
      "Ġwall": 3610,
      "Ġyes": 3611,
      "rief": 3612,
      "Ġbooks": 3613,
      "Ġmaybe": 3614,
      ",'": 3615,
      "ĠLa": 3616,
      "Ġ196": 3617,
      "ĠSyria": 3618,
      "Ġbattle": 3619,
      "ĠAir": 3620,
      "Ġrefer": 3621,
      "Ġnecessary": 3622,
      "Ġcollege": 3623,
      "Ġforced": 3624,
      "Ġfan": 3625,
      "Ġpowerful": 3626,
      "enty": 3627,
      "urt": 3628,
      "Ġshown": 3629,
      "Ġcandidate": 3630,
      "Ph": 3631,
      "Ġspending": 3632,
      "ĠEU": 3633,
      "Ġ29": 3634,
      "Ġlimited": 3635,
      "Ġtitle": 3636,
      "Ġexecutive": 3637,
      "Ġleague": 3638,
      "Ġtrust": 3639,
      "ĠInternational": 3640,
      "Ġanalysis": 3641,
      "yan": 3642,
      "Ġpresidential": 3643,
      "erve": 3644,
      "yl": 3645,
      "Ġfamilies": 3646,
      "Ġstra": 3647,
      "Ġsche": 3648,
      "ĠSmith": 3649,
      "Ġsubs": 3650,
      "Ġaware": 3651,
      "Ġarch": 3652,
      "Ġeyes": 3653,
      "ĠGeorge": 3654,
      "Ġconference": 3655,
      "ander": 3656,
      "ĠDef": 3657,
      "Ġeventually": 3658,
      "aling": 3659,
      "ĠGermany": 3660,
      "ĠAustralia": 3661,
      "ĠFlor": 3662,
      "ĠUnion": 3663,
      "ĠImage": 3664,
      "cul": 3665,
      "wood": 3666,
      "ĠPeople": 3667,
      "ĠTom": 3668,
      "ĠJer": 3669,
      "Ġilleg": 3670,
      "ĠBer": 3671,
      "Ġ>": 3672,
      "Ġfirm": 3673,
      "more": 3674,
      "Ġgrad": 3675,
      "igration": 3676,
      "ĠHigh": 3677,
      "add": 3678,
      "Ġnote": 3679,
      "Ġfollowed": 3680,
      "ĠAnt": 3681,
      "orks": 3682,
      "Ġphysical": 3683,
      "Ġmeant": 3684,
      "EC": 3685,
      "encies": 3686,
      "iable": 3687,
      "ĠDuring": 3688,
      "They": 3689,
      "Ġstreng": 3690,
      "Ġsal": 3691,
      "ĠReg": 3692,
      "venue": 3693,
      "Ġconfir": 3694,
      "ĠTod": 3695,
      "Ġanaly": 3696,
      "ressed": 3697,
      "ĠGeneral": 3698,
      "ãģ": 3699,
      "aint": 3700,
      "Ġpus": 3701,
      "Ġesc": 3702,
      "osh": 3703,
      "Ġcool": 3704,
      "Ġpsych": 3705,
      "Ġactions": 3706,
      "Ġsusp": 3707,
      "Ġconflic": 3708,
      "ĠSchool": 3709,
      "Ġcat": 3710,
      "orney": 3711,
      "Ġthrow": 3712,
      "rated": 3713,
      "Ġsigned": 3714,
      "ĠChristian": 3715,
      "Ġpromot": 3716,
      "ĠCouncil": 3717,
      "Ġideas": 3718,
      "Ġmix": 3719,
      "ĠTrans": 3720,
      "Ġdecades": 3721,
      "ares": 3722,
      "Ġgives": 3723,
      "iring": 3724,
      "Ġfeature": 3725,
      "Ġeasily": 3726,
      "Ġdetail": 3727,
      "Ġautom": 3728,
      "ĠArab": 3729,
      "ĠFranc": 3730,
      "ero": 3731,
      "Ġappeared": 3732,
      "Ġcrisis": 3733,
      "Ġpolitics": 3734,
      "Ġallows": 3735,
      "Ġtreatment": 3736,
      "Ġsmart": 3737,
      "Ġweapons": 3738,
      "iance": 3739,
      "ĠAngel": 3740,
      "Ġdise": 3741,
      "ĠRob": 3742,
      "lease": 3743,
      "Ġhar": 3744,
      "Ġdisplay": 3745,
      "Ġang": 3746,
      "Ġfrequ": 3747,
      "Ġcrime": 3748,
      "Ġcentral": 3749,
      "Ġcrowd": 3750,
      "Ġoverall": 3751,
      "Ġreform": 3752,
      "IA": 3753,
      "Ġnoted": 3754,
      "Ġdoor": 3755,
      "Ġaltern": 3756,
      "lements": 3757,
      "Ġsenior": 3758,
      "ĠBrown": 3759,
      "23": 3760,
      "Ġcredit": 3761,
      "Ġunique": 3762,
      "Ġrap": 3763,
      "Ġincome": 3764,
      "ĠBu": 3765,
      "ĠMac": 3766,
      "ĠMet": 3767,
      "Ġfeed": 3768,
      "Ġdraft": 3769,
      "Ġyourself": 3770,
      "Ġdeveloped": 3771,
      "IL": 3772,
      "Ġintelligence": 3773,
      "ĠHillary": 3774,
      "ĠBre": 3775,
      "ĠScott": 3776,
      "Ġrule": 3777,
      "Ġprograms": 3778,
      "ken": 3779,
      "Ġmeasure": 3780,
      "Ġtruth": 3781,
      "Ġindividuals": 3782,
      "Ġprojects": 3783,
      "oti": 3784,
      "ĠArt": 3785,
      "Ġlif": 3786,
      "ext": 3787,
      "ĠOh": 3788,
      "board": 3789,
      "Ġx": 3790,
      "Ġdrop": 3791,
      "Ġclearly": 3792,
      "Ġchallenge": 3793,
      "urance": 3794,
      "Ġcontinues": 3795,
      "band": 3796,
      "ĠLaw": 3797,
      "vin": 3798,
      "ĠâĢ¢": 3799,
      "ĠAlex": 3800,
      "uty": 3801,
      "Ġbeaut": 3802,
      "ĠÂ£": 3803,
      "Ġrelated": 3804,
      "Ġpreviously": 3805,
      "nown": 3806,
      "Ġadvant": 3807,
      "Ġuses": 3808,
      "ĠFollow": 3809,
      "Ġgoals": 3810,
      "Ġapparent": 3811,
      "OT": 3812,
      "Ġbenefits": 3813,
      "Ġrates": 3814,
      "bum": 3815,
      "Ġmist": 3816,
      "aud": 3817,
      "onents": 3818,
      "Ġpredict": 3819,
      "ĠInternet": 3820,
      "ĠMag": 3821,
      "ado": 3822,
      "ville": 3823,
      "Ġemb": 3824,
      "ĠChic": 3825,
      "Ġfavorite": 3826,
      "Ġmanager": 3827,
      "Ġcharge": 3828,
      "Ġ2007": 3829,
      "Ġsuccessful": 3830,
      "itely": 3831,
      "Ġlarger": 3832,
      "oles": 3833,
      "ĠAM": 3834,
      "Ġnice": 3835,
      "Ġcriminal": 3836,
      "Ġhighly": 3837,
      "Ġsto": 3838,
      "Ġpeace": 3839,
      "Ġknowledge": 3840,
      "ĠFlorida": 3841,
      "Ġprimary": 3842,
      "Ġprem": 3843,
      "Ġcorrect": 3844,
      "Ġexpand": 3845,
      "levision": 3846,
      "Ġlic": 3847,
      "Ġattract": 3848,
      "ĠGold": 3849,
      "ĠAnother": 3850,
      "ĠEarth": 3851,
      "Ġmanufact": 3852,
      "ĠAlso": 3853,
      "Ġfully": 3854,
      "Ġminor": 3855,
      "Ġstraight": 3856,
      "Ġsales": 3857,
      "secut": 3858,
      "Ġgreater": 3859,
      "Ġarm": 3860,
      "ource": 3861,
      "antly": 3862,
      "Ġlines": 3863,
      "Ġseemed": 3864,
      "AM": 3865,
      "Ġbrother": 3866,
      "mar": 3867,
      "dom": 3868,
      "resh": 3869,
      "Ġreached": 3870,
      "Ġspread": 3871,
      "ounds": 3872,
      "rol": 3873,
      "ĠTwo": 3874,
      "orter": 3875,
      "Ġtraff": 3876,
      "pre": 3877,
      "ĠMo": 3878,
      "ki": 3879,
      "Ġincident": 3880,
      "owers": 3881,
      "tt": 3882,
      "Ġrare": 3883,
      "Ġcustomers": 3884,
      "ota": 3885,
      "Ġkept": 3886,
      "dd": 3887,
      "Ġplaces": 3888,
      "ĠStud": 3889,
      "Ġstatus": 3890,
      "ID": 3891,
      "Ġclaimed": 3892,
      "Ġresources": 3893,
      "Ġfeet": 3894,
      "amb": 3895,
      "Ġuns": 3896,
      "usion": 3897,
      "Ġweb": 3898,
      "AP": 3899,
      "ategy": 3900,
      "ev": 3901,
      "riage": 3902,
      "ĠSun": 3903,
      "Ġspir": 3904,
      "Ġfighting": 3905,
      "box": 3906,
      "Ġlaun": 3907,
      "change": 3908,
      "ĠChicago": 3909,
      "Ġcities": 3910,
      "Ġowners": 3911,
      "ĠYes": 3912,
      "Ġrise": 3913,
      "Ġsave": 3914,
      "wide": 3915,
      "iders": 3916,
      "iny": 3917,
      "Ġcaused": 3918,
      "Ġemot": 3919,
      "part": 3920,
      "while": 3921,
      "itz": 3922,
      "icit": 3923,
      "Ġreflect": 3924,
      "iced": 3925,
      "Ġknows": 3926,
      "Ġliter": 3927,
      "ingly": 3928,
      "uana": 3929,
      "45": 3930,
      "sey": 3931,
      "uman": 3932,
      "ocr": 3933,
      "Ġsources": 3934,
      "term": 3935,
      "oes": 3936,
      "Ġregular": 3937,
      "Ġorganiz": 3938,
      "Ġsend": 3939,
      "35": 3940,
      "Ġfemale": 3941,
      "Ġorigin": 3942,
      "Ġcolor": 3943,
      "ĠPre": 3944,
      "EO": 3945,
      "ube": 3946,
      "ĠEngland": 3947,
      "Ġpolicies": 3948,
      "ocks": 3949,
      "Ġspend": 3950,
      "EL": 3951,
      "Ġvoice": 3952,
      "Ġtrou": 3953,
      "Ġpros": 3954,
      "ĠAP": 3955,
      "Ġshooting": 3956,
      "Ġprices": 3957,
      "Ġfine": 3958,
      "Ġstudies": 3959,
      "Ġnormal": 3960,
      "olic": 3961,
      "Ġactivity": 3962,
      "Ġminister": 3963,
      "Ġemployees": 3964,
      "Ġresearchers": 3965,
      "Ġmechan": 3966,
      "Ġcalling": 3967,
      "ĠMicro": 3968,
      "ET": 3969,
      "Ġpun": 3970,
      "rs": 3971,
      "ĠYour": 3972,
      "ifying": 3973,
      "Ġconcerns": 3974,
      "vere": 3975,
      "Ġplant": 3976,
      "EM": 3977,
      "bon": 3978,
      "Ġfunding": 3979,
      "ĠMatt": 3980,
      "ribution": 3981,
      "aith": 3982,
      "27": 3983,
      "Ġhappens": 3984,
      "Ġraised": 3985,
      "roll": 3986,
      "Ġended": 3987,
      "Ġfreedom": 3988,
      "ijuana": 3989,
      "onent": 3990,
      "ĠPhil": 3991,
      "Ġtraditional": 3992,
      "Ġsupposed": 3993,
      "OM": 3994,
      "iled": 3995,
      "ĠBush": 3996,
      "Ġintegr": 3997,
      "ĠMod": 3998,
      "Ġshut": 3999,
      "Ġnames": 4000,
      "Ġhaven": 4001,
      "Ġadding": 4002,
      "Ġacqu": 4003,
      "ĠBay": 4004,
      "ya": 4005,
      "Ġabsolute": 4006,
      "Ġbasic": 4007,
      "Ġenem": 4008,
      "Ġauthorities": 4009,
      "ipp": 4010,
      "Ġir": 4011,
      "):": 4012,
      "As": 4013,
      "ĠRel": 4014,
      "etic": 4015,
      "Ġbeat": 4016,
      "iverse": 4017,
      "ĠLou": 4018,
      "see": 4019,
      "Ġvirt": 4020,
      "Ġborn": 4021,
      "Ġalbum": 4022,
      "que": 4023,
      "inger": 4024,
      "Ġslight": 4025,
      "Ġbehavior": 4026,
      "Ġoptions": 4027,
      "Ġleaving": 4028,
      "ĠPort": 4029,
      "Ġposted": 4030,
      "Ġcreating": 4031,
      "Ġpropos": 4032,
      "Ġimpl": 4033,
      "Ġensure": 4034,
      "sp": 4035,
      "Ġhospital": 4036,
      "Ġappl": 4037,
      "ĠSam": 4038,
      "ĠHealth": 4039,
      "ĠOp": 4040,
      "soft": 4041,
      "Ġseeing": 4042,
      "Ġagreement": 4043,
      "Ġlik": 4044,
      "Ġstation": 4045,
      "ĠPress": 4046,
      "ĠMike": 4047,
      "Ġpatients": 4048,
      "Ġcharges": 4049,
      "Ġobser": 4050,
      "Ġoffered": 4051,
      "ipped": 4052,
      "Ġjump": 4053,
      "Ð¾": 4054,
      "Ġwilling": 4055,
      "Ġbeg": 4056,
      "Ġcommer": 4057,
      "Ġgrand": 4058,
      "Ġeth": 4059,
      "ĠSecret": 4060,
      "Ġadult": 4061,
      "26": 4062,
      "Ġwait": 4063,
      "Ġbirth": 4064,
      "ĠSecurity": 4065,
      "Ġcommit": 4066,
      "Ġpush": 4067,
      "ĠPalest": 4068,
      "roid": 4069,
      "Ġadop": 4070,
      "Ġcry": 4071,
      "Ġscen": 4072,
      "ĠAtt": 4073,
      "ĠMil": 4074,
      "gen": 4075,
      "Ġparties": 4076,
      "Ġrevealed": 4077,
      "ĠSub": 4078,
      "ĠOnce": 4079,
      "Ġdetermin": 4080,
      "ength": 4081,
      "Ġactual": 4082,
      "Ġvac": 4083,
      "Ġbelieved": 4084,
      "Ġdevices": 4085,
      "itude": 4086,
      "Ġperm": 4087,
      "Ġmer": 4088,
      "ica": 4089,
      "pri": 4090,
      "lick": 4091,
      "Ġgreen": 4092,
      "SA": 4093,
      "ĠInstead": 4094,
      "ĠTer": 4095,
      "ona": 4096,
      "ĠStep": 4097,
      "ĠPri": 4098,
      "ĠSl": 4099,
      "ĠFrancis": 4100,
      "ĠFrance": 4101,
      "Ġmostly": 4102,
      "Ġrecords": 4103,
      "ection": 4104,
      "Ġinfluence": 4105,
      "Ġdebt": 4106,
      "Ġpicture": 4107,
      "Ġweight": 4108,
      "Ġwhatever": 4109,
      "Ġenforce": 4110,
      "Ġnegoti": 4111,
      "Ġren": 4112,
      "acing": 4113,
      "istry": 4114,
      "ĠDel": 4115,
      "ĠLiber": 4116,
      "Ġmount": 4117,
      "Ġestablish": 4118,
      "Ġapplication": 4119,
      "Ġmission": 4120,
      "ĠPhoto": 4121,
      "Ġwild": 4122,
      "arliam": 4123,
      "Ġstrategy": 4124,
      "ĠInc": 4125,
      "Ġlearned": 4126,
      "Ġdire": 4127,
      "Ġrank": 4128,
      "Ġjudge": 4129,
      "Ġweekend": 4130,
      "cher": 4131,
      "Ġtemper": 4132,
      "ĠWindows": 4133,
      "Ġasking": 4134,
      "Ġchoose": 4135,
      "earch": 4136,
      "Ġmassive": 4137,
      "Ġqual": 4138,
      "ĠWall": 4139,
      "Ġwhom": 4140,
      "Ġbrief": 4141,
      "Ġprovides": 4142,
      "ĠCommission": 4143,
      "Ġeye": 4144,
      "Ġteac": 4145,
      "Ġvalues": 4146,
      "ĠBit": 4147,
      "ING": 4148,
      "Ġassault": 4149,
      "Ġfeeling": 4150,
      "ront": 4151,
      "Ġ(@": 4152,
      "Ġunc": 4153,
      "Ġcars": 4154,
      "aby": 4155,
      "ĠCommittee": 4156,
      "Ġarrested": 4157,
      "ĠSanders": 4158,
      "ĠPM": 4159,
      "igned": 4160,
      "ĠUnder": 4161,
      "Ġlawy": 4162,
      "Ġwat": 4163,
      "ented": 4164,
      "Ġshowing": 4165,
      "Ġresidents": 4166,
      "mark": 4167,
      "orial": 4168,
      "29": 4169,
      "Ġproduced": 4170,
      "Ġenter": 4171,
      "Ġconfirmed": 4172,
      "Ġoperations": 4173,
      "ĠAre": 4174,
      "ĠWestern": 4175,
      "Ġwonder": 4176,
      "arliament": 4177,
      "alse": 4178,
      "estic": 4179,
      "ste": 4180,
      "Ġcru": 4181,
      "cell": 4182,
      "Ġinstall": 4183,
      "Ġcelebr": 4184,
      "',": 4185,
      "Ġresponsible": 4186,
      "Ġprint": 4187,
      "Ġfat": 4188,
      "Ġstreet": 4189,
      "ords": 4190,
      "Ġborder": 4191,
      "rian": 4192,
      "Ġlose": 4193,
      "ĠMal": 4194,
      "ĠKorea": 4195,
      "28": 4196,
      "Ġstyle": 4197,
      "Ġgold": 4198,
      "Ġcritical": 4199,
      "ĠJustice": 4200,
      "ĠGreat": 4201,
      "ĠVir": 4202,
      "100": 4203,
      "Ġtend": 4204,
      "ram": 4205,
      "Ġindependent": 4206,
      "ĠBig": 4207,
      "Ġadvoc": 4208,
      "ĠFound": 4209,
      "Ġpattern": 4210,
      "Ġagreed": 4211,
      "Ġlearning": 4212,
      "Ġproduce": 4213,
      "Ġopposition": 4214,
      "Ġcore": 4215,
      "Ġtelevision": 4216,
      "Ġdefend": 4217,
      "Ġdistrict": 4218,
      "Ġoffers": 4219,
      "Ġruns": 4220,
      "70": 4221,
      "ograph": 4222,
      "Ġimages": 4223,
      "ĠThose": 4224,
      "Ġ35": 4225,
      "ĠJohnson": 4226,
      "Ġsection": 4227,
      "ĠOffice": 4228,
      "Ġbenefit": 4229,
      "Ġvill": 4230,
      "ription": 4231,
      "Ġeffective": 4232,
      "Ġdream": 4233,
      "abor": 4234,
      "Ġbasis": 4235,
      "Ġchem": 4236,
      "Ġproposed": 4237,
      "iation": 4238,
      "Ġdollars": 4239,
      "cript": 4240,
      "Ġworse": 4241,
      "mine": 4242,
      "Ġbrand": 4243,
      "But": 4244,
      "aked": 4245,
      "Ġdrink": 4246,
      "inn": 4247,
      "Ġopening": 4248,
      "icians": 4249,
      "rav": 4250,
      "Ġrestrict": 4251,
      "ĠIslamic": 4252,
      "Ġpartners": 4253,
      "point": 4254,
      "Ġinterested": 4255,
      "Ġreject": 4256,
      "21": 4257,
      "icial": 4258,
      "Ġetc": 4259,
      "Ġreplace": 4260,
      "Ġdigital": 4261,
      "Ġassociated": 4262,
      "Ġtypes": 4263,
      "Ġmemory": 4264,
      "ris": 4265,
      "Ġtheory": 4266,
      "Ġhero": 4267,
      "Ġhighest": 4268,
      "ĠUs": 4269,
      "hicle": 4270,
      "ĠChris": 4271,
      "Ġcoal": 4272,
      "Ġ2006": 4273,
      "Ġoccas": 4274,
      "ties": 4275,
      "Ġmillions": 4276,
      "Ġtrial": 4277,
      "rial": 4278,
      "uries": 4279,
      "Ġgenerally": 4280,
      "Ġinvestment": 4281,
      "Ġmachine": 4282,
      "Ġexplained": 4283,
      "ĠGame": 4284,
      "Ġbecomes": 4285,
      "Ġdaily": 4286,
      "ĠMad": 4287,
      "ĠUk": 4288,
      "gency": 4289,
      "What": 4290,
      "Ġchair": 4291,
      "Ġmur": 4292,
      "Ġcontrovers": 4293,
      "Ġopinion": 4294,
      "500": 4295,
      "Ġadvantage": 4296,
      "ĠFox": 4297,
      "Ġmap": 4298,
      "Ġheavy": 4299,
      "illing": 4300,
      "ĠAny": 4301,
      "aks": 4302,
      "Ġfit": 4303,
      "Ġ80": 4304,
      "ĠHall": 4305,
      "ĠDirect": 4306,
      "ĠCommun": 4307,
      "ags": 4308,
      "AA": 4309,
      "Ġtrain": 4310,
      "ugg": 4311,
      "oly": 4312,
      "Ġunlike": 4313,
      "Ġsurround": 4314,
      "ĠMicrosoft": 4315,
      "Ġship": 4316,
      "Ġtick": 4317,
      "Ġjoin": 4318,
      "Ġdefe": 4319,
      "ĠAc": 4320,
      "ĠBur": 4321,
      "Ġsleep": 4322,
      "Ġcommand": 4323,
      "ĠCup": 4324,
      "Ġdestroy": 4325,
      "ĠWil": 4326,
      "Ġder": 4327,
      "ĠDist": 4328,
      "olf": 4329,
      "That": 4330,
      "Ġmarijuana": 4331,
      "Ġopened": 4332,
      "Ġsolution": 4333,
      "ĠMer": 4334,
      "ĠToday": 4335,
      "Ġmiles": 4336,
      "Ġ31": 4337,
      "ĠSee": 4338,
      "ĠRobert": 4339,
      "ĠJud": 4340,
      "rate": 4341,
      "ĠFBI": 4342,
      "CC": 4343,
      "Ġunderstanding": 4344,
      "Ġonto": 4345,
      "Ġhundreds": 4346,
      "ipe": 4347,
      "no": 4348,
      "Ġharm": 4349,
      "icip": 4350,
      "Ġachieve": 4351,
      "ĠPet": 4352,
      "Ġprotest": 4353,
      "Ġlegislation": 4354,
      "Ġannounce": 4355,
      "Ch": 4356,
      "Ġstrik": 4357,
      "ga": 4358,
      "Ġmale": 4359,
      "Ġresist": 4360,
      "Ġaccused": 4361,
      "ĠBoth": 4362,
      "ĠBritain": 4363,
      "Ġbecoming": 4364,
      "Ġlimit": 4365,
      "vest": 4366,
      "Ġillegal": 4367,
      "orthern": 4368,
      "ĠTy": 4369,
      "Ġeasier": 4370,
      "Ġcondition": 4371,
      "ĠUN": 4372,
      "coming": 4373,
      "ĠDespite": 4374,
      "Ġserved": 4375,
      "Ġcommunities": 4376,
      "known": 4377,
      "Ġlocation": 4378,
      "ghan": 4379,
      "eline": 4380,
      "ĠOut": 4381,
      "ĠThom": 4382,
      "outhern": 4383,
      "ĠJones": 4384,
      "Ġwealth": 4385,
      "33": 4386,
      "Ġframe": 4387,
      "Ġinitial": 4388,
      "Ġaudience": 4389,
      "Ġthus": 4390,
      "za": 4391,
      "Ġassum": 4392,
      "Ġphoto": 4393,
      "Ġscientists": 4394,
      "ĠMiss": 4395,
      "Ġprofessional": 4396,
      "Ġobtain": 4397,
      "Ġmobile": 4398,
      "Ġbelief": 4399,
      "Ġnine": 4400,
      "ĠCle": 4401,
      "lished": 4402,
      "Ġserve": 4403,
      "0000": 4404,
      "Ġge": 4405,
      "Ġviews": 4406,
      "Ġdocuments": 4407,
      "Ġkick": 4408,
      "Ġvictory": 4409,
      "ios": 4410,
      "Ġbottom": 4411,
      "Ġspl": 4412,
      "azing": 4413,
      "Ġmarriage": 4414,
      "Ġextremely": 4415,
      "ĠCanadian": 4416,
      "GB": 4417,
      "Ġbomb": 4418,
      "ĠTre": 4419,
      "Ġvictims": 4420,
      "oom": 4421,
      "ĠInstitute": 4422,
      "Ġreduce": 4423,
      "ĠLeg": 4424,
      "90": 4425,
      "ference": 4426,
      "Ġbed": 4427,
      "Ġnegative": 4428,
      "Ġdouble": 4429,
      "Ġcomfort": 4430,
      "Ġelectric": 4431,
      "Ġneighbor": 4432,
      "istics": 4433,
      "Ġvs": 4434,
      "Ġmanagement": 4435,
      "Ġpurpose": 4436,
      "RE": 4437,
      "ĠIsraeli": 4438,
      "orrow": 4439,
      "Ġteach": 4440,
      "Ġamb": 4441,
      "Ġnovel": 4442,
      "Ġspecies": 4443,
      "ĠDet": 4444,
      "Ġleadership": 4445,
      "Ġshared": 4446,
      "ĠNFL": 4447,
      "ĠCarol": 4448,
      "lands": 4449,
      "Ġsuggested": 4450,
      "Ġcoverage": 4451,
      "Ġincred": 4452,
      "Ġepisode": 4453,
      "Ġwinning": 4454,
      "Ġexisting": 4455,
      "inct": 4456,
      "Ġpurs": 4457,
      "Ġseparate": 4458,
      "ĠBank": 4459,
      "ears": 4460,
      "Ġargument": 4461,
      "Ġrat": 4462,
      "ĠYet": 4463,
      "Ġice": 4464,
      "Ġdism": 4465,
      "ĠPak": 4466,
      "Ġsolid": 4467,
      "Ġexplain": 4468,
      "Ġdoubt": 4469,
      "Ġpet": 4470,
      "well": 4471,
      "Ġactive": 4472,
      "ĠVer": 4473,
      "Ġ90": 4474,
      "FC": 4475,
      "Ġinternet": 4476,
      "iller": 4477,
      "ĠTheir": 4478,
      "iful": 4479,
      "Ġran": 4480,
      "Ġputting": 4481,
      "Ġdrugs": 4482,
      "Ġhearing": 4483,
      "Ġwatching": 4484,
      "ĠLos": 4485,
      "Ġconservative": 4486,
      "ortunately": 4487,
      "Ġdecade": 4488,
      "OU": 4489,
      "ography": 4490,
      "Ġdie": 4491,
      "Ġtransfer": 4492,
      "Ġtrend": 4493,
      "Ġnotice": 4494,
      "Ġlaunched": 4495,
      "And": 4496,
      "anted": 4497,
      "Ġload": 4498,
      "Ġdepartment": 4499,
      "AD": 4500,
      "Ġfaith": 4501,
      "atically": 4502,
      "Ġnorth": 4503,
      "ĠÃ": 4504,
      "works": 4505,
      "Ġvehicle": 4506,
      "Ġcompetition": 4507,
      "Ġcamera": 4508,
      "Ġrefere": 4509,
      "Ġanimals": 4510,
      "Ġsites": 4511,
      "ĠInter": 4512,
      "iliar": 4513,
      "inate": 4514,
      "equ": 4515,
      "ĠQue": 4516,
      "ĠJim": 4517,
      "Ġstated": 4518,
      "Ġdirection": 4519,
      "hi": 4520,
      "ĠProf": 4521,
      "Ġdefinitely": 4522,
      "rad": 4523,
      "Ġradio": 4524,
      "Ġdiscovered": 4525,
      "acity": 4526,
      "house": 4527,
      "Ġcommittee": 4528,
      "ĠSil": 4529,
      "Ġissued": 4530,
      "Ġchurch": 4531,
      "Ġrepeated": 4532,
      "Ġreturned": 4533,
      "ĠKen": 4534,
      "vention": 4535,
      "Ġnotes": 4536,
      "Ġsupporters": 4537,
      "ĠFore": 4538,
      "ĠUkrain": 4539,
      "bert": 4540,
      "Ġnor": 4541,
      "semb": 4542,
      "Ġdangerous": 4543,
      "odes": 4544,
      "Ġrestaur": 4545,
      "Ġspoke": 4546,
      "ait": 4547,
      "zen": 4548,
      "ĠPlease": 4549,
      "going": 4550,
      "Ġfarm": 4551,
      "Ġfresh": 4552,
      "BA": 4553,
      "Ġfloor": 4554,
      "Ġabuse": 4555,
      "Ġcharged": 4556,
      "Ġsupported": 4557,
      "ĠChar": 4558,
      "Ġhack": 4559,
      "Ġclosed": 4560,
      "ĠGood": 4561,
      "bing": 4562,
      "which": 4563,
      "ĠConst": 4564,
      "Ġmax": 4565,
      "Ðµ": 4566,
      "Ġinstance": 4567,
      "asy": 4568,
      "Ġconcerned": 4569,
      "ĠJeff": 4570,
      "ĠTHE": 4571,
      "ĠGree": 4572,
      "Ġsun": 4573,
      "Ġcash": 4574,
      "ĠRyan": 4575,
      "ĠAfghan": 4576,
      "Ġaspect": 4577,
      "ĠWho": 4578,
      "Ġtraffic": 4579,
      "ĠVirgin": 4580,
      "Ġcommercial": 4581,
      "Ġsmaller": 4582,
      "ctors": 4583,
      "Ġdisease": 4584,
      "ici": 4585,
      "Ġexerc": 4586,
      "ĠAtl": 4587,
      "how": 4588,
      "ĠFrank": 4589,
      "Ġfalse": 4590,
      "ĠPC": 4591,
      "Ġbusinesses": 4592,
      "overy": 4593,
      "Ġstructure": 4594,
      "Ġ70": 4595,
      "ĠPakistan": 4596,
      "Ġtelling": 4597,
      "Ġrequires": 4598,
      "andon": 4599,
      "Ġdriving": 4600,
      "resp": 4601,
      "BS": 4602,
      "Ġfinding": 4603,
      "ulf": 4604,
      "icy": 4605,
      "la": 4606,
      "agn": 4607,
      "ĠTim": 4608,
      "ĠPalestin": 4609,
      "Ġlabor": 4610,
      "Ġ2018": 4611,
      "ĠKh": 4612,
      "44": 4613,
      "LIN": 4614,
      "Ġaccur": 4615,
      "Ġentirely": 4616,
      "Ġannual": 4617,
      "ulated": 4618,
      "Ġworst": 4619,
      "Ġsurface": 4620,
      "Ġded": 4621,
      "ĠRichard": 4622,
      "ario": 4623,
      "Ġwel": 4624,
      "Ġinsurance": 4625,
      "ĠSur": 4626,
      "NN": 4627,
      "Ġdaughter": 4628,
      "Ġbelieves": 4629,
      "Ġconcern": 4630,
      "ĠSup": 4631,
      "ĠCur": 4632,
      "gers": 4633,
      "Ġcards": 4634,
      "Ġcompar": 4635,
      "Ġ2005": 4636,
      "Ġcandidates": 4637,
      "oman": 4638,
      "Ġdriver": 4639,
      "Ġstock": 4640,
      "iest": 4641,
      "Ġactivities": 4642,
      "Ġcaught": 4643,
      "oyal": 4644,
      "phone": 4645,
      "ocracy": 4646,
      "Ġtransport": 4647,
      "NA": 4648,
      "ih": 4649,
      "Ġjustice": 4650,
      "Ġplays": 4651,
      "ossible": 4652,
      "Ð°": 4653,
      "Ġcontain": 4654,
      "ĠChurch": 4655,
      "ĠGOP": 4656,
      "Ġbackground": 4657,
      "Ġconsequ": 4658,
      "ĠLouis": 4659,
      "ampionship": 4660,
      "Ġstrateg": 4661,
      "Ġolder": 4662,
      "cknow": 4663,
      "Ġhus": 4664,
      "izes": 4665,
      "Ġreact": 4666,
      "iling": 4667,
      "ĠDec": 4668,
      "Ġtesting": 4669,
      "ĠMartin": 4670,
      "Ġallowing": 4671,
      "Ġlargely": 4672,
      "Ġitems": 4673,
      "igrants": 4674,
      "Ġblue": 4675,
      "ĠGovernment": 4676,
      "andom": 4677,
      "tered": 4678,
      "Ġcateg": 4679,
      "Ġconflict": 4680,
      "ancy": 4681,
      "Ġstrength": 4682,
      "itable": 4683,
      "Ġtools": 4684,
      "anta": 4685,
      "Ġmurder": 4686,
      "Ġafford": 4687,
      "hem": 4688,
      "Ġdecisions": 4689,
      "Ġgeneration": 4690,
      "________": 4691,
      "ĠAfrican": 4692,
      "Ġfuel": 4693,
      "udd": 4694,
      "Ġrefuge": 4695,
      "ĠJo": 4696,
      "Ġiniti": 4697,
      "ĠMexico": 4698,
      "ius": 4699,
      "ĠAndroid": 4700,
      "Ġinterests": 4701,
      "Ġconstruction": 4702,
      "ĠAssociation": 4703,
      "Ġraise": 4704,
      "Ġplaced": 4705,
      "anging": 4706,
      "Ġtask": 4707,
      "Ġattend": 4708,
      "Ġestablished": 4709,
      "Ġsports": 4710,
      "Ġ;": 4711,
      "ĠJapanese": 4712,
      "ĠSal": 4713,
      "Ġgay": 4714,
      "Ġtruly": 4715,
      "Ġscale": 4716,
      "ribute": 4717,
      "arant": 4718,
      "ĠNor": 4719,
      "Ġsud": 4720,
      "Ġoccup": 4721,
      "isation": 4722,
      "Ġplanning": 4723,
      "Ġhasn": 4724,
      "ĠJewish": 4725,
      "rey": 4726,
      "Ġpresence": 4727,
      "Ġguess": 4728,
      "ĠBack": 4729,
      "ĠEv": 4730,
      "ĠHoll": 4731,
      "ception": 4732,
      "annel": 4733,
      "Ġkid": 4734,
      "ae": 4735,
      "Ġwitness": 4736,
      "Ġdeliver": 4737,
      "pective": 4738,
      "nel": 4739,
      "igan": 4740,
      "Ġcontext": 4741,
      "Ġhomes": 4742,
      "ĠAfrica": 4743,
      "gu": 4744,
      "ĠRem": 4745,
      "Ġassess": 4746,
      "inter": 4747,
      "Ġrough": 4748,
      "Ġphil": 4749,
      "Ġnewsp": 4750,
      "'.": 4751,
      "Ġenforcement": 4752,
      "Ġspokesman": 4753,
      "75": 4754,
      "Ġintroduced": 4755,
      "Ġplease": 4756,
      "Ġcatch": 4757,
      "ĠFe": 4758,
      "night": 4759,
      "Ġbanks": 4760,
      "Ġholding": 4761,
      "ronic": 4762,
      "Ġsan": 4763,
      "ĠAngeles": 4764,
      "Ġtells": 4765,
      "ĠJose": 4766,
      "Ġdownload": 4767,
      "ĠCEO": 4768,
      "Ġmeasures": 4769,
      "owl": 4770,
      "Ġcancer": 4771,
      "Ġmentioned": 4772,
      "Ġtransl": 4773,
      "ĠJoe": 4774,
      "eal": 4775,
      "Ġinjury": 4776,
      "Ġproviding": 4777,
      "PS": 4778,
      "kins": 4779,
      "Ġobs": 4780,
      "Ġfant": 4781,
      "osure": 4782,
      "Ġsequ": 4783,
      "icon": 4784,
      "Ġoperation": 4785,
      "ĠGroup": 4786,
      "ada": 4787,
      "PA": 4788,
      "bre": 4789,
      "ibrary": 4790,
      "Ġtim": 4791,
      "ĠThomas": 4792,
      "ĠBern": 4793,
      "Ġjoined": 4794,
      "Ġwaiting": 4795,
      "oted": 4796,
      "Ġacknow": 4797,
      "Ġidentified": 4798,
      "lig": 4799,
      "rick": 4800,
      "ĠMont": 4801,
      "Ġmodels": 4802,
      "Ġfourth": 4803,
      "Ġremoved": 4804,
      "Ġhair": 4805,
      "Ġ2000": 4806,
      "Ġeat": 4807,
      "Ġsouth": 4808,
      "Ġmanaged": 4809,
      "Ġlength": 4810,
      "Ġskills": 4811,
      "Ġconversation": 4812,
      "Ġobvious": 4813,
      "Ġfocused": 4814,
      "Ġrecommend": 4815,
      "Ġfunds": 4816,
      "Ġdiscussion": 4817,
      "antic": 4818,
      "ĠRock": 4819,
      "Ġ32": 4820,
      "Ġmissing": 4821,
      "Ġappropri": 4822,
      "vant": 4823,
      "formation": 4824,
      "Ġarrived": 4825,
      "ĠFire": 4826,
      "Ġfigures": 4827,
      "Ġfeels": 4828,
      "ĠResearch": 4829,
      "Ġoffensive": 4830,
      "Ġunit": 4831,
      "Ġcells": 4832,
      "Ġstopped": 4833,
      "Ġkeeping": 4834,
      "Ġtherefore": 4835,
      "but": 4836,
      "bour": 4837,
      "cient": 4838,
      "Ġbul": 4839,
      "ancing": 4840,
      "oms": 4841,
      "Ġexclus": 4842,
      "Ġuseful": 4843,
      "Ġprotection": 4844,
      "ĠArmy": 4845,
      "enses": 4846,
      "Ġfinished": 4847,
      "Ġconclud": 4848,
      "ading": 4849,
      "Ġprefer": 4850,
      "season": 4851,
      "kin": 4852,
      "anda": 4853,
      "Ġcommitted": 4854,
      "ications": 4855,
      "ulate": 4856,
      "Ġspirit": 4857,
      "ĠSupreme": 4858,
      "ĠPrime": 4859,
      "cks": 4860,
      "outs": 4861,
      "Ġotherwise": 4862,
      "ĠMary": 4863,
      "Ġveter": 4864,
      "ano": 4865,
      "Ġsetting": 4866,
      "Ġ45": 4867,
      "Ġrelatively": 4868,
      "36": 4869,
      "Ġcommission": 4870,
      "ula": 4871,
      "issions": 4872,
      "38": 4873,
      "Ġmere": 4874,
      "Ġstick": 4875,
      "cription": 4876,
      "mm": 4877,
      "Ġphotos": 4878,
      "itutional": 4879,
      "Ġhousing": 4880,
      "Ġcook": 4881,
      "umn": 4882,
      "Ġgirls": 4883,
      "Ġkilling": 4884,
      "apped": 4885,
      "ĠPeter": 4886,
      "Ġsurvey": 4887,
      "gl": 4888,
      "34": 4889,
      "ĠJon": 4890,
      "Ġpartner": 4891,
      "ĠPublic": 4892,
      "Ġcrew": 4893,
      "Ġconnection": 4894,
      "Ġowner": 4895,
      "ĠST": 4896,
      "ady": 4897,
      "Ġslightly": 4898,
      "win": 4899,
      "wing": 4900,
      "ĠJes": 4901,
      "onym": 4902,
      "Ġstrike": 4903,
      "ĠWeb": 4904,
      "ania": 4905,
      "verse": 4906,
      "eah": 4907,
      "ĠPut": 4908,
      "Ġmental": 4909,
      "Ġidentity": 4910,
      "ĠTime": 4911,
      "Ġearth": 4912,
      "].": 4913,
      "Ġtrip": 4914,
      "ĠCollege": 4915,
      "ĠSecretary": 4916,
      "Ġelements": 4917,
      "Ġupdate": 4918,
      "Ġcircum": 4919,
      "what": 4920,
      "makers": 4921,
      "icles": 4922,
      "ĠMP": 4923,
      "Ġsuggests": 4924,
      "uct": 4925,
      "Ġfle": 4926,
      "Ġtough": 4927,
      "Ġroll": 4928,
      "Ġappoint": 4929,
      "ups": 4930,
      "uate": 4931,
      "ĠTeam": 4932,
      "Ġclick": 4933,
      "Ġsteps": 4934,
      "hens": 4935,
      "Ġcollection": 4936,
      "Ġweak": 4937,
      "ĠBet": 4938,
      "Ġexchange": 4939,
      "Ġdetect": 4940,
      "ĠSocial": 4941,
      "32": 4942,
      "ĠDen": 4943,
      "Ġgender": 4944,
      "stream": 4945,
      "Ġremind": 4946,
      "ĠMars": 4947,
      "ĠSol": 4948,
      "ication": 4949,
      "Ġdat": 4950,
      "OL": 4951,
      "real": 4952,
      "odies": 4953,
      "Ġdepend": 4954,
      "Ġorganizations": 4955,
      "Ġsupply": 4956,
      "ĠProt": 4957,
      "azon": 4958,
      "Ġfiles": 4959,
      "Ġtaxes": 4960,
      "azine": 4961,
      "Ġscientific": 4962,
      "gar": 4963,
      "eless": 4964,
      "Ġdomestic": 4965,
      "Ġterrit": 4966,
      "Ġfailure": 4967,
      "Ġsides": 4968,
      "Ġtweet": 4969,
      "Ġstandards": 4970,
      "Ġtalks": 4971,
      "!!": 4972,
      "Ġarmy": 4973,
      "Ġcorner": 4974,
      "Ġplanned": 4975,
      "icide": 4976,
      "ĠService": 4977,
      "oston": 4978,
      "ĠMos": 4979,
      "onto": 4980,
      "Ġbigger": 4981,
      "Ġaward": 4982,
      "Ġhappening": 4983,
      "prof": 4984,
      "Don": 4985,
      "place": 4986,
      "Ġsust": 4987,
      "Ġspeaking": 4988,
      "Ġfamiliar": 4989,
      "Ġregist": 4990,
      "Ġgain": 4991,
      "Ġaggress": 4992,
      "ĠPlan": 4993,
      "Ġvariety": 4994,
      "Ġhusband": 4995,
      "ĠImages": 4996,
      "ucky": 4997,
      "Ġsudden": 4998,
      "ka": 4999,
      "ĠLu": 5000,
      "isf": 5001,
      "Ġcarried": 5002,
      "ĠMean": 5003,
      "Ġcold": 5004,
      "37": 5005,
      "rd": 5006,
      "ighter": 5007,
      "Ġdegree": 5008,
      "Ġspect": 5009,
      "range": 5010,
      "ĠCamp": 5011,
      "rency": 5012,
      "Ġdecide": 5013,
      "Ġmicro": 5014,
      "Ġimmigration": 5015,
      "Ġhate": 5016,
      "upp": 5017,
      "Ġhumans": 5018,
      "iser": 5019,
      "LINK": 5020,
      "rees": 5021,
      "Ġacadem": 5022,
      "Ġplanet": 5023,
      "ava": 5024,
      "....": 5025,
      "Ġincreasingly": 5026,
      "gypt": 5027,
      "Ġstanding": 5028,
      "Ġrevolution": 5029,
      "Ġthanks": 5030,
      "55": 5031,
      "cont": 5032,
      "Ġscript": 5033,
      "idering": 5034,
      "Ġagencies": 5035,
      "ĠBob": 5036,
      "uters": 5037,
      "ĠLat": 5038,
      "Ġstarts": 5039,
      "ĠMedia": 5040,
      "ĠCentral": 5041,
      "mas": 5042,
      "icted": 5043,
      "Ġprofessor": 5044,
      "Ġamazing": 5045,
      "aren": 5046,
      "Ġhelping": 5047,
      "39": 5048,
      "agues": 5049,
      "rig": 5050,
      "Ġwindow": 5051,
      "Ġunion": 5052,
      "ĠFederal": 5053,
      "Ġrich": 5054,
      "Ġunivers": 5055,
      "ĠAri": 5056,
      "Ġbalance": 5057,
      "iot": 5058,
      "erous": 5059,
      "awn": 5060,
      "Ġimpossible": 5061,
      "Ġnone": 5062,
      "Ġsch": 5063,
      "Ġfiled": 5064,
      "48": 5065,
      "hedul": 5066,
      "Ġmarkets": 5067,
      "ipment": 5068,
      "ĠBitcoin": 5069,
      "Ġstruct": 5070,
      "Ġauthority": 5071,
      "Ġwish": 5072,
      "Ġoperating": 5073,
      "ĠFoundation": 5074,
      "lor": 5075,
      "spe": 5076,
      "Ġcuts": 5077,
      "cious": 5078,
      "Ġdefensive": 5079,
      "Ġenvironmental": 5080,
      "Ġworry": 5081,
      "rastructure": 5082,
      "imal": 5083,
      "Ġguard": 5084,
      "Ġheat": 5085,
      "Ġprinc": 5086,
      "ĠFrancisco": 5087,
      "Ġskin": 5088,
      "Ġunits": 5089,
      "stein": 5090,
      "Ġ2004": 5091,
      "ĠMur": 5092,
      "Ġalternative": 5093,
      "ĠUSA": 5094,
      "ST": 5095,
      "ĠBoston": 5096,
      "Ġmulti": 5097,
      "ĠSyrian": 5098,
      "Ġtwice": 5099,
      "ĠMass": 5100,
      "ĠCarolina": 5101,
      "Ġaccounts": 5102,
      "Ġturns": 5103,
      "Ġpair": 5104,
      "Ġreligion": 5105,
      "Ġdevelopers": 5106,
      "DA": 5107,
      "ola": 5108,
      "adium": 5109,
      "Ġlosing": 5110,
      "ĠMem": 5111,
      "Ġflight": 5112,
      "illa": 5113,
      "useum": 5114,
      "Ġlived": 5115,
      "ruit": 5116,
      "Ġinteract": 5117,
      "ipping": 5118,
      "Ġvotes": 5119,
      "Ġbatter": 5120,
      "aven": 5121,
      "Ġsounds": 5122,
      "aded": 5123,
      "amm": 5124,
      "Ġvul": 5125,
      "ĠChief": 5126,
      "Ġphilos": 5127,
      "ynam": 5128,
      "TC": 5129,
      "ĠSteve": 5130,
      "Ġappre": 5131,
      "Ġpossibly": 5132,
      "Ġcolle": 5133,
      "Ġapparently": 5134,
      "Ġultimately": 5135,
      "Ġdropped": 5136,
      "Ġfellow": 5137,
      "Is": 5138,
      "arks": 5139,
      "Ġvast": 5140,
      "Ġneighborhood": 5141,
      "Ã¡": 5142,
      "ĠVirginia": 5143,
      "ĠMiddle": 5144,
      "ĠEgypt": 5145,
      "Ġseconds": 5146,
      "hicles": 5147,
      "ĠToronto": 5148,
      "Ġath": 5149,
      "ansion": 5150,
      "Ġcorporate": 5151,
      "Ġbeer": 5152,
      "itect": 5153,
      "When": 5154,
      "sen": 5155,
      "Ġpossibility": 5156,
      "Ġexperts": 5157,
      "ocol": 5158,
      "49": 5159,
      "ĠRo": 5160,
      "Ġregarding": 5161,
      "Ġabsolutely": 5162,
      "Ġcloser": 5163,
      "ĠBefore": 5164,
      "Ġwriter": 5165,
      "Ġinnov": 5166,
      "Ġhonest": 5167,
      "Ġpaying": 5168,
      "Ġseeking": 5169,
      "Ġforms": 5170,
      "aine": 5171,
      "Ġlob": 5172,
      "RA": 5173,
      "Ġvir": 5174,
      "Ġanimal": 5175,
      "Ġbeautiful": 5176,
      "Ġlands": 5177,
      "isted": 5178,
      "ĠCru": 5179,
      "Ġuniversity": 5180,
      "Ġpit": 5181,
      "Ġtast": 5182,
      "ĠThough": 5183,
      "Ġapply": 5184,
      "Ġdeveloping": 5185,
      "ashed": 5186,
      "coh": 5187,
      "ores": 5188,
      "ĠLee": 5189,
      "ocal": 5190,
      "ĠVe": 5191,
      "ĠGal": 5192,
      "ortion": 5193,
      "Ġpil": 5194,
      "Ġschedul": 5195,
      "47": 5196,
      "enced": 5197,
      "Ġchanging": 5198,
      "Ġinstit": 5199,
      "Ġarms": 5200,
      "Ġhealthy": 5201,
      "Ġdeploy": 5202,
      "Ġresponsibility": 5203,
      "Ġexpensive": 5204,
      "acks": 5205,
      "Ġadjust": 5206,
      "yr": 5207,
      "Ġinternal": 5208,
      "Ġcovered": 5209,
      "Ġgar": 5210,
      "Ġque": 5211,
      "ĠDan": 5212,
      "HL": 5213,
      "Americ": 5214,
      "Ġtests": 5215,
      "ĠDistrict": 5216,
      "atures": 5217,
      "related": 5218,
      "Ġearn": 5219,
      "Ġapplications": 5220,
      "run": 5221,
      "Ġfif": 5222,
      "vis": 5223,
      "Ġimagine": 5224,
      "ĠRub": 5225,
      "ĠOpen": 5226,
      "roud": 5227,
      "Ġsitting": 5228,
      "ĠColor": 5229,
      "ĠEach": 5230,
      "Ġrid": 5231,
      "ĠJournal": 5232,
      "ologies": 5233,
      "Ġelections": 5234,
      "ĠWhe": 5235,
      "pire": 5236,
      "Ġpresented": 5237,
      "SP": 5238,
      "Ġapart": 5239,
      "ĠCath": 5240,
      "Ġtrail": 5241,
      "Ġunless": 5242,
      "Ġsurprise": 5243,
      "pret": 5244,
      "Ġcapacity": 5245,
      "pm": 5246,
      "Ġsea": 5247,
      "IV": 5248,
      "ĠHist": 5249,
      "ĠAmazon": 5250,
      "Ġconvention": 5251,
      "Ġattorney": 5252,
      "Ġfol": 5253,
      "Ġestimated": 5254,
      "ĠRE": 5255,
      "ias": 5256,
      "rie": 5257,
      "ĠIN": 5258,
      "gn": 5259,
      "ĠBook": 5260,
      "ĠStill": 5261,
      "Ġodd": 5262,
      "Ġfamous": 5263,
      "ĠSaud": 5264,
      "Ġhyp": 5265,
      "Ġsymb": 5266,
      "Ġteen": 5267,
      "ĠSign": 5268,
      "Ġbroken": 5269,
      "ĠWatch": 5270,
      "Ġflow": 5271,
      "Ġtack": 5272,
      "Ġconsult": 5273,
      "ĠSecond": 5274,
      "ĠSing": 5275,
      "Ġvision": 5276,
      "ĠPhot": 5277,
      "oving": 5278,
      "65": 5279,
      "Ð¸": 5280,
      "Ġelim": 5281,
      "fe": 5282,
      "Ġyards": 5283,
      "Ġintended": 5284,
      "apers": 5285,
      "Ġoccurred": 5286,
      "look": 5287,
      "osen": 5288,
      "ĠRiver": 5289,
      "Ġsport": 5290,
      "Ġequipment": 5291,
      "Ġsoldiers": 5292,
      "xual": 5293,
      "lets": 5294,
      "ĠMel": 5295,
      "Ġguarant": 5296,
      "Ġhelps": 5297,
      "Ġclim": 5298,
      "Ġprepared": 5299,
      "Ġtroops": 5300,
      "Ġshall": 5301,
      "ĠAustralian": 5302,
      "Ġgovernments": 5303,
      "ĠTop": 5304,
      "ĠFree": 5305,
      "ĠMs": 5306,
      "uster": 5307,
      "Ġspecifically": 5308,
      "Ġfired": 5309,
      "ĠOnly": 5310,
      "Ġconclus": 5311,
      "Ġlocated": 5312,
      "Ġstreets": 5313,
      "alls": 5314,
      "ĠRad": 5315,
      "Ġtight": 5316,
      "Ġvehicles": 5317,
      "under": 5318,
      "ĠShow": 5319,
      "ĠPower": 5320,
      "eder": 5321,
      "Ġsector": 5322,
      "Ġaircraft": 5323,
      "Ġrapid": 5324,
      "Ġbringing": 5325,
      "phas": 5326,
      "rible": 5327,
      "ĠWilliams": 5328,
      "Ġpotentially": 5329,
      "ĠConserv": 5330,
      "Ġsolar": 5331,
      "porary": 5332,
      "Ġtele": 5333,
      "Ġrefused": 5334,
      "ĠHuman": 5335,
      "Ġdetermine": 5336,
      "do": 5337,
      "Ġclot": 5338,
      "Ġcouncil": 5339,
      "person": 5340,
      "Ġruling": 5341,
      "terday": 5342,
      "No": 5343,
      "ĠParis": 5344,
      "Ġexpert": 5345,
      "Ġnar": 5346,
      "ĠAN": 5347,
      "Ġinfrastructure": 5348,
      "Ġmut": 5349,
      "oty": 5350,
      "Ġpieces": 5351,
      "Ġproposal": 5352,
      "Ġoffering": 5353,
      "Ġelected": 5354,
      "ĠMedic": 5355,
      "idden": 5356,
      "with": 5357,
      "Ġprove": 5358,
      "Ġton": 5359,
      "Ġplenty": 5360,
      "Ġprosecut": 5361,
      "hand": 5362,
      "Ġbaby": 5363,
      ",[": 5364,
      "cel": 5365,
      "ĠGuard": 5366,
      "Ġfactors": 5367,
      "mes": 5368,
      "ĠIsland": 5369,
      "ÑĤ": 5370,
      "Ġprime": 5371,
      "Ġchemical": 5372,
      "ĠSpace": 5373,
      "ressive": 5374,
      "Ġcriticism": 5375,
      "standing": 5376,
      "ĠTra": 5377,
      "Ġselling": 5378,
      "Ġera": 5379,
      "Ġshape": 5380,
      "Ġconducted": 5381,
      "ureau": 5382,
      "Ġerror": 5383,
      "ĠProject": 5384,
      "ĠAndrew": 5385,
      "Ġremained": 5386,
      "ĠCharl": 5387,
      "Ġexpressed": 5388,
      "IP": 5389,
      "Ġmagn": 5390,
      "ashion": 5391,
      "Ġbroke": 5392,
      "Ġscr": 5393,
      "Ġjail": 5394,
      "Ġsecure": 5395,
      "ĠSpr": 5396,
      "Ġserver": 5397,
      "Ġvoted": 5398,
      "Ġbreat": 5399,
      "Ġclin": 5400,
      "ĠAbout": 5401,
      "endment": 5402,
      "Re": 5403,
      "Ġdram": 5404,
      "\":": 5405,
      "ĠLabour": 5406,
      "Ġheav": 5407,
      "ĠForce": 5408,
      "anche": 5409,
      "ĠBBC": 5410,
      "Ġequal": 5411,
      "Ġpositions": 5412,
      "Ġvulner": 5413,
      "Ġbrow": 5414,
      "ĠAv": 5415,
      "Ġboost": 5416,
      "ĠNAS": 5417,
      "Ġyouth": 5418,
      "Ġmaster": 5419,
      "ĠMa": 5420,
      "ĠNov": 5421,
      "state": 5422,
      "Ġfaster": 5423,
      "Ġseasons": 5424,
      "Ġstress": 5425,
      "ĠWork": 5426,
      "Ġfacing": 5427,
      "Ġprivacy": 5428,
      "Ġpointed": 5429,
      "Ġchallenges": 5430,
      "Ġregime": 5431,
      "ĠWood": 5432,
      "Ġgreatest": 5433,
      "Ġcombat": 5434,
      "uration": 5435,
      "road": 5436,
      "DP": 5437,
      "cean": 5438,
      "ĠRoad": 5439,
      "ENT": 5440,
      "ĠMeanwhile": 5441,
      "Ġdin": 5442,
      "Ġsigns": 5443,
      "lyn": 5444,
      "Ġast": 5445,
      "Ġcontrast": 5446,
      "Ġvoting": 5447,
      "Ġappearance": 5448,
      "lymp": 5449,
      "Ġrandom": 5450,
      "Ġwood": 5451,
      "ĠOk": 5452,
      "ĠPenn": 5453,
      "Ġcultural": 5454,
      "Ġpercentage": 5455,
      "isher": 5456,
      "ader": 5457,
      "Ġoriginally": 5458,
      "Ġtrig": 5459,
      "ĠHaw": 5460,
      "Ġargued": 5461,
      "pired": 5462,
      "Ġaffected": 5463,
      "Ġmethods": 5464,
      "ours": 5465,
      "Ġretail": 5466,
      "pay": 5467,
      "Ġdetermined": 5468,
      "och": 5469,
      "eds": 5470,
      "Ġ1990": 5471,
      "Ġstars": 5472,
      "31": 5473,
      "Ġsuppl": 5474,
      "Ġinvolve": 5475,
      "Ġweapon": 5476,
      "ĠHol": 5477,
      "ĠPac": 5478,
      "Ġremove": 5479,
      "ocking": 5480,
      "Ġgrew": 5481,
      "ĠWhere": 5482,
      "Ġfinish": 5483,
      "Ġpoliticians": 5484,
      "Ġweren": 5485,
      "ĠSum": 5486,
      "ĠWal": 5487,
      "ĠHy": 5488,
      "uts": 5489,
      "olved": 5490,
      "Ġturning": 5491,
      "Ġ500": 5492,
      "Ġsignificantly": 5493,
      "Ġconsumers": 5494,
      "noon": 5495,
      "inating": 5496,
      "Ġconcent": 5497,
      "ĠIll": 5498,
      "onom": 5499,
      "ini": 5500,
      "Ġshift": 5501,
      "ĠRon": 5502,
      "orage": 5503,
      "Ġcarbon": 5504,
      "Ġthr": 5505,
      "rier": 5506,
      "Ġsurprising": 5507,
      "Ġbought": 5508,
      "Ġbelong": 5509,
      "Ġaid": 5510,
      "Ġagent": 5511,
      "Ġthank": 5512,
      "ĠFer": 5513,
      "Ġcas": 5514,
      "Ġprospect": 5515,
      "abilities": 5516,
      "Ġstret": 5517,
      "Ġseriously": 5518,
      "Ġherself": 5519,
      "Ġpurchase": 5520,
      "ruption": 5521,
      "Ġdifferences": 5522,
      "vey": 5523,
      "Ġopportunities": 5524,
      "ĠOlymp": 5525,
      "reens": 5526,
      "Ġproced": 5527,
      "ĠMaybe": 5528,
      "Ġ195": 5529,
      "Ġhun": 5530,
      "war": 5531,
      "Ġrevenue": 5532,
      "Ġlisten": 5533,
      "Ġstruggle": 5534,
      "Ġvideos": 5535,
      "ighters": 5536,
      "Ġspring": 5537,
      "Ġhurt": 5538,
      "Ġremaining": 5539,
      "Ġbound": 5540,
      "Ġwearing": 5541,
      "Ġtun": 5542,
      "ĠTurkey": 5543,
      "cohol": 5544,
      "Ġidentify": 5545,
      "Ġsupporting": 5546,
      "Ġconsidering": 5547,
      "Ġobviously": 5548,
      "ey": 5549,
      "Ġapps": 5550,
      "ean": 5551,
      "ĠDown": 5552,
      "Ġindeed": 5553,
      "Ġminimum": 5554,
      "ĠJackson": 5555,
      "Ġrecorded": 5556,
      "ĠKim": 5557,
      "ogue": 5558,
      "Ġmort": 5559,
      "Ġbasically": 5560,
      "hab": 5561,
      "ĠTechn": 5562,
      "Ġrent": 5563,
      "rog": 5564,
      "Ġreaction": 5565,
      "Ġleads": 5566,
      "Ġcaption": 5567,
      "ĠAT": 5568,
      "ĠDirector": 5569,
      "Ġappreci": 5570,
      "Ġ2003": 5571,
      "Ġexcited": 5572,
      "ĠBlue": 5573,
      "hered": 5574,
      "Ġreduced": 5575,
      "Ġaccident": 5576,
      "For": 5577,
      "ĠDaily": 5578,
      "Ġexplos": 5579,
      "46": 5580,
      "IM": 5581,
      "ucks": 5582,
      "Ġadvance": 5583,
      "CH": 5584,
      "ĠLook": 5585,
      "Ġattempts": 5586,
      "gment": 5587,
      "arp": 5588,
      "ĠDevelop": 5589,
      "Ġexperienced": 5590,
      "ita": 5591,
      "raud": 5592,
      "Ġmotiv": 5593,
      "Ġcombined": 5594,
      "ĠDou": 5595,
      "Ġevening": 5596,
      "ION": 5597,
      "oking": 5598,
      "ĠSqu": 5599,
      "Ġfrust": 5600,
      "Ġtreated": 5601,
      "Ġtalked": 5602,
      "ller": 5603,
      "Ġemergency": 5604,
      "Ġhopes": 5605,
      "ĠRod": 5606,
      "ĠBraz": 5607,
      "lines": 5608,
      "plom": 5609,
      "ĠScience": 5610,
      "Ġlots": 5611,
      "Ġmode": 5612,
      "Ġcopyright": 5613,
      "Ġhandle": 5614,
      "Ġreporters": 5615,
      "Ġtourn": 5616,
      "Ġfilms": 5617,
      "Ġmand": 5618,
      "Ġ36": 5619,
      "Ġsale": 5620,
      "oral": 5621,
      "Ġexperiment": 5622,
      "Ġstorm": 5623,
      "Ġsad": 5624,
      "Ġdim": 5625,
      "Ġends": 5626,
      "apping": 5627,
      "ils": 5628,
      "Ġinstitutions": 5629,
      "Ġplus": 5630,
      "Ġpulled": 5631,
      "OW": 5632,
      "ĠOhio": 5633,
      "idel": 5634,
      "Ġtrouble": 5635,
      "Ġfactor": 5636,
      "ĠiPh": 5637,
      "Ġquiet": 5638,
      "Ġcompleted": 5639,
      "Ġdismiss": 5640,
      "Ġcalcul": 5641,
      "ĠOl": 5642,
      "Ġswitch": 5643,
      "Ġburn": 5644,
      "ĠSomet": 5645,
      "pet": 5646,
      "Ġdiscl": 5647,
      "Ġwidely": 5648,
      "Ġmarg": 5649,
      "Ġminute": 5650,
      "Ġdiss": 5651,
      "Ġpanel": 5652,
      "Ġdistance": 5653,
      "ownt": 5654,
      "ivered": 5655,
      "ĠIts": 5656,
      "Ġpowers": 5657,
      "elly": 5658,
      "gent": 5659,
      "rawn": 5660,
      "Ġinstruct": 5661,
      "Ġglass": 5662,
      "ĠBus": 5663,
      "95": 5664,
      "ĠCy": 5665,
      "Ġplants": 5666,
      "Ġafternoon": 5667,
      "Ġgrab": 5668,
      "ĠAfghanistan": 5669,
      "Ġopposed": 5670,
      "Ġtypically": 5671,
      "Ġproceed": 5672,
      "sts": 5673,
      "osite": 5674,
      "Ġsubm": 5675,
      "Ġpages": 5676,
      "ĠVict": 5677,
      "ket": 5678,
      "Ġdepart": 5679,
      "Ġ2001": 5680,
      "ĠFar": 5681,
      "ĠSupp": 5682,
      "Ġtact": 5683,
      "Ġcart": 5684,
      "Ġcollabor": 5685,
      "ĠGen": 5686,
      "esters": 5687,
      "Ġupgr": 5688,
      "mond": 5689,
      "Ġcooper": 5690,
      "Ġresponded": 5691,
      "ĠJul": 5692,
      "Ġbodies": 5693,
      "met": 5694,
      "ĠStr": 5695,
      "Ġcapable": 5696,
      "anged": 5697,
      "Ġenemy": 5698,
      "uous": 5699,
      "olit": 5700,
      "life": 5701,
      "Ġsuit": 5702,
      "nell": 5703,
      "Ġbatt": 5704,
      "ĠSaudi": 5705,
      "Ġadvert": 5706,
      "Ġentertain": 5707,
      "ĠCNN": 5708,
      "Ġelement": 5709,
      "Ġdisappoint": 5710,
      "Ġwrites": 5711,
      "âĢ¦âĢ¦": 5712,
      "Ġcrimes": 5713,
      "Ġment": 5714,
      "Ġ(\"": 5715,
      "ensions": 5716,
      "Ġappeal": 5717,
      "],": 5718,
      "ĠDani": 5719,
      "Ġrenew": 5720,
      "ributed": 5721,
      "astern": 5722,
      "Ġapproved": 5723,
      "ĠSystem": 5724,
      "ãĥ": 5725,
      "ran": 5726,
      "Ġcoord": 5727,
      "cos": 5728,
      "Ġnewspaper": 5729,
      "aped": 5730,
      "Ġben": 5731,
      "Ġhol": 5732,
      "Ġprin": 5733,
      "Ġliberal": 5734,
      "Ġagents": 5735,
      "ĠHen": 5736,
      "Ġdenied": 5737,
      "Ġoptim": 5738,
      "Ġconstruct": 5739,
      "erved": 5740,
      "Ġtechnical": 5741,
      "Ġstands": 5742,
      "Ġdeclared": 5743,
      "ĠFour": 5744,
      "Ġvisual": 5745,
      "aints": 5746,
      "====": 5747,
      "ĠSov": 5748,
      "ĠAgain": 5749,
      "Ġfaces": 5750,
      "adow": 5751,
      "ĠRev": 5752,
      "Ġgiant": 5753,
      "Ġvalid": 5754,
      "Ġmatters": 5755,
      "essions": 5756,
      "Ġpitch": 5757,
      "Ġconfidence": 5758,
      "Ġske": 5759,
      "Ġsevere": 5760,
      "ĠGrand": 5761,
      "Ġongoing": 5762,
      "Ġsets": 5763,
      "Ġpassing": 5764,
      "ternal": 5765,
      "Ġfly": 5766,
      "Ġmal": 5767,
      "that": 5768,
      "ĠAnn": 5769,
      "Ġtransition": 5770,
      "lo": 5771,
      "Ġcreation": 5772,
      "ompl": 5773,
      "care": 5774,
      "Ġseat": 5775,
      "ãĤ": 5776,
      "Ġnumerous": 5777,
      "Ġreference": 5778,
      "ĠMount": 5779,
      "Ġunable": 5780,
      "angers": 5781,
      "Ġreportedly": 5782,
      "unte": 5783,
      "razy": 5784,
      "Ġsubstant": 5785,
      "----------------": 5786,
      "Ġgra": 5787,
      "Ġbroadcast": 5788,
      "ĠThank": 5789,
      "ĠThanks": 5790,
      "Ġweather": 5791,
      "ĠLife": 5792,
      "ato": 5793,
      "Ġviolent": 5794,
      "Ġprompt": 5795,
      "Ġdiscrim": 5796,
      "Ġquant": 5797,
      "ĠWeek": 5798,
      "ĠAC": 5799,
      "Ġ1980": 5800,
      "respond": 5801,
      "Ġsac": 5802,
      "ĠBest": 5803,
      "Ġgather": 5804,
      "employ": 5805,
      "Ġpackage": 5806,
      "rist": 5807,
      "apter": 5808,
      "Ġexplo": 5809,
      "ĠMichigan": 5810,
      "Ġperspective": 5811,
      "Ġordered": 5812,
      "ĠScot": 5813,
      "Ġexplains": 5814,
      "ĠRomney": 5815,
      "isters": 5816,
      "Ġexperiences": 5817,
      "Ġmovies": 5818,
      "ĠRight": 5819,
      "Ġapprox": 5820,
      "Ġconfident": 5821,
      "Ġperman": 5822,
      "ĠSher": 5823,
      "mosp": 5824,
      "Ġguns": 5825,
      "Ġzone": 5826,
      "abin": 5827,
      "Ġsatisf": 5828,
      "Ġterrorist": 5829,
      "ĠLin": 5830,
      "Ġ//": 5831,
      "ishes": 5832,
      "cribe": 5833,
      "ĠIre": 5834,
      "Ġtradition": 5835,
      "gia": 5836,
      "Ġdeclined": 5837,
      "ĠVol": 5838,
      "Ġrealize": 5839,
      "called": 5840,
      "Ġroute": 5841,
      "ulations": 5842,
      "Ġcoast": 5843,
      "Ġmessages": 5844,
      "Ġconnected": 5845,
      "LE": 5846,
      "ĠPR": 5847,
      "Ġsuffered": 5848,
      "Ġemphas": 5849,
      "top": 5850,
      "Ġshouldn": 5851,
      "Ġdelivered": 5852,
      "Ġexcell": 5853,
      "Ġadmitted": 5854,
      "Ġappropriate": 5855,
      "ĠBrazil": 5856,
      "Ġstatements": 5857,
      "Ġactivists": 5858,
      "Ġreporting": 5859,
      "ĠCarl": 5860,
      "Ġwalking": 5861,
      "Ġreaders": 5862,
      "ĠUkraine": 5863,
      "ĠSky": 5864,
      "Ġlegit": 5865,
      "Ġpictures": 5866,
      "Ġsecretary": 5867,
      "Ġpublicly": 5868,
      "estival": 5869,
      "fere": 5870,
      "uations": 5871,
      "Ġcircumst": 5872,
      "ĠEs": 5873,
      "ionally": 5874,
      "Ġsubsequ": 5875,
      "Ġadvice": 5876,
      "Ġcoff": 5877,
      "Ġaccompl": 5878,
      "Ġpicked": 5879,
      "UT": 5880,
      "Ġflag": 5881,
      "ilty": 5882,
      "ĠLib": 5883,
      "ĠCub": 5884,
      "Ġargue": 5885,
      "Ġexercise": 5886,
      "Ġforg": 5887,
      "Ĥ¬": 5888,
      "Ġfindings": 5889,
      "ellow": 5890,
      "Ġleaves": 5891,
      "ĠContin": 5892,
      "asp": 5893,
      "Ġforget": 5894,
      "Ġmarried": 5895,
      "ĠSeattle": 5896,
      "uls": 5897,
      "nergy": 5898,
      "ĠUpd": 5899,
      "ĠPrem": 5900,
      "Ġ38": 5901,
      "Ġloved": 5902,
      "ician": 5903,
      "Ġbond": 5904,
      "ĠView": 5905,
      "class": 5906,
      "Ġvan": 5907,
      "amental": 5908,
      "Ġpatient": 5909,
      "abled": 5910,
      "Ġcentre": 5911,
      "ĠMuslims": 5912,
      "ĠChristmas": 5913,
      "Ġdelay": 5914,
      "Ġgod": 5915,
      "ĠElect": 5916,
      "Ġcrack": 5917,
      "ĠEconom": 5918,
      "Ġeval": 5919,
      "Ġinjured": 5920,
      "Ġeditor": 5921,
      "aza": 5922,
      "ĠStan": 5923,
      "Ġcraft": 5924,
      "Ġcloud": 5925,
      "Ġmoral": 5926,
      "Ġemails": 5927,
      "Ġarchitect": 5928,
      "Ġarmed": 5929,
      "Ġbull": 5930,
      "PR": 5931,
      "Ġupdates": 5932,
      "ĠEric": 5933,
      "Ġ34": 5934,
      "ĠGar": 5935,
      "ĠLake": 5936,
      "Ġproud": 5937,
      "PD": 5938,
      "ĠRam": 5939,
      "ĠWik": 5940,
      "ĠPolit": 5941,
      "obe": 5942,
      "Ġgovernor": 5943,
      "Ġthoughts": 5944,
      "ĠAD": 5945,
      "Ġpractices": 5946,
      "ĠDi": 5947,
      "Ġinjuries": 5948,
      "Ġcann": 5949,
      "Ġdrivers": 5950,
      "Ġtech": 5951,
      "ansas": 5952,
      "Ġdial": 5953,
      "essor": 5954,
      "ĠLong": 5955,
      "Ġfilled": 5956,
      "Ġinterpret": 5957,
      "Ġauth": 5958,
      "ĠNote": 5959,
      "ĠWalk": 5960,
      "Ġing": 5961,
      "Ġtransform": 5962,
      "ĠSports": 5963,
      "enture": 5964,
      "enda": 5965,
      "Ġeffectively": 5966,
      "ĠML": 5967,
      "ĠColorado": 5968,
      "ĠGM": 5969,
      "acter": 5970,
      "Ġwarned": 5971,
      "rant": 5972,
      "Ġfish": 5973,
      "oves": 5974,
      "ĠAff": 5975,
      "pass": 5976,
      "Ġthinks": 5977,
      "Ġconfirm": 5978,
      "Ġphen": 5979,
      "dule": 5980,
      "Ġallegations": 5981,
      "edy": 5982,
      "arters": 5983,
      "illance": 5984,
      "Ġtalent": 5985,
      "Ġabandon": 5986,
      "resents": 5987,
      "Ġdiplom": 5988,
      "Ġdebut": 5989,
      "Ġrain": 5990,
      "Ġaccepted": 5991,
      "Ġexpansion": 5992,
      "ourney": 5993,
      "Ġsam": 5994,
      "Ġdoctor": 5995,
      "Ġrail": 5996,
      "ĠMen": 5997,
      "Ġourselves": 5998,
      "Ġpool": 5999,
      "Ġlawyer": 6000,
      "Ġradical": 6001,
      "ĠDavis": 6002,
      "Ġquarterback": 6003,
      "Ġdesire": 6004,
      "Tube": 6005,
      "Ġ<": 6006,
      "ĠDiv": 6007,
      "Ġvari": 6008,
      "Ġannouncement": 6009,
      "ĠStory": 6010,
      "ĠBarack": 6011,
      "ampion": 6012,
      "rid": 6013,
      "ĠSwed": 6014,
      "Ġexplan": 6015,
      "agers": 6016,
      "Ġessentially": 6017,
      "Ġgraph": 6018,
      "unction": 6019,
      "Ġ33": 6020,
      "Ġsuc": 6021,
      "Ġexamples": 6022,
      "IG": 6023,
      "oken": 6024,
      "My": 6025,
      "Ġfaced": 6026,
      "sembly": 6027,
      "Ġperformed": 6028,
      "ette": 6029,
      "ĠIreland": 6030,
      "Ġflood": 6031,
      "Ġpure": 6032,
      "ĠAut": 6033,
      "Ġedge": 6034,
      "Ġdistribution": 6035,
      "Ġspons": 6036,
      "ĠHel": 6037,
      "Ġcauses": 6038,
      "Ġdefault": 6039,
      "Ġwear": 6040,
      "Ġnations": 6041,
      "Ġwithd": 6042,
      "Ġathlet": 6043,
      "ĠPerhaps": 6044,
      "uild": 6045,
      "Ġresolution": 6046,
      "Ġjoint": 6047,
      "ĠColumb": 6048,
      "Ġ2002": 6049,
      "Ġplayoff": 6050,
      "Ġnearby": 6051,
      "Ġinitially": 6052,
      "Ġbuildings": 6053,
      "tion": 6054,
      "Ġpray": 6055,
      "ĠCop": 6056,
      "Ġenh": 6057,
      "long": 6058,
      "ĠHome": 6059,
      "Ġmyster": 6060,
      "Ġdynam": 6061,
      "Ġid": 6062,
      "Ġtree": 6063,
      "Ġmir": 6064,
      "Ġfacts": 6065,
      "Ġmaterials": 6066,
      "free": 6067,
      "Ġmissed": 6068,
      "Ġcontains": 6069,
      "Ġfort": 6070,
      "Ġresc": 6071,
      "Ġlabel": 6072,
      "Ġpra": 6073,
      "ĠFurther": 6074,
      "ĠFam": 6075,
      "ĠAuthor": 6076,
      "water": 6077,
      "ador": 6078,
      "Ġscheduled": 6079,
      "Ġartist": 6080,
      "Ġ37": 6081,
      "Ġwarm": 6082,
      "Ġneither": 6083,
      "Ġrot": 6084,
      "Ġapplied": 6085,
      "Ġbare": 6086,
      "otic": 6087,
      "ĠEr": 6088,
      "Ġisland": 6089,
      "Ġincor": 6090,
      "Ġlinked": 6091,
      "Ġhistorical": 6092,
      "Ġconsequences": 6093,
      "inals": 6094,
      "ounded": 6095,
      "ĠISIS": 6096,
      "ĠiPhone": 6097,
      "Ġdemocracy": 6098,
      "Ġdatab": 6099,
      "orders": 6100,
      "ĠAriz": 6101,
      "irty": 6102,
      "Ġmanufacture": 6103,
      "Ġadvanced": 6104,
      "ĠHou": 6105,
      "Ġfranch": 6106,
      "Ġnecessarily": 6107,
      "Ġrepresents": 6108,
      "Ġmotor": 6109,
      "ooth": 6110,
      "Ġarticles": 6111,
      "hew": 6112,
      "orry": 6113,
      "urning": 6114,
      "Ñģ": 6115,
      "ĠShare": 6116,
      "ĠGra": 6117,
      "ĠFig": 6118,
      "Sh": 6119,
      "ĠNext": 6120,
      "orse": 6121,
      "Ġdeaths": 6122,
      "Ġ48": 6123,
      "li": 6124,
      "ilit": 6125,
      "ĠSar": 6126,
      "Ġunlikely": 6127,
      "ym": 6128,
      "Ġsession": 6129,
      "Ġyesterday": 6130,
      "ĠHarr": 6131,
      "itors": 6132,
      "ĠBrook": 6133,
      "level": 6134,
      "Ġsurprised": 6135,
      "ĠAsia": 6136,
      "ĠExp": 6137,
      "mates": 6138,
      "asure": 6139,
      "Ġfollows": 6140,
      "Ġ\\": 6141,
      "Ġshop": 6142,
      "Ġeverybody": 6143,
      "Ġexistence": 6144,
      "Ġhell": 6145,
      "rum": 6146,
      "Ġrestaurant": 6147,
      "ĠCharles": 6148,
      "ĠYoung": 6149,
      "Ġlisted": 6150,
      "Ġadds": 6151,
      "ĠEnter": 6152,
      "Ġfill": 6153,
      "Ġobjects": 6154,
      "42": 6155,
      "Ġpushed": 6156,
      "can": 6157,
      "ala": 6158,
      "enger": 6159,
      "ĠBoard": 6160,
      "Ġalcohol": 6161,
      "Ġmoves": 6162,
      "Ġsought": 6163,
      "usal": 6164,
      "ĠBoy": 6165,
      "ĠDefense": 6166,
      "inent": 6167,
      "athan": 6168,
      "stood": 6169,
      "Ġtemperature": 6170,
      "rip": 6171,
      "ĠJesus": 6172,
      "Ġbegins": 6173,
      "Le": 6174,
      "ĠWomen": 6175,
      "Ġentered": 6176,
      "ĠTO": 6177,
      "ĠRights": 6178,
      "Ġoffense": 6179,
      "whel": 6180,
      "iat": 6181,
      "Ġconsistent": 6182,
      "Ġplot": 6183,
      "ĠCard": 6184,
      "Ġstood": 6185,
      "Ġclasses": 6186,
      "ĠYear": 6187,
      "Ġincreases": 6188,
      "Ġsucceed": 6189,
      "Ġguilty": 6190,
      "icing": 6191,
      "Ġrein": 6192,
      "So": 6193,
      "Ġthreats": 6194,
      "Ġdiscussed": 6195,
      "Ġboys": 6196,
      "hetic": 6197,
      "ĠThree": 6198,
      "ĠYouTube": 6199,
      "Ġdecre": 6200,
      "Ġcreative": 6201,
      "Ġhousehold": 6202,
      "05": 6203,
      "Ġsongs": 6204,
      "duc": 6205,
      "ĠJews": 6206,
      "Ġimproved": 6207,
      "Ġyounger": 6208,
      "Ġbrings": 6209,
      "oked": 6210,
      "Ġtargets": 6211,
      "Ġride": 6212,
      "ĠTay": 6213,
      "Ġshif": 6214,
      "Ġconsumer": 6215,
      "Ã¤": 6216,
      "Ġnetworks": 6217,
      "anish": 6218,
      "ĠSoviet": 6219,
      "Ġremark": 6220,
      "Ġbright": 6221,
      "Ġplane": 6222,
      "Ġaf": 6223,
      "ĠAL": 6224,
      "Ġlawsuit": 6225,
      "Ġreceiving": 6226,
      "ERS": 6227,
      "Ġcolleagues": 6228,
      "Ġsquare": 6229,
      "Ġrising": 6230,
      "Ġbehavi": 6231,
      "rich": 6232,
      "ache": 6233,
      "Ġparliament": 6234,
      "Ġhighlight": 6235,
      "alty": 6236,
      "ĠClub": 6237,
      "ĠEll": 6238,
      "Ġmechanism": 6239,
      "ĠTake": 6240,
      "Ġsymbol": 6241,
      "Ġmetal": 6242,
      "agan": 6243,
      "Ġzero": 6244,
      "ĠKorean": 6245,
      "ĠOld": 6246,
      "ĠVan": 6247,
      "Ġsav": 6248,
      "ĠPalestinian": 6249,
      "ĠID": 6250,
      "ĠCruz": 6251,
      "ĠNBA": 6252,
      "Ġprotests": 6253,
      "Tr": 6254,
      "Ġlit": 6255,
      "Ġtotally": 6256,
      "ta": 6257,
      "Ġroughly": 6258,
      "esome": 6259,
      "illy": 6260,
      "irds": 6261,
      "Ġfraud": 6262,
      "Ġprohib": 6263,
      "Ġatmosp": 6264,
      "Ġcampus": 6265,
      "Ġimportance": 6266,
      "Ġrally": 6267,
      "icious": 6268,
      "Ġcombination": 6269,
      "Ġentry": 6270,
      "Ġshots": 6271,
      "Ġflo": 6272,
      "Ġlie": 6273,
      "ĠIns": 6274,
      "Ġschol": 6275,
      "Ġdoctors": 6276,
      "Ġmagazine": 6277,
      "ĠStephen": 6278,
      "Ġcurrency": 6279,
      "ĠWild": 6280,
      "Ġregulations": 6281,
      "ĠJord": 6282,
      "burg": 6283,
      "Ġnative": 6284,
      "Ġmanage": 6285,
      "41": 6286,
      "born": 6287,
      "Ġanywhere": 6288,
      "Ġphilosop": 6289,
      "Ġreplaced": 6290,
      "Ġchart": 6291,
      "Ġcere": 6292,
      "Ġblow": 6293,
      "ĠVide": 6294,
      "mail": 6295,
      "Ġfacility": 6296,
      "Ġheavily": 6297,
      "Ġacknowled": 6298,
      "Ġsyn": 6299,
      "Ġboss": 6300,
      "ĠCIA": 6301,
      "cons": 6302,
      "fortunately": 6303,
      "Ġcorrespond": 6304,
      "Ġvice": 6305,
      "ĠArch": 6306,
      "IR": 6307,
      "TA": 6308,
      "Ġclient": 6309,
      "ĠFil": 6310,
      "Ġconfront": 6311,
      "Ġcontest": 6312,
      "Ġlinks": 6313,
      "Ġscored": 6314,
      "Ġfairly": 6315,
      "Ġsick": 6316,
      "Ġsomewhat": 6317,
      "Ġstorage": 6318,
      "Ġped": 6319,
      "Ġ300": 6320,
      "law": 6321,
      "ĠCast": 6322,
      "ĠKevin": 6323,
      "Ġdivision": 6324,
      "Ġallegedly": 6325,
      "Ġresident": 6326,
      "Ġnav": 6327,
      "Ġsnow": 6328,
      "omin": 6329,
      "Ġfewer": 6330,
      "Ġimmigrants": 6331,
      "Ġdefined": 6332,
      "Ġinvestors": 6333,
      "ĠHolly": 6334,
      "Ġheads": 6335,
      "uzz": 6336,
      "ĠDu": 6337,
      "Ð¾Ð": 6338,
      "andal": 6339,
      "Ġwarning": 6340,
      "Ġfavour": 6341,
      "west": 6342,
      "Ġoutput": 6343,
      "Ġpromise": 6344,
      "Ġsem": 6345,
      "Ġ49": 6346,
      "ĠEnergy": 6347,
      "Ġextent": 6348,
      "Ġhardware": 6349,
      "Ã¼": 6350,
      "Ġacts": 6351,
      "Ġmarketing": 6352,
      "PU": 6353,
      "Ġbreaking": 6354,
      "Ġvolunte": 6355,
      "43": 6356,
      "Ġlock": 6357,
      "ĠNASA": 6358,
      "Ġopponent": 6359,
      "tle": 6360,
      "Ġsees": 6361,
      "Ġbuying": 6362,
      "TV": 6363,
      "onna": 6364,
      "gas": 6365,
      "Ġillust": 6366,
      "greg": 6367,
      "Ġessential": 6368,
      "01": 6369,
      "Ġharder": 6370,
      "ĠArizona": 6371,
      "ĠTot": 6372,
      "ican": 6373,
      "Ġexpression": 6374,
      "Ġfunctions": 6375,
      "host": 6376,
      "iques": 6377,
      "Ġstores": 6378,
      "ĠChild": 6379,
      "ĠCatholic": 6380,
      "ĠBrad": 6381,
      "\")": 6382,
      "Ġadults": 6383,
      "ÃŃ": 6384,
      "Ġclosely": 6385,
      "ĠValley": 6386,
      "ocratic": 6387,
      "Ġindustrial": 6388,
      "Ġtrib": 6389,
      "Ġempt": 6390,
      "ĠHouston": 6391,
      "Ġintention": 6392,
      "Ġlaugh": 6393,
      "chen": 6394,
      "ellect": 6395,
      "iger": 6396,
      "Ġlibrary": 6397,
      "abb": 6398,
      "hips": 6399,
      "Ġfundamental": 6400,
      "ĠDaniel": 6401,
      "II": 6402,
      "Ġopposite": 6403,
      "Ġversions": 6404,
      "Ġ=>": 6405,
      ".\"[": 6406,
      "Ġbag": 6407,
      "Ġisol": 6408,
      "Ġmoments": 6409,
      "Ġalt": 6410,
      "ĠMot": 6411,
      "Ġfasc": 6412,
      "Ġsplit": 6413,
      "Ġrum": 6414,
      "Ġholds": 6415,
      "Ġsuffering": 6416,
      "iner": 6417,
      "Ġregional": 6418,
      "Ġexperim": 6419,
      "Ġfashion": 6420,
      "Ġclassic": 6421,
      "Ġflat": 6422,
      "Ġtort": 6423,
      "arden": 6424,
      "Ġpip": 6425,
      "Ġrow": 6426,
      "Ġreferred": 6427,
      "Ġparticipants": 6428,
      "Ġevolution": 6429,
      ">>": 6430,
      "certain": 6431,
      "ĠIP": 6432,
      "Ġkinds": 6433,
      "Ġcontroversial": 6434,
      "Ã³": 6435,
      "ĠMic": 6436,
      "Ġcheap": 6437,
      "acle": 6438,
      "ĠGames": 6439,
      "ulous": 6440,
      "Ġimmediate": 6441,
      "ena": 6442,
      "col": 6443,
      "Ġinput": 6444,
      "Ġrelationships": 6445,
      "Ġbutton": 6446,
      "ĠMat": 6447,
      "Ġhat": 6448,
      "ĠNY": 6449,
      "ĠMiller": 6450,
      "Ġpled": 6451,
      "power": 6452,
      "Ġcircumstances": 6453,
      "Ġwins": 6454,
      "OC": 6455,
      "Ġemotional": 6456,
      "MA": 6457,
      "OD": 6458,
      "rome": 6459,
      "zy": 6460,
      "ĠRet": 6461,
      "Ġcommitment": 6462,
      "ĠBat": 6463,
      "ÑĢ": 6464,
      "nic": 6465,
      "Ġdescribe": 6466,
      "Ġcycle": 6467,
      "Ġring": 6468,
      "Ã¶": 6469,
      "Ġgrown": 6470,
      "ĠLord": 6471,
      "ĠPutin": 6472,
      "Ġwave": 6473,
      "utch": 6474,
      "erves": 6475,
      "Ġancient": 6476,
      "ologist": 6477,
      "Ġexcellent": 6478,
      "Ġwaste": 6479,
      "ographic": 6480,
      "ĠFort": 6481,
      "64": 6482,
      "88": 6483,
      "Ġtermin": 6484,
      "uated": 6485,
      "Ġchain": 6486,
      "Ġreturns": 6487,
      "Ġformed": 6488,
      "Ġcomfortable": 6489,
      "ĠDie": 6490,
      "Ġmanner": 6491,
      "ĠWars": 6492,
      "Ġrelevant": 6493,
      "ĠStand": 6494,
      "FP": 6495,
      "ĠSn": 6496,
      "ĠDC": 6497,
      "Ġmedic": 6498,
      "Ġunus": 6499,
      "ĠWay": 6500,
      "Ġdecline": 6501,
      "Ġfeatured": 6502,
      "Ġcrazy": 6503,
      "Ġhoping": 6504,
      "Ġtow": 6505,
      "Ġflu": 6506,
      "Ġhur": 6507,
      "olve": 6508,
      "ĠClass": 6509,
      "Ġpushing": 6510,
      "Ġtom": 6511,
      "Ġstrange": 6512,
      "Ġdownt": 6513,
      "oma": 6514,
      "ĠCamer": 6515,
      "Ġcompetitive": 6516,
      "Ġstruck": 6517,
      "ĠWat": 6518,
      "Ġlies": 6519,
      "ĠItal": 6520,
      "Ġsharing": 6521,
      "Ġmine": 6522,
      "chers": 6523,
      "roit": 6524,
      "Ġrepeatedly": 6525,
      "Ġauthors": 6526,
      "Ġguide": 6527,
      "Ġmainstream": 6528,
      "Ġacting": 6529,
      "Ġbike": 6530,
      "Ġcarrying": 6531,
      "Ġinstru": 6532,
      "ĠTal": 6533,
      "Ġsuicide": 6534,
      "ensus": 6535,
      "Ġbat": 6536,
      "Ġsigning": 6537,
      "Ġmotion": 6538,
      "Ġneut": 6539,
      "Ġdetailed": 6540,
      "Ġbug": 6541,
      "Ġsurveillance": 6542,
      "ĠDisney": 6543,
      "friend": 6544,
      "Ġwalked": 6545,
      "Ġattempted": 6546,
      "Ġintent": 6547,
      "ĠEnd": 6548,
      "ĠLove": 6549,
      "Ġexhib": 6550,
      "Ġsurrounding": 6551,
      "Ġfrequently": 6552,
      "Ġorders": 6553,
      "ĠMax": 6554,
      "ĠReview": 6555,
      "Ġ75": 6556,
      "ads": 6557,
      "Ġowned": 6558,
      "Ġartists": 6559,
      "ĠReport": 6560,
      "isp": 6561,
      "nam": 6562,
      "inem": 6563,
      "ĠInvest": 6564,
      "Ġcustomer": 6565,
      "Ġtiny": 6566,
      "Ġsister": 6567,
      "Ġking": 6568,
      "hus": 6569,
      "Ġwire": 6570,
      "Ġteachers": 6571,
      "ĠWilson": 6572,
      "ii": 6573,
      "xy": 6574,
      "kel": 6575,
      "ĠPan": 6576,
      "Ġserving": 6577,
      "Ġuniverse": 6578,
      "Ġtrick": 6579,
      "Ġembr": 6580,
      "Ġconfig": 6581,
      "Ġapproval": 6582,
      "Ġearned": 6583,
      "Ġreput": 6584,
      "Ġkit": 6585,
      "Ġurban": 6586,
      "Ġrisks": 6587,
      "Ġrealized": 6588,
      "Ġobserv": 6589,
      "ĠFinally": 6590,
      "ĠCross": 6591,
      "uable": 6592,
      "ĠTit": 6593,
      "Ġalongside": 6594,
      "TS": 6595,
      "Ġbon": 6596,
      "ĠAmong": 6597,
      "Ġchairman": 6598,
      "Ġwal": 6599,
      "Ġcert": 6600,
      "Ġtargeted": 6601,
      "Ġmouth": 6602,
      "Ġcolumn": 6603,
      "Ġefficient": 6604,
      "ĠEp": 6605,
      "ĠSpanish": 6606,
      "Ġfemin": 6607,
      "Ġcommunication": 6608,
      "Ġtheme": 6609,
      "Ġinspired": 6610,
      "Ġwinter": 6611,
      "ĠCam": 6612,
      "Ġcongress": 6613,
      "Ġsentence": 6614,
      "Ġoverwhel": 6615,
      "77": 6616,
      "Ġnarr": 6617,
      "Ġagenda": 6618,
      "ĠIrish": 6619,
      "ockey": 6620,
      "Ġwatched": 6621,
      "Ġdesk": 6622,
      "Ġabortion": 6623,
      "ĠBrian": 6624,
      "Ġstudio": 6625,
      "Ġdeeply": 6626,
      "Ġsubsid": 6627,
      "ĠReal": 6628,
      "Ġgap": 6629,
      "Ġinvolving": 6630,
      "Ġupdated": 6631,
      "Ġhall": 6632,
      "ĠBas": 6633,
      "Ġnewslet": 6634,
      "Ġvolume": 6635,
      "Ġwest": 6636,
      "Ġforth": 6637,
      "Ġassets": 6638,
      "luding": 6639,
      "anes": 6640,
      "ĠDun": 6641,
      "iveness": 6642,
      "Ġschedule": 6643,
      "Ġnoticed": 6644,
      "Ġfees": 6645,
      "aze": 6646,
      "atell": 6647,
      "ĠCat": 6648,
      "va": 6649,
      "ĠTurn": 6650,
      "ĠJr": 6651,
      "ĠCD": 6652,
      "Ġphenomen": 6653,
      "ĠJava": 6654,
      "Ġupcoming": 6655,
      "Ġretire": 6656,
      "ĠJordan": 6657,
      "Ġprecise": 6658,
      "ĠDid": 6659,
      "Ġhotel": 6660,
      "Ġtournament": 6661,
      "cho": 6662,
      "SS": 6663,
      "ulture": 6664,
      "iciency": 6665,
      "onymous": 6666,
      "Ġliqu": 6667,
      "ugh": 6668,
      "Ġjourney": 6669,
      "Ġprotected": 6670,
      "Ġrefugees": 6671,
      "rence": 6672,
      "Ġobserved": 6673,
      "Ġsand": 6674,
      "Ġdedicated": 6675,
      "awa": 6676,
      "Ġterrorism": 6677,
      "dit": 6678,
      "Ġdefeat": 6679,
      "Ġfixed": 6680,
      "Ġapproximately": 6681,
      "ĠUt": 6682,
      "Ġterritory": 6683,
      "Ġdiet": 6684,
      "Ġliterally": 6685,
      "ensity": 6686,
      "ocket": 6687,
      "Ġaside": 6688,
      "ĠDark": 6689,
      "ĠInf": 6690,
      "ko": 6691,
      "ĠAdminist": 6692,
      "Ġvirtual": 6693,
      "Ġmerely": 6694,
      "rations": 6695,
      "oming": 6696,
      "ĠGall": 6697,
      "66": 6698,
      "ĠNight": 6699,
      "Ġlatter": 6700,
      "rive": 6701,
      "ĠPy": 6702,
      "Ġlocations": 6703,
      "onic": 6704,
      "Ġpromised": 6705,
      "Ġdu": 6706,
      "Ġalive": 6707,
      "Ġstring": 6708,
      "oration": 6709,
      "Ġrequirements": 6710,
      "bel": 6711,
      "ĠWater": 6712,
      "Ġbattery": 6713,
      "Ġdepth": 6714,
      "avor": 6715,
      "Ġunemploy": 6716,
      "Ġgang": 6717,
      "Ġexplore": 6718,
      "Ġprotesters": 6719,
      "woman": 6720,
      "Ġusual": 6721,
      "Ġsimpl": 6722,
      "Ġopponents": 6723,
      "Ġmaximum": 6724,
      "Ġregions": 6725,
      "Ġextended": 6726,
      "phy": 6727,
      "Ġteacher": 6728,
      "()": 6729,
      "Ġremote": 6730,
      "ĠSk": 6731,
      "ĠOrgan": 6732,
      "Ġskill": 6733,
      "ingu": 6734,
      "Ġreward": 6735,
      "Ġ1970": 6736,
      "erry": 6737,
      "ĠDar": 6738,
      "Ġdealing": 6739,
      "ĠClick": 6740,
      "ORE": 6741,
      "Get": 6742,
      "ĠDetroit": 6743,
      "Ġmistake": 6744,
      "ĠSteven": 6745,
      "aser": 6746,
      "Ġdiscover": 6747,
      "Ġpregn": 6748,
      "ĠAgency": 6749,
      "asters": 6750,
      "Ġ39": 6751,
      "Ġsending": 6752,
      "ixt": 6753,
      "ĠGeorgia": 6754,
      "Ġsky": 6755,
      "Ġcausing": 6756,
      "Ġshel": 6757,
      "Ġconver": 6758,
      "Ġcrash": 6759,
      "GBT": 6760,
      "Ġnarrow": 6761,
      "Ġegg": 6762,
      "Ġmeat": 6763,
      "American": 6764,
      "ati": 6765,
      "game": 6766,
      "Ġbasket": 6767,
      "Ġchannel": 6768,
      "Ġphase": 6769,
      "Ġwake": 6770,
      "Ġtested": 6771,
      "LA": 6772,
      "Ġunknown": 6773,
      "Ġmoder": 6774,
      "Ġtypical": 6775,
      "mann": 6776,
      "ĠConf": 6777,
      "ding": 6778,
      "Ġexciting": 6779,
      "Ġproof": 6780,
      "Ġcommunications": 6781,
      "Ġattacked": 6782,
      "lv": 6783,
      "Ġanyway": 6784,
      "Ġwelcome": 6785,
      "Ġdestroyed": 6786,
      "Ð½": 6787,
      "Ġdogs": 6788,
      "Ġfolks": 6789,
      "Ġknowing": 6790,
      "Ġfuck": 6791,
      "Ġallies": 6792,
      "comm": 6793,
      "Ġoblig": 6794,
      "Ġpromote": 6795,
      "Ġcoffee": 6796,
      "verty": 6797,
      "Ġlicense": 6798,
      "ĠDam": 6799,
      "Ġrape": 6800,
      "iami": 6801,
      "ipl": 6802,
      "Ġfacilities": 6803,
      "Ġwage": 6804,
      "celer": 6805,
      "acking": 6806,
      "Ġresistance": 6807,
      "ĠLabor": 6808,
      "ua": 6809,
      "ĠSC": 6810,
      "ĠHun": 6811,
      "Ġpal": 6812,
      "Ġproperly": 6813,
      "Ġeast": 6814,
      "Ġnomine": 6815,
      "ĠNE": 6816,
      "azi": 6817,
      "rors": 6818,
      "Ġposts": 6819,
      "gery": 6820,
      "Ġpoverty": 6821,
      "ceived": 6822,
      "Ġpassion": 6823,
      "Ġdomin": 6824,
      "Ġchose": 6825,
      "Ġsustain": 6826,
      "gor": 6827,
      "foot": 6828,
      "ĠNations": 6829,
      "ciples": 6830,
      "Ġblame": 6831,
      "Ġslowly": 6832,
      "weight": 6833,
      "ora": 6834,
      "ĠMS": 6835,
      "ĠTest": 6836,
      "ĠSuch": 6837,
      "Ġunderstood": 6838,
      "abis": 6839,
      "ĠHollywood": 6840,
      "adel": 6841,
      "Ġcritics": 6842,
      "Ġstream": 6843,
      "ĠAR": 6844,
      "Ġrecognize": 6845,
      "ĠNetwork": 6846,
      "ĠJoseph": 6847,
      "ĠPS": 6848,
      "Ġdisag": 6849,
      "Ġdeals": 6850,
      "oster": 6851,
      "Ġproperties": 6852,
      "mpt": 6853,
      "Ġsho": 6854,
      "ĠOs": 6855,
      "ĠItaly": 6856,
      "ĠUnfortunately": 6857,
      "Ġscheme": 6858,
      "ĠWhich": 6859,
      "ums": 6860,
      "ĠKn": 6861,
      "ĠSociety": 6862,
      "Ġselected": 6863,
      "Ġworried": 6864,
      "Ġmeetings": 6865,
      "Ġfranchise": 6866,
      "ĠCall": 6867,
      "ĠFord": 6868,
      "Ġnorthern": 6869,
      "itarian": 6870,
      "Ġsupports": 6871,
      "She": 6872,
      "word": 6873,
      "Ġrequests": 6874,
      "ĠLight": 6875,
      "Ġeating": 6876,
      "Ġsuddenly": 6877,
      "aug": 6878,
      "pan": 6879,
      "ĠJersey": 6880,
      "Ġmatches": 6881,
      "ĠMinnes": 6882,
      "Ġputs": 6883,
      "ĠAh": 6884,
      "ĠSpecial": 6885,
      "Ġsomehow": 6886,
      "Ġpersonally": 6887,
      "dro": 6888,
      "Ġharass": 6889,
      "Ġescape": 6890,
      "ĠThus": 6891,
      "gender": 6892,
      "Ġlimits": 6893,
      "ĠNick": 6894,
      "Ġdry": 6895,
      "sex": 6896,
      "ĠWin": 6897,
      "Ġassume": 6898,
      "umber": 6899,
      "ĠTurk": 6900,
      "Ġsole": 6901,
      "ĠKelly": 6902,
      "anges": 6903,
      "owered": 6904,
      "ĠSenator": 6905,
      "ĠOper": 6906,
      "Ġadapt": 6907,
      "Ġtank": 6908,
      "Ġequival": 6909,
      "Ġjournalists": 6910,
      "ĠAdam": 6911,
      "Ġvillage": 6912,
      "oric": 6913,
      "Ġ55": 6914,
      "ĠServices": 6915,
      "Ġsweet": 6916,
      "Ġextensive": 6917,
      "Ġselection": 6918,
      "ĠCompany": 6919,
      "ĠBusiness": 6920,
      "ĠKey": 6921,
      "ĠEduc": 6922,
      "ĠJosh": 6923,
      "ĠAsian": 6924,
      "Ġcontrolled": 6925,
      "ĠLand": 6926,
      "Ġimpressive": 6927,
      "DS": 6928,
      "ĠOF": 6929,
      "Ġemployee": 6930,
      "igg": 6931,
      "ogan": 6932,
      "stone": 6933,
      "Ġdrag": 6934,
      "ĠCare": 6935,
      "Ġtopic": 6936,
      "Ġlikes": 6937,
      "arity": 6938,
      "inson": 6939,
      "Ġsample": 6940,
      "apse": 6941,
      "IF": 6942,
      "Ġdeleg": 6943,
      "ĠScotland": 6944,
      "ĠAttorney": 6945,
      "ĠMiami": 6946,
      "ĠAcadem": 6947,
      "ĠCome": 6948,
      "Ġdesper": 6949,
      "Ġtransp": 6950,
      "str": 6951,
      "Ġruled": 6952,
      "ocation": 6953,
      "Ġstim": 6954,
      "Ġstrongly": 6955,
      "ĠCheck": 6956,
      "ĠTaylor": 6957,
      "Ġprote": 6958,
      "Ġsight": 6959,
      "Ġdeck": 6960,
      "Ġclaiming": 6961,
      "Ġspin": 6962,
      "Ġsomewhere": 6963,
      "ĠSea": 6964,
      "Ġtrees": 6965,
      "obile": 6966,
      "Ġrub": 6967,
      "Ġevil": 6968,
      "wan": 6969,
      "Ġgotten": 6970,
      "pes": 6971,
      "style": 6972,
      "ĠMinnesota": 6973,
      "Ġcondem": 6974,
      "raid": 6975,
      "Ġdress": 6976,
      "Ġdefinition": 6977,
      "pool": 6978,
      "ether": 6979,
      "Ġdirected": 6980,
      "ĠTony": 6981,
      "eping": 6982,
      "85": 6983,
      "owa": 6984,
      "ura": 6985,
      "irms": 6986,
      "Ġdatabase": 6987,
      "sters": 6988,
      "Ġcomparison": 6989,
      "cers": 6990,
      "ĠDNA": 6991,
      "Ġcourts": 6992,
      "ao": 6993,
      "Ġheight": 6994,
      "Ġdrawn": 6995,
      "ĠSource": 6996,
      "Ġfalling": 6997,
      "Ġanswers": 6998,
      "Ġofficially": 6999,
      "Ġintellect": 7000,
      "lls": 7001,
      "ĠLew": 7002,
      "Ġ42": 7003,
      "Ġhonor": 7004,
      "cow": 7005,
      "Ġdiagn": 7006,
      "Ġengage": 7007,
      "Ġconstant": 7008,
      "intend": 7009,
      "Ġpolls": 7010,
      "ĠIndeed": 7011,
      "dis": 7012,
      "amin": 7013,
      "iform": 7014,
      "Ġexposed": 7015,
      "Ġaspects": 7016,
      "ĠFre": 7017,
      "Ġdistinct": 7018,
      "Ġencourage": 7019,
      "Ġfifth": 7020,
      "Ġbunch": 7021,
      "Ġcaptured": 7022,
      "Ġcutting": 7023,
      "Ġcomprom": 7024,
      "axy": 7025,
      "arn": 7026,
      "Ġreveal": 7027,
      "ĠVictor": 7028,
      "rary": 7029,
      "Ġwinner": 7030,
      "Ġfinds": 7031,
      "Ġpurposes": 7032,
      "Ġideal": 7033,
      "Ġretain": 7034,
      "Ġinqu": 7035,
      "Ġrival": 7036,
      "asts": 7037,
      "ĠColl": 7038,
      "Ġthreatened": 7039,
      "Ġrejected": 7040,
      "Ġsquad": 7041,
      "Ġboot": 7042,
      "Ġsoul": 7043,
      "Ġprimarily": 7044,
      "ĠHistory": 7045,
      "Ġamounts": 7046,
      "Ġdriven": 7047,
      "po": 7048,
      "ĠDall": 7049,
      "Ġobtained": 7050,
      "Ġcolon": 7051,
      "edia": 7052,
      "Ġtruck": 7053,
      "Ġcomponents": 7054,
      "ĠGi": 7055,
      "Ġpayment": 7056,
      "ĠSpain": 7057,
      "Ġincl": 7058,
      "ĠRog": 7059,
      "Ġwid": 7060,
      "lder": 7061,
      "ĠConstitution": 7062,
      "Ġchosen": 7063,
      "Ġsouthern": 7064,
      "ĠFollowing": 7065,
      "Ġpunish": 7066,
      "Ġnarrative": 7067,
      "Ġreasonable": 7068,
      "Ġrig": 7069,
      "izz": 7070,
      "Ġprofit": 7071,
      "ĠNever": 7072,
      "Ġemployment": 7073,
      "Ġdecent": 7074,
      "ĠForeign": 7075,
      "osis": 7076,
      "asks": 7077,
      "alle": 7078,
      "ĠProgram": 7079,
      "Ġkil": 7080,
      "Ġgoods": 7081,
      "Ġbench": 7082,
      "zens": 7083,
      "Ġencoun": 7084,
      "boy": 7085,
      "Ġclients": 7086,
      "Ġarguments": 7087,
      "Ġimper": 7088,
      "ĠNHL": 7089,
      "Ġresulting": 7090,
      "Ġcoalition": 7091,
      "Ġflex": 7092,
      "Ġtrading": 7093,
      "Ġtechnologies": 7094,
      "Ġelsewhere": 7095,
      "Ġties": 7096,
      "Ġ65": 7097,
      "Ġunw": 7098,
      "ĠBell": 7099,
      "ĠBru": 7100,
      "ĪĴ": 7101,
      "acc": 7102,
      "ĠVis": 7103,
      "essed": 7104,
      "ĠCivil": 7105,
      "ĠHas": 7106,
      "Ġestimates": 7107,
      "Ġhouses": 7108,
      "Ġvacc": 7109,
      "vy": 7110,
      "han": 7111,
      "Ġbaseball": 7112,
      "Ġmachines": 7113,
      "Ġbid": 7114,
      "Ġicon": 7115,
      "igation": 7116,
      "isan": 7117,
      "ivery": 7118,
      "enders": 7119,
      "Ġconstit": 7120,
      "Ġchampion": 7121,
      "Ġflying": 7122,
      "ĠPay": 7123,
      "ĠAnth": 7124,
      "Ġpayments": 7125,
      "Ġchoices": 7126,
      "Ġelectricity": 7127,
      "Ġstronger": 7128,
      "Ġaccurate": 7129,
      "How": 7130,
      "Ġ47": 7131,
      "Ġconstantly": 7132,
      "ĠNBC": 7133,
      "Ġbills": 7134,
      "aire": 7135,
      "Bl": 7136,
      "Ġpod": 7137,
      "Ġparking": 7138,
      "Ġcontem": 7139,
      "Ġbear": 7140,
      "iscal": 7141,
      "mo": 7142,
      "owed": 7143,
      "pected": 7144,
      "67": 7145,
      "ĠOrig": 7146,
      "ĠCH": 7147,
      "Ġregularly": 7148,
      "ĠHave": 7149,
      "Ġsignal": 7150,
      "Ġconscious": 7151,
      "Ġperfectly": 7152,
      "Ġending": 7153,
      "Ġfighters": 7154,
      "Ġanx": 7155,
      "ĠMoore": 7156,
      "Ġstretch": 7157,
      "Ġoutcome": 7158,
      "inations": 7159,
      "Ġhits": 7160,
      "ĠOS": 7161,
      "Ġinfect": 7162,
      "Ġdeveloper": 7163,
      "Ġiron": 7164,
      "Ġmurd": 7165,
      "VER": 7166,
      "ĠLive": 7167,
      "rehens": 7168,
      "ĠSouthern": 7169,
      "Ġunp": 7170,
      "Ġstead": 7171,
      "Ġempty": 7172,
      "ĠRun": 7173,
      "Ar": 7174,
      "sea": 7175,
      "68": 7176,
      "Ġble": 7177,
      "Ġanymore": 7178,
      "regon": 7179,
      "Ġsomebody": 7180,
      "emen": 7181,
      "Ġcrucial": 7182,
      "Ġupper": 7183,
      "Ġcontributed": 7184,
      "Ġemissions": 7185,
      "Ġapartment": 7186,
      "ĠÎ": 7187,
      "ĠGlobal": 7188,
      "Ġfounder": 7189,
      "ĠMu": 7190,
      "Ġkeeps": 7191,
      "sole": 7192,
      "Ġexcess": 7193,
      "Ġprovince": 7194,
      "ĠLGBT": 7195,
      "earing": 7196,
      "fire": 7197,
      "otes": 7198,
      "ĠTem": 7199,
      "ĠRick": 7200,
      "Ġworldwide": 7201,
      "Ġconcluded": 7202,
      "ĠItalian": 7203,
      "Ġcontinuing": 7204,
      "ĠBowl": 7205,
      "Ġpilot": 7206,
      "bar": 7207,
      "ĠRay": 7208,
      "def": 7209,
      "Ġ64": 7210,
      "Ġinformed": 7211,
      "Ġcontrols": 7212,
      "Ġfields": 7213,
      "ĠChampionship": 7214,
      "Ġsituations": 7215,
      "Ġformat": 7216,
      "alo": 7217,
      "apes": 7218,
      "you": 7219,
      "Ġaimed": 7220,
      "Ġfold": 7221,
      "ĠSever": 7222,
      "ĠData": 7223,
      "Ġ1999": 7224,
      "Ġprogramming": 7225,
      "iana": 7226,
      "Ġincredible": 7227,
      "Ġconclusion": 7228,
      "inding": 7229,
      "Ġreporter": 7230,
      "Ġmyth": 7231,
      "Ġenthus": 7232,
      "ĠId": 7233,
      "ĠMajor": 7234,
      "Ġexists": 7235,
      "Ġgranted": 7236,
      "Ġstuck": 7237,
      "Ġroutine": 7238,
      "ĠPacific": 7239,
      "ĠNation": 7240,
      "Ġorganized": 7241,
      "Ġincredibly": 7242,
      "Our": 7243,
      "icer": 7244,
      "ez": 7245,
      "Ġnobody": 7246,
      "ĠBalt": 7247,
      "ĠJason": 7248,
      "ĠFred": 7249,
      "Ġshares": 7250,
      "Ġactor": 7251,
      "Ġregistered": 7252,
      "All": 7253,
      "Ġdemands": 7254,
      "Ġmayor": 7255,
      "ĠFoot": 7256,
      "there": 7257,
      "redit": 7258,
      "icken": 7259,
      "Ġseats": 7260,
      "Ġconspir": 7261,
      "ras": 7262,
      "Ġweird": 7263,
      "ĠNob": 7264,
      "Ġcapture": 7265,
      "Ġinnoc": 7266,
      "********": 7267,
      "Ġassistant": 7268,
      "Ġtransm": 7269,
      "ĠAp": 7270,
      "ĠNorthern": 7271,
      "Ġloan": 7272,
      "ĠDallas": 7273,
      "Ġraising": 7274,
      "Ġprofile": 7275,
      "Ġexplanation": 7276,
      "ĠUlt": 7277,
      "Ġterrible": 7278,
      "ĠMcG": 7279,
      "ĠSeries": 7280,
      "Ġlawmakers": 7281,
      "Ġmixed": 7282,
      "Ġcompens": 7283,
      "Ġawesome": 7284,
      "ĠMoscow": 7285,
      "ifications": 7286,
      "Ġprinciples": 7287,
      "ship": 7288,
      "Ġassistance": 7289,
      "CE": 7290,
      "ifer": 7291,
      "Ġcomplicated": 7292,
      "Ġcategory": 7293,
      "Ġpermanent": 7294,
      "Ġangry": 7295,
      "rete": 7296,
      "Ġconven": 7297,
      "Ġrecovery": 7298,
      "ima": 7299,
      "Ġnewly": 7300,
      "ĠDead": 7301,
      "Ġsolutions": 7302,
      "Ġcrypt": 7303,
      "Ġdozen": 7304,
      "itar": 7305,
      "Ġrepresented": 7306,
      "Ġtied": 7307,
      "Ġthread": 7308,
      "ĠThrough": 7309,
      "Ġwriters": 7310,
      "Ġtherap": 7311,
      "Ġbrew": 7312,
      "Ġplastic": 7313,
      "Ġletters": 7314,
      "ilarly": 7315,
      "ĠEastern": 7316,
      "Ġsurvive": 7317,
      "Ġenemies": 7318,
      "Ġdollar": 7319,
      "Ġdrinking": 7320,
      "rates": 7321,
      "ĠHard": 7322,
      "ĠParliament": 7323,
      "Ġaggressive": 7324,
      "Ġgaming": 7325,
      "ĠOak": 7326,
      "onsin": 7327,
      "ĠOregon": 7328,
      "rett": 7329,
      "Ġcomplaint": 7330,
      "orted": 7331,
      "Ġok": 7332,
      "Ġworker": 7333,
      "Ġscenes": 7334,
      "Ġmonit": 7335,
      "Ġengaged": 7336,
      "ĠMid": 7337,
      "Ġgro": 7338,
      "Ġtaste": 7339,
      "Ġuncertain": 7340,
      "Ġpenalty": 7341,
      "ĠIowa": 7342,
      "ĠAsh": 7343,
      "ĠSaf": 7344,
      "ĠHead": 7345,
      "?'": 7346,
      "Ġpaint": 7347,
      "Ġmagic": 7348,
      "ĠHom": 7349,
      "ĠSnow": 7350,
      "Ġproved": 7351,
      "Ġsuccessfully": 7352,
      "ĠFood": 7353,
      "Ġestate": 7354,
      "acked": 7355,
      "Ġtroub": 7356,
      "ĠHot": 7357,
      "ĠPolicy": 7358,
      "Ġacademic": 7359,
      "agram": 7360,
      "isconsin": 7361,
      "ĠGreg": 7362,
      "Ġatmosphere": 7363,
      "inity": 7364,
      "Ġoperate": 7365,
      "Ġanticip": 7366,
      "inder": 7367,
      "rating": 7368,
      "Ġvisited": 7369,
      "Ġextract": 7370,
      "lights": 7371,
      "UR": 7372,
      "ĠFull": 7373,
      "Ġinspir": 7374,
      "Ġteaching": 7375,
      "usse": 7376,
      "Ġmainly": 7377,
      "Ġphr": 7378,
      "Ġreturning": 7379,
      "Ġoverse": 7380,
      "Ġgenerate": 7381,
      "Ġnegotiations": 7382,
      "Ġaccomp": 7383,
      "Ġsympt": 7384,
      "idency": 7385,
      "ĠHor": 7386,
      "Ġnut": 7387,
      "ĠJudge": 7388,
      "199": 7389,
      "urb": 7390,
      "Ġdisaster": 7391,
      "78": 7392,
      "Ġdegrees": 7393,
      "Ġgall": 7394,
      "anny": 7395,
      "Ġtitles": 7396,
      "anchester": 7397,
      "Ġchances": 7398,
      "Ġveteran": 7399,
      "ĠZeal": 7400,
      "Ġfeedback": 7401,
      "Ġextrem": 7402,
      "Ġrus": 7403,
      "Ġtechniques": 7404,
      "Con": 7405,
      "Ġresulted": 7406,
      "Ġphones": 7407,
      "actions": 7408,
      "ibilities": 7409,
      "Ġcyber": 7410,
      "ĠGreek": 7411,
      "Ġpace": 7412,
      "bal": 7413,
      "Ġroster": 7414,
      "Ġ44": 7415,
      "mont": 7416,
      "Ġ($": 7417,
      "aron": 7418,
      "ĠJac": 7419,
      "Ġparam": 7420,
      "ĠKent": 7421,
      "ker": 7422,
      "Ġwestern": 7423,
      "ĠDevelopment": 7424,
      "Ġtaught": 7425,
      "08": 7426,
      "ĠMake": 7427,
      "Ġvaluable": 7428,
      "Ġcollected": 7429,
      "sa": 7430,
      "NC": 7431,
      "Ġconsumption": 7432,
      "ĠHenry": 7433,
      "Ġmarked": 7434,
      "Ġcontracts": 7435,
      "59": 7436,
      "Ġmanip": 7437,
      "aed": 7438,
      "Ġru": 7439,
      "09": 7440,
      "Ġprivile": 7441,
      "ĠWithout": 7442,
      "Ġvulnerable": 7443,
      "Ġattended": 7444,
      "quarters": 7445,
      "lers": 7446,
      "ĠBull": 7447,
      "LC": 7448,
      "Ġentit": 7449,
      "etary": 7450,
      "Ġreputation": 7451,
      "cles": 7452,
      "Ġcomputers": 7453,
      "Ġlawyers": 7454,
      "%.": 7455,
      "Ġhidden": 7456,
      "ĠFund": 7457,
      "Ġitem": 7458,
      "era": 7459,
      "Ġtall": 7460,
      "Ġbom": 7461,
      "Al": 7462,
      "ĠMayor": 7463,
      "Ġpropag": 7464,
      "Ġautomatically": 7465,
      "Ġelev": 7466,
      "To": 7467,
      "69": 7468,
      "ĠWisconsin": 7469,
      "ĠViet": 7470,
      "Ġ400": 7471,
      "Ġportion": 7472,
      "phia": 7473,
      "ali": 7474,
      "uine": 7475,
      "Ġdict": 7476,
      "ĠMoh": 7477,
      "imp": 7478,
      "Ġbrut": 7479,
      "Ġmel": 7480,
      "ĠStart": 7481,
      "ependent": 7482,
      "Ġelite": 7483,
      "itals": 7484,
      "Ġbitcoin": 7485,
      "idelines": 7486,
      "Ġequivalent": 7487,
      "Ġwarming": 7488,
      "ĠDoes": 7489,
      "Ġticket": 7490,
      "04": 7491,
      "Ġafraid": 7492,
      "ĠRoman": 7493,
      "Ġadopted": 7494,
      "Ġcorruption": 7495,
      "Ġprominent": 7496,
      "Ġfeelings": 7497,
      "aturally": 7498,
      "Cl": 7499,
      "Ġsufficient": 7500,
      "Ġads": 7501,
      "Ġsurgery": 7502,
      "Ġdepending": 7503,
      "Ġrating": 7504,
      "Ġdefence": 7505,
      "herent": 7506,
      "Ġfirms": 7507,
      "rific": 7508,
      "ĠAS": 7509,
      "ĠAlab": 7510,
      "Ġregardless": 7511,
      "Ġinstalled": 7512,
      "Ġrarely": 7513,
      "Ġsolve": 7514,
      "ĠLinux": 7515,
      "inch": 7516,
      "ĠBry": 7517,
      "Ġprocesses": 7518,
      "Ġaudio": 7519,
      "Ġenable": 7520,
      "Ġ41": 7521,
      "ĠNC": 7522,
      "Ġgrant": 7523,
      "Ġapolog": 7524,
      "Ġsup": 7525,
      "Ġblocks": 7526,
      "athy": 7527,
      "ĠHarry": 7528,
      "ashes": 7529,
      "Ġcounty": 7530,
      "adelphia": 7531,
      "Ġcup": 7532,
      "ĠLo": 7533,
      "Ġpounds": 7534,
      "Ġbes": 7535,
      "Ġengineering": 7536,
      "ĠFC": 7537,
      "Ġintense": 7538,
      "Ġcompete": 7539,
      "ded": 7540,
      "Ġspr": 7541,
      "ĠManchester": 7542,
      "eland": 7543,
      "Ġpermission": 7544,
      "Ġtracks": 7545,
      "gorith": 7546,
      "ĠFed": 7547,
      "Ġacceler": 7548,
      "Ġadvis": 7549,
      "ĠEducation": 7550,
      "Ġcable": 7551,
      "Ġenorm": 7552,
      "Ġfinance": 7553,
      "ĠKingdom": 7554,
      "Ġ150": 7555,
      "Ġroot": 7556,
      "Ġfunny": 7557,
      "Ġriver": 7558,
      "Ġunusual": 7559,
      "Ġhadn": 7560,
      "Ġthin": 7561,
      "Ġbusy": 7562,
      "elect": 7563,
      "Ġdiscipl": 7564,
      "car": 7565,
      "Ġfought": 7566,
      "dy": 7567,
      "ĠSat": 7568,
      "tes": 7569,
      "ĠMir": 7570,
      "ĠHay": 7571,
      "Ġcited": 7572,
      "Ġstrikes": 7573,
      ".-": 7574,
      "Ġbrowser": 7575,
      "hent": 7576,
      "ĠOK": 7577,
      "rators": 7578,
      "Ġparticipate": 7579,
      "Ġsatell": 7580,
      "ria": 7581,
      "Ġinev": 7582,
      "ĠVideo": 7583,
      "ĠList": 7584,
      "Ġpossession": 7585,
      "Ġhistoric": 7586,
      "Ġhabit": 7587,
      "Ġemerged": 7588,
      "ĠCoast": 7589,
      "Photo": 7590,
      "Ġstations": 7591,
      "ĠSometimes": 7592,
      "ĠStat": 7593,
      "Ġrecording": 7594,
      "ĠRand": 7595,
      "ĠIT": 7596,
      "ĠSir": 7597,
      "ĠMusic": 7598,
      "%,": 7599,
      "Ġpersonnel": 7600,
      "Ġgenerated": 7601,
      "ĠAmendment": 7602,
      "net": 7603,
      "Ġfake": 7604,
      "Ġminority": 7605,
      "Ġdescribes": 7606,
      "Ġenjoyed": 7607,
      "ĠUse": 7608,
      "ĠZealand": 7609,
      "New": 7610,
      "enth": 7611,
      "Ġagric": 7612,
      "Ġdowntown": 7613,
      "orough": 7614,
      "Ġvisible": 7615,
      "Ġexposure": 7616,
      "Ġracial": 7617,
      "ĠBuild": 7618,
      "des": 7619,
      "Ġexpectations": 7620,
      "ĠTenn": 7621,
      "ĠAvenue": 7622,
      "fast": 7623,
      "ĠProfessor": 7624,
      "Ġtaxpay": 7625,
      "ĠUFC": 7626,
      "Ġmedium": 7627,
      "Ġrecru": 7628,
      "lan": 7629,
      "Ġshortly": 7630,
      "Ġextension": 7631,
      "300": 7632,
      "Ġduty": 7633,
      "ĠSeveral": 7634,
      "Ġeverywhere": 7635,
      "sm": 7636,
      "Ġestablishment": 7637,
      "ĠPhiladelphia": 7638,
      "Ġexplicit": 7639,
      "Ġpatterns": 7640,
      "ĠUsing": 7641,
      "igen": 7642,
      "upid": 7643,
      "making": 7644,
      "ĠPoint": 7645,
      "Ġaffili": 7646,
      "ĠGiven": 7647,
      "Ġ46": 7648,
      "An": 7649,
      "viously": 7650,
      "Ġblind": 7651,
      "ĠRose": 7652,
      "Ġchampionship": 7653,
      "inking": 7654,
      "ĠTurkish": 7655,
      "Ġadvertising": 7656,
      "ĠAlabama": 7657,
      "Ġthousand": 7658,
      "Ġsharp": 7659,
      "ĠSP": 7660,
      "profit": 7661,
      "ogen": 7662,
      "asion": 7663,
      "Ġindex": 7664,
      "Ġsanctions": 7665,
      "Ġloud": 7666,
      "Ġpasses": 7667,
      "Ġphotograph": 7668,
      "ye": 7669,
      "Ġrecip": 7670,
      "ĠâĤ¬": 7671,
      "ilton": 7672,
      "ĠReuters": 7673,
      "rep": 7674,
      "cus": 7675,
      "ĠArm": 7676,
      "ĠRadio": 7677,
      "istent": 7678,
      "ĠNavy": 7679,
      "iro": 7680,
      "Ġfee": 7681,
      "uan": 7682,
      "ifies": 7683,
      "ĠKir": 7684,
      "Ġshock": 7685,
      "ĠKurd": 7686,
      "fall": 7687,
      "Ġborrow": 7688,
      "Ġprinciple": 7689,
      "Ġwithdraw": 7690,
      "Ġgained": 7691,
      "orne": 7692,
      "Ġdozens": 7693,
      "Donald": 7694,
      "ĠRos": 7695,
      "athered": 7696,
      "At": 7697,
      "ĠConference": 7698,
      "ĠPack": 7699,
      "arsh": 7700,
      "HS": 7701,
      "Ġpriority": 7702,
      "Ġpump": 7703,
      "Ġbehalf": 7704,
      "Ġmanufacturing": 7705,
      "ja": 7706,
      "ĠAdministration": 7707,
      "month": 7708,
      "ni": 7709,
      "Ġ43": 7710,
      "list": 7711,
      "Ġ%": 7712,
      "ĠMarket": 7713,
      "02": 7714,
      "ules": 7715,
      "Ġoutr": 7716,
      "Ġobst": 7717,
      "ilipp": 7718,
      "Ġcameras": 7719,
      "Ġridic": 7720,
      "teen": 7721,
      "ounced": 7722,
      "Ġtor": 7723,
      "Ġscoring": 7724,
      "ĠPremier": 7725,
      "EE": 7726,
      "Ġstrict": 7727,
      "Oh": 7728,
      "Ġho": 7729,
      "ĠDig": 7730,
      "Ġclubs": 7731,
      "lock": 7732,
      "ĠExt": 7733,
      "Ġformal": 7734,
      "Ġfoundation": 7735,
      "Ġlaid": 7736,
      "Ġfounded": 7737,
      "sylv": 7738,
      "Ġtoler": 7739,
      "ĠRoyal": 7740,
      "Ġbridge": 7741,
      "Ġarrange": 7742,
      "osexual": 7743,
      "Ġlights": 7744,
      "Ġcomic": 7745,
      "aska": 7746,
      "MS": 7747,
      "ĠInformation": 7748,
      "chain": 7749,
      "ĠHT": 7750,
      "MP": 7751,
      "ogether": 7752,
      "rous": 7753,
      "Ġgenuine": 7754,
      "Ġprofession": 7755,
      "Ġfarmers": 7756,
      "ĠCirc": 7757,
      "ĠNic": 7758,
      "ĠLittle": 7759,
      "izon": 7760,
      "ĠVR": 7761,
      "Ġbanned": 7762,
      "ĠChristians": 7763,
      "Ġdoors": 7764,
      "Ġentering": 7765,
      "Ġjournalist": 7766,
      "Ġbacked": 7767,
      "etts": 7768,
      "uer": 7769,
      "Ġneutral": 7770,
      "icate": 7771,
      "Ġthick": 7772,
      "ba": 7773,
      "ĠRelated": 7774,
      "star": 7775,
      "active": 7776,
      "cape": 7777,
      "Ġ1960": 7778,
      "Ġuniform": 7779,
      "Ġcreates": 7780,
      "Ġbasketball": 7781,
      "ĠHD": 7782,
      "Ġrelief": 7783,
      "Ġdiscrimination": 7784,
      "pread": 7785,
      "Ġstable": 7786,
      "Ġroles": 7787,
      "oured": 7788,
      "Ġflaw": 7789,
      "Ġstun": 7790,
      "Ġrecognized": 7791,
      "Ġlosses": 7792,
      "Ġbeliefs": 7793,
      "Ġexception": 7794,
      "rative": 7795,
      "Ġcorporations": 7796,
      "Ġwing": 7797,
      "ĠNAT": 7798,
      "Ġdrawing": 7799,
      "Ġproport": 7800,
      "Ġcounsel": 7801,
      "ĠAcademy": 7802,
      "bro": 7803,
      "Ġ2019": 7804,
      "Ġphilosophy": 7805,
      "Ġfault": 7806,
      "ĠPen": 7807,
      "Ġreduction": 7808,
      "ĠWH": 7809,
      "ĠMuseum": 7810,
      "sylvania": 7811,
      "ML": 7812,
      "ĠWhether": 7813,
      "Ġcontaining": 7814,
      "Ġrely": 7815,
      "ĠHit": 7816,
      "57": 7817,
      "Ġnominee": 7818,
      "Ġveget": 7819,
      "Ġhole": 7820,
      "aun": 7821,
      "Ġstab": 7822,
      "ĠNSA": 7823,
      "Ġ1998": 7824,
      "Ġgonna": 7825,
      "Ġwed": 7826,
      "Ġven": 7827,
      "lla": 7828,
      "prise": 7829,
      "Ġwonderful": 7830,
      "Ġhired": 7831,
      "ĠFair": 7832,
      "Ġsaved": 7833,
      "Ġfootage": 7834,
      "eman": 7835,
      "idespread": 7836,
      "ĠFamily": 7837,
      "Ġstruggling": 7838,
      "Ġscenario": 7839,
      "Ġairport": 7840,
      "Ġliked": 7841,
      "Ġinterface": 7842,
      "Ġju": 7843,
      "Ġedition": 7844,
      "front": 7845,
      "ĠLuc": 7846,
      "ĠTri": 7847,
      "azz": 7848,
      "Ġuncom": 7849,
      "ĠDivision": 7850,
      "amber": 7851,
      "olt": 7852,
      "Ġcha": 7853,
      "ĠLind": 7854,
      "58": 7855,
      "Ġachieved": 7856,
      "ĠABC": 7857,
      "Ġhang": 7858,
      "Ġcomponent": 7859,
      "da": 7860,
      "Ġlegend": 7861,
      "oen": 7862,
      "Ġtag": 7863,
      "writ": 7864,
      "ĠLatin": 7865,
      "ĠCore": 7866,
      "Ġalgorith": 7867,
      "EA": 7868,
      "ĠBernie": 7869,
      "Ġconvicted": 7870,
      "Ġspark": 7871,
      "ĠAtlanta": 7872,
      "Ġrose": 7873,
      "Ġindicated": 7874,
      "cr": 7875,
      "Ġwalls": 7876,
      "Ġindicate": 7877,
      "Ġmovements": 7878,
      "Ġbarely": 7879,
      "%)": 7880,
      "Ġheaded": 7881,
      "07": 7882,
      "Ġconvin": 7883,
      "gun": 7884,
      "ĠCameron": 7885,
      "ĠWalker": 7886,
      "Ġcrop": 7887,
      "ĠMcCain": 7888,
      "ĠCentre": 7889,
      "ĠPennsylvania": 7890,
      "Ġproducer": 7891,
      "ĠAnton": 7892,
      "ikes": 7893,
      "ĠESP": 7894,
      "imore": 7895,
      "Ġdinner": 7896,
      "etime": 7897,
      "ĠSeason": 7898,
      "ĠPass": 7899,
      "ĠField": 7900,
      "Ġcannabis": 7901,
      "ulating": 7902,
      "ĠAnthony": 7903,
      "Ġaver": 7904,
      "ĠCurrent": 7905,
      "who": 7906,
      "Ġimplementation": 7907,
      "ĠPatrick": 7908,
      "Ġdeliber": 7909,
      "Ġinterviews": 7910,
      "achus": 7911,
      "Ġelectronic": 7912,
      "ĠEmail": 7913,
      "ĠMedical": 7914,
      "ĠOnt": 7915,
      "ĠEarlier": 7916,
      "ked": 7917,
      "Ġmail": 7918,
      "ĠPot": 7919,
      "Ġdestruction": 7920,
      "Ġwelf": 7921,
      "obs": 7922,
      "ĠAdv": 7923,
      "Ġships": 7924,
      "ĠArabia": 7925,
      "ĠBeach": 7926,
      "Ġintellectual": 7927,
      "rypt": 7928,
      "bell": 7929,
      "Ġrestrictions": 7930,
      "xic": 7931,
      "Ġrapidly": 7932,
      "ĠHaving": 7933,
      "uties": 7934,
      "Ġwelfare": 7935,
      "06": 7936,
      "Un": 7937,
      "ĠGov": 7938,
      "ĠEnvironment": 7939,
      "Ġreviews": 7940,
      "aus": 7941,
      "Ġfinger": 7942,
      "usive": 7943,
      "interest": 7944,
      "Ġneighb": 7945,
      "Ġindependence": 7946,
      "ĠTed": 7947,
      "ĠAllen": 7948,
      "Ġretired": 7949,
      "ĠFormer": 7950,
      "ĠSH": 7951,
      "Ġequally": 7952,
      "ĠIce": 7953,
      "Ġnotion": 7954,
      "Ġstadium": 7955,
      "Ġwheel": 7956,
      "Ġforever": 7957,
      "RS": 7958,
      "Ġrecognition": 7959,
      "Ġham": 7960,
      "Ġloyal": 7961,
      "core": 7962,
      "olen": 7963,
      "ione": 7964,
      "ĠDeath": 7965,
      "Ġgift": 7966,
      "Ġyield": 7967,
      "Ġdelivery": 7968,
      "Ġincent": 7969,
      "Ġutil": 7970,
      "Ġfrag": 7971,
      "Ġviewers": 7972,
      "ATE": 7973,
      "Ġfiscal": 7974,
      "Ġvital": 7975,
      "Ġhide": 7976,
      "ĠPhilipp": 7977,
      "elf": 7978,
      "weet": 7979,
      "Ġbegun": 7980,
      "mod": 7981,
      "ouver": 7982,
      "olis": 7983,
      "ĠJay": 7984,
      "Ġplate": 7985,
      "On": 7986,
      "Ġhitting": 7987,
      "Ġupset": 7988,
      "Ġchallenging": 7989,
      "abinet": 7990,
      "Ġsettlement": 7991,
      "Ġstructures": 7992,
      "ington": 7993,
      "ĠMatthew": 7994,
      "Ġterrorists": 7995,
      "Ġinitiative": 7996,
      "umer": 7997,
      "ĠAz": 7998,
      "ĠKansas": 7999
    },
    "merges": [
      [
        "Ġ",
        "t"
      ],
      [
        "Ġ",
        "a"
      ],
      [
        "h",
        "e"
      ],
      [
        "i",
        "n"
      ],
      [
        "r",
        "e"
      ],
      [
        "Ġt",
        "he"
      ],
      [
        "o",
        "n"
      ],
      [
        "e",
        "r"
      ],
      [
        "Ġ",
        "s"
      ],
      [
        "Ġ",
        "w"
      ],
      [
        "a",
        "t"
      ],
      [
        "Ġ",
        "o"
      ],
      [
        "e",
        "n"
      ],
      [
        "Ġ",
        "c"
      ],
      [
        "i",
        "t"
      ],
      [
        "i",
        "s"
      ],
      [
        "a",
        "n"
      ],
      [
        "o",
        "r"
      ],
      [
        "Ġ",
        "b"
      ],
      [
        "e",
        "d"
      ],
      [
        "e",
        "s"
      ],
      [
        "Ġ",
        "f"
      ],
      [
        "in",
        "g"
      ],
      [
        "Ġ",
        "p"
      ],
      [
        "o",
        "u"
      ],
      [
        "Ġa",
        "n"
      ],
      [
        "a",
        "l"
      ],
      [
        "Ġt",
        "o"
      ],
      [
        "a",
        "r"
      ],
      [
        "Ġ",
        "m"
      ],
      [
        "Ġ",
        "in"
      ],
      [
        "Ġo",
        "f"
      ],
      [
        "Ġ",
        "d"
      ],
      [
        "Ġ",
        "h"
      ],
      [
        "a",
        "s"
      ],
      [
        "Ġan",
        "d"
      ],
      [
        "i",
        "c"
      ],
      [
        "Ġt",
        "h"
      ],
      [
        "l",
        "e"
      ],
      [
        "i",
        "on"
      ],
      [
        "o",
        "m"
      ],
      [
        "l",
        "l"
      ],
      [
        "en",
        "t"
      ],
      [
        "Ġ",
        "T"
      ],
      [
        "Ġ",
        "n"
      ],
      [
        "Ġ",
        "l"
      ],
      [
        "Ġ",
        "re"
      ],
      [
        "s",
        "t"
      ],
      [
        "v",
        "e"
      ],
      [
        "l",
        "y"
      ],
      [
        "Ġ",
        "e"
      ],
      [
        "Ġb",
        "e"
      ],
      [
        "r",
        "o"
      ],
      [
        "Ġ",
        "g"
      ],
      [
        "Ġ",
        "I"
      ],
      [
        "i",
        "d"
      ],
      [
        "u",
        "t"
      ],
      [
        "Ġ",
        "S"
      ],
      [
        "a",
        "c"
      ],
      [
        "o",
        "t"
      ],
      [
        "Ġ",
        "A"
      ],
      [
        "Ġth",
        "at"
      ],
      [
        "Ġ",
        "on"
      ],
      [
        "a",
        "y"
      ],
      [
        "Ġ",
        "is"
      ],
      [
        "i",
        "m"
      ],
      [
        "e",
        "t"
      ],
      [
        "a",
        "m"
      ],
      [
        "a",
        "d"
      ],
      [
        "o",
        "w"
      ],
      [
        "s",
        "e"
      ],
      [
        "i",
        "g"
      ],
      [
        "Ġf",
        "or"
      ],
      [
        "Ġ",
        "C"
      ],
      [
        "v",
        "er"
      ],
      [
        "'",
        "s"
      ],
      [
        "u",
        "r"
      ],
      [
        "l",
        "d"
      ],
      [
        "c",
        "t"
      ],
      [
        "Ġ",
        "u"
      ],
      [
        "Ġs",
        "t"
      ],
      [
        "Ġ",
        "y"
      ],
      [
        "Ġ",
        "M"
      ],
      [
        "Ġ",
        "it"
      ],
      [
        "Ġ",
        "he"
      ],
      [
        "Ġ",
        "\""
      ],
      [
        "i",
        "r"
      ],
      [
        "at",
        "ion"
      ],
      [
        "it",
        "h"
      ],
      [
        "Ġw",
        "h"
      ],
      [
        "Ġ",
        "B"
      ],
      [
        "c",
        "e"
      ],
      [
        "ĠT",
        "he"
      ],
      [
        "t",
        "er"
      ],
      [
        "Ġw",
        "e"
      ],
      [
        "o",
        "l"
      ],
      [
        "i",
        "l"
      ],
      [
        "Ġw",
        "ith"
      ],
      [
        "Ġa",
        "s"
      ],
      [
        "Ġ",
        "P"
      ],
      [
        "c",
        "h"
      ],
      [
        "i",
        "ll"
      ],
      [
        "Ġ",
        "W"
      ],
      [
        "n",
        "d"
      ],
      [
        "Ġw",
        "as"
      ],
      [
        "er",
        "s"
      ],
      [
        "Ġy",
        "ou"
      ],
      [
        "Ġ",
        "H"
      ],
      [
        "k",
        "e"
      ],
      [
        "Ġc",
        "on"
      ],
      [
        "Ġd",
        "e"
      ],
      [
        "Ġ",
        "r"
      ],
      [
        "he",
        "r"
      ],
      [
        "Ġ",
        "D"
      ],
      [
        "i",
        "f"
      ],
      [
        "at",
        "e"
      ],
      [
        "Ġa",
        "t"
      ],
      [
        "a",
        "g"
      ],
      [
        "Ġ",
        "R"
      ],
      [
        "Ġh",
        "a"
      ],
      [
        "Ġ",
        "F"
      ],
      [
        "Ġs",
        "e"
      ],
      [
        "Ġp",
        "ro"
      ],
      [
        "o",
        "re"
      ],
      [
        "Ġ",
        "1"
      ],
      [
        "u",
        "l"
      ],
      [
        "p",
        "p"
      ],
      [
        "m",
        "ent"
      ],
      [
        "Ġa",
        "re"
      ],
      [
        "r",
        "i"
      ],
      [
        "es",
        "t"
      ],
      [
        "is",
        "t"
      ],
      [
        "Ġc",
        "om"
      ],
      [
        "u",
        "s"
      ],
      [
        "Ġ",
        "2"
      ],
      [
        "an",
        "d"
      ],
      [
        "o",
        "p"
      ],
      [
        "a",
        "in"
      ],
      [
        "Ġ",
        "N"
      ],
      [
        "r",
        "om"
      ],
      [
        "ig",
        "h"
      ],
      [
        "Ġ",
        "("
      ],
      [
        "or",
        "t"
      ],
      [
        "Ġn",
        "e"
      ],
      [
        "o",
        "d"
      ],
      [
        "u",
        "m"
      ],
      [
        "Ġe",
        "x"
      ],
      [
        "Ġ",
        "G"
      ],
      [
        "u",
        "n"
      ],
      [
        "re",
        "s"
      ],
      [
        "a",
        "b"
      ],
      [
        "Ġn",
        "ot"
      ],
      [
        "Ġ",
        "v"
      ],
      [
        "Ġ",
        "L"
      ],
      [
        "Ġha",
        "ve"
      ],
      [
        "es",
        "s"
      ],
      [
        "it",
        "y"
      ],
      [
        "Ġo",
        "r"
      ],
      [
        "ou",
        "ld"
      ],
      [
        "Ġb",
        "y"
      ],
      [
        "e",
        "m"
      ],
      [
        "t",
        "h"
      ],
      [
        "o",
        "s"
      ],
      [
        "an",
        "t"
      ],
      [
        "Ġf",
        "rom"
      ],
      [
        "i",
        "ve"
      ],
      [
        "Ġa",
        "l"
      ],
      [
        "Ġ",
        "E"
      ],
      [
        "e",
        "l"
      ],
      [
        "Ġs",
        "u"
      ],
      [
        "ar",
        "t"
      ],
      [
        "o",
        "c"
      ],
      [
        "Ġs",
        "h"
      ],
      [
        "Ġth",
        "is"
      ],
      [
        "n",
        "t"
      ],
      [
        "Ġ",
        "O"
      ],
      [
        "q",
        "u"
      ],
      [
        "igh",
        "t"
      ],
      [
        "u",
        "st"
      ],
      [
        "p",
        "e"
      ],
      [
        "Ġ",
        "le"
      ],
      [
        "i",
        "es"
      ],
      [
        "Ġ",
        "J"
      ],
      [
        "Ġs",
        "a"
      ],
      [
        "en",
        "d"
      ],
      [
        "Ġc",
        "h"
      ],
      [
        "Ġa",
        "b"
      ],
      [
        "ou",
        "t"
      ],
      [
        "i",
        "e"
      ],
      [
        "al",
        "l"
      ],
      [
        "Ġ",
        "-"
      ],
      [
        "re",
        "d"
      ],
      [
        "ac",
        "k"
      ],
      [
        "Ġh",
        "as"
      ],
      [
        "0",
        "0"
      ],
      [
        "al",
        "ly"
      ],
      [
        "Ġp",
        "l"
      ],
      [
        "Ġg",
        "o"
      ],
      [
        "Ġh",
        "is"
      ],
      [
        "ar",
        "d"
      ],
      [
        "om",
        "e"
      ],
      [
        "i",
        "v"
      ],
      [
        "g",
        "h"
      ],
      [
        "a",
        "p"
      ],
      [
        "e",
        "ar"
      ],
      [
        "o",
        "st"
      ],
      [
        "Ġt",
        "r"
      ],
      [
        "ou",
        "r"
      ],
      [
        "as",
        "t"
      ],
      [
        "Ġ",
        "j"
      ],
      [
        "Ġ",
        "U"
      ],
      [
        "'",
        "t"
      ],
      [
        "a",
        "k"
      ],
      [
        "u",
        "d"
      ],
      [
        "Ġd",
        "o"
      ],
      [
        "Ġthe",
        "y"
      ],
      [
        "Ġw",
        "or"
      ],
      [
        "Ġb",
        "ut"
      ],
      [
        "Ġsa",
        "id"
      ],
      [
        "r",
        "ou"
      ],
      [
        "g",
        "e"
      ],
      [
        "Ġc",
        "an"
      ],
      [
        "Ġw",
        "he"
      ],
      [
        "Ġw",
        "ill"
      ],
      [
        "Ġ",
        "k"
      ],
      [
        "ic",
        "h"
      ],
      [
        "Ġa",
        "ll"
      ],
      [
        "o",
        "k"
      ],
      [
        "Ġwh",
        "o"
      ],
      [
        "id",
        "e"
      ],
      [
        "Ġin",
        "t"
      ],
      [
        "t",
        "her"
      ],
      [
        "an",
        "s"
      ],
      [
        ".",
        "\""
      ],
      [
        "Ġthe",
        "ir"
      ],
      [
        "i",
        "al"
      ],
      [
        "Ġo",
        "ut"
      ],
      [
        "am",
        "e"
      ],
      [
        "ĠT",
        "h"
      ],
      [
        "f",
        "f"
      ],
      [
        "ĠI",
        "n"
      ],
      [
        "on",
        "g"
      ],
      [
        "e",
        "ct"
      ],
      [
        "ic",
        "e"
      ],
      [
        "p",
        "l"
      ],
      [
        "u",
        "re"
      ],
      [
        "p",
        "t"
      ],
      [
        "Ġm",
        "ore"
      ],
      [
        "on",
        "e"
      ],
      [
        "ion",
        "s"
      ],
      [
        "ac",
        "t"
      ],
      [
        "Ġm",
        "e"
      ],
      [
        "ag",
        "e"
      ],
      [
        "i",
        "ke"
      ],
      [
        "ou",
        "s"
      ],
      [
        "Ġu",
        "p"
      ],
      [
        "Ġa",
        "d"
      ],
      [
        "in",
        "e"
      ],
      [
        "Ġ",
        "K"
      ],
      [
        "Ġab",
        "out"
      ],
      [
        "at",
        "ed"
      ],
      [
        "r",
        "a"
      ],
      [
        "Ġwe",
        "re"
      ],
      [
        "Ġon",
        "e"
      ],
      [
        ",",
        "\""
      ],
      [
        "b",
        "er"
      ],
      [
        "Ġs",
        "o"
      ],
      [
        "ĠS",
        "t"
      ],
      [
        "Ġu",
        "s"
      ],
      [
        "im",
        "e"
      ],
      [
        "e",
        "p"
      ],
      [
        "o",
        "g"
      ],
      [
        "Ġh",
        "ad"
      ],
      [
        "Ġ2",
        "0"
      ],
      [
        "a",
        "re"
      ],
      [
        "i",
        "a"
      ],
      [
        "c",
        "c"
      ],
      [
        "Ġw",
        "ould"
      ],
      [
        "Ġwh",
        "ich"
      ],
      [
        "u",
        "b"
      ],
      [
        "Ġc",
        "l"
      ],
      [
        "Ġ",
        "im"
      ],
      [
        "in",
        "d"
      ],
      [
        "a",
        "ke"
      ],
      [
        "Ġcon",
        "t"
      ],
      [
        "Ġa",
        "g"
      ],
      [
        "ver",
        "y"
      ],
      [
        "u",
        "e"
      ],
      [
        "i",
        "z"
      ],
      [
        "Ġt",
        "e"
      ],
      [
        "Ġof",
        "f"
      ],
      [
        "Ġcom",
        "p"
      ],
      [
        "Ġbe",
        "en"
      ],
      [
        "Ġu",
        "n"
      ],
      [
        "Ġ",
        "en"
      ],
      [
        "s",
        "o"
      ],
      [
        "ig",
        "n"
      ],
      [
        "p",
        "er"
      ],
      [
        "a",
        "u"
      ],
      [
        "Ġy",
        "ear"
      ],
      [
        "ar",
        "y"
      ],
      [
        "i",
        "p"
      ],
      [
        "ac",
        "e"
      ],
      [
        "Ġl",
        "ike"
      ],
      [
        "e",
        "w"
      ],
      [
        "e",
        "re"
      ],
      [
        "v",
        "en"
      ],
      [
        "Ġp",
        "e"
      ],
      [
        "Ġin",
        "c"
      ],
      [
        "Ġm",
        "an"
      ],
      [
        "ĠI",
        "t"
      ],
      [
        "ay",
        "s"
      ],
      [
        "o",
        "se"
      ],
      [
        "o",
        "ok"
      ],
      [
        "r",
        "y"
      ],
      [
        "Ġre",
        "s"
      ],
      [
        "Ġp",
        "er"
      ],
      [
        "it",
        "e"
      ],
      [
        "ab",
        "le"
      ],
      [
        "Ġs",
        "p"
      ],
      [
        "Ġo",
        "ther"
      ],
      [
        "m",
        "er"
      ],
      [
        "or",
        "d"
      ],
      [
        "as",
        "s"
      ],
      [
        "Ġ",
        "Y"
      ],
      [
        "i",
        "re"
      ],
      [
        "Ġ20",
        "1"
      ],
      [
        "Ġs",
        "ome"
      ],
      [
        "en",
        "ce"
      ],
      [
        "op",
        "le"
      ],
      [
        "i",
        "b"
      ],
      [
        "i",
        "le"
      ],
      [
        "ation",
        "s"
      ],
      [
        "ic",
        "al"
      ],
      [
        "Ġo",
        "ver"
      ],
      [
        "k",
        "s"
      ],
      [
        "Ġthe",
        "re"
      ],
      [
        "Ġd",
        "is"
      ],
      [
        "ĠC",
        "h"
      ],
      [
        "res",
        "s"
      ],
      [
        "Ġal",
        "so"
      ],
      [
        "Ġa",
        "r"
      ],
      [
        "Ġbe",
        "c"
      ],
      [
        "ul",
        "t"
      ],
      [
        "Ġth",
        "an"
      ],
      [
        "Ġne",
        "w"
      ],
      [
        "ow",
        "n"
      ],
      [
        "Ġthe",
        "m"
      ],
      [
        "ou",
        "gh"
      ],
      [
        "in",
        "t"
      ],
      [
        "an",
        "ce"
      ],
      [
        "r",
        "u"
      ],
      [
        "Ġa",
        "pp"
      ],
      [
        "ou",
        "nt"
      ],
      [
        "Ġp",
        "art"
      ],
      [
        "p",
        "ort"
      ],
      [
        "Ġwhe",
        "n"
      ],
      [
        "Ġpe",
        "ople"
      ],
      [
        "Ġwh",
        "at"
      ],
      [
        "Ġ",
        "V"
      ],
      [
        "re",
        "e"
      ],
      [
        "Ġs",
        "c"
      ],
      [
        "Ġyou",
        "r"
      ],
      [
        "or",
        "m"
      ],
      [
        "f",
        "ter"
      ],
      [
        "a",
        "il"
      ],
      [
        "on",
        "d"
      ],
      [
        "Ġ",
        "qu"
      ],
      [
        "Ġ",
        "3"
      ],
      [
        "a",
        "v"
      ],
      [
        "Ġit",
        "s"
      ],
      [
        "as",
        "e"
      ],
      [
        "Ġan",
        "y"
      ],
      [
        "Ġj",
        "ust"
      ],
      [
        "ac",
        "h"
      ],
      [
        "Ġk",
        "n"
      ],
      [
        "Ġt",
        "ime"
      ],
      [
        "ĠH",
        "e"
      ],
      [
        "Ġhe",
        "r"
      ],
      [
        "Ġre",
        "c"
      ],
      [
        "l",
        "ic"
      ],
      [
        "en",
        "s"
      ],
      [
        "Ġm",
        "y"
      ],
      [
        "re",
        "at"
      ],
      [
        "Ġg",
        "et"
      ],
      [
        "i",
        "an"
      ],
      [
        "Ġ",
        "if"
      ],
      [
        "Ġwor",
        "k"
      ],
      [
        "Ġint",
        "o"
      ],
      [
        "Ġt",
        "w"
      ],
      [
        "ou",
        "nd"
      ],
      [
        "ir",
        "st"
      ],
      [
        "Ġn",
        "o"
      ],
      [
        "ve",
        "l"
      ],
      [
        "d",
        "u"
      ],
      [
        "ct",
        "ion"
      ],
      [
        "or",
        "y"
      ],
      [
        "ing",
        "s"
      ],
      [
        "id",
        "ent"
      ],
      [
        "it",
        "ion"
      ],
      [
        "or",
        "s"
      ],
      [
        "Ġo",
        "ur"
      ],
      [
        "ic",
        "k"
      ],
      [
        "Ġp",
        "re"
      ],
      [
        "o",
        "b"
      ],
      [
        "o",
        "ve"
      ],
      [
        "au",
        "se"
      ],
      [
        "w",
        "n"
      ],
      [
        "Ġpl",
        "ay"
      ],
      [
        "an",
        "g"
      ],
      [
        "ad",
        "e"
      ],
      [
        "in",
        "k"
      ],
      [
        "at",
        "es"
      ],
      [
        "is",
        "h"
      ],
      [
        "it",
        "t"
      ],
      [
        "ar",
        "k"
      ],
      [
        "Ġ",
        "ro"
      ],
      [
        "Ġ1",
        "9"
      ],
      [
        "Ġp",
        "ol"
      ],
      [
        "Ġs",
        "he"
      ],
      [
        "ver",
        "s"
      ],
      [
        "Ġc",
        "o"
      ],
      [
        "Ġa",
        "fter"
      ],
      [
        "am",
        "p"
      ],
      [
        "Ġc",
        "ould"
      ],
      [
        "Ġf",
        "irst"
      ],
      [
        "Ġh",
        "ow"
      ],
      [
        "i",
        "ous"
      ],
      [
        "n",
        "e"
      ],
      [
        "Ġa",
        "cc"
      ],
      [
        "nd",
        "er"
      ],
      [
        "Ġh",
        "im"
      ],
      [
        "a",
        "w"
      ],
      [
        "on",
        "s"
      ],
      [
        "i",
        "ld"
      ],
      [
        "Ġp",
        "o"
      ],
      [
        "Ġat",
        "t"
      ],
      [
        "Ġf",
        "e"
      ],
      [
        "Ġon",
        "ly"
      ],
      [
        "ĠB",
        "ut"
      ],
      [
        "ic",
        "t"
      ],
      [
        "he",
        "d"
      ],
      [
        "ĠW",
        "e"
      ],
      [
        "Ġp",
        "r"
      ],
      [
        "Ġtw",
        "o"
      ],
      [
        "h",
        "ing"
      ],
      [
        "Ġcom",
        "m"
      ],
      [
        "f",
        "orm"
      ],
      [
        "Ġs",
        "pe"
      ],
      [
        "Ġa",
        "ct"
      ],
      [
        "o",
        "v"
      ],
      [
        "Ġs",
        "er"
      ],
      [
        "ĠW",
        "h"
      ],
      [
        "w",
        "e"
      ],
      [
        "Ġb",
        "l"
      ],
      [
        "Ġbe",
        "t"
      ],
      [
        "f",
        "t"
      ],
      [
        "Ġde",
        "c"
      ],
      [
        "ĠTh",
        "is"
      ],
      [
        "n",
        "ing"
      ],
      [
        "Ġb",
        "ack"
      ],
      [
        "Ġ",
        "4"
      ],
      [
        "Ġm",
        "ost"
      ],
      [
        "c",
        "es"
      ],
      [
        "ĠA",
        "nd"
      ],
      [
        "t",
        "e"
      ],
      [
        "o",
        "od"
      ],
      [
        "o",
        "y"
      ],
      [
        "c",
        "k"
      ],
      [
        "Ġa",
        "m"
      ],
      [
        "Ġ",
        "'"
      ],
      [
        "Ġd",
        "id"
      ],
      [
        "if",
        "f"
      ],
      [
        "rou",
        "gh"
      ],
      [
        "at",
        "er"
      ],
      [
        "rou",
        "nd"
      ],
      [
        "Ġag",
        "ain"
      ],
      [
        "u",
        "al"
      ],
      [
        "Ġu",
        "nder"
      ],
      [
        "is",
        "e"
      ],
      [
        "Ġw",
        "ant"
      ],
      [
        "Ġd",
        "es"
      ],
      [
        "d",
        "ay"
      ],
      [
        "r",
        "it"
      ],
      [
        "Ġcon",
        "s"
      ],
      [
        "Ġbec",
        "ause"
      ],
      [
        "se",
        "l"
      ],
      [
        "Ġyear",
        "s"
      ],
      [
        "Ġn",
        "ow"
      ],
      [
        "l",
        "ud"
      ],
      [
        "ent",
        "s"
      ],
      [
        "ub",
        "lic"
      ],
      [
        "ter",
        "n"
      ],
      [
        "m",
        "an"
      ],
      [
        "Ġ",
        "["
      ],
      [
        "u",
        "ll"
      ],
      [
        "ĠU",
        "n"
      ],
      [
        "Ġe",
        "ven"
      ],
      [
        "Ġne",
        "ed"
      ],
      [
        "Ġin",
        "v"
      ],
      [
        "is",
        "s"
      ],
      [
        "e",
        "c"
      ],
      [
        "ĠA",
        "s"
      ],
      [
        "Ġkn",
        "ow"
      ],
      [
        "Ġ",
        "5"
      ],
      [
        "c",
        "ed"
      ],
      [
        "Ġse",
        "e"
      ],
      [
        "ment",
        "s"
      ],
      [
        "Ġin",
        "d"
      ],
      [
        "Ġad",
        "d"
      ],
      [
        "Ġ",
        "$"
      ],
      [
        "Ġse",
        "c"
      ],
      [
        "o",
        "ld"
      ],
      [
        "f",
        "ore"
      ],
      [
        "'",
        "re"
      ],
      [
        "Ġe",
        "very"
      ],
      [
        "u",
        "ch"
      ],
      [
        "ĠT",
        "r"
      ],
      [
        "Ġsu",
        "pp"
      ],
      [
        "Ġm",
        "ake"
      ],
      [
        "Ġe",
        "m"
      ],
      [
        "pe",
        "ct"
      ],
      [
        "Ġthe",
        "se"
      ],
      [
        "ur",
        "n"
      ],
      [
        "Ġwhe",
        "re"
      ],
      [
        "ation",
        "al"
      ],
      [
        "ver",
        "n"
      ],
      [
        "o",
        "ll"
      ],
      [
        "j",
        "ect"
      ],
      [
        "oc",
        "k"
      ],
      [
        "um",
        "p"
      ],
      [
        "Ġd",
        "on"
      ],
      [
        "Ġl",
        "ook"
      ],
      [
        "Ġb",
        "u"
      ],
      [
        "Ġe",
        "v"
      ],
      [
        "at",
        "ing"
      ],
      [
        "os",
        "s"
      ],
      [
        "Ġr",
        "ight"
      ],
      [
        "Ġw",
        "ay"
      ],
      [
        "x",
        "t"
      ],
      [
        "Ġre",
        "m"
      ],
      [
        "Ġm",
        "ay"
      ],
      [
        "Ġbe",
        "ing"
      ],
      [
        "Ġman",
        "y"
      ],
      [
        "ie",
        "w"
      ],
      [
        "Ġd",
        "iff"
      ],
      [
        "Ġthe",
        "n"
      ],
      [
        "Ġre",
        "l"
      ],
      [
        "i",
        "ly"
      ],
      [
        "le",
        "ct"
      ],
      [
        "n",
        "g"
      ],
      [
        "ro",
        "w"
      ],
      [
        "Ġc",
        "all"
      ],
      [
        "mer",
        "ic"
      ],
      [
        "Ġinc",
        "lud"
      ],
      [
        "i",
        "ed"
      ],
      [
        "as",
        "on"
      ],
      [
        "l",
        "es"
      ],
      [
        "Ġth",
        "ink"
      ],
      [
        "as",
        "ed"
      ],
      [
        "Ġde",
        "f"
      ],
      [
        "it",
        "ed"
      ],
      [
        "ak",
        "ing"
      ],
      [
        "Ġre",
        "g"
      ],
      [
        "Ġth",
        "rough"
      ],
      [
        "Ġim",
        "p"
      ],
      [
        "Ġp",
        "res"
      ],
      [
        "Ġs",
        "y"
      ],
      [
        "at",
        "h"
      ],
      [
        "Ġs",
        "ay"
      ],
      [
        "Ġsh",
        "ould"
      ],
      [
        "ri",
        "b"
      ],
      [
        "Ġf",
        "l"
      ],
      [
        "ur",
        "ing"
      ],
      [
        "Ġth",
        "ose"
      ],
      [
        "Ġ2",
        "00"
      ],
      [
        "on",
        "t"
      ],
      [
        ")",
        "."
      ],
      [
        "Ġl",
        "ast"
      ],
      [
        "Ġst",
        "ate"
      ],
      [
        "ow",
        "er"
      ],
      [
        "Ġ",
        "very"
      ],
      [
        "it",
        "ies"
      ],
      [
        "ot",
        "her"
      ],
      [
        "Ġm",
        "uch"
      ],
      [
        "if",
        "ic"
      ],
      [
        "ĠN",
        "ew"
      ],
      [
        "he",
        "n"
      ],
      [
        "Ġsh",
        "ow"
      ],
      [
        "at",
        "ive"
      ],
      [
        "Ġb",
        "r"
      ],
      [
        "ĠR",
        "e"
      ],
      [
        "Ġp",
        "h"
      ],
      [
        "ĠA",
        "meric"
      ],
      [
        "ot",
        "h"
      ],
      [
        "Ġc",
        "ount"
      ],
      [
        "t",
        "y"
      ],
      [
        "e",
        "ll"
      ],
      [
        "ar",
        "ly"
      ],
      [
        "v",
        "ed"
      ],
      [
        ".",
        "."
      ],
      [
        "Ġwe",
        "ll"
      ],
      [
        "Ġo",
        "wn"
      ],
      [
        "Ġdo",
        "es"
      ],
      [
        "ar",
        "g"
      ],
      [
        "al",
        "s"
      ],
      [
        "Ġd",
        "own"
      ],
      [
        "Ġas",
        "s"
      ],
      [
        "u",
        "nd"
      ],
      [
        "Ġbe",
        "l"
      ],
      [
        "t",
        "ing"
      ],
      [
        "T",
        "he"
      ],
      [
        "ic",
        "s"
      ],
      [
        "Ġ",
        "end"
      ],
      [
        "Ġu",
        "se"
      ],
      [
        "ter",
        "s"
      ],
      [
        "Ġgo",
        "vern"
      ],
      [
        "Ġl",
        "ong"
      ],
      [
        "an",
        "ge"
      ],
      [
        "in",
        "ce"
      ],
      [
        "om",
        "et"
      ],
      [
        "Ġbe",
        "fore"
      ],
      [
        "Ġm",
        "on"
      ],
      [
        "g",
        "r"
      ],
      [
        "w",
        "ard"
      ],
      [
        "ib",
        "le"
      ],
      [
        "Ġre",
        "port"
      ],
      [
        "Ġ",
        "ke"
      ],
      [
        "u",
        "es"
      ],
      [
        "Ġst",
        "art"
      ],
      [
        "Ġf",
        "in"
      ],
      [
        "Ġm",
        "ade"
      ],
      [
        "u",
        "p"
      ],
      [
        "t",
        "s"
      ],
      [
        "b",
        "le"
      ],
      [
        "if",
        "e"
      ],
      [
        "Ġsu",
        "ch"
      ],
      [
        "Ġte",
        "am"
      ],
      [
        "Ġ",
        "6"
      ],
      [
        "is",
        "m"
      ],
      [
        "ou",
        "n"
      ],
      [
        "ol",
        "og"
      ],
      [
        "ĠA",
        "l"
      ],
      [
        "re",
        "n"
      ],
      [
        ")",
        ","
      ],
      [
        "en",
        "er"
      ],
      [
[...]
