{
  "version": "1.0",
  "truncation": null,
  "padding": null,
  "added_tokens": [
    {
      "id": 0,
      "content": "[PAD]",
      "single_word": false,
      "lstrip": false,
      "rstrip": false,
      "normalized": false,
      "special": true
    },
    {
      "id": 1,
      "content": "[UNK]",
      "single_word": false,
      "lstrip": false,
      "rstrip": false,
      "normalized": false,
      "special": true
    },
    {
      "id": 2,
      "content": "[CLS]",
      "single_word": false,
      "lstrip": false,
      "rstrip": false,
      "normalized": false,
      "special": true
    },
    {
      "id": 3,
      "content": "[SEP]",
      "single_word": false,
      "lstrip": false,
      "rstrip": false,
      "normalized": false,
      "special": true
    },
    {
      "id": 4,
      "content": "[MASK]",
      "single_word": false,
      "lstrip": false,
      "rstrip": false,
      "normalized": false,
      "special": true
    },
    {
      "id": 5,
      "content": "[BOS]",
      "single_word": false,
      "lstrip": false,
      "rstrip": false,
      "normalized": false,
      "special": true
    },
    {
      "id": 6,
      "content": "[EOS]",
      "single_word": false,
      "lstrip": false,
      "rstrip": false,
      "normalized": false,
      "special": true
    }
  ],
  "normalizer": null,
  "pre_tokenizer": {
    "type": "ByteLevel",
    "add_prefix_space": true,
    "trim_offsets": true,
    "use_regex": true
  },
  "post_processor": null,
  "decoder": {
    "type": "ByteLevel",
    "add_prefix_space": true,
    "trim_offsets": true,
    "use_regex": true
  },
  "model": {
    "type": "BPE",
    "dropout": 0.1,
    "unk_token": "[UNK]",
    "continuing_subword_prefix": null,
    "end_of_word_suffix": null,
    "fuse_unk": false,
    "byte_fallback": false,
    "ignore_merges": false,
    "vocab": {
      "[PAD]": 0,
      "[UNK]": 1,
      "[CLS]": 2,
      "[SEP]": 3,
      "[MASK]": 4,
      "[BOS]": 5,
      "[EOS]": 6,
      "!": 7,
      "\"": 8,
      "#": 9,
      "$": 10,
      "%": 11,
      "&": 12,
      "'": 13,
      "(": 14,
      ")": 15,
      "*": 16,
      "+": 17,
      ",": 18,
      "-": 19,
      ".": 20,
      "/": 21,
      "0": 22,
      "1": 23,
      "2": 24,
      "3": 25,
      "4": 26,
      "5": 27,
      "6": 28,
      "7": 29,
      "8": 30,
      "9": 31,
      ":": 32,
      ";": 33,
      "<": 34,
      "=": 35,
      ">": 36,
      "?": 37,
      "@": 38,
      "A": 39,
      "B": 40,
      "C": 41,
      "D": 42,
      "E": 43,
      "F": 44,
      "G": 45,
      "H": 46,
      "I": 47,
      "J": 48,
      "K": 49,
      "L": 50,
      "M": 51,
      "N": 52,
      "O": 53,
      "P": 54,
      "Q": 55,
      "R": 56,
      "S": 57,
      "T": 58,
      "U": 59,
      "V": 60,
      "W": 61,
      "X": 62,
      "Y": 63,
      "Z": 64,
      "[": 65,
      "\\": 66,
      "]": 67,
      "^": 68,
      "_": 69,
      "`": 70,
      "a": 71,
      "b": 72,
      "c": 73,
      "d": 74,
      "e": 75,
      "f": 76,
      "g": 77,
      "h": 78,
      "i": 79,
      "j": 80,
      "k": 81,
      "l": 82,
      "m": 83,
      "n": 84,
      "o": 85,
      "p": 86,
      "q": 87,
      "r": 88,
      "s": 89,
      "t": 90,
      "u": 91,
      "v": 92,
      "w": 93,
      "x": 94,
      "y": 95,
      "z": 96,
      "{": 97,
      "|": 98,
      "}": 99,
      "~": 100,
      "¡": 101,
      "¢": 102,
      "£": 103,
      "¤": 104,
      "¥": 105,
      "¦": 106,
      "§": 107,
      "¨": 108,
      "©": 109,
      "ª": 110,
      "«": 111,
      "¬": 112,
      "®": 113,
      "¯": 114,
      "°": 115,
      "±": 116,
      "²": 117,
      "³": 118,
      "´": 119,
      "µ": 120,
      "¶": 121,
      "·": 122,
      "¸": 123,
      "¹": 124,
      "º": 125,
      "»": 126,
      "¼": 127,
      "½": 128,
      "¾": 129,
      "¿": 130,
      "À": 131,
      "Á": 132,
      "Â": 133,
      "Ã": 134,
      "Ä": 135,
      "Å": 136,
      "Æ": 137,
      "Ç": 138,
      "È": 139,
      "É": 140,
      "Ê": 141,
      "Ë": 142,
      "Ì": 143,
      "Í": 144,
      "Î": 145,
      "Ï": 146,
      "Ð": 147,
      "Ñ": 148,
      "Ò": 149,
      "Ó": 150,
      "Ô": 151,
      "Õ": 152,
      "Ö": 153,
      "×": 154,
      "Ø": 155,
      "Ù": 156,
      "Ú": 157,
      "Û": 158,
      "Ü": 159,
      "Ý": 160,
      "Þ": 161,
      "ß": 162,
      "à": 163,
      "á": 164,
      "â": 165,
      "ã": 166,
      "ä": 167,
      "å": 168,
      "æ": 169,
      "ç": 170,
      "è": 171,
      "é": 172,
      "ê": 173,
      "ë": 174,
      "ì": 175,
      "í": 176,
      "î": 177,
      "ï": 178,
      "ð": 179,
      "ñ": 180,
      "ò": 181,
      "ó": 182,
      "ô": 183,
      "õ": 184,
      "ö": 185,
      "÷": 186,
      "ø": 187,
      "ù": 188,
      "ú": 189,
      "û": 190,
      "ü": 191,
      "ý": 192,
      "þ": 193,
      "ÿ": 194,
      "Ā": 195,
      "ā": 196,
      "Ă": 197,
      "ă": 198,
      "Ą": 199,
      "ą": 200,
      "Ć": 201,
      "ć": 202,
      "Ĉ": 203,
      "ĉ": 204,
      "Ċ": 205,
      "ċ": 206,
      "Č": 207,
      "č": 208,
      "Ď": 209,
      "ď": 210,
      "Đ": 211,
      "đ": 212,
      "Ē": 213,
      "ē": 214,
      "Ĕ": 215,
      "ĕ": 216,
      "Ė": 217,
      "ė": 218,
      "Ę": 219,
      "ę": 220,
      "Ě": 221,
      "ě": 222,
      "Ĝ": 223,
      "ĝ": 224,
      "Ğ": 225,
      "ğ": 226,
      "Ġ": 227,
      "ġ": 228,
      "Ģ": 229,
      "ģ": 230,
      "Ĥ": 231,
      "ĥ": 232,
      "Ħ": 233,
      "ħ": 234,
      "Ĩ": 235,
      "ĩ": 236,
      "Ī": 237,
      "ī": 238,
      "Ĭ": 239,
      "ĭ": 240,
      "Į": 241,
      "į": 242,
      "İ": 243,
      "ı": 244,
      "Ĳ": 245,
      "ĳ": 246,
      "Ĵ": 247,
      "ĵ": 248,
      "Ķ": 249,
      "ķ": 250,
      "ĸ": 251,
      "Ĺ": 252,
      "ĺ": 253,
      "Ļ": 254,
      "ļ": 255,
      "Ľ": 256,
      "ľ": 257,
      "Ŀ": 258,
      "ŀ": 259,
      "Ł": 260,
      "ł": 261,
      "Ń": 262,
      "in": 263,
      "er": 264,
      "on": 265,
      "Ġs": 266,
      "es": 267,
      "Ġc": 268,
      "en": 269,
      "ed": 270,
      "ti": 271,
      "an": 272,
      "Ġp": 273,
      "ar": 274,
      "al": 275,
      "ing": 276,
      "or": 277,
      "Ġr": 278,
      "Ġd": 279,
      "Ġm": 280,
      "at": 281,
      "Ġb": 282,
      "is": 283,
      "Ġt": 284,
      "Ġa": 285,
      "Ġf": 286,
      "el": 287,
      "tion": 288,
      "it": 289,
      "ic": 290,
      "Ġh": 291,
      "Ġl": 292,
      "ou": 293,
      "as": 294,
      "ec": 295,
      "Ġg": 296,
      "ro": 297,
      "Ġw": 298,
      "ent": 299,
      "il": 300,
      "et": 301,
      "ol": 302,
      "ac": 303,
      "ur": 304,
      "om": 305,
      "Ġe": 306,
      "Ġn": 307,
      "Ġin": 308,
      "un": 309,
      "ers": 310,
      "le": 311,
      "ation": 312,
      "re": 313,
      "am": 314,
      "us": 315,
      "ly": 316,
      "id": 317,
      "os": 318,
      "Ġre": 319,
      "ad": 320,
      "Ġst": 321,
      "ig": 322,
      "ul": 323,
      "ts": 324,
      "Ġv": 325,
      "Ġo": 326,
      "im": 327,
      "em": 328,
      "Ġcon": 329,
      "ch": 330,
      "um": 331,
      "ab": 332,
      "ess": 333,
      "ir": 334,
      "ter": 335,
      "ag": 336,
      "ri": 337,
      "ot": 338,
      "Ġk": 339,
      "ap": 340,
      "ce": 341,
      "and": 342,
      "ow": 343,
      "ay": 344,
      "Ġch": 345,
      "Ġj": 346,
      "ve": 347,
      "Ġpro": 348,
      "th": 349,
      "Ġun": 350,
      "od": 351,
      "Ġex": 352,
      "Ġcom": 353,
      "qu": 354,
      "tic": 355,
      "est": 356,
      "oc": 357,
      "ion": 358,
      "Ġth": 359,
      "op": 360,
      "ist": 361,
      "Ġsh": 362,
      "ff": 363,
      "ate": 364,
      "ut": 365,
      "ver": 366,
      "st": 367,
      "ra": 368,
      "Ġde": 369,
      "pl": 370,
      "ity": 371,
      "og": 372,
      "uc": 373,
      "ak": 374,
      "end": 375,
      "Ġsp": 376,
      "all": 377,
      "iz": 378,
      "oun": 379,
      "ber": 380,
      "ans": 381,
      "up": 382,
      "ip": 383,
      "ard": 384,
      "ted": 385,
      "Ġpr": 386,
      "igh": 387,
      "ain": 388,
      "ous": 389,
      "Ġtr": 390,
      "Ġan": 391,
      "Ġdis": 392,
      "Ġar": 393,
      "ens": 394,
      "ub": 395,
      "ated": 396,
      "ell": 397,
      "ill": 398,
      "iv": 399,
      "ies": 400,
      "Ġac": 401,
      "if": 402,
      "ud": 403,
      "ment": 404,
      "ant": 405,
      "Ġad": 406,
      "ack": 407,
      "ie": 408,
      "ally": 409,
      "Ġal": 410,
      "ect": 411,
      "our": 412,
      "ors": 413,
      "Ġcl": 414,
      "Ġim": 415,
      "ine": 416,
      "able": 417,
      "Ġle": 418,
      "Ġsc": 419,
      "Ġy": 420,
      "ia": 421,
      "ations": 422,
      "Ġen": 423,
      "Ġse": 424,
      "Ġne": 425,
      "av": 426,
      "ort": 427,
      "Ġres": 428,
      "ib": 429,
      "Ġas": 430,
      "Ġpl": 431,
      "ang": 432,
      "Ġap": 433,
      "ati": 434,
      "ks": 435,
      "her": 436,
      "ys": 437,
      "ass": 438,
      "ure": 439,
      "orm": 440,
      "ug": 441,
      "ting": 442,
      "iti": 443,
      "tr": 444,
      "tions": 445,
      "Ġbe": 446,
      "ely": 447,
      "Ġpar": 448,
      "ish": 449,
      "ons": 450,
      "der": 451,
      "per": 452,
      "Ġbl": 453,
      "ok": 454,
      "Ġgr": 455,
      "pr": 456,
      "ence": 457,
      "ov": 458,
      "Ġrec": 459,
      "age": 460,
      "Ġhe": 461,
      "ight": 462,
      "ob": 463,
      "Ġfl": 464,
      "Ġmar": 465,
      "Ġcomp": 466,
      "ian": 467,
      "ep": 468,
      "ast": 469,
      "Ġcr": 470,
      "als": 471,
      "ents": 472,
      "Ġem": 473,
      "Ġqu": 474,
      "ary": 475,
      "ord": 476,
      "umber": 477,
      "gr": 478,
      "ign": 479,
      "ey": 480,
      "tim": 481,
      "ating": 482,
      "ail": 483,
      "ide": 484,
      "ach": 485,
      "ath": 486,
      "Ġcont": 487,
      "anc": 488,
      "out": 489,
      "Ġab": 490,
      "oll": 491,
      "Ġinter": 492,
      "Ġbr": 493,
      "Ġfr": 494,
      "Ġph": 495,
      "Ġco": 496,
      "enc": 497,
      "Ġper": 498,
      "ance": 499,
      "ore": 500,
      "Ġel": 501,
      "ge": 502,
      "ound": 503,
      "Ġcons": 504,
      "cl": 505,
      "att": 506,
      "aw": 507,
      "Ġam": 508,
      "ings": 509,
      "Ġwh": 510,
      "ick": 511,
      "ates": 512,
      "Ġwe": 513,
      "Ġcar": 514,
      "Ġor": 515,
      "Ġind": 516,
      "ind": 517,
      "one": 518,
      "ock": 519,
      "ong": 520,
      "iss": 521,
      "ial": 522,
      "ik": 523,
      "ear": 524,
      "ood": 525,
      "Ġstr": 526,
      "Ġz": 527,
      "te": 528,
      "olog": 529,
      "ue": 530,
      "Ġass": 531,
      "ah": 532,
      "ism": 533,
      "ust": 534,
      "les": 535,
      "Ġop": 536,
      "ves": 537,
      "ash": 538,
      "Ġdi": 539,
      "man": 540,
      "Ġbo": 541,
      "Ġcomm": 542,
      "Ġme": 543,
      "ins": 544,
      "Ġdec": 545,
      "gh": 546,
      "art": 547,
      "Ġsub": 548,
      "act": 549,
      "ry": 550,
      "Ġapp": 551,
      "ful": 552,
      "ph": 553,
      "ive": 554,
      "Ġob": 555,
      "Ġman": 556,
      "ty": 557,
      "Ġpre": 558,
      "Ġacc": 559,
      "old": 560,
      "own": 561,
      "Ġsl": 562,
      "its": 563,
      "ond": 564,
      "Ġimp": 565,
      "Ġinf": 566,
      "Ġsup": 567,
      "enti": 568,
      "ets": 569,
      "Ġrel": 570,
      "Ġins": 571,
      "ical": 572,
      "ions": 573,
      "ost": 574,
      "row": 575,
      "tive": 576,
      "Ġrep": 577,
      "ory": 578,
      "ace": 579,
      "oy": 580,
      "amp": 581,
      "Ġag": 582,
      "Ġinc": 583,
      "Ġfor": 584,
      "eth": 585,
      "Ġcor": 586,
      "ew": 587,
      "ition": 588,
      "Ġti": 589,
      "Ġtrans": 590,
      "app": 591,
      "rib": 592,
      "Ġsy": 593,
      "ied": 594,
      "Ġev": 595,
      "ex": 596,
      "Ġsw": 597,
      "Ġwor": 598,
      "Ġint": 599,
      "erv": 600,
      "Ġdes": 601,
      "are": 602,
      "ich": 603,
      "Ġsur": 604,
      "az": 605,
      "Ġus": 606,
      "Ġgu": 607,
      "ious": 608,
      "Ġdef": 609,
      "ement": 610,
      "led": 611,
      "ase": 612,
      "ech": 613,
      "ness": 614,
      "tiv": 615,
      "pt": 616,
      "Ġover": 617,
      "els": 618,
      "io": 619,
      "ee": 620,
      "int": 621,
      "number": 622,
      "ice": 623,
      "ise": 624,
      "ities": 625,
      "air": 626,
      "ility": 627,
      "Ġdr": 628,
      "ann": 629,
      "ite": 630,
      "ays": 631,
      "Ġref": 632,
      "ists": 633,
      "ough": 634,
      "Ġsm": 635,
      "ith": 636,
      "Ġreg": 637,
      "Ġmon": 638,
      "Ġgen": 639,
      "ized": 640,
      "Ġconf": 641,
      "und": 642,
      "Ġcol": 643,
      "str": 644,
      "ire": 645,
      "af": 646,
      "ome": 647,
      "ev": 648,
      "Ġup": 649,
      "over": 650,
      "pos": 651,
      "Ġgl": 652,
      "Ġmin": 653,
      "ps": 654,
      "Ġoff": 655,
      "arm": 656,
      "ling": 657,
      "ult": 658,
      "Ġpol": 659,
      "Ġrev": 660,
      "ater": 661,
      "bo": 662,
      "ank": 663,
      "Ġed": 664,
      "ier": 665,
      "ures": 666,
      "atch": 667,
      "ric": 668,
      "Ġsch": 669,
      "Ġout": 670,
      "Ġdisc": 671,
      "ef": 672,
      "sh": 673,
      "Ġrem": 674,
      "erm": 675,
      "Ġinv": 676,
      "tit": 677,
      "err": 678,
      "ner": 679,
      "ual": 680,
      "duc": 681,
      "Ġfe": 682,
      "Ġdem": 683,
      "ix": 684,
      "oss": 685,
      "Ġsk": 686,
      "Ġatt": 687,
      "ne": 688,
      "Ġis": 689,
      "Ġbar": 690,
      "ats": 691,
      "Ġmod": 692,
      "ax": 693,
      "Ġdev": 694,
      "Ġcoun": 695,
      "yp": 696,
      "Ġdet": 697,
      "ution": 698,
      "se": 699,
      "ines": 700,
      "Ġu": 701,
      "ection": 702,
      "cc": 703,
      "ger": 704,
      "Ġro": 705,
      "ile": 706,
      "ont": 707,
      "ink": 708,
      "of": 709,
      "Ġdel": 710,
      "ern": 711,
      "ative": 712,
      "Ġexp": 713,
      "Ġwr": 714,
      "Ġpres": 715,
      "Ġbre": 716,
      "aph": 717,
      "land": 718,
      "eld": 719,
      "ments": 720,
      "ame": 721,
      "Ġmed": 722,
      "ros": 723,
      "ild": 724,
      "inc": 725,
      "ton": 726,
      "Ġtra": 727,
      "oth": 728,
      "Ġlo": 729,
      "Ġte": 730,
      "iew": 731,
      "ics": 732,
      "Ġcap": 733,
      "Ġchar": 734,
      "Ġdist": 735,
      "rop": 736,
      "ere": 737,
      "ake": 738,
      "Ġto": 739,
      "ected": 740,
      "ade": 741,
      "ants": 742,
      "Ġpo": 743,
      "ark": 744,
      "urn": 745,
      "Ġir": 746,
      "uck": 747,
      "ale": 748,
      "ld": 749,
      "Ġgre": 750,
      "uth": 751,
      "ict": 752,
      "Ġat": 753,
      "Ġtw": 754,
      "Ġes": 755,
      "press": 756,
      "ven": 757,
      "vers": 758,
      "Ġmo": 759,
      "ator": 760,
      "ards": 761,
      "ize": 762,
      "uff": 763,
      "ett": 764,
      "ubl": 765,
      "Ġunder": 766,
      "br": 767,
      "ular": 768,
      "Ġkn": 769,
      "ific": 770,
      "Ġresp": 771,
      "Ġx": 772,
      "Ġpe": 773,
      "eng": 774,
      "rol": 775,
      "Ġall": 776,
      "Ġred": 777,
      "amm": 778,
      "ble": 779,
      "ages": 780,
      "Ġsec": 781,
      "Ġbro": 782,
      "ull": 783,
      "Ġon": 784,
      "Ġcre": 785,
      "Ġbel": 786,
      "Ġadd": 787,
      "Ġcoll": 788,
      "orn": 789,
      "ues": 790,
      "tain": 791,
      "ible": 792,
      "Ġfin": 793,
      "Ġexpl": 794,
      "cess": 795,
      "Ġtre": 796,
      "Ġdep": 797,
      "Ġspec": 798,
      "Ġi": 799,
      "Ġaf": 800,
      "ently": 801,
      "Ġcur": 802,
      "uss": 803,
      "ane": 804,
      "ars": 805,
      "Ġnew": 806,
      "Ġadv": 807,
      "ose": 808,
      "por": 809,
      "Ġsim": 810,
      "Ġnumber": 811,
      "Ġdo": 812,
      "Ġent": 813,
      "ower": 814,
      "Ġcal": 815,
      "enn": 816,
      "Ġret": 817,
      "au": 818,
      "Ġpers": 819,
      "Ġsn": 820,
      "eg": 821,
      "hip": 822,
      "ology": 823,
      "form": 824,
      "Ġfre": 825,
      "res": 826,
      "Ġeff": 827,
      "ined": 828,
      "ited": 829,
      "ush": 830,
      "ym": 831,
      "yn": 832,
      "less": 833,
      "tics": 834,
      "Ġback": 835,
      "Ġmet": 836,
      "ari": 837,
      "Ġval": 838,
      "gan": 839,
      "aus": 840,
      "Ġend": 841,
      "Ġli": 842,
      "he": 843,
      "Ġsol": 844,
      "ality": 845,
      "ised": 846,
      "Ġgo": 847,
      "ization": 848,
      "Ġhar": 849,
      "ump": 850,
      "Ġleg": 851,
      "plic": 852,
      "rom": 853,
      "ams": 854,
      "arn": 855,
      "ged": 856,
      "ield": 857,
      "Ġid": 858,
      "Ġno": 859,
      "til": 860,
      "tif": 861,
      "ability": 862,
      "ying": 863,
      "ogr": 864,
      "red": 865,
      "ects": 866,
      "ows": 867,
      "ency": 868,
      "Ġsign": 869,
      "umb": 870,
      "Ġform": 871,
      "rip": 872,
      "Ġtim": 873,
      "Ġbu": 874,
      "Ġnot": 875,
      "Ġaw": 876,
      "ek": 877,
      "Ġprot": 878,
      "ai": 879,
      "Ġit": 880,
      "ands": 881,
      "tis": 882,
      "ically": 883,
      "par": 884,
      "co": 885,
      "ved": 886,
      "yl": 887,
      "Ġla": 888,
      "ties": 889,
      "ences": 890,
      "Ġdiff": 891,
      "Ġcent": 892,
      "unc": 893,
      "Ġpur": 894,
      "Ġund": 895,
      "ivers": 896,
      "Ġfo": 897,
      "atic": 898,
      "Ġbi": 899,
      "Ġec": 900,
      "Ġpos": 901,
      "Ġer": 902,
      "ft": 903,
      "ley": 904,
      "ici": 905,
      "Ġext": 906,
      "ute": 907,
      "Ġconc": 908,
      "Ġpri": 909,
      "Ġaff": 910,
      "Ġcle": 911,
      "eck": 912,
      "Ġser": 913,
      "itch": 914,
      "ators": 915,
      "com": 916,
      "Ġeng": 917,
      "Ġprof": 918,
      "ily": 919,
      "Ġthe": 920,
      "son": 921,
      "Ġplay": 922,
      "Ġimm": 923,
      "ads": 924,
      "ational": 925,
      "Ġprov": 926,
      "Ġvis": 927,
      "Ġstud": 928,
      "Ġwork": 929,
      "Ġbas": 930,
      "ave": 931,
      "Ġmis": 932,
      "port": 933,
      "ork": 934,
      "Ġsal": 935,
      "bs": 936,
      "Ġmc": 937,
      "here": 938,
      "tern": 939,
      "inn": 940,
      "ium": 941,
      "lo": 942,
      "uct": 943,
      "Ġjo": 944,
      "acy": 945,
      "ered": 946,
      "ott": 947,
      "ges": 948,
      "Ġpubl": 949,
      "elf": 950,
      "Ġdir": 951,
      "iting": 952,
      "Ġhigh": 953,
      "Ġrest": 954,
      "Ġfil": 955,
      "ones": 956,
      "ately": 957,
      "Ġher": 958,
      "Ġgener": 959,
      "Ġsu": 960,
      "ugh": 961,
      "ograph": 962,
      "ots": 963,
      "ured": 964,
      "ms": 965,
      "aj": 966,
      "ination": 967,
      "ene": 968,
      "Ġpat": 969,
      "Ġav": 970,
      "Ġanal": 971,
      "arr": 972,
      "Ġprom": 973,
      "ished": 974,
      "Ġinst": 975,
      "cep": 976,
      "Ġann": 977,
      "alk": 978,
      "ped": 979,
      "Ġexper": 980,
      "Ġpass": 981,
      "itt": 982,
      "Ġhand": 983,
      "ances": 984,
      "ler": 985,
      "Ġhum": 986,
      "Ġprogr": 987,
      "ering": 988,
      "Ġpop": 989,
      "ron": 990,
      "eas": 991,
      "Ġmem": 992,
      "by": 993,
      "Ġadm": 994,
      "ung": 995,
      "ably": 996,
      "ke": 997,
      "Ġdown": 998,
      "clud": 999,
      "Ġste": 1000,
      "ina": 1001,
      "ements": 1002,
      "Ġben": 1003,
      "Ġauth": 1004,
      "Ġair": 1005,
      "Ġtech": 1006,
      "Ġcan": 1007,
      "Ġocc": 1008,
      "Ġso": 1009,
      "ians": 1010,
      "we": 1011,
      "ening": 1012,
      "Ġfac": 1013,
      "Ġmor": 1014,
      "ole": 1015,
      "way": 1016,
      "Ġmil": 1017,
      "Ġvi": 1018,
      "ides": 1019,
      "Ġmus": 1020,
      "tical": 1021,
      "Ġproduc": 1022,
      "ites": 1023,
      "Ġmag": 1024,
      "umm": 1025,
      "ours": 1026,
      "Ġver": 1027,
      "ising": 1028,
      "Ġand": 1029,
      "Ġequ": 1030,
      "Ġhom": 1031,
      "oph": 1032,
      "Ġorgan": 1033,
      "elop": 1034,
      "iter": 1035,
      "tig": 1036,
      "ened": 1037,
      "ature": 1038,
      "Ġsoc": 1039,
      "Ġmal": 1040,
      "Ġpred": 1041,
      "ights": 1042,
      "ense": 1043,
      "ective": 1044,
      "Ġge": 1045,
      "ored": 1046,
      "to": 1047,
      "Ġou": 1048,
      "ison": 1049,
      "ulation": 1050,
      "Ġbur": 1051,
      "Ġmark": 1052,
      "Ġappro": 1053,
      "unn": 1054,
      "que": 1055,
      "ession": 1056,
      "erg": 1057,
      "Ġbra": 1058,
      "go": 1059,
      "Ġcompl": 1060,
      "line": 1061,
      "ital": 1062,
      "Ġever": 1063,
      "the": 1064,
      "Ġobs": 1065,
      "oo": 1066,
      "Ġmic": 1067,
      "Ġaut": 1068,
      "Ġtri": 1069,
      "Ġhel": 1070,
      "Ġlim": 1071,
      "ason": 1072,
      "erc": 1073,
      "Ġq": 1074,
      "Ġfir": 1075,
      "eter": 1076,
      "Ġur": 1077,
      "ple": 1078,
      "ds": 1079,
      "ping": 1080,
      "Ġwith": 1081,
      "Ġcorr": 1082,
      "izing": 1083,
      "Ġlab": 1084,
      "aking": 1085,
      "Ġep": 1086,
      "erst": 1087,
      "back": 1088,
      "alth": 1089,
      "Ġps": 1090,
      "ids": 1091,
      "Ġtem": 1092,
      "Ġcontr": 1093,
      "Ġhy": 1094,
      "istic": 1095,
      "ices": 1096,
      "ward": 1097,
      "ision": 1098,
      "Ġdeb": 1099,
      "Ġlaw": 1100,
      "ustr": 1101,
      "ests": 1102,
      "Ġcond": 1103,
      "get": 1104,
      "ploy": 1105,
      "Ġspe": 1106,
      "ider": 1107,
      "ather": 1108,
      "ends": 1109,
      "onn": 1110,
      "Ġmul": 1111,
      "Ġloc": 1112,
      "for": 1113,
      "aps": 1114,
      "ther": 1115,
      "unch": 1116,
      "Ġill": 1117,
      "Ġstar": 1118,
      "Ġcy": 1119,
      "onom": 1120,
      "ourn": 1121,
      "ike": 1122,
      "Ġcommun": 1123,
      "ading": 1124,
      "ias": 1125,
      "ugg": 1126,
      "Ġlif": 1127,
      "po": 1128,
      "raw": 1129,
      "orts": 1130,
      "Ġtechn": 1131,
      "Ġdoc": 1132,
      "Ġcir": 1133,
      "ains": 1134,
      "Ġvol": 1135,
      "ops": 1136,
      "Ġrad": 1137,
      "inal": 1138,
      "Ġrequ": 1139,
      "Ġcamp": 1140,
      "outh": 1141,
      "Ġreal": 1142,
      "ouse": 1143,
      "ould": 1144,
      "stem": 1145,
      "Ġdiffer": 1146,
      "ining": 1147,
      "ange": 1148,
      "be": 1149,
      "ille": 1150,
      "Ġphot": 1151,
      "ior": 1152,
      "Ġunc": 1153,
      "aster": 1154,
      "Ġclass": 1155,
      "Ġmid": 1156,
      "ually": 1157,
      "Ġhead": 1158,
      "uk": 1159,
      "Ġden": 1160,
      "day": 1161,
      "Ġear": 1162,
      "Ġsuc": 1163,
      "Ġpros": 1164,
      "Ġmiss": 1165,
      "urs": 1166,
      "uring": 1167,
      "itions": 1168,
      "Ġdevelop": 1169,
      "Ġinfl": 1170,
      "vel": 1171,
      "Ġbeh": 1172,
      "ases": 1173,
      "Ġany": 1174,
      "ream": 1175,
      "esh": 1176,
      "aul": 1177,
      "Ġpartic": 1178,
      "Ġbet": 1179,
      "Ġthre": 1180,
      "ient": 1181,
      "ross": 1182,
      "Ġactiv": 1183,
      "Ġprev": 1184,
      "Ġenc": 1185,
      "iness": 1186,
      "ana": 1187,
      "eds": 1188,
      "atter": 1189,
      "ication": 1190,
      "ience": 1191,
      "ox": 1192,
      "action": 1193,
      "Ġexc": 1194,
      "aim": 1195,
      "ending": 1196,
      "Ġdiv": 1197,
      "aid": 1198,
      "Ġoper": 1199,
      "oms": 1200,
      "Ġrob": 1201,
      "ols": 1202,
      "Ġsubs": 1203,
      "ateg": 1204,
      "ced": 1205,
      "atis": 1206,
      "asc": 1207,
      "aged": 1208,
      "ories": 1209,
      "omm": 1210,
      "off": 1211,
      "fl": 1212,
      "ject": 1213,
      "other": 1214,
      "Ġelect": 1215,
      "Ġdri": 1216,
      "Ġstand": 1217,
      "Ġchr": 1218,
      "Ġfact": 1219,
      "fully": 1220,
      "Ġhapp": 1221,
      "ident": 1222,
      "Ġnor": 1223,
      "aff": 1224,
      "ections": 1225,
      "Ġcontin": 1226,
      "ested": 1227,
      "Ġmill": 1228,
      "Ġnet": 1229,
      "ified": 1230,
      "ony": 1231,
      "ving": 1232,
      "Ġmeth": 1233,
      "Ġow": 1234,
      "Ġstat": 1235,
      "Ġarch": 1236,
      "ele": 1237,
      "ention": 1238,
      "ging": 1239,
      "Ġdom": 1240,
      "ises": 1241,
      "oul": 1242,
      "ips": 1243,
      "acter": 1244,
      "ns": 1245,
      "Ġport": 1246,
      "Ġpal": 1247,
      "ended": 1248,
      "Ġest": 1249,
      "Ġgra": 1250,
      "Ġfund": 1251,
      "nt": 1252,
      "eless": 1253,
      "Ġmain": 1254,
      "Ġbut": 1255,
      "ery": 1256,
      "Ġhol": 1257,
      "Ġwar": 1258,
      "ember": 1259,
      "Ġprec": 1260,
      "ody": 1261,
      "ode": 1262,
      "Ġcri": 1263,
      "Ġang": 1264,
      "Ġsil": 1265,
      "ously": 1266,
      "Ġcop": 1267,
      "ata": 1268,
      "Ġche": 1269,
      "ude": 1270,
      "Ġuns": 1271,
      "ument": 1272,
      "omb": 1273,
      "Ġarm": 1274,
      "Ġol": 1275,
      "ament": 1276,
      "osp": 1277,
      "Ġsus": 1278,
      "ount": 1279,
      "bl": 1280,
      "arch": 1281,
      "ames": 1282,
      "wh": 1283,
      "Ġmov": 1284,
      "Ġcirc": 1285,
      "ury": 1286,
      "ural": 1287,
      "unction": 1288,
      "Ġhard": 1289,
      "Ġbus": 1290,
      "uted": 1291,
      "ete": 1292,
      "ape": 1293,
      "ingly": 1294,
      "Ġsqu": 1295,
      "iver": 1296,
      "Ġserv": 1297,
      "Ġinves": 1298,
      "ender": 1299,
      "ych": 1300,
      "ears": 1301,
      "Ġsing": 1302,
      "Ġhon": 1303,
      "ino": 1304,
      "acks": 1305,
      "Ġthr": 1306,
      "Ġfoll": 1307,
      "ama": 1308,
      "struc": 1309,
      "Ġcour": 1310,
      "Ġread": 1311,
      "ze": 1312,
      "ae": 1313,
      "ces": 1314,
      "ald": 1315,
      "oring": 1316,
      "Ġconn": 1317,
      "ounds": 1318,
      "hib": 1319,
      "clus": 1320,
      "aries": 1321,
      "Ġposs": 1322,
      "ration": 1323,
      "Ġide": 1324,
      "alls": 1325,
      "Ġimpro": 1326,
      "Ġfam": 1327,
      "ma": 1328,
      "Ġpan": 1329,
      "unk": 1330,
      "ided": 1331,
      "Ġsuper": 1332,
      "ential": 1333,
      "ells": 1334,
      "Ġenv": 1335,
      "Ġlog": 1336,
      "Ġterr": 1337,
      "Ġeu": 1338,
      "Ġpay": 1339,
      "Ġinvestig": 1340,
      "atory": 1341,
      "pres": 1342,
      "ese": 1343,
      "Ġtur": 1344,
      "Ġsyn": 1345,
      "Ġsym": 1346,
      "ained": 1347,
      "amb": 1348,
      "ert": 1349,
      "Ġpart": 1350,
      "ords": 1351,
      "owing": 1352,
      "Ġthem": 1353,
      "ouch": 1354,
      "Ġset": 1355,
      "Ġsens": 1356,
      "ared": 1357,
      "Ġcomb": 1358,
      "ask": 1359,
      "ham": 1360,
      "Ġlong": 1361,
      "Ġtyp": 1362,
      "iet": 1363,
      "ress": 1364,
      "ued": 1365,
      "Ġemb": 1366,
      "Ġvir": 1367,
      "eric": 1368,
      "Ġos": 1369,
      "Ġmay": 1370,
      "ister": 1371,
      "time": 1372,
      "unt": 1373,
      "Ġpost": 1374,
      "Ġnov": 1375,
      "Ġarg": 1376,
      "Ġspr": 1377,
      "Ġnon": 1378,
      "overn": 1379,
      "Ġfri": 1380,
      "Ġet": 1381,
      "ls": 1382,
      "Ġnews": 1383,
      "Ġpot": 1384,
      "Ġwill": 1385,
      "Ġmur": 1386,
      "de": 1387,
      "ores": 1388,
      "Ġevery": 1389,
      "Ġrespons": 1390,
      "Ġren": 1391,
      "entif": 1392,
      "Ġsystem": 1393,
      "Ġscre": 1394,
      "Ġphil": 1395,
      "Ġtex": 1396,
      "Ġdon": 1397,
      "owed": 1398,
      "Ġdesign": 1399,
      "ological": 1400,
      "elling": 1401,
      "Ġterm": 1402,
      "Ġabs": 1403,
      "ades": 1404,
      "den": 1405,
      "Ġprocess": 1406,
      "ili": 1407,
      "ani": 1408,
      "zz": 1409,
      "ission": 1410,
      "Ġmy": 1411,
      "Ġther": 1412,
      "Ġdest": 1413,
      "me": 1414,
      "aging": 1415,
      "Ġincre": 1416,
      "pir": 1417,
      "Ġdesc": 1418,
      "aces": 1419,
      "Ġreb": 1420,
      "imin": 1421,
      "Ġintern": 1422,
      "akes": 1423,
      "Ġperform": 1424,
      "iously": 1425,
      "aa": 1426,
      "Ġscr": 1427,
      "ope": 1428,
      "oud": 1429,
      "Ġcer": 1430,
      "ries": 1431,
      "Ġinn": 1432,
      "cept": 1433,
      "Ġauthor": 1434,
      "aring": 1435,
      "Ġsumm": 1436,
      "Ġpath": 1437,
      "ives": 1438,
      "Ġunivers": 1439,
      "med": 1440,
      "Ġtar": 1441,
      "ails": 1442,
      "ived": 1443,
      "tically": 1444,
      "Ġmac": 1445,
      "Ġke": 1446,
      "Ġtop": 1447,
      "Ġby": 1448,
      "Ġtel": 1449,
      "Ġdam": 1450,
      "lex": 1451,
      "cs": 1452,
      "ote": 1453,
      "iction": 1454,
      "uit": 1455,
      "Ġinj": 1456,
      "Ġcam": 1457,
      "Ġbill": 1458,
      "uel": 1459,
      "ky": 1460,
      "ectiv": 1461,
      "Ġgovern": 1462,
      "hood": 1463,
      "eted": 1464,
      "anch": 1465,
      "Ġjud": 1466,
      "play": 1467,
      "Ġmer": 1468,
      "roduc": 1469,
      "oub": 1470,
      "augh": 1471,
      "Ġhal": 1472,
      "Ġinclud": 1473,
      "Ġsel": 1474,
      "aker": 1475,
      "Ġmel": 1476,
      "isc": 1477,
      "aded": 1478,
      "Ġcontrib": 1479,
      "Ġlist": 1480,
      "Ġunf": 1481,
      "Ġpsych": 1482,
      "Ġprim": 1483,
      "Ġvers": 1484,
      "ta": 1485,
      "Ġfav": 1486,
      "Ġperson": 1487,
      "abl": 1488,
      "work": 1489,
      "Ġmeas": 1490,
      "Ġmass": 1491,
      "Ġmethod": 1492,
      "Ġgar": 1493,
      "rup": 1494,
      "reg": 1495,
      "oft": 1496,
      "na": 1497,
      "berg": 1498,
      "ented": 1499,
      "Ġlar": 1500,
      "ased": 1501,
      "ij": 1502,
      "ree": 1503,
      "ogn": 1504,
      "Ġpen": 1505,
      "ength": 1506,
      "Ġhor": 1507,
      "Ġsaf": 1508,
      "Ġje": 1509,
      "Ġprac": 1510,
      "ints": 1511,
      "Ġcat": 1512,
      "Ġho": 1513,
      "une": 1514,
      "Ġliber": 1515,
      "Ġinform": 1516,
      "Ġgood": 1517,
      "Ġcontrol": 1518,
      "oke": 1519,
      "fer": 1520,
      "oup": 1521,
      "Ġaud": 1522,
      "Ġdirect": 1523,
      "Ġbir": 1524,
      "ibility": 1525,
      "Ġphys": 1526,
      "Ġbal": 1527,
      "Ġsome": 1528,
      "add": 1529,
      "Ġview": 1530,
      "esting": 1531,
      "antly": 1532,
      "itor": 1533,
      "Ġbeg": 1534,
      "equ": 1535,
      "ulated": 1536,
      "ought": 1537,
      "ples": 1538,
      "Ġhist": 1539,
      "bor": 1540,
      "Ġarr": 1541,
      "Ġdu": 1542,
      "Ġple": 1543,
      "eness": 1544,
      "itz": 1545,
      "Ġfound": 1546,
      "ii": 1547,
      "view": 1548,
      "Ġland": 1549,
      "Ġsusp": 1550,
      "Ġclos": 1551,
      "numbernumber": 1552,
      "Ġpain": 1553,
      "Ġstep": 1554,
      "Ġcare": 1555,
      "uts": 1556,
      "ss": 1557,
      "Ġemploy": 1558,
      "Ġchild": 1559,
      "Ġques": 1560,
      "Ġsho": 1561,
      "ki": 1562,
      "rown": 1563,
      "Ġdecl": 1564,
      "ux": 1565,
      "arian": 1566,
      "eting": 1567,
      "Ġter": 1568,
      "Ġmess": 1569,
      "Ġpoli": 1570,
      "iff": 1571,
      "urr": 1572,
      "yr": 1573,
      "ilities": 1574,
      "Ġbroad": 1575,
      "Ġjourn": 1576,
      "field": 1577,
      "Ġdisp": 1578,
      "erson": 1579,
      "Ġhealth": 1580,
      "tice": 1581,
      "Ġmean": 1582,
      "Ġpress": 1583,
      "Ġshort": 1584,
      "ao": 1585,
      "Ġtor": 1586,
      "Ġeth": 1587,
      "tick": 1588,
      "Ġhow": 1589,
      "Ġfig": 1590,
      "ocr": 1591,
      "Ġviol": 1592,
      "Ġrece": 1593,
      "Ġrepres": 1594,
      "Ġiniti": 1595,
      "Ġfoot": 1596,
      "Ġanalys": 1597,
      "Ġwind": 1598,
      "Ġsam": 1599,
      "Ġrom": 1600,
      "hn": 1601,
      "Ġindic": 1602,
      "ester": 1603,
      "Ġworld": 1604,
      "lement": 1605,
      "itation": 1606,
      "ief": 1607,
      "utions": 1608,
      "Ġbor": 1609,
      "ano": 1610,
      "Ġmu": 1611,
      "tt": 1612,
      "Ġic": 1613,
      "ables": 1614,
      "Ġfire": 1615,
      "Ġvari": 1616,
      "Ġcharacter": 1617,
      "Ġber": 1618,
      "Ġtax": 1619,
      "ils": 1620,
      "Ġeconom": 1621,
      "Ġdemon": 1622,
      "utes": 1623,
      "gl": 1624,
      "Ġcust": 1625,
      "Ġcas": 1626,
      "ball": 1627,
      "Ġreview": 1628,
      "olution": 1629,
      "lin": 1630,
      "Ġoc": 1631,
      "hold": 1632,
      "Ġsci": 1633,
      "Ġturn": 1634,
      "atives": 1635,
      "Ġwa": 1636,
      "ule": 1637,
      "earch": 1638,
      "Ġwin": 1639,
      "Ġorig": 1640,
      "gen": 1641,
      "iation": 1642,
      "Ġpack": 1643,
      "Ġnat": 1644,
      "Ġsand": 1645,
      "Ġcred": 1646,
      "Ġpet": 1647,
      "Ġcra": 1648,
      "Ġsat": 1649,
      "Ġact": 1650,
      "ension": 1651,
      "Ġnorm": 1652,
      "kn": 1653,
      "itive": 1654,
      "li": 1655,
      "Ġchang": 1656,
      "Ġinstit": 1657,
      "wor": 1658,
      "Ġfur": 1659,
      "Ġamb": 1660,
      "Ġeg": 1661,
      "ecting": 1662,
      "Ġanti": 1663,
      "Ġmicro": 1664,
      "Ġra": 1665,
      "Ġpoll": 1666,
      "Ġder": 1667,
      "rif": 1668,
      "Ġanim": 1669,
      "ills": 1670,
      "Ġsex": 1671,
      "Ġunderst": 1672,
      "eh": 1673,
      "Ġmat": 1674,
      "Ġiss": 1675,
      "Ġline": 1676,
      "iment": 1677,
      "Ġsom": 1678,
      "use": 1679,
      "Ġkey": 1680,
      "urg": 1681,
      "itted": 1682,
      "val": 1683,
      "Ġball": 1684,
      "pression": 1685,
      "down": 1686,
      "Ġfa": 1687,
      "Ġlead": 1688,
      "Ġcounter": 1689,
      "Ġsen": 1690,
      "Ġtal": 1691,
      "orted": 1692,
      "ativ": 1693,
      "used": 1694,
      "Ġsuccess": 1695,
      "ara": 1696,
      "Ġneed": 1697,
      "Ġsem": 1698,
      "Ġbreak": 1699,
      "Ġmen": 1700,
      "ishing": 1701,
      "Ġcall": 1702,
      "Ġameric": 1703,
      "eal": 1704,
      "Ġmater": 1705,
      "Ġeas": 1706,
      "Ġey": 1707,
      "aper": 1708,
      "ause": 1709,
      "Ġfar": 1710,
      "Ġma": 1711,
      "Ġexam": 1712,
      "ners": 1713,
      "Ġcho": 1714,
      "idence": 1715,
      "Ġpower": 1716,
      "Ġprop": 1717,
      "Ġrap": 1718,
      "Ġbud": 1719,
      "Ġdig": 1720,
      "Ġsav": 1721,
      "ters": 1722,
      "Ġris": 1723,
      "anks": 1724,
      "Ġouts": 1725,
      "iding": 1726,
      "ool": 1727,
      "oks": 1728,
      "ired": 1729,
      "itting": 1730,
      "Ġhur": 1731,
      "ren": 1732,
      "ecess": 1733,
      "Ġdisapp": 1734,
      "Ġresearch": 1735,
      "Ġpriv": 1736,
      "Ġobserv": 1737,
      "Ġca": 1738,
      "Ġrefer": 1739,
      "ada": 1740,
      "ney": 1741,
      "akers": 1742,
      "Ġpati": 1743,
      "Ġweek": 1744,
      "ease": 1745,
      "Ġod": 1746,
      "Ġros": 1747,
      "ral": 1748,
      "Ġblack": 1749,
      "Ġstra": 1750,
      "ensive": 1751,
      "Ġlib": 1752,
      "itter": 1753,
      "Ġdiss": 1754,
      "Ġrepl": 1755,
      "Ġach": 1756,
      "Ġkh": 1757,
      "Ġwas": 1758,
      "cent": 1759,
      "Ġhyp": 1760,
      "agn": 1761,
      "Ġcross": 1762,
      "ults": 1763,
      "let": 1764,
      "pe": 1765,
      "Ġneigh": 1766,
      "Ġmad": 1767,
      "Ġlik": 1768,
      "Ġsun": 1769,
      "Ġrun": 1770,
      "ford": 1771,
      "any": 1772,
      "Ġger": 1773,
      "essed": 1774,
      "ih": 1775,
      "Ġshe": 1776,
      "uf": 1777,
      "Ġpublic": 1778,
      "Ġdra": 1779,
      "resp": 1780,
      "Ġgrow": 1781,
      "ordin": 1782,
      "Ġmulti": 1783,
      "Ġtreat": 1784,
      "Ġnar": 1785,
      "rem": 1786,
      "Ġplan": 1787,
      "ceed": 1788,
      "Ġfunction": 1789,
      "read": 1790,
      "Ġassoc": 1791,
      "Ġlev": 1792,
      "emb": 1793,
      "Ġadmin": 1794,
      "Ġcanc": 1795,
      "ript": 1796,
      "Ġchall": 1797,
      "iron": 1798,
      "Ġidentif": 1799,
      "Ġvo": 1800,
      "ulate": 1801,
      "Ġafter": 1802,
      "Ġrock": 1803,
      "Ġlic": 1804,
      "Ġbri": 1805,
      "aced": 1806,
      "ification": 1807,
      "Ġcard": 1808,
      "ify": 1809,
      "abb": 1810,
      "Ġfail": 1811,
      "Ġsuff": 1812,
      "Ġsour": 1813,
      "Ġmcc": 1814,
      "alu": 1815,
      "Ġwater": 1816,
      "etch": 1817,
      "Ġare": 1818,
      "Ġexec": 1819,
      "Ġstre": 1820,
      "Ġmech": 1821,
      "oked": 1822,
      "imm": 1823,
      "Ġmind": 1824,
      "Ġrh": 1825,
      "Ġesc": 1826,
      "ivid": 1827,
      "Ġneu": 1828,
      "Ġimport": 1829,
      "Ġperm": 1830,
      "anding": 1831,
      "ival": 1832,
      "icks": 1833,
      "Ġfore": 1834,
      "Ġstri": 1835,
      "ashing": 1836,
      "Ġten": 1837,
      "Ġcurr": 1838,
      "ums": 1839,
      "Ġshow": 1840,
      "Ġbatt": 1841,
      "Ġcand": 1842,
      "eration": 1843,
      "Ġtit": 1844,
      "ively": 1845,
      "Ġovers": 1846,
      "Ġbuild": 1847,
      "Ġsin": 1848,
      "owled": 1849,
      "Ġkill": 1850,
      "ya": 1851,
      "yc": 1852,
      "uses": 1853,
      "Ġartic": 1854,
      "roc": 1855,
      "men": 1856,
      "Ġparticip": 1857,
      "ees": 1858,
      "Ġshar": 1859,
      "Ġfind": 1860,
      "aining": 1861,
      "Ġconv": 1862,
      "inger": 1863,
      "Ġobj": 1864,
      "ims": 1865,
      "trac": 1866,
      "Ġbull": 1867,
      "Ġapplic": 1868,
      "bc": 1869,
      "Ġsurv": 1870,
      "oon": 1871,
      "ways": 1872,
      "Ġthere": 1873,
      "ilar": 1874,
      "Ġblock": 1875,
      "izes": 1876,
      "Ġopen": 1877,
      "Ġsecond": 1878,
      "Ġip": 1879,
      "ville": 1880,
      "Ġenter": 1881,
      "Ġok": 1882,
      "ret": 1883,
      "Ġswe": 1884,
      "Ġbehav": 1885,
      "Ġinte": 1886,
      "Ġinvol": 1887,
      "gs": 1888,
      "Ġgun": 1889,
      "Ġbenef": 1890,
      "Ġsle": 1891,
      "iving": 1892,
      "Ġproper": 1893,
      "Ġdiscuss": 1894,
      "Ġom": 1895,
      "Ġprem": 1896,
      "osh": 1897,
      "gress": 1898,
      "ime": 1899,
      "Ġmedic": 1900,
      "Ġgrand": 1901,
      "Ġju": 1902,
      "encies": 1903,
      "Ġtot": 1904,
      "eti": 1905,
      "Ġpolic": 1906,
      "Ġwatch": 1907,
      "Ġsit": 1908,
      "board": 1909,
      "oles": 1910,
      "Ġadj": 1911,
      "osis": 1912,
      "Ġmom": 1913,
      "Ġemp": 1914,
      "ware": 1915,
      "Ġvac": 1916,
      "wr": 1917,
      "nes": 1918,
      "Ġtro": 1919,
      "Ġbec": 1920,
      "vention": 1921,
      "Ġexist": 1922,
      "Ġlow": 1923,
      "Ġalle": 1924,
      "atures": 1925,
      "Ġrich": 1926,
      "Ġtrad": 1927,
      "Ġlay": 1928,
      "uce": 1929,
      "Ġwon": 1930,
      "Ġmir": 1931,
      "Ġrid": 1932,
      "iers": 1933,
      "Ġprinc": 1934,
      "ocks": 1935,
      "Ġath": 1936,
      "Ġcos": 1937,
      "Ġconstit": 1938,
      "anti": 1939,
      "elled": 1940,
      "Ġdemonstr": 1941,
      "ths": 1942,
      "Ġrac": 1943,
      "Ġpropos": 1944,
      "Ġstruct": 1945,
      "omen": 1946,
      "ography": 1947,
      "Ġgod": 1948,
      "Ġgreen": 1949,
      "Ġmot": 1950,
      "wood": 1951,
      "Ġgh": 1952,
      "Ġfem": 1953,
      "Ġess": 1954,
      "agon": 1955,
      "Ġcover": 1956,
      "ipp": 1957,
      "tered": 1958,
      "Ġdistrib": 1959,
      "Ġday": 1960,
      "aling": 1961,
      "eb": 1962,
      "Ġmechan": 1963,
      "Ġsa": 1964,
      "amed": 1965,
      "Ġcost": 1966,
      "ka": 1967,
      "airs": 1968,
      "Ġign": 1969,
      "Ġenviron": 1970,
      "book": 1971,
      "Ġbig": 1972,
      "Ġspecial": 1973,
      "aches": 1974,
      "ems": 1975,
      "Ġmach": 1976,
      "Ġstrateg": 1977,
      "ially": 1978,
      "Ġruss": 1979,
      "Ġul": 1980,
      "Ġnom": 1981,
      "ez": 1982,
      "room": 1983,
      "Ġuse": 1984,
      "Ġmax": 1985,
      "Ġcalc": 1986,
      "pro": 1987,
      "ulations": 1988,
      "Ġans": 1989,
      "igr": 1990,
      "ception": 1991,
      "Ġchamp": 1992,
      "Ġgrad": 1993,
      "Ġproble": 1994,
      "Ġut": 1995,
      "Ġone": 1996,
      "aks": 1997,
      "Ġsignific": 1998,
      "Ġlin": 1999,
      "ste": 2000,
      "Ġmaj": 2001,
      "ume": 2002,
      "Ġupd": 2003,
      "ether": 2004,
      "ector": 2005,
      "oking": 2006,
      "Ġoptim": 2007,
      "gers": 2008,
      "apped": 2009,
      "Ġmatch": 2010,
      "Ġreduc": 2011,
      "Ġglob": 2012,
      "Ġmys": 2013,
      "la": 2014,
      "Ġhuman": 2015,
      "king": 2016,
      "edd": 2017,
      "iec": 2018,
      "Ġrecogn": 2019,
      "Ġtom": 2020,
      "ios": 2021,
      "ancy": 2022,
      "Ġsug": 2023,
      "ove": 2024,
      "Ġing": 2025,
      "Ġless": 2026,
      "Ġindivid": 2027,
      "Ġget": 2028,
      "tives": 2029,
      "Ġmos": 2030,
      "ift": 2031,
      "Ġthat": 2032,
      "Ġtwe": 2033,
      "Ġrub": 2034,
      "Ġpresent": 2035,
      "lands": 2036,
      "Ġdeterm": 2037,
      "anger": 2038,
      "Ġgir": 2039,
      "oting": 2040,
      "ha": 2041,
      "Ġimag": 2042,
      "Ġwil": 2043,
      "Ġclin": 2044,
      "Ġcry": 2045,
      "wards": 2046,
      "Ġaccess": 2047,
      "esis": 2048,
      "Ġmist": 2049,
      "Ġclear": 2050,
      "Ġrepresent": 2051,
      "ales": 2052,
      "ials": 2053,
      "ette": 2054,
      "Ġham": 2055,
      "fr": 2056,
      "ero": 2057,
      "Ġdead": 2058,
      "Ġeduc": 2059,
      "Ġcult": 2060,
      "usion": 2061,
      "Ġconst": 2062,
      "ager": 2063,
      "ca": 2064,
      "Ġkr": 2065,
      "Ġwood": 2066,
      "Ġens": 2067,
      "Ġstrong": 2068,
      "Ġtime": 2069,
      "Ġjournal": 2070,
      "Ġbad": 2071,
      "acking": 2072,
      "Ġha": 2073,
      "Ġsouth": 2074,
      "ectively": 2075,
      "Ġmol": 2076,
      "Ġright": 2077,
      "Ġlight": 2078,
      "iles": 2079,
      "Ġchem": 2080,
      "Ġfort": 2081,
      "Ġcheck": 2082,
      "Ġquestion": 2083,
      "Ġnow": 2084,
      "Ġthir": 2085,
      "arter": 2086,
      "Ġreport": 2087,
      "Ġachie": 2088,
      "Ġwell": 2089,
      "ini": 2090,
      "Ġmob": 2091,
      "Ġqual": 2092,
      "Ġcolle": 2093,
      "Ġvic": 2094,
      "Ġmore": 2095,
      "bre": 2096,
      "acked": 2097,
      "Ġother": 2098,
      "Ġfer": 2099,
      "ules": 2100,
      "iled": 2101,
      "Ġbank": 2102,
      "Ġunl": 2103,
      "Ġanaly": 2104,
      "Ġwall": 2105,
      "Ġjan": 2106,
      "Ġtouch": 2107,
      "Ġcustom": 2108,
      "Ġcomment": 2109,
      "Ġgold": 2110,
      "och": 2111,
      "rows": 2112,
      "ker": 2113,
      "Ġrecord": 2114,
      "Ġcele": 2115,
      "Ġsoft": 2116,
      "emp": 2117,
      "Ġevalu": 2118,
      "Ġmich": 2119,
      "Ġvill": 2120,
      "Ġmix": 2121,
      "Ġintegr": 2122,
      "Ġhosp": 2123,
      "Ġfarm": 2124,
      "aly": 2125,
      "owers": 2126,
      "Ġfix": 2127,
      "Ġacqu": 2128,
      "box": 2129,
      "Ġstart": 2130,
      "Ġspect": 2131,
      "oin": 2132,
      "Ġlife": 2133,
      "outs": 2134,
      "ica": 2135,
      "Ġcompar": 2136,
      "Ġdat": 2137,
      "Ġciv": 2138,
      "head": 2139,
      "urb": 2140,
      "itiz": 2141,
      "Ġsequ": 2142,
      "Ġjus": 2143,
      "ashed": 2144,
      "Ġnorth": 2145,
      "Ġinflu": 2146,
      "Ġintr": 2147,
      "aled": 2148,
      "Ġfall": 2149,
      "ever": 2150,
      "Ġharm": 2151,
      "Ġutil": 2152,
      "iod": 2153,
      "uters": 2154,
      "xt": 2155,
      "abor": 2156,
      "Ġappear": 2157,
      "Ġrand": 2158,
      "Ġveg": 2159,
      "isl": 2160,
      "Ġgal": 2161,
      "Ġnight": 2162,
      "Ġengine": 2163,
      "Ġnav": 2164,
      "Ġcount": 2165,
      "ife": 2166,
      "Ġcrow": 2167,
      "Ġox": 2168,
      "acts": 2169,
      "asts": 2170,
      "tor": 2171,
      "eling": 2172,
      "Ġsupport": 2173,
      "Ġconcern": 2174,
      "Ġcommit": 2175,
      "Ġhot": 2176,
      "hr": 2177,
      "Ġoppos": 2178,
      "anced": 2179,
      "Ġlearn": 2180,
      "Ġwalk": 2181,
      "Ġrein": 2182,
      "Ġhop": 2183,
      "Ġplat": 2184,
      "Ġsepar": 2185,
      "Ġpun": 2186,
      "Ġtod": 2187,
      "aves": 2188,
      "Ġhas": 2189,
      "arc": 2190,
      "ached": 2191,
      "Ġpast": 2192,
      "Ġsay": 2193,
      "Ġaddress": 2194,
      "Ġthis": 2195,
      "ander": 2196,
      "Ġaddition": 2197,
      "Ġclim": 2198,
      "Ġheav": 2199,
      "okes": 2200,
      "Ġblood": 2201,
      "bi": 2202,
      "Ġuk": 2203,
      "ailed": 2204,
      "Ġautom": 2205,
      "Ġbul": 2206,
      "ston": 2207,
      "Ġthink": 2208,
      "light": 2209,
      "Ġlang": 2210,
      "Ġyou": 2211,
      "idge": 2212,
      "Ġsmall": 2213,
      "Ġhun": 2214,
      "Ġyear": 2215,
      "Ġfoc": 2216,
      "za": 2217,
      "Ġbab": 2218,
      "isti": 2219,
      "xic": 2220,
      "Ġrelations": 2221,
      "inated": 2222,
      "iling": 2223,
      "eline": 2224,
      "Ġliter": 2225,
      "itors": 2226,
      "Ġdraw": 2227,
      "Ġaver": 2228,
      "Ġbelie": 2229,
      "Ġms": 2230,
      "Ġdepart": 2231,
      "Ġfair": 2232,
      "fort": 2233,
      "Ġsurpr": 2234,
      "da": 2235,
      "Ġterror": 2236,
      "crib": 2237,
      "Ġinvest": 2238,
      "arily": 2239,
      "Ġavail": 2240,
      "Ġnation": 2241,
      "Ġbusiness": 2242,
      "ba": 2243,
      "Ġtest": 2244,
      "ll": 2245,
      "vey": 2246,
      "Ġchrist": 2247,
      "Ġram": 2248,
      "omp": 2249,
      "Ġsent": 2250,
      "anted": 2251,
      "enced": 2252,
      "Ġwhere": 2253,
      "ado": 2254,
      "uary": 2255,
      "ena": 2256,
      "Ġgam": 2257,
      "Ġadminist": 2258,
      "oper": 2259,
      "Ġdav": 2260,
      "ming": 2261,
      "Ġclaim": 2262,
      "Ġvide": 2263,
      "Ġarri": 2264,
      "Ġjack": 2265,
      "ench": 2266,
      "Ġconsist": 2267,
      "Ġits": 2268,
      "Ġprior": 2269,
      "apt": 2270,
      "kins": 2271,
      "lam": 2272,
      "Ġdocument": 2273,
      "Ġintell": 2274,
      "Ġminim": 2275,
      "mm": 2276,
      "Ġhold": 2277,
      "Ġped": 2278,
      "Ġpick": 2279,
      "Ġwid": 2280,
      "Ġagre": 2281,
      "Ġheart": 2282,
      "Ġestim": 2283,
      "Ġrout": 2284,
      "Ġconsider": 2285,
      "otion": 2286,
      "Ġsever": 2287,
      "Ġroll": 2288,
      "gu": 2289,
      "aign": 2290,
      "Ġreason": 2291,
      "ius": 2292,
      "Ġrepubl": 2293,
      "ample": 2294,
      "icial": 2295,
      "ounded": 2296,
      "asing": 2297,
      "hol": 2298,
      "Ġfirst": 2299,
      "oted": 2300,
      "ews": 2301,
      "Ġlink": 2302,
      "do": 2303,
      "Ġhall": 2304,
      "Ġburn": 2305,
      "yle": 2306,
      "ires": 2307,
      "Ġbit": 2308,
      "Ġspl": 2309,
      "Ġdoub": 2310,
      "Ġface": 2311,
      "gn": 2312,
      "bers": 2313,
      "iated": 2314,
      "dr": 2315,
      "Ġcut": 2316,
      "Ġrespond": 2317,
      "apping": 2318,
      "Ġaug": 2319,
      "Ġbomb": 2320,
      "Ġestabl": 2321,
      "Ġts": 2322,
      "Ġconduc": 2323,
      "ci": 2324,
      "iber": 2325,
      "Ġbow": 2326,
      "Ġlov": 2327,
      "ropri": 2328,
      "Ġfed": 2329,
      "Ġtrib": 2330,
      "iate": 2331,
      "ogen": 2332,
      "Ġlat": 2333,
      "Ġkid": 2334,
      "Ġspecific": 2335,
      "ague": 2336,
      "aked": 2337,
      "Ġassess": 2338,
      "agr": 2339,
      "era": 2340,
      "Ġtransl": 2341,
      "uation": 2342,
      "Ġreturn": 2343,
      "Ġgall": 2344,
      "Ġspir": 2345,
      "epend": 2346,
      "Ġfrom": 2347,
      "Ġperiod": 2348,
      "Ġoh": 2349,
      "Ġadver": 2350,
      "Ġerr": 2351,
      "Ġfour": 2352,
      "Ġkar": 2353,
      "rel": 2354,
      "gin": 2355,
      "Ġdism": 2356,
      "Ġcell": 2357,
      "Ġah": 2358,
      "Ġcritic": 2359,
      "Ġansw": 2360,
      "Ġesp": 2361,
      "oid": 2362,
      "aken": 2363,
      "Ġwild": 2364,
      "Ġhab": 2365,
      "fe": 2366,
      "ags": 2367,
      "Ġvict": 2368,
      "uting": 2369,
      "uous": 2370,
      "Ġcann": 2371,
      "Ġannoun": 2372,
      "Ġhome": 2373,
      "isation": 2374,
      "actions": 2375,
      "aching": 2376,
      "Ġsubm": 2377,
      "iance": 2378,
      "Ġfield": 2379,
      "Ġcolor": 2380,
      "Ġnumbernumber": 2381,
      "Ġconvers": 2382,
      "Ġcampaign": 2383,
      "Ġnear": 2384,
      "Ġcateg": 2385,
      "Ġbox": 2386,
      "Ġrecomm": 2387,
      "Ġcul": 2388,
      "Ġcommon": 2389,
      "Ġyoun": 2390,
      "Ġinstall": 2391,
      "Ġway": 2392,
      "Ġven": 2393,
      "well": 2394,
      "ques": 2395,
      "Ġeurop": 2396,
      "Ġbott": 2397,
      "cr": 2398,
      "Ġsix": 2399,
      "Ġpeop": 2400,
      "Ġprogramm": 2401,
      "Ġconserv": 2402,
      "Ġdog": 2403,
      "ien": 2404,
      "Ġvar": 2405,
      "alized": 2406,
      "ona": 2407,
      "Ġstop": 2408,
      "iat": 2409,
      "Ġenti": 2410,
      "Ġlou": 2411,
      "istan": 2412,
      "xx": 2413,
      "itable": 2414,
      "Ġagain": 2415,
      "Ġcapital": 2416,
      "Ġsimilar": 2417,
      "Ġexpos": 2418,
      "Ġmilit": 2419,
      "Ġmut": 2420,
      "otes": 2421,
      "Ġappl": 2422,
      "Ġstudy": 2423,
      "Ġdeal": 2424,
      "Ġbook": 2425,
      "orse": 2426,
      "uls": 2427,
      "ugs": 2428,
      "Ġment": 2429,
      "Ġflo": 2430,
      "ship": 2431,
      "astic": 2432,
      "lying": 2433,
      "Ġprob": 2434,
      "Ġdim": 2435,
      "ety": 2436,
      "ulf": 2437,
      "aur": 2438,
      "Ġsubst": 2439,
      "Ġlegisl": 2440,
      "Ġrod": 2441,
      "Ġjob": 2442,
      "Ġdata": 2443,
      "Ġcelebr": 2444,
      "Ġfut": 2445,
      "ried": 2446,
      "Ġrefl": 2447,
      "Ġlaugh": 2448,
      "Ġwest": 2449,
      "hips": 2450,
      "Ġalb": 2451,
      "Ġsac": 2452,
      "ipped": 2453,
      "Ġexpress": 2454,
      "Ġstory": 2455,
      "Ġhere": 2456,
      "Ġintroduc": 2457,
      "Ġside": 2458,
      "put": 2459,
      "Ġprogress": 2460,
      "respond": 2461,
      "icient": 2462,
      "Ġtext": 2463,
      "Ġinterview": 2464,
      "Ġzh": 2465,
      "Ġcaus": 2466,
      "Ġwhe": 2467,
      "Ġsurf": 2468,
      "Ġdemocr": 2469,
      "Ġconfl": 2470,
      "odes": 2471,
      "ga": 2472,
      "isions": 2473,
      "zy": 2474,
      "oh": 2475,
      "oman": 2476,
      "Ġconfir": 2477,
      "Ġdeath": 2478,
      "Ġshr": 2479,
      "Ġnecess": 2480,
      "atively": 2481,
      "agement": 2482,
      "Ġcorrespond": 2483,
      "Ġfriend": 2484,
      "thers": 2485,
      "Ġassist": 2486,
      "osed": 2487,
      "Ġthrough": 2488,
      "Ġmort": 2489,
      "Ġdeliver": 2490,
      "Ġwarm": 2491,
      "Ġbef": 2492,
      "ground": 2493,
      "Ġconsum": 2494,
      "Ġreve": 2495,
      "ita": 2496,
      "Ġquick": 2497,
      "oes": 2498,
      "Ġlock": 2499,
      "abil": 2500,
      "Ġwal": 2501,
      "uals": 2502,
      "eman": 2503,
      "Ġque": 2504,
      "Ġcivil": 2505,
      "Ġprepar": 2506,
      "Ġaltern": 2507,
      "prec": 2508,
      "ique": 2509,
      "Ġyears": 2510,
      "Ġresist": 2511,
      "Ġearn": 2512,
      "lers": 2513,
      "Ġanalysis": 2514,
      "elves": 2515,
      "dle": 2516,
      "Ġindepend": 2517,
      "Ġsett": 2518,
      "ray": 2519,
      "crip": 2520,
      "Ġstatis": 2521,
      "Ġdid": 2522,
      "Ġvalid": 2523,
      "roph": 2524,
      "Ġtarget": 2525,
      "Ġfol": 2526,
      "otyp": 2527,
      "bert": 2528,
      "asion": 2529,
      "Ġkick": 2530,
      "Ġdark": 2531,
      "Ġfle": 2532,
      "Ġenh": 2533,
      "Ġold": 2534,
      "etr": 2535,
      "Ġfu": 2536,
      "Ġdiscover": 2537,
      "rog": 2538,
      "mental": 2539,
      "Ġwarn": 2540,
      "Ġkind": 2541,
      "acted": 2542,
      "zed": 2543,
      "Ġweak": 2544,
      "oler": 2545,
      "Ġmand": 2546,
      "isms": 2547,
      "Ġmath": 2548,
      "Ġacad": 2549,
      "Ġjohn": 2550,
      "Ġamaz": 2551,
      "Ġtour": 2552,
      "Ġhad": 2553,
      "Ġdiagn": 2554,
      "Ġbed": 2555,
      "Ġcast": 2556,
      "Ġband": 2557,
      "Ġimplement": 2558,
      "Ġpict": 2559,
      "Ġstrength": 2560,
      "house": 2561,
      "cast": 2562,
      "Ġsocial": 2563,
      "ota": 2564,
      "ula": 2565,
      "Ġclean": 2566,
      "Ġtemper": 2567,
      "erve": 2568,
      "Ġrepublic": 2569,
      "Ġdiscl": 2570,
      "Ġblog": 2571,
      "Ġtransform": 2572,
      "Ġscen": 2573,
      "Ġconclus": 2574,
      "ilt": 2575,
      "thing": 2576,
      "Ġgreat": 2577,
      "icted": 2578,
      "Ġschool": 2579,
      "ighting": 2580,
      "Ġsor": 2581,
      "ulating": 2582,
      "Ġoccup": 2583,
      "idents": 2584,
      "con": 2585,
      "Ġpurpos": 2586,
      "Ġfrequ": 2587,
      "Ġvan": 2588,
      "inder": 2589,
      "inning": 2590,
      "Ġnut": 2591,
      "Ġdyn": 2592,
      "Ġneg": 2593,
      "ella": 2594,
      "Ġcandid": 2595,
      "Ġdeep": 2596,
      "uing": 2597,
      "Ġgri": 2598,
      "Ġdur": 2599,
      "Ġak": 2600,
      "isp": 2601,
      "Ġaccount": 2602,
      "Ġchalleng": 2603,
      "Ġtes": 2604,
      "Ġclar": 2605,
      "Ġpor": 2606,
      "ufact": 2607,
      "Ġhyd": 2608,
      "ris": 2609,
      "Ġcomplex": 2610,
      "Ġput": 2611,
      "iel": 2612,
      "atisf": 2613,
      "Ġlaunch": 2614,
      "Ġevent": 2615,
      "Ġmoun": 2616,
      "Ġhaw": 2617,
      "nn": 2618,
      "mark": 2619,
      "Ġmart": 2620,
      "Ġprosec": 2621,
      "Ġpitch": 2622,
      "Ġdar": 2623,
      "Ġwit": 2624,
      "come": 2625,
      "Ġmanufact": 2626,
      "Ġthey": 2627,
      "Ġproj": 2628,
      "Ġgroup": 2629,
      "Ġjer": 2630,
      "Ġweb": 2631,
      "Ġrot": 2632,
      "Ġlob": 2633,
      "enders": 2634,
      "Ġfavor": 2635,
      "Ġmm": 2636,
      "Ġmont": 2637,
      "Ġpret": 2638,
      "Ġperf": 2639,
      "Ġstate": 2640,
      "eding": 2641,
      "Ġking": 2642,
      "Ġwonder": 2643,
      "urch": 2644,
      "Ġhos": 2645,
      "ault": 2646,
      "Ġfood": 2647,
      "Ġof": 2648,
      "Ġpoint": 2649,
      "Ġregard": 2650,
      "raft": 2651,
      "bed": 2652,
      "enses": 2653,
      "Ġbat": 2654,
      "Ġbon": 2655,
      "Ġthreat": 2656,
      "Ġshut": 2657,
      "ria": 2658,
      "Ġdefin": 2659,
      "Ġmagn": 2660,
      "illed": 2661,
      "Ġflu": 2662,
      "ked": 2663,
      "uments": 2664,
      "key": 2665,
      "Ġhous": 2666,
      "Ġga": 2667,
      "Ġextr": 2668,
      "Ġhouse": 2669,
      "Ġgame": 2670,
      "Ġresults": 2671,
      "oma": 2672,
      "Ġmerc": 2673,
      "Ġfranc": 2674,
      "Ġgraph": 2675,
      "hs": 2676,
      "Ġlad": 2677,
      "dy": 2678,
      "Ġsti": 2679,
      "Ġfrank": 2680,
      "umbers": 2681,
      "ola": 2682,
      "Ġnational": 2683,
      "iny": 2684,
      "Ġguard": 2685,
      "Ġlu": 2686,
      "Ġdrop": 2687,
      "rs": 2688,
      "Ġfree": 2689,
      "roll": 2690,
      "Ġadvertis": 2691,
      "Ġwrong": 2692,
      "eland": 2693,
      "Ġdomin": 2694,
      "Ġsearch": 2695,
      "mon": 2696,
      "Ġhyper": 2697,
      "aters": 2698,
      "Ġreform": 2699,
      "iner": 2700,
      "Ġant": 2701,
      "iety": 2702,
      "Ġsee": 2703,
      "Ġif": 2704,
      "Ġtown": 2705,
      "Ġquarter": 2706,
      "inter": 2707,
      "eters": 2708,
      "illing": 2709,
      "Ġrestric": 2710,
      "Ġnic": 2711,
      "ho": 2712,
      "war": 2713,
      "Ġphen": 2714,
      "Ġsmart": 2715,
      "Ġsuppor": 2716,
      "onic": 2717,
      "Ġban": 2718,
      "Ġash": 2719,
      "Ġaccur": 2720,
      "Ġinterest": 2721,
      "Ġearth": 2722,
      "asting": 2723,
      "Ġhell": 2724,
      "ompl": 2725,
      "Ġrecover": 2726,
      "Ġorder": 2727,
      "ancing": 2728,
      "Ġprofession": 2729,
      "Ġseg": 2730,
      "ups": 2731,
      "Ġremov": 2732,
      "so": 2733,
      "Ġcountr": 2734,
      "Ġenj": 2735,
      "Ġce": 2736,
      "Ġchristi": 2737,
      "Ġups": 2738,
      "Ġsound": 2739,
      "Ġlabor": 2740,
      "Ġsong": 2741,
      "Ġacadem": 2742,
      "Ġfront": 2743,
      "reh": 2744,
      "cles": 2745,
      "Ġhu": 2746,
      "using": 2747,
      "Ġhelp": 2748,
      "bit": 2749,
      "Ġmost": 2750,
      "Ġcab": 2751,
      "goti": 2752,
      "ologist": 2753,
      "ibly": 2754,
      "Ġstaff": 2755,
      "Ġage": 2756,
      "Ġpac": 2757,
      "Ġfat": 2758,
      "ura": 2759,
      "eph": 2760,
      "Ġsecret": 2761,
      "ring": 2762,
      "Ġhear": 2763,
      "orders": 2764,
      "Ġtac": 2765,
      "Ġgerman": 2766,
      "Ġinterpr": 2767,
      "iant": 2768,
      "Ġattrib": 2769,
      "yt": 2770,
      "Ġdecre": 2771,
      "Ġnegoti": 2772,
      "Ġcou": 2773,
      "Ġinstr": 2774,
      "tified": 2775,
      "Ġsnow": 2776,
      "Ġrepe": 2777,
      "Ġdivers": 2778,
      "Ġarab": 2779,
      "Ġtick": 2780,
      "Ġislam": 2781,
      "cer": 2782,
      "Ġprote": 2783,
      "Ġgrou": 2784,
      "urity": 2785,
      "Ġconstruc": 2786,
      "hi": 2787,
      "Ġpu": 2788,
      "Ġcomplic": 2789,
      "char": 2790,
      "ply": 2791,
      "aste": 2792,
      "Ġexperiment": 2793,
      "Ġbreath": 2794,
      "Ġbio": 2795,
      "Ġpolitic": 2796,
      "idel": 2797,
      "Ġlevel": 2798,
      "Ġresour": 2799,
      "Ġconcent": 2800,
      "Ġhav": 2801,
      "Ġart": 2802,
      "Ġoutl": 2803,
      "asons": 2804,
      "Ġmarch": 2805,
      "eps": 2806,
      "Ġself": 2807,
      "Ġpip": 2808,
      "olic": 2809,
      "olf": 2810,
      "eled": 2811,
      "Ġshould": 2812,
      "Ġconsequ": 2813,
      "Ġthough": 2814,
      "Ġmaster": 2815,
      "Ġfab": 2816,
      "Ġwarr": 2817,
      "icul": 2818,
      "Ġwebs": 2819,
      "Ġiv": 2820,
      "ishes": 2821,
      "Ġpercent": 2822,
      "Ġcompeti": 2823,
      "Ġaccord": 2824,
      "Ġrig": 2825,
      "oned": 2826,
      "knowled": 2827,
      "Ġfast": 2828,
      "uster": 2829,
      "Ġparam": 2830,
      "Ġbag": 2831,
      "Ġexpect": 2832,
      "Ġinnov": 2833,
      "Ġsad": 2834,
      "Ġda": 2835,
      "ws": 2836,
      "cing": 2837,
      "lan": 2838,
      "icate": 2839,
      "Ġhistor": 2840,
      "Ġsust": 2841,
      "ned": 2842,
      "Ġtalk": 2843,
      "Ġbrand": 2844,
      "Ġneighb": 2845,
      "Ġluc": 2846,
      "Ġcitiz": 2847,
      "Ġdepend": 2848,
      "Ġobl": 2849,
      "apy": 2850,
      "Ġboy": 2851,
      "Ġpod": 2852,
      "vement": 2853,
      "mar": 2854,
      "Ġuniversity": 2855,
      "icult": 2856,
      "Ġcro": 2857,
      "Ġmajor": 2858,
      "Ġpenn": 2859,
      "pa": 2860,
      "onym": 2861,
      "Ġacknowled": 2862,
      "Ġincor": 2863,
      "ubs": 2864,
      "Ġimmun": 2865,
      "iro": 2866,
      "Ġwel": 2867,
      "Ġemph": 2868,
      "xim": 2869,
      "tc": 2870,
      "till": 2871,
      "Ġfull": 2872,
      "iser": 2873,
      "Ġsugg": 2874,
      "Ġrang": 2875,
      "iders": 2876,
      "Ġseason": 2877,
      "Ġgeor": 2878,
      "aint": 2879,
      "ras": 2880,
      "inations": 2881,
      "Ġrelig": 2882,
      "Ġpul": 2883,
      "ami": 2884,
      "Ġfif": 2885,
      "aq": 2886,
      "Ġlet": 2887,
      "Ġelev": 2888,
      "Ġgas": 2889,
      "Ġspot": 2890,
      "umn": 2891,
      "ning": 2892,
      "Ġisra": 2893,
      "Ġcompos": 2894,
      "Ġconver": 2895,
      "Ġmurder": 2896,
      "Ġtrip": 2897,
      "Ġbuff": 2898,
      "Ġlangu": 2899,
      "Ġkil": 2900,
      "Ġbrief": 2901,
      "Ġexhib": 2902,
      "Ġproblem": 2903,
      "ru": 2904,
      "ither": 2905,
      "Ġstates": 2906,
      "Ġadop": 2907,
      "Ġeurope": 2908,
      "Ġtable": 2909,
      "stein": 2910,
      "Ġsurr": 2911,
      "Ġcollabor": 2912,
      "enth": 2913,
      "Ġrank": 2914,
      "ala": 2915,
      "thy": 2916,
      "Ġrequire": 2917,
      "ture": 2918,
      "Ġdou": 2919,
      "onents": 2920,
      "Ġgro": 2921,
      "Ġax": 2922,
      "Ġble": 2923,
      "Ġpoor": 2924,
      "Ġreti": 2925,
      "Ġalex": 2926,
      "ogether": 2927,
      "Ġss": 2928,
      "Ġded": 2929,
      "Ġaustr": 2930,
      "etic": 2931,
      "iable": 2932,
      "Ġbay": 2933,
      "alia": 2934,
      "point": 2935,
      "Ġdie": 2936,
      "rain": 2937,
      "gar": 2938,
      "Ġtwo": 2939,
      "Ġtake": 2940,
      "Ġfear": 2941,
      "ocked": 2942,
      "kes": 2943,
      "ifying": 2944,
      "ipl": 2945,
      "iest": 2946,
      "ania": 2947,
      "Ġfel": 2948,
      "Ġexperi": 2949,
      "Ġmaintain": 2950,
      "body": 2951,
      "Ġproced": 2952,
      "wide": 2953,
      "Ġcondition": 2954,
      "Ġpharm": 2955,
      "Ġrain": 2956,
      "ext": 2957,
      "igned": 2958,
      "aming": 2959,
      "ago": 2960,
      "bur": 2961,
      "Ġsold": 2962,
      "Ġwho": 2963,
      "Ġship": 2964,
      "Ġorigin": 2965,
      "Ġbefore": 2966,
      "yth": 2967,
      "burg": 2968,
      "Ġworks": 2969,
      "Ġweap": 2970,
      "erred": 2971,
      "ween": 2972,
      "Ġstandard": 2973,
      "Ġmarket": 2974,
      "Ġemail": 2975,
      "Ġpattern": 2976,
      "Ġpurch": 2977,
      "Ġlike": 2978,
      "Ġhill": 2979,
      "issions": 2980,
      "Ġcool": 2981,
      "Ġground": 2982,
      "Ġta": 2983,
      "Ġcrim": 2984,
      "Ġenerg": 2985,
      "Ġposition": 2986,
      "Ġlimit": 2987,
      "Ġcity": 2988,
      "Ġbol": 2989,
      "Ġmaterial": 2990,
      "Ġillustr": 2991,
      "Ġcompan": 2992,
      "Ġpa": 2993,
      "no": 2994,
      "Ġopport": 2995,
      "Ġhim": 2996,
      "Ġns": 2997,
      "Ġru": 2998,
      "Ġcourt": 2999,
      "itiv": 3000,
      "yan": 3001,
      "lor": 3002,
      "Ġabout": 3003,
      "Ġjap": 3004,
      "esc": 3005,
      "Ġpeople": 3006,
      "Ġarticle": 3007,
      "Ġgard": 3008,
      "Ġafric": 3009,
      "isher": 3010,
      "ida": 3011,
      "Ġlower": 3012,
      "anda": 3013,
      "edy": 3014,
      "Ġmi": 3015,
      "Ġthen": 3016,
      "under": 3017,
      "Ġdoll": 3018,
      "Ġhospital": 3019,
      "Ġton": 3020,
      "Ġdescrib": 3021,
      "Ġcolon": 3022,
      "Ġson": 3023,
      "Ġlands": 3024,
      "dom": 3025,
      "Ġhus": 3026,
      "Ġcow": 3027,
      "Ġchap": 3028,
      "encing": 3029,
      "Ġmoment": 3030,
      "Ġregion": 3031,
      "icts": 3032,
      "Ġanth": 3033,
      "Ġfra": 3034,
      "Ġlaws": 3035,
      "Ġfan": 3036,
      "pect": 3037,
      "oming": 3038,
      "ayed": 3039,
      "anes": 3040,
      "fs": 3041,
      "Ġbrew": 3042,
      "bon": 3043,
      "Ġtigh": 3044,
      "ube": 3045,
      "uz": 3046,
      "Ġplatform": 3047,
      "cle": 3048,
      "Ġcorpor": 3049,
      "Ġflor": 3050,
      "Ġstim": 3051,
      "oyal": 3052,
      "Ġroad": 3053,
      "Ġcd": 3054,
      "atically": 3055,
      "erate": 3056,
      "Ġopportun": 3057,
      "Ġcounc": 3058,
      "Ġhave": 3059,
      "Ġloss": 3060,
      "Ġknow": 3061,
      "ken": 3062,
      "Ġchurch": 3063,
      "Ġimpl": 3064,
      "Ġtravel": 3065,
      "Ġsugges": 3066,
      "Ġtrump": 3067,
      "Ġgeneral": 3068,
      "Ġangel": 3069,
      "Ġcatch": 3070,
      "ko": 3071,
      "Ġleft": 3072,
      "Ġprefer": 3073,
      "Ġbern": 3074,
      "Ġpap": 3075,
      "Ġib": 3076,
      "ten": 3077,
      "pass": 3078,
      "Ġpush": 3079,
      "Ġpil": 3080,
      "Ġluck": 3081,
      "Ġobtain": 3082,
      "eller": 3083,
      "ronic": 3084,
      "icit": 3085,
      "Ġimper": 3086,
      "Ġdream": 3087,
      "Ġly": 3088,
      "Ġstress": 3089,
      "Ġthan": 3090,
      "ince": 3091,
      "Ġba": 3092,
      "rod": 3093,
      "Ġforg": 3094,
      "Ġenjoy": 3095,
      "mans": 3096,
      "utor": 3097,
      "Ġmun": 3098,
      "list": 3099,
      "Ġmicros": 3100,
      "Ġsymb": 3101,
      "Ġround": 3102,
      "Ġdil": 3103,
      "Ġtab": 3104,
      "Ġcould": 3105,
      "Ġna": 3106,
      "load": 3107,
      "ucks": 3108,
      "tices": 3109,
      "Ġmah": 3110,
      "Ġbase": 3111,
      "tings": 3112,
      "Ġmethods": 3113,
      "Ġwed": 3114,
      "Ġmotor": 3115,
      "ishment": 3116,
      "Ġteam": 3117,
      "Ġenfor": 3118,
      "acing": 3119,
      "Ġrecip": 3120,
      "Ġnote": 3121,
      "Ġwould": 3122,
      "itten": 3123,
      "Ġstudies": 3124,
      "istry": 3125,
      "Ġcommission": 3126,
      "Ġcommand": 3127,
      "oses": 3128,
      "don": 3129,
      "Ġwere": 3130,
      "Ġprotest": 3131,
      "Ġinformation": 3132,
      "Ġveh": 3133,
      "Ġreleas": 3134,
      "Ġopin": 3135,
      "Ġmodel": 3136,
      "oint": 3137,
      "unning": 3138,
      "Ġdisease": 3139,
      "Ġbetween": 3140,
      "Ġappropri": 3141,
      "Ġvictim": 3142,
      "Ġrecon": 3143,
      "Ġshop": 3144,
      "Ġspo": 3145,
      "va": 3146,
      "Ġfly": 3147,
      "Ġpaper": 3148,
      "Ġproject": 3149,
      "Ġstock": 3150,
      "Ġslow": 3151,
      "Ġcod": 3152,
      "han": 3153,
      "Ġemerg": 3154,
      "Ġinterf": 3155,
      "urd": 3156,
      "Ġchann": 3157,
      "Ġdoes": 3158,
      "Ġcase": 3159,
      "Ġlength": 3160,
      "Ġconven": 3161,
      "Ġbirth": 3162,
      "Ġsatisf": 3163,
      "Ġspace": 3164,
      "Ġfun": 3165,
      "Ġword": 3166,
      "Ġfant": 3167,
      "Ġimplic": 3168,
      "Ġbody": 3169,
      "ologies": 3170,
      "Ġparticular": 3171,
      "ogue": 3172,
      "Ġbattle": 3173,
      "Ġscreen": 3174,
      "Ġboard": 3175,
      "Ġsan": 3176,
      "Ġsize": 3177,
      "Ġgoal": 3178,
      "ectly": 3179,
      "Ġaz": 3180,
      "Ġinstruc": 3181,
      "Ġast": 3182,
      "Ġreported": 3183,
      "lines": 3184,
      "but": 3185,
      "ensions": 3186,
      "Ġorg": 3187,
      "Ġyork": 3188,
      "Ġstrugg": 3189,
      "ares": 3190,
      "Ġplace": 3191,
      "pective": 3192,
      "Ġdynam": 3193,
      "Ġmotiv": 3194,
      "Ġye": 3195,
      "izz": 3196,
      "Ġtradition": 3197,
      "Ġsubj": 3198,
      "Ġhit": 3199,
      "Ġpin": 3200,
      "Ġhem": 3201,
      "Ġrum": 3202,
      "othing": 3203,
      "yer": 3204,
      "oli": 3205,
      "Ġmonth": 3206,
      "alism": 3207,
      "Ġpatients": 3208,
      "Ġused": 3209,
      "Ġtreatment": 3210,
      "Ġsched": 3211,
      "Ġresol": 3212,
      "anned": 3213,
      "Ġchair": 3214,
      "Ġvul": 3215,
      "Ġdre": 3216,
      "uction": 3217,
      "Ġcenter": 3218,
      "Ġfinal": 3219,
      "ilit": 3220,
      "Ġdeg": 3221,
      "uch": 3222,
      "mann": 3223,
      "Ġdin": 3224,
      "ients": 3225,
      "Ġsud": 3226,
      "Ġpra": 3227,
      "eks": 3228,
      "ding": 3229,
      "ema": 3230,
      "mo": 3231,
      "Ġblue": 3232,
      "Ġbest": 3233,
      "Ġhalf": 3234,
      "Ġnumbers": 3235,
      "Ġemphas": 3236,
      "Ġbuck": 3237,
      "tering": 3238,
      "Ġmas": 3239,
      "Ġpurs": 3240,
      "Ġrandom": 3241,
      "tee": 3242,
      "Ġles": 3243,
      "eping": 3244,
      "Ġvalue": 3245,
      "orship": 3246,
      "Ġnan": 3247,
      "ml": 3248,
      "Ġyours": 3249,
      "Ġisrael": 3250,
      "Ġimpress": 3251,
      "Ġpeace": 3252,
      "Ġbrain": 3253,
      "Ġhope": 3254,
      "Ġdial": 3255,
      "Ġextrem": 3256,
      "Ġpaul": 3257,
      "iece": 3258,
      "Ġcath": 3259,
      "Ġexch": 3260,
      "Ġrevers": 3261,
      "place": 3262,
      "oe": 3263,
      "Ġjur": 3264,
      "Ġcircum": 3265,
      "Ġrul": 3266,
      "Ġadvoc": 3267,
      "Ġphotograph": 3268,
      "Ġtun": 3269,
      "ban": 3270,
      "Ġtruth": 3271,
      "anning": 3272,
      "Ġwhite": 3273,
      "kin": 3274,
      "Ġsab": 3275,
      "Ġapart": 3276,
      "Ġhair": 3277,
      "ounts": 3278,
      "Ġalt": 3279,
      "Ġunb": 3280,
      "Ġdisrup": 3281,
      "Ġbond": 3282,
      "Ġmake": 3283,
      "uty": 3284,
      "Ġemer": 3285,
      "Ġphilos": 3286,
      "pers": 3287,
      "Ġtimes": 3288,
      "onent": 3289,
      "Ġsolid": 3290,
      "bar": 3291,
      "Ġdevelopment": 3292,
      "Ġels": 3293,
      "Ġnetwork": 3294,
      "Ġcontract": 3295,
      "Ġgroups": 3296,
      "Ġconditions": 3297,
      "gy": 3298,
      "entially": 3299,
      "Ġmaxim": 3300,
      "Ġbod": 3301,
      "Ġrej": 3302,
      "Ġtotal": 3303,
      "Ġcalif": 3304,
      "Ġkore": 3305,
      "Ġsund": 3306,
      "ato": 3307,
      "ellow": 3308,
      "Ġstream": 3309,
      "ictions": 3310,
      "Ġsar": 3311,
      "Ġcoh": 3312,
      "alities": 3313,
      "Ġkl": 3314,
      "Ġrati": 3315,
      "gets": 3316,
      "Ġattack": 3317,
      "Ġchange": 3318,
      "elle": 3319,
      "Ġdesp": 3320,
      "Ġarchit": 3321,
      "omet": 3322,
      "Ġoccur": 3323,
      "uter": 3324,
      "abilities": 3325,
      "Ġell": 3326,
      "Ġbang": 3327,
      "zen": 3328,
      "Ġconfig": 3329,
      "Ġonly": 3330,
      "Ġattend": 3331,
      "izations": 3332,
      "ario": 3333,
      "Ġentertain": 3334,
      "Ġexplo": 3335,
      "Ġoutr": 3336,
      "usc": 3337,
      "Ġextra": 3338,
      "Ġnext": 3339,
      "iana": 3340,
      "Ġboth": 3341,
      "inct": 3342,
      "Ġsher": 3343,
      "Ġfuture": 3344,
      "Ġminor": 3345,
      "Ġsuperv": 3346,
      "overs": 3347,
      "Ġml": 3348,
      "Ġfreed": 3349,
      "Ġaccep": 3350,
      "Ġdestro": 3351,
      "Ġunw": 3352,
      "Ġlibr": 3353,
      "ectives": 3354,
      "Ġconclud": 3355,
      "Ġurl": 3356,
      "Ġdish": 3357,
      "ailing": 3358,
      "Ġisol": 3359,
      "Ġneighbor": 3360,
      "Ġlast": 3361,
      "Ġreuters": 3362,
      "Ġinspir": 3363,
      "Ġbath": 3364,
      "Ġcs": 3365,
      "Ġrisk": 3366,
      "works": 3367,
      "Ġprol": 3368,
      "Ġsuppl": 3369,
      "Ġreven": 3370,
      "Ġunderstand": 3371,
      "Ġnas": 3372,
      "Ġthree": 3373,
      "Ġconsid": 3374,
      "Ġpartners": 3375,
      "eed": 3376,
      "Ġchampions": 3377,
      "ept": 3378,
      "Ġbetter": 3379,
      "dp": 3380,
      "active": 3381,
      "Ġjew": 3382,
      "Ġpublished": 3383,
      "ucle": 3384,
      "Ġmembers": 3385,
      "Ġtrig": 3386,
      "Ġwhich": 3387,
      "Ġswitch": 3388,
      "Ġrevolution": 3389,
      "Ġappar": 3390,
      "Ġdiscr": 3391,
      "Ġhands": 3392,
      "Ġtransm": 3393,
      "Ġsky": 3394,
      "path": 3395,
      "Ġvirt": 3396,
      "ighted": 3397,
      "Ġoffic": 3398,
      "Ġvent": 3399,
      "Ġtool": 3400,
      "Ġencour": 3401,
      "irt": 3402,
      "Ġdanger": 3403,
      "Ġcongress": 3404,
      "Ġtraff": 3405,
      "Ġthom": 3406,
      "ched": 3407,
      "Ġalso": 3408,
      "Ġfeed": 3409,
      "Ġinh": 3410,
      "mer": 3411,
      "acc": 3412,
      "Ġgirl": 3413,
      "Ġfigure": 3414,
      "titude": 3415,
      "Ġaccompl": 3416,
      "ua": 3417,
      "acle": 3418,
      "Ġstorm": 3419,
      "Ġwashing": 3420,
      "Ġresult": 3421,
      "omes": 3422,
      "Ġaccept": 3423,
      "Ġlie": 3424,
      "Ġconsult": 3425,
      "Ġbes": 3426,
      "where": 3427,
      "Ġleaders": 3428,
      "Ġtrav": 3429,
      "Ġcertain": 3430,
      "Ġdisplay": 3431,
      "aze": 3432,
      "Ġneut": 3433,
      "Ġexclus": 3434,
      "Ġintim": 3435,
      "Ġadvent": 3436,
      "Ġsame": 3437,
      "Ġshad": 3438,
      "Ġjust": 3439,
      "auti": 3440,
      "hy": 3441,
      "asted": 3442,
      "Ġsanc": 3443,
      "Ġflav": 3444,
      "Ġtrick": 3445,
      "Ġconcept": 3446,
      "uries": 3447,
      "Ġfasc": 3448,
      "Ġprison": 3449,
      "Ġindust": 3450,
      "Ġregr": 3451,
      "Ġshare": 3452,
      "Ġversion": 3453,
      "Ġfresh": 3454,
      "Ġcontent": 3455,
      "Ġnormal": 3456,
      "Ġcc": 3457,
      "Ġinhib": 3458,
      "inary": 3459,
      "Ġmust": 3460,
      "umps": 3461,
      "Ġtok": 3462,
      "Ġjapan": 3463,
      "Ġexerc": 3464,
      "rich": 3465,
      "eff": 3466,
      "Ġmap": 3467,
      "ortion": 3468,
      "Ġmatt": 3469,
      "Ġnob": 3470,
      "Ġhack": 3471,
      "Ġyoung": 3472,
      "istics": 3473,
      "Ġfrustr": 3474,
      "Ġfro": 3475,
      "Ġspokes": 3476,
      "band": 3477,
      "itis": 3478,
      "Ġcorn": 3479,
      "Ġrate": 3480,
      "igan": 3481,
      "uge": 3482,
      "iot": 3483,
      "Ġscot": 3484,
      "Ġthese": 3485,
      "Ġeffect": 3486,
      "Ġsept": 3487,
      "Ġpopular": 3488,
      "illa": 3489,
      "Ġjul": 3490,
      "Ġplant": 3491,
      "osing": 3492,
      "fc": 3493,
      "Ġshel": 3494,
      "Ġdict": 3495,
      "Ġmillion": 3496,
      "Ġinqu": 3497,
      "oom": 3498,
      "Ġabd": 3499,
      "Ġantic": 3500,
      "Ġschol": 3501,
      "Ġvehic": 3502,
      "iday": 3503,
      "Ġcome": 3504,
      "eral": 3505,
      "backs": 3506,
      "ications": 3507,
      "iger": 3508,
      "Ġcommunity": 3509,
      "Ġavailable": 3510,
      "Ġintellig": 3511,
      "Ġscience": 3512,
      "Ġhay": 3513,
      "Ġstrip": 3514,
      "Ġaust": 3515,
      "tify": 3516,
      "rier": 3517,
      "agger": 3518,
      "Ġfactors": 3519,
      "Ġtow": 3520,
      "Ġnick": 3521,
      "Ġthought": 3522,
      "har": 3523,
      "Ġapproach": 3524,
      "Ġpopulation": 3525,
      "Ġsimpl": 3526,
      "Ġliqu": 3527,
      "Ġtap": 3528,
      "Ġscar": 3529,
      "Ġtype": 3530,
      "Ġaction": 3531,
      "fo": 3532,
      "Ġconsc": 3533,
      "eek": 3534,
      "Ġintens": 3535,
      "Ġhonest": 3536,
      "Ġnever": 3537,
      "Ġmother": 3538,
      "Ġreh": 3539,
      "Ġbrad": 3540,
      "Ġaccel": 3541,
      "Ġsoon": 3542,
      "Ġsource": 3543,
      "Ġaim": 3544,
      "ibr": 3545,
      "Ġve": 3546,
      "Ġrole": 3547,
      "erved": 3548,
      "Ġadvant": 3549,
      "Ġbrit": 3550,
      "Ġtum": 3551,
      "Ġcancer": 3552,
      "Ġepis": 3553,
      "Ġdisappear": 3554,
      "Ġlevels": 3555,
      "Ġperp": 3556,
      "Ġmeaning": 3557,
      "ologists": 3558,
      "Ġpatri": 3559,
      "Ġteen": 3560,
      "sters": 3561,
      "Ġrs": 3562,
      "Ġclint": 3563,
      "Ġcharl": 3564,
      "Ġoption": 3565,
      "ectors": 3566,
      "Ġbelow": 3567,
      "Ġeven": 3568,
      "Ġbure": 3569,
      "Ġspons": 3570,
      "Ġhang": 3571,
      "Ġcook": 3572,
      "Ġandre": 3573,
      "Ġunp": 3574,
      "ingu": 3575,
      "Ġdays": 3576,
      "Ġdifferent": 3577,
      "Ġauthors": 3578,
      "ror": 3579,
      "Ġpage": 3580,
      "Ġbell": 3581,
      "Ġfals": 3582,
      "Ġtoo": 3583,
      "iced": 3584,
      "Ġsubsid": 3585,
      "Ġtv": 3586,
      "Ġflash": 3587,
      "Ġkir": 3588,
      "Ġprohib": 3589,
      "rovers": 3590,
      "greg": 3591,
      "Ġfight": 3592,
      "iler": 3593,
      "inds": 3594,
      "Ġattrac": 3595,
      "Ġnovel": 3596,
      "enting": 3597,
      "Ġhost": 3598,
      "cement": 3599,
      "Ġoft": 3600,
      "Ġbush": 3601,
      "Ġcommerc": 3602,
      "Ġthor": 3603,
      "Ġcorrel": 3604,
      "Ġstraight": 3605,
      "Ġmeet": 3606,
      "Ġeffects": 3607,
      "Ġshoot": 3608,
      "Ġmodern": 3609,
      "acting": 3610,
      "Ġcarol": 3611,
      "Ġalg": 3612,
      "Ġpark": 3613,
      "tist": 3614,
      "Ġpit": 3615,
      "Ġvoc": 3616,
      "hus": 3617,
      "Ġbillion": 3618,
      "tition": 3619,
      "acity": 3620,
      "aughter": 3621,
      "Ġregular": 3622,
      "Ġtheir": 3623,
      "Ġgm": 3624,
      "Ġsed": 3625,
      "Ġcooper": 3626,
      "Ġconce": 3627,
      "ead": 3628,
      "Ġdisag": 3629,
      "awa": 3630,
      "itory": 3631,
      "Ġbid": 3632,
      "Ġaround": 3633,
      "Ġlot": 3634,
      "met": 3635,
      "Ġmemor": 3636,
      "arant": 3637,
      "acher": 3638,
      "Ġcontem": 3639,
      "Ġlater": 3640,
      "ora": 3641,
      "Ġcoordin": 3642,
      "Ġmexic": 3643,
      "Ġholl": 3644,
      "ographic": 3645,
      "iy": 3646,
      "eme": 3647,
      "Ġnutri": 3648,
      "bing": 3649,
      "Ġpep": 3650,
      "ocking": 3651,
      "Ġlam": 3652,
      "alled": 3653,
      "Ġtoler": 3654,
      "Ġprincip": 3655,
      "elly": 3656,
      "Ġindividual": 3657,
      "illeg": 3658,
      "Ġwithd": 3659,
      "itig": 3660,
      "Ġcycl": 3661,
      "Ġimportant": 3662,
      "Ġfaith": 3663,
      "Ġtack": 3664,
      "Ġwitness": 3665,
      "Ġdrink": 3666,
      "Ġapproxim": 3667,
      "Ġpleas": 3668,
      "Ġpredict": 3669,
      "Ġcamer": 3670,
      "Ġmanip": 3671,
      "Ġcomfort": 3672,
      "Ġexplos": 3673,
      "tification": 3674,
      "Ġfurther": 3675,
      "Ġgang": 3676,
      "iring": 3677,
      "Ġreceived": 3678,
      "Ġcm": 3679,
      "Ġtransport": 3680,
      "essions": 3681,
      "Ġrespect": 3682,
      "Ġconfer": 3683,
      "rative": 3684,
      "Ġspeech": 3685,
      "umer": 3686,
      "Ġchanges": 3687,
      "Ġmuch": 3688,
      "Ġresponse": 3689,
      "Ġparty": 3690,
      "Ġbrown": 3691,
      "Ġmusic": 3692,
      "Ġlouis": 3693,
      "Ġsupple": 3694,
      "aving": 3695,
      "Ġobv": 3696,
      "aying": 3697,
      "Ġmoney": 3698,
      "Ġeditor": 3699,
      "Ġfeel": 3700,
      "Ġbelong": 3701,
      "ocol": 3702,
      "rome": 3703,
      "emen": 3704,
      "Ġpref": 3705,
      "Ġwhat": 3706,
      "Ġabove": 3707,
      "Ġenem": 3708,
      "Ġdeploy": 3709,
      "iciency": 3710,
      "Ġhypoth": 3711,
      "Ġhighl": 3712,
      "Ġtoday": 3713,
      "Ġcub": 3714,
      "Ġhistory": 3715,
      "Ġmanif": 3716,
      "gg": 3717,
      "tile": 3718,
      "Ġlegal": 3719,
      "Ġore": 3720,
      "Ġarc": 3721,
      "Ġmade": 3722,
      "Ġcp": 3723,
      "Ġanc": 3724,
      "inging": 3725,
      "Ġbehavi": 3726,
      "Ġoce": 3727,
      "Ġil": 3728,
      "Ġmention": 3729,
      "Ġfamily": 3730,
      "Ġilleg": 3731,
      "Ġbeat": 3732,
      "Ġjav": 3733,
      "Ġdistr": 3734,
      "itim": 3735,
      "Ġinstitution": 3736,
      "Ġmatter": 3737,
      "Ġname": 3738,
      "Ġrecommend": 3739,
      "Ġbatter": 3740,
      "Ġty": 3741,
      "Ġgather": 3742,
      "Ġinsp": 3743,
      "Ġflex": 3744,
      "anded": 3745,
      "tery": 3746,
      "Ġeast": 3747,
      "Ġhowever": 3748,
      "Ġbeen": 3749,
      "hl": 3750,
      "net": 3751,
      "Ġflood": 3752,
      "Ġlond": 3753,
      "Ġdro": 3754,
      "umin": 3755,
      "Ġthank": 3756,
      "Ġpoly": 3757,
      "Ġbarr": 3758,
      "wa": 3759,
      "Ġchina": 3760,
      "ighter": 3761,
      "awn": 3762,
      "Ġrush": 3763,
      "Ġech": 3764,
      "Ġhigher": 3765,
      "Ġspeed": 3766,
      "Ġsports": 3767,
      "df": 3768,
      "Ġum": 3769,
      "ea": 3770,
      "erves": 3771,
      "mond": 3772,
      "ooth": 3773,
      "inity": 3774,
      "ounding": 3775,
      "water": 3776,
      "Ġhes": 3777,
      "Ġmountain": 3778,
      "Ġenvironment": 3779,
      "ito": 3780,
      "asm": 3781,
      "Ġremark": 3782,
      "real": 3783,
      "Ġapr": 3784,
      "vi": 3785,
      "Ġmail": 3786,
      "uits": 3787,
      "Ġcaliforn": 3788,
      "Ġlook": 3789,
      "Ġremember": 3790,
      "Ġdefe": 3791,
      "Ġiran": 3792,
      "Ġthing": 3793,
      "inted": 3794,
      "Ġshap": 3795,
      "Ġdipl": 3796,
      "umes": 3797,
      "Ġfit": 3798,
      "Ġproceed": 3799,
      "oz": 3800,
      "Ġactivity": 3801,
      "Ġvisual": 3802,
      "Ġcontrovers": 3803,
      "Ġwilli": 3804,
      "Ġdecember": 3805,
      "Ġmond": 3806,
      "Ġaven": 3807,
      "Ġexh": 3808,
      "Ġcoal": 3809,
      "umption": 3810,
      "comes": 3811,
      "ird": 3812,
      "Ġll": 3813,
      "Ġflag": 3814,
      "Ġcases": 3815,
      "Ġalong": 3816,
      "Ġcountry": 3817,
      "Ġfew": 3818,
      "usted": 3819,
      "Ġforce": 3820,
      "rics": 3821,
      "Ġii": 3822,
      "Ġopp": 3823,
      "Ġevol": 3824,
      "Ġcav": 3825,
      "Ġnin": 3826,
      "Ġinto": 3827,
      "aws": 3828,
      "Ġsant": 3829,
      "Ġexample": 3830,
      "Ġstretch": 3831,
      "Ġric": 3832,
      "Ġpc": 3833,
      "Ġscand": 3834,
      "tons": 3835,
      "ewhere": 3836,
      "Ġgames": 3837,
      "Ġwealth": 3838,
      "Ġcant": 3839,
      "fri": 3840,
      "Ġindex": 3841,
      "Ġchic": 3842,
      "ova": 3843,
      "Ġwik": 3844,
      "Ġrip": 3845,
      "Ġiraq": 3846,
      "Ġeight": 3847,
      "Ġwhile": 3848,
      "Ġsmith": 3849,
      "ports": 3850,
      "Ġaugust": 3851,
      "Ġcells": 3852,
      "iven": 3853,
      "Ġlarge": 3854,
      "Ġpossible": 3855,
      "Ġeb": 3856,
      "Ġvalues": 3857,
      "aud": 3858,
      "Ġmarc": 3859,
      "Ġcode": 3860,
      "Ġbright": 3861,
      "Ġbuy": 3862,
      "ja": 3863,
      "times": 3864,
      "rial": 3865,
      "Ġdatab": 3866,
      "night": 3867,
      "oning": 3868,
      "Ġpak": 3869,
      "Ġapprec": 3870,
      "Ġgoog": 3871,
      "Ġadvis": 3872,
      "Ġwant": 3873,
      "Ġcouns": 3874,
      "ches": 3875,
      "nic": 3876,
      "Ġphilosoph": 3877,
      "Ġastr": 3878,
      "Ġspring": 3879,
      "Ġdod": 3880,
      "Ġimpact": 3881,
      "Ġdrag": 3882,
      "Ġglass": 3883,
      "ystem": 3884,
      "Ġstuff": 3885,
      "tivity": 3886,
      "Ġjump": 3887,
      "Ġtight": 3888,
      "Ġwhen": 3889,
      "Ġbehavior": 3890,
      "Ġdismiss": 3891,
      "Ġoblig": 3892,
      "Ġvit": 3893,
      "wise": 3894,
      "rote": 3895,
      "Ġpig": 3896,
      "Ġont": 3897,
      "Ġwhit": 3898,
      "Ġarea": 3899,
      "iform": 3900,
      "ira": 3901,
      "Ġphenomen": 3902,
      "Ġsingle": 3903,
      "Ġrenew": 3904,
      "Ġassemb": 3905,
      "Ġnumbernumbernumber": 3906,
      "aver": 3907,
      "Ġonline": 3908,
      "Ġny": 3909,
      "most": 3910,
      "Ġmeg": 3911,
      "ache": 3912,
      "Ġcens": 3913,
      "ratic": 3914,
      "Ġdepartment": 3915,
      "Ġcontain": 3916,
      "Ġirr": 3917,
      "Ġparad": 3918,
      "Ġincluded": 3919,
      "Ġrow": 3920,
      "Ġyet": 3921,
      "Ġincluding": 3922,
      "Ġidenti": 3923,
      "Ġevidence": 3924,
      "Ġkenn": 3925,
      "Ġaffili": 3926,
      "Ġregul": 3927,
      "Ġfrag": 3928,
      "Ġaward": 3929,
      "win": 3930,
      "Ġtrack": 3931,
      "Ġsuch": 3932,
      "Ġsubscrib": 3933,
      "Ġnc": 3934,
      "uration": 3935,
      "Ġperformance": 3936,
      "Ġhamm": 3937,
      "Ġtechnology": 3938,
      "edi": 3939,
      "Ġwomen": 3940,
      "Ġearly": 3941,
      "Ġspirit": 3942,
      "Ġindustr": 3943,
      "Ġinher": 3944,
      "Ġweight": 3945,
      "Ġunion": 3946,
      "pm": 3947,
      "pled": 3948,
      "udes": 3949,
      "Ġforward": 3950,
      "Ġthird": 3951,
      "Ġsaid": 3952,
      "Ġbound": 3953,
      "Ġsir": 3954,
      "Ġfes": 3955,
      "Ġresc": 3956,
      "Ġenthus": 3957,
      "Ġdepos": 3958,
      "Ġpm": 3959,
      "inks": 3960,
      "inent": 3961,
      "Ġmonths": 3962,
      "Ġdoor": 3963,
      "Ġrange": 3964,
      "Ġorient": 3965,
      "car": 3966,
      "Ġmiddle": 3967,
      "Ġjac": 3968,
      "Ġfindings": 3969,
      "Ġmarg": 3970,
      "Ġfunding": 3971,
      "Ġharv": 3972,
      "Ġcorrup": 3973,
      "rey": 3974,
      "Ġtall": 3975,
      "Ġasser": 3976,
      "urance": 3977,
      "Ġdub": 3978,
      "Ġfollowing": 3979,
      "Ġrail": 3980,
      "Ġlocal": 3981,
      "Ġsystems": 3982,
      "rian": 3983,
      "Ġstatement": 3984,
      "ayer": 3985,
      "Ġcontext": 3986,
      "Ġtrue": 3987,
      "otic": 3988,
      "omed": 3989,
      "isters": 3990,
      "Ġothers": 3991,
      "Ġarchitect": 3992,
      "Ġrelated": 3993,
      "oration": 3994,
      "Ġworth": 3995,
      "neys": 3996,
      "gery": 3997,
      "Ġtiss": 3998,
      "vent": 3999,
      "Ġmanagement": 4000,
      "ycl": 4001,
      "Ġstill": 4002,
      "Ġgene": 4003,
      "claim": 4004,
      "Ġdiam": 4005,
      "Ġhaz": 4006,
      "Ġanother": 4007,
      "Ġmorn": 4008,
      "lessly": 4009,
      "emic": 4010,
      "Ġinterven": 4011,
      "Ġshot": 4012,
      "Ġnature": 4013,
      "Ġcu": 4014,
      "ceptions": 4015,
      "Ġimage": 4016,
      "Ġconstitution": 4017,
      "che": 4018,
      "Ġthick": 4019,
      "Ġcup": 4020,
      "ething": 4021,
      "Ġnd": 4022,
      "Ġstor": 4023,
      "Ġhero": 4024,
      "Ġemotion": 4025,
      "iqu": 4026,
      "Ġquan": 4027,
      "Ġsoul": 4028,
      "Ġhat": 4029,
      "Ġlyn": 4030,
      "igration": 4031,
      "fire": 4032,
      "adi": 4033,
      "Ġvig": 4034,
      "cop": 4035,
      "ittle": 4036,
      "rie": 4037,
      "Ġaer": 4038,
      "Ġengl": 4039,
      "Ġknowled": 4040,
      "Ġcomprom": 4041,
      "otten": 4042,
      "Ġdecision": 4043,
      "order": 4044,
      "Ġmusl": 4045,
      "Ġtend": 4046,
      "Ġmouth": 4047,
      "orter": 4048,
      "Ġmans": 4049,
      "Ġriver": 4050,
      "Ġoffer": 4051,
      "Ġpoints": 4052,
      "Ġbm": 4053,
      "ael": 4054,
      "Ġdistric": 4055,
      "ni": 4056,
      "Ġarrang": 4057,
      "Ġfemin": 4058,
      "Ġrough": 4059,
      "Ġgent": 4060,
      "Ġmetab": 4061,
      "Ġquality": 4062,
      "Ġmedicine": 4063,
      "Ġafford": 4064,
      "Ġfollow": 4065,
      "Ġdate": 4066,
      "Ġfox": 4067,
      "Ġfash": 4068,
      "Ġdys": 4069,
      "Ġfinanc": 4070,
      "emon": 4071,
      "Ġteach": 4072,
      "Ġgig": 4073,
      "Ġupgr": 4074,
      "Ġguarant": 4075,
      "Ġwriting": 4076,
      "Ġpotential": 4077,
      "Ġadap": 4078,
      "Ġcompreh": 4079,
      "Ġmr": 4080,
      "Ġfamil": 4081,
      "pressed": 4082,
      "essing": 4083,
      "Ġexception": 4084,
      "Ġsection": 4085,
      "Ġcruc": 4086,
      "Ġtogether": 4087,
      "uality": 4088,
      "top": 4089,
      "oto": 4090,
      "Ġappeal": 4091,
      "Ġsitu": 4092,
      "Ġcoff": 4093,
      "Ġadapt": 4094,
      "Ġforec": 4095
    },
    "merges": [
      [
        "i",
        "n"
      ],
      [
        "e",
        "r"
      ],
      [
        "o",
        "n"
      ],
      [
        "Ġ",
        "s"
      ],
      [
        "e",
        "s"
      ],
      [
        "Ġ",
        "c"
      ],
      [
        "e",
        "n"
      ],
      [
        "e",
        "d"
      ],
      [
        "t",
        "i"
      ],
      [
        "a",
        "n"
      ],
      [
        "Ġ",
        "p"
      ],
      [
        "a",
        "r"
      ],
      [
        "a",
        "l"
      ],
      [
        "in",
        "g"
      ],
      [
        "o",
        "r"
      ],
      [
        "Ġ",
        "r"
      ],
      [
        "Ġ",
        "d"
      ],
      [
        "Ġ",
        "m"
      ],
      [
        "a",
        "t"
      ],
      [
        "Ġ",
        "b"
      ],
      [
        "i",
        "s"
      ],
      [
        "Ġ",
        "t"
      ],
      [
        "Ġ",
        "a"
      ],
      [
        "Ġ",
        "f"
      ],
      [
        "e",
        "l"
      ],
      [
        "ti",
        "on"
      ],
      [
        "i",
        "t"
      ],
      [
        "i",
        "c"
      ],
      [
        "Ġ",
        "h"
      ],
      [
        "Ġ",
        "l"
      ],
      [
        "o",
        "u"
      ],
      [
        "a",
        "s"
      ],
      [
        "e",
        "c"
      ],
      [
        "Ġ",
        "g"
      ],
      [
        "r",
        "o"
      ],
      [
        "Ġ",
        "w"
      ],
      [
        "en",
        "t"
      ],
      [
        "i",
        "l"
      ],
      [
        "e",
        "t"
      ],
      [
        "o",
        "l"
      ],
      [
        "a",
        "c"
      ],
      [
        "u",
        "r"
      ],
      [
        "o",
        "m"
      ],
      [
        "Ġ",
        "e"
      ],
      [
        "Ġ",
        "n"
      ],
      [
        "Ġ",
        "in"
      ],
      [
        "u",
        "n"
      ],
      [
        "er",
        "s"
      ],
      [
        "l",
        "e"
      ],
      [
        "a",
        "tion"
      ],
      [
        "r",
        "e"
      ],
      [
        "a",
        "m"
      ],
      [
        "u",
        "s"
      ],
      [
        "l",
        "y"
      ],
      [
        "i",
        "d"
      ],
      [
        "o",
        "s"
      ],
      [
        "Ġr",
        "e"
      ],
      [
        "a",
        "d"
      ],
      [
        "Ġs",
        "t"
      ],
      [
        "i",
        "g"
      ],
      [
        "u",
        "l"
      ],
      [
        "t",
        "s"
      ],
      [
        "Ġ",
        "v"
      ],
      [
        "Ġ",
        "o"
      ],
      [
        "i",
        "m"
      ],
      [
        "e",
        "m"
      ],
      [
        "Ġc",
        "on"
      ],
      [
        "c",
        "h"
      ],
      [
        "u",
        "m"
      ],
      [
        "a",
        "b"
      ],
      [
        "es",
        "s"
      ],
      [
        "i",
        "r"
      ],
      [
        "t",
        "er"
      ],
      [
        "a",
        "g"
      ],
      [
        "r",
        "i"
      ],
      [
        "o",
        "t"
      ],
      [
        "Ġ",
        "k"
      ],
      [
        "a",
        "p"
      ],
      [
        "c",
        "e"
      ],
      [
        "an",
        "d"
      ],
      [
        "o",
        "w"
      ],
      [
        "a",
        "y"
      ],
      [
        "Ġc",
        "h"
      ],
      [
        "Ġ",
        "j"
      ],
      [
        "v",
        "e"
      ],
      [
        "Ġp",
        "ro"
      ],
      [
        "t",
        "h"
      ],
      [
        "Ġ",
        "un"
      ],
      [
        "o",
        "d"
      ],
      [
        "Ġe",
        "x"
      ],
      [
        "Ġc",
        "om"
      ],
      [
        "q",
        "u"
      ],
      [
        "ti",
        "c"
      ],
      [
        "es",
        "t"
      ],
      [
        "o",
        "c"
      ],
      [
        "i",
        "on"
      ],
      [
        "Ġt",
        "h"
      ],
      [
        "o",
        "p"
      ],
      [
        "is",
        "t"
      ],
      [
        "Ġs",
        "h"
      ],
      [
        "f",
        "f"
      ],
      [
        "at",
        "e"
      ],
      [
        "u",
        "t"
      ],
      [
        "v",
        "er"
      ],
      [
        "s",
        "t"
      ],
      [
        "r",
        "a"
      ],
      [
        "Ġd",
        "e"
      ],
      [
        "p",
        "l"
      ],
      [
        "it",
        "y"
      ],
      [
        "o",
        "g"
      ],
      [
        "u",
        "c"
      ],
      [
        "a",
        "k"
      ],
      [
        "en",
        "d"
      ],
      [
        "Ġs",
        "p"
      ],
      [
        "al",
        "l"
      ],
      [
        "i",
        "z"
      ],
      [
        "ou",
        "n"
      ],
      [
        "b",
        "er"
      ],
      [
        "an",
        "s"
      ],
      [
        "u",
        "p"
      ],
      [
        "i",
        "p"
      ],
      [
        "ar",
        "d"
      ],
      [
        "t",
        "ed"
      ],
      [
        "Ġp",
        "r"
      ],
      [
        "ig",
        "h"
      ],
      [
        "a",
        "in"
      ],
      [
        "ou",
        "s"
      ],
      [
        "Ġt",
        "r"
      ],
      [
        "Ġ",
        "an"
      ],
      [
        "Ġd",
        "is"
      ],
      [
        "Ġ",
        "ar"
      ],
      [
        "en",
        "s"
      ],
      [
        "u",
        "b"
      ],
      [
        "at",
        "ed"
      ],
      [
        "el",
        "l"
      ],
      [
        "il",
        "l"
      ],
      [
        "i",
        "v"
      ],
      [
        "i",
        "es"
      ],
      [
        "Ġa",
        "c"
      ],
      [
        "i",
        "f"
      ],
      [
        "u",
        "d"
      ],
      [
        "m",
        "ent"
      ],
      [
        "an",
        "t"
      ],
      [
        "Ġa",
        "d"
      ],
      [
        "ac",
        "k"
      ],
      [
        "i",
        "e"
      ],
      [
        "al",
        "ly"
      ],
      [
        "Ġ",
        "al"
      ],
      [
        "ec",
        "t"
      ],
      [
        "ou",
        "r"
      ],
      [
        "or",
        "s"
      ],
      [
        "Ġc",
        "l"
      ],
      [
        "Ġ",
        "im"
      ],
      [
        "in",
        "e"
      ],
      [
        "ab",
        "le"
      ],
      [
        "Ġl",
        "e"
      ],
      [
        "Ġs",
        "c"
      ],
      [
        "Ġ",
        "y"
      ],
      [
        "i",
        "a"
      ],
      [
        "ation",
        "s"
      ],
      [
        "Ġ",
        "en"
      ],
      [
        "Ġs",
        "e"
      ],
      [
        "Ġn",
        "e"
      ],
      [
        "a",
        "v"
      ],
      [
        "or",
        "t"
      ],
      [
        "Ġr",
        "es"
      ],
      [
        "i",
        "b"
      ],
      [
        "Ġa",
        "s"
      ],
      [
        "Ġp",
        "l"
      ],
      [
        "an",
        "g"
      ],
      [
        "Ġa",
        "p"
      ],
      [
        "a",
        "ti"
      ],
      [
        "k",
        "s"
      ],
      [
        "h",
        "er"
      ],
      [
        "y",
        "s"
      ],
      [
        "as",
        "s"
      ],
      [
        "ur",
        "e"
      ],
      [
        "or",
        "m"
      ],
      [
        "u",
        "g"
      ],
      [
        "t",
        "ing"
      ],
      [
        "i",
        "ti"
      ],
      [
        "t",
        "r"
      ],
      [
        "tion",
        "s"
      ],
      [
        "Ġb",
        "e"
      ],
      [
        "el",
        "y"
      ],
      [
        "Ġp",
        "ar"
      ],
      [
        "is",
        "h"
      ],
      [
        "on",
        "s"
      ],
      [
        "d",
        "er"
      ],
      [
        "p",
        "er"
      ],
      [
        "Ġb",
        "l"
      ],
      [
        "o",
        "k"
      ],
      [
        "Ġg",
        "r"
      ],
      [
        "p",
        "r"
      ],
      [
        "en",
        "ce"
      ],
      [
        "o",
        "v"
      ],
      [
        "Ġr",
        "ec"
      ],
      [
        "ag",
        "e"
      ],
      [
        "Ġh",
        "e"
      ],
      [
        "igh",
        "t"
      ],
      [
        "o",
        "b"
      ],
      [
        "Ġf",
        "l"
      ],
      [
        "Ġm",
        "ar"
      ],
      [
        "Ġcom",
        "p"
      ],
      [
        "i",
        "an"
      ],
      [
        "e",
        "p"
      ],
      [
        "as",
        "t"
      ],
      [
        "Ġc",
        "r"
      ],
      [
        "al",
        "s"
      ],
      [
        "ent",
        "s"
      ],
      [
        "Ġe",
        "m"
      ],
      [
        "Ġ",
        "qu"
      ],
      [
        "ar",
        "y"
      ],
      [
        "or",
        "d"
      ],
      [
        "um",
        "ber"
      ],
      [
        "g",
        "r"
      ],
      [
        "ig",
        "n"
      ],
      [
        "e",
        "y"
      ],
      [
        "ti",
        "m"
      ],
      [
        "at",
        "ing"
      ],
      [
        "a",
        "il"
      ],
      [
        "id",
        "e"
      ],
      [
        "ac",
        "h"
      ],
      [
        "at",
        "h"
      ],
      [
        "Ġcon",
        "t"
      ],
      [
        "an",
        "c"
      ],
      [
        "ou",
        "t"
      ],
      [
        "Ġa",
        "b"
      ],
      [
        "ol",
        "l"
      ],
      [
        "Ġin",
        "ter"
      ],
      [
        "Ġb",
        "r"
      ],
      [
        "Ġf",
        "r"
      ],
      [
        "Ġp",
        "h"
      ],
      [
        "Ġc",
        "o"
      ],
      [
        "en",
        "c"
      ],
      [
        "Ġp",
        "er"
      ],
      [
        "an",
        "ce"
      ],
      [
        "or",
        "e"
      ],
      [
        "Ġ",
        "el"
      ],
      [
        "g",
        "e"
      ],
      [
        "oun",
        "d"
      ],
      [
        "Ġcon",
        "s"
      ],
      [
        "c",
        "l"
      ],
      [
        "at",
        "t"
      ],
      [
        "a",
        "w"
      ],
      [
        "Ġa",
        "m"
      ],
      [
        "ing",
        "s"
      ],
      [
        "Ġw",
        "h"
      ],
      [
        "ic",
        "k"
      ],
      [
        "at",
        "es"
      ],
      [
        "Ġw",
        "e"
      ],
      [
        "Ġc",
        "ar"
      ],
      [
        "Ġ",
        "or"
      ],
      [
        "Ġin",
        "d"
      ],
      [
        "in",
        "d"
      ],
      [
        "on",
        "e"
      ],
      [
        "oc",
        "k"
      ],
      [
        "on",
        "g"
      ],
      [
        "is",
        "s"
      ],
      [
        "i",
        "al"
      ],
      [
        "i",
        "k"
      ],
      [
        "e",
        "ar"
      ],
      [
        "o",
        "od"
      ],
      [
        "Ġst",
        "r"
      ],
      [
        "Ġ",
        "z"
      ],
      [
        "t",
        "e"
      ],
      [
        "ol",
        "og"
      ],
      [
        "u",
        "e"
      ],
      [
        "Ġas",
        "s"
      ],
      [
        "a",
        "h"
      ],
      [
        "is",
        "m"
      ],
      [
        "us",
        "t"
      ],
      [
        "l",
        "es"
      ],
      [
        "Ġo",
        "p"
      ],
      [
        "v",
        "es"
      ],
      [
        "as",
        "h"
      ],
      [
        "Ġd",
        "i"
      ],
      [
        "m",
        "an"
      ],
      [
        "Ġb",
        "o"
      ],
      [
        "Ġcom",
        "m"
      ],
      [
        "Ġm",
        "e"
      ],
      [
        "in",
        "s"
      ],
      [
        "Ġd",
        "ec"
      ],
      [
        "g",
        "h"
      ],
      [
        "ar",
        "t"
      ],
      [
        "Ġs",
        "ub"
      ],
      [
        "ac",
        "t"
      ],
      [
        "r",
        "y"
      ],
      [
        "Ġap",
        "p"
      ],
      [
        "f",
        "ul"
      ],
      [
        "p",
        "h"
      ],
      [
        "i",
        "ve"
      ],
      [
        "Ġo",
        "b"
      ],
      [
        "Ġm",
        "an"
      ],
      [
        "t",
        "y"
      ],
      [
        "Ġp",
        "re"
      ],
      [
        "Ġac",
        "c"
      ],
      [
        "ol",
        "d"
      ],
      [
        "ow",
        "n"
      ],
      [
        "Ġs",
        "l"
      ],
      [
        "it",
        "s"
      ],
      [
        "on",
        "d"
      ],
      [
        "Ġim",
        "p"
      ],
      [
        "Ġin",
        "f"
      ],
      [
        "Ġs",
        "up"
      ],
      [
        "en",
        "ti"
      ],
      [
        "et",
        "s"
      ],
      [
        "Ġr",
        "el"
      ],
      [
        "Ġin",
        "s"
      ],
      [
        "ic",
        "al"
      ],
      [
        "ion",
        "s"
      ],
      [
        "os",
        "t"
      ],
      [
        "ro",
        "w"
      ],
      [
        "ti",
        "ve"
      ],
      [
        "Ġre",
        "p"
      ],
      [
        "or",
        "y"
      ],
      [
        "ac",
        "e"
      ],
      [
        "o",
        "y"
      ],
      [
        "am",
        "p"
      ],
      [
        "Ġa",
        "g"
      ],
      [
        "Ġin",
        "c"
      ],
      [
        "Ġf",
        "or"
      ],
      [
        "et",
        "h"
      ],
      [
        "Ġc",
        "or"
      ],
      [
        "e",
        "w"
      ],
      [
        "i",
        "tion"
      ],
      [
        "Ġ",
        "ti"
      ],
      [
        "Ġtr",
        "ans"
      ],
      [
        "ap",
        "p"
      ],
      [
        "ri",
        "b"
      ],
      [
        "Ġs",
        "y"
      ],
      [
        "i",
        "ed"
      ],
      [
        "Ġe",
        "v"
      ],
      [
        "e",
        "x"
      ],
      [
        "Ġs",
        "w"
      ],
      [
        "Ġw",
        "or"
      ],
      [
        "Ġin",
        "t"
      ],
      [
        "er",
        "v"
      ],
      [
        "Ġd",
        "es"
      ],
      [
        "ar",
        "e"
      ],
      [
        "ic",
        "h"
      ],
      [
        "Ġs",
        "ur"
      ],
      [
        "a",
        "z"
      ],
      [
        "Ġ",
        "us"
      ],
      [
        "Ġg",
        "u"
      ],
      [
        "i",
        "ous"
      ],
      [
        "Ġde",
        "f"
      ],
      [
        "em",
        "ent"
      ],
      [
        "l",
        "ed"
      ],
      [
        "as",
        "e"
      ],
      [
        "ec",
        "h"
      ],
      [
        "n",
        "ess"
      ],
      [
        "ti",
        "v"
      ],
      [
        "p",
        "t"
      ],
      [
        "Ġo",
        "ver"
      ],
      [
        "el",
        "s"
      ],
      [
        "i",
        "o"
      ],
      [
        "e",
        "e"
      ],
      [
        "in",
        "t"
      ],
      [
        "n",
        "umber"
      ],
      [
        "ic",
        "e"
      ],
      [
        "is",
        "e"
      ],
      [
        "iti",
        "es"
      ],
      [
        "a",
        "ir"
      ],
      [
        "il",
        "ity"
      ],
      [
        "Ġd",
        "r"
      ],
      [
        "an",
        "n"
      ],
      [
        "it",
        "e"
      ],
      [
        "ay",
        "s"
      ],
      [
        "Ġre",
        "f"
      ],
      [
        "is",
        "ts"
      ],
      [
        "ou",
        "gh"
      ],
      [
        "Ġs",
        "m"
      ],
      [
        "it",
        "h"
      ],
      [
        "Ġre",
        "g"
      ],
      [
        "Ġm",
        "on"
      ],
      [
        "Ġg",
        "en"
      ],
      [
        "iz",
        "ed"
      ],
      [
        "Ġcon",
        "f"
      ],
      [
        "un",
        "d"
      ],
      [
        "Ġc",
        "ol"
      ],
      [
        "st",
        "r"
      ],
      [
        "i",
        "re"
      ],
      [
        "a",
        "f"
      ],
      [
        "om",
        "e"
      ],
      [
        "e",
        "v"
      ],
      [
        "Ġ",
        "up"
      ],
      [
        "o",
        "ver"
      ],
      [
        "p",
        "os"
      ],
      [
        "Ġg",
        "l"
      ],
      [
        "Ġm",
        "in"
      ],
      [
        "p",
        "s"
      ],
      [
        "Ġo",
        "ff"
      ],
      [
        "ar",
        "m"
      ],
      [
        "l",
        "ing"
      ],
      [
        "ul",
        "t"
      ],
      [
        "Ġp",
        "ol"
      ],
      [
        "Ġre",
        "v"
      ],
      [
        "at",
        "er"
      ],
      [
        "b",
        "o"
      ],
      [
        "an",
        "k"
      ],
      [
        "Ġ",
        "ed"
      ],
      [
        "i",
        "er"
      ],
      [
        "ur",
        "es"
      ],
      [
        "at",
        "ch"
      ],
      [
        "r",
        "ic"
      ],
      [
        "Ġs",
        "ch"
      ],
      [
        "Ġ",
        "out"
      ],
      [
        "Ġdis",
        "c"
      ],
      [
        "e",
        "f"
      ],
      [
        "s",
        "h"
      ],
      [
        "Ġre",
        "m"
      ],
      [
        "er",
        "m"
      ],
      [
        "Ġin",
        "v"
      ],
      [
        "ti",
        "t"
      ],
      [
        "er",
        "r"
      ],
      [
        "n",
        "er"
      ],
      [
        "u",
        "al"
      ],
      [
        "d",
        "uc"
      ],
      [
        "Ġf",
        "e"
      ],
      [
        "Ġd",
        "em"
      ],
      [
        "i",
        "x"
      ],
      [
        "os",
        "s"
      ],
      [
        "Ġs",
        "k"
      ],
      [
        "Ġ",
        "att"
      ],
      [
        "n",
        "e"
      ],
      [
        "Ġ",
        "is"
      ],
      [
        "Ġb",
        "ar"
      ],
      [
        "at",
        "s"
      ],
      [
        "Ġm",
        "od"
      ],
      [
        "a",
        "x"
      ],
      [
        "Ġde",
        "v"
      ],
      [
        "Ġc",
        "oun"
      ],
      [
        "y",
        "p"
      ],
      [
        "Ġd",
        "et"
      ],
      [
        "u",
        "tion"
      ],
      [
        "s",
        "e"
      ],
      [
        "in",
        "es"
      ],
      [
        "Ġ",
        "u"
      ],
      [
        "ec",
        "tion"
      ],
      [
        "c",
        "c"
      ],
      [
        "g",
        "er"
      ],
      [
        "Ġr",
        "o"
      ],
      [
        "il",
        "e"
      ],
      [
        "on",
        "t"
      ],
      [
        "in",
        "k"
      ],
      [
        "o",
        "f"
      ],
      [
        "Ġd",
        "el"
      ],
      [
        "er",
        "n"
      ],
      [
        "ati",
        "ve"
      ],
      [
        "Ġex",
        "p"
      ],
      [
        "Ġw",
        "r"
      ],
      [
        "Ġpr",
        "es"
      ],
      [
        "Ġb",
        "re"
      ],
      [
        "ap",
        "h"
      ],
      [
        "l",
        "and"
      ],
      [
        "el",
        "d"
      ],
      [
        "ment",
        "s"
      ],
      [
        "am",
        "e"
      ],
      [
        "Ġm",
        "ed"
      ],
      [
        "ro",
        "s"
      ],
      [
        "il",
        "d"
      ],
      [
        "in",
        "c"
      ],
      [
        "t",
        "on"
      ],
      [
        "Ġt",
        "ra"
      ],
      [
        "ot",
        "h"
      ],
      [
        "Ġl",
        "o"
      ],
      [
        "Ġt",
        "e"
      ],
      [
        "ie",
        "w"
      ],
      [
        "ic",
        "s"
      ],
      [
        "Ġc",
        "ap"
      ],
      [
        "Ġch",
        "ar"
      ],
      [
        "Ġd",
        "ist"
      ],
      [
        "ro",
        "p"
      ],
      [
        "er",
        "e"
      ],
      [
        "ak",
        "e"
      ],
      [
        "Ġt",
        "o"
      ],
      [
        "ec",
        "ted"
      ],
      [
        "ad",
        "e"
      ],
      [
        "an",
        "ts"
      ],
      [
        "Ġp",
        "o"
      ],
      [
        "ar",
        "k"
      ],
      [
        "ur",
        "n"
      ],
      [
        "Ġ",
        "ir"
      ],
      [
        "uc",
        "k"
      ],
      [
        "al",
        "e"
      ],
      [
        "l",
        "d"
      ],
      [
        "Ġg",
        "re"
      ],
      [
        "u",
        "th"
      ],
      [
        "ic",
        "t"
      ],
      [
        "Ġ",
        "at"
      ],
      [
        "Ġt",
        "w"
      ],
      [
        "Ġ",
        "es"
      ],
      [
        "pr",
        "ess"
      ],
      [
        "v",
        "en"
      ],
      [
        "v",
        "ers"
      ],
      [
        "Ġm",
        "o"
      ],
      [
        "at",
        "or"
      ],
      [
        "ard",
        "s"
      ],
      [
        "iz",
        "e"
      ],
      [
        "u",
        "ff"
      ],
      [
        "et",
        "t"
      ],
      [
        "ub",
        "l"
      ],
      [
        "Ġun",
        "der"
      ],
      [
        "b",
        "r"
      ],
      [
        "ul",
        "ar"
      ],
      [
        "Ġk",
        "n"
      ],
      [
        "if",
        "ic"
      ],
      [
        "Ġres",
        "p"
      ],
      [
        "Ġ",
        "x"
      ],
      [
        "Ġp",
        "e"
      ],
      [
        "en",
        "g"
      ],
      [
        "ro",
        "l"
      ],
      [
        "Ġ",
        "all"
      ],
      [
        "Ġr",
        "ed"
      ],
      [
        "am",
        "m"
      ],
      [
        "b",
        "le"
      ],
      [
        "ag",
        "es"
      ],
      [
        "Ġs",
        "ec"
      ],
      [
        "Ġb",
        "ro"
      ],
      [
        "ul",
        "l"
      ],
      [
        "Ġ",
        "on"
      ],
      [
        "Ġc",
        "re"
      ],
      [
        "Ġb",
        "el"
      ],
      [
        "Ġad",
        "d"
      ],
      [
        "Ġc",
        "oll"
      ],
      [
        "or",
        "n"
      ],
      [
        "u",
        "es"
      ],
      [
        "t",
        "ain"
      ],
      [
        "ib",
        "le"
      ],
      [
        "Ġf",
        "in"
      ],
      [
        "Ġex",
        "pl"
      ],
      [
        "c",
        "ess"
      ],
      [
        "Ġt",
        "re"
      ],
      [
        "Ġde",
        "p"
      ],
      [
        "Ġsp",
        "ec"
      ],
      [
        "Ġ",
        "i"
      ],
      [
        "Ġa",
        "f"
      ],
      [
        "ent",
        "ly"
      ],
      [
        "Ġc",
        "ur"
      ],
      [
        "us",
        "s"
      ],
      [
        "an",
        "e"
      ],
      [
        "ar",
        "s"
      ],
      [
        "Ġne",
        "w"
      ],
      [
        "Ġad",
        "v"
      ],
      [
        "os",
        "e"
      ],
      [
        "p",
        "or"
      ],
      [
        "Ġs",
        "im"
      ],
      [
        "Ġn",
        "umber"
      ],
      [
        "Ġd",
        "o"
      ],
      [
        "Ġ",
        "ent"
      ],
      [
        "ow",
        "er"
      ],
      [
        "Ġc",
        "al"
      ],
      [
        "en",
        "n"
      ],
      [
        "Ġr",
        "et"
      ],
      [
        "a",
        "u"
      ],
      [
        "Ġp",
        "ers"
      ],
      [
        "Ġs",
        "n"
      ],
      [
        "e",
        "g"
      ],
      [
        "h",
        "ip"
      ],
      [
        "olog",
        "y"
      ],
      [
        "f",
        "orm"
      ],
      [
        "Ġf",
        "re"
      ],
      [
        "r",
        "es"
      ],
      [
        "Ġe",
        "ff"
      ],
      [
        "in",
        "ed"
      ],
      [
        "it",
        "ed"
      ],
      [
        "us",
        "h"
      ],
      [
        "y",
        "m"
      ],
      [
        "y",
        "n"
      ],
      [
        "l",
        "ess"
      ],
      [
        "tic",
        "s"
      ],
      [
        "Ġb",
        "ack"
      ],
      [
        "Ġm",
        "et"
      ],
      [
        "ar",
        "i"
      ],
      [
        "Ġv",
        "al"
      ],
      [
        "g",
        "an"
      ],
      [
        "a",
        "us"
      ],
      [
        "Ġ",
        "end"
      ],
      [
        "Ġl",
        "i"
      ],
      [
        "h",
        "e"
      ],
      [
        "Ġs",
        "ol"
      ],
      [
        "al",
        "ity"
      ],
      [
        "is",
        "ed"
      ],
      [
        "Ġg",
        "o"
      ],
      [
        "iz",
        "ation"
      ],
      [
        "Ġh",
        "ar"
      ],
      [
        "um",
        "p"
      ],
      [
        "Ġle",
        "g"
      ],
      [
        "pl",
        "ic"
      ],
      [
        "ro",
        "m"
      ],
      [
        "am",
        "s"
      ],
      [
        "ar",
        "n"
      ],
      [
        "g",
        "ed"
      ],
      [
        "i",
        "eld"
      ],
      [
        "Ġ",
        "id"
      ],
      [
        "Ġn",
        "o"
      ],
      [
        "ti",
        "l"
      ],
      [
        "ti",
        "f"
      ],
      [
        "ab",
        "ility"
      ],
      [
        "y",
        "ing"
      ],
      [
        "og",
        "r"
      ],
      [
        "r",
        "ed"
      ],
      [
        "ec",
        "ts"
      ],
      [
        "ow",
        "s"
      ],
      [
        "enc",
        "y"
      ],
      [
        "Ġs",
        "ign"
      ],
      [
        "um",
        "b"
      ],
      [
        "Ġf",
        "orm"
      ],
      [
        "ri",
        "p"
      ],
      [
        "Ġ",
        "tim"
      ],
      [
        "Ġb",
        "u"
      ],
      [
        "Ġn",
        "ot"
      ],
      [
        "Ġa",
        "w"
      ],
      [
        "e",
        "k"
      ],
      [
        "Ġpro",
        "t"
      ],
      [
        "a",
        "i"
      ],
      [
        "Ġ",
        "it"
      ],
      [
        "and",
        "s"
      ],
      [
        "ti",
        "s"
      ],
      [
        "ic",
        "ally"
      ],
      [
        "p",
        "ar"
      ],
      [
        "c",
        "o"
      ],
      [
        "v",
        "ed"
      ],
      [
        "y",
        "l"
      ],
      [
        "Ġl",
        "a"
      ],
      [
        "ti",
        "es"
      ],
      [
        "enc",
        "es"
      ],
      [
        "Ġdi",
        "ff"
      ],
      [
        "Ġc",
        "ent"
      ],
      [
        "un",
        "c"
      ],
      [
        "Ġp",
        "ur"
      ],
      [
        "Ġun",
        "d"
      ],
      [
        "iv",
        "ers"
      ],
      [
        "Ġf",
        "o"
      ],
      [
        "a",
        "tic"
      ],
      [
        "Ġb",
        "i"
      ],
      [
        "Ġ",
        "ec"
      ],
      [
        "Ġp",
        "os"
      ],
      [
        "Ġ",
        "er"
      ],
      [
        "f",
        "t"
      ],
      [
        "le",
        "y"
      ],
      [
        "ic",
        "i"
      ],
      [
        "Ġex",
        "t"
      ],
      [
        "ut",
        "e"
      ],
      [
        "Ġcon",
        "c"
      ],
      [
        "Ġp",
        "ri"
      ],
      [
        "Ġa",
        "ff"
      ],
      [
        "Ġc",
        "le"
      ],
      [
        "ec",
        "k"
      ],
      [
        "Ġs",
        "er"
      ],
      [
        "it",
        "ch"
      ],
      [
        "at",
        "ors"
      ],
      [
        "c",
        "om"
      ],
      [
        "Ġen",
        "g"
      ],
      [
        "Ġpro",
        "f"
      ],
      [
        "il",
        "y"
      ],
      [
        "Ġth",
        "e"
      ],
      [
        "s",
        "on"
      ],
      [
        "Ġpl",
        "ay"
      ],
      [
        "Ġim",
        "m"
      ],
      [
        "ad",
        "s"
      ],
      [
        "ation",
        "al"
      ],
      [
        "Ġpro",
        "v"
      ],
      [
        "Ġv",
        "is"
      ],
      [
        "Ġst",
        "ud"
      ],
      [
        "Ġwor",
        "k"
      ],
      [
        "Ġb",
        "as"
      ],
      [
        "a",
        "ve"
      ],
      [
        "Ġm",
        "is"
      ],
      [
        "p",
        "ort"
      ],
      [
        "or",
        "k"
      ],
      [
        "Ġs",
        "al"
      ],
      [
        "b",
        "s"
      ],
      [
        "Ġm",
        "c"
      ],
      [
        "her",
        "e"
      ],
      [
        "ter",
        "n"
      ],
      [
        "in",
        "n"
      ],
      [
        "i",
        "um"
      ],
      [
        "l",
        "o"
      ],
      [
        "uc",
        "t"
      ],
      [
        "Ġj",
        "o"
      ],
      [
        "ac",
        "y"
      ],
      [
        "er",
        "ed"
      ],
      [
        "ot",
        "t"
      ],
      [
        "g",
        "es"
      ],
      [
        "Ġp",
        "ubl"
      ],
      [
        "el",
        "f"
      ],
      [
        "Ġd",
        "ir"
      ],
      [
        "it",
        "ing"
      ],
      [
        "Ġh",
        "igh"
      ],
      [
        "Ġr",
        "est"
      ],
      [
        "Ġf",
        "il"
      ],
      [
        "on",
        "es"
      ],
      [
        "at",
        "ely"
      ],
      [
        "Ġh",
        "er"
      ],
      [
        "Ġgen",
        "er"
      ],
      [
        "Ġs",
        "u"
      ],
      [
        "ug",
        "h"
      ],
      [
        "ogr",
        "aph"
      ],
      [
        "o",
        "ts"
      ],
      [
        "ur",
        "ed"
      ],
      [
        "m",
        "s"
      ],
      [
        "a",
        "j"
      ],
      [
        "in",
        "ation"
      ],
      [
        "en",
        "e"
      ],
      [
        "Ġp",
        "at"
      ],
      [
        "Ġa",
        "v"
      ],
      [
        "Ġan",
        "al"
      ],
      [
        "ar",
        "r"
      ],
      [
        "Ġpro",
        "m"
      ],
      [
        "ish",
        "ed"
      ],
      [
        "Ġin",
        "st"
      ],
      [
        "ce",
        "p"
      ],
      [
        "Ġan",
        "n"
      ],
      [
        "al",
        "k"
      ],
      [
        "p",
        "ed"
      ],
      [
        "Ġex",
        "per"
      ],
      [
        "Ġp",
        "ass"
      ],
      [
        "it",
        "t"
      ],
      [
        "Ġh",
        "and"
      ],
      [
        "anc",
        "es"
      ],
      [
        "l",
        "er"
      ],
      [
        "Ġh",
        "um"
      ],
      [
        "Ġpro",
        "gr"
      ],
      [
        "er",
        "ing"
      ],
      [
        "Ġp",
        "op"
      ],
      [
        "r",
        "on"
      ],
      [
        "e",
        "as"
      ],
      [
        "Ġm",
        "em"
      ],
      [
        "b",
        "y"
      ],
      [
        "Ġad",
        "m"
      ],
      [
        "un",
        "g"
      ],
      [
        "ab",
        "ly"
      ],
      [
        "k",
        "e"
      ],
      [
        "Ġd",
        "own"
      ],
      [
        "cl",
        "ud"
      ],
      [
        "Ġst",
        "e"
      ],
      [
        "in",
        "a"
      ],
      [
        "em",
        "ents"
      ],
      [
        "Ġb",
        "en"
      ],
      [
        "Ġa",
        "uth"
      ],
      [
        "Ġa",
        "ir"
      ],
      [
        "Ġt",
        "ech"
      ],
      [
        "Ġc",
        "an"
      ],
      [
        "Ġo",
        "cc"
      ],
      [
        "Ġs",
        "o"
      ],
      [
        "i",
        "ans"
      ],
      [
        "w",
        "e"
      ],
      [
        "en",
        "ing"
      ],
      [
        "Ġf",
        "ac"
      ],
      [
        "Ġm",
        "or"
      ],
      [
        "ol",
        "e"
      ],
      [
        "w",
        "ay"
      ],
      [
        "Ġm",
        "il"
      ],
      [
        "Ġv",
        "i"
      ],
      [
        "id",
        "es"
      ],
      [
        "Ġm",
        "us"
      ],
      [
        "tic",
        "al"
      ],
      [
        "Ġpro",
        "duc"
      ],
      [
        "it",
        "es"
      ],
      [
        "Ġm",
        "ag"
      ],
      [
        "um",
        "m"
      ],
      [
        "our",
        "s"
      ],
      [
        "Ġv",
        "er"
      ],
      [
        "is",
        "ing"
      ],
      [
        "Ġ",
        "and"
      ],
      [
        "Ġe",
        "qu"
      ],
      [
        "Ġh",
        "om"
      ],
      [
        "op",
        "h"
      ],
      [
        "Ġor",
        "gan"
      ],
      [
        "el",
        "op"
      ],
      [
        "it",
        "er"
      ],
      [
        "ti",
        "g"
      ],
      [
        "en",
        "ed"
      ],
      [
        "at",
        "ure"
      ],
      [
        "Ġs",
        "oc"
      ],
      [
        "Ġm",
        "al"
      ],
      [
        "Ġpr",
        "ed"
      ],
      [
        "igh",
        "ts"
      ],
      [
        "ens",
        "e"
      ],
      [
        "ec",
        "tive"
      ],
      [
        "Ġg",
        "e"
      ],
      [
        "or",
        "ed"
      ],
      [
        "t",
        "o"
      ],
      [
        "Ġ",
        "ou"
      ],
      [
        "is",
        "on"
      ],
      [
        "ul",
        "ation"
      ],
      [
        "Ġb",
        "ur"
      ],
      [
        "Ġmar",
        "k"
      ],
      [
        "Ġapp",
        "ro"
      ],
      [
        "un",
        "n"
      ],
      [
        "qu",
        "e"
      ],
      [
        "ess",
        "ion"
      ],
      [
        "er",
        "g"
      ],
      [
        "Ġb",
        "ra"
      ],
      [
        "g",
        "o"
      ],
      [
        "Ġcom",
        "pl"
      ],
      [
        "l",
        "ine"
      ],
      [
        "it",
        "al"
      ],
      [
        "Ġe",
        "ver"
      ],
      [
        "th",
        "e"
      ],
      [
        "Ġob",
        "s"
      ],
      [
        "o",
        "o"
      ],
      [
        "Ġm",
        "ic"
      ],
      [
        "Ġa",
        "ut"
      ],
      [
        "Ġt",
        "ri"
      ],
      [
        "Ġh",
        "el"
      ],
      [
        "Ġl",
        "im"
      ],
      [
        "as",
        "on"
      ],
      [
        "er",
        "c"
      ],
      [
        "Ġ",
        "q"
      ],
      [
        "Ġf",
        "ir"
      ],
      [
        "et",
        "er"
      ],
      [
        "Ġ",
        "ur"
      ],
      [
        "p",
        "le"
      ],
      [
        "d",
        "s"
      ],
      [
        "p",
        "ing"
      ],
      [
        "Ġw",
        "ith"
      ],
      [
        "Ġcor",
        "r"
      ],
      [
        "iz",
        "ing"
      ],
      [
        "Ġl",
        "ab"
      ],
      [
        "ak",
        "ing"
      ],
      [
        "Ġe",
        "p"
      ],
      [
        "ers",
        "t"
      ],
      [
        "b",
        "ack"
      ],
      [
        "al",
        "th"
      ],
      [
        "Ġp",
        "s"
      ],
      [
        "id",
        "s"
      ],
      [
        "Ġt",
        "em"
      ],
      [
        "Ġcon",
        "tr"
      ],
      [
        "Ġh",
        "y"
      ],
      [
        "is",
        "tic"
      ],
      [
        "ic",
        "es"
      ],
      [
        "w",
        "ard"
      ],
      [
        "is",
        "ion"
      ],
      [
        "Ġde",
        "b"
      ],
      [
        "Ġl",
        "aw"
      ],
      [
        "us",
        "tr"
      ],
      [
        "es",
        "ts"
      ],
      [
        "Ġcon",
        "d"
      ],
      [
        "g",
        "et"
      ],
      [
        "pl",
        "oy"
      ],
      [
        "Ġsp",
        "e"
      ],
      [
        "id",
        "er"
      ],
      [
        "at",
        "her"
      ],
      [
        "end",
        "s"
      ],
      [
        "on",
        "n"
      ],
      [
        "Ġm",
        "ul"
      ],
      [
        "Ġl",
        "oc"
      ],
      [
        "f",
        "or"
      ],
      [
        "ap",
        "s"
      ],
      [
        "th",
        "er"
      ],
      [
        "un",
        "ch"
      ],
      [
        "Ġ",
        "ill"
      ],
      [
        "Ġst",
        "ar"
      ],
      [
        "Ġc",
        "y"
      ],
      [
        "on",
        "om"
      ],
      [
        "our",
        "n"
      ],
      [
        "ik",
        "e"
      ],
      [
        "Ġcomm",
        "un"
      ],
      [
        "ad",
        "ing"
      ],
      [
        "i",
        "as"
      ],
      [
        "ug",
        "g"
      ],
      [
        "Ġl",
        "if"
      ],
      [
        "p",
        "o"
      ],
      [
        "ra",
        "w"
      ],
      [
        "or",
        "ts"
      ],
      [
        "Ġtech",
        "n"
      ],
      [
        "Ġd",
        "oc"
      ],
      [
        "Ġc",
        "ir"
      ],
      [
        "ain",
        "s"
      ],
      [
        "Ġv",
        "ol"
      ],
      [
        "op",
        "s"
      ],
      [
        "Ġr",
        "ad"
      ],
      [
        "in",
        "al"
      ],
      [
        "Ġre",
        "qu"
      ],
      [
        "Ġc",
        "amp"
      ],
      [
        "ou",
        "th"
      ],
      [
        "Ġre",
        "al"
      ],
      [
        "ous",
        "e"
      ],
      [
        "ou",
        "ld"
      ],
      [
        "st",
        "em"
      ],
      [
        "Ġdiff",
        "er"
      ],
      [
        "in",
        "ing"
      ],
      [
        "ang",
        "e"
      ],
      [
        "b",
        "e"
      ],
      [
        "il",
        "le"
      ],
      [
        "Ġph",
        "ot"
      ],
      [
        "i",
        "or"
      ],
      [
        "Ġun",
        "c"
      ],
      [
        "as",
        "ter"
      ],
      [
        "Ġcl",
        "ass"
      ],
      [
        "Ġm",
        "id"
      ],
      [
        "u",
        "ally"
      ],
      [
        "Ġhe",
        "ad"
      ],
      [
        "u",
        "k"
      ],
      [
        "Ġd",
        "en"
      ],
      [
        "d",
        "ay"
      ],
      [
        "Ġe",
        "ar"
      ],
      [
        "Ġs",
        "uc"
      ],
      [
        "Ġpro",
        "s"
      ],
      [
        "Ġm",
        "iss"
      ],
      [
        "ur",
        "s"
      ],
      [
        "ur",
        "ing"
      ],
      [
        "i",
        "tions"
      ],
      [
        "Ġdev",
        "elop"
      ],
      [
        "Ġinf",
        "l"
      ],
      [
        "v",
        "el"
      ],
      [
        "Ġbe",
        "h"
      ],
      [
        "as",
        "es"
      ],
      [
        "Ġan",
        "y"
      ],
      [
        "re",
        "am"
      ],
      [
        "es",
        "h"
      ],
      [
        "a",
        "ul"
      ],
      [
        "Ġpar",
        "tic"
      ],
      [
        "Ġb",
        "et"
      ],
      [
        "Ġth",
        "re"
      ],
      [
        "i",
        "ent"
      ],
      [
        "ros",
        "s"
      ],
      [
        "Ġac",
        "tiv"
      ],
      [
        "Ġpre",
        "v"
      ],
      [
        "Ġen",
        "c"
      ],
      [
        "in",
        "ess"
      ],
      [
        "an",
        "a"
      ],
      [
        "ed",
        "s"
      ],
      [
        "at",
        "ter"
      ],
      [
        "ic",
        "ation"
      ],
      [
        "i",
        "ence"
      ],
      [
        "o",
        "x"
      ],
      [
        "ac",
        "tion"
      ],
      [
        "Ġex",
        "c"
      ],
      [
        "a",
        "im"
      ],
      [
        "end",
        "ing"
      ],
      [
        "Ġd",
        "iv"
      ],
      [
        "a",
        "id"
      ],
      [
        "Ġo",
        "per"
      ],
      [
        "om",
        "s"
      ],
      [
        "Ġr",
        "ob"
      ],
      [
        "ol",
        "s"
      ],
      [
        "Ġsub",
        "s"
      ],
      [
        "ate",
        "g"
      ],
      [
        "c",
        "ed"
      ],
      [
        "ati",
        "s"
      ],
      [
        "as",
        "c"
      ],
      [
        "ag",
        "ed"
      ],
      [
        "or",
        "ies"
      ],
      [
        "om",
        "m"
      ],
      [
        "o",
        "ff"
      ],
      [
        "f",
        "l"
      ],
      [
        "j",
        "ect"
      ],
      [
        "ot",
        "her"
      ],
      [
        "Ġel",
        "ect"
      ],
      [
        "Ġd",
        "ri"
      ],
      [
        "Ġst",
        "and"
      ],
      [
        "Ġch",
        "r"
      ],
      [
        "Ġf",
        "act"
      ],
      [
        "ful",
        "ly"
      ],
      [
        "Ġh",
        "app"
      ],
      [
        "id",
        "ent"
      ],
      [
        "Ġn",
        "or"
      ],
      [
        "a",
        "ff"
      ],
      [
        "ec",
        "tions"
      ],
      [
        "Ġcont",
        "in"
      ],
      [
        "est",
        "ed"
      ],
      [
        "Ġm",
        "ill"
      ],
      [
        "Ġn",
        "et"
      ],
      [
        "if",
        "ied"
      ],
      [
        "on",
        "y"
      ],
      [
        "v",
        "ing"
      ],
      [
        "Ġm",
        "eth"
      ],
      [
        "Ġo",
        "w"
      ],
      [
        "Ġst",
        "at"
      ],
      [
        "Ġar",
        "ch"
      ],
      [
        "el",
        "e"
      ],
      [
        "en",
        "tion"
      ],
      [
        "g",
        "ing"
      ],
      [
        "Ġd",
        "om"
      ],
      [
        "is",
        "es"
      ],
      [
        "ou",
        "l"
      ],
      [
        "ip",
        "s"
      ],
      [
        "ac",
        "ter"
      ],
      [
        "n",
        "s"
      ],
      [
        "Ġp",
        "ort"
      ],
      [
        "Ġp",
        "al"
      ],
      [
        "end",
        "ed"
      ],
      [
        "Ġ",
        "est"
      ],
      [
        "Ġg",
        "ra"
      ],
      [
        "Ġf",
        "und"
      ],
      [
        "n",
        "t"
      ],
      [
        "el",
        "ess"
      ],
      [
        "Ġm",
        "ain"
      ],
      [
        "Ġb",
        "ut"
      ],
      [
        "er",
        "y"
      ],
      [
        "Ġh",
        "ol"
      ],
      [
        "Ġw",
        "ar"
      ],
      [
        "em",
        "ber"
      ],
      [
        "Ġpr",
        "ec"
      ],
      [
        "od",
        "y"
      ],
      [
        "od",
        "e"
      ],
      [
        "Ġc",
        "ri"
      ],
      [
        "Ġan",
        "g"
      ],
      [
        "Ġs",
        "il"
      ],
      [
        "ous",
        "ly"
      ],
      [
        "Ġc",
        "op"
      ],
      [
        "at",
        "a"
      ],
      [
        "Ġch",
        "e"
      ],
      [
        "ud",
        "e"
      ],
      [
        "Ġun",
        "s"
      ],
      [
        "um",
        "ent"
      ],
      [
        "om",
        "b"
      ],
      [
        "Ġar",
        "m"
      ],
      [
        "Ġ",
        "ol"
      ],
      [
        "am",
        "ent"
      ],
      [
        "os",
        "p"
      ],
      [
        "Ġs",
        "us"
      ],
      [
        "oun",
        "t"
      ],
      [
        "b",
        "l"
      ],
      [
        "ar",
        "ch"
      ],
      [
        "am",
        "es"
      ],
      [
        "w",
        "h"
      ],
      [
        "Ġm",
        "ov"
      ],
      [
        "Ġcir",
        "c"
      ],
      [
        "ur",
        "y"
      ],
      [
        "ur",
        "al"
      ],
      [
        "unc",
        "tion"
      ],
      [
        "Ġh",
        "ard"
      ],
      [
        "Ġb",
        "us"
      ],
      [
        "ut",
        "ed"
      ],
      [
        "et",
        "e"
      ],
      [
        "ap",
        "e"
      ],
      [
        "ing",
        "ly"
      ],
      [
        "Ġs",
        "qu"
      ],
      [
        "i",
        "ver"
      ],
      [
        "Ġs",
        "erv"
      ],
      [
        "Ġin",
        "ves"
      ],
      [
        "end",
        "er"
      ],
      [
        "y",
        "ch"
      ],
      [
        "ear",
        "s"
      ],
      [
        "Ġs",
        "ing"
      ],
      [
        "Ġh",
        "on"
      ],
      [
        "in",
        "o"
      ],
      [
        "ack",
        "s"
      ],
      [
        "Ġth",
        "r"
      ],
      [
        "Ġf",
        "oll"
      ],
      [
        "am",
        "a"
      ],
      [
        "str",
        "uc"
      ],
      [
        "Ġc",
        "our"
      ],
      [
        "Ġre",
        "ad"
      ],
      [
        "z",
        "e"
      ],
      [
        "a",
        "e"
      ],
      [
        "c",
        "es"
      ],
      [
        "al",
        "d"
      ],
      [
        "or",
        "ing"
      ],
      [
        "Ġcon",
        "n"
      ],
      [
        "ound",
        "s"
      ],
      [
        "h",
        "ib"
      ],
      [
        "cl",
        "us"
      ],
      [
        "ar",
        "ies"
      ],
      [
        "Ġp",
        "oss"
      ],
      [
        "r",
        "ation"
      ],
      [
        "Ġ",
        "ide"
      ],
      [
        "all",
        "s"
      ],
      [
        "Ġimp",
        "ro"
      ],
      [
        "Ġf",
        "am"
      ],
      [
        "m",
        "a"
      ],
      [
        "Ġp",
        "an"
      ],
      [
        "un",
        "k"
      ],
      [
        "id",
        "ed"
      ],
      [
        "Ġsup",
        "er"
      ],
      [
        "enti",
        "al"
      ],
      [
        "ell",
        "s"
      ],
      [
        "Ġen",
        "v"
      ],
      [
        "Ġl",
        "og"
      ],
      [
        "Ġt",
        "err"
      ],
      [
        "Ġe",
        "u"
      ],
      [
        "Ġp",
        "ay"
      ],
      [
        "Ġinves",
        "tig"
      ],
      [
        "at",
        "ory"
      ],
      [
        "pr",
        "es"
      ],
      [
        "es",
        "e"
      ],
      [
        "Ġt",
        "ur"
      ],
      [
        "Ġsy",
        "n"
      ],
      [
        "Ġsy",
        "m"
      ],
      [
        "ain",
        "ed"
      ],
      [
        "am",
        "b"
      ],
      [
        "er",
        "t"
      ],
      [
        "Ġpar",
        "t"
      ],
      [
        "ord",
        "s"
      ],
      [
        "ow",
        "ing"
      ],
      [
        "Ġth",
        "em"
      ],
      [
        "ou",
        "ch"
      ],
      [
        "Ġs",
        "et"
      ],
      [
        "Ġs",
        "ens"
      ],
      [
        "ar",
        "ed"
      ],
      [
        "Ġcom",
        "b"
      ],
      [
        "as",
        "k"
      ],
      [
        "h",
        "am"
      ],
      [
        "Ġl",
        "ong"
      ],
      [
        "Ġt",
        "yp"
      ],
      [
        "i",
        "et"
      ],
      [
        "r",
        "ess"
      ],
      [
        "u",
        "ed"
      ],
      [
        "Ġem",
        "b"
      ],
      [
        "Ġv",
        "ir"
      ],
      [
        "er",
        "ic"
      ],
      [
        "Ġ",
        "os"
      ],
      [
        "Ġm",
        "ay"
      ],
      [
        "is",
        "ter"
      ],
      [
        "tim",
        "e"
      ],
      [
        "un",
        "t"
      ],
      [
        "Ġp",
        "ost"
      ],
      [
        "Ġn",
        "ov"
      ],
      [
        "Ġar",
        "g"
      ],
      [
        "Ġsp",
        "r"
      ],
      [
        "Ġn",
        "on"
      ],
      [
        "over",
        "n"
      ],
      [
        "Ġf",
        "ri"
      ],
      [
        "Ġ",
        "et"
      ],
      [
        "l",
        "s"
      ],
      [
        "Ġnew",
        "s"
      ],
      [
        "Ġp",
        "ot"
      ],
      [
        "Ġw",
        "ill"
      ],
      [
        "Ġm",
        "ur"
      ],
      [
        "d",
        "e"
      ],
      [
        "or",
        "es"
      ],
      [
        "Ġever",
        "y"
      ],
      [
        "Ġresp",
        "ons"
      ],
      [
        "Ġr",
        "en"
      ],
      [
        "enti",
        "f"
      ],
      [
        "Ġsy",
        "stem"
      ],
      [
        "Ġsc",
        "re"
      ],
      [
        "Ġph",
        "il"
      ],
      [
        "Ġt",
        "ex"
      ],
      [
        "Ġd",
        "on"
      ],
      [
        "ow",
        "ed"
      ],
      [
        "Ġdes",
        "ign"
      ],
      [
        "olog",
        "ical"
      ],
      [
        "ell",
        "ing"
      ],
      [
        "Ġt",
        "erm"
      ],
      [
        "Ġab",
        "s"
      ],
      [
        "ad",
        "es"
      ],
      [
        "d",
        "en"
      ],
      [
        "Ġpro",
        "cess"
      ],
      [
        "il",
        "i"
      ],
      [
        "an",
        "i"
      ],
      [
        "z",
        "z"
      ],
      [
        "iss",
        "ion"
      ],
      [
        "Ġm",
        "y"
      ],
      [
        "Ġth",
        "er"
      ],
      [
        "Ġd",
        "est"
      ],
      [
        "m",
        "e"
      ],
      [
        "ag",
        "ing"
      ],
      [
        "Ġinc",
        "re"
      ],
      [
        "p",
        "ir"
      ],
      [
        "Ġdes",
        "c"
      ],
      [
        "ac",
        "es"
      ],
      [
        "Ġre",
        "b"
      ],
      [
        "im",
        "in"
      ],
      [
        "Ġinter",
        "n"
      ],
      [
        "ak",
        "es"
      ],
      [
        "Ġper",
        "form"
      ],
      [
        "ious",
        "ly"
      ],
      [
        "a",
        "a"
      ],
      [
        "Ġsc",
        "r"
      ],
      [
        "op",
        "e"
      ],
      [
        "ou",
        "d"
      ],
      [
        "Ġc",
        "er"
      ],
      [
        "ri",
        "es"
      ],
      [
        "Ġin",
        "n"
      ],
      [
        "ce",
        "pt"
      ],
      [
        "Ġauth",
        "or"
      ],
      [
        "ar",
        "ing"
      ],
      [
        "Ġs",
        "umm"
      ],
      [
        "Ġp",
        "ath"
      ],
      [
        "iv",
        "es"
      ],
      [
        "Ġun",
        "ivers"
      ],
      [
        "m",
        "ed"
      ],
      [
        "Ġt",
        "ar"
      ],
      [
        "ail",
        "s"
      ],
      [
        "iv",
        "ed"
      ],
      [
        "tic",
        "ally"
      ],
      [
        "Ġm",
        "ac"
      ],
      [
        "Ġk",
        "e"
      ],
      [
        "Ġt",
        "op"
      ],
      [
        "Ġb",
        "y"
      ],
      [
        "Ġt",
        "el"
      ],
      [
        "Ġd",
        "am"
      ],
      [
        "le",
        "x"
      ],
      [
        "c",
        "s"
      ],
      [
        "ot",
        "e"
      ],
      [
        "ic",
        "tion"
      ],
      [
        "u",
        "it"
      ],
      [
        "Ġin",
        "j"
      ],
      [
        "Ġc",
        "am"
      ],
      [
        "Ġb",
        "ill"
      ],
      [
        "u",
        "el"
      ],
      [
        "k",
        "y"
      ],
      [
        "ec",
        "tiv"
      ],
      [
        "Ġg",
        "overn"
      ],
      [
        "h",
        "ood"
      ],
      [
        "et",
        "ed"
      ],
      [
        "an",
        "ch"
      ],
      [
        "Ġj",
        "ud"
      ],
      [
        "pl",
        "ay"
      ],
      [
        "Ġm",
        "er"
      ],
      [
        "ro",
        "duc"
      ],
      [
        "ou",
        "b"
      ],
      [
        "a",
        "ugh"
      ],
      [
        "Ġh",
        "al"
      ],
      [
        "Ġin",
        "clud"
      ],
      [
        "Ġs",
        "el"
      ],
      [
        "ak",
        "er"
      ],
      [
        "Ġm",
        "el"
      ],
      [
        "is",
        "c"
      ],
      [
        "ad",
        "ed"
      ],
      [
        "Ġcont",
        "rib"
      ],
      [
        "Ġl",
        "ist"
      ],
      [
        "Ġun",
        "f"
      ],
      [
        "Ġps",
        "ych"
      ],
      [
        "Ġpr",
        "im"
      ],
      [
        "Ġv",
        "ers"
      ],
      [
        "t",
        "a"
      ],
      [
        "Ġf",
        "av"
      ],
      [
        "Ġpers",
        "on"
      ],
      [
        "ab",
        "l"
      ],
      [
        "w",
        "ork"
      ],
      [
        "Ġme",
        "as"
      ],
      [
        "Ġm",
        "ass"
      ],
      [
        "Ġmeth",
        "od"
      ],
      [
        "Ġg",
        "ar"
      ],
      [
        "r",
        "up"
      ],
      [
        "re",
        "g"
      ],
      [
        "of",
        "t"
      ],
      [
        "n",
        "a"
      ],
      [
        "ber",
        "g"
      ],
      [
        "ent",
        "ed"
      ],
      [
        "Ġl",
        "ar"
      ],
      [
        "as",
        "ed"
      ],
      [
        "i",
        "j"
      ],
      [
        "re",
        "e"
      ],
      [
        "og",
        "n"
      ],
      [
        "Ġp",
        "en"
      ],
      [
        "eng",
        "th"
      ],
      [
        "Ġh",
        "or"
      ],
      [
        "Ġs",
        "af"
      ],
      [
        "Ġj",
        "e"
      ],
      [
        "Ġpr",
        "ac"
      ],
      [
        "in",
        "ts"
      ],
      [
        "Ġc",
        "at"
      ],
      [
        "Ġh",
        "o"
      ],
      [
        "un",
        "e"
      ],
      [
        "Ġli",
        "ber"
      ],
      [
        "Ġinf",
        "orm"
      ],
      [
        "Ġg",
        "ood"
      ],
      [
        "Ġcont",
        "rol"
      ],
      [
        "ok",
        "e"
      ],
      [
        "f",
        "er"
      ],
      [
        "ou",
        "p"
      ],
      [
        "Ġa",
        "ud"
      ],
      [
        "Ġdir",
        "ect"
      ],
      [
        "Ġb",
        "ir"
      ],
      [
        "ib",
        "ility"
      ],
      [
        "Ġph",
        "ys"
      ],
      [
        "Ġb",
        "al"
      ],
      [
        "Ġs",
        "ome"
      ],
      [
        "ad",
        "d"
      ],
      [
        "Ġv",
        "iew"
      ],
      [
        "est",
        "ing"
      ],
      [
        "ant",
        "ly"
      ],
      [
        "it",
        "or"
      ],
      [
        "Ġbe",
        "g"
      ],
      [
        "e",
        "qu"
      ],
      [
        "ul",
        "ated"
      ],
      [
        "ough",
        "t"
      ],
      [
        "pl",
        "es"
      ],
      [
        "Ġh",
        "ist"
      ],
      [
        "b",
        "or"
      ],
      [
        "Ġar",
        "r"
      ],
      [
        "Ġd",
        "u"
      ],
      [
        "Ġp",
        "le"
      ],
      [
        "en",
        "ess"
      ],
      [
        "it",
        "z"
      ],
      [
        "Ġf",
        "ound"
      ],
      [
        "i",
        "i"
      ],
      [
        "v",
        "iew"
      ],
      [
        "Ġl",
        "and"
      ],
      [
        "Ġsus",
        "p"
      ],
      [
        "Ġcl",
        "os"
      ],
      [
        "number",
        "number"
      ],
      [
        "Ġp",
        "ain"
      ],
      [
        "Ġst",
        "ep"
      ],
      [
        "Ġcar",
        "e"
      ],
      [
        "u",
        "ts"
      ],
      [
        "s",
        "s"
      ],
      [
        "Ġem",
        "ploy"
      ],
      [
        "Ġch",
        "ild"
      ],
      [
        "Ġqu",
        "es"
      ],
      [
        "Ġsh",
        "o"
      ],
      [
        "k",
        "i"
      ],
      [
        "row",
        "n"
      ],
      [
        "Ġdec",
        "l"
      ],
      [
        "u",
        "x"
      ],
      [
        "ar",
        "ian"
      ],
      [
        "et",
        "ing"
      ],
      [
        "Ġt",
        "er"
      ],
      [
        "Ġm",
        "ess"
      ],
      [
        "Ġpol",
        "i"
      ],
      [
        "i",
        "ff"
      ],
      [
        "ur",
        "r"
      ],
      [
        "y",
        "r"
      ],
      [
        "il",
        "ities"
      ],
      [
        "Ġbro",
        "ad"
      ],
      [
        "Ġj",
        "ourn"
      ],
      [
        "f",
        "ield"
      ],
      [
        "Ġdis",
        "p"
      ],
      [
        "ers",
        "on"
      ],
      [
        "Ġhe",
        "alth"
      ],
      [
        "ti",
        "ce"
      ],
      [
        "Ġme",
        "an"
      ],
      [
        "Ġpr",
        "ess"
      ],
      [
        "Ġsh",
        "ort"
      ],
      [
        "a",
        "o"
      ],
      [
        "Ġt",
        "or"
      ],
      [
        "Ġ",
        "eth"
      ],
      [
        "tic",
        "k"
      ],
      [
        "Ġh",
        "ow"
      ],
      [
        "Ġf",
        "ig"
      ],
      [
        "oc",
        "r"
      ],
      [
        "Ġvi",
        "ol"
      ],
      [
        "Ġrec",
        "e"
      ],
      [
        "Ġre",
        "pres"
      ],
      [
        "Ġin",
        "iti"
      ],
      [
        "Ġfo",
        "ot"
      ],
      [
        "Ġanal",
        "ys"
      ],
      [
        "Ġw",
        "ind"
      ],
      [
        "Ġs",
        "am"
      ],
      [
        "Ġr",
        "om"
      ],
      [
        "h",
        "n"
      ],
      [
        "Ġind",
        "ic"
      ],
      [
        "es",
        "ter"
      ],
      [
        "Ġwor",
        "ld"
      ],
      [
        "le",
        "ment"
      ],
      [
        "it",
        "ation"
      ],
      [
        "ie",
        "f"
      ],
      [
        "u",
        "tions"
      ],
      [
        "Ġb",
        "or"
      ],
      [
        "an",
        "o"
      ],
      [
        "Ġm",
        "u"
      ],
      [
        "t",
        "t"
      ],
      [
        "Ġ",
        "ic"
      ],
      [
        "ab",
        "les"
      ],
      [
        "Ġf",
        "ire"
      ],
      [
        "Ġv",
        "ari"
      ],
      [
        "Ġchar",
        "acter"
      ],
      [
        "Ġb",
        "er"
      ],
      [
        "Ġt",
        "ax"
      ],
      [
        "il",
        "s"
      ],
      [
        "Ġec",
        "onom"
      ],
      [
        "Ġdem",
        "on"
      ],
      [
        "ut",
        "es"
      ],
      [
        "g",
        "l"
      ],
      [
        "Ġc",
        "ust"
      ],
      [
        "Ġc",
        "as"
      ],
      [
        "b",
        "all"
      ],
      [
        "Ġrev",
        "iew"
      ],
      [
        "ol",
        "ution"
      ],
      [
        "l",
        "in"
      ],
      [
        "Ġo",
        "c"
      ],
      [
        "h",
        "old"
      ],
      [
        "Ġsc",
        "i"
      ],
      [
        "Ġt",
        "urn"
      ],
      [
        "ati",
        "ves"
      ],
      [
        "Ġw",
        "a"
      ],
      [
        "u",
        "le"
      ],
      [
        "ear",
        "ch"
      ],
      [
        "Ġw",
        "in"
      ],
      [
        "Ġor",
        "ig"
      ],
      [
        "g",
        "en"
      ],
      [
        "i",
        "ation"
      ],
      [
        "Ġp",
        "ack"
      ],
      [
        "Ġn",
        "at"
      ],
      [
        "Ġs",
        "and"
      ],
      [
        "Ġcr",
        "ed"
      ],
      [
        "Ġp",
        "et"
      ],
      [
        "Ġc",
        "ra"
      ],
      [
        "Ġs",
        "at"
      ],
      [
        "Ġac",
        "t"
      ],
      [
        "ens",
        "ion"
      ],
      [
        "Ġn",
        "orm"
      ],
      [
        "k",
        "n"
      ],
      [
        "iti",
        "ve"
      ],
      [
        "l",
        "i"
      ],
      [
        "Ġch",
        "ang"
      ],
      [
        "Ġins",
        "tit"
      ],
      [
        "w",
        "or"
      ],
      [
        "Ġf",
        "ur"
      ],
      [
        "Ġam",
        "b"
      ],
      [
        "Ġe",
        "g"
      ],
      [
        "ect",
        "ing"
      ],
      [
        "Ġan",
        "ti"
      ],
      [
        "Ġmic",
        "ro"
      ],
      [
        "Ġr",
        "a"
      ],
      [
        "Ġp",
        "oll"
      ],
      [
        "Ġd",
        "er"
      ],
      [
        "ri",
        "f"
      ],
      [
        "Ġan",
        "im"
      ],
      [
        "ill",
        "s"
      ],
      [
        "Ġse",
        "x"
      ],
      [
        "Ġund",
        "erst"
      ],
      [
        "e",
        "h"
      ],
      [
        "Ġm",
        "at"
      ],
      [
        "Ġ",
        "iss"
      ],
      [
        "Ġl",
        "ine"
      ],
      [
        "im",
        "ent"
      ],
      [
        "Ġs",
        "om"
      ],
      [
        "us",
        "e"
      ],
      [
        "Ġk",
        "ey"
      ],
      [
        "ur",
        "g"
      ],
      [
        "it",
        "ted"
      ],
      [
        "v",
        "al"
      ],
      [
        "Ġb",
        "all"
      ],
      [
        "press",
        "ion"
      ],
      [
        "d",
        "own"
      ],
      [
        "Ġf",
        "a"
      ],
      [
        "Ġle",
        "ad"
      ],
      [
        "Ġcoun",
        "ter"
      ],
      [
        "Ġs",
        "en"
      ],
      [
        "Ġt",
        "al"
      ],
      [
        "or",
        "ted"
      ],
      [
        "ati",
        "v"
      ],
      [
        "us",
        "ed"
      ],
      [
        "Ġsuc",
        "cess"
      ],
      [
        "ar",
        "a"
      ],
      [
        "Ġne",
        "ed"
      ],
      [
        "Ġs",
        "em"
      ],
      [
        "Ġbre",
        "ak"
      ],
      [
        "Ġm",
        "en"
      ],
      [
        "ish",
        "ing"
      ],
      [
        "Ġc",
        "all"
      ],
      [
        "Ġam",
        "eric"
      ],
      [
        "e",
        "al"
      ],
      [
        "Ġm",
        "ater"
      ],
      [
        "Ġe",
        "as"
      ],
      [
        "Ġe",
        "y"
      ],
      [
        "ap",
        "er"
      ],
      [
        "aus",
        "e"
      ],
      [
        "Ġf",
        "ar"
      ],
      [
        "Ġm",
        "a"
      ],
      [
        "Ġex",
        "am"
      ],
      [
        "n",
        "ers"
      ],
      [
        "Ġch",
        "o"
      ],
      [
        "id",
        "ence"
      ],
      [
        "Ġp",
        "ower"
      ],
      [
        "Ġpro",
        "p"
      ],
      [
        "Ġr",
        "ap"
      ],
      [
        "Ġb",
        "ud"
      ],
      [
        "Ġd",
        "ig"
      ],
      [
        "Ġs",
        "av"
      ],
      [
        "t",
        "ers"
      ],
      [
        "Ġr",
        "is"
      ],
      [
        "an",
        "ks"
      ],
      [
        "Ġou",
        "ts"
      ],
      [
        "id",
        "ing"
      ],
      [
        "o",
        "ol"
      ],
      [
        "o",
        "ks"
      ],
      [
        "ir",
        "ed"
      ],
      [
        "it",
        "ting"
      ],
      [
        "Ġh",
        "ur"
      ],
      [
        "r",
        "en"
      ],
      [
        "ec",
        "ess"
      ],
      [
        "Ġdis",
        "app"
      ],
      [
        "Ġres",
        "earch"
      ],
      [
        "Ġpri",
        "v"
      ],
      [
        "Ġobs",
        "erv"
      ],
      [
        "Ġc",
        "a"
      ],
      [
        "Ġref",
        "er"
      ],
      [
        "ad",
        "a"
      ],
      [
        "n",
        "ey"
      ],
      [
        "ak",
        "ers"
      ],
      [
        "Ġp",
        "ati"
      ],
      [
        "Ġwe",
        "ek"
      ],
      [
        "e",
        "ase"
      ],
      [
        "Ġo",
        "d"
      ],
      [
        "Ġr",
        "os"
      ],
      [
        "r",
        "al"
      ],
      [
        "Ġbl",
        "ack"
      ],
      [
        "Ġst",
        "ra"
      ],
      [
        "ens",
        "ive"
      ],
      [
        "Ġl",
        "ib"
      ],
      [
        "it",
        "ter"
      ],
      [
        "Ġdis",
        "s"
      ],
      [
        "Ġre",
        "pl"
      ],
      [
        "Ġa",
        "ch"
      ],
      [
        "Ġk",
        "h"
      ],
      [
        "Ġw",
        "as"
      ],
      [
        "c",
        "ent"
      ],
      [
        "Ġh",
        "yp"
      ],
      [
        "ag",
        "n"
      ],
      [
        "Ġc",
        "ross"
      ],
      [
        "ul",
        "ts"
      ],
      [
        "l",
        "et"
      ],
      [
        "p",
        "e"
      ],
      [
        "Ġne",
        "igh"
      ],
      [
        "Ġm",
        "ad"
      ],
      [
        "Ġl",
        "ik"
      ],
      [
        "Ġs",
        "un"
      ],
      [
        "Ġr",
        "un"
      ],
      [
        "f",
        "ord"
      ],
      [
        "an",
        "y"
      ],
      [
        "Ġg",
        "er"
      ],
      [
        "ess",
        "ed"
      ],
      [
        "i",
        "h"
      ],
      [
        "Ġsh",
        "e"
      ],
      [
        "u",
        "f"
      ],
      [
        "Ġpubl",
        "ic"
      ],
      [
        "Ġd",
        "ra"
      ],
      [
        "res",
        "p"
      ],
      [
        "Ġg",
        "row"
      ],
      [
        "ord",
        "in"
      ],
      [
        "Ġmul",
        "ti"
      ],
      [
        "Ġtre",
        "at"
      ],
      [
        "Ġn",
        "ar"
      ],
      [
        "re",
        "m"
      ],
      [
        "Ġpl",
        "an"
      ],
      [
        "ce",
        "ed"
      ],
      [
        "Ġf",
        "unction"
      ],
      [
        "re",
        "ad"
      ],
      [
        "Ġass",
        "oc"
      ],
      [
        "Ġle",
        "v"
      ],
      [
        "em",
        "b"
      ],
      [
        "Ġadm",
        "in"
      ],
      [
        "Ġc",
        "anc"
      ],
      [
        "ri",
        "pt"
      ],
      [
        "Ġch",
        "all"
      ],
      [
        "ir",
        "on"
      ],
      [
        "Ġid",
        "entif"
      ],
      [
        "Ġv",
        "o"
      ],
      [
        "ul",
        "ate"
      ],
      [
        "Ġaf",
        "ter"
      ],
      [
        "Ġr",
        "ock"
      ],
      [
        "Ġl",
        "ic"
      ],
      [
        "Ġb",
        "ri"
      ],
      [
        "ac",
        "ed"
      ],
      [
        "ific",
        "ation"
      ],
      [
        "Ġc",
        "ard"
      ],
      [
        "if",
        "y"
      ],
      [
        "ab",
        "b"
      ],
      [
        "Ġf",
        "ail"
      ],
      [
        "Ġs",
        "uff"
      ],
      [
        "Ġs",
        "our"
      ],
      [
        "Ġm",
        "cc"
      ],
      [
        "al",
        "u"
      ],
      [
        "Ġw",
        "ater"
      ],
      [
        "et",
        "ch"
      ],
      [
        "Ġar",
        "e"
      ],
      [
        "Ġex",
        "ec"
      ],
      [
        "Ġst",
        "re"
      ],
      [
        "Ġm",
        "ech"
      ],
      [
        "ok",
        "ed"
      ],
      [
        "im",
        "m"
      ],
      [
        "Ġm",
        "ind"
      ],
      [
        "Ġr",
        "h"
      ],
      [
        "Ġes",
        "c"
      ],
      [
        "iv",
        "id"
      ],
      [
        "Ġne",
        "u"
      ],
      [
        "Ġimp",
        "ort"
      ],
      [
        "Ġper",
        "m"
      ],
      [
        "and",
        "ing"
      ],
      [
        "iv",
        "al"
      ],
      [
        "ic",
        "ks"
      ],
      [
        "Ġf",
        "ore"
      ],
      [
        "Ġst",
        "ri"
      ],
      [
        "ash",
        "ing"
      ],
      [
        "Ġt",
        "en"
      ],
      [
        "Ġcur",
        "r"
      ],
      [
        "um",
        "s"
      ],
      [
        "Ġsh",
        "ow"
      ],
      [
        "Ġb",
        "att"
      ],
      [
        "Ġc",
        "and"
      ],
      [
        "er",
        "ation"
      ],
      [
        "Ġti",
        "t"
      ],
      [
        "iv",
        "ely"
      ],
      [
        "Ġo",
        "vers"
      ],
      [
        "Ġbu",
        "ild"
      ],
      [
        "Ġs",
        "in"
      ],
      [
        "ow",
        "led"
      ],
      [
        "Ġk",
        "ill"
      ],
      [
        "y",
        "a"
      ],
      [
        "y",
        "c"
      ],
      [
        "us",
        "es"
      ],
      [
        "Ġar",
        "tic"
      ],
      [
        "ro",
        "c"
      ],
      [
        "m",
        "en"
      ],
      [
        "Ġpartic",
        "ip"
      ],
      [
        "e",
        "es"
      ],
      [
        "Ġsh",
        "ar"
      ],
      [
        "Ġf",
        "ind"
      ],
      [
        "ain",
        "ing"
      ],
      [
        "Ġcon",
        "v"
      ],
      [
        "ing",
        "er"
      ],
      [
        "Ġob",
        "j"
      ],
      [
        "im",
        "s"
      ],
      [
        "tr",
        "ac"
      ],
      [
        "Ġb",
        "ull"
      ],
      [
        "Ġap",
        "plic"
      ],
      [
        "b",
        "c"
      ],
      [
        "Ġsur",
        "v"
      ],
      [
        "o",
        "on"
      ],
      [
        "w",
        "ays"
      ],
      [
        "Ġth",
        "ere"
      ],
      [
        "il",
        "ar"
      ],
      [
        "Ġbl",
        "ock"
      ],
      [
        "iz",
        "es"
      ],
      [
        "Ġop",
        "en"
      ],
      [
        "Ġsec",
        "ond"
      ],
      [
        "Ġ",
        "ip"
      ],
      [
        "v",
        "ille"
      ],
      [
        "Ġent",
        "er"
      ],
      [
        "Ġo",
        "k"
      ],
      [
        "r",
        "et"
      ],
      [
        "Ġsw",
        "e"
      ],
      [
        "Ġbeh",
        "av"
      ],
      [
        "Ġin",
        "te"
      ],
      [
        "Ġinv",
        "ol"
      ],
      [
        "g",
        "s"
      ],
      [
        "Ġg",
        "un"
      ],
      [
        "Ġben",
        "ef"
      ],
      [
        "Ġs",
        "le"
      ],
      [
        "iv",
        "ing"
      ],
      [
        "Ġpro",
        "per"
      ],
      [
        "Ġdisc",
        "uss"
      ],
      [
        "Ġ",
        "om"
      ],
      [
        "Ġpre",
        "m"
      ],
      [
        "os",
        "h"
      ],
      [
        "gr",
        "ess"
      ],
      [
        "im",
        "e"
      ],
      [
        "Ġmed",
        "ic"
      ],
      [
        "Ġgr",
        "and"
      ],
      [
        "Ġj",
        "u"
      ],
      [
        "enc",
        "ies"
      ],
      [
        "Ġt",
        "ot"
      ],
      [
        "e",
        "ti"
      ],
      [
        "Ġpol",
        "ic"
      ],
      [
        "Ġw",
        "atch"
      ],
      [
        "Ġs",
        "it"
      ],
      [
        "bo",
        "ard"
      ],
      [
        "ol",
        "es"
      ],
      [
        "Ġad",
        "j"
      ],
      [
        "os",
        "is"
      ],
      [
        "Ġm",
        "om"
      ],
      [
        "Ġem",
        "p"
      ],
      [
        "w",
        "are"
      ],
      [
        "Ġv",
        "ac"
      ],
      [
        "w",
        "r"
      ],
      [
        "n",
        "es"
      ],
      [
        "Ġt",
        "ro"
      ],
      [
        "Ġb",
        "ec"
      ],
      [
        "ven",
        "tion"
      ],
      [
        "Ġex",
        "ist"
      ],
      [
        "Ġl",
        "ow"
      ],
      [
        "Ġal",
        "le"
      ],
      [
        "at",
        "ures"
      ],
      [
        "Ġr",
        "ich"
      ],
      [
        "Ġtr",
        "ad"
      ],
      [
        "Ġl",
        "ay"
      ],
      [
        "u",
        "ce"
      ],
      [
        "Ġw",
        "on"
      ],
      [
        "Ġm",
        "ir"
      ],
      [
        "Ġr",
        "id"
      ],
      [
        "i",
        "ers"
      ],
      [
        "Ġpr",
        "inc"
      ],
      [
        "oc",
        "ks"
      ],
      [
        "Ġ",
        "ath"
      ],
      [
        "Ġc",
        "os"
      ],
      [
        "Ġcons",
        "tit"
      ],
      [
        "an",
        "ti"
      ],
      [
        "ell",
        "ed"
      ],
      [
        "Ġdemon",
        "str"
      ],
      [
        "th",
        "s"
      ],
      [
        "Ġr",
        "ac"
      ],
      [
        "Ġpro",
        "pos"
      ],
      [
        "Ġstr",
        "uct"
      ],
      [
        "om",
        "en"
      ],
      [
        "ograph",
        "y"
      ],
      [
        "Ġg",
        "od"
      ],
      [
        "Ġgre",
        "en"
      ],
      [
        "Ġm",
        "ot"
      ],
      [
        "w",
        "ood"
      ],
      [
        "Ġg",
        "h"
      ],
      [
        "Ġf",
        "em"
      ],
      [
        "Ġ",
        "ess"
      ],
      [
        "ag",
        "on"
      ],
      [
        "Ġco",
        "ver"
      ],
      [
        "ip",
        "p"
      ],
      [
        "ter",
        "ed"
      ],
      [
        "Ġdist",
        "rib"
      ],
      [
        "Ġd",
        "ay"
      ],
      [
        "al",
        "ing"
      ],
      [
        "e",
        "b"
      ],
      [
        "Ġmech",
        "an"
      ],
      [
        "Ġs",
        "a"
      ],
      [
        "am",
        "ed"
      ],
      [
        "Ġc",
        "ost"
      ],
      [
        "k",
        "a"
      ],
      [
        "air",
        "s"
      ],
      [
        "Ġ",
        "ign"
      ],
      [
        "Ġenv",
        "iron"
      ],
      [
        "bo",
        "ok"
      ],
      [
        "Ġb",
        "ig"
      ],
      [
        "Ġspec",
        "ial"
      ],
      [
        "ach",
        "es"
      ],
      [
        "em",
        "s"
      ],
      [
        "Ġm",
        "ach"
      ],
      [
        "Ġstr",
        "ateg"
      ],
      [
        "i",
        "ally"
      ],
      [
        "Ġr",
        "uss"
      ],
      [
        "Ġ",
        "ul"
      ],
      [
        "Ġn",
        "om"
      ],
      [
        "e",
        "z"
      ],
      [
        "ro",
        "om"
      ],
      [
        "Ġus",
        "e"
      ],
      [
        "Ġm",
        "ax"
      ],
      [
        "Ġcal",
        "c"
      ],
      [
        "p",
        "ro"
      ],
      [
        "ul",
        "ations"
      ],
      [
        "Ġ",
        "ans"
      ],
      [
        "ig",
        "r"
      ],
      [
        "cep",
        "tion"
      ],
      [
        "Ġch",
        "amp"
      ],
      [
        "Ġgr",
        "ad"
      ],
      [
        "Ġpro",
        "ble"
      ],
      [
        "Ġ",
        "ut"
      ],
      [
        "Ġ",
        "one"
      ],
      [
        "ak",
        "s"
      ],
      [
        "Ġsign",
        "ific"
      ],
      [
        "Ġl",
        "in"
      ],
      [
        "st",
        "e"
      ],
      [
        "Ġm",
        "aj"
      ],
      [
        "um",
        "e"
      ],
      [
        "Ġup",
        "d"
      ],
      [
        "et",
        "her"
      ],
      [
        "ect",
        "or"
      ],
      [
        "ok",
        "ing"
      ],
      [
        "Ġop",
        "tim"
      ],
      [
        "g",
        "ers"
      ],
      [
        "app",
        "ed"
      ],
      [
        "Ġm",
        "atch"
      ],
      [
        "Ġred",
        "uc"
      ],
      [
        "Ġgl",
        "ob"
      ],
      [
        "Ġm",
        "ys"
      ],
      [
        "l",
        "a"
      ],
      [
        "Ġhum",
        "an"
      ],
      [
        "k",
        "ing"
      ],
      [
        "ed",
        "d"
      ],
      [
        "i",
        "ec"
      ],
      [
        "Ġrec",
        "ogn"
      ],
      [
        "Ġt",
        "om"
      ],
      [
        "i",
        "os"
      ],
      [
        "anc",
        "y"
      ],
      [
        "Ġs",
        "ug"
      ],
      [
        "o",
        "ve"
      ],
      [
        "Ġ",
        "ing"
      ],
      [
        "Ġl",
        "ess"
      ],
      [
        "Ġind",
        "ivid"
      ],
      [
        "Ġg",
        "et"
      ],
      [
        "ti",
        "ves"
      ],
      [
        "Ġm",
        "os"
      ],
      [
        "if",
        "t"
      ],
      [
        "Ġth",
        "at"
      ],
      [
        "Ġtw",
        "e"
      ],
      [
        "Ġr",
        "ub"
      ],
      [
        "Ġpres",
        "ent"
      ],
      [
        "land",
        "s"
      ],
      [
        "Ġdet",
        "erm"
      ],
      [
        "ang",
        "er"
      ],
      [
        "Ġg",
        "ir"
      ],
      [
        "ot",
        "ing"
      ],
      [
        "h",
        "a"
      ],
      [
        "Ġim",
        "ag"
      ],
      [
        "Ġw",
        "il"
      ],
      [
        "Ġcl",
        "in"
      ],
      [
        "Ġcr",
        "y"
      ],
      [
        "w",
        "ards"
      ],
      [
        "Ġacc",
        "ess"
      ],
      [
        "es",
        "is"
      ],
      [
        "Ġm",
        "ist"
      ],
      [
        "Ġcle",
        "ar"
      ],
      [
        "Ġrepres",
        "ent"
      ],
      [
        "al",
        "es"
      ],
      [
        "i",
        "als"
      ],
      [
        "et",
        "te"
      ],
      [
        "Ġh",
        "am"
      ],
      [
        "f",
        "r"
      ],
      [
        "er",
        "o"
      ],
      [
        "Ġde",
        "ad"
      ],
      [
        "Ġed",
        "uc"
      ],
      [
        "Ġc",
        "ult"
      ],
      [
        "us",
        "ion"
      ],
      [
        "Ġcon",
        "st"
      ],
      [
        "ag",
        "er"
      ],
      [
        "c",
        "a"
      ],
      [
        "Ġk",
        "r"
      ],
      [
        "Ġw",
        "ood"
      ],
      [
        "Ġ",
        "ens"
      ],
      [
        "Ġstr",
        "ong"
      ],
      [
        "Ġtim",
        "e"
      ],
      [
        "Ġjourn",
        "al"
      ],
      [
        "Ġb",
        "ad"
      ],
      [
        "ack",
        "ing"
      ],
      [
        "Ġh",
        "a"
      ],
      [
        "Ġs",
        "outh"
      ],
      [
        "ectiv",
        "ely"
      ],
      [
        "Ġm",
        "ol"
      ],
      [
        "Ġr",
        "ight"
      ],
      [
        "Ġl",
        "ight"
      ],
      [
        "il",
        "es"
      ],
      [
        "Ġch",
        "em"
      ],
      [
        "Ġf",
        "ort"
      ],
      [
        "Ġch",
        "eck"
      ],
      [
        "Ġques",
        "tion"
      ],
      [
        "Ġn",
        "ow"
      ],
      [
        "Ġth",
        "ir"
      ],
      [
        "ar",
        "ter"
      ],
      [
        "Ġrep",
        "ort"
      ],
      [
        "Ġach",
        "ie"
      ],
      [
        "Ġw",
        "ell"
      ],
      [
        "in",
        "i"
      ],
      [
        "Ġm",
        "ob"
      ],
      [
        "Ġqu",
        "al"
      ],
      [
        "Ġcol",
        "le"
      ],
      [
        "Ġv",
        "ic"
      ],
      [
        "Ġm",
        "ore"
      ],
      [
        "b",
        "re"
      ],
      [
        "ack",
        "ed"
      ],
      [
        "Ġo",
        "ther"
      ],
      [
        "Ġf",
        "er"
      ],
      [
        "ul",
        "es"
      ],
      [
        "il",
        "ed"
      ],
      [
        "Ġb",
        "ank"
      ],
      [
        "Ġun",
        "l"
      ],
      [
        "Ġanal",
        "y"
      ],
      [
        "Ġw",
        "all"
      ],
      [
        "Ġj",
        "an"
      ],
      [
        "Ġt",
        "ouch"
      ],
      [
        "Ġcust",
        "om"
      ],
      [
        "Ġcom",
        "ment"
      ],
      [
        "Ġg",
        "old"
      ],
      [
        "o",
        "ch"
      ],
      [
        "row",
        "s"
      ],
      [
        "k",
        "er"
      ],
      [
        "Ġrec",
        "ord"
      ],
      [
        "Ġc",
        "ele"
      ],
      [
        "Ġs",
        "oft"
      ],
      [
        "em",
        "p"
      ],
      [
        "Ġev",
        "alu"
      ],
      [
        "Ġm",
        "ich"
      ],
      [
        "Ġv",
        "ill"
      ],
      [
        "Ġm",
        "ix"
      ],
      [
        "Ġinte",
        "gr"
      ],
      [
        "Ġh",
        "osp"
      ],
      [
        "Ġf",
        "arm"
      ],
      [
        "al",
        "y"
      ],
      [
        "ow",
        "ers"
      ],
      [
        "Ġf",
        "ix"
      ],
      [
        "Ġac",
        "qu"
      ],
      [
        "bo",
        "x"
      ],
      [
        "Ġst",
        "art"
      ],
      [
        "Ġsp",
        "ect"
      ],
      [
        "o",
        "in"
      ],
      [
        "Ġlif",
        "e"
      ],
      [
        "ou",
        "ts"
      ],
      [
        "ic",
        "a"
      ],
      [
        "Ġcomp",
        "ar"
      ],
      [
        "Ġd",
        "at"
      ],
      [
        "Ġc",
        "iv"
      ],
      [
        "he",
        "ad"
      ],
      [
        "ur",
        "b"
      ],
      [
        "iti",
        "z"
      ],
      [
        "Ġse",
        "qu"
      ],
      [
        "Ġj",
        "us"
      ],
      [
        "ash",
        "ed"
      ],
      [
        "Ġnor",
        "th"
      ],
      [
        "Ġinfl",
        "u"
      ],
      [
        "Ġin",
        "tr"
      ],
      [
        "al",
        "ed"
      ],
      [
        "Ġf",
        "all"
      ],
      [
        "e",
        "ver"
      ],
      [
        "Ġh",
        "arm"
      ],
      [
        "Ġu",
        "til"
      ],
      [
        "i",
        "od"
      ],
      [
        "ut",
        "ers"
      ],
      [
        "x",
        "t"
      ],
      [
        "ab",
        "or"
      ],
      [
        "Ġapp",
        "ear"
      ],
      [
        "Ġr",
        "and"
      ],
      [
        "Ġv",
        "eg"
      ],
      [
        "is",
        "l"
      ],
      [
        "Ġg",
        "al"
      ],
      [
        "Ġn",
        "ight"
      ],
      [
        "Ġeng",
        "ine"
      ],
      [
        "Ġn",
        "av"
      ],
      [
        "Ġcoun",
        "t"
      ],
      [
        "if",
        "e"
      ],
      [
        "Ġc",
        "row"
      ],
      [
        "Ġo",
        "x"
      ],
      [
        "ac",
        "ts"
      ],
      [
        "as",
        "ts"
      ],
      [
        "t",
        "or"
      ],
      [
        "el",
        "ing"
      ],
      [
        "Ġsup",
        "port"
      ],
      [
        "Ġconc",
        "ern"
      ],
      [
        "Ġcomm",
        "it"
      ],
      [
        "Ġh",
        "ot"
      ],
      [
        "h",
        "r"
      ],
      [
        "Ġop",
        "pos"
      ],
      [
        "anc",
        "ed"
      ],
      [
        "Ġle",
        "arn"
      ],
      [
        "Ġw",
        "alk"
      ],
      [
        "Ġre",
        "in"
      ],
      [
        "Ġh",
        "op"
      ],
      [
        "Ġpl",
        "at"
      ],
      [
        "Ġse",
        "par"
      ],
      [
        "Ġp",
        "un"
      ],
      [
        "Ġt",
        "od"
      ],
      [
        "av",
        "es"
      ],
      [
        "Ġh",
        "as"
      ],
      [
        "ar",
        "c"
      ],
      [
        "ach",
        "ed"
      ],
      [
        "Ġp",
        "ast"
      ],
      [
        "Ġs",
        "ay"
      ],
      [
        "Ġadd",
        "ress"
      ],
      [
        "Ġth",
        "is"
      ],
      [
        "and",
        "er"
      ],
      [
        "Ġadd",
        "ition"
      ],
      [
        "Ġcl",
        "im"
      ],
      [
        "Ġhe",
        "av"
      ],
      [
        "ok",
        "es"
      ],
      [
        "Ġbl",
        "ood"
      ],
      [
        "b",
        "i"
      ],
      [
        "Ġu",
        "k"
      ],
      [
        "ail",
        "ed"
      ],
      [
        "Ġaut",
        "om"
      ],
      [
        "Ġb",
        "ul"
      ],
      [
        "st",
        "on"
      ],
      [
        "Ġth",
        "ink"
      ],
      [
        "l",
        "ight"
      ],
      [
        "Ġl",
        "ang"
      ],
      [
        "Ġy",
        "ou"
      ],
      [
        "id",
        "ge"
      ],
      [
        "Ġsm",
        "all"
      ],
      [
        "Ġh",
        "un"
      ],
      [
        "Ġy",
        "ear"
      ],
      [
        "Ġf",
        "oc"
      ],
      [
        "z",
        "a"
      ],
      [
        "Ġb",
        "ab"
      ],
      [
        "is",
        "ti"
      ],
      [
        "x",
        "ic"
      ],
      [
        "Ġrel",
        "ations"
      ],
      [
        "in",
        "ated"
      ],
      [
        "il",
        "ing"
      ],
      [
        "el",
        "ine"
      ],
      [
        "Ġl",
        "iter"
      ],
      [
        "it",
        "ors"
      ],
      [
        "Ġd",
        "raw"
      ],
      [
        "Ġa",
        "ver"
      ],
      [
        "Ġbel",
        "ie"
      ],
      [
        "Ġm",
        "s"
      ],
      [
        "Ġdep",
        "art"
      ],
      [
        "Ġf",
        "air"
      ],
      [
        "f",
        "ort"
      ],
      [
        "Ġsur",
        "pr"
      ],
      [
        "d",
        "a"
      ],
      [
        "Ġterr",
        "or"
      ],
      [
        "c",
        "rib"
      ],
      [
        "Ġinv",
        "est"
      ],
      [
        "ar",
        "ily"
      ],
      [
        "Ġav",
        "ail"
      ],
      [
        "Ġn",
        "ation"
      ],
      [
        "Ġbus",
        "iness"
      ],
      [
        "b",
        "a"
      ],
      [
        "Ġt",
        "est"
      ],
      [
        "l",
        "l"
      ],
      [
        "ve",
        "y"
      ],
      [
        "Ġchr",
        "ist"
      ],
      [
        "Ġr",
        "am"
      ],
      [
        "om",
        "p"
      ],
      [
        "Ġs",
        "ent"
      ],
      [
        "an",
        "ted"
      ],
      [
        "enc",
        "ed"
      ],
      [
        "Ġw",
        "here"
      ],
      [
        "ad",
        "o"
      ],
      [
        "u",
        "ary"
      ],
      [
        "en",
        "a"
      ],
      [
        "Ġg",
        "am"
      ],
      [
        "Ġadmin",
        "ist"
      ],
      [
        "op",
        "er"
      ],
      [
        "Ġd",
        "av"
      ],
      [
        "m",
        "ing"
      ],
      [
        "Ġcl",
        "aim"
      ],
      [
        "Ġv",
        "ide"
      ],
      [
        "Ġar",
        "ri"
      ],
      [
        "Ġj",
        "ack"
      ],
      [
        "en",
        "ch"
      ],
      [
        "Ġcons",
        "ist"
      ],
      [
        "Ġ",
        "its"
      ],
      [
        "Ġpri",
        "or"
      ],
      [
        "ap",
        "t"
      ],
      [
        "k",
        "ins"
      ],
      [
        "l",
        "am"
      ],
      [
        "Ġdoc",
        "ument"
      ],
      [
        "Ġint",
        "ell"
      ],
      [
        "Ġmin",
        "im"
      ],
      [
        "m",
        "m"
      ],
      [
        "Ġh",
        "old"
      ],
      [
        "Ġp",
        "ed"
      ],
      [
        "Ġp",
        "ick"
      ],
      [
        "Ġw",
        "id"
      ],
      [
        "Ġag",
        "re"
      ],
      [
        "Ġhe",
        "art"
      ],
      [
        "Ġes",
        "tim"
      ],
      [
        "Ġr",
        "out"
      ],
      [
        "Ġcons",
        "ider"
      ],
      [
        "o",
        "tion"
      ],
      [
        "Ġse",
        "ver"
      ],
      [
        "Ġr",
        "oll"
      ],
      [
        "g",
        "u"
      ],
      [
        "a",
        "ign"
      ],
      [
        "Ġre",
        "ason"
      ],
      [
        "i",
        "us"
      ],
      [
        "Ġrep",
        "ubl"
      ],
      [
        "amp",
        "le"
      ],
      [
        "ic",
        "ial"
      ],
      [
        "ound",
        "ed"
      ],
      [
        "as",
        "ing"
      ],
      [
        "h",
        "ol"
      ],
      [
        "Ġfir",
        "st"
      ],
      [
        "ot",
        "ed"
      ],
      [
        "ew",
        "s"
      ],
      [
        "Ġl",
        "ink"
      ],
      [
        "d",
        "o"
      ],
      [
        "Ġh",
        "all"
      ],
      [
        "Ġb",
        "urn"
      ],
      [
        "y",
        "le"
      ],
      [
        "ir",
        "es"
      ],
      [
        "Ġb",
        "it"
      ],
      [
        "Ġs",
        "pl"
      ],
      [
        "Ġd",
        "oub"
      ],
      [
        "Ġf",
        "ace"
      ],
      [
        "g",
        "n"
      ],
      [
        "b",
        "ers"
      ],
      [
        "i",
        "ated"
      ],
      [
        "d",
        "r"
      ],
      [
        "Ġc",
        "ut"
      ],
      [
        "Ġresp",
        "ond"
      ],
      [
        "app",
        "ing"
      ],
      [
        "Ġa",
        "ug"
      ],
      [
        "Ġb",
        "omb"
      ],
      [
        "Ġest",
        "abl"
      ],
      [
        "Ġt",
        "s"
      ],
      [
        "Ġcon",
        "duc"
      ],
      [
        "c",
        "i"
      ],
      [
        "i",
        "ber"
      ],
      [
        "Ġb",
        "ow"
      ],
      [
        "Ġl",
        "ov"
      ],
      [
        "rop",
        "ri"
      ],
      [
        "Ġf",
        "ed"
      ],
      [
        "Ġt",
        "rib"
      ],
      [
        "i",
        "ate"
      ],
      [
        "og",
        "en"
      ],
      [
        "Ġl",
        "at"
      ],
      [
        "Ġk",
        "id"
      ],
      [
        "Ġspec",
        "ific"
      ],
      [
        "ag",
        "ue"
      ],
      [
        "ak",
        "ed"
      ],
      [
        "Ġass",
        "ess"
      ],
      [
        "ag",
        "r"
      ],
      [
        "er",
        "a"
      ],
      [
        "Ġtrans",
        "l"
      ],
      [
        "u",
        "ation"
      ],
      [
        "Ġret",
        "urn"
      ],
      [
        "Ġg",
        "all"
      ],
      [
        "Ġsp",
        "ir"
      ],
      [
        "ep",
        "end"
      ],
      [
        "Ġf",
        "rom"
      ],
      [
        "Ġper",
        "iod"
      ],
      [
        "Ġo",
        "h"
      ],
      [
        "Ġad",
        "ver"
      ],
      [
        "Ġ",
        "err"
      ],
      [
        "Ġf",
        "our"
      ],
      [
        "Ġk",
        "ar"
      ],
      [
        "r",
        "el"
      ],
      [
        "g",
        "in"
      ],
      [
        "Ġdis",
        "m"
      ],
      [
        "Ġc",
        "ell"
      ],
      [
        "Ġa",
        "h"
      ],
      [
        "Ġcri",
        "tic"
      ],
      [
        "Ġans",
        "w"
      ],
      [
        "Ġes",
        "p"
      ],
      [
        "o",
        "id"
      ],
      [
        "ak",
        "en"
      ],
      [
        "Ġw",
        "ild"
      ],
      [
        "Ġh",
        "ab"
      ],
      [
        "f",
        "e"
      ],
      [
        "ag",
        "s"
      ],
      [
        "Ġv",
        "ict"
      ],
      [
        "ut",
        "ing"
      ],
      [
        "u",
        "ous"
      ],
      [
        "Ġc",
        "ann"
      ],
      [
        "Ġann",
        "oun"
      ],
      [
        "Ġh",
        "ome"
      ],
      [
        "is",
        "ation"
      ],
      [
        "ac",
        "tions"
      ],
      [
        "ach",
        "ing"
      ],
      [
        "Ġsub",
        "m"
      ],
      [
        "ian",
        "ce"
      ],
      [
        "Ġf",
        "ield"
      ],
      [
        "Ġcol",
        "or"
      ],
      [
        "Ġnumber",
        "number"
      ],
      [
        "Ġcon",
        "vers"
      ],
      [
        "Ġcamp",
        "aign"
      ],
      [
        "Ġne",
        "ar"
      ],
      [
        "Ġc",
        "ateg"
      ],
      [
        "Ġbo",
        "x"
      ],
      [
        "Ġrec",
        "omm"
      ],
      [
        "Ġc",
        "ul"
      ],
      [
        "Ġcomm",
        "on"
      ],
      [
        "Ġy",
        "oun"
      ],
      [
        "Ġinst",
        "all"
      ],
      [
        "Ġw",
        "ay"
      ],
      [
        "Ġv",
        "en"
      ],
      [
        "w",
        "ell"
      ],
      [
        "qu",
        "es"
      ],
      [
        "Ġeu",
        "rop"
      ],
      [
        "Ġb",
        "ott"
      ],
      [
        "c",
        "r"
      ],
      [
        "Ġs",
        "ix"
      ],
      [
        "Ġpe",
        "op"
      ],
      [
        "Ġprogr",
        "amm"
      ],
      [
        "Ġcons",
        "erv"
      ],
      [
        "Ġd",
        "og"
      ],
      [
        "i",
        "en"
      ],
      [
        "Ġv",
        "ar"
      ],
      [
        "al",
        "ized"
      ],
      [
        "on",
        "a"
      ],
      [
        "Ġst",
        "op"
      ],
      [
        "i",
        "at"
      ],
      [
        "Ġen",
        "ti"
      ],
      [
        "Ġl",
        "ou"
      ],
      [
        "ist",
        "an"
      ],
      [
        "x",
        "x"
      ],
      [
        "it",
        "able"
      ],
      [
        "Ġag",
        "ain"
      ],
      [
        "Ġcap",
        "ital"
      ],
      [
        "Ġsim",
        "ilar"
      ],
      [
        "Ġex",
        "pos"
      ],
      [
        "Ġmil",
        "it"
      ],
      [
        "Ġm",
        "ut"
      ],
      [
        "ot",
        "es"
      ],
      [
        "Ġap",
        "pl"
      ],
      [
        "Ġstud",
        "y"
      ],
      [
        "Ġde",
        "al"
      ],
      [
        "Ġbo",
        "ok"
      ],
      [
        "ors",
        "e"
      ],
      [
        "ul",
        "s"
      ],
      [
        "ug",
        "s"
      ],
      [
        "Ġm",
        "ent"
      ],
      [
        "Ġfl",
        "o"
      ],
      [
        "sh",
        "ip"
      ],
      [
        "as",
        "tic"
      ],
      [
        "ly",
        "ing"
      ],
      [
        "Ġpro",
        "b"
      ],
      [
        "Ġd",
        "im"
      ],
      [
        "et",
        "y"
      ],
      [
        "ul",
        "f"
      ],
      [
        "a",
        "ur"
      ],
      [
        "Ġsub",
        "st"
      ],
      [
        "Ġleg",
        "isl"
      ],
      [
        "Ġr",
        "od"
      ],
      [
        "Ġj",
        "ob"
      ],
      [
        "Ġd",
        "ata"
      ],
      [
        "Ġcele",
        "br"
      ],
      [
        "Ġf",
        "ut"
      ],
      [
        "ri",
        "ed"
      ],
      [
        "Ġref",
        "l"
      ],
      [
        "Ġla",
        "ugh"
      ],
      [
        "Ġw",
        "est"
      ],
      [
        "hip",
        "s"
      ],
      [
        "Ġal",
        "b"
      ],
      [
        "Ġs",
        "ac"
      ],
      [
        "ip",
        "ped"
      ],
      [
        "Ġex",
        "press"
      ],
      [
        "Ġst",
        "ory"
      ],
      [
        "Ġh",
        "ere"
      ],
      [
        "Ġint",
        "roduc"
      ],
      [
        "Ġs",
        "ide"
      ],
      [
        "p",
        "ut"
      ],
      [
        "Ġprogr",
        "ess"
      ],
      [
        "resp",
        "ond"
      ],
      [
        "ici",
        "ent"
      ],
      [
        "Ġtex",
        "t"
      ],
      [
        "Ġinter",
        "view"
      ],
      [
        "Ġz",
        "h"
      ],
      [
        "Ġc",
        "aus"
      ],
      [
        "Ġwh",
        "e"
      ],
      [
        "Ġsur",
        "f"
      ],
      [
        "Ġdem",
        "ocr"
      ],
      [
        "Ġconf",
        "l"
      ],
      [
        "od",
        "es"
      ],
      [
        "g",
        "a"
      ],
      [
        "is",
        "ions"
      ],
      [
        "z",
        "y"
      ],
      [
        "o",
        "h"
      ],
      [
        "om",
        "an"
      ],
      [
        "Ġconf",
        "ir"
      ],
      [
        "Ġde",
        "ath"
      ],
      [
        "Ġsh",
        "r"
      ],
      [
        "Ġn",
        "ecess"
      ],
      [
        "ativ",
        "ely"
      ],
      [
        "ag",
        "ement"
      ],
      [
        "Ġcor",
        "respond"
      ],
      [
        "Ġfri",
        "end"
      ],
      [
        "th",
        "ers"
      ],
      [
        "Ġass",
        "ist"
      ],
      [
        "os",
        "ed"
      ],
      [
        "Ġthr",
        "ough"
      ],
      [
        "Ġm",
        "ort"
      ],
      [
        "Ġdel",
        "iver"
      ],
      [
        "Ġw",
        "arm"
      ],
      [
        "Ġbe",
        "f"
      ],
      [
        "gr",
        "ound"
      ],
      [
        "Ġcons",
        "um"
      ],
      [
        "Ġre",
        "ve"
      ],
      [
        "it",
        "a"
      ],
      [
        "Ġqu",
        "ick"
      ],
      [
        "o",
        "es"
      ],
      [
        "Ġl",
        "ock"
      ],
      [
        "ab",
        "il"
      ],
      [
        "Ġw",
        "al"
      ],
      [
        "u",
        "als"
      ],
      [
        "em",
        "an"
      ],
      [
        "Ġqu",
        "e"
      ],
      [
        "Ġciv",
        "il"
      ],
      [
        "Ġpre",
        "par"
      ],
      [
        "Ġal",
        "tern"
      ],
      [
        "pr",
        "ec"
      ],
      [
        "i",
        "que"
      ],
      [
        "Ġy",
        "ears"
      ],
      [
        "Ġres",
        "ist"
      ],
      [
        "Ġe",
        "arn"
      ],
      [
        "l",
        "ers"
      ],
      [
        "Ġanalys",
        "is"
      ],
      [
        "el",
        "ves"
      ],
      [
        "d",
        "le"
      ],
      [
        "Ġind",
        "epend"
      ],
      [
        "Ġs",
        "ett"
      ],
      [
        "r",
        "ay"
      ],
      [
        "c",
        "rip"
      ],
      [
        "Ġst",
        "atis"
      ],
      [
        "Ġd",
        "id"
      ],
      [
        "Ġval",
        "id"
      ],
      [
        "ro",
        "ph"
      ],
      [
        "Ġtar",
        "get"
      ],
      [
        "Ġf",
        "ol"
      ],
      [
        "ot",
        "yp"
      ],
      [
        "ber",
        "t"
      ],
      [
        "as",
        "ion"
      ],
      [
        "Ġk",
        "ick"
      ],
      [
        "Ġd",
        "ark"
      ],
      [
        "Ġf",
        "le"
      ],
      [
        "Ġen",
        "h"
      ],
      [
        "Ġ",
        "old"
      ],
      [
        "et",
        "r"
      ],
      [
        "Ġf",
        "u"
      ],
      [
        "Ġdisc",
        "over"
      ],
      [
        "ro",
        "g"
      ],
      [
        "ment",
        "al"
      ],
      [
        "Ġw",
        "arn"
      ],
      [
        "Ġk",
        "ind"
      ],
      [
        "ac",
        "ted"
      ],
      [
        "z",
        "ed"
      ],
      [
        "Ġwe",
        "ak"
      ],
      [
        "ol",
        "er"
      ],
      [
        "Ġm",
        "and"
      ],
      [
        "ism",
        "s"
      ],
      [
        "Ġm",
        "ath"
      ],
      [
        "Ġac",
        "ad"
      ],
      [
        "Ġjo",
        "hn"
      ],
      [
        "Ġam",
        "az"
      ],
      [
        "Ġt",
        "our"
      ],
      [
        "Ġh",
        "ad"
      ],
      [
        "Ġdi",
        "agn"
      ],
      [
        "Ġb",
        "ed"
      ],
      [
        "Ġc",
        "ast"
      ],
      [
        "Ġb",
        "and"
      ],
      [
        "Ġimp",
        "lement"
      ],
      [
        "Ġp",
        "ict"
      ],
      [
        "Ġstr",
        "ength"
      ],
      [
        "h",
        "ouse"
      ],
      [
        "c",
        "ast"
      ],
      [
        "Ġsoc",
        "ial"
      ],
      [
        "ot",
        "a"
      ],
      [
        "ul",
        "a"
      ],
      [
        "Ġcle",
        "an"
      ],
      [
        "Ġtem",
        "per"
      ],
      [
        "er",
        "ve"
      ],
      [
        "Ġrepubl",
        "ic"
      ],
      [
        "Ġdis",
        "cl"
      ],
      [
        "Ġbl",
        "og"
      ],
      [
        "Ġtrans",
        "form"
      ],
      [
        "Ġsc",
        "en"
      ],
      [
        "Ġcon",
        "clus"
      ],
      [
        "il",
        "t"
      ],
      [
        "th",
        "ing"
      ],
      [
        "Ġgre",
        "at"
      ],
      [
        "ic",
        "ted"
      ],
      [
        "Ġsch",
        "ool"
      ],
      [
        "igh",
        "ting"
      ],
      [
        "Ġs",
        "or"
      ],
      [
        "ul",
        "ating"
      ],
      [
        "Ġocc",
        "up"
      ],
      [
        "id",
        "ents"
      ],
      [
        "c",
        "on"
      ],
      [
        "Ġpur",
        "pos"
      ],
      [
        "Ġfre",
        "qu"
      ],
      [
        "Ġv",
        "an"
      ],
      [
        "in",
        "der"
      ],
      [
        "inn",
        "ing"
      ],
      [
        "Ġn",
        "ut"
      ],
      [
        "Ġd",
        "yn"
      ],
      [
        "Ġne",
        "g"
      ],
      [
        "ell",
        "a"
      ],
      [
        "Ġcand",
        "id"
      ],
      [
        "Ġde",
        "ep"
      ],
      [
        "u",
        "ing"
      ],
      [
        "Ġg",
        "ri"
      ],
      [
        "Ġd",
        "ur"
      ],
      [
        "Ġa",
        "k"
      ],
      [
        "is",
        "p"
      ],
      [
        "Ġacc",
        "ount"
      ],
      [
        "Ġchall",
        "eng"
      ],
      [
        "Ġt",
        "es"
      ],
      [
        "Ġcl",
        "ar"
      ],
      [
        "Ġp",
        "or"
      ],
      [
        "uf",
        "act"
      ],
      [
        "Ġhy",
        "d"
      ],
      [
        "r",
        "is"
      ],
      [
        "Ġcomp",
        "lex"
      ],
      [
        "Ġp",
        "ut"
      ],
      [
        "i",
        "el"
      ],
      [
        "atis",
        "f"
      ],
      [
        "Ġla",
        "unch"
      ],
      [
        "Ġev",
        "ent"
      ],
      [
        "Ġm",
        "oun"
      ],
      [
        "Ġh",
        "aw"
      ],
      [
        "n",
        "n"
      ],
      [
        "m",
        "ark"
      ],
      [
        "Ġmar",
        "t"
      ],
      [
        "Ġpros",
        "ec"
      ],
      [
        "Ġp",
        "itch"
      ],
      [
        "Ġd",
        "ar"
      ],
      [
        "Ġw",
        "it"
      ],
      [
        "c",
        "ome"
      ],
      [
        "Ġman",
        "ufact"
      ],
      [
        "Ġth",
        "ey"
      ],
      [
        "Ġpro",
        "j"
      ],
      [
        "Ġgr",
        "oup"
      ],
      [
        "Ġj",
        "er"
      ],
      [
        "Ġwe",
        "b"
      ],
      [
        "Ġr",
        "ot"
      ],
      [
        "Ġl",
        "ob"
      ],
      [
        "end",
        "ers"
      ],
      [
        "Ġfav",
        "or"
      ],
      [
        "Ġm",
        "m"
      ],
      [
        "Ġmon",
        "t"
      ],
      [
        "Ġpr",
        "et"
      ],
      [
        "Ġper",
        "f"
      ],
      [
        "Ġst",
        "ate"
      ],
      [
        "ed",
        "ing"
      ],
      [
        "Ġk",
        "ing"
      ],
      [
        "Ġwon",
        "der"
      ],
      [
        "ur",
        "ch"
      ],
      [
        "Ġh",
        "os"
      ],
      [
        "a",
        "ult"
      ],
      [
        "Ġf",
        "ood"
      ],
      [
        "Ġo",
        "f"
      ],
      [
        "Ġpo",
        "int"
      ],
      [
        "Ġreg",
        "ard"
      ],
      [
        "ra",
        "ft"
      ],
      [
        "b",
        "ed"
      ],
      [
        "ens",
        "es"
      ],
      [
        "Ġb",
        "at"
      ],
      [
        "Ġb",
        "on"
      ],
      [
        "Ġthre",
        "at"
      ],
      [
        "Ġsh",
        "ut"
      ],
      [
        "ri",
        "a"
      ],
      [
        "Ġdef",
        "in"
      ],
      [
        "Ġmag",
        "n"
      ],
      [
        "ill",
        "ed"
      ],
      [
        "Ġfl",
        "u"
      ],
      [
        "k",
        "ed"
      ],
      [
        "um",
        "ents"
      ],
      [
        "k",
        "ey"
      ],
      [
        "Ġh",
        "ous"
      ],
      [
        "Ġg",
        "a"
      ],
      [
        "Ġex",
        "tr"
      ],
      [
        "Ġh",
        "ouse"
      ],
      [
        "Ġg",
        "ame"
      ],
      [
        "Ġres",
        "ults"
      ],
      [
        "om",
        "a"
      ],
      [
        "Ġm",
        "erc"
      ],
      [
        "Ġfr",
        "anc"
      ],
      [
        "Ġgr",
        "aph"
      ],
      [
        "h",
        "s"
      ],
      [
        "Ġl",
        "ad"
      ],
      [
        "d",
        "y"
      ],
      [
        "Ġs",
        "ti"
      ],
      [
        "Ġfr",
        "ank"
      ],
      [
        "umb",
        "ers"
      ],
      [
        "ol",
        "a"
      ],
      [
        "Ġn",
        "ational"
      ],
      [
        "in",
        "y"
      ],
      [
        "Ġgu",
        "ard"
      ],
      [
        "Ġl",
        "u"
      ],
      [
        "Ġd",
        "rop"
      ],
      [
        "r",
        "s"
      ],
      [
        "Ġfre",
        "e"
      ],
      [
        "rol",
        "l"
      ],
      [
        "Ġadver",
        "tis"
      ],
      [
        "Ġwr",
        "ong"
      ],
      [
        "el",
        "and"
      ],
      [
        "Ġdom",
        "in"
      ],
      [
        "Ġse",
        "arch"
      ],
      [
        "m",
        "on"
      ],
      [
        "Ġhy",
        "per"
      ],
      [
        "at",
        "ers"
      ],
      [
        "Ġref",
        "orm"
      ],
      [
        "in",
        "er"
      ],
      [
        "Ġan",
        "t"
      ],
      [
        "iet",
        "y"
      ],
      [
        "Ġse",
        "e"
      ],
      [
        "Ġ",
        "if"
      ],
      [
        "Ġt",
        "own"
      ],
      [
        "Ġqu",
        "arter"
      ],
      [
        "in",
        "ter"
      ],
      [
        "et",
        "ers"
      ],
      [
        "ill",
        "ing"
      ],
      [
        "Ġrest",
        "ric"
      ],
      [
        "Ġn",
        "ic"
      ],
      [
        "h",
        "o"
      ],
      [
        "w",
        "ar"
      ],
      [
        "Ġph",
        "en"
      ],
      [
        "Ġsm",
        "art"
      ],
      [
        "Ġsup",
        "por"
      ],
      [
        "on",
        "ic"
      ],
      [
        "Ġb",
        "an"
      ],
      [
        "Ġas",
        "h"
      ],
      [
        "Ġacc",
        "ur"
      ],
      [
        "Ġinter",
        "est"
      ],
      [
        "Ġear",
        "th"
      ],
      [
        "as",
        "ting"
      ],
      [
        "Ġh",
        "ell"
      ],
      [
        "om",
        "pl"
      ],
      [
        "Ġrec",
        "over"
      ],
      [
        "Ġor",
        "der"
      ],
      [
        "anc",
        "ing"
      ],
      [
        "Ġprof",
        "ession"
      ],
      [
        "Ġse",
        "g"
      ],
      [
        "up",
        "s"
      ],
      [
        "Ġrem",
        "ov"
      ],
      [
        "s",
        "o"
      ],
      [
        "Ġcoun",
        "tr"
      ],
      [
        "Ġen",
        "j"
      ],
      [
        "Ġc",
        "e"
      ],
      [
        "Ġchr",
        "isti"
      ],
      [
        "Ġup",
        "s"
      ],
      [
        "Ġs",
        "ound"
      ],
      [
        "Ġlab",
        "or"
      ],
      [
        "Ġs",
        "ong"
      ],
      [
        "Ġacad",
        "em"
      ],
      [
        "Ġfr",
        "ont"
      ],
      [
        "re",
        "h"
      ],
      [
        "cl",
        "es"
      ],
      [
        "Ġh",
        "u"
      ],
      [
        "us",
        "ing"
      ],
      [
        "Ġhel",
        "p"
      ],
      [
        "b",
        "it"
      ],
      [
        "Ġm",
        "ost"
      ],
      [
        "Ġc",
        "ab"
      ],
      [
        "go",
        "ti"
      ],
      [
        "olog",
        "ist"
      ],
      [
        "ib",
        "ly"
      ],
      [
        "Ġst",
        "aff"
      ],
      [
        "Ġa",
        "ge"
      ],
      [
        "Ġp",
        "ac"
      ],
      [
        "Ġf",
        "at"
      ],
      [
        "ur",
        "a"
      ],
      [
        "ep",
        "h"
      ],
      [
        "Ġsec",
        "ret"
      ],
      [
        "r",
        "ing"
      ],
      [
        "Ġhe",
        "ar"
      ],
      [
        "ord",
        "ers"
      ],
      [
        "Ġt",
        "ac"
      ],
      [
        "Ġger",
        "man"
      ],
      [
        "Ġinter",
        "pr"
      ],
      [
        "i",
        "ant"
      ],
      [
        "Ġatt",
        "rib"
      ],
      [
        "y",
        "t"
      ],
      [
        "Ġdec",
        "re"
      ],
      [
        "Ġne",
        "goti"
      ],
      [
        "Ġc",
        "ou"
      ],
      [
        "Ġin",
        "str"
      ],
      [
        "tif",
        "ied"
      ],
      [
        "Ġsn",
        "ow"
      ],
      [
        "Ġrep",
        "e"
      ],
      [
        "Ġd",
        "ivers"
      ],
      [
        "Ġar",
        "ab"
      ],
      [
        "Ġ",
        "tick"
      ],
      [
        "Ġis",
        "lam"
      ],
      [
        "c",
        "er"
      ],
      [
        "Ġpro",
        "te"
      ],
      [
        "Ġgr",
        "ou"
      ],
      [
        "ur",
        "ity"
      ],
      [
        "Ġcon",
        "struc"
      ],
      [
        "h",
        "i"
      ],
      [
        "Ġp",
        "u"
      ],
      [
        "Ġcom",
        "plic"
      ],
      [
        "ch",
        "ar"
      ],
      [
        "p",
        "ly"
      ],
      [
        "ast",
        "e"
      ],
      [
        "Ġexper",
        "iment"
      ],
      [
        "Ġbre",
        "ath"
      ],
      [
        "Ġb",
        "io"
      ],
      [
        "Ġpoli",
        "tic"
      ],
      [
        "id",
        "el"
      ],
      [
        "Ġle",
        "vel"
      ],
      [
        "Ġres",
        "our"
      ],
      [
        "Ġconc",
        "ent"
      ],
      [
        "Ġh",
        "av"
      ],
      [
        "Ġar",
        "t"
      ],
      [
        "Ġout",
        "l"
      ],
      [
        "as",
        "ons"
      ],
      [
        "Ġmar",
        "ch"
      ],
      [
        "ep",
        "s"
      ],
      [
        "Ġs",
        "elf"
      ],
      [
        "Ġp",
        "ip"
      ],
      [
        "ol",
        "ic"
      ],
      [
        "ol",
        "f"
      ],
      [
        "el",
        "ed"
      ],
      [
        "Ġsh",
        "ould"
      ],
      [
        "Ġcons",
        "equ"
      ],
      [
        "Ġth",
        "ough"
      ],
      [
        "Ġm",
        "aster"
      ],
      [
        "Ġf",
        "ab"
      ],
      [
        "Ġw",
        "arr"
      ],
      [
        "ic",
        "ul"
      ],
      [
        "Ġwe",
        "bs"
      ],
      [
        "Ġ",
        "iv"
      ],
      [
        "ish",
        "es"
      ],
      [
        "Ġper",
        "cent"
      ],
      [
        "Ġcomp",
        "eti"
      ],
      [
        "Ġacc",
        "ord"
      ],
      [
        "Ġr",
        "ig"
      ],
      [
        "on",
        "ed"
      ],
      [
        "kn",
        "owled"
      ],
      [
        "Ġf",
        "ast"
      ],
      [
        "us",
        "ter"
      ],
      [
        "Ġpar",
        "am"
      ],
      [
        "Ġb",
        "ag"
      ],
      [
        "Ġexp",
        "ect"
      ],
      [
        "Ġinn",
        "ov"
      ],
      [
        "Ġs",
        "ad"
      ],
      [
        "Ġd",
        "a"
      ],
      [
        "w",
        "s"
      ],
      [
        "c",
        "ing"
      ],
      [
        "l",
        "an"
      ],
      [
        "ic",
        "ate"
      ],
      [
        "Ġhist",
        "or"
      ],
      [
        "Ġs",
        "ust"
      ],
      [
        "n",
        "ed"
      ],
      [
        "Ġt",
        "alk"
      ],
      [
        "Ġbr",
        "and"
      ],
      [
        "Ġneigh",
        "b"
      ],
      [
        "Ġl",
        "uc"
      ],
      [
        "Ġc",
        "itiz"
      ],
      [
        "Ġdep",
        "end"
      ],
      [
        "Ġob",
        "l"
      ],
      [
        "ap",
        "y"
      ],
      [
        "Ġbo",
        "y"
      ],
      [
        "Ġp",
        "od"
      ],
      [
        "v",
        "ement"
      ],
      [
        "m",
        "ar"
      ],
      [
        "Ġunivers",
        "ity"
      ],
      [
        "ic",
        "ult"
      ],
      [
        "Ġc",
        "ro"
      ],
      [
        "Ġmaj",
        "or"
      ],
      [
        "Ġp",
        "enn"
      ],
      [
        "p",
        "a"
      ],
      [
        "on",
        "ym"
      ],
      [
        "Ġac",
        "knowled"
      ],
      [
        "Ġinc",
        "or"
      ],
      [
        "ub",
        "s"
      ],
      [
        "Ġimm",
        "un"
      ],
      [
        "i",
        "ro"
      ],
      [
        "Ġw",
        "el"
      ],
      [
        "Ġem",
        "ph"
      ],
      [
        "x",
        "im"
      ],
      [
        "t",
        "c"
      ],
      [
        "til",
        "l"
      ],
      [
        "Ġf",
        "ull"
      ],
      [
[...]
